<?xml version="1.0"?>
<MethodSetup Method="BDT::BDTG">
  <GeneralInfo>
    <Info name="TMVA Release" value="4.2.0 [262656]"/>
    <Info name="ROOT Release" value="6.02/05 [393733]"/>
    <Info name="Creator" value="kelmorab"/>
    <Info name="Date" value="Sat Apr  1 12:18:26 2017"/>
    <Info name="Host" value="Linux cmsbuild12.cern.ch 2.6.32-573.7.1.el6.x86_64 #1 SMP Wed Sep 23 10:12:03 CEST 2015 x86_64 x86_64 x86_64 GNU/Linux"/>
    <Info name="Dir" value="/nfs/dust/cms/user/kelmorab/Spring17Training/3makeHistosAndCards"/>
    <Info name="Training events" value="127094"/>
    <Info name="TrainingTime" value="2.98514869e+02"/>
    <Info name="AnalysisType" value="Classification"/>
  </GeneralInfo>
  <Options>
    <Option name="V" modified="Yes">False</Option>
    <Option name="VerbosityLevel" modified="No">Default</Option>
    <Option name="VarTransform" modified="No">None</Option>
    <Option name="H" modified="Yes">False</Option>
    <Option name="CreateMVAPdfs" modified="No">False</Option>
    <Option name="IgnoreNegWeightsInTraining" modified="No">False</Option>
    <Option name="NTrees" modified="Yes">952</Option>
    <Option name="MaxDepth" modified="Yes">2</Option>
    <Option name="MinNodeSize" modified="No">5%</Option>
    <Option name="nCuts" modified="Yes">48</Option>
    <Option name="BoostType" modified="Yes">Grad</Option>
    <Option name="AdaBoostR2Loss" modified="No">quadratic</Option>
    <Option name="UseBaggedBoost" modified="Yes">True</Option>
    <Option name="Shrinkage" modified="Yes">2.480000e-02</Option>
    <Option name="AdaBoostBeta" modified="No">5.000000e-01</Option>
    <Option name="UseRandomisedTrees" modified="No">False</Option>
    <Option name="UseNvars" modified="No">3</Option>
    <Option name="UsePoissonNvars" modified="No">True</Option>
    <Option name="BaggedSampleFraction" modified="No">3.650000e-01</Option>
    <Option name="UseYesNoLeaf" modified="No">True</Option>
    <Option name="NegWeightTreatment" modified="Yes">ignorenegweightsintraining</Option>
    <Option name="Css" modified="No">1.000000e+00</Option>
    <Option name="Cts_sb" modified="No">1.000000e+00</Option>
    <Option name="Ctb_ss" modified="No">1.000000e+00</Option>
    <Option name="Cbb" modified="No">1.000000e+00</Option>
    <Option name="NodePurityLimit" modified="No">5.000000e-01</Option>
    <Option name="SeparationType" modified="No">giniindex</Option>
    <Option name="DoBoostMonitor" modified="No">False</Option>
    <Option name="UseFisherCuts" modified="No">False</Option>
    <Option name="MinLinCorrForFisher" modified="No">8.000000e-01</Option>
    <Option name="UseExclusiveVars" modified="No">False</Option>
    <Option name="DoPreselection" modified="No">False</Option>
    <Option name="SigToBkgFraction" modified="No">1.000000e+00</Option>
    <Option name="PruneMethod" modified="No">nopruning</Option>
    <Option name="PruneStrength" modified="No">0.000000e+00</Option>
    <Option name="PruningValFraction" modified="No">5.000000e-01</Option>
    <Option name="nEventsMin" modified="No">0</Option>
    <Option name="UseBaggedGrad" modified="No">False</Option>
    <Option name="GradBaggingFraction" modified="Yes">3.650000e-01</Option>
    <Option name="UseNTrainEvents" modified="No">0</Option>
    <Option name="NNodesMax" modified="No">0</Option>
  </Options>
  <Variables NVar="10">
    <Variable VarIndex="0" Expression="dr_between_lep_and_closest_jet" Label="dr_between_lep_and_closest_jet" Title="dr_between_lep_and_closest_jet" Unit="" Internal="dr_between_lep_and_closest_jet" Type="F" Min="4.00006503e-01" Max="3.48353934e+00"/>
    <Variable VarIndex="1" Expression="all_sum_pt_with_met" Label="all_sum_pt_with_met" Title="all_sum_pt_with_met" Unit="" Internal="all_sum_pt_with_met" Type="F" Min="2.17929871e+02" Max="3.03867090e+03"/>
    <Variable VarIndex="2" Expression="maxeta_jet_jet" Label="maxeta_jet_jet" Title="maxeta_jet_jet" Unit="" Internal="maxeta_jet_jet" Type="F" Min="3.59452032e-02" Max="1.81548250e+00"/>
    <Variable VarIndex="3" Expression="fourth_highest_btag" Label="fourth_highest_btag" Title="fourth_highest_btag" Unit="" Internal="fourth_highest_btag" Type="F" Min="-1.00000001e-01" Max="8.48399997e-01"/>
    <Variable VarIndex="4" Expression="MHT" Label="MHT" Title="MHT" Unit="" Internal="MHT" Type="F" Min="8.58378038e-02" Max="8.34646790e+02"/>
    <Variable VarIndex="5" Expression="avg_dr_tagged_jets" Label="avg_dr_tagged_jets" Title="avg_dr_tagged_jets" Unit="" Internal="avg_dr_tagged_jets" Type="F" Min="4.64177489e-01" Max="4.16148472e+00"/>
    <Variable VarIndex="6" Expression="blr_transformed" Label="blr_transformed" Title="blr_transformed" Unit="" Internal="blr_transformed" Type="F" Min="-5.74234724e+00" Max="8.32929325e+00"/>
    <Variable VarIndex="7" Expression="h1" Label="h1" Title="h1" Unit="" Internal="h1" Type="F" Min="-1.98723048e-01" Max="3.67662162e-01"/>
    <Variable VarIndex="8" Expression="tagged_dijet_mass_closest_to_125" Label="tagged_dijet_mass_closest_to_125" Title="tagged_dijet_mass_closest_to_125" Unit="" Internal="tagged_dijet_mass_closest_to_125" Type="F" Min="-9.90000000e+01" Max="3.48627380e+02"/>
    <Variable VarIndex="9" Expression="closest_tagged_dijet_mass" Label="closest_tagged_dijet_mass" Title="closest_tagged_dijet_mass" Unit="" Internal="closest_tagged_dijet_mass" Type="F" Min="1.70358639e+01" Max="1.22306213e+03"/>
  </Variables>
  <Spectators NSpec="0"/>
  <Classes NClass="2">
    <Class Name="Signal" Index="0"/>
    <Class Name="Background" Index="1"/>
  </Classes>
  <Transformations NTransformations="0"/>
  <MVAPdfs/>
  <Weights NTrees="952" AnalysisType="1">
    <BinaryTree type="DecisionTree" boostWeight="1.0000000000000000e+00" itree="0">
      <Node pos="s" depth="0" NCoef="0" IVar="6" Cut="2.8599059581756592e+00" cType="1" res="-5.5764045100659132e-04" rms="4.9999970197677612e-01" purity="4.9944236874580383e-01" nType="0">
        <Node pos="l" depth="1" NCoef="0" IVar="1" Cut="4.6333340454101562e+02" cType="1" res="-1.2543742358684540e-01" rms="4.8400977253913879e-01" purity="3.7456259131431580e-01" nType="0">
          <Node pos="l" depth="2" NCoef="0" IVar="-1" Cut="0.0000000000000000e+00" cType="1" res="-8.4038414061069489e-03" rms="4.4811663031578064e-01" purity="2.7820846438407898e-01" nType="-99"/>
          <Node pos="r" depth="2" NCoef="0" IVar="-1" Cut="0.0000000000000000e+00" cType="1" res="-2.0941975526511669e-03" rms="4.9525418877601624e-01" purity="4.3127375841140747e-01" nType="-99"/>
        </Node>
        <Node pos="r" depth="1" NCoef="0" IVar="6" Cut="4.1942176818847656e+00" cType="1" res="1.3615229725837708e-01" rms="4.8110556602478027e-01" purity="6.3615226745605469e-01" nType="0">
          <Node pos="l" depth="2" NCoef="0" IVar="-1" Cut="0.0000000000000000e+00" cType="1" res="1.4781331410631537e-03" rms="4.9648261070251465e-01" purity="5.5920326709747314e-01" nType="-99"/>
          <Node pos="r" depth="2" NCoef="0" IVar="-1" Cut="0.0000000000000000e+00" cType="1" res="4.9579301849007607e-03" rms="4.3855115771293640e-01" purity="7.4015182256698608e-01" nType="-99"/>
        </Node>
      </Node>
    </BinaryTree>
    <BinaryTree type="DecisionTree" boostWeight="1.0000000000000000e+00" itree="1">
      <Node pos="s" depth="0" NCoef="0" IVar="6" Cut="3.0833125114440918e+00" cType="1" res="-1.4162174193188548e-04" rms="4.9931380152702332e-01" purity="4.9939510226249695e-01" nType="0">
        <Node pos="l" depth="1" NCoef="0" IVar="1" Cut="4.9956903076171875e+02" cType="1" res="-1.1582956463098526e-01" rms="4.8564451932907104e-01" purity="3.8222965598106384e-01" nType="0">
          <Node pos="l" depth="2" NCoef="0" IVar="-1" Cut="0.0000000000000000e+00" cType="1" res="-7.5269248336553574e-03" rms="4.5531743764877319e-01" purity="2.9373243451118469e-01" nType="-99"/>
          <Node pos="r" depth="2" NCoef="0" IVar="-1" Cut="0.0000000000000000e+00" cType="1" res="-1.1656724382191896e-03" rms="4.9829319119453430e-01" purity="4.5931926369667053e-01" nType="-99"/>
        </Node>
        <Node pos="r" depth="1" NCoef="0" IVar="5" Cut="2.5859148502349854e+00" cType="1" res="1.5772859752178192e-01" rms="4.7381475567817688e-01" purity="6.5928155183792114e-01" nType="0">
          <Node pos="l" depth="2" NCoef="0" IVar="-1" Cut="0.0000000000000000e+00" cType="1" res="4.0384046733379364e-03" rms="4.6272906661033630e-01" purity="6.8910247087478638e-01" nType="-99"/>
          <Node pos="r" depth="2" NCoef="0" IVar="-1" Cut="0.0000000000000000e+00" cType="1" res="-1.1561715509742498e-03" rms="4.9834454059600830e-01" purity="4.6135881543159485e-01" nType="-99"/>
        </Node>
      </Node>
    </BinaryTree>
    <BinaryTree type="DecisionTree" boostWeight="1.0000000000000000e+00" itree="2">
      <Node pos="s" depth="0" NCoef="0" IVar="6" Cut="3.1601192951202393e+00" cType="1" res="-2.7080540894530714e-04" rms="4.9862655997276306e-01" purity="4.9872177839279175e-01" nType="0">
        <Node pos="l" depth="1" NCoef="0" IVar="1" Cut="4.9051751708984375e+02" cType="1" res="-1.0454889386892319e-01" rms="4.8749041557312012e-01" purity="3.9165571331977844e-01" nType="0">
          <Node pos="l" depth="2" NCoef="0" IVar="-1" Cut="0.0000000000000000e+00" cType="1" res="-7.2727161459624767e-03" rms="4.5558679103851318e-01" purity="2.9461145401000977e-01" nType="-99"/>
          <Node pos="r" depth="2" NCoef="0" IVar="-1" Cut="0.0000000000000000e+00" cType="1" res="-8.7530788732692599e-04" rms="4.9888494610786438e-01" purity="4.6817359328269958e-01" nType="-99"/>
        </Node>
        <Node pos="r" depth="1" NCoef="0" IVar="5" Cut="2.5316882133483887e+00" cType="1" res="1.5855993330478668e-01" rms="4.7282677888870239e-01" purity="6.6179895401000977e-01" nType="0">
          <Node pos="l" depth="2" NCoef="0" IVar="-1" Cut="0.0000000000000000e+00" cType="1" res="4.1183312423527241e-03" rms="4.5976829528808594e-01" purity="6.9620513916015625e-01" nType="-99"/>
          <Node pos="r" depth="2" NCoef="0" IVar="-1" Cut="0.0000000000000000e+00" cType="1" res="-3.3078703563660383e-04" rms="4.9968409538269043e-01" purity="4.8926171660423279e-01" nType="-99"/>
        </Node>
      </Node>
    </BinaryTree>
    <BinaryTree type="DecisionTree" boostWeight="1.0000000000000000e+00" itree="3">
      <Node pos="s" depth="0" NCoef="0" IVar="6" Cut="2.7588536739349365e+00" cType="1" res="4.4983015395700932e-03" rms="4.9798101186752319e-01" purity="5.0311195850372314e-01" nType="0">
        <Node pos="l" depth="1" NCoef="0" IVar="1" Cut="4.5224261474609375e+02" cType="1" res="-1.2475269287824631e-01" rms="4.8175454139709473e-01" purity="3.6912733316421509e-01" nType="0">
          <Node pos="l" depth="2" NCoef="0" IVar="-1" Cut="0.0000000000000000e+00" cType="1" res="-9.7299413755536079e-03" rms="4.3108198046684265e-01" purity="2.4668534100055695e-01" nType="-99"/>
          <Node pos="r" depth="2" NCoef="0" IVar="-1" Cut="0.0000000000000000e+00" cType="1" res="-2.0026462152600288e-03" rms="4.9497586488723755e-01" purity="4.3064638972282410e-01" nType="-99"/>
        </Node>
        <Node pos="r" depth="1" NCoef="0" IVar="6" Cut="4.3504791259765625e+00" cType="1" res="1.3398297131061554e-01" rms="4.8000958561897278e-01" purity="6.3733875751495361e-01" nType="0">
          <Node pos="l" depth="2" NCoef="0" IVar="-1" Cut="0.0000000000000000e+00" cType="1" res="1.8782624974846840e-03" rms="4.9310785531997681e-01" purity="5.7929223775863647e-01" nType="-99"/>
          <Node pos="r" depth="2" NCoef="0" IVar="-1" Cut="0.0000000000000000e+00" cType="1" res="4.9738157540559769e-03" rms="4.3337562680244446e-01" purity="7.4893581867218018e-01" nType="-99"/>
        </Node>
      </Node>
    </BinaryTree>
    <BinaryTree type="DecisionTree" boostWeight="1.0000000000000000e+00" itree="4">
      <Node pos="s" depth="0" NCoef="0" IVar="6" Cut="3.4455051422119141e+00" cType="1" res="-1.5570804243907332e-03" rms="4.9734517931938171e-01" purity="4.9657788872718811e-01" nType="0">
        <Node pos="l" depth="1" NCoef="0" IVar="1" Cut="5.5288586425781250e+02" cType="1" res="-8.9528165757656097e-02" rms="4.8931464552879333e-01" purity="4.0416997671127319e-01" nType="0">
          <Node pos="l" depth="2" NCoef="0" IVar="-1" Cut="0.0000000000000000e+00" cType="1" res="-5.3901695646345615e-03" rms="4.7068485617637634e-01" purity="3.3468076586723328e-01" nType="-99"/>
          <Node pos="r" depth="2" NCoef="0" IVar="-1" Cut="0.0000000000000000e+00" cType="1" res="1.6844060155563056e-04" rms="4.9972775578498840e-01" purity="5.0438171625137329e-01" nType="-99"/>
        </Node>
        <Node pos="r" depth="1" NCoef="0" IVar="5" Cut="2.5316882133483887e+00" cType="1" res="1.7090293765068054e-01" rms="4.6687409281730652e-01" purity="6.7773586511611938e-01" nType="0">
          <Node pos="l" depth="2" NCoef="0" IVar="-1" Cut="0.0000000000000000e+00" cType="1" res="4.3060029856860638e-03" rms="4.5341786742210388e-01" purity="7.1031177043914795e-01" nType="-99"/>
          <Node pos="r" depth="2" NCoef="0" IVar="-1" Cut="0.0000000000000000e+00" cType="1" res="1.5620380509062670e-05" rms="4.9969258904457092e-01" purity="5.0370007753372192e-01" nType="-99"/>
        </Node>
      </Node>
    </BinaryTree>
    <BinaryTree type="DecisionTree" boostWeight="1.0000000000000000e+00" itree="5">
      <Node pos="s" depth="0" NCoef="0" IVar="6" Cut="3.4074778556823730e+00" cType="1" res="-8.9436286998534342e-07" rms="4.9678802490234375e-01" purity="4.9782022833824158e-01" nType="0">
        <Node pos="l" depth="1" NCoef="0" IVar="1" Cut="4.4384628295898438e+02" cType="1" res="-9.1084785759449005e-02" rms="4.8856025934219360e-01" purity="4.0093347430229187e-01" nType="0">
          <Node pos="l" depth="2" NCoef="0" IVar="-1" Cut="0.0000000000000000e+00" cType="1" res="-7.8837173059582710e-03" rms="4.4614103436470032e-01" purity="2.7588319778442383e-01" nType="-99"/>
          <Node pos="r" depth="2" NCoef="0" IVar="-1" Cut="0.0000000000000000e+00" cType="1" res="-1.1829966679215431e-03" rms="4.9736845493316650e-01" purity="4.5499935746192932e-01" nType="-99"/>
        </Node>
        <Node pos="r" depth="1" NCoef="0" IVar="5" Cut="2.4035949707031250e+00" cType="1" res="1.6883032023906708e-01" rms="4.6684461832046509e-01" purity="6.7740732431411743e-01" nType="0">
          <Node pos="l" depth="2" NCoef="0" IVar="-1" Cut="0.0000000000000000e+00" cType="1" res="4.3767662718892097e-03" rms="4.4874379038810730e-01" purity="7.2000384330749512e-01" nType="-99"/>
          <Node pos="r" depth="2" NCoef="0" IVar="-1" Cut="0.0000000000000000e+00" cType="1" res="1.0482657235115767e-03" rms="4.9725380539894104e-01" purity="5.4660439491271973e-01" nType="-99"/>
        </Node>
      </Node>
    </BinaryTree>
    <BinaryTree type="DecisionTree" boostWeight="1.0000000000000000e+00" itree="6">
      <Node pos="s" depth="0" NCoef="0" IVar="6" Cut="2.5041942596435547e+00" cType="1" res="5.4460354149341583e-03" rms="4.9622911214828491e-01" purity="5.0279587507247925e-01" nType="0">
        <Node pos="l" depth="1" NCoef="0" IVar="1" Cut="4.9189709472656250e+02" cType="1" res="-1.2983703613281250e-01" rms="4.7792854905128479e-01" purity="3.5853022336959839e-01" nType="0">
          <Node pos="l" depth="2" NCoef="0" IVar="-1" Cut="0.0000000000000000e+00" cType="1" res="-8.4949750453233719e-03" rms="4.3901902437210083e-01" purity="2.6152986288070679e-01" nType="-99"/>
          <Node pos="r" depth="2" NCoef="0" IVar="-1" Cut="0.0000000000000000e+00" cType="1" res="-1.7867652932181954e-03" rms="4.9590232968330383e-01" purity="4.3702232837677002e-01" nType="-99"/>
        </Node>
        <Node pos="r" depth="1" NCoef="0" IVar="5" Cut="2.6080739498138428e+00" cType="1" res="1.1050107330083847e-01" rms="4.8460167646408081e-01" purity="6.1482644081115723e-01" nType="0">
          <Node pos="l" depth="2" NCoef="0" IVar="-1" Cut="0.0000000000000000e+00" cType="1" res="3.2042698003351688e-03" rms="4.7622805833816528e-01" purity="6.4673238992691040e-01" nType="-99"/>
          <Node pos="r" depth="2" NCoef="0" IVar="-1" Cut="0.0000000000000000e+00" cType="1" res="-3.1690406613051891e-03" rms="4.8779734969139099e-01" purity="3.9586552977561951e-01" nType="-99"/>
        </Node>
      </Node>
    </BinaryTree>
    <BinaryTree type="DecisionTree" boostWeight="1.0000000000000000e+00" itree="7">
      <Node pos="s" depth="0" NCoef="0" IVar="6" Cut="3.1601192951202393e+00" cType="1" res="6.1898929998278618e-03" rms="4.9552801251411438e-01" purity="5.0319617986679077e-01" nType="0">
        <Node pos="l" depth="1" NCoef="0" IVar="1" Cut="4.9956903076171875e+02" cType="1" res="-9.1524519026279449e-02" rms="4.8700329661369324e-01" purity="3.9645355939865112e-01" nType="0">
          <Node pos="l" depth="2" NCoef="0" IVar="-1" Cut="0.0000000000000000e+00" cType="1" res="-6.3488222658634186e-03" rms="4.5882272720336914e-01" purity="3.0377724766731262e-01" nType="-99"/>
          <Node pos="r" depth="2" NCoef="0" IVar="-1" Cut="0.0000000000000000e+00" cType="1" res="-5.4336606990545988e-04" rms="4.9905952811241150e-01" purity="4.7701981663703918e-01" nType="-99"/>
        </Node>
        <Node pos="r" depth="1" NCoef="0" IVar="6" Cut="4.8482022285461426e+00" cType="1" res="1.5074542164802551e-01" rms="4.7214129567146301e-01" purity="6.6110771894454956e-01" nType="0">
          <Node pos="l" depth="2" NCoef="0" IVar="-1" Cut="0.0000000000000000e+00" cType="1" res="2.4046965409070253e-03" rms="4.8635080456733704e-01" purity="6.1175239086151123e-01" nType="-99"/>
          <Node pos="r" depth="2" NCoef="0" IVar="-1" Cut="0.0000000000000000e+00" cType="1" res="5.5320709943771362e-03" rms="4.0475535392761230e-01" purity="7.9270827770233154e-01" nType="-99"/>
        </Node>
      </Node>
    </BinaryTree>
    <BinaryTree type="DecisionTree" boostWeight="1.0000000000000000e+00" itree="8">
      <Node pos="s" depth="0" NCoef="0" IVar="6" Cut="3.6008687019348145e+00" cType="1" res="5.4284487850964069e-03" rms="4.9517574906349182e-01" purity="5.0196862220764160e-01" nType="0">
        <Node pos="l" depth="1" NCoef="0" IVar="6" Cut="2.0753340721130371e+00" cType="1" res="-7.0872947573661804e-02" rms="4.9065175652503967e-01" purity="4.1816022992134094e-01" nType="0">
          <Node pos="l" depth="2" NCoef="0" IVar="-1" Cut="0.0000000000000000e+00" cType="1" res="-5.3969561122357845e-03" rms="4.6879905462265015e-01" purity="3.3124995231628418e-01" nType="-99"/>
          <Node pos="r" depth="2" NCoef="0" IVar="-1" Cut="0.0000000000000000e+00" cType="1" res="1.8157268641516566e-05" rms="4.9805429577827454e-01" purity="4.9401867389678955e-01" nType="-99"/>
        </Node>
        <Node pos="r" depth="1" NCoef="0" IVar="5" Cut="2.3912515640258789e+00" cType="1" res="1.7943552136421204e-01" rms="4.6023306250572205e-01" purity="6.9309556484222412e-01" nType="0">
          <Node pos="l" depth="2" NCoef="0" IVar="-1" Cut="0.0000000000000000e+00" cType="1" res="4.5005977153778076e-03" rms="4.4125571846961975e-01" purity="7.3453915119171143e-01" nType="-99"/>
          <Node pos="r" depth="2" NCoef="0" IVar="-1" Cut="0.0000000000000000e+00" cType="1" res="1.5903331805020571e-03" rms="4.9354684352874756e-01" purity="5.7339662313461304e-01" nType="-99"/>
        </Node>
      </Node>
    </BinaryTree>
    <BinaryTree type="DecisionTree" boostWeight="1.0000000000000000e+00" itree="9">
      <Node pos="s" depth="0" NCoef="0" IVar="6" Cut="3.4011449813842773e+00" cType="1" res="7.0960051380097866e-04" rms="4.9450477957725525e-01" purity="4.9720251560211182e-01" nType="0">
        <Node pos="l" depth="1" NCoef="0" IVar="1" Cut="4.6243780517578125e+02" cType="1" res="-8.5865989327430725e-02" rms="4.8738399147987366e-01" purity="4.0073037147521973e-01" nType="0">
          <Node pos="l" depth="2" NCoef="0" IVar="-1" Cut="0.0000000000000000e+00" cType="1" res="-6.7824283614754677e-03" rms="4.5204293727874756e-01" purity="2.8991821408271790e-01" nType="-99"/>
          <Node pos="r" depth="2" NCoef="0" IVar="-1" Cut="0.0000000000000000e+00" cType="1" res="-9.3551620375365019e-04" rms="4.9753162264823914e-01" purity="4.6128860116004944e-01" nType="-99"/>
        </Node>
        <Node pos="r" depth="1" NCoef="0" IVar="5" Cut="2.4740681648254395e+00" cType="1" res="1.6226388514041901e-01" rms="4.6636417508125305e-01" purity="6.7722439765930176e-01" nType="0">
          <Node pos="l" depth="2" NCoef="0" IVar="-1" Cut="0.0000000000000000e+00" cType="1" res="4.1227326728403568e-03" rms="4.5138114690780640e-01" purity="7.1419757604598999e-01" nType="-99"/>
          <Node pos="r" depth="2" NCoef="0" IVar="-1" Cut="0.0000000000000000e+00" cType="1" res="2.0496443903539330e-04" rms="4.9862858653068542e-01" purity="5.1470679044723511e-01" nType="-99"/>
        </Node>
      </Node>
    </BinaryTree>
    <BinaryTree type="DecisionTree" boostWeight="1.0000000000000000e+00" itree="10">
      <Node pos="s" depth="0" NCoef="0" IVar="6" Cut="2.7176342010498047e+00" cType="1" res="7.8574167564511299e-03" rms="4.9381569027900696e-01" purity="5.0406277179718018e-01" nType="0">
        <Node pos="l" depth="1" NCoef="0" IVar="1" Cut="4.7192263793945312e+02" cType="1" res="-1.1844927817583084e-01" rms="4.7846734523773193e-01" purity="3.6301448941230774e-01" nType="0">
          <Node pos="l" depth="2" NCoef="0" IVar="-1" Cut="0.0000000000000000e+00" cType="1" res="-7.9921083524823189e-03" rms="4.3930500745773315e-01" purity="2.6205852627754211e-01" nType="-99"/>
          <Node pos="r" depth="2" NCoef="0" IVar="-1" Cut="0.0000000000000000e+00" cType="1" res="-1.9378843717277050e-03" rms="4.9427023530006409e-01" purity="4.2836093902587891e-01" nType="-99"/>
        </Node>
        <Node pos="r" depth="1" NCoef="0" IVar="6" Cut="4.5484638214111328e+00" cType="1" res="1.2572634220123291e-01" rms="4.7853863239288330e-01" purity="6.3568854331970215e-01" nType="0">
          <Node pos="l" depth="2" NCoef="0" IVar="-1" Cut="0.0000000000000000e+00" cType="1" res="1.7990287160500884e-03" rms="4.9146485328674316e-01" purity="5.8072829246520996e-01" nType="-99"/>
          <Node pos="r" depth="2" NCoef="0" IVar="-1" Cut="0.0000000000000000e+00" cType="1" res="5.1348460838198662e-03" rms="4.1668474674224854e-01" purity="7.7511388063430786e-01" nType="-99"/>
        </Node>
      </Node>
    </BinaryTree>
    <BinaryTree type="DecisionTree" boostWeight="1.0000000000000000e+00" itree="11">
      <Node pos="s" depth="0" NCoef="0" IVar="6" Cut="2.9577980041503906e+00" cType="1" res="6.6481954418122768e-03" rms="4.9335736036300659e-01" purity="5.0221556425094604e-01" nType="0">
        <Node pos="l" depth="1" NCoef="0" IVar="1" Cut="5.1343249511718750e+02" cType="1" res="-9.7930751740932465e-02" rms="4.8317509889602661e-01" purity="3.8267567753791809e-01" nType="0">
          <Node pos="l" depth="2" NCoef="0" IVar="-1" Cut="0.0000000000000000e+00" cType="1" res="-6.2765059992671013e-03" rms="4.5597982406616211e-01" purity="2.9810932278633118e-01" nType="-99"/>
          <Node pos="r" depth="2" NCoef="0" IVar="-1" Cut="0.0000000000000000e+00" cType="1" res="-7.1572407614439726e-04" rms="4.9854117631912231e-01" purity="4.6795544028282166e-01" nType="-99"/>
        </Node>
        <Node pos="r" depth="1" NCoef="0" IVar="6" Cut="4.1636862754821777e+00" cType="1" res="1.3476312160491943e-01" rms="4.7515368461608887e-01" purity="6.4865833520889282e-01" nType="0">
          <Node pos="l" depth="2" NCoef="0" IVar="-1" Cut="0.0000000000000000e+00" cType="1" res="1.6579559305682778e-03" rms="4.9265527725219727e-01" purity="5.7617187500000000e-01" nType="-99"/>
          <Node pos="r" depth="2" NCoef="0" IVar="-1" Cut="0.0000000000000000e+00" cType="1" res="4.5189028605818748e-03" rms="4.3866607546806335e-01" purity="7.3811936378479004e-01" nType="-99"/>
        </Node>
      </Node>
    </BinaryTree>
    <BinaryTree type="DecisionTree" boostWeight="1.0000000000000000e+00" itree="12">
      <Node pos="s" depth="0" NCoef="0" IVar="6" Cut="3.0530927181243896e+00" cType="1" res="7.5444513931870461e-03" rms="4.9268996715545654e-01" purity="5.0276583433151245e-01" nType="0">
        <Node pos="l" depth="1" NCoef="0" IVar="1" Cut="4.6122906494140625e+02" cType="1" res="-9.2741779983043671e-02" rms="4.8376688361167908e-01" purity="3.8662397861480713e-01" nType="0">
          <Node pos="l" depth="2" NCoef="0" IVar="-1" Cut="0.0000000000000000e+00" cType="1" res="-7.6705161482095718e-03" rms="4.4037055969238281e-01" purity="2.6503455638885498e-01" nType="-99"/>
          <Node pos="r" depth="2" NCoef="0" IVar="-1" Cut="0.0000000000000000e+00" cType="1" res="-1.0189964668825269e-03" rms="4.9716582894325256e-01" purity="4.5505237579345703e-01" nType="-99"/>
        </Node>
        <Node pos="r" depth="1" NCoef="0" IVar="5" Cut="2.5900835990905762e+00" cType="1" res="1.4279961585998535e-01" rms="4.7184360027313232e-01" purity="6.5940535068511963e-01" nType="0">
          <Node pos="l" depth="2" NCoef="0" IVar="-1" Cut="0.0000000000000000e+00" cType="1" res="3.7351213395595551e-03" rms="4.6073290705680847e-01" purity="6.9093090295791626e-01" nType="-99"/>
          <Node pos="r" depth="2" NCoef="0" IVar="-1" Cut="0.0000000000000000e+00" cType="1" res="-1.3869944959878922e-03" rms="4.9705022573471069e-01" purity="4.5647728443145752e-01" nType="-99"/>
        </Node>
      </Node>
    </BinaryTree>
    <BinaryTree type="DecisionTree" boostWeight="1.0000000000000000e+00" itree="13">
      <Node pos="s" depth="0" NCoef="0" IVar="6" Cut="3.6093883514404297e+00" cType="1" res="9.7547015175223351e-03" rms="4.9260070919990540e-01" purity="5.0447237491607666e-01" nType="0">
        <Node pos="l" depth="1" NCoef="0" IVar="1" Cut="4.2557696533203125e+02" cType="1" res="-6.1290353536605835e-02" rms="4.8982569575309753e-01" purity="4.2146766185760498e-01" nType="0">
          <Node pos="l" depth="2" NCoef="0" IVar="-1" Cut="0.0000000000000000e+00" cType="1" res="-7.2769881226122379e-03" rms="4.4304704666137695e-01" purity="2.7322280406951904e-01" nType="-99"/>
          <Node pos="r" depth="2" NCoef="0" IVar="-1" Cut="0.0000000000000000e+00" cType="1" res="-5.7663873303681612e-04" rms="4.9685341119766235e-01" purity="4.6881130337715149e-01" nType="-99"/>
        </Node>
        <Node pos="r" depth="1" NCoef="0" IVar="5" Cut="2.4857869148254395e+00" cType="1" res="1.7158487439155579e-01" rms="4.5954242348670959e-01" purity="6.9354480504989624e-01" nType="0">
          <Node pos="l" depth="2" NCoef="0" IVar="-1" Cut="0.0000000000000000e+00" cType="1" res="4.2689577676355839e-03" rms="4.4343677163124084e-01" purity="7.2998279333114624e-01" nType="-99"/>
          <Node pos="r" depth="2" NCoef="0" IVar="-1" Cut="0.0000000000000000e+00" cType="1" res="8.6691061733290553e-04" rms="4.9714359641075134e-01" purity="5.4456496238708496e-01" nType="-99"/>
        </Node>
      </Node>
    </BinaryTree>
    <BinaryTree type="DecisionTree" boostWeight="1.0000000000000000e+00" itree="14">
      <Node pos="s" depth="0" NCoef="0" IVar="6" Cut="2.6878359317779541e+00" cType="1" res="3.4776963293552399e-03" rms="4.9171337485313416e-01" purity="4.9849185347557068e-01" nType="0">
        <Node pos="l" depth="1" NCoef="0" IVar="5" Cut="2.4184167385101318e+00" cType="1" res="-1.1664471030235291e-01" rms="4.7611984610557556e-01" purity="3.5810676217079163e-01" nType="0">
          <Node pos="l" depth="2" NCoef="0" IVar="-1" Cut="0.0000000000000000e+00" cType="1" res="-2.3436520714312792e-03" rms="4.8678156733512878e-01" purity="4.0168866515159607e-01" nType="-99"/>
          <Node pos="r" depth="2" NCoef="0" IVar="-1" Cut="0.0000000000000000e+00" cType="1" res="-9.3366857618093491e-03" rms="4.2787441611289978e-01" purity="2.4493654072284698e-01" nType="-99"/>
        </Node>
        <Node pos="r" depth="1" NCoef="0" IVar="5" Cut="2.5532610416412354e+00" cType="1" res="1.1379399150609970e-01" rms="4.7981330752372742e-01" purity="6.2741667032241821e-01" nType="0">
          <Node pos="l" depth="2" NCoef="0" IVar="-1" Cut="0.0000000000000000e+00" cType="1" res="3.2449143473058939e-03" rms="4.7007909417152405e-01" purity="6.6171914339065552e-01" nType="-99"/>
          <Node pos="r" depth="2" NCoef="0" IVar="-1" Cut="0.0000000000000000e+00" cType="1" res="-1.7987178871408105e-03" rms="4.9440798163414001e-01" purity="4.3855285644531250e-01" nType="-99"/>
        </Node>
      </Node>
    </BinaryTree>
    <BinaryTree type="DecisionTree" boostWeight="1.0000000000000000e+00" itree="15">
      <Node pos="s" depth="0" NCoef="0" IVar="6" Cut="3.7894804477691650e+00" cType="1" res="4.8700650222599506e-03" rms="4.9149793386459351e-01" purity="4.9920967221260071e-01" nType="0">
        <Node pos="l" depth="1" NCoef="0" IVar="6" Cut="2.0384082794189453e+00" cType="1" res="-6.0088060796260834e-02" rms="4.8898670077323914e-01" purity="4.2250141501426697e-01" nType="0">
          <Node pos="l" depth="2" NCoef="0" IVar="-1" Cut="0.0000000000000000e+00" cType="1" res="-5.2765971049666405e-03" rms="4.6522998809814453e-01" purity="3.2474184036254883e-01" nType="-99"/>
          <Node pos="r" depth="2" NCoef="0" IVar="-1" Cut="0.0000000000000000e+00" cType="1" res="1.3542071974370629e-04" rms="4.9640646576881409e-01" purity="4.9642309546470642e-01" nType="-99"/>
        </Node>
        <Node pos="r" depth="1" NCoef="0" IVar="5" Cut="2.4145245552062988e+00" cType="1" res="1.7824800312519073e-01" rms="4.5477449893951416e-01" purity="7.0394974946975708e-01" nType="0">
          <Node pos="l" depth="2" NCoef="0" IVar="-1" Cut="0.0000000000000000e+00" cType="1" res="4.4561959803104401e-03" rms="4.3495017290115356e-01" purity="7.4583435058593750e-01" nType="-99"/>
          <Node pos="r" depth="2" NCoef="0" IVar="-1" Cut="0.0000000000000000e+00" cType="1" res="1.4800163917243481e-03" rms="4.9285569787025452e-01" purity="5.7416188716888428e-01" nType="-99"/>
        </Node>
      </Node>
    </BinaryTree>
    <BinaryTree type="DecisionTree" boostWeight="1.0000000000000000e+00" itree="16">
      <Node pos="s" depth="0" NCoef="0" IVar="6" Cut="2.7356963157653809e+00" cType="1" res="6.3536805100739002e-03" rms="4.9115085601806641e-01" purity="5.0041902065277100e-01" nType="0">
        <Node pos="l" depth="1" NCoef="0" IVar="1" Cut="4.4384628295898438e+02" cType="1" res="-1.0145128518342972e-01" rms="4.7921055555343628e-01" purity="3.6960217356681824e-01" nType="0">
          <Node pos="l" depth="2" NCoef="0" IVar="-1" Cut="0.0000000000000000e+00" cType="1" res="-7.9474002122879028e-03" rms="4.3188080191612244e-01" purity="2.4921560287475586e-01" nType="-99"/>
          <Node pos="r" depth="2" NCoef="0" IVar="-1" Cut="0.0000000000000000e+00" cType="1" res="-1.7941601108759642e-03" rms="4.9278432130813599e-01" purity="4.2313757538795471e-01" nType="-99"/>
        </Node>
        <Node pos="r" depth="1" NCoef="0" IVar="6" Cut="4.5552344322204590e+00" cType="1" res="1.1107882112264633e-01" rms="4.7982013225555420e-01" purity="6.2749868631362915e-01" nType="0">
          <Node pos="l" depth="2" NCoef="0" IVar="-1" Cut="0.0000000000000000e+00" cType="1" res="1.5508725773543119e-03" rms="4.9197497963905334e-01" purity="5.7414126396179199e-01" nType="-99"/>
          <Node pos="r" depth="2" NCoef="0" IVar="-1" Cut="0.0000000000000000e+00" cType="1" res="4.7432868741452694e-03" rms="4.2341551184654236e-01" purity="7.6382493972778320e-01" nType="-99"/>
        </Node>
      </Node>
    </BinaryTree>
    <BinaryTree type="DecisionTree" boostWeight="1.0000000000000000e+00" itree="17">
      <Node pos="s" depth="0" NCoef="0" IVar="6" Cut="3.2218370437622070e+00" cType="1" res="6.3193151727318764e-03" rms="4.9058485031127930e-01" purity="5.0004136562347412e-01" nType="0">
        <Node pos="l" depth="1" NCoef="0" IVar="5" Cut="2.4428551197052002e+00" cType="1" res="-7.8948408365249634e-02" rms="4.8467633128166199e-01" purity="3.9514982700347900e-01" nType="0">
          <Node pos="l" depth="2" NCoef="0" IVar="-1" Cut="0.0000000000000000e+00" cType="1" res="-1.1979526607319713e-03" rms="4.9190038442611694e-01" purity="4.3588730692863464e-01" nType="-99"/>
          <Node pos="r" depth="2" NCoef="0" IVar="-1" Cut="0.0000000000000000e+00" cType="1" res="-7.5732734985649586e-03" rms="4.4247227907180786e-01" purity="2.7361762523651123e-01" nType="-99"/>
        </Node>
        <Node pos="r" depth="1" NCoef="0" IVar="5" Cut="2.4590270519256592e+00" cType="1" res="1.4170683920383453e-01" rms="4.6898713707923889e-01" purity="6.6658753156661987e-01" nType="0">
          <Node pos="l" depth="2" NCoef="0" IVar="-1" Cut="0.0000000000000000e+00" cType="1" res="3.7532984279096127e-03" rms="4.5466780662536621e-01" purity="7.0507097244262695e-01" nType="-99"/>
          <Node pos="r" depth="2" NCoef="0" IVar="-1" Cut="0.0000000000000000e+00" cType="1" res="2.7973216492682695e-04" rms="4.9794274568557739e-01" purity="5.2187889814376831e-01" nType="-99"/>
        </Node>
      </Node>
    </BinaryTree>
    <BinaryTree type="DecisionTree" boostWeight="1.0000000000000000e+00" itree="18">
      <Node pos="s" depth="0" NCoef="0" IVar="6" Cut="3.1629223823547363e+00" cType="1" res="5.7887593284249306e-03" rms="4.8943731188774109e-01" purity="4.9934425950050354e-01" nType="0">
        <Node pos="l" depth="1" NCoef="0" IVar="1" Cut="4.4903463745117188e+02" cType="1" res="-8.5767656564712524e-02" rms="4.8206090927124023e-01" purity="3.8615733385086060e-01" nType="0">
          <Node pos="l" depth="2" NCoef="0" IVar="-1" Cut="0.0000000000000000e+00" cType="1" res="-7.8049851581454277e-03" rms="4.3250802159309387e-01" purity="2.5227412581443787e-01" nType="-99"/>
          <Node pos="r" depth="2" NCoef="0" IVar="-1" Cut="0.0000000000000000e+00" cType="1" res="-1.0091724107041955e-03" rms="4.9548119306564331e-01" purity="4.4946715235710144e-01" nType="-99"/>
        </Node>
        <Node pos="r" depth="1" NCoef="0" IVar="5" Cut="2.4827749729156494e+00" cType="1" res="1.4259916543960571e-01" rms="4.6798944473266602e-01" purity="6.6847664117813110e-01" nType="0">
          <Node pos="l" depth="2" NCoef="0" IVar="-1" Cut="0.0000000000000000e+00" cType="1" res="3.7566388491541147e-03" rms="4.5408171415328979e-01" purity="7.0589435100555420e-01" nType="-99"/>
          <Node pos="r" depth="2" NCoef="0" IVar="-1" Cut="0.0000000000000000e+00" cType="1" res="-9.8442971648182720e-05" rms="4.9826449155807495e-01" purity="5.0623953342437744e-01" nType="-99"/>
        </Node>
      </Node>
    </BinaryTree>
    <BinaryTree type="DecisionTree" boostWeight="1.0000000000000000e+00" itree="19">
      <Node pos="s" depth="0" NCoef="0" IVar="6" Cut="3.5109598636627197e+00" cType="1" res="4.8009390011429787e-03" rms="4.8946204781532288e-01" purity="4.9812248349189758e-01" nType="0">
        <Node pos="l" depth="1" NCoef="0" IVar="1" Cut="4.5604074096679688e+02" cType="1" res="-6.6640630364418030e-02" rms="4.8595678806304932e-01" purity="4.0836772322654724e-01" nType="0">
          <Node pos="l" depth="2" NCoef="0" IVar="-1" Cut="0.0000000000000000e+00" cType="1" res="-6.3630421645939350e-03" rms="4.4665375351905823e-01" purity="2.8188174962997437e-01" nType="-99"/>
          <Node pos="r" depth="2" NCoef="0" IVar="-1" Cut="0.0000000000000000e+00" cType="1" res="-4.4661836000159383e-04" rms="4.9667730927467346e-01" purity="4.7158569097518921e-01" nType="-99"/>
        </Node>
        <Node pos="r" depth="1" NCoef="0" IVar="6" Cut="5.0665631294250488e+00" cType="1" res="1.5104918181896210e-01" rms="4.6339568495750427e-01" purity="6.8185967206954956e-01" nType="0">
          <Node pos="l" depth="2" NCoef="0" IVar="-1" Cut="0.0000000000000000e+00" cType="1" res="2.4210680276155472e-03" rms="4.7935006022453308e-01" purity="6.3516485691070557e-01" nType="-99"/>
          <Node pos="r" depth="2" NCoef="0" IVar="-1" Cut="0.0000000000000000e+00" cType="1" res="5.3537008352577686e-03" rms="3.9055159687995911e-01" purity="8.1069070100784302e-01" nType="-99"/>
        </Node>
      </Node>
    </BinaryTree>
    <BinaryTree type="DecisionTree" boostWeight="1.0000000000000000e+00" itree="20">
      <Node pos="s" depth="0" NCoef="0" IVar="6" Cut="2.6390736103057861e+00" cType="1" res="4.1672196239233017e-03" rms="4.8867759108543396e-01" purity="4.9732866883277893e-01" nType="0">
        <Node pos="l" depth="1" NCoef="0" IVar="1" Cut="4.5113894653320312e+02" cType="1" res="-1.1397890746593475e-01" rms="4.7262629866600037e-01" purity="3.5054686665534973e-01" nType="0">
          <Node pos="l" depth="2" NCoef="0" IVar="-1" Cut="0.0000000000000000e+00" cType="1" res="-9.0005481615662575e-03" rms="4.1651731729507446e-01" purity="2.2458231449127197e-01" nType="-99"/>
          <Node pos="r" depth="2" NCoef="0" IVar="-1" Cut="0.0000000000000000e+00" cType="1" res="-2.0777257159352303e-03" rms="4.9111273884773254e-01" purity="4.1277682781219482e-01" nType="-99"/>
        </Node>
        <Node pos="r" depth="1" NCoef="0" IVar="6" Cut="4.2649736404418945e+00" cType="1" res="1.0605105012655258e-01" rms="4.7926458716392517e-01" purity="6.2390655279159546e-01" nType="0">
          <Node pos="l" depth="2" NCoef="0" IVar="-1" Cut="0.0000000000000000e+00" cType="1" res="1.2453134404495358e-03" rms="4.9333193898200989e-01" purity="5.5787146091461182e-01" nType="-99"/>
          <Node pos="r" depth="2" NCoef="0" IVar="-1" Cut="0.0000000000000000e+00" cType="1" res="4.3422630988061428e-03" rms="4.3220004439353943e-01" purity="7.4842268228530884e-01" nType="-99"/>
        </Node>
      </Node>
    </BinaryTree>
    <BinaryTree type="DecisionTree" boostWeight="1.0000000000000000e+00" itree="21">
      <Node pos="s" depth="0" NCoef="0" IVar="6" Cut="2.7755875587463379e+00" cType="1" res="9.3801915645599365e-03" rms="4.8837915062904358e-01" purity="5.0195366144180298e-01" nType="0">
        <Node pos="l" depth="1" NCoef="0" IVar="5" Cut="2.4465422630310059e+00" cType="1" res="-9.4116292893886566e-02" rms="4.7803452610969543e-01" purity="3.6933663487434387e-01" nType="0">
          <Node pos="l" depth="2" NCoef="0" IVar="-1" Cut="0.0000000000000000e+00" cType="1" res="-1.8233309965580702e-03" rms="4.8734518885612488e-01" purity="4.0840932726860046e-01" nType="-99"/>
          <Node pos="r" depth="2" NCoef="0" IVar="-1" Cut="0.0000000000000000e+00" cType="1" res="-8.0828275531530380e-03" rms="4.3274891376495361e-01" purity="2.5538444519042969e-01" nType="-99"/>
        </Node>
        <Node pos="r" depth="1" NCoef="0" IVar="6" Cut="4.1603188514709473e+00" cType="1" res="1.1468864232301712e-01" rms="4.7612756490707397e-01" purity="6.3689243793487549e-01" nType="0">
          <Node pos="l" depth="2" NCoef="0" IVar="-1" Cut="0.0000000000000000e+00" cType="1" res="1.3036972377449274e-03" rms="4.9293282628059387e-01" purity="5.6389731168746948e-01" nType="-99"/>
          <Node pos="r" depth="2" NCoef="0" IVar="-1" Cut="0.0000000000000000e+00" cType="1" res="4.2410646565258503e-03" rms="4.3507418036460876e-01" purity="7.4290794134140015e-01" nType="-99"/>
        </Node>
      </Node>
    </BinaryTree>
    <BinaryTree type="DecisionTree" boostWeight="1.0000000000000000e+00" itree="22">
      <Node pos="s" depth="0" NCoef="0" IVar="6" Cut="3.5109598636627197e+00" cType="1" res="4.0527014061808586e-03" rms="4.8810774087905884e-01" purity="4.9613434076309204e-01" nType="0">
        <Node pos="l" depth="1" NCoef="0" IVar="5" Cut="2.3592097759246826e+00" cType="1" res="-6.5983809530735016e-02" rms="4.8493766784667969e-01" purity="4.0537911653518677e-01" nType="0">
          <Node pos="l" depth="2" NCoef="0" IVar="-1" Cut="0.0000000000000000e+00" cType="1" res="-5.5340438848361373e-04" rms="4.9251258373260498e-01" purity="4.5604082942008972e-01" nType="-99"/>
          <Node pos="r" depth="2" NCoef="0" IVar="-1" Cut="0.0000000000000000e+00" cType="1" res="-6.0290736146271229e-03" rms="4.5362913608551025e-01" purity="3.0037665367126465e-01" nType="-99"/>
        </Node>
        <Node pos="r" depth="1" NCoef="0" IVar="6" Cut="4.4260330200195312e+00" cType="1" res="1.5082722902297974e-01" rms="4.6140140295028687e-01" purity="6.8632876873016357e-01" nType="0">
          <Node pos="l" depth="2" NCoef="0" IVar="-1" Cut="0.0000000000000000e+00" cType="1" res="1.8888339400291443e-03" rms="4.8617812991142273e-01" purity="6.0976058244705200e-01" nType="-99"/>
          <Node pos="r" depth="2" NCoef="0" IVar="-1" Cut="0.0000000000000000e+00" cType="1" res="4.4430890120565891e-03" rms="4.2602658271789551e-01" purity="7.5903755426406860e-01" nType="-99"/>
        </Node>
      </Node>
    </BinaryTree>
    <BinaryTree type="DecisionTree" boostWeight="1.0000000000000000e+00" itree="23">
      <Node pos="s" depth="0" NCoef="0" IVar="6" Cut="3.1601192951202393e+00" cType="1" res="9.1541558504104614e-03" rms="4.8751023411750793e-01" purity="5.0112473964691162e-01" nType="0">
        <Node pos="l" depth="1" NCoef="0" IVar="5" Cut="2.4336884021759033e+00" cType="1" res="-7.5934283435344696e-02" rms="4.8187533020973206e-01" purity="3.8915514945983887e-01" nType="0">
          <Node pos="l" depth="2" NCoef="0" IVar="-1" Cut="0.0000000000000000e+00" cType="1" res="-1.0466707171872258e-03" rms="4.9075704813003540e-01" purity="4.3425056338310242e-01" nType="-99"/>
          <Node pos="r" depth="2" NCoef="0" IVar="-1" Cut="0.0000000000000000e+00" cType="1" res="-7.8686391934752464e-03" rms="4.3366095423698425e-01" purity="2.5822362303733826e-01" nType="-99"/>
        </Node>
        <Node pos="r" depth="1" NCoef="0" IVar="1" Cut="4.5369525146484375e+02" cType="1" res="1.3483783602714539e-01" rms="4.6823504567146301e-01" purity="6.6651439666748047e-01" nType="0">
          <Node pos="l" depth="2" NCoef="0" IVar="-1" Cut="0.0000000000000000e+00" cType="1" res="6.5947620896622539e-04" rms="4.9384266138076782e-01" purity="5.5381661653518677e-01" nType="-99"/>
          <Node pos="r" depth="2" NCoef="0" IVar="-1" Cut="0.0000000000000000e+00" cType="1" res="3.6805586423724890e-03" rms="4.5295545458793640e-01" purity="7.0567816495895386e-01" nType="-99"/>
        </Node>
      </Node>
    </BinaryTree>
    <BinaryTree type="DecisionTree" boostWeight="1.0000000000000000e+00" itree="24">
      <Node pos="s" depth="0" NCoef="0" IVar="6" Cut="3.5874435901641846e+00" cType="1" res="7.4703111313283443e-03" rms="4.8735961318016052e-01" purity="4.9881681799888611e-01" nType="0">
        <Node pos="l" depth="1" NCoef="0" IVar="6" Cut="2.0080225467681885e+00" cType="1" res="-5.8181788772344589e-02" rms="4.8560118675231934e-01" purity="4.1218489408493042e-01" nType="0">
          <Node pos="l" depth="2" NCoef="0" IVar="-1" Cut="0.0000000000000000e+00" cType="1" res="-4.9691256135702133e-03" rms="4.6115472912788391e-01" purity="3.1906530261039734e-01" nType="-99"/>
          <Node pos="r" depth="2" NCoef="0" IVar="-1" Cut="0.0000000000000000e+00" cType="1" res="8.5487459728028625e-05" rms="4.9532672762870789e-01" purity="4.8497882485389709e-01" nType="-99"/>
        </Node>
        <Node pos="r" depth="1" NCoef="0" IVar="5" Cut="2.3838868141174316e+00" cType="1" res="1.5703380107879639e-01" rms="4.5741510391235352e-01" purity="6.9617486000061035e-01" nType="0">
          <Node pos="l" depth="2" NCoef="0" IVar="-1" Cut="0.0000000000000000e+00" cType="1" res="4.0572928264737129e-03" rms="4.3750533461570740e-01" purity="7.4022424221038818e-01" nType="-99"/>
          <Node pos="r" depth="2" NCoef="0" IVar="-1" Cut="0.0000000000000000e+00" cType="1" res="1.1079740943387151e-03" rms="4.9288606643676758e-01" purity="5.7084578275680542e-01" nType="-99"/>
        </Node>
      </Node>
    </BinaryTree>
    <BinaryTree type="DecisionTree" boostWeight="1.0000000000000000e+00" itree="25">
      <Node pos="s" depth="0" NCoef="0" IVar="6" Cut="2.5212433338165283e+00" cType="1" res="8.8995266705751419e-03" rms="4.8662331700325012e-01" purity="5.0055742263793945e-01" nType="0">
        <Node pos="l" depth="1" NCoef="0" IVar="5" Cut="2.4260139465332031e+00" cType="1" res="-1.0824041068553925e-01" rms="4.7112080454826355e-01" purity="3.4739246964454651e-01" nType="0">
          <Node pos="l" depth="2" NCoef="0" IVar="-1" Cut="0.0000000000000000e+00" cType="1" res="-2.2759402636438608e-03" rms="4.8390063643455505e-01" purity="3.9083856344223022e-01" nType="-99"/>
          <Node pos="r" depth="2" NCoef="0" IVar="-1" Cut="0.0000000000000000e+00" cType="1" res="-8.7727848440408707e-03" rms="4.2028629779815674e-01" purity="2.3459079861640930e-01" nType="-99"/>
        </Node>
        <Node pos="r" depth="1" NCoef="0" IVar="6" Cut="4.4179205894470215e+00" cType="1" res="9.9424324929714203e-02" rms="4.7903805971145630e-01" purity="6.1892199516296387e-01" nType="0">
          <Node pos="l" depth="2" NCoef="0" IVar="-1" Cut="0.0000000000000000e+00" cType="1" res="1.3616499491035938e-03" rms="4.9147081375122070e-01" purity="5.6331378221511841e-01" nType="-99"/>
          <Node pos="r" depth="2" NCoef="0" IVar="-1" Cut="0.0000000000000000e+00" cType="1" res="4.2622964829206467e-03" rms="4.2807936668395996e-01" purity="7.5502389669418335e-01" nType="-99"/>
        </Node>
      </Node>
    </BinaryTree>
    <BinaryTree type="DecisionTree" boostWeight="1.0000000000000000e+00" itree="26">
      <Node pos="s" depth="0" NCoef="0" IVar="6" Cut="3.6225831508636475e+00" cType="1" res="9.9145853891968727e-03" rms="4.8651200532913208e-01" purity="5.0098907947540283e-01" nType="0">
        <Node pos="l" depth="1" NCoef="0" IVar="6" Cut="1.8984355926513672e+00" cType="1" res="-5.2220642566680908e-02" rms="4.8567953705787659e-01" purity="4.1661840677261353e-01" nType="0">
          <Node pos="l" depth="2" NCoef="0" IVar="-1" Cut="0.0000000000000000e+00" cType="1" res="-5.0363889895379543e-03" rms="4.5955148339271545e-01" purity="3.1439107656478882e-01" nType="-99"/>
          <Node pos="r" depth="2" NCoef="0" IVar="-1" Cut="0.0000000000000000e+00" cType="1" res="3.3683587389532477e-05" rms="4.9420875310897827e-01" purity="4.8161199688911438e-01" nType="-99"/>
        </Node>
        <Node pos="r" depth="1" NCoef="0" IVar="6" Cut="4.5810585021972656e+00" cType="1" res="1.5372838079929352e-01" rms="4.5710924267768860e-01" purity="6.9626754522323608e-01" nType="0">
          <Node pos="l" depth="2" NCoef="0" IVar="-1" Cut="0.0000000000000000e+00" cType="1" res="2.1672477014362812e-03" rms="4.8090082406997681e-01" purity="6.2981534004211426e-01" nType="-99"/>
          <Node pos="r" depth="2" NCoef="0" IVar="-1" Cut="0.0000000000000000e+00" cType="1" res="4.4978801161050797e-03" rms="4.1923430562019348e-01" purity="7.7009540796279907e-01" nType="-99"/>
        </Node>
      </Node>
    </BinaryTree>
    <BinaryTree type="DecisionTree" boostWeight="1.0000000000000000e+00" itree="27">
      <Node pos="s" depth="0" NCoef="0" IVar="6" Cut="2.6632792949676514e+00" cType="1" res="3.3453945070505142e-03" rms="4.8603150248527527e-01" purity="4.9420249462127686e-01" nType="0">
        <Node pos="l" depth="1" NCoef="0" IVar="1" Cut="5.6115667724609375e+02" cType="1" res="-9.8502993583679199e-02" rms="4.7309905290603638e-01" purity="3.5475832223892212e-01" nType="0">
          <Node pos="l" depth="2" NCoef="0" IVar="-1" Cut="0.0000000000000000e+00" cType="1" res="-5.5230148136615753e-03" rms="4.5170676708221436e-01" purity="2.9392370581626892e-01" nType="-99"/>
          <Node pos="r" depth="2" NCoef="0" IVar="-1" Cut="0.0000000000000000e+00" cType="1" res="-6.3056888757273555e-04" rms="4.9620798230171204e-01" purity="4.5343145728111267e-01" nType="-99"/>
        </Node>
        <Node pos="r" depth="1" NCoef="0" IVar="6" Cut="4.5957827568054199e+00" cType="1" res="9.5270626246929169e-02" rms="4.7917565703392029e-01" purity="6.2006056308746338e-01" nType="0">
          <Node pos="l" depth="2" NCoef="0" IVar="-1" Cut="0.0000000000000000e+00" cType="1" res="1.3187484582886100e-03" rms="4.9111473560333252e-01" purity="5.6850725412368774e-01" nType="-99"/>
          <Node pos="r" depth="2" NCoef="0" IVar="-1" Cut="0.0000000000000000e+00" cType="1" res="4.3558939360082150e-03" rms="4.2271855473518372e-01" purity="7.6417148113250732e-01" nType="-99"/>
        </Node>
      </Node>
    </BinaryTree>
    <BinaryTree type="DecisionTree" boostWeight="1.0000000000000000e+00" itree="28">
      <Node pos="s" depth="0" NCoef="0" IVar="6" Cut="2.4769353866577148e+00" cType="1" res="1.2699008919298649e-02" rms="4.8575532436370850e-01" purity="5.0395917892456055e-01" nType="0">
        <Node pos="l" depth="1" NCoef="0" IVar="5" Cut="2.2491712570190430e+00" cType="1" res="-1.0019322484731674e-01" rms="4.7191697359085083e-01" purity="3.4977501630783081e-01" nType="0">
          <Node pos="l" depth="2" NCoef="0" IVar="-1" Cut="0.0000000000000000e+00" cType="1" res="-1.3441673945635557e-03" rms="4.8832333087921143e-01" purity="4.1334050893783569e-01" nType="-99"/>
          <Node pos="r" depth="2" NCoef="0" IVar="-1" Cut="0.0000000000000000e+00" cType="1" res="-6.6796732135117054e-03" rms="4.4173085689544678e-01" purity="2.7333468198776245e-01" nType="-99"/>
        </Node>
        <Node pos="r" depth="1" NCoef="0" IVar="5" Cut="2.7007994651794434e+00" cType="1" res="9.4532497227191925e-02" rms="4.7919693589210510e-01" purity="6.1572450399398804e-01" nType="0">
          <Node pos="l" depth="2" NCoef="0" IVar="-1" Cut="0.0000000000000000e+00" cType="1" res="2.6839680504053831e-03" rms="4.7339218854904175e-01" purity="6.4059549570083618e-01" nType="-99"/>
          <Node pos="r" depth="2" NCoef="0" IVar="-1" Cut="0.0000000000000000e+00" cType="1" res="-4.1451668366789818e-03" rms="4.7930300235748291e-01" purity="3.6988860368728638e-01" nType="-99"/>
        </Node>
      </Node>
    </BinaryTree>
    <BinaryTree type="DecisionTree" boostWeight="1.0000000000000000e+00" itree="29">
      <Node pos="s" depth="0" NCoef="0" IVar="6" Cut="3.5384662151336670e+00" cType="1" res="9.2890635132789612e-03" rms="4.8563313484191895e-01" purity="4.9975416064262390e-01" nType="0">
        <Node pos="l" depth="1" NCoef="0" IVar="5" Cut="2.5707051753997803e+00" cType="1" res="-5.2328217774629593e-02" rms="4.8472553491592407e-01" purity="4.1250118613243103e-01" nType="0">
          <Node pos="l" depth="2" NCoef="0" IVar="-1" Cut="0.0000000000000000e+00" cType="1" res="-6.4884428866207600e-04" rms="4.9072510004043579e-01" purity="4.4678542017936707e-01" nType="-99"/>
          <Node pos="r" depth="2" NCoef="0" IVar="-1" Cut="0.0000000000000000e+00" cType="1" res="-8.2281464710831642e-03" rms="4.2480218410491943e-01" purity="2.4592386186122894e-01" nType="-99"/>
        </Node>
        <Node pos="r" depth="1" NCoef="0" IVar="5" Cut="2.3857953548431396e+00" cType="1" res="1.4178639650344849e-01" rms="4.6044936776161194e-01" purity="6.8737661838531494e-01" nType="0">
          <Node pos="l" depth="2" NCoef="0" IVar="-1" Cut="0.0000000000000000e+00" cType="1" res="3.8008149713277817e-03" rms="4.4121566414833069e-01" purity="7.3259907960891724e-01" nType="-99"/>
          <Node pos="r" depth="2" NCoef="0" IVar="-1" Cut="0.0000000000000000e+00" cType="1" res="6.3892343314364552e-04" rms="4.9443379044532776e-01" purity="5.5522018671035767e-01" nType="-99"/>
        </Node>
      </Node>
    </BinaryTree>
    <BinaryTree type="DecisionTree" boostWeight="1.0000000000000000e+00" itree="30">
      <Node pos="s" depth="0" NCoef="0" IVar="6" Cut="2.7001657485961914e+00" cType="1" res="1.3327736407518387e-02" rms="4.8470145463943481e-01" purity="5.0396883487701416e-01" nType="0">
        <Node pos="l" depth="1" NCoef="0" IVar="1" Cut="5.0532006835937500e+02" cType="1" res="-8.4983773529529572e-02" rms="4.7523686289787292e-01" purity="3.6444282531738281e-01" nType="0">
          <Node pos="l" depth="2" NCoef="0" IVar="-1" Cut="0.0000000000000000e+00" cType="1" res="-5.8120260946452618e-03" rms="4.4442513585090637e-01" purity="2.7755770087242126e-01" nType="-99"/>
          <Node pos="r" depth="2" NCoef="0" IVar="-1" Cut="0.0000000000000000e+00" cType="1" res="-7.3408958269283175e-04" rms="4.9492713809013367e-01" purity="4.4610530138015747e-01" nType="-99"/>
        </Node>
        <Node pos="r" depth="1" NCoef="0" IVar="1" Cut="4.6672994995117188e+02" cType="1" res="1.0486324876546860e-01" rms="4.7541242837905884e-01" purity="6.3387817144393921e-01" nType="0">
          <Node pos="l" depth="2" NCoef="0" IVar="-1" Cut="0.0000000000000000e+00" cType="1" res="1.2495962437242270e-04" rms="4.9282467365264893e-01" purity="5.2353245019912720e-01" nType="-99"/>
          <Node pos="r" depth="2" NCoef="0" IVar="-1" Cut="0.0000000000000000e+00" cType="1" res="3.2588476315140724e-03" rms="4.6097490191459656e-01" purity="6.8167877197265625e-01" nType="-99"/>
        </Node>
      </Node>
    </BinaryTree>
    <BinaryTree type="DecisionTree" boostWeight="1.0000000000000000e+00" itree="31">
      <Node pos="s" depth="0" NCoef="0" IVar="6" Cut="2.2445781230926514e+00" cType="1" res="1.0009174235165119e-02" rms="4.8466798663139343e-01" purity="5.0035566091537476e-01" nType="0">
        <Node pos="l" depth="1" NCoef="0" IVar="1" Cut="5.8748767089843750e+02" cType="1" res="-1.1193383485078812e-01" rms="4.6544739603996277e-01" purity="3.3191996812820435e-01" nType="0">
          <Node pos="l" depth="2" NCoef="0" IVar="-1" Cut="0.0000000000000000e+00" cType="1" res="-6.1238603666424751e-03" rms="4.4343098998069763e-01" purity="2.7607169747352600e-01" nType="-99"/>
          <Node pos="r" depth="2" NCoef="0" IVar="-1" Cut="0.0000000000000000e+00" cType="1" res="-6.8140414077788591e-04" rms="4.9554398655891418e-01" purity="4.4578123092651367e-01" nType="-99"/>
        </Node>
        <Node pos="r" depth="1" NCoef="0" IVar="5" Cut="2.5707087516784668e+00" cType="1" res="8.0005593597888947e-02" rms="4.8161232471466064e-01" purity="5.9703934192657471e-01" nType="0">
          <Node pos="l" depth="2" NCoef="0" IVar="-1" Cut="0.0000000000000000e+00" cType="1" res="2.5181630626320839e-03" rms="4.7564658522605896e-01" purity="6.2918871641159058e-01" nType="-99"/>
          <Node pos="r" depth="2" NCoef="0" IVar="-1" Cut="0.0000000000000000e+00" cType="1" res="-2.6340654585510492e-03" rms="4.8374789953231812e-01" purity="4.0702748298645020e-01" nType="-99"/>
        </Node>
      </Node>
    </BinaryTree>
    <BinaryTree type="DecisionTree" boostWeight="1.0000000000000000e+00" itree="32">
      <Node pos="s" depth="0" NCoef="0" IVar="6" Cut="3.4813184738159180e+00" cType="1" res="9.5970481634140015e-03" rms="4.8391738533973694e-01" purity="5.0052070617675781e-01" nType="0">
        <Node pos="l" depth="1" NCoef="0" IVar="5" Cut="2.4080915451049805e+00" cType="1" res="-5.7659380137920380e-02" rms="4.8239469528198242e-01" purity="4.0347632765769958e-01" nType="0">
          <Node pos="l" depth="2" NCoef="0" IVar="-1" Cut="0.0000000000000000e+00" cType="1" res="-5.9390469687059522e-04" rms="4.9030765891075134e-01" purity="4.4841286540031433e-01" nType="-99"/>
          <Node pos="r" depth="2" NCoef="0" IVar="-1" Cut="0.0000000000000000e+00" cType="1" res="-5.9241079725325108e-03" rms="4.4718277454376221e-01" purity="2.8782638907432556e-01" nType="-99"/>
        </Node>
        <Node pos="r" depth="1" NCoef="0" IVar="5" Cut="2.5441026687622070e+00" cType="1" res="1.3910366594791412e-01" rms="4.5992082357406616e-01" purity="6.8738585710525513e-01" nType="0">
          <Node pos="l" depth="2" NCoef="0" IVar="-1" Cut="0.0000000000000000e+00" cType="1" res="3.5378101747483015e-03" rms="4.4733339548110962e-01" purity="7.1961492300033569e-01" nType="-99"/>
          <Node pos="r" depth="2" NCoef="0" IVar="-1" Cut="0.0000000000000000e+00" cType="1" res="-5.0372513942420483e-04" rms="4.9797791242599487e-01" purity="5.0194406509399414e-01" nType="-99"/>
        </Node>
      </Node>
    </BinaryTree>
    <BinaryTree type="DecisionTree" boostWeight="1.0000000000000000e+00" itree="33">
      <Node pos="s" depth="0" NCoef="0" IVar="6" Cut="3.6107482910156250e+00" cType="1" res="1.4533796347677708e-02" rms="4.8385837674140930e-01" purity="5.0436824560165405e-01" nType="0">
        <Node pos="l" depth="1" NCoef="0" IVar="1" Cut="5.1492144775390625e+02" cType="1" res="-4.4232450425624847e-02" rms="4.8437613248825073e-01" purity="4.1793045401573181e-01" nType="0">
          <Node pos="l" depth="2" NCoef="0" IVar="-1" Cut="0.0000000000000000e+00" cType="1" res="-3.8774267304688692e-03" rms="4.6358045935630798e-01" purity="3.3127862215042114e-01" nType="-99"/>
          <Node pos="r" depth="2" NCoef="0" IVar="-1" Cut="0.0000000000000000e+00" cType="1" res="5.6308513740077615e-04" rms="4.9552378058433533e-01" purity="5.0308316946029663e-01" nType="-99"/>
        </Node>
        <Node pos="r" depth="1" NCoef="0" IVar="5" Cut="2.4157195091247559e+00" cType="1" res="1.4534069597721100e-01" rms="4.5629546046257019e-01" purity="6.9676887989044189e-01" nType="0">
          <Node pos="l" depth="2" NCoef="0" IVar="-1" Cut="0.0000000000000000e+00" cType="1" res="3.7799091078341007e-03" rms="4.3849974870681763e-01" purity="7.3784363269805908e-01" nType="-99"/>
          <Node pos="r" depth="2" NCoef="0" IVar="-1" Cut="0.0000000000000000e+00" cType="1" res="8.6941343033686280e-04" rms="4.9270111322402954e-01" purity="5.6613779067993164e-01" nType="-99"/>
        </Node>
      </Node>
    </BinaryTree>
    <BinaryTree type="DecisionTree" boostWeight="1.0000000000000000e+00" itree="34">
      <Node pos="s" depth="0" NCoef="0" IVar="6" Cut="2.3814446926116943e+00" cType="1" res="8.8988253846764565e-03" rms="4.8408436775207520e-01" purity="4.9791038036346436e-01" nType="0">
        <Node pos="l" depth="1" NCoef="0" IVar="1" Cut="5.2888031005859375e+02" cType="1" res="-9.1692917048931122e-02" rms="4.7035145759582520e-01" purity="3.4965938329696655e-01" nType="0">
          <Node pos="l" depth="2" NCoef="0" IVar="-1" Cut="0.0000000000000000e+00" cType="1" res="-5.8252168819308281e-03" rms="4.4125258922576904e-01" purity="2.7224123477935791e-01" nType="-99"/>
          <Node pos="r" depth="2" NCoef="0" IVar="-1" Cut="0.0000000000000000e+00" cType="1" res="-7.4209232116118073e-04" rms="4.9480018019676208e-01" purity="4.4285887479782104e-01" nType="-99"/>
        </Node>
        <Node pos="r" depth="1" NCoef="0" IVar="6" Cut="4.2109580039978027e+00" cType="1" res="7.7886112034320831e-02" rms="4.8127743601799011e-01" purity="5.9958308935165405e-01" nType="0">
          <Node pos="l" depth="2" NCoef="0" IVar="-1" Cut="0.0000000000000000e+00" cType="1" res="8.5289630806073546e-04" rms="4.9315911531448364e-01" purity="5.3744459152221680e-01" nType="-99"/>
          <Node pos="r" depth="2" NCoef="0" IVar="-1" Cut="0.0000000000000000e+00" cType="1" res="3.6889517214149237e-03" rms="4.3941959738731384e-01" purity="7.3333823680877686e-01" nType="-99"/>
        </Node>
      </Node>
    </BinaryTree>
    <BinaryTree type="DecisionTree" boostWeight="1.0000000000000000e+00" itree="35">
      <Node pos="s" depth="0" NCoef="0" IVar="6" Cut="2.2804272174835205e+00" cType="1" res="1.1573894880712032e-02" rms="4.8304909467697144e-01" purity="5.0096523761749268e-01" nType="0">
        <Node pos="l" depth="1" NCoef="0" IVar="1" Cut="5.7649133300781250e+02" cType="1" res="-1.0322358459234238e-01" rms="4.6541929244995117e-01" purity="3.3560684323310852e-01" nType="0">
          <Node pos="l" depth="2" NCoef="0" IVar="-1" Cut="0.0000000000000000e+00" cType="1" res="-6.0723964124917984e-03" rms="4.4028723239898682e-01" purity="2.7102562785148621e-01" nType="-99"/>
          <Node pos="r" depth="2" NCoef="0" IVar="-1" Cut="0.0000000000000000e+00" cType="1" res="-3.6346176057122648e-04" rms="4.9604812264442444e-01" purity="4.5534044504165649e-01" nType="-99"/>
        </Node>
        <Node pos="r" depth="1" NCoef="0" IVar="6" Cut="4.1256122589111328e+00" cType="1" res="8.0066606402397156e-02" rms="4.8037379980087280e-01" purity="5.9962457418441772e-01" nType="0">
          <Node pos="l" depth="2" NCoef="0" IVar="-1" Cut="0.0000000000000000e+00" cType="1" res="8.3460705354809761e-04" rms="4.9296012520790100e-01" purity="5.3215003013610840e-01" nType="-99"/>
          <Node pos="r" depth="2" NCoef="0" IVar="-1" Cut="0.0000000000000000e+00" cType="1" res="3.7328023463487625e-03" rms="4.3760302662849426e-01" purity="7.3732638359069824e-01" nType="-99"/>
        </Node>
      </Node>
    </BinaryTree>
    <BinaryTree type="DecisionTree" boostWeight="1.0000000000000000e+00" itree="36">
      <Node pos="s" depth="0" NCoef="0" IVar="6" Cut="3.4519336223602295e+00" cType="1" res="9.9013457074761391e-03" rms="4.8338615894317627e-01" purity="4.9865791201591492e-01" nType="0">
        <Node pos="l" depth="1" NCoef="0" IVar="5" Cut="2.5161395072937012e+00" cType="1" res="-5.0199415534734726e-02" rms="4.8278903961181641e-01" purity="4.0606603026390076e-01" nType="0">
          <Node pos="l" depth="2" NCoef="0" IVar="-1" Cut="0.0000000000000000e+00" cType="1" res="-5.9511669678613544e-04" rms="4.8971432447433472e-01" purity="4.4254681468009949e-01" nType="-99"/>
          <Node pos="r" depth="2" NCoef="0" IVar="-1" Cut="0.0000000000000000e+00" cType="1" res="-6.8622180260717869e-03" rms="4.3423596024513245e-01" purity="2.6199781894683838e-01" nType="-99"/>
        </Node>
        <Node pos="r" depth="1" NCoef="0" IVar="1" Cut="4.5327008056640625e+02" cType="1" res="1.2839917838573456e-01" rms="4.6220785379409790e-01" purity="6.8121713399887085e-01" nType="0">
          <Node pos="l" depth="2" NCoef="0" IVar="-1" Cut="0.0000000000000000e+00" cType="1" res="4.3273679330013692e-04" rms="4.9188125133514404e-01" purity="5.6533354520797729e-01" nType="-99"/>
          <Node pos="r" depth="2" NCoef="0" IVar="-1" Cut="0.0000000000000000e+00" cType="1" res="3.5041498485952616e-03" rms="4.4619566202163696e-01" purity="7.1895498037338257e-01" nType="-99"/>
        </Node>
      </Node>
    </BinaryTree>
    <BinaryTree type="DecisionTree" boostWeight="1.0000000000000000e+00" itree="37">
      <Node pos="s" depth="0" NCoef="0" IVar="6" Cut="2.7001657485961914e+00" cType="1" res="1.3053257018327713e-02" rms="4.8246875405311584e-01" purity="5.0278252363204956e-01" nType="0">
        <Node pos="l" depth="1" NCoef="0" IVar="1" Cut="4.3221343994140625e+02" cType="1" res="-7.5886704027652740e-02" rms="4.7428011894226074e-01" purity="3.6516472697257996e-01" nType="0">
          <Node pos="l" depth="2" NCoef="0" IVar="-1" Cut="0.0000000000000000e+00" cType="1" res="-7.3705897666513920e-03" rms="4.1842949390411377e-01" purity="2.3029170930385590e-01" nType="-99"/>
          <Node pos="r" depth="2" NCoef="0" IVar="-1" Cut="0.0000000000000000e+00" cType="1" res="-1.2754598865285516e-03" rms="4.8862114548683167e-01" purity="4.1501745581626892e-01" nType="-99"/>
        </Node>
        <Node pos="r" depth="1" NCoef="0" IVar="5" Cut="2.3210499286651611e+00" cType="1" res="9.4802729785442352e-02" rms="4.7541919350624084e-01" purity="6.2927442789077759e-01" nType="0">
          <Node pos="l" depth="2" NCoef="0" IVar="-1" Cut="0.0000000000000000e+00" cType="1" res="3.1062194611877203e-03" rms="4.6015235781669617e-01" purity="6.8233758211135864e-01" nType="-99"/>
          <Node pos="r" depth="2" NCoef="0" IVar="-1" Cut="0.0000000000000000e+00" cType="1" res="1.0158243821933866e-04" rms="4.9198880791664124e-01" purity="5.2357888221740723e-01" nType="-99"/>
        </Node>
      </Node>
    </BinaryTree>
    <BinaryTree type="DecisionTree" boostWeight="1.0000000000000000e+00" itree="38">
      <Node pos="s" depth="0" NCoef="0" IVar="6" Cut="3.4133126735687256e+00" cType="1" res="1.1665801517665386e-02" rms="4.8241648077964783e-01" purity="5.0081974267959595e-01" nType="0">
        <Node pos="l" depth="1" NCoef="0" IVar="5" Cut="2.2319736480712891e+00" cType="1" res="-4.9602866172790527e-02" rms="4.8204520344734192e-01" purity="4.0462076663970947e-01" nType="0">
          <Node pos="l" depth="2" NCoef="0" IVar="-1" Cut="0.0000000000000000e+00" cType="1" res="1.0760572331491858e-04" rms="4.9207153916358948e-01" purity="4.6799299120903015e-01" nType="-99"/>
          <Node pos="r" depth="2" NCoef="0" IVar="-1" Cut="0.0000000000000000e+00" cType="1" res="-3.9283703081309795e-03" rms="4.6299877762794495e-01" purity="3.3263450860977173e-01" nType="-99"/>
        </Node>
        <Node pos="r" depth="1" NCoef="0" IVar="1" Cut="4.5369525146484375e+02" cType="1" res="1.2676720321178436e-01" rms="4.6162533760070801e-01" purity="6.8154251575469971e-01" nType="0">
          <Node pos="l" depth="2" NCoef="0" IVar="-1" Cut="0.0000000000000000e+00" cType="1" res="5.0646887393668294e-04" rms="4.9092432856559753e-01" purity="5.6847518682479858e-01" nType="-99"/>
          <Node pos="r" depth="2" NCoef="0" IVar="-1" Cut="0.0000000000000000e+00" cType="1" res="3.4497354645282030e-03" rms="4.4635936617851257e-01" purity="7.1808159351348877e-01" nType="-99"/>
        </Node>
      </Node>
    </BinaryTree>
    <BinaryTree type="DecisionTree" boostWeight="1.0000000000000000e+00" itree="39">
      <Node pos="s" depth="0" NCoef="0" IVar="6" Cut="3.4472954273223877e+00" cType="1" res="1.3305010274052620e-02" rms="4.8235672712326050e-01" purity="5.0226378440856934e-01" nType="0">
        <Node pos="l" depth="1" NCoef="0" IVar="1" Cut="4.3710363769531250e+02" cType="1" res="-4.4394019991159439e-02" rms="4.8281133174896240e-01" purity="4.0963983535766602e-01" nType="0">
          <Node pos="l" depth="2" NCoef="0" IVar="-1" Cut="0.0000000000000000e+00" cType="1" res="-5.5031566880643368e-03" rms="4.4207513332366943e-01" purity="2.7538543939590454e-01" nType="-99"/>
          <Node pos="r" depth="2" NCoef="0" IVar="-1" Cut="0.0000000000000000e+00" cType="1" res="-1.9178570073563606e-04" rms="4.9275913834571838e-01" purity="4.6232157945632935e-01" nType="-99"/>
        </Node>
        <Node pos="r" depth="1" NCoef="0" IVar="5" Cut="2.4867398738861084e+00" cType="1" res="1.2489827722311020e-01" rms="4.6144074201583862e-01" purity="6.8140381574630737e-01" nType="0">
          <Node pos="l" depth="2" NCoef="0" IVar="-1" Cut="0.0000000000000000e+00" cType="1" res="3.3525340259075165e-03" rms="4.4663813710212708e-01" purity="7.2036039829254150e-01" nType="-99"/>
          <Node pos="r" depth="2" NCoef="0" IVar="-1" Cut="0.0000000000000000e+00" cType="1" res="-5.1166361663490534e-04" rms="4.9666413664817810e-01" purity="5.0969815254211426e-01" nType="-99"/>
        </Node>
      </Node>
    </BinaryTree>
    <BinaryTree type="DecisionTree" boostWeight="1.0000000000000000e+00" itree="40">
      <Node pos="s" depth="0" NCoef="0" IVar="6" Cut="2.2864224910736084e+00" cType="1" res="1.0162791237235069e-02" rms="4.8210307955741882e-01" purity="4.9818527698516846e-01" nType="0">
        <Node pos="l" depth="1" NCoef="0" IVar="5" Cut="2.5266065597534180e+00" cType="1" res="-9.2552416026592255e-02" rms="4.6710577607154846e-01" purity="3.3984547853469849e-01" nType="0">
          <Node pos="l" depth="2" NCoef="0" IVar="-1" Cut="0.0000000000000000e+00" cType="1" res="-2.1939077414572239e-03" rms="4.7838631272315979e-01" purity="3.7338960170745850e-01" nType="-99"/>
          <Node pos="r" depth="2" NCoef="0" IVar="-1" Cut="0.0000000000000000e+00" cType="1" res="-9.3582384288311005e-03" rms="4.0015816688537598e-01" purity="2.0416900515556335e-01" nType="-99"/>
        </Node>
        <Node pos="r" depth="1" NCoef="0" IVar="6" Cut="4.4984750747680664e+00" cType="1" res="7.3157832026481628e-02" rms="4.8032811284065247e-01" purity="5.9529477357864380e-01" nType="0">
          <Node pos="l" depth="2" NCoef="0" IVar="-1" Cut="0.0000000000000000e+00" cType="1" res="9.5633720047771931e-04" rms="4.9059838056564331e-01" purity="5.4448169469833374e-01" nType="-99"/>
          <Node pos="r" depth="2" NCoef="0" IVar="-1" Cut="0.0000000000000000e+00" cType="1" res="3.8925996050238609e-03" rms="4.2641937732696533e-01" purity="7.5708436965942383e-01" nType="-99"/>
        </Node>
      </Node>
    </BinaryTree>
    <BinaryTree type="DecisionTree" boostWeight="1.0000000000000000e+00" itree="41">
      <Node pos="s" depth="0" NCoef="0" IVar="6" Cut="2.3536987304687500e+00" cType="1" res="1.5761112794280052e-02" rms="4.8183760046958923e-01" purity="5.0470495223999023e-01" nType="0">
        <Node pos="l" depth="1" NCoef="0" IVar="5" Cut="2.6002955436706543e+00" cType="1" res="-8.3105504512786865e-02" rms="4.6975129842758179e-01" purity="3.4907376766204834e-01" nType="0">
          <Node pos="l" depth="2" NCoef="0" IVar="-1" Cut="0.0000000000000000e+00" cType="1" res="-1.9204274285584688e-03" rms="4.8005667328834534e-01" purity="3.8001433014869690e-01" nType="-99"/>
          <Node pos="r" depth="2" NCoef="0" IVar="-1" Cut="0.0000000000000000e+00" cType="1" res="-1.1079913936555386e-02" rms="3.7689530849456787e-01" purity="1.7592239379882812e-01" nType="-99"/>
        </Node>
        <Node pos="r" depth="1" NCoef="0" IVar="1" Cut="4.6550302124023438e+02" cType="1" res="7.9422205686569214e-02" rms="4.7877603769302368e-01" purity="6.0491722822189331e-01" nType="0">
          <Node pos="l" depth="2" NCoef="0" IVar="-1" Cut="0.0000000000000000e+00" cType="1" res="-6.0393643798306584e-04" rms="4.9023821949958801e-01" purity="4.8285588622093201e-01" nType="-99"/>
          <Node pos="r" depth="2" NCoef="0" IVar="-1" Cut="0.0000000000000000e+00" cType="1" res="2.7734050527215004e-03" rms="4.6718329191207886e-01" purity="6.5698415040969849e-01" nType="-99"/>
        </Node>
      </Node>
    </BinaryTree>
    <BinaryTree type="DecisionTree" boostWeight="1.0000000000000000e+00" itree="42">
      <Node pos="s" depth="0" NCoef="0" IVar="6" Cut="3.5019676685333252e+00" cType="1" res="1.4356323517858982e-02" rms="4.8092997074127197e-01" purity="5.0279778242111206e-01" nType="0">
        <Node pos="l" depth="1" NCoef="0" IVar="1" Cut="4.9189709472656250e+02" cType="1" res="-4.0857568383216858e-02" rms="4.8198458552360535e-01" purity="4.1246739029884338e-01" nType="0">
          <Node pos="l" depth="2" NCoef="0" IVar="-1" Cut="0.0000000000000000e+00" cType="1" res="-4.0237172506749630e-03" rms="4.5588597655296326e-01" purity="3.1402382254600525e-01" nType="-99"/>
          <Node pos="r" depth="2" NCoef="0" IVar="-1" Cut="0.0000000000000000e+00" cType="1" res="3.5160736297257245e-04" rms="4.9466162919998169e-01" purity="4.8853141069412231e-01" nType="-99"/>
        </Node>
        <Node pos="r" depth="1" NCoef="0" IVar="5" Cut="2.4913606643676758e+00" cType="1" res="1.2855137884616852e-01" rms="4.5809137821197510e-01" purity="6.8962186574935913e-01" nType="0">
          <Node pos="l" depth="2" NCoef="0" IVar="-1" Cut="0.0000000000000000e+00" cType="1" res="3.4033514093607664e-03" rms="4.4243651628494263e-01" purity="7.2863787412643433e-01" nType="-99"/>
          <Node pos="r" depth="2" NCoef="0" IVar="-1" Cut="0.0000000000000000e+00" cType="1" res="-5.2682880777865648e-04" rms="4.9724295735359192e-01" purity="5.1196390390396118e-01" nType="-99"/>
        </Node>
      </Node>
    </BinaryTree>
    <BinaryTree type="DecisionTree" boostWeight="1.0000000000000000e+00" itree="43">
      <Node pos="s" depth="0" NCoef="0" IVar="6" Cut="2.4117407798767090e+00" cType="1" res="1.2586892582476139e-02" rms="4.8088568449020386e-01" purity="5.0090700387954712e-01" nType="0">
        <Node pos="l" depth="1" NCoef="0" IVar="1" Cut="5.6192010498046875e+02" cType="1" res="-8.4225125610828400e-02" rms="4.6834653615951538e-01" purity="3.4576490521430969e-01" nType="0">
          <Node pos="l" depth="2" NCoef="0" IVar="-1" Cut="0.0000000000000000e+00" cType="1" res="-4.8846374265849590e-03" rms="4.4673189520835876e-01" purity="2.8473836183547974e-01" nType="-99"/>
          <Node pos="r" depth="2" NCoef="0" IVar="-1" Cut="0.0000000000000000e+00" cType="1" res="-5.2132806740701199e-04" rms="4.9436330795288086e-01" purity="4.4543871283531189e-01" nType="-99"/>
        </Node>
        <Node pos="r" depth="1" NCoef="0" IVar="6" Cut="4.2312884330749512e+00" cType="1" res="7.9980984330177307e-02" rms="4.7798568010330200e-01" purity="6.0890656709671021e-01" nType="0">
          <Node pos="l" depth="2" NCoef="0" IVar="-1" Cut="0.0000000000000000e+00" cType="1" res="9.9374831188470125e-04" rms="4.9101686477661133e-01" purity="5.4839110374450684e-01" nType="-99"/>
          <Node pos="r" depth="2" NCoef="0" IVar="-1" Cut="0.0000000000000000e+00" cType="1" res="3.5601223353296518e-03" rms="4.3600133061408997e-01" purity="7.3897337913513184e-01" nType="-99"/>
        </Node>
      </Node>
    </BinaryTree>
    <BinaryTree type="DecisionTree" boostWeight="1.0000000000000000e+00" itree="44">
      <Node pos="s" depth="0" NCoef="0" IVar="6" Cut="3.9554927349090576e+00" cType="1" res="1.4598206616938114e-02" rms="4.8025712370872498e-01" purity="5.0333052873611450e-01" nType="0">
        <Node pos="l" depth="1" NCoef="0" IVar="6" Cut="1.8468018770217896e+00" cType="1" res="-3.2108224928379059e-02" rms="4.8284745216369629e-01" purity="4.3001800775527954e-01" nType="0">
          <Node pos="l" depth="2" NCoef="0" IVar="-1" Cut="0.0000000000000000e+00" cType="1" res="-4.5634401030838490e-03" rms="4.5265755057334900e-01" purity="3.0461573600769043e-01" nType="-99"/>
          <Node pos="r" depth="2" NCoef="0" IVar="-1" Cut="0.0000000000000000e+00" cType="1" res="3.5820272751152515e-04" rms="4.9162527918815613e-01" purity="4.9460995197296143e-01" nType="-99"/>
        </Node>
        <Node pos="r" depth="1" NCoef="0" IVar="5" Cut="2.3917102813720703e+00" cType="1" res="1.5487533807754517e-01" rms="4.4376188516616821e-01" purity="7.2351598739624023e-01" nType="0">
          <Node pos="l" depth="2" NCoef="0" IVar="-1" Cut="0.0000000000000000e+00" cType="1" res="3.8032010197639465e-03" rms="4.2477533221244812e-01" purity="7.6183348894119263e-01" nType="-99"/>
          <Node pos="r" depth="2" NCoef="0" IVar="-1" Cut="0.0000000000000000e+00" cType="1" res="1.6050307312980294e-03" rms="4.8335522413253784e-01" purity="6.1484867334365845e-01" nType="-99"/>
        </Node>
      </Node>
    </BinaryTree>
    <BinaryTree type="DecisionTree" boostWeight="1.0000000000000000e+00" itree="45">
      <Node pos="s" depth="0" NCoef="0" IVar="6" Cut="2.3130521774291992e+00" cType="1" res="9.7862370312213898e-03" rms="4.8022645711898804e-01" purity="4.9767601490020752e-01" nType="0">
        <Node pos="l" depth="1" NCoef="0" IVar="5" Cut="2.4828574657440186e+00" cType="1" res="-8.8394030928611755e-02" rms="4.6577283740043640e-01" purity="3.3707243204116821e-01" nType="0">
          <Node pos="l" depth="2" NCoef="0" IVar="-1" Cut="0.0000000000000000e+00" cType="1" res="-2.0044378470629454e-03" rms="4.7884455323219299e-01" purity="3.7467911839485168e-01" nType="-99"/>
          <Node pos="r" depth="2" NCoef="0" IVar="-1" Cut="0.0000000000000000e+00" cType="1" res="-8.4146503359079361e-03" rms="4.0658369660377502e-01" purity="2.1420691907405853e-01" nType="-99"/>
        </Node>
        <Node pos="r" depth="1" NCoef="0" IVar="5" Cut="2.5466427803039551e+00" cType="1" res="7.1426548063755035e-02" rms="4.7890540957450867e-01" purity="5.9850746393203735e-01" nType="0">
          <Node pos="l" depth="2" NCoef="0" IVar="-1" Cut="0.0000000000000000e+00" cType="1" res="2.3604340385645628e-03" rms="4.7216546535491943e-01" purity="6.3523650169372559e-01" nType="-99"/>
          <Node pos="r" depth="2" NCoef="0" IVar="-1" Cut="0.0000000000000000e+00" cType="1" res="-2.6934714987874031e-03" rms="4.8296675086021423e-01" purity="4.0519222617149353e-01" nType="-99"/>
        </Node>
      </Node>
    </BinaryTree>
    <BinaryTree type="DecisionTree" boostWeight="1.0000000000000000e+00" itree="46">
      <Node pos="s" depth="0" NCoef="0" IVar="6" Cut="3.8533744812011719e+00" cType="1" res="1.2382380664348602e-02" rms="4.8003113269805908e-01" purity="5.0044488906860352e-01" nType="0">
        <Node pos="l" depth="1" NCoef="0" IVar="1" Cut="4.4494995117187500e+02" cType="1" res="-3.2693896442651749e-02" rms="4.8254621028900146e-01" purity="4.2639094591140747e-01" nType="0">
          <Node pos="l" depth="2" NCoef="0" IVar="-1" Cut="0.0000000000000000e+00" cType="1" res="-4.7689778730273247e-03" rms="4.4721236824989319e-01" purity="2.9344427585601807e-01" nType="-99"/>
          <Node pos="r" depth="2" NCoef="0" IVar="-1" Cut="0.0000000000000000e+00" cType="1" res="1.7459686205256730e-04" rms="4.9146306514739990e-01" purity="4.8219510912895203e-01" nType="-99"/>
        </Node>
        <Node pos="r" depth="1" NCoef="0" IVar="5" Cut="2.3756384849548340e+00" cType="1" res="1.4073939621448517e-01" rms="4.4863650202751160e-01" purity="7.1131724119186401e-01" nType="0">
          <Node pos="l" depth="2" NCoef="0" IVar="-1" Cut="0.0000000000000000e+00" cType="1" res="3.7377118133008480e-03" rms="4.2605969309806824e-01" purity="7.5921702384948730e-01" nType="-99"/>
          <Node pos="r" depth="2" NCoef="0" IVar="-1" Cut="0.0000000000000000e+00" cType="1" res="7.9002778511494398e-04" rms="4.8919528722763062e-01" purity="5.7989549636840820e-01" nType="-99"/>
        </Node>
      </Node>
    </BinaryTree>
    <BinaryTree type="DecisionTree" boostWeight="1.0000000000000000e+00" itree="47">
      <Node pos="s" depth="0" NCoef="0" IVar="6" Cut="3.3050475120544434e+00" cType="1" res="1.2260325253009796e-02" rms="4.7969204187393188e-01" purity="4.9998208880424500e-01" nType="0">
        <Node pos="l" depth="1" NCoef="0" IVar="5" Cut="2.4260139465332031e+00" cType="1" res="-4.6967588365077972e-02" rms="4.7938397526741028e-01" purity="3.9759576320648193e-01" nType="0">
          <Node pos="l" depth="2" NCoef="0" IVar="-1" Cut="0.0000000000000000e+00" cType="1" res="-3.4453521948307753e-04" rms="4.8905387520790100e-01" purity="4.4382143020629883e-01" nType="-99"/>
          <Node pos="r" depth="2" NCoef="0" IVar="-1" Cut="0.0000000000000000e+00" cType="1" res="-5.7673072442412376e-03" rms="4.3731462955474854e-01" purity="2.7091521024703979e-01" nType="-99"/>
        </Node>
        <Node pos="r" depth="1" NCoef="0" IVar="5" Cut="2.4185142517089844e+00" cType="1" res="1.1234034597873688e-01" rms="4.6331429481506348e-01" purity="6.7298871278762817e-01" nType="0">
          <Node pos="l" depth="2" NCoef="0" IVar="-1" Cut="0.0000000000000000e+00" cType="1" res="3.1410390511155128e-03" rms="4.4770926237106323e-01" purity="7.1589100360870361e-01" nType="-99"/>
          <Node pos="r" depth="2" NCoef="0" IVar="-1" Cut="0.0000000000000000e+00" cType="1" res="2.1054764511063695e-04" rms="4.9366077780723572e-01" purity="5.4194462299346924e-01" nType="-99"/>
        </Node>
      </Node>
    </BinaryTree>
    <BinaryTree type="DecisionTree" boostWeight="1.0000000000000000e+00" itree="48">
      <Node pos="s" depth="0" NCoef="0" IVar="6" Cut="3.0260803699493408e+00" cType="1" res="9.4545725733041763e-03" rms="4.7950109839439392e-01" purity="4.9691560864448547e-01" nType="0">
        <Node pos="l" depth="1" NCoef="0" IVar="1" Cut="4.4819445800781250e+02" cType="1" res="-5.5270694196224213e-02" rms="4.7600346803665161e-01" purity="3.8201734423637390e-01" nType="0">
          <Node pos="l" depth="2" NCoef="0" IVar="-1" Cut="0.0000000000000000e+00" cType="1" res="-5.9411553665995598e-03" rms="4.2792567610740662e-01" purity="2.5024735927581787e-01" nType="-99"/>
          <Node pos="r" depth="2" NCoef="0" IVar="-1" Cut="0.0000000000000000e+00" cType="1" res="-4.5722437789663672e-04" rms="4.9145594239234924e-01" purity="4.4285643100738525e-01" nType="-99"/>
        </Node>
        <Node pos="r" depth="1" NCoef="0" IVar="5" Cut="2.6005799770355225e+00" cType="1" res="9.4233430922031403e-02" rms="4.7076952457427979e-01" purity="6.4741241931915283e-01" nType="0">
          <Node pos="l" depth="2" NCoef="0" IVar="-1" Cut="0.0000000000000000e+00" cType="1" res="2.6507454458624125e-03" rms="4.6226504445075989e-01" purity="6.7814904451370239e-01" nType="-99"/>
          <Node pos="r" depth="2" NCoef="0" IVar="-1" Cut="0.0000000000000000e+00" cType="1" res="-2.3585713934153318e-03" rms="4.9224203824996948e-01" purity="4.3321070075035095e-01" nType="-99"/>
        </Node>
      </Node>
    </BinaryTree>
    <BinaryTree type="DecisionTree" boostWeight="1.0000000000000000e+00" itree="49">
      <Node pos="s" depth="0" NCoef="0" IVar="6" Cut="3.4911155700683594e+00" cType="1" res="1.3953799381852150e-02" rms="4.7898289561271667e-01" purity="5.0256556272506714e-01" nType="0">
        <Node pos="l" depth="1" NCoef="0" IVar="5" Cut="2.4529483318328857e+00" cType="1" res="-3.9503760635852814e-02" rms="4.8020061850547791e-01" purity="4.0839168429374695e-01" nType="0">
          <Node pos="l" depth="2" NCoef="0" IVar="-1" Cut="0.0000000000000000e+00" cType="1" res="-1.9607173453550786e-04" rms="4.8867243528366089e-01" purity="4.5202836394309998e-01" nType="-99"/>
          <Node pos="r" depth="2" NCoef="0" IVar="-1" Cut="0.0000000000000000e+00" cType="1" res="-5.5573550052940845e-03" rms="4.3814966082572937e-01" purity="2.7466902136802673e-01" nType="-99"/>
        </Node>
        <Node pos="r" depth="1" NCoef="0" IVar="1" Cut="4.7202883911132812e+02" cType="1" res="1.1852742731571198e-01" rms="4.5892682671546936e-01" purity="6.8678861856460571e-01" nType="0">
          <Node pos="l" depth="2" NCoef="0" IVar="-1" Cut="0.0000000000000000e+00" cType="1" res="5.3318199934437871e-04" rms="4.8721942305564880e-01" purity="5.8281975984573364e-01" nType="-99"/>
          <Node pos="r" depth="2" NCoef="0" IVar="-1" Cut="0.0000000000000000e+00" cType="1" res="3.3326211851090193e-03" rms="4.4083261489868164e-01" purity="7.2919982671737671e-01" nType="-99"/>
        </Node>
      </Node>
    </BinaryTree>
    <BinaryTree type="DecisionTree" boostWeight="1.0000000000000000e+00" itree="50">
      <Node pos="s" depth="0" NCoef="0" IVar="6" Cut="3.9602665901184082e+00" cType="1" res="1.3930773362517357e-02" rms="4.7848659753799438e-01" purity="5.0182950496673584e-01" nType="0">
        <Node pos="l" depth="1" NCoef="0" IVar="1" Cut="5.2329351806640625e+02" cType="1" res="-3.0360352247953415e-02" rms="4.8176348209381104e-01" purity="4.2959508299827576e-01" nType="0">
          <Node pos="l" depth="2" NCoef="0" IVar="-1" Cut="0.0000000000000000e+00" cType="1" res="-2.8939412441104650e-03" rms="4.6491652727127075e-01" purity="3.5146197676658630e-01" nType="-99"/>
          <Node pos="r" depth="2" NCoef="0" IVar="-1" Cut="0.0000000000000000e+00" cType="1" res="7.0786155993118882e-04" rms="4.9257290363311768e-01" purity="5.1153606176376343e-01" nType="-99"/>
        </Node>
        <Node pos="r" depth="1" NCoef="0" IVar="5" Cut="2.3612282276153564e+00" cType="1" res="1.5443499386310577e-01" rms="4.3932092189788818e-01" purity="7.3097789287567139e-01" nType="0">
          <Node pos="l" depth="2" NCoef="0" IVar="-1" Cut="0.0000000000000000e+00" cType="1" res="3.8223036099225283e-03" rms="4.1800418496131897e-01" purity="7.7242302894592285e-01" nType="-99"/>
          <Node pos="r" depth="2" NCoef="0" IVar="-1" Cut="0.0000000000000000e+00" cType="1" res="1.7150108469650149e-03" rms="4.7996717691421509e-01" purity="6.2531960010528564e-01" nType="-99"/>
        </Node>
      </Node>
    </BinaryTree>
    <BinaryTree type="DecisionTree" boostWeight="1.0000000000000000e+00" itree="51">
      <Node pos="s" depth="0" NCoef="0" IVar="6" Cut="3.7201311588287354e+00" cType="1" res="1.3484830036759377e-02" rms="4.7798660397529602e-01" purity="5.0157934427261353e-01" nType="0">
        <Node pos="l" depth="1" NCoef="0" IVar="1" Cut="4.5604074096679688e+02" cType="1" res="-3.6062575876712799e-02" rms="4.8037418723106384e-01" purity="4.1690608859062195e-01" nType="0">
          <Node pos="l" depth="2" NCoef="0" IVar="-1" Cut="0.0000000000000000e+00" cType="1" res="-4.7842869535088539e-03" rms="4.4399216771125793e-01" purity="2.8654712438583374e-01" nType="-99"/>
          <Node pos="r" depth="2" NCoef="0" IVar="-1" Cut="0.0000000000000000e+00" cType="1" res="2.0868166757281870e-04" rms="4.9158450961112976e-01" purity="4.8126685619354248e-01" nType="-99"/>
        </Node>
        <Node pos="r" depth="1" NCoef="0" IVar="5" Cut="2.4639642238616943e+00" cType="1" res="1.3482426106929779e-01" rms="4.4959121942520142e-01" purity="7.0894044637680054e-01" nType="0">
          <Node pos="l" depth="2" NCoef="0" IVar="-1" Cut="0.0000000000000000e+00" cType="1" res="3.3998664002865553e-03" rms="4.3397036194801331e-01" purity="7.4496209621429443e-01" nType="-99"/>
          <Node pos="r" depth="2" NCoef="0" IVar="-1" Cut="0.0000000000000000e+00" cType="1" res="7.1621005190536380e-04" rms="4.9199706315994263e-01" purity="5.6782859563827515e-01" nType="-99"/>
        </Node>
      </Node>
    </BinaryTree>
    <BinaryTree type="DecisionTree" boostWeight="1.0000000000000000e+00" itree="52">
      <Node pos="s" depth="0" NCoef="0" IVar="6" Cut="2.1073932647705078e+00" cType="1" res="1.4912383630871773e-02" rms="4.7806942462921143e-01" purity="5.0264388322830200e-01" nType="0">
        <Node pos="l" depth="1" NCoef="0" IVar="4" Cut="8.4853858947753906e+01" cType="1" res="-9.5771081745624542e-02" rms="4.5920968055725098e-01" purity="3.2157897949218750e-01" nType="0">
          <Node pos="l" depth="2" NCoef="0" IVar="-1" Cut="0.0000000000000000e+00" cType="1" res="-5.2007772028446198e-03" rms="4.4061246514320374e-01" purity="2.7786234021186829e-01" nType="-99"/>
          <Node pos="r" depth="2" NCoef="0" IVar="-1" Cut="0.0000000000000000e+00" cType="1" res="-1.0832983534783125e-03" rms="4.8474922776222229e-01" purity="4.0035349130630493e-01" nType="-99"/>
        </Node>
        <Node pos="r" depth="1" NCoef="0" IVar="6" Cut="4.1499500274658203e+00" cType="1" res="6.8052947521209717e-02" rms="4.7784051299095154e-01" purity="5.8957546949386597e-01" nType="0">
          <Node pos="l" depth="2" NCoef="0" IVar="-1" Cut="0.0000000000000000e+00" cType="1" res="7.5068668229505420e-04" rms="4.9015998840332031e-01" purity="5.2327185869216919e-01" nType="-99"/>
          <Node pos="r" depth="2" NCoef="0" IVar="-1" Cut="0.0000000000000000e+00" cType="1" res="3.3588120713829994e-03" rms="4.3548256158828735e-01" purity="7.3983013629913330e-01" nType="-99"/>
        </Node>
      </Node>
    </BinaryTree>
    <BinaryTree type="DecisionTree" boostWeight="1.0000000000000000e+00" itree="53">
      <Node pos="s" depth="0" NCoef="0" IVar="6" Cut="4.1514635086059570e+00" cType="1" res="1.2374744750559330e-02" rms="4.7805371880531311e-01" purity="4.9941235780715942e-01" nType="0">
        <Node pos="l" depth="1" NCoef="0" IVar="5" Cut="2.5190234184265137e+00" cType="1" res="-2.5261938571929932e-02" rms="4.8178333044052124e-01" purity="4.3652153015136719e-01" nType="0">
          <Node pos="l" depth="2" NCoef="0" IVar="-1" Cut="0.0000000000000000e+00" cType="1" res="5.5182259529829025e-05" rms="4.8716300725936890e-01" purity="4.7367626428604126e-01" nType="-99"/>
          <Node pos="r" depth="2" NCoef="0" IVar="-1" Cut="0.0000000000000000e+00" cType="1" res="-5.2995756268501282e-03" rms="4.4201049208641052e-01" purity="2.8448021411895752e-01" nType="-99"/>
        </Node>
        <Node pos="r" depth="1" NCoef="0" IVar="5" Cut="2.2346806526184082e+00" cType="1" res="1.5639078617095947e-01" rms="4.3436884880065918e-01" purity="7.4006289243698120e-01" nType="0">
          <Node pos="l" depth="2" NCoef="0" IVar="-1" Cut="0.0000000000000000e+00" cType="1" res="4.0408545173704624e-03" rms="4.0286728739738464e-01" purity="7.9457283020019531e-01" nType="-99"/>
          <Node pos="r" depth="2" NCoef="0" IVar="-1" Cut="0.0000000000000000e+00" cType="1" res="2.2350656799972057e-03" rms="4.6611991524696350e-01" purity="6.6883164644241333e-01" nType="-99"/>
        </Node>
      </Node>
    </BinaryTree>
    <BinaryTree type="DecisionTree" boostWeight="1.0000000000000000e+00" itree="54">
      <Node pos="s" depth="0" NCoef="0" IVar="6" Cut="2.3458373546600342e+00" cType="1" res="1.1457166634500027e-02" rms="4.7749161720275879e-01" purity="4.9889540672302246e-01" nType="0">
        <Node pos="l" depth="1" NCoef="0" IVar="1" Cut="4.6664855957031250e+02" cType="1" res="-8.3090901374816895e-02" rms="4.6330225467681885e-01" purity="3.3507221937179565e-01" nType="0">
          <Node pos="l" depth="2" NCoef="0" IVar="-1" Cut="0.0000000000000000e+00" cType="1" res="-6.5013803541660309e-03" rms="4.1535824537277222e-01" purity="2.2708576917648315e-01" nType="-99"/>
          <Node pos="r" depth="2" NCoef="0" IVar="-1" Cut="0.0000000000000000e+00" cType="1" res="-1.4369895216077566e-03" rms="4.8638421297073364e-01" purity="4.0129289031028748e-01" nType="-99"/>
        </Node>
        <Node pos="r" depth="1" NCoef="0" IVar="1" Cut="4.3776489257812500e+02" cType="1" res="7.2591349482536316e-02" rms="4.7656297683715820e-01" purity="6.0482245683670044e-01" nType="0">
          <Node pos="l" depth="2" NCoef="0" IVar="-1" Cut="0.0000000000000000e+00" cType="1" res="-9.4639277085661888e-04" rms="4.8583570122718811e-01" purity="4.6916469931602478e-01" nType="-99"/>
          <Node pos="r" depth="2" NCoef="0" IVar="-1" Cut="0.0000000000000000e+00" cType="1" res="2.4028760381042957e-03" rms="4.6920588612556458e-01" purity="6.4504748582839966e-01" nType="-99"/>
        </Node>
      </Node>
    </BinaryTree>
    <BinaryTree type="DecisionTree" boostWeight="1.0000000000000000e+00" itree="55">
      <Node pos="s" depth="0" NCoef="0" IVar="6" Cut="2.2804272174835205e+00" cType="1" res="9.7377728670835495e-03" rms="4.7815927863121033e-01" purity="4.9635782837867737e-01" nType="0">
        <Node pos="l" depth="1" NCoef="0" IVar="5" Cut="2.2536637783050537e+00" cType="1" res="-7.9611182212829590e-02" rms="4.6385863423347473e-01" purity="3.3580559492111206e-01" nType="0">
          <Node pos="l" depth="2" NCoef="0" IVar="-1" Cut="0.0000000000000000e+00" cType="1" res="-1.1851710733026266e-03" rms="4.8238754272460938e-01" purity="3.9438024163246155e-01" nType="-99"/>
          <Node pos="r" depth="2" NCoef="0" IVar="-1" Cut="0.0000000000000000e+00" cType="1" res="-5.5234241299331188e-03" rms="4.3451014161109924e-01" purity="2.6458331942558289e-01" nType="-99"/>
        </Node>
        <Node pos="r" depth="1" NCoef="0" IVar="5" Cut="2.3438432216644287e+00" cType="1" res="6.4472660422325134e-02" rms="4.7854202985763550e-01" purity="5.9471166133880615e-01" nType="0">
          <Node pos="l" depth="2" NCoef="0" IVar="-1" Cut="0.0000000000000000e+00" cType="1" res="2.4256024044007063e-03" rms="4.6884965896606445e-01" purity="6.4661735296249390e-01" nType="-99"/>
          <Node pos="r" depth="2" NCoef="0" IVar="-1" Cut="0.0000000000000000e+00" cType="1" res="-7.0291594602167606e-04" rms="4.8761495947837830e-01" purity="4.7922605276107788e-01" nType="-99"/>
        </Node>
      </Node>
    </BinaryTree>
    <BinaryTree type="DecisionTree" boostWeight="1.0000000000000000e+00" itree="56">
      <Node pos="s" depth="0" NCoef="0" IVar="6" Cut="2.2318642139434814e+00" cType="1" res="1.3710109516978264e-02" rms="4.7797361016273499e-01" purity="5.0090783834457397e-01" nType="0">
        <Node pos="l" depth="1" NCoef="0" IVar="1" Cut="5.5481909179687500e+02" cType="1" res="-7.4754603207111359e-02" rms="4.6411874890327454e-01" purity="3.3901771903038025e-01" nType="0">
          <Node pos="l" depth="2" NCoef="0" IVar="-1" Cut="0.0000000000000000e+00" cType="1" res="-5.1254555583000183e-03" rms="4.3585580587387085e-01" purity="2.6450046896934509e-01" nType="-99"/>
          <Node pos="r" depth="2" NCoef="0" IVar="-1" Cut="0.0000000000000000e+00" cType="1" res="4.7147812438197434e-05" rms="4.9482282996177673e-01" purity="4.5345887541770935e-01" nType="-99"/>
        </Node>
        <Node pos="r" depth="1" NCoef="0" IVar="5" Cut="2.6093928813934326e+00" cType="1" res="6.4034022390842438e-02" rms="4.7843435406684875e-01" purity="5.9300035238265991e-01" nType="0">
          <Node pos="l" depth="2" NCoef="0" IVar="-1" Cut="0.0000000000000000e+00" cType="1" res="2.0584233570843935e-03" rms="4.7395899891853333e-01" purity="6.2283831834793091e-01" nType="-99"/>
          <Node pos="r" depth="2" NCoef="0" IVar="-1" Cut="0.0000000000000000e+00" cType="1" res="-2.9179695993661880e-03" rms="4.7989717125892639e-01" purity="3.8857603073120117e-01" nType="-99"/>
        </Node>
      </Node>
    </BinaryTree>
    <BinaryTree type="DecisionTree" boostWeight="1.0000000000000000e+00" itree="57">
      <Node pos="s" depth="0" NCoef="0" IVar="6" Cut="3.1792182922363281e+00" cType="1" res="7.3300600051879883e-03" rms="4.7795608639717102e-01" purity="4.9347341060638428e-01" nType="0">
        <Node pos="l" depth="1" NCoef="0" IVar="1" Cut="4.2836938476562500e+02" cType="1" res="-4.4291820377111435e-02" rms="4.7699284553527832e-01" purity="3.9017480611801147e-01" nType="0">
          <Node pos="l" depth="2" NCoef="0" IVar="-1" Cut="0.0000000000000000e+00" cType="1" res="-5.6254067458212376e-03" rms="4.2770066857337952e-01" purity="2.4876686930656433e-01" nType="-99"/>
          <Node pos="r" depth="2" NCoef="0" IVar="-1" Cut="0.0000000000000000e+00" cType="1" res="-4.0931356488727033e-04" rms="4.8913294076919556e-01" purity="4.3906852602958679e-01" nType="-99"/>
        </Node>
        <Node pos="r" depth="1" NCoef="0" IVar="5" Cut="2.5681216716766357e+00" cType="1" res="8.6984306573867798e-02" rms="4.6840652823448181e-01" purity="6.5286654233932495e-01" nType="0">
          <Node pos="l" depth="2" NCoef="0" IVar="-1" Cut="0.0000000000000000e+00" cType="1" res="2.5079986080527306e-03" rms="4.5911246538162231e-01" purity="6.8627876043319702e-01" nType="-99"/>
          <Node pos="r" depth="2" NCoef="0" IVar="-1" Cut="0.0000000000000000e+00" cType="1" res="-2.0400928333401680e-03" rms="4.9385702610015869e-01" purity="4.4746777415275574e-01" nType="-99"/>
        </Node>
      </Node>
    </BinaryTree>
    <BinaryTree type="DecisionTree" boostWeight="1.0000000000000000e+00" itree="58">
      <Node pos="s" depth="0" NCoef="0" IVar="6" Cut="3.7981843948364258e+00" cType="1" res="1.6020601615309715e-02" rms="4.7764310240745544e-01" purity="5.0160247087478638e-01" nType="0">
        <Node pos="l" depth="1" NCoef="0" IVar="1" Cut="5.5099554443359375e+02" cType="1" res="-2.2605905309319496e-02" rms="4.8117250204086304e-01" purity="4.2873242497444153e-01" nType="0">
          <Node pos="l" depth="2" NCoef="0" IVar="-1" Cut="0.0000000000000000e+00" cType="1" res="-2.4455529637634754e-03" rms="4.6760368347167969e-01" purity="3.5615527629852295e-01" nType="-99"/>
          <Node pos="r" depth="2" NCoef="0" IVar="-1" Cut="0.0000000000000000e+00" cType="1" res="1.1731706326827407e-03" rms="4.9139031767845154e-01" purity="5.2769160270690918e-01" nType="-99"/>
        </Node>
        <Node pos="r" depth="1" NCoef="0" IVar="5" Cut="2.4635257720947266e+00" cType="1" res="1.2453001737594604e-01" rms="4.5018973946571350e-01" purity="7.0630872249603271e-01" nType="0">
          <Node pos="l" depth="2" NCoef="0" IVar="-1" Cut="0.0000000000000000e+00" cType="1" res="3.2536387443542480e-03" rms="4.3340551853179932e-01" purity="7.4609202146530151e-01" nType="-99"/>
          <Node pos="r" depth="2" NCoef="0" IVar="-1" Cut="0.0000000000000000e+00" cType="1" res="3.6948814522475004e-04" rms="4.9329823255538940e-01" purity="5.5628424882888794e-01" nType="-99"/>
        </Node>
      </Node>
    </BinaryTree>
    <BinaryTree type="DecisionTree" boostWeight="1.0000000000000000e+00" itree="59">
      <Node pos="s" depth="0" NCoef="0" IVar="6" Cut="3.8684644699096680e+00" cType="1" res="1.2203442864120007e-02" rms="4.7633802890777588e-01" purity="4.9936166405677795e-01" nType="0">
        <Node pos="l" depth="1" NCoef="0" IVar="5" Cut="2.6523797512054443e+00" cType="1" res="-3.0129864811897278e-02" rms="4.7979670763015747e-01" purity="4.2237669229507446e-01" nType="0">
          <Node pos="l" depth="2" NCoef="0" IVar="-1" Cut="0.0000000000000000e+00" cType="1" res="-2.6329202228225768e-04" rms="4.8545062541961670e-01" purity="4.5068114995956421e-01" nType="-99"/>
          <Node pos="r" depth="2" NCoef="0" IVar="-1" Cut="0.0000000000000000e+00" cType="1" res="-7.5547411106526852e-03" rms="4.1184586286544800e-01" purity="2.3120649158954620e-01" nType="-99"/>
        </Node>
        <Node pos="r" depth="1" NCoef="0" IVar="5" Cut="2.3142006397247314e+00" cType="1" res="1.3192082941532135e-01" rms="4.4513556361198425e-01" purity="7.1707308292388916e-01" nType="0">
          <Node pos="l" depth="2" NCoef="0" IVar="-1" Cut="0.0000000000000000e+00" cType="1" res="3.5408623516559601e-03" rms="4.2055276036262512e-01" purity="7.6799643039703369e-01" nType="-99"/>
          <Node pos="r" depth="2" NCoef="0" IVar="-1" Cut="0.0000000000000000e+00" cType="1" res="1.2149862013757229e-03" rms="4.8214206099510193e-01" purity="6.1147677898406982e-01" nType="-99"/>
        </Node>
      </Node>
    </BinaryTree>
    <BinaryTree type="DecisionTree" boostWeight="1.0000000000000000e+00" itree="60">
      <Node pos="s" depth="0" NCoef="0" IVar="6" Cut="4.0068731307983398e+00" cType="1" res="1.3749983161687851e-02" rms="4.7714847326278687e-01" purity="4.9970218539237976e-01" nType="0">
        <Node pos="l" depth="1" NCoef="0" IVar="1" Cut="4.0395260620117188e+02" cType="1" res="-2.1148422732949257e-02" rms="4.8092731833457947e-01" purity="4.3427217006683350e-01" nType="0">
          <Node pos="l" depth="2" NCoef="0" IVar="-1" Cut="0.0000000000000000e+00" cType="1" res="-5.4172682575881481e-03" rms="4.3260240554809570e-01" purity="2.6753735542297363e-01" nType="-99"/>
          <Node pos="r" depth="2" NCoef="0" IVar="-1" Cut="0.0000000000000000e+00" cType="1" res="9.9012700957246125e-05" rms="4.8721516132354736e-01" purity="4.7015342116355896e-01" nType="-99"/>
        </Node>
        <Node pos="r" depth="1" NCoef="0" IVar="6" Cut="4.9724373817443848e+00" cType="1" res="1.3113653659820557e-01" rms="4.4454082846641541e-01" purity="7.1978694200515747e-01" nType="0">
          <Node pos="l" depth="2" NCoef="0" IVar="-1" Cut="0.0000000000000000e+00" cType="1" res="2.0267176441848278e-03" rms="4.6521273255348206e-01" purity="6.7311525344848633e-01" nType="-99"/>
          <Node pos="r" depth="2" NCoef="0" IVar="-1" Cut="0.0000000000000000e+00" cType="1" res="3.9669275283813477e-03" rms="4.0456992387771606e-01" purity="7.8871655464172363e-01" nType="-99"/>
        </Node>
      </Node>
    </BinaryTree>
    <BinaryTree type="DecisionTree" boostWeight="1.0000000000000000e+00" itree="61">
      <Node pos="s" depth="0" NCoef="0" IVar="6" Cut="3.0429997444152832e+00" cType="1" res="1.4327872544527054e-02" rms="4.7726196050643921e-01" purity="5.0039380788803101e-01" nType="0">
        <Node pos="l" depth="1" NCoef="0" IVar="5" Cut="2.7391853332519531e+00" cType="1" res="-4.0765222162008286e-02" rms="4.7646966576576233e-01" purity="3.8737785816192627e-01" nType="0">
          <Node pos="l" depth="2" NCoef="0" IVar="-1" Cut="0.0000000000000000e+00" cType="1" res="-8.0097996396943927e-04" rms="4.8230719566345215e-01" purity="4.0829744935035706e-01" nType="-99"/>
          <Node pos="r" depth="2" NCoef="0" IVar="-1" Cut="0.0000000000000000e+00" cType="1" res="-8.8492361828684807e-03" rms="3.9088830351829529e-01" purity="1.9509652256965637e-01" nType="-99"/>
        </Node>
        <Node pos="r" depth="1" NCoef="0" IVar="5" Cut="2.5993480682373047e+00" cType="1" res="8.7433323264122009e-02" rms="4.6841186285018921e-01" purity="6.5035957098007202e-01" nType="0">
          <Node pos="l" depth="2" NCoef="0" IVar="-1" Cut="0.0000000000000000e+00" cType="1" res="2.4440437555313110e-03" rms="4.6055439114570618e-01" purity="6.8077194690704346e-01" nType="-99"/>
          <Node pos="r" depth="2" NCoef="0" IVar="-1" Cut="0.0000000000000000e+00" cType="1" res="-1.8702079541981220e-03" rms="4.9257403612136841e-01" purity="4.4294491410255432e-01" nType="-99"/>
        </Node>
      </Node>
    </BinaryTree>
    <BinaryTree type="DecisionTree" boostWeight="1.0000000000000000e+00" itree="62">
      <Node pos="s" depth="0" NCoef="0" IVar="6" Cut="2.2985901832580566e+00" cType="1" res="1.0768557898700237e-02" rms="4.7656720876693726e-01" purity="4.9741560220718384e-01" nType="0">
        <Node pos="l" depth="1" NCoef="0" IVar="4" Cut="1.0779149627685547e+02" cType="1" res="-7.6989002525806427e-02" rms="4.6229484677314758e-01" purity="3.3255049586296082e-01" nType="0">
          <Node pos="l" depth="2" NCoef="0" IVar="-1" Cut="0.0000000000000000e+00" cType="1" res="-3.9179353043437004e-03" rms="4.5059174299240112e-01" purity="3.0053013563156128e-01" nType="-99"/>
          <Node pos="r" depth="2" NCoef="0" IVar="-1" Cut="0.0000000000000000e+00" cType="1" res="2.5247471057809889e-04" rms="4.9152314662933350e-01" purity="4.4414511322975159e-01" nType="-99"/>
        </Node>
        <Node pos="r" depth="1" NCoef="0" IVar="5" Cut="2.3022725582122803e+00" cType="1" res="6.4406961202621460e-02" rms="4.7720241546630859e-01" purity="5.9818303585052490e-01" nType="0">
          <Node pos="l" depth="2" NCoef="0" IVar="-1" Cut="0.0000000000000000e+00" cType="1" res="2.4458076804876328e-03" rms="4.6528312563896179e-01" purity="6.5482348203659058e-01" nType="-99"/>
          <Node pos="r" depth="2" NCoef="0" IVar="-1" Cut="0.0000000000000000e+00" cType="1" res="-3.2681992161087692e-04" rms="4.8887643218040466e-01" purity="4.9578532576560974e-01" nType="-99"/>
        </Node>
      </Node>
    </BinaryTree>
    <BinaryTree type="DecisionTree" boostWeight="1.0000000000000000e+00" itree="63">
      <Node pos="s" depth="0" NCoef="0" IVar="6" Cut="2.2864224910736084e+00" cType="1" res="8.3177611231803894e-03" rms="4.7582191228866577e-01" purity="4.9483287334442139e-01" nType="0">
        <Node pos="l" depth="1" NCoef="0" IVar="1" Cut="5.6698474121093750e+02" cType="1" res="-7.9138003289699554e-02" rms="4.6000140905380249e-01" purity="3.2899498939514160e-01" nType="0">
          <Node pos="l" depth="2" NCoef="0" IVar="-1" Cut="0.0000000000000000e+00" cType="1" res="-4.8272050917148590e-03" rms="4.3549254536628723e-01" purity="2.6674783229827881e-01" nType="-99"/>
          <Node pos="r" depth="2" NCoef="0" IVar="-1" Cut="0.0000000000000000e+00" cType="1" res="-4.4756734860129654e-04" rms="4.9264594912528992e-01" purity="4.3598175048828125e-01" nType="-99"/>
        </Node>
        <Node pos="r" depth="1" NCoef="0" IVar="5" Cut="2.6803481578826904e+00" cType="1" res="6.1371549963951111e-02" rms="4.7742357850074768e-01" purity="5.9543603658676147e-01" nType="0">
          <Node pos="l" depth="2" NCoef="0" IVar="-1" Cut="0.0000000000000000e+00" cType="1" res="1.9256563391536474e-03" rms="4.7392225265502930e-01" purity="6.2180012464523315e-01" nType="-99"/>
          <Node pos="r" depth="2" NCoef="0" IVar="-1" Cut="0.0000000000000000e+00" cType="1" res="-3.5419547930359840e-03" rms="4.7420910000801086e-01" purity="3.6751231551170349e-01" nType="-99"/>
        </Node>
      </Node>
    </BinaryTree>
    <BinaryTree type="DecisionTree" boostWeight="1.0000000000000000e+00" itree="64">
      <Node pos="s" depth="0" NCoef="0" IVar="6" Cut="2.2428410053253174e+00" cType="1" res="1.2697089463472366e-02" rms="4.7592085599899292e-01" purity="4.9934244155883789e-01" nType="0">
        <Node pos="l" depth="1" NCoef="0" IVar="1" Cut="4.2557696533203125e+02" cType="1" res="-7.0800803601741791e-02" rms="4.6243137121200562e-01" purity="3.3530694246292114e-01" nType="0">
          <Node pos="l" depth="2" NCoef="0" IVar="-1" Cut="0.0000000000000000e+00" cType="1" res="-7.4894004501402378e-03" rms="3.9310145378112793e-01" purity="1.9485357403755188e-01" nType="-99"/>
          <Node pos="r" depth="2" NCoef="0" IVar="-1" Cut="0.0000000000000000e+00" cType="1" res="-1.3859882019460201e-03" rms="4.8129302263259888e-01" purity="3.8519999384880066e-01" nType="-99"/>
        </Node>
        <Node pos="r" depth="1" NCoef="0" IVar="5" Cut="2.6816787719726562e+00" cType="1" res="6.0726795345544815e-02" rms="4.7693240642547607e-01" purity="5.9369909763336182e-01" nType="0">
          <Node pos="l" depth="2" NCoef="0" IVar="-1" Cut="0.0000000000000000e+00" cType="1" res="1.8914263928309083e-03" rms="4.7359108924865723e-01" purity="6.1908322572708130e-01" nType="-99"/>
          <Node pos="r" depth="2" NCoef="0" IVar="-1" Cut="0.0000000000000000e+00" cType="1" res="-3.5492680035531521e-03" rms="4.7378528118133545e-01" purity="3.6252909898757935e-01" nType="-99"/>
        </Node>
      </Node>
    </BinaryTree>
    <BinaryTree type="DecisionTree" boostWeight="1.0000000000000000e+00" itree="65">
      <Node pos="s" depth="0" NCoef="0" IVar="6" Cut="1.9996806383132935e+00" cType="1" res="1.2578215450048447e-02" rms="4.7514876723289490e-01" purity="4.9888199567794800e-01" nType="0">
        <Node pos="l" depth="1" NCoef="0" IVar="1" Cut="5.0532006835937500e+02" cType="1" res="-8.7120093405246735e-02" rms="4.5468041300773621e-01" purity="3.1453630328178406e-01" nType="0">
          <Node pos="l" depth="2" NCoef="0" IVar="-1" Cut="0.0000000000000000e+00" cType="1" res="-6.4702536910772324e-03" rms="4.1136637330055237e-01" purity="2.2108252346515656e-01" nType="-99"/>
          <Node pos="r" depth="2" NCoef="0" IVar="-1" Cut="0.0000000000000000e+00" cType="1" res="-1.1625285260379314e-03" rms="4.8765844106674194e-01" purity="4.0519014000892639e-01" nType="-99"/>
        </Node>
        <Node pos="r" depth="1" NCoef="0" IVar="5" Cut="2.6822190284729004e+00" cType="1" res="5.5265966802835464e-02" rms="4.7732290625572205e-01" purity="5.7781314849853516e-01" nType="0">
          <Node pos="l" depth="2" NCoef="0" IVar="-1" Cut="0.0000000000000000e+00" cType="1" res="1.8143773777410388e-03" rms="4.7488188743591309e-01" purity="6.0419589281082153e-01" nType="-99"/>
          <Node pos="r" depth="2" NCoef="0" IVar="-1" Cut="0.0000000000000000e+00" cType="1" res="-4.2313016019761562e-03" rms="4.6321186423301697e-01" purity="3.3636239171028137e-01" nType="-99"/>
        </Node>
      </Node>
    </BinaryTree>
    <BinaryTree type="DecisionTree" boostWeight="1.0000000000000000e+00" itree="66">
      <Node pos="s" depth="0" NCoef="0" IVar="6" Cut="2.7854752540588379e+00" cType="1" res="1.5832038596272469e-02" rms="4.7459396719932556e-01" purity="5.0255376100540161e-01" nType="0">
        <Node pos="l" depth="1" NCoef="0" IVar="1" Cut="4.3710363769531250e+02" cType="1" res="-4.9661513417959213e-02" rms="4.7026914358139038e-01" purity="3.6802762746810913e-01" nType="0">
          <Node pos="l" depth="2" NCoef="0" IVar="-1" Cut="0.0000000000000000e+00" cType="1" res="-5.8719981461763382e-03" rms="4.1392910480499268e-01" purity="2.2768919169902802e-01" nType="-99"/>
          <Node pos="r" depth="2" NCoef="0" IVar="-1" Cut="0.0000000000000000e+00" cType="1" res="-5.4422480752691627e-04" rms="4.8727551102638245e-01" purity="4.2416408658027649e-01" nType="-99"/>
        </Node>
        <Node pos="r" depth="1" NCoef="0" IVar="1" Cut="4.6317630004882812e+02" cType="1" res="8.1626199185848236e-02" rms="4.6979421377182007e-01" purity="6.3769739866256714e-01" nType="0">
          <Node pos="l" depth="2" NCoef="0" IVar="-1" Cut="0.0000000000000000e+00" cType="1" res="-5.1734026055783033e-04" rms="4.8922917246818542e-01" purity="5.1329153776168823e-01" nType="-99"/>
          <Node pos="r" depth="2" NCoef="0" IVar="-1" Cut="0.0000000000000000e+00" cType="1" res="2.7255762834101915e-03" rms="4.5526844263076782e-01" purity="6.8837189674377441e-01" nType="-99"/>
        </Node>
      </Node>
    </BinaryTree>
    <BinaryTree type="DecisionTree" boostWeight="1.0000000000000000e+00" itree="67">
      <Node pos="s" depth="0" NCoef="0" IVar="6" Cut="3.6274728775024414e+00" cType="1" res="1.7689498141407967e-02" rms="4.7405153512954712e-01" purity="5.0376188755035400e-01" nType="0">
        <Node pos="l" depth="1" NCoef="0" IVar="1" Cut="4.0378280639648438e+02" cType="1" res="-2.5210916996002197e-02" rms="4.7787776589393616e-01" purity="4.1690185666084290e-01" nType="0">
          <Node pos="l" depth="2" NCoef="0" IVar="-1" Cut="0.0000000000000000e+00" cType="1" res="-5.9509468264877796e-03" rms="4.2103722691535950e-01" purity="2.4251522123813629e-01" nType="-99"/>
          <Node pos="r" depth="2" NCoef="0" IVar="-1" Cut="0.0000000000000000e+00" cType="1" res="-6.5325457399012521e-06" rms="4.8602020740509033e-01" purity="4.5545917749404907e-01" nType="-99"/>
        </Node>
        <Node pos="r" depth="1" NCoef="0" IVar="5" Cut="2.3568134307861328e+00" cType="1" res="1.1654826253652573e-01" rms="4.4979715347290039e-01" purity="7.0392018556594849e-01" nType="0">
          <Node pos="l" depth="2" NCoef="0" IVar="-1" Cut="0.0000000000000000e+00" cType="1" res="3.2419664785265923e-03" rms="4.2884507775306702e-01" purity="7.5274026393890381e-01" nType="-99"/>
          <Node pos="r" depth="2" NCoef="0" IVar="-1" Cut="0.0000000000000000e+00" cType="1" res="6.6184549359604716e-04" rms="4.8722106218338013e-01" purity="5.8102959394454956e-01" nType="-99"/>
        </Node>
      </Node>
    </BinaryTree>
    <BinaryTree type="DecisionTree" boostWeight="1.0000000000000000e+00" itree="68">
      <Node pos="s" depth="0" NCoef="0" IVar="6" Cut="2.4769353866577148e+00" cType="1" res="9.6155172213912010e-03" rms="4.7464278340339661e-01" purity="4.9506163597106934e-01" nType="0">
        <Node pos="l" depth="1" NCoef="0" IVar="1" Cut="7.0537774658203125e+02" cType="1" res="-6.3668854534626007e-02" rms="4.6468648314476013e-01" purity="3.4293901920318604e-01" nType="0">
          <Node pos="l" depth="2" NCoef="0" IVar="-1" Cut="0.0000000000000000e+00" cType="1" res="-3.2489094883203506e-03" rms="4.5488736033439636e-01" purity="3.1109440326690674e-01" nType="-99"/>
          <Node pos="r" depth="2" NCoef="0" IVar="-1" Cut="0.0000000000000000e+00" cType="1" res="1.1907876469194889e-03" rms="4.9605253338813782e-01" purity="4.9645951390266418e-01" nType="-99"/>
        </Node>
        <Node pos="r" depth="1" NCoef="0" IVar="6" Cut="4.6268029212951660e+00" cType="1" res="6.4662441611289978e-02" rms="4.7460129857063293e-01" purity="6.0932719707489014e-01" nType="0">
          <Node pos="l" depth="2" NCoef="0" IVar="-1" Cut="0.0000000000000000e+00" cType="1" res="8.6711539188399911e-04" rms="4.8638764023780823e-01" purity="5.6132870912551880e-01" nType="-99"/>
          <Node pos="r" depth="2" NCoef="0" IVar="-1" Cut="0.0000000000000000e+00" cType="1" res="3.5129925236105919e-03" rms="4.1810500621795654e-01" purity="7.6744288206100464e-01" nType="-99"/>
        </Node>
      </Node>
    </BinaryTree>
    <BinaryTree type="DecisionTree" boostWeight="1.0000000000000000e+00" itree="69">
      <Node pos="s" depth="0" NCoef="0" IVar="6" Cut="2.3078415393829346e+00" cType="1" res="1.5887113288044930e-02" rms="4.7422370314598083e-01" purity="5.0260329246520996e-01" nType="0">
        <Node pos="l" depth="1" NCoef="0" IVar="1" Cut="6.5442883300781250e+02" cType="1" res="-6.3497968018054962e-02" rms="4.6287134289741516e-01" purity="3.3782556653022766e-01" nType="0">
          <Node pos="l" depth="2" NCoef="0" IVar="-1" Cut="0.0000000000000000e+00" cType="1" res="-3.5296538844704628e-03" rms="4.4910627603530884e-01" purity="2.9648548364639282e-01" nType="-99"/>
          <Node pos="r" depth="2" NCoef="0" IVar="-1" Cut="0.0000000000000000e+00" cType="1" res="7.3905347380787134e-04" rms="4.9608650803565979e-01" purity="4.7619792819023132e-01" nType="-99"/>
        </Node>
        <Node pos="r" depth="1" NCoef="0" IVar="1" Cut="4.6118301391601562e+02" cType="1" res="6.4745202660560608e-02" rms="4.7452059388160706e-01" purity="6.0401684045791626e-01" nType="0">
          <Node pos="l" depth="2" NCoef="0" IVar="-1" Cut="0.0000000000000000e+00" cType="1" res="-6.3484086422249675e-04" rms="4.8539674282073975e-01" purity="4.8290207982063293e-01" nType="-99"/>
          <Node pos="r" depth="2" NCoef="0" IVar="-1" Cut="0.0000000000000000e+00" cType="1" res="2.3367221001535654e-03" rms="4.6504360437393188e-01" purity="6.5470826625823975e-01" nType="-99"/>
        </Node>
      </Node>
    </BinaryTree>
    <BinaryTree type="DecisionTree" boostWeight="1.0000000000000000e+00" itree="70">
      <Node pos="s" depth="0" NCoef="0" IVar="6" Cut="4.1564655303955078e+00" cType="1" res="1.9816562533378601e-02" rms="4.7502294182777405e-01" purity="5.0538504123687744e-01" nType="0">
        <Node pos="l" depth="1" NCoef="0" IVar="1" Cut="5.7082427978515625e+02" cType="1" res="-1.0386644862592220e-02" rms="4.8017826676368713e-01" purity="4.4622921943664551e-01" nType="0">
          <Node pos="l" depth="2" NCoef="0" IVar="-1" Cut="0.0000000000000000e+00" cType="1" res="-1.5591213013976812e-03" rms="4.7088116407394409e-01" purity="3.8644593954086304e-01" nType="-99"/>
          <Node pos="r" depth="2" NCoef="0" IVar="-1" Cut="0.0000000000000000e+00" cType="1" res="1.3171342434361577e-03" rms="4.8893716931343079e-01" purity="5.4349702596664429e-01" nType="-99"/>
        </Node>
        <Node pos="r" depth="1" NCoef="0" IVar="6" Cut="5.0080718994140625e+00" cType="1" res="1.3919857144355774e-01" rms="4.3396404385566711e-01" purity="7.3920619487762451e-01" nType="0">
          <Node pos="l" depth="2" NCoef="0" IVar="-1" Cut="0.0000000000000000e+00" cType="1" res="2.0326687954366207e-03" rms="4.6059495210647583e-01" purity="6.8403410911560059e-01" nType="-99"/>
          <Node pos="r" depth="2" NCoef="0" IVar="-1" Cut="0.0000000000000000e+00" cType="1" res="4.1434867307543755e-03" rms="3.8953390717506409e-01" purity="8.0799889564514160e-01" nType="-99"/>
        </Node>
      </Node>
    </BinaryTree>
    <BinaryTree type="DecisionTree" boostWeight="1.0000000000000000e+00" itree="71">
      <Node pos="s" depth="0" NCoef="0" IVar="6" Cut="2.7588536739349365e+00" cType="1" res="1.3992193154990673e-02" rms="4.7343206405639648e-01" purity="5.0003111362457275e-01" nType="0">
        <Node pos="l" depth="1" NCoef="0" IVar="6" Cut="1.4798668622970581e+00" cType="1" res="-5.2428055554628372e-02" rms="4.6835091710090637e-01" purity="3.5966780781745911e-01" nType="0">
          <Node pos="l" depth="2" NCoef="0" IVar="-1" Cut="0.0000000000000000e+00" cType="1" res="-4.7070481814444065e-03" rms="4.3985724449157715e-01" purity="2.8070333600044250e-01" nType="-99"/>
          <Node pos="r" depth="2" NCoef="0" IVar="-1" Cut="0.0000000000000000e+00" cType="1" res="-6.8742624716833234e-04" rms="4.7927743196487427e-01" purity="4.0010112524032593e-01" nType="-99"/>
        </Node>
        <Node pos="r" depth="1" NCoef="0" IVar="5" Cut="2.6610028743743896e+00" cType="1" res="7.9240381717681885e-02" rms="4.6930554509162903e-01" purity="6.3791763782501221e-01" nType="0">
          <Node pos="l" depth="2" NCoef="0" IVar="-1" Cut="0.0000000000000000e+00" cType="1" res="2.2589156869798899e-03" rms="4.6339902281761169e-01" purity="6.6534411907196045e-01" nType="-99"/>
          <Node pos="r" depth="2" NCoef="0" IVar="-1" Cut="0.0000000000000000e+00" cType="1" res="-2.5723807048052549e-03" rms="4.8568496108055115e-01" purity="4.1033253073692322e-01" nType="-99"/>
        </Node>
      </Node>
    </BinaryTree>
    <BinaryTree type="DecisionTree" boostWeight="1.0000000000000000e+00" itree="72">
      <Node pos="s" depth="0" NCoef="0" IVar="6" Cut="4.3088245391845703e+00" cType="1" res="1.1063488200306892e-02" rms="4.7402253746986389e-01" purity="4.9731227755546570e-01" nType="0">
        <Node pos="l" depth="1" NCoef="0" IVar="6" Cut="2.0523643493652344e+00" cType="1" res="-1.8297834321856499e-02" rms="4.7862613201141357e-01" purity="4.4139486551284790e-01" nType="0">
          <Node pos="l" depth="2" NCoef="0" IVar="-1" Cut="0.0000000000000000e+00" cType="1" res="-3.0099009163677692e-03" rms="4.5576325058937073e-01" purity="3.1552627682685852e-01" nType="-99"/>
          <Node pos="r" depth="2" NCoef="0" IVar="-1" Cut="0.0000000000000000e+00" cType="1" res="5.2227091509848833e-04" rms="4.8854097723960876e-01" purity="5.1983737945556641e-01" nType="-99"/>
        </Node>
        <Node pos="r" depth="1" NCoef="0" IVar="5" Cut="2.2720000743865967e+00" cType="1" res="1.4182320237159729e-01" rms="4.2921879887580872e-01" purity="7.4633872509002686e-01" nType="0">
          <Node pos="l" depth="2" NCoef="0" IVar="-1" Cut="0.0000000000000000e+00" cType="1" res="3.7804215680807829e-03" rms="3.9758035540580750e-01" purity="8.0155140161514282e-01" nType="-99"/>
          <Node pos="r" depth="2" NCoef="0" IVar="-1" Cut="0.0000000000000000e+00" cType="1" res="1.7485519638285041e-03" rms="4.6872401237487793e-01" purity="6.5633124113082886e-01" nType="-99"/>
        </Node>
      </Node>
    </BinaryTree>
    <BinaryTree type="DecisionTree" boostWeight="1.0000000000000000e+00" itree="73">
      <Node pos="s" depth="0" NCoef="0" IVar="6" Cut="2.3225791454315186e+00" cType="1" res="1.1364824138581753e-02" rms="4.7405788302421570e-01" purity="4.9682843685150146e-01" nType="0">
        <Node pos="l" depth="1" NCoef="0" IVar="5" Cut="2.3655092716217041e+00" cType="1" res="-6.5055340528488159e-02" rms="4.6083259582519531e-01" purity="3.3283939957618713e-01" nType="0">
          <Node pos="l" depth="2" NCoef="0" IVar="-1" Cut="0.0000000000000000e+00" cType="1" res="-1.1368973646312952e-03" rms="4.7714766860008240e-01" purity="3.8065162301063538e-01" nType="-99"/>
          <Node pos="r" depth="2" NCoef="0" IVar="-1" Cut="0.0000000000000000e+00" cType="1" res="-5.7621765881776810e-03" rms="4.1950312256813049e-01" purity="2.3774792253971100e-01" nType="-99"/>
        </Node>
        <Node pos="r" depth="1" NCoef="0" IVar="1" Cut="4.6853381347656250e+02" cType="1" res="5.9243217110633850e-02" rms="4.7594749927520752e-01" purity="5.9957003593444824e-01" nType="0">
          <Node pos="l" depth="2" NCoef="0" IVar="-1" Cut="0.0000000000000000e+00" cType="1" res="-6.9632421946153045e-04" rms="4.8598784208297729e-01" purity="4.8237949609756470e-01" nType="-99"/>
          <Node pos="r" depth="2" NCoef="0" IVar="-1" Cut="0.0000000000000000e+00" cType="1" res="2.2653569467365742e-03" rms="4.6630743145942688e-01" purity="6.5296739339828491e-01" nType="-99"/>
        </Node>
      </Node>
    </BinaryTree>
    <BinaryTree type="DecisionTree" boostWeight="1.0000000000000000e+00" itree="74">
      <Node pos="s" depth="0" NCoef="0" IVar="6" Cut="2.0087468624114990e+00" cType="1" res="1.1476018466055393e-02" rms="4.7376304864883423e-01" purity="4.9685728549957275e-01" nType="0">
        <Node pos="l" depth="1" NCoef="0" IVar="5" Cut="2.5259532928466797e+00" cType="1" res="-7.9408191144466400e-02" rms="4.5387142896652222e-01" purity="3.1290388107299805e-01" nType="0">
          <Node pos="l" depth="2" NCoef="0" IVar="-1" Cut="0.0000000000000000e+00" cType="1" res="-2.0660390146076679e-03" rms="4.6873551607131958e-01" purity="3.4734365344047546e-01" nType="-99"/>
          <Node pos="r" depth="2" NCoef="0" IVar="-1" Cut="0.0000000000000000e+00" cType="1" res="-8.5658188909292221e-03" rms="3.8014471530914307e-01" purity="1.8114545941352844e-01" nType="-99"/>
        </Node>
        <Node pos="r" depth="1" NCoef="0" IVar="5" Cut="2.6807267665863037e+00" cType="1" res="5.1097389310598373e-02" rms="4.7678601741790771e-01" purity="5.7705259323120117e-01" nType="0">
          <Node pos="l" depth="2" NCoef="0" IVar="-1" Cut="0.0000000000000000e+00" cType="1" res="1.6886562807485461e-03" rms="4.7447419166564941e-01" purity="6.0258167982101440e-01" nType="-99"/>
          <Node pos="r" depth="2" NCoef="0" IVar="-1" Cut="0.0000000000000000e+00" cType="1" res="-3.5739385057240725e-03" rms="4.6852284669876099e-01" purity="3.4948047995567322e-01" nType="-99"/>
        </Node>
      </Node>
    </BinaryTree>
    <BinaryTree type="DecisionTree" boostWeight="1.0000000000000000e+00" itree="75">
      <Node pos="s" depth="0" NCoef="0" IVar="6" Cut="3.8591196537017822e+00" cType="1" res="1.3740401715040207e-02" rms="4.7362348437309265e-01" purity="4.9951428174972534e-01" nType="0">
        <Node pos="l" depth="1" NCoef="0" IVar="5" Cut="2.4260139465332031e+00" cType="1" res="-2.1348347887396812e-02" rms="4.7813349962234497e-01" purity="4.2521655559539795e-01" nType="0">
          <Node pos="l" depth="2" NCoef="0" IVar="-1" Cut="0.0000000000000000e+00" cType="1" res="2.0672805840149522e-04" rms="4.8566022515296936e-01" purity="4.6918144822120667e-01" nType="-99"/>
          <Node pos="r" depth="2" NCoef="0" IVar="-1" Cut="0.0000000000000000e+00" cType="1" res="-3.9762696251273155e-03" rms="4.4597184658050537e-01" purity="2.9934912919998169e-01" nType="-99"/>
        </Node>
        <Node pos="r" depth="1" NCoef="0" IVar="1" Cut="5.1655462646484375e+02" cType="1" res="1.1550831794738770e-01" rms="4.4490694999694824e-01" purity="7.1499991416931152e-01" nType="0">
          <Node pos="l" depth="2" NCoef="0" IVar="-1" Cut="0.0000000000000000e+00" cType="1" res="1.1441515525802970e-03" rms="4.7288933396339417e-01" purity="6.3994592428207397e-01" nType="-99"/>
          <Node pos="r" depth="2" NCoef="0" IVar="-1" Cut="0.0000000000000000e+00" cType="1" res="3.4116485621780157e-03" rms="4.1898584365844727e-01" purity="7.6565301418304443e-01" nType="-99"/>
        </Node>
      </Node>
    </BinaryTree>
    <BinaryTree type="DecisionTree" boostWeight="1.0000000000000000e+00" itree="76">
      <Node pos="s" depth="0" NCoef="0" IVar="6" Cut="3.7662534713745117e+00" cType="1" res="1.5192994847893715e-02" rms="4.7364675998687744e-01" purity="5.0106590986251831e-01" nType="0">
        <Node pos="l" depth="1" NCoef="0" IVar="5" Cut="2.2593538761138916e+00" cType="1" res="-1.8300568684935570e-02" rms="4.7790017724037170e-01" purity="4.2508053779602051e-01" nType="0">
          <Node pos="l" depth="2" NCoef="0" IVar="-1" Cut="0.0000000000000000e+00" cType="1" res="7.0381350815296173e-04" rms="4.8594912886619568e-01" purity="4.8709014058113098e-01" nType="-99"/>
          <Node pos="r" depth="2" NCoef="0" IVar="-1" Cut="0.0000000000000000e+00" cType="1" res="-2.6479994412511587e-03" rms="4.6121823787689209e-01" purity="3.4437569975852966e-01" nType="-99"/>
        </Node>
        <Node pos="r" depth="1" NCoef="0" IVar="5" Cut="2.3452291488647461e+00" cType="1" res="1.0413269698619843e-01" rms="4.5022740960121155e-01" purity="7.0283955335617065e-01" nType="0">
          <Node pos="l" depth="2" NCoef="0" IVar="-1" Cut="0.0000000000000000e+00" cType="1" res="2.9447921551764011e-03" rms="4.3075227737426758e-01" purity="7.5036031007766724e-01" nType="-99"/>
          <Node pos="r" depth="2" NCoef="0" IVar="-1" Cut="0.0000000000000000e+00" cType="1" res="6.3894171034917235e-04" rms="4.8368704319000244e-01" purity="5.9203904867172241e-01" nType="-99"/>
        </Node>
      </Node>
    </BinaryTree>
    <BinaryTree type="DecisionTree" boostWeight="1.0000000000000000e+00" itree="77">
      <Node pos="s" depth="0" NCoef="0" IVar="6" Cut="4.5960006713867188e+00" cType="1" res="1.7243662849068642e-02" rms="4.7465345263481140e-01" purity="5.0165230035781860e-01" nType="0">
        <Node pos="l" depth="1" NCoef="0" IVar="5" Cut="2.6123797893524170e+00" cType="1" res="-3.4268691670149565e-03" rms="4.7911849617958069e-01" purity="4.6124863624572754e-01" nType="0">
          <Node pos="l" depth="2" NCoef="0" IVar="-1" Cut="0.0000000000000000e+00" cType="1" res="4.5377001515589654e-04" rms="4.8292011022567749e-01" purity="4.9144622683525085e-01" nType="-99"/>
          <Node pos="r" depth="2" NCoef="0" IVar="-1" Cut="0.0000000000000000e+00" cType="1" res="-4.9158479087054729e-03" rms="4.3679606914520264e-01" purity="2.7707770466804504e-01" nType="-99"/>
        </Node>
        <Node pos="r" depth="1" NCoef="0" IVar="-1" Cut="0.0000000000000000e+00" cType="1" res="3.2597456593066454e-03" rms="4.2057949304580688e-01" purity="7.6387441158294678e-01" nType="-99"/>
      </Node>
    </BinaryTree>
    <BinaryTree type="DecisionTree" boostWeight="1.0000000000000000e+00" itree="78">
      <Node pos="s" depth="0" NCoef="0" IVar="6" Cut="3.7544753551483154e+00" cType="1" res="1.7398376017808914e-02" rms="4.7280544042587280e-01" purity="5.0312268733978271e-01" nType="0">
        <Node pos="l" depth="1" NCoef="0" IVar="5" Cut="2.7396707534790039e+00" cType="1" res="-1.9956251606345177e-02" rms="4.7790968418121338e-01" purity="4.2196151614189148e-01" nType="0">
          <Node pos="l" depth="2" NCoef="0" IVar="-1" Cut="0.0000000000000000e+00" cType="1" res="-1.5089010412339121e-04" rms="4.8299440741539001e-01" purity="4.4413006305694580e-01" nType="-99"/>
          <Node pos="r" depth="2" NCoef="0" IVar="-1" Cut="0.0000000000000000e+00" cType="1" res="-7.4067297391593456e-03" rms="4.0137779712677002e-01" purity="2.1480749547481537e-01" nType="-99"/>
        </Node>
        <Node pos="r" depth="1" NCoef="0" IVar="6" Cut="5.0210709571838379e+00" cType="1" res="1.1478178203105927e-01" rms="4.4471663236618042e-01" purity="7.1470957994461060e-01" nType="0">
          <Node pos="l" depth="2" NCoef="0" IVar="-1" Cut="0.0000000000000000e+00" cType="1" res="1.7822020454332232e-03" rms="4.6436256170272827e-01" purity="6.7010235786437988e-01" nType="-99"/>
          <Node pos="r" depth="2" NCoef="0" IVar="-1" Cut="0.0000000000000000e+00" cType="1" res="3.9254459552466869e-03" rms="3.9019981026649475e-01" purity="8.0725193023681641e-01" nType="-99"/>
        </Node>
      </Node>
    </BinaryTree>
    <BinaryTree type="DecisionTree" boostWeight="1.0000000000000000e+00" itree="79">
      <Node pos="s" depth="0" NCoef="0" IVar="6" Cut="2.5093326568603516e+00" cType="1" res="1.0141244158148766e-02" rms="4.7332337498664856e-01" purity="4.9534451961517334e-01" nType="0">
        <Node pos="l" depth="1" NCoef="0" IVar="5" Cut="2.4666528701782227e+00" cType="1" res="-5.2571963518857956e-02" rms="4.6442732214927673e-01" purity="3.4825423359870911e-01" nType="0">
          <Node pos="l" depth="2" NCoef="0" IVar="-1" Cut="0.0000000000000000e+00" cType="1" res="-9.0170628391206264e-04" rms="4.7917398810386658e-01" purity="3.9020270109176636e-01" nType="-99"/>
          <Node pos="r" depth="2" NCoef="0" IVar="-1" Cut="0.0000000000000000e+00" cType="1" res="-6.2410859391093254e-03" rms="4.0512168407440186e-01" purity="2.1769341826438904e-01" nType="-99"/>
        </Node>
        <Node pos="r" depth="1" NCoef="0" IVar="5" Cut="2.3568134307861328e+00" cType="1" res="5.9121962636709213e-02" rms="4.7442567348480225e-01" purity="6.1022603511810303e-01" nType="0">
          <Node pos="l" depth="2" NCoef="0" IVar="-1" Cut="0.0000000000000000e+00" cType="1" res="2.1085485350340605e-03" rms="4.6433758735656738e-01" purity="6.5865653753280640e-01" nType="-99"/>
          <Node pos="r" depth="2" NCoef="0" IVar="-1" Cut="0.0000000000000000e+00" cType="1" res="-4.0660394006408751e-04" rms="4.8930591344833374e-01" purity="4.9694883823394775e-01" nType="-99"/>
        </Node>
      </Node>
    </BinaryTree>
    <BinaryTree type="DecisionTree" boostWeight="1.0000000000000000e+00" itree="80">
      <Node pos="s" depth="0" NCoef="0" IVar="6" Cut="3.9869806766510010e+00" cType="1" res="1.6259193420410156e-02" rms="4.7354584932327271e-01" purity="5.0184017419815063e-01" nType="0">
        <Node pos="l" depth="1" NCoef="0" IVar="1" Cut="4.0661679077148438e+02" cType="1" res="-1.4296331442892551e-02" rms="4.7865709662437439e-01" purity="4.3432384729385376e-01" nType="0">
          <Node pos="l" depth="2" NCoef="0" IVar="-1" Cut="0.0000000000000000e+00" cType="1" res="-4.5735770836472511e-03" rms="4.3237718939781189e-01" purity="2.7314046025276184e-01" nType="-99"/>
          <Node pos="r" depth="2" NCoef="0" IVar="-1" Cut="0.0000000000000000e+00" cType="1" res="2.3492290347348899e-04" rms="4.8570591211318970e-01" purity="4.7072851657867432e-01" nType="-99"/>
        </Node>
        <Node pos="r" depth="1" NCoef="0" IVar="6" Cut="4.9618144035339355e+00" cType="1" res="1.1628208309412003e-01" rms="4.4187435507774353e-01" purity="7.2285336256027222e-01" nType="0">
          <Node pos="l" depth="2" NCoef="0" IVar="-1" Cut="0.0000000000000000e+00" cType="1" res="1.7962869023904204e-03" rms="4.6303209662437439e-01" purity="6.7622894048690796e-01" nType="-99"/>
          <Node pos="r" depth="2" NCoef="0" IVar="-1" Cut="0.0000000000000000e+00" cType="1" res="3.6496208049356937e-03" rms="4.0136441588401794e-01" purity="7.9289144277572632e-01" nType="-99"/>
        </Node>
      </Node>
    </BinaryTree>
    <BinaryTree type="DecisionTree" boostWeight="1.0000000000000000e+00" itree="81">
      <Node pos="s" depth="0" NCoef="0" IVar="6" Cut="3.0070943832397461e+00" cType="1" res="1.4342687092721462e-02" rms="4.7340774536132812e-01" purity="5.0023472309112549e-01" nType="0">
        <Node pos="l" depth="1" NCoef="0" IVar="5" Cut="2.2710425853729248e+00" cType="1" res="-3.2277088612318039e-02" rms="4.7315880656242371e-01" purity="3.8375994563102722e-01" nType="0">
          <Node pos="l" depth="2" NCoef="0" IVar="-1" Cut="0.0000000000000000e+00" cType="1" res="1.7183885211125016e-04" rms="4.8628649115562439e-01" purity="4.4267326593399048e-01" nType="-99"/>
          <Node pos="r" depth="2" NCoef="0" IVar="-1" Cut="0.0000000000000000e+00" cType="1" res="-3.2720216549932957e-03" rms="4.4938710331916809e-01" purity="3.0302867293357849e-01" nType="-99"/>
        </Node>
        <Node pos="r" depth="1" NCoef="0" IVar="1" Cut="4.5644265747070312e+02" cType="1" res="7.3700308799743652e-02" rms="4.6703785657882690e-01" purity="6.4853370189666748e-01" nType="0">
          <Node pos="l" depth="2" NCoef="0" IVar="-1" Cut="0.0000000000000000e+00" cType="1" res="-4.1037987102754414e-04" rms="4.8820671439170837e-01" purity="5.3465658426284790e-01" nType="-99"/>
          <Node pos="r" depth="2" NCoef="0" IVar="-1" Cut="0.0000000000000000e+00" cType="1" res="2.3827257100492716e-03" rms="4.5467677712440491e-01" purity="6.9019579887390137e-01" nType="-99"/>
        </Node>
      </Node>
    </BinaryTree>
    <BinaryTree type="DecisionTree" boostWeight="1.0000000000000000e+00" itree="82">
      <Node pos="s" depth="0" NCoef="0" IVar="6" Cut="3.7894804477691650e+00" cType="1" res="1.0470142588019371e-02" rms="4.7198039293289185e-01" purity="4.9699938297271729e-01" nType="0">
        <Node pos="l" depth="1" NCoef="0" IVar="1" Cut="4.7609793090820312e+02" cType="1" res="-2.4380041286349297e-02" rms="4.7609713673591614e-01" purity="4.1744545102119446e-01" nType="0">
          <Node pos="l" depth="2" NCoef="0" IVar="-1" Cut="0.0000000000000000e+00" cType="1" res="-3.4885385539382696e-03" rms="4.4806700944900513e-01" purity="3.0107688903808594e-01" nType="-99"/>
          <Node pos="r" depth="2" NCoef="0" IVar="-1" Cut="0.0000000000000000e+00" cType="1" res="4.8214595881290734e-04" rms="4.8838177323341370e-01" purity="4.9066355824470520e-01" nType="-99"/>
        </Node>
        <Node pos="r" depth="1" NCoef="0" IVar="5" Cut="2.3890912532806396e+00" cType="1" res="1.0229472815990448e-01" rms="4.4816276431083679e-01" purity="7.0661127567291260e-01" nType="0">
          <Node pos="l" depth="2" NCoef="0" IVar="-1" Cut="0.0000000000000000e+00" cType="1" res="2.8664183337241411e-03" rms="4.2889741063117981e-01" purity="7.5272005796432495e-01" nType="-99"/>
          <Node pos="r" depth="2" NCoef="0" IVar="-1" Cut="0.0000000000000000e+00" cType="1" res="2.7947881608270109e-04" rms="4.8828661441802979e-01" purity="5.7354605197906494e-01" nType="-99"/>
        </Node>
      </Node>
    </BinaryTree>
    <BinaryTree type="DecisionTree" boostWeight="1.0000000000000000e+00" itree="83">
      <Node pos="s" depth="0" NCoef="0" IVar="6" Cut="3.9756820201873779e+00" cType="1" res="1.7787138000130653e-02" rms="4.7205722332000732e-01" purity="5.0435715913772583e-01" nType="0">
        <Node pos="l" depth="1" NCoef="0" IVar="5" Cut="2.5161395072937012e+00" cType="1" res="-1.3684609904885292e-02" rms="4.7781348228454590e-01" purity="4.3406021595001221e-01" nType="0">
          <Node pos="l" depth="2" NCoef="0" IVar="-1" Cut="0.0000000000000000e+00" cType="1" res="2.8563948580995202e-04" rms="4.8476687073707581e-01" purity="4.7261315584182739e-01" nType="-99"/>
          <Node pos="r" depth="2" NCoef="0" IVar="-1" Cut="0.0000000000000000e+00" cType="1" res="-4.5091887004673481e-03" rms="4.3476060032844543e-01" purity="2.7528518438339233e-01" nType="-99"/>
        </Node>
        <Node pos="r" depth="1" NCoef="0" IVar="5" Cut="2.3471138477325439e+00" cType="1" res="1.1817227303981781e-01" rms="4.3836197257041931e-01" purity="7.2858273983001709e-01" nType="0">
          <Node pos="l" depth="2" NCoef="0" IVar="-1" Cut="0.0000000000000000e+00" cType="1" res="3.1592769082635641e-03" rms="4.1752126812934875e-01" purity="7.7224898338317871e-01" nType="-99"/>
          <Node pos="r" depth="2" NCoef="0" IVar="-1" Cut="0.0000000000000000e+00" cType="1" res="1.0606084251776338e-03" rms="4.7929233312606812e-01" purity="6.1783611774444580e-01" nType="-99"/>
        </Node>
      </Node>
    </BinaryTree>
    <BinaryTree type="DecisionTree" boostWeight="1.0000000000000000e+00" itree="84">
      <Node pos="s" depth="0" NCoef="0" IVar="6" Cut="3.0260803699493408e+00" cType="1" res="1.6205701977014542e-02" rms="4.7240278124809265e-01" purity="5.0251722335815430e-01" nType="0">
        <Node pos="l" depth="1" NCoef="0" IVar="2" Cut="8.1257790327072144e-01" cType="1" res="-3.1921271234750748e-02" rms="4.7298023104667664e-01" purity="3.8293310999870300e-01" nType="0">
          <Node pos="l" depth="2" NCoef="0" IVar="-1" Cut="0.0000000000000000e+00" cType="1" res="2.4723223759792745e-04" rms="4.8215916752815247e-01" purity="4.3058139085769653e-01" nType="-99"/>
          <Node pos="r" depth="2" NCoef="0" IVar="-1" Cut="0.0000000000000000e+00" cType="1" res="-2.9368249233812094e-03" rms="4.5711752772331238e-01" purity="3.2560381293296814e-01" nType="-99"/>
        </Node>
        <Node pos="r" depth="1" NCoef="0" IVar="1" Cut="4.5369525146484375e+02" cType="1" res="7.7727563679218292e-02" rms="4.6445745229721069e-01" purity="6.5538454055786133e-01" nType="0">
          <Node pos="l" depth="2" NCoef="0" IVar="-1" Cut="0.0000000000000000e+00" cType="1" res="-3.6245380761101842e-04" rms="4.8865491151809692e-01" purity="5.3628039360046387e-01" nType="-99"/>
          <Node pos="r" depth="2" NCoef="0" IVar="-1" Cut="0.0000000000000000e+00" cType="1" res="2.4611435364931822e-03" rms="4.5130309462547302e-01" purity="6.9711023569107056e-01" nType="-99"/>
        </Node>
      </Node>
    </BinaryTree>
    <BinaryTree type="DecisionTree" boostWeight="1.0000000000000000e+00" itree="85">
      <Node pos="s" depth="0" NCoef="0" IVar="6" Cut="4.6224908828735352e+00" cType="1" res="1.3246253132820129e-02" rms="4.7259214520454407e-01" purity="4.9936982989311218e-01" nType="0">
        <Node pos="l" depth="1" NCoef="0" IVar="1" Cut="3.9062829589843750e+02" cType="1" res="-8.6843166500329971e-03" rms="4.7763723134994507e-01" purity="4.5553261041641235e-01" nType="0">
          <Node pos="l" depth="2" NCoef="0" IVar="-1" Cut="0.0000000000000000e+00" cType="1" res="-5.3542191162705421e-03" rms="4.2605924606323242e-01" purity="2.6567465066909790e-01" nType="-99"/>
          <Node pos="r" depth="2" NCoef="0" IVar="-1" Cut="0.0000000000000000e+00" cType="1" res="2.8264947468414903e-04" rms="4.8240366578102112e-01" purity="4.8473623394966125e-01" nType="-99"/>
        </Node>
        <Node pos="r" depth="1" NCoef="0" IVar="-1" Cut="0.0000000000000000e+00" cType="1" res="3.2121136318892241e-03" rms="4.1474792361259460e-01" purity="7.7168738842010498e-01" nType="-99"/>
      </Node>
    </BinaryTree>
    <BinaryTree type="DecisionTree" boostWeight="1.0000000000000000e+00" itree="86">
      <Node pos="s" depth="0" NCoef="0" IVar="6" Cut="2.0525524616241455e+00" cType="1" res="9.0652536600828171e-03" rms="4.7191569209098816e-01" purity="4.9427887797355652e-01" nType="0">
        <Node pos="l" depth="1" NCoef="0" IVar="1" Cut="5.7492236328125000e+02" cType="1" res="-7.3621109127998352e-02" rms="4.5287653803825378e-01" purity="3.1256383657455444e-01" nType="0">
          <Node pos="l" depth="2" NCoef="0" IVar="-1" Cut="0.0000000000000000e+00" cType="1" res="-4.4509284198284149e-03" rms="4.2948803305625916e-01" purity="2.5651150941848755e-01" nType="-99"/>
          <Node pos="r" depth="2" NCoef="0" IVar="-1" Cut="0.0000000000000000e+00" cType="1" res="-6.0564733576029539e-04" rms="4.8950991034507751e-01" purity="4.1876271367073059e-01" nType="-99"/>
        </Node>
        <Node pos="r" depth="1" NCoef="0" IVar="1" Cut="4.5766958618164062e+02" cType="1" res="4.6896956861019135e-02" rms="4.7560581564903259e-01" purity="5.7741940021514893e-01" nType="0">
          <Node pos="l" depth="2" NCoef="0" IVar="-1" Cut="0.0000000000000000e+00" cType="1" res="-8.7725062621757388e-04" rms="4.8016291856765747e-01" purity="4.5547631382942200e-01" nType="-99"/>
          <Node pos="r" depth="2" NCoef="0" IVar="-1" Cut="0.0000000000000000e+00" cType="1" res="1.8936169799417257e-03" rms="4.7003239393234253e-01" purity="6.2805819511413574e-01" nType="-99"/>
        </Node>
      </Node>
    </BinaryTree>
    <BinaryTree type="DecisionTree" boostWeight="1.0000000000000000e+00" itree="87">
      <Node pos="s" depth="0" NCoef="0" IVar="1" Cut="5.5099554443359375e+02" cType="1" res="1.2980032712221146e-02" rms="4.7198143601417542e-01" purity="4.9957722425460815e-01" nType="0">
        <Node pos="l" depth="1" NCoef="0" IVar="6" Cut="2.3745656013488770e+00" cType="1" res="-3.3756453543901443e-02" rms="4.6604686975479126e-01" purity="4.2295145988464355e-01" nType="0">
          <Node pos="l" depth="2" NCoef="0" IVar="-1" Cut="0.0000000000000000e+00" cType="1" res="-3.6929885391145945e-03" rms="4.3653205037117004e-01" purity="2.7163150906562805e-01" nType="-99"/>
          <Node pos="r" depth="2" NCoef="0" IVar="-1" Cut="0.0000000000000000e+00" cType="1" res="1.5217535838019103e-04" rms="4.8297095298767090e-01" purity="5.3503304719924927e-01" nType="-99"/>
        </Node>
        <Node pos="r" depth="1" NCoef="0" IVar="6" Cut="1.9996806383132935e+00" cType="1" res="7.1786761283874512e-02" rms="4.7282585501670837e-01" purity="5.9599250555038452e-01" nType="0">
          <Node pos="l" depth="2" NCoef="0" IVar="-1" Cut="0.0000000000000000e+00" cType="1" res="-4.5115710236132145e-04" rms="4.9024286866188049e-01" purity="4.2079427838325500e-01" nType="-99"/>
          <Node pos="r" depth="2" NCoef="0" IVar="-1" Cut="0.0000000000000000e+00" cType="1" res="2.3976352531462908e-03" rms="4.6229025721549988e-01" purity="6.6015696525573730e-01" nType="-99"/>
        </Node>
      </Node>
    </BinaryTree>
    <BinaryTree type="DecisionTree" boostWeight="1.0000000000000000e+00" itree="88">
      <Node pos="s" depth="0" NCoef="0" IVar="6" Cut="4.2028956413269043e+00" cType="1" res="1.1017563752830029e-02" rms="4.7140532732009888e-01" purity="4.9702218174934387e-01" nType="0">
        <Node pos="l" depth="1" NCoef="0" IVar="6" Cut="1.5882632732391357e+00" cType="1" res="-1.6421653330326080e-02" rms="4.7661972045898438e-01" purity="4.3674400448799133e-01" nType="0">
          <Node pos="l" depth="2" NCoef="0" IVar="-1" Cut="0.0000000000000000e+00" cType="1" res="-4.1259801946580410e-03" rms="4.3921586871147156e-01" purity="2.8185898065567017e-01" nType="-99"/>
          <Node pos="r" depth="2" NCoef="0" IVar="-1" Cut="0.0000000000000000e+00" cType="1" res="2.7187404339201748e-04" rms="4.8480215668678284e-01" purity="4.8519018292427063e-01" nType="-99"/>
        </Node>
        <Node pos="r" depth="1" NCoef="0" IVar="5" Cut="2.2743415832519531e+00" cType="1" res="1.2143459916114807e-01" rms="4.3256083130836487e-01" purity="7.3958492279052734e-01" nType="0">
          <Node pos="l" depth="2" NCoef="0" IVar="-1" Cut="0.0000000000000000e+00" cType="1" res="3.2525327987968922e-03" rms="4.0778565406799316e-01" purity="7.8699624538421631e-01" nType="-99"/>
          <Node pos="r" depth="2" NCoef="0" IVar="-1" Cut="0.0000000000000000e+00" cType="1" res="1.6383004840463400e-03" rms="4.6602866053581238e-01" purity="6.6144484281539917e-01" nType="-99"/>
        </Node>
      </Node>
    </BinaryTree>
    <BinaryTree type="DecisionTree" boostWeight="1.0000000000000000e+00" itree="89">
      <Node pos="s" depth="0" NCoef="0" IVar="6" Cut="4.5803565979003906e+00" cType="1" res="1.1204736307263374e-02" rms="4.7183912992477417e-01" purity="4.9610656499862671e-01" nType="0">
        <Node pos="l" depth="1" NCoef="0" IVar="5" Cut="2.6383693218231201e+00" cType="1" res="-1.0192816145718098e-02" rms="4.7663760185241699e-01" purity="4.5223572850227356e-01" nType="0">
          <Node pos="l" depth="2" NCoef="0" IVar="-1" Cut="0.0000000000000000e+00" cType="1" res="2.1672024740837514e-04" rms="4.8130285739898682e-01" purity="4.8147055506706238e-01" nType="-99"/>
          <Node pos="r" depth="2" NCoef="0" IVar="-1" Cut="0.0000000000000000e+00" cType="1" res="-5.5350777693092823e-03" rms="4.2508411407470703e-01" purity="2.5528421998023987e-01" nType="-99"/>
        </Node>
        <Node pos="r" depth="1" NCoef="0" IVar="-1" Cut="0.0000000000000000e+00" cType="1" res="3.1130043789744377e-03" rms="4.1705393791198730e-01" purity="7.6827818155288696e-01" nType="-99"/>
      </Node>
    </BinaryTree>
    <BinaryTree type="DecisionTree" boostWeight="1.0000000000000000e+00" itree="90">
      <Node pos="s" depth="0" NCoef="0" IVar="6" Cut="4.2432265281677246e+00" cType="1" res="1.1461779475212097e-02" rms="4.7138851881027222e-01" purity="4.9650296568870544e-01" nType="0">
        <Node pos="l" depth="1" NCoef="0" IVar="1" Cut="5.7693707275390625e+02" cType="1" res="-1.3134664855897427e-02" rms="4.7658452391624451e-01" purity="4.4064855575561523e-01" nType="0">
          <Node pos="l" depth="2" NCoef="0" IVar="-1" Cut="0.0000000000000000e+00" cType="1" res="-1.6174820484593511e-03" rms="4.6746346354484558e-01" purity="3.8031545281410217e-01" nType="-99"/>
          <Node pos="r" depth="2" NCoef="0" IVar="-1" Cut="0.0000000000000000e+00" cType="1" res="1.2442084262147546e-03" rms="4.8587229847908020e-01" purity="5.4351562261581421e-01" nType="-99"/>
        </Node>
        <Node pos="r" depth="1" NCoef="0" IVar="6" Cut="5.0832748413085938e+00" cType="1" res="1.1952206492424011e-01" rms="4.3154624104499817e-01" purity="7.4188965559005737e-01" nType="0">
          <Node pos="l" depth="2" NCoef="0" IVar="-1" Cut="0.0000000000000000e+00" cType="1" res="1.7656503478065133e-03" rms="4.5614066720008850e-01" purity="6.9225341081619263e-01" nType="-99"/>
          <Node pos="r" depth="2" NCoef="0" IVar="-1" Cut="0.0000000000000000e+00" cType="1" res="3.5931288730353117e-03" rms="3.9333897829055786e-01" purity="8.0237412452697754e-01" nType="-99"/>
        </Node>
      </Node>
    </BinaryTree>
    <BinaryTree type="DecisionTree" boostWeight="1.0000000000000000e+00" itree="91">
      <Node pos="s" depth="0" NCoef="0" IVar="5" Cut="2.3695707321166992e+00" cType="1" res="1.7451692372560501e-02" rms="4.7166433930397034e-01" purity="5.0296509265899658e-01" nType="0">
        <Node pos="l" depth="1" NCoef="0" IVar="6" Cut="3.9000067710876465e+00" cType="1" res="5.0366379320621490e-02" rms="4.7257411479949951e-01" purity="5.5723786354064941e-01" nType="0">
          <Node pos="l" depth="2" NCoef="0" IVar="-1" Cut="0.0000000000000000e+00" cType="1" res="5.4448179434984922e-04" rms="4.8609784245491028e-01" purity="4.8226881027221680e-01" nType="-99"/>
          <Node pos="r" depth="2" NCoef="0" IVar="-1" Cut="0.0000000000000000e+00" cType="1" res="2.9745628125965595e-03" rms="4.2003637552261353e-01" purity="7.6782649755477905e-01" nType="-99"/>
        </Node>
        <Node pos="r" depth="1" NCoef="0" IVar="5" Cut="2.8855755329132080e+00" cType="1" res="-5.8690827339887619e-02" rms="4.6062585711479187e-01" purity="3.7741410732269287e-01" nType="0">
          <Node pos="l" depth="2" NCoef="0" IVar="-1" Cut="0.0000000000000000e+00" cType="1" res="-1.1535735102370381e-03" rms="4.6842977404594421e-01" purity="4.0950813889503479e-01" nType="-99"/>
          <Node pos="r" depth="2" NCoef="0" IVar="-1" Cut="0.0000000000000000e+00" cType="1" res="-7.4786711484193802e-03" rms="4.0478217601776123e-01" purity="2.2624900937080383e-01" nType="-99"/>
        </Node>
      </Node>
    </BinaryTree>
    <BinaryTree type="DecisionTree" boostWeight="1.0000000000000000e+00" itree="92">
      <Node pos="s" depth="0" NCoef="0" IVar="6" Cut="3.8815011978149414e+00" cType="1" res="1.2786692939698696e-02" rms="4.7137549519538879e-01" purity="4.9886286258697510e-01" nType="0">
        <Node pos="l" depth="1" NCoef="0" IVar="1" Cut="3.8231021118164062e+02" cType="1" res="-1.6420131549239159e-02" rms="4.7656151652336121e-01" purity="4.2648264765739441e-01" nType="0">
          <Node pos="l" depth="2" NCoef="0" IVar="-1" Cut="0.0000000000000000e+00" cType="1" res="-5.9379520826041698e-03" rms="4.1098350286483765e-01" purity="2.3343697190284729e-01" nType="-99"/>
          <Node pos="r" depth="2" NCoef="0" IVar="-1" Cut="0.0000000000000000e+00" cType="1" res="-1.9796483684331179e-05" rms="4.8258003592491150e-01" purity="4.5255061984062195e-01" nType="-99"/>
        </Node>
        <Node pos="r" depth="1" NCoef="0" IVar="5" Cut="2.4252963066101074e+00" cType="1" res="9.9730618298053741e-02" rms="4.4436711072921753e-01" purity="7.1432679891586304e-01" nType="0">
          <Node pos="l" depth="2" NCoef="0" IVar="-1" Cut="0.0000000000000000e+00" cType="1" res="2.6750839315354824e-03" rms="4.2954611778259277e-01" purity="7.5134408473968506e-01" nType="-99"/>
          <Node pos="r" depth="2" NCoef="0" IVar="-1" Cut="0.0000000000000000e+00" cType="1" res="5.1139941206201911e-04" rms="4.8422089219093323e-01" purity="5.8544874191284180e-01" nType="-99"/>
        </Node>
      </Node>
    </BinaryTree>
    <BinaryTree type="DecisionTree" boostWeight="1.0000000000000000e+00" itree="93">
      <Node pos="s" depth="0" NCoef="0" IVar="6" Cut="4.1514635086059570e+00" cType="1" res="1.6939751803874969e-02" rms="4.7155696153640747e-01" purity="5.0346624851226807e-01" nType="0">
        <Node pos="l" depth="1" NCoef="0" IVar="1" Cut="4.2557696533203125e+02" cType="1" res="-9.2934072017669678e-03" rms="4.7788536548614502e-01" purity="4.4152903556823730e-01" nType="0">
          <Node pos="l" depth="2" NCoef="0" IVar="-1" Cut="0.0000000000000000e+00" cType="1" res="-3.3275163732469082e-03" rms="4.4325128197669983e-01" purity="2.9736694693565369e-01" nType="-99"/>
          <Node pos="r" depth="2" NCoef="0" IVar="-1" Cut="0.0000000000000000e+00" cType="1" res="3.9927609032019973e-04" rms="4.8565688729286194e-01" purity="4.8579910397529602e-01" nType="-99"/>
        </Node>
        <Node pos="r" depth="1" NCoef="0" IVar="6" Cut="5.0893578529357910e+00" cType="1" res="1.1648052185773849e-01" rms="4.3248984217643738e-01" purity="7.3848474025726318e-01" nType="0">
          <Node pos="l" depth="2" NCoef="0" IVar="-1" Cut="0.0000000000000000e+00" cType="1" res="1.8378761596977711e-03" rms="4.5347011089324951e-01" purity="6.9564747810363770e-01" nType="-99"/>
          <Node pos="r" depth="2" NCoef="0" IVar="-1" Cut="0.0000000000000000e+00" cType="1" res="3.6167851649224758e-03" rms="3.9165711402893066e-01" purity="8.0464655160903931e-01" nType="-99"/>
        </Node>
      </Node>
    </BinaryTree>
    <BinaryTree type="DecisionTree" boostWeight="1.0000000000000000e+00" itree="94">
      <Node pos="s" depth="0" NCoef="0" IVar="6" Cut="2.0087468624114990e+00" cType="1" res="1.7889862880110741e-02" rms="4.7162711620330811e-01" purity="5.0434279441833496e-01" nType="0">
        <Node pos="l" depth="1" NCoef="0" IVar="5" Cut="2.3104977607727051e+00" cType="1" res="-5.8027744293212891e-02" rms="4.5635539293289185e-01" purity="3.2395979762077332e-01" nType="0">
          <Node pos="l" depth="2" NCoef="0" IVar="-1" Cut="0.0000000000000000e+00" cType="1" res="-9.0005458332598209e-04" rms="4.7609406709671021e-01" purity="3.7733399868011475e-01" nType="-99"/>
          <Node pos="r" depth="2" NCoef="0" IVar="-1" Cut="0.0000000000000000e+00" cType="1" res="-4.9774404615163803e-03" rms="4.1819718480110168e-01" purity="2.3917959630489349e-01" nType="-99"/>
        </Node>
        <Node pos="r" depth="1" NCoef="0" IVar="5" Cut="2.3917102813720703e+00" cType="1" res="5.0490763038396835e-02" rms="4.7432067990303040e-01" purity="5.8180373907089233e-01" nType="0">
          <Node pos="l" depth="2" NCoef="0" IVar="-1" Cut="0.0000000000000000e+00" cType="1" res="1.9297520630061626e-03" rms="4.6825101971626282e-01" purity="6.3021790981292725e-01" nType="-99"/>
          <Node pos="r" depth="2" NCoef="0" IVar="-1" Cut="0.0000000000000000e+00" cType="1" res="-8.8053924264386296e-04" rms="4.8123306035995483e-01" purity="4.5117637515068054e-01" nType="-99"/>
        </Node>
      </Node>
    </BinaryTree>
    <BinaryTree type="DecisionTree" boostWeight="1.0000000000000000e+00" itree="95">
      <Node pos="s" depth="0" NCoef="0" IVar="6" Cut="4.5770606994628906e+00" cType="1" res="1.5571708790957928e-02" rms="4.7143825888633728e-01" purity="5.0095963478088379e-01" nType="0">
        <Node pos="l" depth="1" NCoef="0" IVar="6" Cut="1.4178713560104370e+00" cType="1" res="-4.6041700989007950e-03" rms="4.7694179415702820e-01" purity="4.5639780163764954e-01" nType="0">
          <Node pos="l" depth="2" NCoef="0" IVar="-1" Cut="0.0000000000000000e+00" cType="1" res="-3.9339829236268997e-03" rms="4.4119557738304138e-01" purity="2.8234565258026123e-01" nType="-99"/>
          <Node pos="r" depth="2" NCoef="0" IVar="-1" Cut="0.0000000000000000e+00" cType="1" res="4.1720009176060557e-04" rms="4.8217168450355530e-01" purity="4.9427691102027893e-01" nType="-99"/>
        </Node>
        <Node pos="r" depth="1" NCoef="0" IVar="-1" Cut="0.0000000000000000e+00" cType="1" res="2.9727336950600147e-03" rms="4.1698059439659119e-01" purity="7.6819413900375366e-01" nType="-99"/>
      </Node>
    </BinaryTree>
    <BinaryTree type="DecisionTree" boostWeight="1.0000000000000000e+00" itree="96">
      <Node pos="s" depth="0" NCoef="0" IVar="6" Cut="2.2328460216522217e+00" cType="1" res="1.6465224325656891e-02" rms="4.7152426838874817e-01" purity="5.0160568952560425e-01" nType="0">
        <Node pos="l" depth="1" NCoef="0" IVar="4" Cut="8.3401161193847656e+01" cType="1" res="-4.5273263007402420e-02" rms="4.6252912282943726e-01" purity="3.3760181069374084e-01" nType="0">
          <Node pos="l" depth="2" NCoef="0" IVar="-1" Cut="0.0000000000000000e+00" cType="1" res="-2.9625808820128441e-03" rms="4.4769406318664551e-01" purity="2.9551237821578979e-01" nType="-99"/>
          <Node pos="r" depth="2" NCoef="0" IVar="-1" Cut="0.0000000000000000e+00" cType="1" res="8.2041195128113031e-05" rms="4.8328804969787598e-01" purity="4.1005763411521912e-01" nType="-99"/>
        </Node>
        <Node pos="r" depth="1" NCoef="0" IVar="5" Cut="2.7112758159637451e+00" cType="1" res="5.1856320351362228e-02" rms="4.7298413515090942e-01" purity="5.9561955928802490e-01" nType="0">
          <Node pos="l" depth="2" NCoef="0" IVar="-1" Cut="0.0000000000000000e+00" cType="1" res="1.6423147171735764e-03" rms="4.7036954760551453e-01" purity="6.2048637866973877e-01" nType="-99"/>
          <Node pos="r" depth="2" NCoef="0" IVar="-1" Cut="0.0000000000000000e+00" cType="1" res="-3.5610720515251160e-03" rms="4.7030001878738403e-01" purity="3.5128450393676758e-01" nType="-99"/>
        </Node>
      </Node>
    </BinaryTree>
    <BinaryTree type="DecisionTree" boostWeight="1.0000000000000000e+00" itree="97">
      <Node pos="s" depth="0" NCoef="0" IVar="6" Cut="2.1620209217071533e+00" cType="1" res="1.0444216430187225e-02" rms="4.7108474373817444e-01" purity="4.9579775333404541e-01" nType="0">
        <Node pos="l" depth="1" NCoef="0" IVar="5" Cut="2.5900061130523682e+00" cType="1" res="-5.5090561509132385e-02" rms="4.5824885368347168e-01" purity="3.2514679431915283e-01" nType="0">
          <Node pos="l" depth="2" NCoef="0" IVar="-1" Cut="0.0000000000000000e+00" cType="1" res="-1.4351780992001295e-03" rms="4.7067654132843018e-01" purity="3.5376158356666565e-01" nType="-99"/>
          <Node pos="r" depth="2" NCoef="0" IVar="-1" Cut="0.0000000000000000e+00" cType="1" res="-7.0210783742368221e-03" rms="3.8330104947090149e-01" purity="1.8542653322219849e-01" nType="-99"/>
        </Node>
        <Node pos="r" depth="1" NCoef="0" IVar="1" Cut="4.9180969238281250e+02" cType="1" res="4.5008894056081772e-02" rms="4.7408068180084229e-01" purity="5.8580338954925537e-01" nType="0">
          <Node pos="l" depth="2" NCoef="0" IVar="-1" Cut="0.0000000000000000e+00" cType="1" res="-5.6025694357231259e-04" rms="4.8069775104522705e-01" purity="4.8464590311050415e-01" nType="-99"/>
          <Node pos="r" depth="2" NCoef="0" IVar="-1" Cut="0.0000000000000000e+00" cType="1" res="2.0130421034991741e-03" rms="4.6541595458984375e-01" purity="6.4864063262939453e-01" nType="-99"/>
        </Node>
      </Node>
    </BinaryTree>
    <BinaryTree type="DecisionTree" boostWeight="1.0000000000000000e+00" itree="98">
      <Node pos="s" depth="0" NCoef="0" IVar="1" Cut="4.5009219360351562e+02" cType="1" res="1.7665611580014229e-02" rms="4.7158235311508179e-01" purity="5.0267285108566284e-01" nType="0">
        <Node pos="l" depth="1" NCoef="0" IVar="7" Cut="2.3507772013545036e-02" cType="1" res="-5.4265566170215607e-02" rms="4.5592966675758362e-01" purity="3.6397027969360352e-01" nType="0">
          <Node pos="l" depth="2" NCoef="0" IVar="-1" Cut="0.0000000000000000e+00" cType="1" res="-3.2875868491828442e-03" rms="4.4405195116996765e-01" purity="3.2222381234169006e-01" nType="-99"/>
          <Node pos="r" depth="2" NCoef="0" IVar="-1" Cut="0.0000000000000000e+00" cType="1" res="-3.9817081415094435e-04" rms="4.6709579229354858e-01" purity="4.1655647754669189e-01" nType="-99"/>
        </Node>
        <Node pos="r" depth="1" NCoef="0" IVar="6" Cut="1.9992409944534302e+00" cType="1" res="4.7541063278913498e-02" rms="4.7474020719528198e-01" purity="5.6028068065643311e-01" nType="0">
          <Node pos="l" depth="2" NCoef="0" IVar="-1" Cut="0.0000000000000000e+00" cType="1" res="-9.4226957298815250e-04" rms="4.8037606477737427e-01" purity="3.8373479247093201e-01" nType="-99"/>
          <Node pos="r" depth="2" NCoef="0" IVar="-1" Cut="0.0000000000000000e+00" cType="1" res="1.8421462737023830e-03" rms="4.6933206915855408e-01" purity="6.2851512432098389e-01" nType="-99"/>
        </Node>
      </Node>
    </BinaryTree>
    <BinaryTree type="DecisionTree" boostWeight="1.0000000000000000e+00" itree="99">
      <Node pos="s" depth="0" NCoef="0" IVar="6" Cut="3.2931900024414062e+00" cType="1" res="1.1931478045880795e-02" rms="4.7039890289306641e-01" purity="4.9898529052734375e-01" nType="0">
        <Node pos="l" depth="1" NCoef="0" IVar="5" Cut="2.7819211483001709e+00" cType="1" res="-2.4945231154561043e-02" rms="4.7313979268074036e-01" purity="3.9483320713043213e-01" nType="0">
          <Node pos="l" depth="2" NCoef="0" IVar="-1" Cut="0.0000000000000000e+00" cType="1" res="-4.1417646571062505e-04" rms="4.7904554009437561e-01" purity="4.1397431492805481e-01" nType="-99"/>
          <Node pos="r" depth="2" NCoef="0" IVar="-1" Cut="0.0000000000000000e+00" cType="1" res="-8.2012321799993515e-03" rms="3.7549290060997009e-01" purity="1.8000423908233643e-01" nType="-99"/>
        </Node>
        <Node pos="r" depth="1" NCoef="0" IVar="5" Cut="2.5563194751739502e+00" cType="1" res="7.2743505239486694e-02" rms="4.5942330360412598e-01" purity="6.7073863744735718e-01" nType="0">
          <Node pos="l" depth="2" NCoef="0" IVar="-1" Cut="0.0000000000000000e+00" cType="1" res="2.0628271158784628e-03" rms="4.5125111937522888e-01" purity="7.0140528678894043e-01" nType="-99"/>
          <Node pos="r" depth="2" NCoef="0" IVar="-1" Cut="0.0000000000000000e+00" cType="1" res="-8.8688678806647658e-04" rms="4.9172121286392212e-01" purity="4.9090057611465454e-01" nType="-99"/>
        </Node>
      </Node>
    </BinaryTree>
    <BinaryTree type="DecisionTree" boostWeight="1.0000000000000000e+00" itree="100">
      <Node pos="s" depth="0" NCoef="0" IVar="6" Cut="4.5960006713867188e+00" cType="1" res="1.2497691437602043e-02" rms="4.7156816720962524e-01" purity="4.9788701534271240e-01" nType="0">
        <Node pos="l" depth="1" NCoef="0" IVar="1" Cut="5.0042144775390625e+02" cType="1" res="-5.4902429692447186e-03" rms="4.7663524746894836e-01" purity="4.5665231347084045e-01" nType="0">
          <Node pos="l" depth="2" NCoef="0" IVar="-1" Cut="0.0000000000000000e+00" cType="1" res="-1.8000893760472536e-03" rms="4.6365863084793091e-01" purity="3.6466133594512939e-01" nType="-99"/>
          <Node pos="r" depth="2" NCoef="0" IVar="-1" Cut="0.0000000000000000e+00" cType="1" res="8.7285996414721012e-04" rms="4.8363083600997925e-01" purity="5.3167927265167236e-01" nType="-99"/>
        </Node>
        <Node pos="r" depth="1" NCoef="0" IVar="-1" Cut="0.0000000000000000e+00" cType="1" res="2.8384239412844181e-03" rms="4.1904941201210022e-01" purity="7.6489704847335815e-01" nType="-99"/>
      </Node>
    </BinaryTree>
    <BinaryTree type="DecisionTree" boostWeight="1.0000000000000000e+00" itree="101">
      <Node pos="s" depth="0" NCoef="0" IVar="6" Cut="2.1462173461914062e+00" cType="1" res="1.4659500680863857e-02" rms="4.7010254859924316e-01" purity="5.0029420852661133e-01" nType="0">
        <Node pos="l" depth="1" NCoef="0" IVar="1" Cut="5.8979986572265625e+02" cType="1" res="-5.2283372730016708e-02" rms="4.5746484398841858e-01" purity="3.2554465532302856e-01" nType="0">
          <Node pos="l" depth="2" NCoef="0" IVar="-1" Cut="0.0000000000000000e+00" cType="1" res="-3.3491561189293861e-03" rms="4.3779197335243225e-01" purity="2.7191820740699768e-01" nType="-99"/>
          <Node pos="r" depth="2" NCoef="0" IVar="-1" Cut="0.0000000000000000e+00" cType="1" res="1.1343872756697237e-04" rms="4.9173057079315186e-01" purity="4.3862298130989075e-01" nType="-99"/>
        </Node>
        <Node pos="r" depth="1" NCoef="0" IVar="5" Cut="2.7536058425903320e+00" cType="1" res="4.9241103231906891e-02" rms="4.7280132770538330e-01" purity="5.9056699275970459e-01" nType="0">
          <Node pos="l" depth="2" NCoef="0" IVar="-1" Cut="0.0000000000000000e+00" cType="1" res="1.5639001503586769e-03" rms="4.7114902734756470e-01" purity="6.1308568716049194e-01" nType="-99"/>
          <Node pos="r" depth="2" NCoef="0" IVar="-1" Cut="0.0000000000000000e+00" cType="1" res="-4.2729699052870274e-03" rms="4.5933362841606140e-01" purity="3.2965540885925293e-01" nType="-99"/>
        </Node>
      </Node>
    </BinaryTree>
    <BinaryTree type="DecisionTree" boostWeight="1.0000000000000000e+00" itree="102">
      <Node pos="s" depth="0" NCoef="0" IVar="1" Cut="4.5604074096679688e+02" cType="1" res="9.2773633077740669e-03" rms="4.7094836831092834e-01" purity="4.9470239877700806e-01" nType="0">
        <Node pos="l" depth="1" NCoef="0" IVar="7" Cut="-3.1243141740560532e-02" cType="1" res="-5.6184150278568268e-02" rms="4.5456618070602417e-01" purity="3.6318367719650269e-01" nType="0">
          <Node pos="l" depth="2" NCoef="0" IVar="-1" Cut="0.0000000000000000e+00" cType="1" res="-4.2686504311859608e-03" rms="4.3476694822311401e-01" purity="2.9869228601455688e-01" nType="-99"/>
          <Node pos="r" depth="2" NCoef="0" IVar="-1" Cut="0.0000000000000000e+00" cType="1" res="-7.8564707655459642e-04" rms="4.6356093883514404e-01" purity="4.0333417057991028e-01" nType="-99"/>
        </Node>
        <Node pos="r" depth="1" NCoef="0" IVar="6" Cut="2.2428410053253174e+00" cType="1" res="3.8646347820758820e-02" rms="4.7519427537918091e-01" purity="5.5370759963989258e-01" nType="0">
          <Node pos="l" depth="2" NCoef="0" IVar="-1" Cut="0.0000000000000000e+00" cType="1" res="-7.6892576180398464e-04" rms="4.8204749822616577e-01" purity="3.9306896924972534e-01" nType="-99"/>
          <Node pos="r" depth="2" NCoef="0" IVar="-1" Cut="0.0000000000000000e+00" cType="1" res="1.6985988477244973e-03" rms="4.6838203072547913e-01" purity="6.3730758428573608e-01" nType="-99"/>
        </Node>
      </Node>
    </BinaryTree>
    <BinaryTree type="DecisionTree" boostWeight="1.0000000000000000e+00" itree="103">
      <Node pos="s" depth="0" NCoef="0" IVar="6" Cut="4.5837841033935547e+00" cType="1" res="1.1128353886306286e-02" rms="4.7013086080551147e-01" purity="4.9748307466506958e-01" nType="0">
        <Node pos="l" depth="1" NCoef="0" IVar="1" Cut="4.6271536254882812e+02" cType="1" res="-7.9238358885049820e-03" rms="4.7544285655021667e-01" purity="4.5338964462280273e-01" nType="0">
          <Node pos="l" depth="2" NCoef="0" IVar="-1" Cut="0.0000000000000000e+00" cType="1" res="-2.5459295138716698e-03" rms="4.5061933994293213e-01" purity="3.3088669180870056e-01" nType="-99"/>
          <Node pos="r" depth="2" NCoef="0" IVar="-1" Cut="0.0000000000000000e+00" cType="1" res="6.5205228747799993e-04" rms="4.8478406667709351e-01" purity="5.1679742336273193e-01" nType="-99"/>
        </Node>
        <Node pos="r" depth="1" NCoef="0" IVar="-1" Cut="0.0000000000000000e+00" cType="1" res="2.8027736116200686e-03" rms="4.1845712065696716e-01" purity="7.6445567607879639e-01" nType="-99"/>
      </Node>
    </BinaryTree>
    <BinaryTree type="DecisionTree" boostWeight="1.0000000000000000e+00" itree="104">
      <Node pos="s" depth="0" NCoef="0" IVar="6" Cut="3.8369097709655762e+00" cType="1" res="1.3318479992449284e-02" rms="4.6866393089294434e-01" purity="4.9948498606681824e-01" nType="0">
        <Node pos="l" depth="1" NCoef="0" IVar="2" Cut="6.8563151359558105e-01" cType="1" res="-1.6355060040950775e-02" rms="4.7446593642234802e-01" purity="4.2105814814567566e-01" nType="0">
          <Node pos="l" depth="2" NCoef="0" IVar="-1" Cut="0.0000000000000000e+00" cType="1" res="1.0170086752623320e-03" rms="4.8156204819679260e-01" purity="4.8558482527732849e-01" nType="-99"/>
          <Node pos="r" depth="2" NCoef="0" IVar="-1" Cut="0.0000000000000000e+00" cType="1" res="-1.6030633123591542e-03" rms="4.6728807687759399e-01" purity="3.8171070814132690e-01" nType="-99"/>
        </Node>
        <Node pos="r" depth="1" NCoef="0" IVar="5" Cut="2.3912515640258789e+00" cType="1" res="9.5257252454757690e-02" rms="4.4202977418899536e-01" purity="7.1604824066162109e-01" nType="0">
          <Node pos="l" depth="2" NCoef="0" IVar="-1" Cut="0.0000000000000000e+00" cType="1" res="2.7197245508432388e-03" rms="4.2254772782325745e-01" purity="7.6198732852935791e-01" nType="-99"/>
          <Node pos="r" depth="2" NCoef="0" IVar="-1" Cut="0.0000000000000000e+00" cType="1" res="2.7883661095984280e-04" rms="4.8460292816162109e-01" purity="5.8250147104263306e-01" nType="-99"/>
        </Node>
      </Node>
    </BinaryTree>
    <BinaryTree type="DecisionTree" boostWeight="1.0000000000000000e+00" itree="105">
      <Node pos="s" depth="0" NCoef="0" IVar="6" Cut="4.5960006713867188e+00" cType="1" res="1.5229935757815838e-02" rms="4.7051626443862915e-01" purity="5.0011098384857178e-01" nType="0">
        <Node pos="l" depth="1" NCoef="0" IVar="5" Cut="2.2499370574951172e+00" cType="1" res="-2.9689325019717216e-03" rms="4.7598388791084290e-01" purity="4.5764249563217163e-01" nType="0">
          <Node pos="l" depth="2" NCoef="0" IVar="-1" Cut="0.0000000000000000e+00" cType="1" res="9.3696080148220062e-04" rms="4.8106256127357483e-01" purity="5.1979047060012817e-01" nType="-99"/>
          <Node pos="r" depth="2" NCoef="0" IVar="-1" Cut="0.0000000000000000e+00" cType="1" res="-1.6634316416457295e-03" rms="4.6542990207672119e-01" purity="3.8012120127677917e-01" nType="-99"/>
        </Node>
        <Node pos="r" depth="1" NCoef="0" IVar="-1" Cut="0.0000000000000000e+00" cType="1" res="2.8889095410704613e-03" rms="4.1595658659934998e-01" purity="7.6998609304428101e-01" nType="-99"/>
      </Node>
    </BinaryTree>
    <BinaryTree type="DecisionTree" boostWeight="1.0000000000000000e+00" itree="106">
      <Node pos="s" depth="0" NCoef="0" IVar="6" Cut="3.6893510818481445e+00" cType="1" res="1.7221575602889061e-02" rms="4.6887952089309692e-01" purity="5.0409060716629028e-01" nType="0">
        <Node pos="l" depth="1" NCoef="0" IVar="1" Cut="4.6243780517578125e+02" cType="1" res="-1.3234557583928108e-02" rms="4.7497469186782837e-01" purity="4.1964218020439148e-01" nType="0">
          <Node pos="l" depth="2" NCoef="0" IVar="-1" Cut="0.0000000000000000e+00" cType="1" res="-2.7551685925573111e-03" rms="4.4527179002761841e-01" purity="2.9842919111251831e-01" nType="-99"/>
          <Node pos="r" depth="2" NCoef="0" IVar="-1" Cut="0.0000000000000000e+00" cType="1" res="4.9393303925171494e-04" rms="4.8763456940650940e-01" purity="4.8545843362808228e-01" nType="-99"/>
        </Node>
        <Node pos="r" depth="1" NCoef="0" IVar="6" Cut="5.1032576560974121e+00" cType="1" res="9.1213904321193695e-02" rms="4.4513249397277832e-01" purity="7.0925557613372803e-01" nType="0">
          <Node pos="l" depth="2" NCoef="0" IVar="-1" Cut="0.0000000000000000e+00" cType="1" res="1.5088994987308979e-03" rms="4.6191293001174927e-01" purity="6.7178046703338623e-01" nType="-99"/>
          <Node pos="r" depth="2" NCoef="0" IVar="-1" Cut="0.0000000000000000e+00" cType="1" res="3.4063186030834913e-03" rms="3.9134842157363892e-01" purity="8.0461251735687256e-01" nType="-99"/>
        </Node>
      </Node>
    </BinaryTree>
    <BinaryTree type="DecisionTree" boostWeight="1.0000000000000000e+00" itree="107">
      <Node pos="s" depth="0" NCoef="0" IVar="6" Cut="4.3088245391845703e+00" cType="1" res="1.6914449632167816e-02" rms="4.7017189860343933e-01" purity="5.0345993041992188e-01" nType="0">
        <Node pos="l" depth="1" NCoef="0" IVar="1" Cut="3.6869296264648438e+02" cType="1" res="-4.0390826761722565e-03" rms="4.7660973668098450e-01" purity="4.4907805323600769e-01" nType="0">
          <Node pos="l" depth="2" NCoef="0" IVar="-1" Cut="0.0000000000000000e+00" cType="1" res="-5.6599699892103672e-03" rms="4.1434806585311890e-01" purity="2.4055966734886169e-01" nType="-99"/>
          <Node pos="r" depth="2" NCoef="0" IVar="-1" Cut="0.0000000000000000e+00" cType="1" res="2.1427986212074757e-04" rms="4.8043152689933777e-01" purity="4.6850013732910156e-01" nType="-99"/>
        </Node>
        <Node pos="r" depth="1" NCoef="0" IVar="1" Cut="5.1475030517578125e+02" cType="1" res="1.1092568188905716e-01" rms="4.2767554521560669e-01" purity="7.4745225906372070e-01" nType="0">
          <Node pos="l" depth="2" NCoef="0" IVar="-1" Cut="0.0000000000000000e+00" cType="1" res="1.3315768446773291e-03" rms="4.5848664641380310e-01" purity="6.7958462238311768e-01" nType="-99"/>
          <Node pos="r" depth="2" NCoef="0" IVar="-1" Cut="0.0000000000000000e+00" cType="1" res="3.1366217881441116e-03" rms="4.0402105450630188e-01" purity="7.8903019428253174e-01" nType="-99"/>
        </Node>
      </Node>
    </BinaryTree>
    <BinaryTree type="DecisionTree" boostWeight="1.0000000000000000e+00" itree="108">
      <Node pos="s" depth="0" NCoef="0" IVar="6" Cut="2.2985901832580566e+00" cType="1" res="9.4842221587896347e-03" rms="4.7094398736953735e-01" purity="4.9442675709724426e-01" nType="0">
        <Node pos="l" depth="1" NCoef="0" IVar="6" Cut="1.1497608423233032e+00" cType="1" res="-4.8163130879402161e-02" rms="4.5967841148376465e-01" purity="3.3079168200492859e-01" nType="0">
          <Node pos="l" depth="2" NCoef="0" IVar="-1" Cut="0.0000000000000000e+00" cType="1" res="-4.4645508751273155e-03" rms="4.3077895045280457e-01" purity="2.6764240860939026e-01" nType="-99"/>
          <Node pos="r" depth="2" NCoef="0" IVar="-1" Cut="0.0000000000000000e+00" cType="1" res="-1.0055004386231303e-03" rms="4.6822524070739746e-01" purity="3.5401526093482971e-01" nType="-99"/>
        </Node>
        <Node pos="r" depth="1" NCoef="0" IVar="7" Cut="-8.8648468255996704e-02" cType="1" res="4.4928226619958878e-02" rms="4.7427284717559814e-01" purity="5.9503644704818726e-01" nType="0">
          <Node pos="l" depth="2" NCoef="0" IVar="-1" Cut="0.0000000000000000e+00" cType="1" res="-1.5725553967058659e-03" rms="4.8028635978698730e-01" purity="4.8490139842033386e-01" nType="-99"/>
          <Node pos="r" depth="2" NCoef="0" IVar="-1" Cut="0.0000000000000000e+00" cType="1" res="1.5560658648610115e-03" rms="4.7082018852233887e-01" purity="6.1553215980529785e-01" nType="-99"/>
        </Node>
      </Node>
    </BinaryTree>
    <BinaryTree type="DecisionTree" boostWeight="1.0000000000000000e+00" itree="109">
      <Node pos="s" depth="0" NCoef="0" IVar="6" Cut="1.7571792602539062e+00" cType="1" res="1.6019135713577271e-02" rms="4.6901598572731018e-01" purity="5.0282055139541626e-01" nType="0">
        <Node pos="l" depth="1" NCoef="0" IVar="1" Cut="6.5352777099609375e+02" cType="1" res="-6.8224914371967316e-02" rms="4.4708499312400818e-01" purity="3.0149561166763306e-01" nType="0">
          <Node pos="l" depth="2" NCoef="0" IVar="-1" Cut="0.0000000000000000e+00" cType="1" res="-3.8374590221792459e-03" rms="4.3142271041870117e-01" purity="2.6376742124557495e-01" nType="-99"/>
          <Node pos="r" depth="2" NCoef="0" IVar="-1" Cut="0.0000000000000000e+00" cType="1" res="2.6555750082479790e-05" rms="4.9123284220695496e-01" purity="4.3194198608398438e-01" nType="-99"/>
        </Node>
        <Node pos="r" depth="1" NCoef="0" IVar="5" Cut="2.6929614543914795e+00" cType="1" res="4.1488744318485260e-02" rms="4.7249948978424072e-01" purity="5.6368732452392578e-01" nType="0">
          <Node pos="l" depth="2" NCoef="0" IVar="-1" Cut="0.0000000000000000e+00" cType="1" res="1.4244224876165390e-03" rms="4.7146800160408020e-01" purity="5.8947348594665527e-01" nType="-99"/>
          <Node pos="r" depth="2" NCoef="0" IVar="-1" Cut="0.0000000000000000e+00" cType="1" res="-3.1157508492469788e-03" rms="4.6207919716835022e-01" purity="3.3753386139869690e-01" nType="-99"/>
        </Node>
      </Node>
    </BinaryTree>
    <BinaryTree type="DecisionTree" boostWeight="1.0000000000000000e+00" itree="110">
      <Node pos="s" depth="0" NCoef="0" IVar="6" Cut="4.1757769584655762e+00" cType="1" res="1.1661292985081673e-02" rms="4.6955397725105286e-01" purity="4.9776962399482727e-01" nType="0">
        <Node pos="l" depth="1" NCoef="0" IVar="5" Cut="2.2945270538330078e+00" cType="1" res="-1.0410469025373459e-02" rms="4.7552827000617981e-01" purity="4.3877348303794861e-01" nType="0">
          <Node pos="l" depth="2" NCoef="0" IVar="-1" Cut="0.0000000000000000e+00" cType="1" res="6.3052284531295300e-04" rms="4.8403343558311462e-01" purity="4.9633726477622986e-01" nType="-99"/>
          <Node pos="r" depth="2" NCoef="0" IVar="-1" Cut="0.0000000000000000e+00" cType="1" res="-2.1716647315770388e-03" rms="4.5748609304428101e-01" purity="3.4985983371734619e-01" nType="-99"/>
        </Node>
        <Node pos="r" depth="1" NCoef="0" IVar="1" Cut="5.6442651367187500e+02" cType="1" res="1.0109389573335648e-01" rms="4.3316391110420227e-01" purity="7.3681634664535522e-01" nType="0">
          <Node pos="l" depth="2" NCoef="0" IVar="-1" Cut="0.0000000000000000e+00" cType="1" res="1.3261974090710282e-03" rms="4.5797857642173767e-01" purity="6.8280643224716187e-01" nType="-99"/>
          <Node pos="r" depth="2" NCoef="0" IVar="-1" Cut="0.0000000000000000e+00" cType="1" res="3.1672006007283926e-03" rms="4.0232840180397034e-01" purity="7.9011797904968262e-01" nType="-99"/>
        </Node>
      </Node>
    </BinaryTree>
    <BinaryTree type="DecisionTree" boostWeight="1.0000000000000000e+00" itree="111">
      <Node pos="s" depth="0" NCoef="0" IVar="1" Cut="4.3710363769531250e+02" cType="1" res="1.4240489341318607e-02" rms="4.6917900443077087e-01" purity="5.0093990564346313e-01" nType="0">
        <Node pos="l" depth="1" NCoef="0" IVar="6" Cut="1.5598895549774170e+00" cType="1" res="-6.1005085706710815e-02" rms="4.4695475697517395e-01" purity="3.5040208697319031e-01" nType="0">
          <Node pos="l" depth="2" NCoef="0" IVar="-1" Cut="0.0000000000000000e+00" cType="1" res="-8.2202041521668434e-03" rms="3.6073574423789978e-01" purity="1.5470755100250244e-01" nType="-99"/>
          <Node pos="r" depth="2" NCoef="0" IVar="-1" Cut="0.0000000000000000e+00" cType="1" res="-1.2755658244714141e-03" rms="4.6597167849540710e-01" purity="4.0515729784965515e-01" nType="-99"/>
        </Node>
        <Node pos="r" depth="1" NCoef="0" IVar="6" Cut="2.6053793430328369e+00" cType="1" res="3.9806392043828964e-02" rms="4.7378200292587280e-01" purity="5.5208754539489746e-01" nType="0">
          <Node pos="l" depth="2" NCoef="0" IVar="-1" Cut="0.0000000000000000e+00" cType="1" res="-2.5328499032184482e-04" rms="4.8393133282661438e-01" purity="4.1306757926940918e-01" nType="-99"/>
          <Node pos="r" depth="2" NCoef="0" IVar="-1" Cut="0.0000000000000000e+00" cType="1" res="1.7991969361901283e-03" rms="4.6244558691978455e-01" purity="6.5941423177719116e-01" nType="-99"/>
        </Node>
      </Node>
    </BinaryTree>
    <BinaryTree type="DecisionTree" boostWeight="1.0000000000000000e+00" itree="112">
      <Node pos="s" depth="0" NCoef="0" IVar="1" Cut="4.6586486816406250e+02" cType="1" res="1.3538141734898090e-02" rms="4.6862044930458069e-01" purity="5.0113642215728760e-01" nType="0">
        <Node pos="l" depth="1" NCoef="0" IVar="1" Cut="3.9585647583007812e+02" cType="1" res="-5.0566334277391434e-02" rms="4.5649176836013794e-01" purity="3.6965352296829224e-01" nType="0">
          <Node pos="l" depth="2" NCoef="0" IVar="-1" Cut="0.0000000000000000e+00" cType="1" res="-3.9139133878052235e-03" rms="4.3464353680610657e-01" purity="2.9897272586822510e-01" nType="-99"/>
          <Node pos="r" depth="2" NCoef="0" IVar="-1" Cut="0.0000000000000000e+00" cType="1" res="-5.1067303866147995e-04" rms="4.6853852272033691e-01" purity="4.2047563195228577e-01" nType="-99"/>
        </Node>
        <Node pos="r" depth="1" NCoef="0" IVar="6" Cut="2.1399507522583008e+00" cType="1" res="4.6058326959609985e-02" rms="4.7133317589759827e-01" purity="5.6783759593963623e-01" nType="0">
          <Node pos="l" depth="2" NCoef="0" IVar="-1" Cut="0.0000000000000000e+00" cType="1" res="-9.1554463142529130e-04" rms="4.8011183738708496e-01" purity="3.8899904489517212e-01" nType="-99"/>
          <Node pos="r" depth="2" NCoef="0" IVar="-1" Cut="0.0000000000000000e+00" cType="1" res="1.8893150845542550e-03" rms="4.6357071399688721e-01" purity="6.4833909273147583e-01" nType="-99"/>
        </Node>
      </Node>
    </BinaryTree>
    <BinaryTree type="DecisionTree" boostWeight="1.0000000000000000e+00" itree="113">
      <Node pos="s" depth="0" NCoef="0" IVar="6" Cut="4.2936148643493652e+00" cType="1" res="1.4235199429094791e-02" rms="4.6949195861816406e-01" purity="5.0063616037368774e-01" nType="0">
        <Node pos="l" depth="1" NCoef="0" IVar="5" Cut="2.3212661743164062e+00" cType="1" res="-6.2191081233322620e-03" rms="4.7600194811820984e-01" purity="4.4576466083526611e-01" nType="0">
          <Node pos="l" depth="2" NCoef="0" IVar="-1" Cut="0.0000000000000000e+00" cType="1" res="6.1975640710443258e-04" rms="4.8340478539466858e-01" purity="4.9805304408073425e-01" nType="-99"/>
          <Node pos="r" depth="2" NCoef="0" IVar="-1" Cut="0.0000000000000000e+00" cType="1" res="-2.0230300724506378e-03" rms="4.5821636915206909e-01" purity="3.5256305336952209e-01" nType="-99"/>
        </Node>
        <Node pos="r" depth="1" NCoef="0" IVar="5" Cut="2.2720000743865967e+00" cType="1" res="1.0608952492475510e-01" rms="4.2715999484062195e-01" purity="7.4704831838607788e-01" nType="0">
          <Node pos="l" depth="2" NCoef="0" IVar="-1" Cut="0.0000000000000000e+00" cType="1" res="3.0749568250030279e-03" rms="3.9707285165786743e-01" purity="8.0081242322921753e-01" nType="-99"/>
          <Node pos="r" depth="2" NCoef="0" IVar="-1" Cut="0.0000000000000000e+00" cType="1" res="1.0551183950155973e-03" rms="4.6787706017494202e-01" purity="6.5488225221633911e-01" nType="-99"/>
        </Node>
      </Node>
    </BinaryTree>
    <BinaryTree type="DecisionTree" boostWeight="1.0000000000000000e+00" itree="114">
      <Node pos="s" depth="0" NCoef="0" IVar="2" Cut="6.2641304731369019e-01" cType="1" res="1.7254816368222237e-02" rms="4.6907150745391846e-01" purity="5.0403165817260742e-01" nType="0">
        <Node pos="l" depth="1" NCoef="0" IVar="6" Cut="1.4178663492202759e+00" cType="1" res="8.3124801516532898e-02" rms="4.6472430229187012e-01" purity="5.8677423000335693e-01" nType="0">
          <Node pos="l" depth="2" NCoef="0" IVar="-1" Cut="0.0000000000000000e+00" cType="1" res="-7.1002036565914750e-04" rms="4.7212570905685425e-01" purity="3.6513656377792358e-01" nType="-99"/>
          <Node pos="r" depth="2" NCoef="0" IVar="-1" Cut="0.0000000000000000e+00" cType="1" res="2.4966320488601923e-03" rms="4.6072685718536377e-01" purity="6.2887591123580933e-01" nType="-99"/>
        </Node>
        <Node pos="r" depth="1" NCoef="0" IVar="7" Cut="-2.4737806525081396e-03" cType="1" res="-1.3393606990575790e-02" rms="4.6793025732040405e-01" purity="4.6553269028663635e-01" nType="0">
          <Node pos="l" depth="2" NCoef="0" IVar="-1" Cut="0.0000000000000000e+00" cType="1" res="-2.3302913177758455e-03" rms="4.5713871717453003e-01" purity="3.9408230781555176e-01" nType="-99"/>
          <Node pos="r" depth="2" NCoef="0" IVar="-1" Cut="0.0000000000000000e+00" cType="1" res="7.9866487067192793e-04" rms="4.7144919633865356e-01" purity="5.1878148317337036e-01" nType="-99"/>
        </Node>
      </Node>
    </BinaryTree>
    <BinaryTree type="DecisionTree" boostWeight="1.0000000000000000e+00" itree="115">
      <Node pos="s" depth="0" NCoef="0" IVar="1" Cut="4.0604647827148438e+02" cType="1" res="1.1577175930142403e-02" rms="4.6904855966567993e-01" purity="4.9792745709419250e-01" nType="0">
        <Node pos="l" depth="1" NCoef="0" IVar="7" Cut="5.4631389677524567e-02" cType="1" res="-8.8575527071952820e-02" rms="4.3501719832420349e-01" purity="3.0784994363784790e-01" nType="0">
          <Node pos="l" depth="2" NCoef="0" IVar="-1" Cut="0.0000000000000000e+00" cType="1" res="-5.1463320851325989e-03" rms="4.1716733574867249e-01" purity="2.6579242944717407e-01" nType="-99"/>
          <Node pos="r" depth="2" NCoef="0" IVar="-1" Cut="0.0000000000000000e+00" cType="1" res="-1.0841201292350888e-03" rms="4.5891150832176208e-01" purity="3.8118886947631836e-01" nType="-99"/>
        </Node>
        <Node pos="r" depth="1" NCoef="0" IVar="5" Cut="2.8156065940856934e+00" cType="1" res="3.1215611845254898e-02" rms="4.7295552492141724e-01" purity="5.3519874811172485e-01" nType="0">
          <Node pos="l" depth="2" NCoef="0" IVar="-1" Cut="0.0000000000000000e+00" cType="1" res="1.1430594604462385e-03" rms="4.7378197312355042e-01" purity="5.5361533164978027e-01" nType="-99"/>
          <Node pos="r" depth="2" NCoef="0" IVar="-1" Cut="0.0000000000000000e+00" cType="1" res="-5.7385885156691074e-03" rms="4.2601746320724487e-01" purity="2.6500165462493896e-01" nType="-99"/>
        </Node>
      </Node>
    </BinaryTree>
    <BinaryTree type="DecisionTree" boostWeight="1.0000000000000000e+00" itree="116">
      <Node pos="s" depth="0" NCoef="0" IVar="6" Cut="3.6474070549011230e+00" cType="1" res="1.0012692771852016e-02" rms="4.6801477670669556e-01" purity="4.9725630879402161e-01" nType="0">
        <Node pos="l" depth="1" NCoef="0" IVar="1" Cut="3.9864895629882812e+02" cType="1" res="-1.9255409017205238e-02" rms="4.7301697731018066e-01" purity="4.1112390160560608e-01" nType="0">
          <Node pos="l" depth="2" NCoef="0" IVar="-1" Cut="0.0000000000000000e+00" cType="1" res="-5.1124766469001770e-03" rms="4.1229632496833801e-01" purity="2.3293147981166840e-01" nType="-99"/>
          <Node pos="r" depth="2" NCoef="0" IVar="-1" Cut="0.0000000000000000e+00" cType="1" res="-4.4671382056549191e-05" rms="4.8192507028579712e-01" purity="4.4576051831245422e-01" nType="-99"/>
        </Node>
        <Node pos="r" depth="1" NCoef="0" IVar="1" Cut="4.4174996948242188e+02" cType="1" res="7.8635022044181824e-02" rms="4.4864651560783386e-01" purity="6.9920349121093750e-01" nType="0">
          <Node pos="l" depth="2" NCoef="0" IVar="-1" Cut="0.0000000000000000e+00" cType="1" res="-2.2308908228296787e-04" rms="4.8438453674316406e-01" purity="5.7968401908874512e-01" nType="-99"/>
          <Node pos="r" depth="2" NCoef="0" IVar="-1" Cut="0.0000000000000000e+00" cType="1" res="2.2795088589191437e-03" rms="4.3596586585044861e-01" purity="7.3040401935577393e-01" nType="-99"/>
        </Node>
      </Node>
    </BinaryTree>
    <BinaryTree type="DecisionTree" boostWeight="1.0000000000000000e+00" itree="117">
      <Node pos="s" depth="0" NCoef="0" IVar="5" Cut="2.2694458961486816e+00" cType="1" res="1.2638767249882221e-02" rms="4.6976122260093689e-01" purity="4.9877282977104187e-01" nType="0">
        <Node pos="l" depth="1" NCoef="0" IVar="1" Cut="5.1091229248046875e+02" cType="1" res="4.7777093946933746e-02" rms="4.7133329510688782e-01" purity="5.6104481220245361e-01" nType="0">
          <Node pos="l" depth="2" NCoef="0" IVar="-1" Cut="0.0000000000000000e+00" cType="1" res="3.2652154914103448e-05" rms="4.7301068902015686e-01" purity="4.6624219417572021e-01" nType="-99"/>
          <Node pos="r" depth="2" NCoef="0" IVar="-1" Cut="0.0000000000000000e+00" cType="1" res="2.0399473141878843e-03" rms="4.6687534451484680e-01" purity="6.3393980264663696e-01" nType="-99"/>
        </Node>
        <Node pos="r" depth="1" NCoef="0" IVar="5" Cut="2.8762252330780029e+00" cType="1" res="-3.8887809962034225e-02" rms="4.6264520287513733e-01" purity="4.0745759010314941e-01" nType="0">
          <Node pos="l" depth="2" NCoef="0" IVar="-1" Cut="0.0000000000000000e+00" cType="1" res="-6.5554829780012369e-04" rms="4.6972018480300903e-01" purity="4.3588554859161377e-01" nType="-99"/>
          <Node pos="r" depth="2" NCoef="0" IVar="-1" Cut="0.0000000000000000e+00" cType="1" res="-7.2862394154071808e-03" rms="3.9229509234428406e-01" purity="2.1896497905254364e-01" nType="-99"/>
        </Node>
      </Node>
    </BinaryTree>
    <BinaryTree type="DecisionTree" boostWeight="1.0000000000000000e+00" itree="118">
      <Node pos="s" depth="0" NCoef="0" IVar="6" Cut="2.7093372344970703e+00" cType="1" res="1.3104863464832306e-02" rms="4.6841895580291748e-01" purity="5.0065350532531738e-01" nType="0">
        <Node pos="l" depth="1" NCoef="0" IVar="2" Cut="6.0284733772277832e-01" cType="1" res="-3.0431492254137993e-02" rms="4.6608221530914307e-01" purity="3.6203289031982422e-01" nType="0">
          <Node pos="l" depth="2" NCoef="0" IVar="-1" Cut="0.0000000000000000e+00" cType="1" res="8.9956994634121656e-04" rms="4.8221805691719055e-01" purity="4.3852722644805908e-01" nType="-99"/>
          <Node pos="r" depth="2" NCoef="0" IVar="-1" Cut="0.0000000000000000e+00" cType="1" res="-1.9755940884351730e-03" rms="4.5778936147689819e-01" purity="3.3287444710731506e-01" nType="-99"/>
        </Node>
        <Node pos="r" depth="1" NCoef="0" IVar="1" Cut="4.0607452392578125e+02" cType="1" res="5.3668968379497528e-02" rms="4.6694695949554443e-01" purity="6.2981039285659790e-01" nType="0">
          <Node pos="l" depth="2" NCoef="0" IVar="-1" Cut="0.0000000000000000e+00" cType="1" res="-1.6726814210414886e-03" rms="4.8494708538055420e-01" purity="4.5992416143417358e-01" nType="-99"/>
          <Node pos="r" depth="2" NCoef="0" IVar="-1" Cut="0.0000000000000000e+00" cType="1" res="1.6874537104740739e-03" rms="4.6150803565979004e-01" purity="6.5722411870956421e-01" nType="-99"/>
        </Node>
      </Node>
    </BinaryTree>
    <BinaryTree type="DecisionTree" boostWeight="1.0000000000000000e+00" itree="119">
      <Node pos="s" depth="0" NCoef="0" IVar="6" Cut="2.2312242984771729e+00" cType="1" res="1.3728365302085876e-02" rms="4.6806424856185913e-01" purity="5.0067752599716187e-01" nType="0">
        <Node pos="l" depth="1" NCoef="0" IVar="6" Cut="1.1137977838516235e+00" cType="1" res="-4.4890936464071274e-02" rms="4.5667514204978943e-01" purity="3.2894366979598999e-01" nType="0">
          <Node pos="l" depth="2" NCoef="0" IVar="-1" Cut="0.0000000000000000e+00" cType="1" res="-4.8189386725425720e-03" rms="4.2476987838745117e-01" purity="2.5605604052543640e-01" nType="-99"/>
          <Node pos="r" depth="2" NCoef="0" IVar="-1" Cut="0.0000000000000000e+00" cType="1" res="-8.3692482439801097e-04" rms="4.6541771292686462e-01" purity="3.5450094938278198e-01" nType="-99"/>
        </Node>
        <Node pos="r" depth="1" NCoef="0" IVar="5" Cut="2.7438306808471680e+00" cType="1" res="4.6741157770156860e-02" rms="4.7115859389305115e-01" purity="5.9739327430725098e-01" nType="0">
          <Node pos="l" depth="2" NCoef="0" IVar="-1" Cut="0.0000000000000000e+00" cType="1" res="1.4697056030854583e-03" rms="4.6925443410873413e-01" purity="6.2032145261764526e-01" nType="-99"/>
          <Node pos="r" depth="2" NCoef="0" IVar="-1" Cut="0.0000000000000000e+00" cType="1" res="-3.5901169758290052e-03" rms="4.6693012118339539e-01" purity="3.4058290719985962e-01" nType="-99"/>
        </Node>
      </Node>
    </BinaryTree>
    <BinaryTree type="DecisionTree" boostWeight="1.0000000000000000e+00" itree="120">
      <Node pos="s" depth="0" NCoef="0" IVar="5" Cut="2.1999902725219727e+00" cType="1" res="1.5444685705006123e-02" rms="4.6702393889427185e-01" purity="5.0287383794784546e-01" nType="0">
        <Node pos="l" depth="1" NCoef="0" IVar="6" Cut="1.6258277893066406e+00" cType="1" res="6.1976060271263123e-02" rms="4.6660184860229492e-01" purity="5.7808315753936768e-01" nType="0">
          <Node pos="l" depth="2" NCoef="0" IVar="-1" Cut="0.0000000000000000e+00" cType="1" res="-1.2409484479576349e-03" rms="4.6914324164390564e-01" purity="3.5738191008567810e-01" nType="-99"/>
          <Node pos="r" depth="2" NCoef="0" IVar="-1" Cut="0.0000000000000000e+00" cType="1" res="2.0507632289081812e-03" rms="4.6316701173782349e-01" purity="6.2913143634796143e-01" nType="-99"/>
        </Node>
        <Node pos="r" depth="1" NCoef="0" IVar="6" Cut="3.9667913913726807e+00" cType="1" res="-3.1324014067649841e-02" rms="4.6275684237480164e-01" purity="4.2728102207183838e-01" nType="0">
          <Node pos="l" depth="2" NCoef="0" IVar="-1" Cut="0.0000000000000000e+00" cType="1" res="-1.9895520526915789e-03" rms="4.5955196022987366e-01" purity="3.5768216848373413e-01" nType="-99"/>
          <Node pos="r" depth="2" NCoef="0" IVar="-1" Cut="0.0000000000000000e+00" cType="1" res="1.2769625755026937e-03" rms="4.6351054310798645e-01" purity="6.6469329595565796e-01" nType="-99"/>
        </Node>
      </Node>
    </BinaryTree>
    <BinaryTree type="DecisionTree" boostWeight="1.0000000000000000e+00" itree="121">
      <Node pos="s" depth="0" NCoef="0" IVar="6" Cut="4.1514635086059570e+00" cType="1" res="9.0428050607442856e-03" rms="4.6867957711219788e-01" purity="4.9443995952606201e-01" nType="0">
        <Node pos="l" depth="1" NCoef="0" IVar="5" Cut="2.2550296783447266e+00" cType="1" res="-1.1359239928424358e-02" rms="4.7437629103660583e-01" purity="4.3483695387840271e-01" nType="0">
          <Node pos="l" depth="2" NCoef="0" IVar="-1" Cut="0.0000000000000000e+00" cType="1" res="6.1017408734187484e-04" rms="4.8310253024101257e-01" purity="4.9623879790306091e-01" nType="-99"/>
          <Node pos="r" depth="2" NCoef="0" IVar="-1" Cut="0.0000000000000000e+00" cType="1" res="-1.8559357849881053e-03" rms="4.5984917879104614e-01" purity="3.5776761174201965e-01" nType="-99"/>
        </Node>
        <Node pos="r" depth="1" NCoef="0" IVar="1" Cut="5.2428448486328125e+02" cType="1" res="8.9415848255157471e-02" rms="4.3634501099586487e-01" purity="7.2924363613128662e-01" nType="0">
          <Node pos="l" depth="2" NCoef="0" IVar="-1" Cut="0.0000000000000000e+00" cType="1" res="9.6185639267787337e-04" rms="4.6399626135826111e-01" purity="6.6480869054794312e-01" nType="-99"/>
          <Node pos="r" depth="2" NCoef="0" IVar="-1" Cut="0.0000000000000000e+00" cType="1" res="2.7743896935135126e-03" rms="4.1145777702331543e-01" purity="7.7600324153900146e-01" nType="-99"/>
        </Node>
      </Node>
    </BinaryTree>
    <BinaryTree type="DecisionTree" boostWeight="1.0000000000000000e+00" itree="122">
      <Node pos="s" depth="0" NCoef="0" IVar="6" Cut="4.2118778228759766e+00" cType="1" res="1.5191311016678810e-02" rms="4.6820619702339172e-01" purity="5.0176942348480225e-01" nType="0">
        <Node pos="l" depth="1" NCoef="0" IVar="5" Cut="2.2374143600463867e+00" cType="1" res="-6.7805428989231586e-03" rms="4.7488543391227722e-01" purity="4.4166266918182373e-01" nType="0">
          <Node pos="l" depth="2" NCoef="0" IVar="-1" Cut="0.0000000000000000e+00" cType="1" res="8.0115860328078270e-04" rms="4.8273077607154846e-01" purity="5.0648605823516846e-01" nType="-99"/>
          <Node pos="r" depth="2" NCoef="0" IVar="-1" Cut="0.0000000000000000e+00" cType="1" res="-1.7124355072155595e-03" rms="4.6198919415473938e-01" purity="3.6550393700599670e-01" nType="-99"/>
        </Node>
        <Node pos="r" depth="1" NCoef="0" IVar="2" Cut="8.0384159088134766e-01" cType="1" res="1.0462097078561783e-01" rms="4.2850410938262939e-01" purity="7.4641561508178711e-01" nType="0">
          <Node pos="l" depth="2" NCoef="0" IVar="-1" Cut="0.0000000000000000e+00" cType="1" res="2.9756303410977125e-03" rms="4.0587908029556274e-01" purity="7.8494632244110107e-01" nType="-99"/>
          <Node pos="r" depth="2" NCoef="0" IVar="-1" Cut="0.0000000000000000e+00" cType="1" res="1.5252470038831234e-03" rms="4.5224416255950928e-01" purity="6.9792485237121582e-01" nType="-99"/>
        </Node>
      </Node>
    </BinaryTree>
    <BinaryTree type="DecisionTree" boostWeight="1.0000000000000000e+00" itree="123">
      <Node pos="s" depth="0" NCoef="0" IVar="6" Cut="1.9996806383132935e+00" cType="1" res="1.6844281926751137e-02" rms="4.6834346652030945e-01" purity="5.0368404388427734e-01" nType="0">
        <Node pos="l" depth="1" NCoef="0" IVar="6" Cut="1.2096004486083984e+00" cType="1" res="-4.6430576592683792e-02" rms="4.5428657531738281e-01" purity="3.1858238577842712e-01" nType="0">
          <Node pos="l" depth="2" NCoef="0" IVar="-1" Cut="0.0000000000000000e+00" cType="1" res="-4.2828954756259918e-03" rms="4.3171921372413635e-01" purity="2.6142561435699463e-01" nType="-99"/>
          <Node pos="r" depth="2" NCoef="0" IVar="-1" Cut="0.0000000000000000e+00" cType="1" res="-6.7469477653503418e-04" rms="4.6452578902244568e-01" purity="3.5159561038017273e-01" nType="-99"/>
        </Node>
        <Node pos="r" depth="1" NCoef="0" IVar="6" Cut="5.0894808769226074e+00" cType="1" res="4.4010575860738754e-02" rms="4.7165331244468689e-01" purity="5.8315515518188477e-01" nType="0">
          <Node pos="l" depth="2" NCoef="0" IVar="-1" Cut="0.0000000000000000e+00" cType="1" res="7.7304791193455458e-04" rms="4.8013293743133545e-01" purity="5.5212688446044922e-01" nType="-99"/>
          <Node pos="r" depth="2" NCoef="0" IVar="-1" Cut="0.0000000000000000e+00" cType="1" res="3.2570133917033672e-03" rms="3.9025887846946716e-01" purity="8.0540055036544800e-01" nType="-99"/>
        </Node>
      </Node>
    </BinaryTree>
    <BinaryTree type="DecisionTree" boostWeight="1.0000000000000000e+00" itree="124">
      <Node pos="s" depth="0" NCoef="0" IVar="1" Cut="6.0148394775390625e+02" cType="1" res="1.3776101171970367e-02" rms="4.6931195259094238e-01" purity="4.9909454584121704e-01" nType="0">
        <Node pos="l" depth="1" NCoef="0" IVar="7" Cut="8.5148923099040985e-02" cType="1" res="-1.4184892177581787e-02" rms="4.6677055954933167e-01" purity="4.4542783498764038e-01" nType="0">
          <Node pos="l" depth="2" NCoef="0" IVar="-1" Cut="0.0000000000000000e+00" cType="1" res="-1.3104621320962906e-03" rms="4.6250587701797485e-01" purity="4.1292691230773926e-01" nType="-99"/>
          <Node pos="r" depth="2" NCoef="0" IVar="-1" Cut="0.0000000000000000e+00" cType="1" res="1.2494600377976894e-03" rms="4.7101750969886780e-01" purity="5.1961374282836914e-01" nType="-99"/>
        </Node>
        <Node pos="r" depth="1" NCoef="0" IVar="2" Cut="1.0060049295425415e+00" cType="1" res="6.8115785717964172e-02" rms="4.6947288513183594e-01" purity="6.0339093208312988e-01" nType="0">
          <Node pos="l" depth="2" NCoef="0" IVar="-1" Cut="0.0000000000000000e+00" cType="1" res="2.1802661940455437e-03" rms="4.6500176191329956e-01" purity="6.2687003612518311e-01" nType="-99"/>
          <Node pos="r" depth="2" NCoef="0" IVar="-1" Cut="0.0000000000000000e+00" cType="1" res="-9.8211239674128592e-05" rms="4.7863250970840454e-01" purity="5.1785445213317871e-01" nType="-99"/>
        </Node>
      </Node>
    </BinaryTree>
    <BinaryTree type="DecisionTree" boostWeight="1.0000000000000000e+00" itree="125">
      <Node pos="s" depth="0" NCoef="0" IVar="1" Cut="5.6332672119140625e+02" cType="1" res="1.6409475356340408e-02" rms="4.6868097782135010e-01" purity="5.0285464525222778e-01" nType="0">
        <Node pos="l" depth="1" NCoef="0" IVar="5" Cut="2.7676134109497070e+00" cType="1" res="-1.8479609861969948e-02" rms="4.6519932150840759e-01" purity="4.3275853991508484e-01" nType="0">
          <Node pos="l" depth="2" NCoef="0" IVar="-1" Cut="0.0000000000000000e+00" cType="1" res="-2.0168267656117678e-04" rms="4.6980142593383789e-01" purity="4.5470216870307922e-01" nType="-99"/>
          <Node pos="r" depth="2" NCoef="0" IVar="-1" Cut="0.0000000000000000e+00" cType="1" res="-6.5744020976126194e-03" rms="3.9819073677062988e-01" purity="2.1542076766490936e-01" nType="-99"/>
        </Node>
        <Node pos="r" depth="1" NCoef="0" IVar="6" Cut="1.3601598739624023e+00" cType="1" res="6.4833603799343109e-02" rms="4.6919116377830505e-01" purity="6.0014420747756958e-01" nType="0">
          <Node pos="l" depth="2" NCoef="0" IVar="-1" Cut="0.0000000000000000e+00" cType="1" res="-1.4242844190448523e-03" rms="4.8149976134300232e-01" purity="3.7870061397552490e-01" nType="-99"/>
          <Node pos="r" depth="2" NCoef="0" IVar="-1" Cut="0.0000000000000000e+00" cType="1" res="1.9525284878909588e-03" rms="4.6541011333465576e-01" purity="6.3209104537963867e-01" nType="-99"/>
        </Node>
      </Node>
    </BinaryTree>
    <BinaryTree type="DecisionTree" boostWeight="1.0000000000000000e+00" itree="126">
      <Node pos="s" depth="0" NCoef="0" IVar="6" Cut="3.8684644699096680e+00" cType="1" res="1.6571249812841415e-02" rms="4.6728029847145081e-01" purity="5.0425881147384644e-01" nType="0">
        <Node pos="l" depth="1" NCoef="0" IVar="4" Cut="6.8324600219726562e+01" cType="1" res="-7.8158620744943619e-03" rms="4.7444218397140503e-01" purity="4.2839395999908447e-01" nType="0">
          <Node pos="l" depth="2" NCoef="0" IVar="-1" Cut="0.0000000000000000e+00" cType="1" res="-1.5342652332037687e-03" rms="4.6479389071464539e-01" purity="3.7371286749839783e-01" nType="-99"/>
          <Node pos="r" depth="2" NCoef="0" IVar="-1" Cut="0.0000000000000000e+00" cType="1" res="8.5395510541275144e-04" rms="4.8119485378265381e-01" purity="4.8406809568405151e-01" nType="-99"/>
        </Node>
        <Node pos="r" depth="1" NCoef="0" IVar="6" Cut="5.0463047027587891e+00" cType="1" res="8.6239546537399292e-02" rms="4.3878316879272461e-01" purity="7.2098702192306519e-01" nType="0">
          <Node pos="l" depth="2" NCoef="0" IVar="-1" Cut="0.0000000000000000e+00" cType="1" res="1.2700351653620601e-03" rms="4.5942890644073486e-01" purity="6.7585921287536621e-01" nType="-99"/>
          <Node pos="r" depth="2" NCoef="0" IVar="-1" Cut="0.0000000000000000e+00" cType="1" res="3.1745727173984051e-03" rms="3.9075636863708496e-01" purity="8.0464822053909302e-01" nType="-99"/>
        </Node>
      </Node>
    </BinaryTree>
    <BinaryTree type="DecisionTree" boostWeight="1.0000000000000000e+00" itree="127">
      <Node pos="s" depth="0" NCoef="0" IVar="6" Cut="2.4769353866577148e+00" cType="1" res="8.1111369654536247e-03" rms="4.6692445874214172e-01" purity="4.9643480777740479e-01" nType="0">
        <Node pos="l" depth="1" NCoef="0" IVar="2" Cut="7.3675745725631714e-01" cType="1" res="-3.9533205330371857e-02" rms="4.5965364575386047e-01" purity="3.4071817994117737e-01" nType="0">
          <Node pos="l" depth="2" NCoef="0" IVar="-1" Cut="0.0000000000000000e+00" cType="1" res="1.4834414469078183e-04" rms="4.7673383355140686e-01" purity="3.9767685532569885e-01" nType="-99"/>
          <Node pos="r" depth="2" NCoef="0" IVar="-1" Cut="0.0000000000000000e+00" cType="1" res="-3.0746336560696363e-03" rms="4.4168144464492798e-01" purity="2.9346215724945068e-01" nType="-99"/>
        </Node>
        <Node pos="r" depth="1" NCoef="0" IVar="2" Cut="7.8122693300247192e-01" cType="1" res="4.3517436832189560e-02" rms="4.6913155913352966e-01" purity="6.1215364933013916e-01" nType="0">
          <Node pos="l" depth="2" NCoef="0" IVar="-1" Cut="0.0000000000000000e+00" cType="1" res="2.0049253944307566e-03" rms="4.5654705166816711e-01" purity="6.6557687520980835e-01" nType="-99"/>
          <Node pos="r" depth="2" NCoef="0" IVar="-1" Cut="0.0000000000000000e+00" cType="1" res="-2.1866228053113446e-05" rms="4.7818511724472046e-01" purity="5.5532640218734741e-01" nType="-99"/>
        </Node>
      </Node>
    </BinaryTree>
    <BinaryTree type="DecisionTree" boostWeight="1.0000000000000000e+00" itree="128">
      <Node pos="s" depth="0" NCoef="0" IVar="1" Cut="4.9051751708984375e+02" cType="1" res="1.2441834434866905e-02" rms="4.6814122796058655e-01" purity="4.9984493851661682e-01" nType="0">
        <Node pos="l" depth="1" NCoef="0" IVar="7" Cut="8.4543123841285706e-02" cType="1" res="-3.7365790456533432e-02" rms="4.5822814106941223e-01" purity="3.9141839742660522e-01" nType="0">
          <Node pos="l" depth="2" NCoef="0" IVar="-1" Cut="0.0000000000000000e+00" cType="1" res="-2.3174649104475975e-03" rms="4.5034903287887573e-01" purity="3.5555532574653625e-01" nType="-99"/>
          <Node pos="r" depth="2" NCoef="0" IVar="-1" Cut="0.0000000000000000e+00" cType="1" res="6.7813583882525563e-04" rms="4.6970263123512268e-01" purity="4.7097083926200867e-01" nType="-99"/>
        </Node>
        <Node pos="r" depth="1" NCoef="0" IVar="6" Cut="2.1541986465454102e+00" cType="1" res="4.6002242714166641e-02" rms="4.7174781560897827e-01" purity="5.7290285825729370e-01" nType="0">
          <Node pos="l" depth="2" NCoef="0" IVar="-1" Cut="0.0000000000000000e+00" cType="1" res="-4.6384375309571624e-04" rms="4.8442333936691284e-01" purity="4.0315523743629456e-01" nType="-99"/>
          <Node pos="r" depth="2" NCoef="0" IVar="-1" Cut="0.0000000000000000e+00" cType="1" res="1.7643513856455684e-03" rms="4.6308273077011108e-01" purity="6.5187704563140869e-01" nType="-99"/>
        </Node>
      </Node>
    </BinaryTree>
    <BinaryTree type="DecisionTree" boostWeight="1.0000000000000000e+00" itree="129">
      <Node pos="s" depth="0" NCoef="0" IVar="6" Cut="3.4472954273223877e+00" cType="1" res="1.4423112384974957e-02" rms="4.6795836091041565e-01" purity="5.0212806463241577e-01" nType="0">
        <Node pos="l" depth="1" NCoef="0" IVar="5" Cut="2.2319736480712891e+00" cType="1" res="-1.3279303908348083e-02" rms="4.7318154573440552e-01" purity="4.0655717253684998e-01" nType="0">
          <Node pos="l" depth="2" NCoef="0" IVar="-1" Cut="0.0000000000000000e+00" cType="1" res="5.9388775844126940e-04" rms="4.8541185259819031e-01" purity="4.7013986110687256e-01" nType="-99"/>
          <Node pos="r" depth="2" NCoef="0" IVar="-1" Cut="0.0000000000000000e+00" cType="1" res="-1.9519416382536292e-03" rms="4.5564353466033936e-01" purity="3.3334016799926758e-01" nType="-99"/>
        </Node>
        <Node pos="r" depth="1" NCoef="0" IVar="1" Cut="5.5887506103515625e+02" cType="1" res="6.7331708967685699e-02" rms="4.5313516259193420e-01" purity="6.8465799093246460e-01" nType="0">
          <Node pos="l" depth="2" NCoef="0" IVar="-1" Cut="0.0000000000000000e+00" cType="1" res="7.3193811113014817e-04" rms="4.7102600336074829e-01" purity="6.3008022308349609e-01" nType="-99"/>
          <Node pos="r" depth="2" NCoef="0" IVar="-1" Cut="0.0000000000000000e+00" cType="1" res="2.4390073958784342e-03" rms="4.2846953868865967e-01" purity="7.4554073810577393e-01" nType="-99"/>
        </Node>
      </Node>
    </BinaryTree>
    <BinaryTree type="DecisionTree" boostWeight="1.0000000000000000e+00" itree="130">
      <Node pos="s" depth="0" NCoef="0" IVar="1" Cut="4.0390548706054688e+02" cType="1" res="8.8304933160543442e-03" rms="4.6763104200363159e-01" purity="4.9590918421745300e-01" nType="0">
        <Node pos="l" depth="1" NCoef="0" IVar="2" Cut="9.5990496873855591e-01" cType="1" res="-8.0797523260116577e-02" rms="4.3918797373771667e-01" purity="3.0859330296516418e-01" nType="0">
          <Node pos="l" depth="2" NCoef="0" IVar="-1" Cut="0.0000000000000000e+00" cType="1" res="-2.2589454893022776e-03" rms="4.4912463426589966e-01" purity="3.3282813429832458e-01" nType="-99"/>
          <Node pos="r" depth="2" NCoef="0" IVar="-1" Cut="0.0000000000000000e+00" cType="1" res="-5.5318246595561504e-03" rms="4.1286548972129822e-01" purity="2.5548988580703735e-01" nType="-99"/>
        </Node>
        <Node pos="r" depth="1" NCoef="0" IVar="6" Cut="4.3378052711486816e+00" cType="1" res="2.6132518425583839e-02" rms="4.7096472978591919e-01" purity="5.3206914663314819e-01" nType="0">
          <Node pos="l" depth="2" NCoef="0" IVar="-1" Cut="0.0000000000000000e+00" cType="1" res="2.0969190518371761e-04" rms="4.8062625527381897e-01" purity="4.7761812806129456e-01" nType="-99"/>
          <Node pos="r" depth="2" NCoef="0" IVar="-1" Cut="0.0000000000000000e+00" cType="1" res="2.4096998386085033e-03" rms="4.1834956407546997e-01" purity="7.6220196485519409e-01" nType="-99"/>
        </Node>
      </Node>
    </BinaryTree>
    <BinaryTree type="DecisionTree" boostWeight="1.0000000000000000e+00" itree="131">
      <Node pos="s" depth="0" NCoef="0" IVar="1" Cut="3.9563449096679688e+02" cType="1" res="1.4591906219720840e-02" rms="4.6820658445358276e-01" purity="5.0215965509414673e-01" nType="0">
        <Node pos="l" depth="1" NCoef="0" IVar="2" Cut="8.3029991388320923e-01" cType="1" res="-7.9783797264099121e-02" rms="4.3782079219818115e-01" purity="3.0828550457954407e-01" nType="0">
          <Node pos="l" depth="2" NCoef="0" IVar="-1" Cut="0.0000000000000000e+00" cType="1" res="-1.7541581764817238e-03" rms="4.5149394869804382e-01" purity="3.4852755069732666e-01" nType="-99"/>
          <Node pos="r" depth="2" NCoef="0" IVar="-1" Cut="0.0000000000000000e+00" cType="1" res="-4.8518539406359196e-03" rms="4.2061892151832581e-01" purity="2.6655524969100952e-01" nType="-99"/>
        </Node>
        <Node pos="r" depth="1" NCoef="0" IVar="5" Cut="2.8096957206726074e+00" cType="1" res="2.9524164274334908e-02" rms="4.7110623121261597e-01" purity="5.3283464908599854e-01" nType="0">
          <Node pos="l" depth="2" NCoef="0" IVar="-1" Cut="0.0000000000000000e+00" cType="1" res="1.0682840365916491e-03" rms="4.7226142883300781e-01" purity="5.5089008808135986e-01" nType="-99"/>
          <Node pos="r" depth="2" NCoef="0" IVar="-1" Cut="0.0000000000000000e+00" cType="1" res="-4.5489659532904625e-03" rms="4.3039536476135254e-01" purity="2.7963232994079590e-01" nType="-99"/>
        </Node>
      </Node>
    </BinaryTree>
    <BinaryTree type="DecisionTree" boostWeight="1.0000000000000000e+00" itree="132">
      <Node pos="s" depth="0" NCoef="0" IVar="6" Cut="4.5770606994628906e+00" cType="1" res="1.4723698608577251e-02" rms="4.6650514006614685e-01" purity="5.0371062755584717e-01" nType="0">
        <Node pos="l" depth="1" NCoef="0" IVar="4" Cut="6.8668121337890625e+01" cType="1" res="-1.6033150022849441e-03" rms="4.7300773859024048e-01" purity="4.5850872993469238e-01" nType="0">
          <Node pos="l" depth="2" NCoef="0" IVar="-1" Cut="0.0000000000000000e+00" cType="1" res="-1.2248617131263018e-03" rms="4.6545511484146118e-01" purity="4.0506768226623535e-01" nType="-99"/>
          <Node pos="r" depth="2" NCoef="0" IVar="-1" Cut="0.0000000000000000e+00" cType="1" res="9.7019638633355498e-04" rms="4.7777351737022400e-01" purity="5.1257842779159546e-01" nType="-99"/>
        </Node>
        <Node pos="r" depth="1" NCoef="0" IVar="-1" Cut="0.0000000000000000e+00" cType="1" res="2.5042111519724131e-03" rms="4.1343131661415100e-01" purity="7.6947367191314697e-01" nType="-99"/>
      </Node>
    </BinaryTree>
    <BinaryTree type="DecisionTree" boostWeight="1.0000000000000000e+00" itree="133">
      <Node pos="s" depth="0" NCoef="0" IVar="1" Cut="5.1418963623046875e+02" cType="1" res="1.0603359900414944e-02" rms="4.6725970506668091e-01" purity="4.9829149246215820e-01" nType="0">
        <Node pos="l" depth="1" NCoef="0" IVar="1" Cut="3.8500924682617188e+02" cType="1" res="-3.2434299588203430e-02" rms="4.5883759856224060e-01" purity="4.0463143587112427e-01" nType="0">
          <Node pos="l" depth="2" NCoef="0" IVar="-1" Cut="0.0000000000000000e+00" cType="1" res="-3.9358697831630707e-03" rms="4.2641416192054749e-01" purity="2.8778108954429626e-01" nType="-99"/>
          <Node pos="r" depth="2" NCoef="0" IVar="-1" Cut="0.0000000000000000e+00" cType="1" res="-3.6594449193216860e-04" rms="4.6705359220504761e-01" purity="4.4270694255828857e-01" nType="-99"/>
        </Node>
        <Node pos="r" depth="1" NCoef="0" IVar="5" Cut="2.3097593784332275e+00" cType="1" res="4.8255145549774170e-02" rms="4.7129306197166443e-01" purity="5.8023059368133545e-01" nType="0">
          <Node pos="l" depth="2" NCoef="0" IVar="-1" Cut="0.0000000000000000e+00" cType="1" res="1.8355486681684852e-03" rms="4.6688127517700195e-01" purity="6.2946093082427979e-01" nType="-99"/>
          <Node pos="r" depth="2" NCoef="0" IVar="-1" Cut="0.0000000000000000e+00" cType="1" res="-4.8906997108133510e-05" rms="4.7556227445602417e-01" purity="4.8685449361801147e-01" nType="-99"/>
        </Node>
      </Node>
    </BinaryTree>
    <BinaryTree type="DecisionTree" boostWeight="1.0000000000000000e+00" itree="134">
      <Node pos="s" depth="0" NCoef="0" IVar="6" Cut="2.3609650135040283e+00" cType="1" res="1.3862528838217258e-02" rms="4.6720069646835327e-01" purity="5.0202131271362305e-01" nType="0">
        <Node pos="l" depth="1" NCoef="0" IVar="4" Cut="1.0753033447265625e+02" cType="1" res="-3.4326158463954926e-02" rms="4.6009334921836853e-01" purity="3.3973014354705811e-01" nType="0">
          <Node pos="l" depth="2" NCoef="0" IVar="-1" Cut="0.0000000000000000e+00" cType="1" res="-2.2771917283535004e-03" rms="4.4877579808235168e-01" purity="3.0472216010093689e-01" nType="-99"/>
          <Node pos="r" depth="2" NCoef="0" IVar="-1" Cut="0.0000000000000000e+00" cType="1" res="1.1816489277407527e-03" rms="4.8851904273033142e-01" purity="4.5492026209831238e-01" nType="-99"/>
        </Node>
        <Node pos="r" depth="1" NCoef="0" IVar="5" Cut="2.4839193820953369e+00" cType="1" res="4.5189648866653442e-02" rms="4.6911618113517761e-01" purity="6.0752564668655396e-01" nType="0">
          <Node pos="l" depth="2" NCoef="0" IVar="-1" Cut="0.0000000000000000e+00" cType="1" res="1.5744525007903576e-03" rms="4.6412032842636108e-01" purity="6.4681673049926758e-01" nType="-99"/>
          <Node pos="r" depth="2" NCoef="0" IVar="-1" Cut="0.0000000000000000e+00" cType="1" res="-1.1933596106246114e-03" rms="4.8016867041587830e-01" purity="4.4345653057098389e-01" nType="-99"/>
        </Node>
      </Node>
    </BinaryTree>
    <BinaryTree type="DecisionTree" boostWeight="1.0000000000000000e+00" itree="135">
      <Node pos="s" depth="0" NCoef="0" IVar="6" Cut="2.7588536739349365e+00" cType="1" res="1.2027070857584476e-02" rms="4.6648991107940674e-01" purity="4.9910578131675720e-01" nType="0">
        <Node pos="l" depth="1" NCoef="0" IVar="2" Cut="8.1358760595321655e-01" cType="1" res="-2.8137939050793648e-02" rms="4.6471995115280151e-01" purity="3.6237251758575439e-01" nType="0">
          <Node pos="l" depth="2" NCoef="0" IVar="-1" Cut="0.0000000000000000e+00" cType="1" res="2.3630507348570973e-04" rms="4.7578126192092896e-01" purity="4.1025081276893616e-01" nType="-99"/>
          <Node pos="r" depth="2" NCoef="0" IVar="-1" Cut="0.0000000000000000e+00" cType="1" res="-2.7884731534868479e-03" rms="4.4740608334541321e-01" purity="3.0486634373664856e-01" nType="-99"/>
        </Node>
        <Node pos="r" depth="1" NCoef="0" IVar="5" Cut="2.3559315204620361e+00" cType="1" res="5.2102319896221161e-02" rms="4.6480289101600647e-01" purity="6.3553351163864136e-01" nType="0">
          <Node pos="l" depth="2" NCoef="0" IVar="-1" Cut="0.0000000000000000e+00" cType="1" res="1.8061592709273100e-03" rms="4.5353546738624573e-01" purity="6.8485862016677856e-01" nType="-99"/>
          <Node pos="r" depth="2" NCoef="0" IVar="-1" Cut="0.0000000000000000e+00" cType="1" res="-1.7842069792095572e-04" rms="4.8458376526832581e-01" purity="5.2241396903991699e-01" nType="-99"/>
        </Node>
      </Node>
    </BinaryTree>
    <BinaryTree type="DecisionTree" boostWeight="1.0000000000000000e+00" itree="136">
      <Node pos="s" depth="0" NCoef="0" IVar="1" Cut="4.0390548706054688e+02" cType="1" res="1.7970805987715721e-02" rms="4.6749550104141235e-01" purity="5.0604611635208130e-01" nType="0">
        <Node pos="l" depth="1" NCoef="0" IVar="3" Cut="4.0309754014015198e-01" cType="1" res="-6.7093633115291595e-02" rms="4.4420048594474792e-01" purity="3.1812146306037903e-01" nType="0">
          <Node pos="l" depth="2" NCoef="0" IVar="-1" Cut="0.0000000000000000e+00" cType="1" res="-1.6042942879721522e-03" rms="4.3289682269096375e-01" purity="2.8132170438766479e-01" nType="-99"/>
          <Node pos="r" depth="2" NCoef="0" IVar="-1" Cut="0.0000000000000000e+00" cType="1" res="-3.7213654723018408e-03" rms="4.5572543144226074e-01" purity="3.6816132068634033e-01" nType="-99"/>
        </Node>
        <Node pos="r" depth="1" NCoef="0" IVar="6" Cut="2.7176342010498047e+00" cType="1" res="3.3847589045763016e-02" rms="4.7001421451568604e-01" purity="5.4112118482589722e-01" nType="0">
          <Node pos="l" depth="2" NCoef="0" IVar="-1" Cut="0.0000000000000000e+00" cType="1" res="-2.0813349692616612e-04" rms="4.7990858554840088e-01" purity="4.0335682034492493e-01" nType="-99"/>
          <Node pos="r" depth="2" NCoef="0" IVar="-1" Cut="0.0000000000000000e+00" cType="1" res="1.6401128377765417e-03" rms="4.5823460817337036e-01" purity="6.6234445571899414e-01" nType="-99"/>
        </Node>
      </Node>
    </BinaryTree>
    <BinaryTree type="DecisionTree" boostWeight="1.0000000000000000e+00" itree="137">
      <Node pos="s" depth="0" NCoef="0" IVar="2" Cut="6.8760377168655396e-01" cType="1" res="5.6907385587692261e-03" rms="4.6768462657928467e-01" purity="4.9301588535308838e-01" nType="0">
        <Node pos="l" depth="1" NCoef="0" IVar="6" Cut="1.9897632598876953e+00" cType="1" res="5.4697528481483459e-02" rms="4.6534577012062073e-01" purity="5.6098210811614990e-01" nType="0">
          <Node pos="l" depth="2" NCoef="0" IVar="-1" Cut="0.0000000000000000e+00" cType="1" res="-3.8615809171460569e-04" rms="4.7194913029670715e-01" purity="3.7037658691406250e-01" nType="-99"/>
          <Node pos="r" depth="2" NCoef="0" IVar="-1" Cut="0.0000000000000000e+00" cType="1" res="1.9956936594098806e-03" rms="4.5982065796852112e-01" purity="6.4039081335067749e-01" nType="-99"/>
        </Node>
        <Node pos="r" depth="1" NCoef="0" IVar="7" Cut="5.0620604306459427e-02" cType="1" res="-2.5586882606148720e-02" rms="4.6648746728897095e-01" purity="4.4963780045509338e-01" nType="0">
          <Node pos="l" depth="2" NCoef="0" IVar="-1" Cut="0.0000000000000000e+00" cType="1" res="-2.3657146375626326e-03" rms="4.5745202898979187e-01" purity="3.9116719365119934e-01" nType="-99"/>
          <Node pos="r" depth="2" NCoef="0" IVar="-1" Cut="0.0000000000000000e+00" cType="1" res="8.8447867892682552e-04" rms="4.7169795632362366e-01" purity="5.2459812164306641e-01" nType="-99"/>
        </Node>
      </Node>
    </BinaryTree>
    <BinaryTree type="DecisionTree" boostWeight="1.0000000000000000e+00" itree="138">
      <Node pos="s" depth="0" NCoef="0" IVar="5" Cut="2.8230419158935547e+00" cType="1" res="1.2562088668346405e-02" rms="4.6719616651535034e-01" purity="5.0061959028244019e-01" nType="0">
        <Node pos="l" depth="1" NCoef="0" IVar="6" Cut="3.0338737964630127e+00" cType="1" res="2.2482845932245255e-02" rms="4.6932876110076904e-01" purity="5.1899272203445435e-01" nType="0">
          <Node pos="l" depth="2" NCoef="0" IVar="-1" Cut="0.0000000000000000e+00" cType="1" res="-3.4968450199812651e-04" rms="4.7576883435249329e-01" purity="3.9960947632789612e-01" nType="-99"/>
          <Node pos="r" depth="2" NCoef="0" IVar="-1" Cut="0.0000000000000000e+00" cType="1" res="1.5289160655811429e-03" rms="4.5744901895523071e-01" purity="6.7220270633697510e-01" nType="-99"/>
        </Node>
        <Node pos="r" depth="1" NCoef="0" IVar="-1" Cut="0.0000000000000000e+00" cType="1" res="-5.5911359377205372e-03" rms="4.1153833270072937e-01" purity="2.4234084784984589e-01" nType="-99"/>
      </Node>
    </BinaryTree>
    <BinaryTree type="DecisionTree" boostWeight="1.0000000000000000e+00" itree="139">
      <Node pos="s" depth="0" NCoef="0" IVar="2" Cut="6.2459170818328857e-01" cType="1" res="1.2894730083644390e-02" rms="4.6801042556762695e-01" purity="4.9939349293708801e-01" nType="0">
        <Node pos="l" depth="1" NCoef="0" IVar="6" Cut="1.4438600540161133e+00" cType="1" res="6.7924156785011292e-02" rms="4.6417385339736938e-01" purity="5.7793450355529785e-01" nType="0">
          <Node pos="l" depth="2" NCoef="0" IVar="-1" Cut="0.0000000000000000e+00" cType="1" res="-9.5965788932517171e-04" rms="4.6469679474830627e-01" purity="3.4941339492797852e-01" nType="-99"/>
          <Node pos="r" depth="2" NCoef="0" IVar="-1" Cut="0.0000000000000000e+00" cType="1" res="2.1387177985161543e-03" rms="4.6188816428184509e-01" purity="6.2219434976577759e-01" nType="-99"/>
        </Node>
        <Node pos="r" depth="1" NCoef="0" IVar="7" Cut="-5.2128046751022339e-02" cType="1" res="-1.2257485650479794e-02" rms="4.6760204434394836e-01" purity="4.6349489688873291e-01" nType="0">
          <Node pos="l" depth="2" NCoef="0" IVar="-1" Cut="0.0000000000000000e+00" cType="1" res="-3.1313346698880196e-03" rms="4.5190113782882690e-01" purity="3.6487725377082825e-01" nType="-99"/>
          <Node pos="r" depth="2" NCoef="0" IVar="-1" Cut="0.0000000000000000e+00" cType="1" res="4.9299176316708326e-04" rms="4.7023528814315796e-01" purity="5.0150084495544434e-01" nType="-99"/>
        </Node>
      </Node>
    </BinaryTree>
    <BinaryTree type="DecisionTree" boostWeight="1.0000000000000000e+00" itree="140">
      <Node pos="s" depth="0" NCoef="0" IVar="2" Cut="8.8817328214645386e-01" cType="1" res="1.2589456513524055e-02" rms="4.6693804860115051e-01" purity="5.0009602308273315e-01" nType="0">
        <Node pos="l" depth="1" NCoef="0" IVar="1" Cut="4.6118301391601562e+02" cType="1" res="4.1711557656526566e-02" rms="4.6665102243423462e-01" purity="5.3868055343627930e-01" nType="0">
          <Node pos="l" depth="2" NCoef="0" IVar="-1" Cut="0.0000000000000000e+00" cType="1" res="-7.9405383439734578e-04" rms="4.5907071232795715e-01" purity="3.9418745040893555e-01" nType="-99"/>
          <Node pos="r" depth="2" NCoef="0" IVar="-1" Cut="0.0000000000000000e+00" cType="1" res="1.7699595773592591e-03" rms="4.6710804104804993e-01" purity="6.0041147470474243e-01" nType="-99"/>
        </Node>
        <Node pos="r" depth="1" NCoef="0" IVar="7" Cut="-5.7534277439117432e-02" cType="1" res="-4.0453951805830002e-02" rms="4.6277520060539246e-01" purity="4.2981761693954468e-01" nType="0">
          <Node pos="l" depth="2" NCoef="0" IVar="-1" Cut="0.0000000000000000e+00" cType="1" res="-4.8485631123185158e-03" rms="4.3439614772796631e-01" purity="3.1894129514694214e-01" nType="-99"/>
          <Node pos="r" depth="2" NCoef="0" IVar="-1" Cut="0.0000000000000000e+00" cType="1" res="-2.9039813671261072e-04" rms="4.6855854988098145e-01" purity="4.6904098987579346e-01" nType="-99"/>
        </Node>
      </Node>
    </BinaryTree>
    <BinaryTree type="DecisionTree" boostWeight="1.0000000000000000e+00" itree="141">
      <Node pos="s" depth="0" NCoef="0" IVar="5" Cut="2.3311607837677002e+00" cType="1" res="8.6386678740382195e-03" rms="4.6631890535354614e-01" purity="4.9614635109901428e-01" nType="0">
        <Node pos="l" depth="1" NCoef="0" IVar="6" Cut="1.1929816007614136e+00" cType="1" res="3.6681838333606720e-02" rms="4.6895435452461243e-01" purity="5.5225038528442383e-01" nType="0">
          <Node pos="l" depth="2" NCoef="0" IVar="-1" Cut="0.0000000000000000e+00" cType="1" res="-3.2411911524832249e-03" rms="4.5051032304763794e-01" purity="3.0286937952041626e-01" nType="-99"/>
          <Node pos="r" depth="2" NCoef="0" IVar="-1" Cut="0.0000000000000000e+00" cType="1" res="1.3029729016125202e-03" rms="4.6920922398567200e-01" purity="5.8106076717376709e-01" nType="-99"/>
        </Node>
        <Node pos="r" depth="1" NCoef="0" IVar="5" Cut="2.8030364513397217e+00" cType="1" res="-4.5368455350399017e-02" rms="4.5637166500091553e-01" purity="3.8809800148010254e-01" nType="0">
          <Node pos="l" depth="2" NCoef="0" IVar="-1" Cut="0.0000000000000000e+00" cType="1" res="-7.8662903979420662e-04" rms="4.6494978666305542e-01" purity="4.2647644877433777e-01" nType="-99"/>
          <Node pos="r" depth="2" NCoef="0" IVar="-1" Cut="0.0000000000000000e+00" cType="1" res="-5.8210119605064392e-03" rms="4.1093793511390686e-01" purity="2.3746445775032043e-01" nType="-99"/>
        </Node>
      </Node>
    </BinaryTree>
    <BinaryTree type="DecisionTree" boostWeight="1.0000000000000000e+00" itree="142">
      <Node pos="s" depth="0" NCoef="0" IVar="6" Cut="3.4472954273223877e+00" cType="1" res="1.5233416110277176e-02" rms="4.6711096167564392e-01" purity="5.0261658430099487e-01" nType="0">
        <Node pos="l" depth="1" NCoef="0" IVar="2" Cut="8.0789422988891602e-01" cType="1" res="-1.0740785859525204e-02" rms="4.7348114848136902e-01" purity="4.0693831443786621e-01" nType="0">
          <Node pos="l" depth="2" NCoef="0" IVar="-1" Cut="0.0000000000000000e+00" cType="1" res="7.1752024814486504e-04" rms="4.8153218626976013e-01" purity="4.5448908209800720e-01" nType="-99"/>
          <Node pos="r" depth="2" NCoef="0" IVar="-1" Cut="0.0000000000000000e+00" cType="1" res="-1.8694703467190266e-03" rms="4.6028155088424683e-01" purity="3.4994524717330933e-01" nType="-99"/>
        </Node>
        <Node pos="r" depth="1" NCoef="0" IVar="5" Cut="2.5437037944793701e+00" cType="1" res="6.5884366631507874e-02" rms="4.5014145970344543e-01" purity="6.8919378519058228e-01" nType="0">
          <Node pos="l" depth="2" NCoef="0" IVar="-1" Cut="0.0000000000000000e+00" cType="1" res="1.8664175877347589e-03" rms="4.4078096747398376e-01" purity="7.2120583057403564e-01" nType="-99"/>
          <Node pos="r" depth="2" NCoef="0" IVar="-1" Cut="0.0000000000000000e+00" cType="1" res="-4.4896668987348676e-04" rms="4.9001467227935791e-01" purity="5.1430636644363403e-01" nType="-99"/>
        </Node>
      </Node>
    </BinaryTree>
    <BinaryTree type="DecisionTree" boostWeight="1.0000000000000000e+00" itree="143">
      <Node pos="s" depth="0" NCoef="0" IVar="6" Cut="4.1849694252014160e+00" cType="1" res="1.4101048000156879e-02" rms="4.6634647250175476e-01" purity="5.0240582227706909e-01" nType="0">
        <Node pos="l" depth="1" NCoef="0" IVar="1" Cut="6.5313159179687500e+02" cType="1" res="-4.5262984931468964e-03" rms="4.7313511371612549e-01" purity="4.4320458173751831e-01" nType="0">
          <Node pos="l" depth="2" NCoef="0" IVar="-1" Cut="0.0000000000000000e+00" cType="1" res="-7.9631689004600048e-04" rms="4.6839708089828491e-01" purity="4.0450704097747803e-01" nType="-99"/>
          <Node pos="r" depth="2" NCoef="0" IVar="-1" Cut="0.0000000000000000e+00" cType="1" res="1.4647126663476229e-03" rms="4.8222038149833679e-01" purity="5.6048774719238281e-01" nType="-99"/>
        </Node>
        <Node pos="r" depth="1" NCoef="0" IVar="6" Cut="5.0550475120544434e+00" cType="1" res="8.8991962373256683e-02" rms="4.2992278933525085e-01" purity="7.4042338132858276e-01" nType="0">
          <Node pos="l" depth="2" NCoef="0" IVar="-1" Cut="0.0000000000000000e+00" cType="1" res="1.3561529340222478e-03" rms="4.5211198925971985e-01" purity="6.9754344224929810e-01" nType="-99"/>
          <Node pos="r" depth="2" NCoef="0" IVar="-1" Cut="0.0000000000000000e+00" cType="1" res="2.9195595998317003e-03" rms="3.9455401897430420e-01" purity="7.9767215251922607e-01" nType="-99"/>
        </Node>
      </Node>
    </BinaryTree>
    <BinaryTree type="DecisionTree" boostWeight="1.0000000000000000e+00" itree="144">
      <Node pos="s" depth="0" NCoef="0" IVar="5" Cut="2.7396707534790039e+00" cType="1" res="1.6444267705082893e-02" rms="4.6614736318588257e-01" purity="5.0525468587875366e-01" nType="0">
        <Node pos="l" depth="1" NCoef="0" IVar="6" Cut="2.0990185737609863e+00" cType="1" res="2.8201887384057045e-02" rms="4.6865573525428772e-01" purity="5.2896612882614136e-01" nType="0">
          <Node pos="l" depth="2" NCoef="0" IVar="-1" Cut="0.0000000000000000e+00" cType="1" res="-1.0020432528108358e-03" rms="4.6578273177146912e-01" purity="3.4760287404060364e-01" nType="-99"/>
          <Node pos="r" depth="2" NCoef="0" IVar="-1" Cut="0.0000000000000000e+00" cType="1" res="1.3537153135985136e-03" rms="4.6773421764373779e-01" purity="6.1493903398513794e-01" nType="-99"/>
        </Node>
        <Node pos="r" depth="1" NCoef="0" IVar="-1" Cut="0.0000000000000000e+00" cType="1" res="-4.5591727830469608e-03" rms="4.2033934593200684e-01" purity="2.5939947366714478e-01" nType="-99"/>
      </Node>
    </BinaryTree>
    <BinaryTree type="DecisionTree" boostWeight="1.0000000000000000e+00" itree="145">
      <Node pos="s" depth="0" NCoef="0" IVar="6" Cut="1.5091286897659302e+00" cType="1" res="1.1313390918076038e-02" rms="4.6742674708366394e-01" purity="4.9971881508827209e-01" nType="0">
        <Node pos="l" depth="1" NCoef="0" IVar="6" Cut="1.0650061368942261e+00" cType="1" res="-6.2755547463893890e-02" rms="4.4344037771224976e-01" purity="2.9063129425048828e-01" nType="0">
          <Node pos="l" depth="2" NCoef="0" IVar="-1" Cut="0.0000000000000000e+00" cType="1" res="-4.8031513579189777e-03" rms="4.2270746827125549e-01" purity="2.4756795167922974e-01" nType="-99"/>
          <Node pos="r" depth="2" NCoef="0" IVar="-1" Cut="0.0000000000000000e+00" cType="1" res="-9.9806836806237698e-04" rms="4.5884987711906433e-01" purity="3.3089065551757812e-01" nType="-99"/>
        </Node>
        <Node pos="r" depth="1" NCoef="0" IVar="1" Cut="5.9106445312500000e+02" cType="1" res="2.7056435123085976e-02" rms="4.7086900472640991e-01" purity="5.4415947198867798e-01" nType="0">
          <Node pos="l" depth="2" NCoef="0" IVar="-1" Cut="0.0000000000000000e+00" cType="1" res="-5.4782289225840941e-05" rms="4.7268772125244141e-01" purity="4.8718059062957764e-01" nType="-99"/>
          <Node pos="r" depth="2" NCoef="0" IVar="-1" Cut="0.0000000000000000e+00" cType="1" res="1.8477425910532475e-03" rms="4.6373546123504639e-01" purity="6.4002013206481934e-01" nType="-99"/>
        </Node>
      </Node>
    </BinaryTree>
    <BinaryTree type="DecisionTree" boostWeight="1.0000000000000000e+00" itree="146">
      <Node pos="s" depth="0" NCoef="0" IVar="6" Cut="1.3662437200546265e+00" cType="1" res="9.3606552109122276e-03" rms="4.6664515137672424e-01" purity="4.9739044904708862e-01" nType="0">
        <Node pos="l" depth="1" NCoef="0" IVar="7" Cut="-4.3489743024110794e-02" cType="1" res="-7.8373983502388000e-02" rms="4.3464842438697815e-01" purity="2.7317968010902405e-01" nType="0">
          <Node pos="l" depth="2" NCoef="0" IVar="-1" Cut="0.0000000000000000e+00" cType="1" res="-6.6635711118578911e-03" rms="3.9474773406982422e-01" purity="2.0813058316707611e-01" nType="-99"/>
          <Node pos="r" depth="2" NCoef="0" IVar="-1" Cut="0.0000000000000000e+00" cType="1" res="-1.9611883908510208e-03" rms="4.5258927345275879e-01" purity="3.0945459008216858e-01" nType="-99"/>
        </Node>
        <Node pos="r" depth="1" NCoef="0" IVar="1" Cut="5.7082427978515625e+02" cType="1" res="2.4191601201891899e-02" rms="4.7022494673728943e-01" purity="5.3529173135757446e-01" nType="0">
          <Node pos="l" depth="2" NCoef="0" IVar="-1" Cut="0.0000000000000000e+00" cType="1" res="-1.6478929319418967e-04" rms="4.7064557671546936e-01" purity="4.7224360704421997e-01" nType="-99"/>
          <Node pos="r" depth="2" NCoef="0" IVar="-1" Cut="0.0000000000000000e+00" cType="1" res="1.6623360570520163e-03" rms="4.6629062294960022e-01" purity="6.2627619504928589e-01" nType="-99"/>
        </Node>
      </Node>
    </BinaryTree>
    <BinaryTree type="DecisionTree" boostWeight="1.0000000000000000e+00" itree="147">
      <Node pos="s" depth="0" NCoef="0" IVar="6" Cut="4.9882240295410156e+00" cType="1" res="1.2985837645828724e-02" rms="4.6787077188491821e-01" purity="4.9969315528869629e-01" nType="0">
        <Node pos="l" depth="1" NCoef="0" IVar="4" Cut="9.9209915161132812e+01" cType="1" res="2.1509097423404455e-03" rms="4.7275540232658386e-01" purity="4.7080114483833313e-01" nType="0">
          <Node pos="l" depth="2" NCoef="0" IVar="-1" Cut="0.0000000000000000e+00" cType="1" res="-5.5299169616773725e-04" rms="4.7013896703720093e-01" purity="4.3889430165290833e-01" nType="-99"/>
          <Node pos="r" depth="2" NCoef="0" IVar="-1" Cut="0.0000000000000000e+00" cType="1" res="1.4468670124188066e-03" rms="4.7563368082046509e-01" purity="5.5450052022933960e-01" nType="-99"/>
        </Node>
        <Node pos="r" depth="1" NCoef="0" IVar="-1" Cut="0.0000000000000000e+00" cType="1" res="2.7741892263293266e-03" rms="3.9895921945571899e-01" purity="7.9218703508377075e-01" nType="-99"/>
      </Node>
    </BinaryTree>
    <BinaryTree type="DecisionTree" boostWeight="1.0000000000000000e+00" itree="148">
      <Node pos="s" depth="0" NCoef="0" IVar="5" Cut="2.2504353523254395e+00" cType="1" res="7.9209124669432640e-03" rms="4.6617144346237183e-01" purity="4.9657991528511047e-01" nType="0">
        <Node pos="l" depth="1" NCoef="0" IVar="6" Cut="1.9556889533996582e+00" cType="1" res="3.9567150175571442e-02" rms="4.6942374110221863e-01" purity="5.5869454145431519e-01" nType="0">
          <Node pos="l" depth="2" NCoef="0" IVar="-1" Cut="0.0000000000000000e+00" cType="1" res="-5.9450371190905571e-04" rms="4.7392481565475464e-01" purity="3.7179648876190186e-01" nType="-99"/>
          <Node pos="r" depth="2" NCoef="0" IVar="-1" Cut="0.0000000000000000e+00" cType="1" res="1.5062771271914244e-03" rms="4.6588805317878723e-01" purity="6.3014763593673706e-01" nType="-99"/>
        </Node>
        <Node pos="r" depth="1" NCoef="0" IVar="5" Cut="2.8413789272308350e+00" cType="1" res="-3.3011857420206070e-02" rms="4.5870381593704224e-01" purity="4.1623792052268982e-01" nType="0">
          <Node pos="l" depth="2" NCoef="0" IVar="-1" Cut="0.0000000000000000e+00" cType="1" res="-5.3081009536981583e-04" rms="4.6514523029327393e-01" purity="4.4748109579086304e-01" nType="-99"/>
          <Node pos="r" depth="2" NCoef="0" IVar="-1" Cut="0.0000000000000000e+00" cType="1" res="-6.0144402086734772e-03" rms="4.0466734766960144e-01" purity="2.2800675034523010e-01" nType="-99"/>
        </Node>
      </Node>
    </BinaryTree>
    <BinaryTree type="DecisionTree" boostWeight="1.0000000000000000e+00" itree="149">
      <Node pos="s" depth="0" NCoef="0" IVar="6" Cut="4.2036108970642090e+00" cType="1" res="1.0511816479265690e-02" rms="4.6615251898765564e-01" purity="4.9891331791877747e-01" nType="0">
        <Node pos="l" depth="1" NCoef="0" IVar="2" Cut="6.4362722635269165e-01" cType="1" res="-7.3783174157142639e-03" rms="4.7277426719665527e-01" purity="4.4006851315498352e-01" nType="0">
          <Node pos="l" depth="2" NCoef="0" IVar="-1" Cut="0.0000000000000000e+00" cType="1" res="1.1698986636474729e-03" rms="4.7760111093521118e-01" purity="5.1136714220046997e-01" nType="-99"/>
          <Node pos="r" depth="2" NCoef="0" IVar="-1" Cut="0.0000000000000000e+00" cType="1" res="-9.9453376606106758e-04" rms="4.6868115663528442e-01" purity="4.0621075034141541e-01" nType="-99"/>
        </Node>
        <Node pos="r" depth="1" NCoef="0" IVar="2" Cut="7.4422162771224976e-01" cType="1" res="8.3201229572296143e-02" rms="4.3064174056053162e-01" purity="7.3800563812255859e-01" nType="0">
          <Node pos="l" depth="2" NCoef="0" IVar="-1" Cut="0.0000000000000000e+00" cType="1" res="2.7891474310308695e-03" rms="4.0190672874450684e-01" purity="7.8866744041442871e-01" nType="-99"/>
          <Node pos="r" depth="2" NCoef="0" IVar="-1" Cut="0.0000000000000000e+00" cType="1" res="1.0513280285522342e-03" rms="4.5373556017875671e-01" purity="6.8801897764205933e-01" nType="-99"/>
        </Node>
      </Node>
    </BinaryTree>
    <BinaryTree type="DecisionTree" boostWeight="1.0000000000000000e+00" itree="150">
      <Node pos="s" depth="0" NCoef="0" IVar="6" Cut="5.0519728660583496e+00" cType="1" res="1.1979949660599232e-02" rms="4.6700894832611084e-01" purity="5.0004577636718750e-01" nType="0">
        <Node pos="l" depth="1" NCoef="0" IVar="5" Cut="2.3223457336425781e+00" cType="1" res="1.3377971481531858e-03" rms="4.7188261151313782e-01" purity="4.7194752097129822e-01" nType="0">
          <Node pos="l" depth="2" NCoef="0" IVar="-1" Cut="0.0000000000000000e+00" cType="1" res="7.2450190782546997e-04" rms="4.7694545984268188e-01" purity="5.2729558944702148e-01" nType="-99"/>
          <Node pos="r" depth="2" NCoef="0" IVar="-1" Cut="0.0000000000000000e+00" cType="1" res="-1.5262181404978037e-03" rms="4.5926567912101746e-01" purity="3.7267810106277466e-01" nType="-99"/>
        </Node>
        <Node pos="r" depth="1" NCoef="0" IVar="-1" Cut="0.0000000000000000e+00" cType="1" res="2.8357850387692451e-03" rms="3.9441567659378052e-01" purity="7.9829907417297363e-01" nType="-99"/>
      </Node>
    </BinaryTree>
    <BinaryTree type="DecisionTree" boostWeight="1.0000000000000000e+00" itree="151">
      <Node pos="s" depth="0" NCoef="0" IVar="1" Cut="4.0610369873046875e+02" cType="1" res="8.4920991212129593e-03" rms="4.6532061696052551e-01" purity="4.9672427773475647e-01" nType="0">
        <Node pos="l" depth="1" NCoef="0" IVar="1" Cut="3.5353469848632812e+02" cType="1" res="-7.1216046810150146e-02" rms="4.3570670485496521e-01" purity="3.1296664476394653e-01" nType="0">
          <Node pos="l" depth="2" NCoef="0" IVar="-1" Cut="0.0000000000000000e+00" cType="1" res="-6.5197921358048916e-03" rms="3.9886200428009033e-01" purity="2.2891233861446381e-01" nType="-99"/>
          <Node pos="r" depth="2" NCoef="0" IVar="-1" Cut="0.0000000000000000e+00" cType="1" res="-1.5457451809197664e-03" rms="4.4809770584106445e-01" purity="3.5053098201751709e-01" nType="-99"/>
        </Node>
        <Node pos="r" depth="1" NCoef="0" IVar="6" Cut="1.6357773542404175e+00" cType="1" res="2.4342343211174011e-02" rms="4.6937689185142517e-01" purity="5.3326511383056641e-01" nType="0">
          <Node pos="l" depth="2" NCoef="0" IVar="-1" Cut="0.0000000000000000e+00" cType="1" res="-1.9095799652859569e-03" rms="4.5999652147293091e-01" purity="3.2729825377464294e-01" nType="-99"/>
          <Node pos="r" depth="2" NCoef="0" IVar="-1" Cut="0.0000000000000000e+00" cType="1" res="1.1002944083884358e-03" rms="4.6987438201904297e-01" purity="5.8372366428375244e-01" nType="-99"/>
        </Node>
      </Node>
    </BinaryTree>
    <BinaryTree type="DecisionTree" boostWeight="1.0000000000000000e+00" itree="152">
      <Node pos="s" depth="0" NCoef="0" IVar="1" Cut="5.2030236816406250e+02" cType="1" res="6.5460363402962685e-03" rms="4.6634155511856079e-01" purity="4.9390393495559692e-01" nType="0">
        <Node pos="l" depth="1" NCoef="0" IVar="7" Cut="1.2417667545378208e-02" cType="1" res="-3.1699307262897491e-02" rms="4.5947355031967163e-01" purity="4.0367603302001953e-01" nType="0">
          <Node pos="l" depth="2" NCoef="0" IVar="-1" Cut="0.0000000000000000e+00" cType="1" res="-2.2268414031714201e-03" rms="4.5017313957214355e-01" purity="3.6003270745277405e-01" nType="-99"/>
          <Node pos="r" depth="2" NCoef="0" IVar="-1" Cut="0.0000000000000000e+00" cType="1" res="7.2673487011343241e-05" rms="4.6732154488563538e-01" purity="4.5252487063407898e-01" nType="-99"/>
        </Node>
        <Node pos="r" depth="1" NCoef="0" IVar="7" Cut="-8.3699703216552734e-02" cType="1" res="4.2106419801712036e-02" rms="4.6985313296318054e-01" purity="5.7779753208160400e-01" nType="0">
          <Node pos="l" depth="2" NCoef="0" IVar="-1" Cut="0.0000000000000000e+00" cType="1" res="-1.0438300669193268e-03" rms="4.7411829233169556e-01" purity="4.8437592387199402e-01" nType="-99"/>
          <Node pos="r" depth="2" NCoef="0" IVar="-1" Cut="0.0000000000000000e+00" cType="1" res="1.5572857810184360e-03" rms="4.6692934632301331e-01" purity="5.9997361898422241e-01" nType="-99"/>
        </Node>
      </Node>
    </BinaryTree>
    <BinaryTree type="DecisionTree" boostWeight="1.0000000000000000e+00" itree="153">
      <Node pos="s" depth="0" NCoef="0" IVar="1" Cut="5.8011804199218750e+02" cType="1" res="9.3530593439936638e-03" rms="4.6619275212287903e-01" purity="4.9639844894409180e-01" nType="0">
        <Node pos="l" depth="1" NCoef="0" IVar="6" Cut="1.1399691104888916e+00" cType="1" res="-1.7582563683390617e-02" rms="4.6262985467910767e-01" purity="4.3507432937622070e-01" nType="0">
          <Node pos="l" depth="2" NCoef="0" IVar="-1" Cut="0.0000000000000000e+00" cType="1" res="-6.2349340878427029e-03" rms="3.8902050256729126e-01" purity="1.9585539400577545e-01" nType="-99"/>
          <Node pos="r" depth="2" NCoef="0" IVar="-1" Cut="0.0000000000000000e+00" cType="1" res="-1.7927421140484512e-04" rms="4.6914866566658020e-01" purity="4.6318602561950684e-01" nType="-99"/>
        </Node>
        <Node pos="r" depth="1" NCoef="0" IVar="2" Cut="8.6862003803253174e-01" cType="1" res="5.3622741252183914e-02" rms="4.6863889694213867e-01" purity="5.9718692302703857e-01" nType="0">
          <Node pos="l" depth="2" NCoef="0" IVar="-1" Cut="0.0000000000000000e+00" cType="1" res="2.0601958967745304e-03" rms="4.6151405572891235e-01" purity="6.3492441177368164e-01" nType="-99"/>
          <Node pos="r" depth="2" NCoef="0" IVar="-1" Cut="0.0000000000000000e+00" cType="1" res="-1.9981009245384485e-05" rms="4.7681570053100586e-01" purity="5.2727407217025757e-01" nType="-99"/>
        </Node>
      </Node>
    </BinaryTree>
    <BinaryTree type="DecisionTree" boostWeight="1.0000000000000000e+00" itree="154">
      <Node pos="s" depth="0" NCoef="0" IVar="6" Cut="4.5960006713867188e+00" cType="1" res="8.9011862874031067e-03" rms="4.6599370241165161e-01" purity="4.9662935733795166e-01" nType="0">
        <Node pos="l" depth="1" NCoef="0" IVar="5" Cut="2.4529483318328857e+00" cType="1" res="-5.5748336017131805e-03" rms="4.7202038764953613e-01" purity="4.5363140106201172e-01" nType="0">
          <Node pos="l" depth="2" NCoef="0" IVar="-1" Cut="0.0000000000000000e+00" cType="1" res="3.6648966488428414e-04" rms="4.7851100564002991e-01" purity="4.9765026569366455e-01" nType="-99"/>
          <Node pos="r" depth="2" NCoef="0" IVar="-1" Cut="0.0000000000000000e+00" cType="1" res="-2.5403012987226248e-03" rms="4.4550520181655884e-01" purity="3.1267574429512024e-01" nType="-99"/>
        </Node>
        <Node pos="r" depth="1" NCoef="0" IVar="-1" Cut="0.0000000000000000e+00" cType="1" res="2.3096352815628052e-03" rms="4.1450437903404236e-01" purity="7.6794189214706421e-01" nType="-99"/>
      </Node>
    </BinaryTree>
    <BinaryTree type="DecisionTree" boostWeight="1.0000000000000000e+00" itree="155">
      <Node pos="s" depth="0" NCoef="0" IVar="2" Cut="9.5679354667663574e-01" cType="1" res="1.1054773814976215e-02" rms="4.6692457795143127e-01" purity="4.9929514527320862e-01" nType="0">
        <Node pos="l" depth="1" NCoef="0" IVar="5" Cut="2.4098770618438721e+00" cType="1" res="3.2591614872217178e-02" rms="4.6606945991516113e-01" purity="5.3023695945739746e-01" nType="0">
          <Node pos="l" depth="2" NCoef="0" IVar="-1" Cut="0.0000000000000000e+00" cType="1" res="1.3586058048531413e-03" rms="4.6676251292228699e-01" purity="5.7017028331756592e-01" nType="-99"/>
          <Node pos="r" depth="2" NCoef="0" IVar="-1" Cut="0.0000000000000000e+00" cType="1" res="-1.1132147628813982e-03" rms="4.5776838064193726e-01" purity="3.8824665546417236e-01" nType="-99"/>
        </Node>
        <Node pos="r" depth="1" NCoef="0" IVar="7" Cut="-5.7374995201826096e-02" cType="1" res="-4.3696720153093338e-02" rms="4.6461793780326843e-01" purity="4.2063406109809875e-01" nType="0">
          <Node pos="l" depth="2" NCoef="0" IVar="-1" Cut="0.0000000000000000e+00" cType="1" res="-4.2389645241200924e-03" rms="4.4009017944335938e-01" purity="3.2797977328300476e-01" nType="-99"/>
          <Node pos="r" depth="2" NCoef="0" IVar="-1" Cut="0.0000000000000000e+00" cType="1" res="-5.8150716358795762e-04" rms="4.7067499160766602e-01" purity="4.5389440655708313e-01" nType="-99"/>
        </Node>
      </Node>
    </BinaryTree>
    <BinaryTree type="DecisionTree" boostWeight="1.0000000000000000e+00" itree="156">
      <Node pos="s" depth="0" NCoef="0" IVar="4" Cut="8.3830520629882812e+01" cType="1" res="1.1598940938711166e-02" rms="4.6560415625572205e-01" purity="5.0080668926239014e-01" nType="0">
        <Node pos="l" depth="1" NCoef="0" IVar="6" Cut="3.8806953430175781e+00" cType="1" res="-1.5396686270833015e-02" rms="4.6308261156082153e-01" purity="4.5697402954101562e-01" nType="0">
          <Node pos="l" depth="2" NCoef="0" IVar="-1" Cut="0.0000000000000000e+00" cType="1" res="-1.2065724004060030e-03" rms="4.6521240472793579e-01" purity="3.8162252306938171e-01" nType="-99"/>
          <Node pos="r" depth="2" NCoef="0" IVar="-1" Cut="0.0000000000000000e+00" cType="1" res="1.0880780173465610e-03" rms="4.5123288035392761e-01" purity="6.8496638536453247e-01" nType="-99"/>
        </Node>
        <Node pos="r" depth="1" NCoef="0" IVar="5" Cut="2.3447506427764893e+00" cType="1" res="5.6084968149662018e-02" rms="4.6633273363113403e-01" purity="5.7303839921951294e-01" nType="0">
          <Node pos="l" depth="2" NCoef="0" IVar="-1" Cut="0.0000000000000000e+00" cType="1" res="1.9892964046448469e-03" rms="4.6268758177757263e-01" purity="6.2166392803192139e-01" nType="-99"/>
          <Node pos="r" depth="2" NCoef="0" IVar="-1" Cut="0.0000000000000000e+00" cType="1" res="2.6627181796357036e-05" rms="4.7047957777976990e-01" purity="4.5538595318794250e-01" nType="-99"/>
        </Node>
      </Node>
    </BinaryTree>
    <BinaryTree type="DecisionTree" boostWeight="1.0000000000000000e+00" itree="157">
      <Node pos="s" depth="0" NCoef="0" IVar="1" Cut="5.0582394409179688e+02" cType="1" res="1.2686017900705338e-02" rms="4.6523034572601318e-01" purity="5.0118619203567505e-01" nType="0">
        <Node pos="l" depth="1" NCoef="0" IVar="7" Cut="-9.4244144856929779e-02" cType="1" res="-2.7941007167100906e-02" rms="4.5710894465446472e-01" purity="4.0211910009384155e-01" nType="0">
          <Node pos="l" depth="2" NCoef="0" IVar="-1" Cut="0.0000000000000000e+00" cType="1" res="-5.0823860801756382e-03" rms="4.1613540053367615e-01" purity="2.7370464801788330e-01" nType="-99"/>
          <Node pos="r" depth="2" NCoef="0" IVar="-1" Cut="0.0000000000000000e+00" cType="1" res="-5.0294882385060191e-04" rms="4.6095111966133118e-01" purity="4.1955161094665527e-01" nType="-99"/>
        </Node>
        <Node pos="r" depth="1" NCoef="0" IVar="5" Cut="2.3457248210906982e+00" cType="1" res="4.5051101595163345e-02" rms="4.6908870339393616e-01" purity="5.8010679483413696e-01" nType="0">
          <Node pos="l" depth="2" NCoef="0" IVar="-1" Cut="0.0000000000000000e+00" cType="1" res="1.6794929979369044e-03" rms="4.6437099575996399e-01" purity="6.2833064794540405e-01" nType="-99"/>
          <Node pos="r" depth="2" NCoef="0" IVar="-1" Cut="0.0000000000000000e+00" cType="1" res="-2.3472227621823549e-04" rms="4.7585111856460571e-01" purity="4.6655946969985962e-01" nType="-99"/>
        </Node>
      </Node>
    </BinaryTree>
    <BinaryTree type="DecisionTree" boostWeight="1.0000000000000000e+00" itree="158">
      <Node pos="s" depth="0" NCoef="0" IVar="6" Cut="3.2706689834594727e+00" cType="1" res="1.0098820552229881e-02" rms="4.6436813473701477e-01" purity="4.9928566813468933e-01" nType="0">
        <Node pos="l" depth="1" NCoef="0" IVar="5" Cut="2.2650256156921387e+00" cType="1" res="-1.8638972193002701e-02" rms="4.6887367963790894e-01" purity="3.9229395985603333e-01" nType="0">
          <Node pos="l" depth="2" NCoef="0" IVar="-1" Cut="0.0000000000000000e+00" cType="1" res="3.3308324054814875e-04" rms="4.8315131664276123e-01" purity="4.5539981126785278e-01" nType="-99"/>
          <Node pos="r" depth="2" NCoef="0" IVar="-1" Cut="0.0000000000000000e+00" cType="1" res="-2.3049807641655207e-03" rms="4.4634193181991577e-01" purity="3.0908304452896118e-01" nType="-99"/>
        </Node>
        <Node pos="r" depth="1" NCoef="0" IVar="5" Cut="2.5136218070983887e+00" cType="1" res="5.7206697762012482e-02" rms="4.5295947790145874e-01" purity="6.7466974258422852e-01" nType="0">
          <Node pos="l" depth="2" NCoef="0" IVar="-1" Cut="0.0000000000000000e+00" cType="1" res="1.7455552006140351e-03" rms="4.4346687197685242e-01" purity="7.1219205856323242e-01" nType="-99"/>
          <Node pos="r" depth="2" NCoef="0" IVar="-1" Cut="0.0000000000000000e+00" cType="1" res="-8.3698489470407367e-04" rms="4.8659515380859375e-01" purity="4.9450808763504028e-01" nType="-99"/>
        </Node>
      </Node>
    </BinaryTree>
    <BinaryTree type="DecisionTree" boostWeight="1.0000000000000000e+00" itree="159">
      <Node pos="s" depth="0" NCoef="0" IVar="1" Cut="4.4819445800781250e+02" cType="1" res="1.3057047501206398e-02" rms="4.6590182185173035e-01" purity="5.0093162059783936e-01" nType="0">
        <Node pos="l" depth="1" NCoef="0" IVar="0" Cut="1.1115130186080933e+00" cType="1" res="-3.6711968481540680e-02" rms="4.5151937007904053e-01" purity="3.6313486099243164e-01" nType="0">
          <Node pos="l" depth="2" NCoef="0" IVar="-1" Cut="0.0000000000000000e+00" cType="1" res="-2.8873673727503046e-05" rms="4.6467021107673645e-01" purity="4.0356343984603882e-01" nType="-99"/>
          <Node pos="r" depth="2" NCoef="0" IVar="-1" Cut="0.0000000000000000e+00" cType="1" res="-2.5825197808444500e-03" rms="4.3728727102279663e-01" purity="3.2776379585266113e-01" nType="-99"/>
        </Node>
        <Node pos="r" depth="1" NCoef="0" IVar="5" Cut="2.3533322811126709e+00" cType="1" res="3.3067457377910614e-02" rms="4.7007802128791809e-01" purity="5.5633491277694702e-01" nType="0">
          <Node pos="l" depth="2" NCoef="0" IVar="-1" Cut="0.0000000000000000e+00" cType="1" res="1.4068072196096182e-03" rms="4.6793997287750244e-01" purity="6.0627132654190063e-01" nType="-99"/>
          <Node pos="r" depth="2" NCoef="0" IVar="-1" Cut="0.0000000000000000e+00" cType="1" res="-4.8881553811952472e-04" rms="4.7118014097213745e-01" purity="4.4450882077217102e-01" nType="-99"/>
        </Node>
      </Node>
    </BinaryTree>
    <BinaryTree type="DecisionTree" boostWeight="1.0000000000000000e+00" itree="160">
      <Node pos="s" depth="0" NCoef="0" IVar="1" Cut="5.2056311035156250e+02" cType="1" res="9.9476194009184837e-03" rms="4.6490755677223206e-01" purity="4.9863305687904358e-01" nType="0">
        <Node pos="l" depth="1" NCoef="0" IVar="6" Cut="2.2316067218780518e+00" cType="1" res="-2.6005942374467850e-02" rms="4.5765882730484009e-01" purity="4.0913897752761841e-01" nType="0">
          <Node pos="l" depth="2" NCoef="0" IVar="-1" Cut="0.0000000000000000e+00" cType="1" res="-3.3096210099756718e-03" rms="4.2148819565773010e-01" purity="2.4167384207248688e-01" nType="-99"/>
          <Node pos="r" depth="2" NCoef="0" IVar="-1" Cut="0.0000000000000000e+00" cType="1" res="5.2247163694119081e-05" rms="4.7760096192359924e-01" purity="5.1777786016464233e-01" nType="-99"/>
        </Node>
        <Node pos="r" depth="1" NCoef="0" IVar="2" Cut="1.0112922191619873e+00" cType="1" res="4.3649993836879730e-02" rms="4.6910572052001953e-01" purity="5.8252346515655518e-01" nType="0">
          <Node pos="l" depth="2" NCoef="0" IVar="-1" Cut="0.0000000000000000e+00" cType="1" res="1.6021095216274261e-03" rms="4.6467599272727966e-01" purity="6.0775154829025269e-01" nType="-99"/>
          <Node pos="r" depth="2" NCoef="0" IVar="-1" Cut="0.0000000000000000e+00" cType="1" res="-7.7279924880713224e-04" rms="4.7900098562240601e-01" purity="4.8743429780006409e-01" nType="-99"/>
        </Node>
      </Node>
    </BinaryTree>
    <BinaryTree type="DecisionTree" boostWeight="1.0000000000000000e+00" itree="161">
      <Node pos="s" depth="0" NCoef="0" IVar="1" Cut="5.6694171142578125e+02" cType="1" res="8.9640691876411438e-03" rms="4.6634352207183838e-01" purity="4.9711257219314575e-01" nType="0">
        <Node pos="l" depth="1" NCoef="0" IVar="7" Cut="7.9204566776752472e-02" cType="1" res="-1.9922552630305290e-02" rms="4.6145474910736084e-01" purity="4.3093109130859375e-01" nType="0">
          <Node pos="l" depth="2" NCoef="0" IVar="-1" Cut="0.0000000000000000e+00" cType="1" res="-1.4801406068727374e-03" rms="4.5543760061264038e-01" purity="3.9772540330886841e-01" nType="-99"/>
          <Node pos="r" depth="2" NCoef="0" IVar="-1" Cut="0.0000000000000000e+00" cType="1" res="8.7900279322639108e-04" rms="4.6990966796875000e-01" purity="5.0085353851318359e-01" nType="-99"/>
        </Node>
        <Node pos="r" depth="1" NCoef="0" IVar="2" Cut="6.1701858043670654e-01" cType="1" res="5.0743401050567627e-02" rms="4.7019582986831665e-01" purity="5.9283232688903809e-01" nType="0">
          <Node pos="l" depth="2" NCoef="0" IVar="-1" Cut="0.0000000000000000e+00" cType="1" res="2.2825489286333323e-03" rms="4.5618611574172974e-01" purity="6.5666991472244263e-01" nType="-99"/>
          <Node pos="r" depth="2" NCoef="0" IVar="-1" Cut="0.0000000000000000e+00" cType="1" res="7.7540287747979164e-04" rms="4.7563898563385010e-01" purity="5.6051248311996460e-01" nType="-99"/>
        </Node>
      </Node>
    </BinaryTree>
    <BinaryTree type="DecisionTree" boostWeight="1.0000000000000000e+00" itree="162">
      <Node pos="s" depth="0" NCoef="0" IVar="1" Cut="6.0148394775390625e+02" cType="1" res="1.4952904544770718e-02" rms="4.6529498696327209e-01" purity="5.0444477796554565e-01" nType="0">
        <Node pos="l" depth="1" NCoef="0" IVar="6" Cut="4.1885166168212891e+00" cType="1" res="-9.6126208081841469e-03" rms="4.6435272693634033e-01" purity="4.4895139336585999e-01" nType="0">
          <Node pos="l" depth="2" NCoef="0" IVar="-1" Cut="0.0000000000000000e+00" cType="1" res="-8.1632868386805058e-04" rms="4.6670928597450256e-01" purity="3.9383092522621155e-01" nType="-99"/>
          <Node pos="r" depth="2" NCoef="0" IVar="-1" Cut="0.0000000000000000e+00" cType="1" res="1.3883722713217139e-03" rms="4.4700720906257629e-01" purity="7.0363831520080566e-01" nType="-99"/>
        </Node>
        <Node pos="r" depth="1" NCoef="0" IVar="6" Cut="1.9996806383132935e+00" cType="1" res="6.1713531613349915e-02" rms="4.6349927783012390e-01" purity="6.1007684469223022e-01" nType="0">
          <Node pos="l" depth="2" NCoef="0" IVar="-1" Cut="0.0000000000000000e+00" cType="1" res="2.0688490621978417e-05" rms="4.8791742324829102e-01" purity="4.2795071005821228e-01" nType="-99"/>
          <Node pos="r" depth="2" NCoef="0" IVar="-1" Cut="0.0000000000000000e+00" cType="1" res="1.9905646331608295e-03" rms="4.5248949527740479e-01" purity="6.7499899864196777e-01" nType="-99"/>
        </Node>
      </Node>
    </BinaryTree>
    <BinaryTree type="DecisionTree" boostWeight="1.0000000000000000e+00" itree="163">
      <Node pos="s" depth="0" NCoef="0" IVar="1" Cut="3.9864895629882812e+02" cType="1" res="1.0694021359086037e-02" rms="4.6585369110107422e-01" purity="4.9853956699371338e-01" nType="0">
        <Node pos="l" depth="1" NCoef="0" IVar="0" Cut="1.1207957267761230e+00" cType="1" res="-6.9861993193626404e-02" rms="4.3403899669647217e-01" purity="3.0399060249328613e-01" nType="0">
          <Node pos="l" depth="2" NCoef="0" IVar="-1" Cut="0.0000000000000000e+00" cType="1" res="-1.2973858974874020e-03" rms="4.4917526841163635e-01" purity="3.4895905852317810e-01" nType="-99"/>
          <Node pos="r" depth="2" NCoef="0" IVar="-1" Cut="0.0000000000000000e+00" cType="1" res="-4.2996699921786785e-03" rms="4.1844892501831055e-01" purity="2.6580289006233215e-01" nType="-99"/>
        </Node>
        <Node pos="r" depth="1" NCoef="0" IVar="5" Cut="2.4698331356048584e+00" cType="1" res="2.4783041328191757e-02" rms="4.6978026628494263e-01" purity="5.3256559371948242e-01" nType="0">
          <Node pos="l" depth="2" NCoef="0" IVar="-1" Cut="0.0000000000000000e+00" cType="1" res="1.0879680048674345e-03" rms="4.7138416767120361e-01" purity="5.7183998823165894e-01" nType="-99"/>
          <Node pos="r" depth="2" NCoef="0" IVar="-1" Cut="0.0000000000000000e+00" cType="1" res="-1.1985764140263200e-03" rms="4.5883435010910034e-01" purity="3.8687008619308472e-01" nType="-99"/>
        </Node>
      </Node>
    </BinaryTree>
    <BinaryTree type="DecisionTree" boostWeight="1.0000000000000000e+00" itree="164">
      <Node pos="s" depth="0" NCoef="0" IVar="6" Cut="4.5837841033935547e+00" cType="1" res="9.2219924554228783e-03" rms="4.6467280387878418e-01" purity="4.9801155924797058e-01" nType="0">
        <Node pos="l" depth="1" NCoef="0" IVar="2" Cut="6.7590183019638062e-01" cType="1" res="-4.7248210757970810e-03" rms="4.7102659940719604e-01" purity="4.5407971739768982e-01" nType="0">
          <Node pos="l" depth="2" NCoef="0" IVar="-1" Cut="0.0000000000000000e+00" cType="1" res="9.8888727370649576e-04" rms="4.7507202625274658e-01" purity="5.1889681816101074e-01" nType="-99"/>
          <Node pos="r" depth="2" NCoef="0" IVar="-1" Cut="0.0000000000000000e+00" cType="1" res="-9.0757932048290968e-04" rms="4.6706494688987732e-01" purity="4.1619035601615906e-01" nType="-99"/>
        </Node>
        <Node pos="r" depth="1" NCoef="0" IVar="-1" Cut="0.0000000000000000e+00" cType="1" res="2.1976919379085302e-03" rms="4.1397032141685486e-01" purity="7.6526808738708496e-01" nType="-99"/>
      </Node>
    </BinaryTree>
    <BinaryTree type="DecisionTree" boostWeight="1.0000000000000000e+00" itree="165">
      <Node pos="s" depth="0" NCoef="0" IVar="6" Cut="1.4917323589324951e+00" cType="1" res="1.1661400087177753e-02" rms="4.6385073661804199e-01" purity="5.0289452075958252e-01" nType="0">
        <Node pos="l" depth="1" NCoef="0" IVar="6" Cut="1.0488101243972778e+00" cType="1" res="-7.1969598531723022e-02" rms="4.3198010325431824e-01" purity="2.7578532695770264e-01" nType="0">
          <Node pos="l" depth="2" NCoef="0" IVar="-1" Cut="0.0000000000000000e+00" cType="1" res="-5.2152583375573158e-03" rms="4.1229861974716187e-01" purity="2.3499642312526703e-01" nType="-99"/>
          <Node pos="r" depth="2" NCoef="0" IVar="-1" Cut="0.0000000000000000e+00" cType="1" res="-1.5083652688190341e-03" rms="4.4694340229034424e-01" purity="3.1404879689216614e-01" nType="-99"/>
        </Node>
        <Node pos="r" depth="1" NCoef="0" IVar="1" Cut="4.2124166870117188e+02" cType="1" res="2.8420064598321915e-02" rms="4.6818408370018005e-01" purity="5.4840451478958130e-01" nType="0">
          <Node pos="l" depth="2" NCoef="0" IVar="-1" Cut="0.0000000000000000e+00" cType="1" res="-1.4774652663618326e-03" rms="4.5825463533401489e-01" purity="3.7740591168403625e-01" nType="-99"/>
          <Node pos="r" depth="2" NCoef="0" IVar="-1" Cut="0.0000000000000000e+00" cType="1" res="1.1887071887031198e-03" rms="4.6895188093185425e-01" purity="5.9047412872314453e-01" nType="-99"/>
        </Node>
      </Node>
    </BinaryTree>
    <BinaryTree type="DecisionTree" boostWeight="1.0000000000000000e+00" itree="166">
      <Node pos="s" depth="0" NCoef="0" IVar="6" Cut="2.3182034492492676e+00" cType="1" res="1.0032137855887413e-02" rms="4.6417036652565002e-01" purity="5.0121605396270752e-01" nType="0">
        <Node pos="l" depth="1" NCoef="0" IVar="2" Cut="5.9756422042846680e-01" cType="1" res="-3.6808412522077560e-02" rms="4.5455998182296753e-01" purity="3.2917237281799316e-01" nType="0">
          <Node pos="l" depth="2" NCoef="0" IVar="-1" Cut="0.0000000000000000e+00" cType="1" res="4.7465803800150752e-04" rms="4.7821566462516785e-01" purity="4.0745648741722107e-01" nType="-99"/>
          <Node pos="r" depth="2" NCoef="0" IVar="-1" Cut="0.0000000000000000e+00" cType="1" res="-2.2837156429886818e-03" rms="4.4386121630668640e-01" purity="2.9981726408004761e-01" nType="-99"/>
        </Node>
        <Node pos="r" depth="1" NCoef="0" IVar="3" Cut="2.2903418540954590e-01" cType="1" res="3.8193311542272568e-02" rms="4.6760058403015137e-01" purity="6.0465109348297119e-01" nType="0">
          <Node pos="l" depth="2" NCoef="0" IVar="-1" Cut="0.0000000000000000e+00" cType="1" res="3.7453048862516880e-03" rms="4.5762911438941956e-01" purity="6.6140502691268921e-01" nType="-99"/>
          <Node pos="r" depth="2" NCoef="0" IVar="-1" Cut="0.0000000000000000e+00" cType="1" res="6.1255588661879301e-04" rms="4.6668583154678345e-01" purity="5.9799194335937500e-01" nType="-99"/>
        </Node>
      </Node>
    </BinaryTree>
    <BinaryTree type="DecisionTree" boostWeight="1.0000000000000000e+00" itree="167">
      <Node pos="s" depth="0" NCoef="0" IVar="1" Cut="5.0576058959960938e+02" cType="1" res="9.1374376788735390e-03" rms="4.6430373191833496e-01" purity="4.9950468540191650e-01" nType="0">
        <Node pos="l" depth="1" NCoef="0" IVar="2" Cut="8.7489098310470581e-01" cType="1" res="-3.3285722136497498e-02" rms="4.5643806457519531e-01" purity="3.9581841230392456e-01" nType="0">
          <Node pos="l" depth="2" NCoef="0" IVar="-1" Cut="0.0000000000000000e+00" cType="1" res="-1.8302122043678537e-05" rms="4.6282157301902771e-01" purity="4.4154503941535950e-01" nType="-99"/>
          <Node pos="r" depth="2" NCoef="0" IVar="-1" Cut="0.0000000000000000e+00" cType="1" res="-3.1513674184679985e-03" rms="4.4208288192749023e-01" purity="3.2684868574142456e-01" nType="-99"/>
        </Node>
        <Node pos="r" depth="1" NCoef="0" IVar="5" Cut="2.6681151390075684e+00" cType="1" res="4.3088637292385101e-02" rms="4.6774020791053772e-01" purity="5.8248472213745117e-01" nType="0">
          <Node pos="l" depth="2" NCoef="0" IVar="-1" Cut="0.0000000000000000e+00" cType="1" res="1.4152746880427003e-03" rms="4.6713259816169739e-01" purity="6.0786402225494385e-01" nType="-99"/>
          <Node pos="r" depth="2" NCoef="0" IVar="-1" Cut="0.0000000000000000e+00" cType="1" res="-2.5565789546817541e-03" rms="4.5763710141181946e-01" purity="3.4607726335525513e-01" nType="-99"/>
        </Node>
      </Node>
    </BinaryTree>
    <BinaryTree type="DecisionTree" boostWeight="1.0000000000000000e+00" itree="168">
      <Node pos="s" depth="0" NCoef="0" IVar="5" Cut="2.4017961025238037e+00" cType="1" res="1.1524465866386890e-02" rms="4.6496602892875671e-01" purity="4.9968364834785461e-01" nType="0">
        <Node pos="l" depth="1" NCoef="0" IVar="9" Cut="1.0545232391357422e+02" cType="1" res="3.1645618379116058e-02" rms="4.6826100349426270e-01" purity="5.5008912086486816e-01" nType="0">
          <Node pos="l" depth="2" NCoef="0" IVar="-1" Cut="0.0000000000000000e+00" cType="1" res="1.6239269461948425e-04" rms="4.7221222519874573e-01" purity="5.0642740726470947e-01" nType="-99"/>
          <Node pos="r" depth="2" NCoef="0" IVar="-1" Cut="0.0000000000000000e+00" cType="1" res="1.9547117408365011e-03" rms="4.5761150121688843e-01" purity="6.2718009948730469e-01" nType="-99"/>
        </Node>
        <Node pos="r" depth="1" NCoef="0" IVar="1" Cut="6.5844110107421875e+02" cType="1" res="-4.1943505406379700e-02" rms="4.5176059007644653e-01" purity="3.6574128270149231e-01" nType="0">
          <Node pos="l" depth="2" NCoef="0" IVar="-1" Cut="0.0000000000000000e+00" cType="1" res="-2.4453531950712204e-03" rms="4.4193002581596375e-01" purity="3.2457980513572693e-01" nType="-99"/>
          <Node pos="r" depth="2" NCoef="0" IVar="-1" Cut="0.0000000000000000e+00" cType="1" res="8.4814021829515696e-04" rms="4.7692054510116577e-01" purity="5.0639933347702026e-01" nType="-99"/>
        </Node>
      </Node>
    </BinaryTree>
    <BinaryTree type="DecisionTree" boostWeight="1.0000000000000000e+00" itree="169">
      <Node pos="s" depth="0" NCoef="0" IVar="6" Cut="4.5803565979003906e+00" cType="1" res="1.8042098730802536e-02" rms="4.6553787589073181e-01" purity="5.0700253248214722e-01" nType="0">
        <Node pos="l" depth="1" NCoef="0" IVar="1" Cut="3.7399658203125000e+02" cType="1" res="5.1683518104255199e-03" rms="4.7237095236778259e-01" purity="4.6400207281112671e-01" nType="0">
          <Node pos="l" depth="2" NCoef="0" IVar="-1" Cut="0.0000000000000000e+00" cType="1" res="-4.0856660343706608e-03" rms="4.1426882147789001e-01" purity="2.5220301747322083e-01" nType="-99"/>
          <Node pos="r" depth="2" NCoef="0" IVar="-1" Cut="0.0000000000000000e+00" cType="1" res="4.4236841495148838e-04" rms="4.7694861888885498e-01" purity="4.8616889119148254e-01" nType="-99"/>
        </Node>
        <Node pos="r" depth="1" NCoef="0" IVar="-1" Cut="0.0000000000000000e+00" cType="1" res="2.2682116832584143e-03" rms="4.1286057233810425e-01" purity="7.6930540800094604e-01" nType="-99"/>
      </Node>
    </BinaryTree>
    <BinaryTree type="DecisionTree" boostWeight="1.0000000000000000e+00" itree="170">
      <Node pos="s" depth="0" NCoef="0" IVar="6" Cut="4.0192551612854004e+00" cType="1" res="1.0013790801167488e-02" rms="4.6377274394035339e-01" purity="4.9886465072631836e-01" nType="0">
        <Node pos="l" depth="1" NCoef="0" IVar="7" Cut="-4.9834765493869781e-02" cType="1" res="-7.9558053985238075e-03" rms="4.7059836983680725e-01" purity="4.3214184045791626e-01" nType="0">
          <Node pos="l" depth="2" NCoef="0" IVar="-1" Cut="0.0000000000000000e+00" cType="1" res="-1.9616268109530210e-03" rms="4.5722404122352600e-01" purity="3.6809843778610229e-01" nType="-99"/>
          <Node pos="r" depth="2" NCoef="0" IVar="-1" Cut="0.0000000000000000e+00" cType="1" res="4.5087488251738250e-04" rms="4.7517594695091248e-01" purity="4.6290248632431030e-01" nType="-99"/>
        </Node>
        <Node pos="r" depth="1" NCoef="0" IVar="1" Cut="5.2304663085937500e+02" cType="1" res="7.1881093084812164e-02" rms="4.3380668759346008e-01" purity="7.2858375310897827e-01" nType="0">
          <Node pos="l" depth="2" NCoef="0" IVar="-1" Cut="0.0000000000000000e+00" cType="1" res="7.9325935803353786e-04" rms="4.6090534329414368e-01" purity="6.6412526369094849e-01" nType="-99"/>
          <Node pos="r" depth="2" NCoef="0" IVar="-1" Cut="0.0000000000000000e+00" cType="1" res="2.3151836358010769e-03" rms="4.1103792190551758e-01" purity="7.7469009160995483e-01" nType="-99"/>
        </Node>
      </Node>
    </BinaryTree>
    <BinaryTree type="DecisionTree" boostWeight="1.0000000000000000e+00" itree="171">
      <Node pos="s" depth="0" NCoef="0" IVar="6" Cut="1.8033802509307861e+00" cType="1" res="1.3717797584831715e-02" rms="4.6474739909172058e-01" purity="5.0462955236434937e-01" nType="0">
        <Node pos="l" depth="1" NCoef="0" IVar="2" Cut="9.5854961872100830e-01" cType="1" res="-4.4896159321069717e-02" rms="4.4725427031517029e-01" purity="3.0518069863319397e-01" nType="0">
          <Node pos="l" depth="2" NCoef="0" IVar="-1" Cut="0.0000000000000000e+00" cType="1" res="-9.8896701820194721e-04" rms="4.5932355523109436e-01" purity="3.3406329154968262e-01" nType="-99"/>
          <Node pos="r" depth="2" NCoef="0" IVar="-1" Cut="0.0000000000000000e+00" cType="1" res="-4.7136247158050537e-03" rms="4.0935382246971130e-01" purity="2.2921334207057953e-01" nType="-99"/>
        </Node>
        <Node pos="r" depth="1" NCoef="0" IVar="3" Cut="2.2903119027614594e-01" cType="1" res="3.2540634274482727e-02" rms="4.6867454051971436e-01" purity="5.6867903470993042e-01" nType="0">
          <Node pos="l" depth="2" NCoef="0" IVar="-1" Cut="0.0000000000000000e+00" cType="1" res="3.0582882463932037e-03" rms="4.7162503004074097e-01" purity="5.7324719429016113e-01" nType="-99"/>
          <Node pos="r" depth="2" NCoef="0" IVar="-1" Cut="0.0000000000000000e+00" cType="1" res="4.8159997095353901e-04" rms="4.6667447686195374e-01" purity="5.6788784265518188e-01" nType="-99"/>
        </Node>
      </Node>
    </BinaryTree>
    <BinaryTree type="DecisionTree" boostWeight="1.0000000000000000e+00" itree="172">
      <Node pos="s" depth="0" NCoef="0" IVar="5" Cut="2.2254738807678223e+00" cType="1" res="1.1908114887773991e-02" rms="4.6412333846092224e-01" purity="5.0170212984085083e-01" nType="0">
        <Node pos="l" depth="1" NCoef="0" IVar="9" Cut="1.0752737426757812e+02" cType="1" res="4.3608050793409348e-02" rms="4.6582934260368347e-01" purity="5.6903356313705444e-01" nType="0">
          <Node pos="l" depth="2" NCoef="0" IVar="-1" Cut="0.0000000000000000e+00" cType="1" res="6.2386540230363607e-04" rms="4.7024610638618469e-01" purity="5.3162395954132080e-01" nType="-99"/>
          <Node pos="r" depth="2" NCoef="0" IVar="-1" Cut="0.0000000000000000e+00" cType="1" res="2.3247075732797384e-03" rms="4.5077720284461975e-01" purity="6.6002756357192993e-01" nType="-99"/>
        </Node>
        <Node pos="r" depth="1" NCoef="0" IVar="6" Cut="4.1534962654113770e+00" cType="1" res="-2.3889422416687012e-02" rms="4.5956787467002869e-01" purity="4.2566728591918945e-01" nType="0">
          <Node pos="l" depth="2" NCoef="0" IVar="-1" Cut="0.0000000000000000e+00" cType="1" res="-1.4596051769331098e-03" rms="4.5876708626747131e-01" purity="3.6472561955451965e-01" nType="-99"/>
          <Node pos="r" depth="2" NCoef="0" IVar="-1" Cut="0.0000000000000000e+00" cType="1" res="1.1529832845553756e-03" rms="4.5592415332794189e-01" purity="6.7735779285430908e-01" nType="-99"/>
        </Node>
      </Node>
    </BinaryTree>
    <BinaryTree type="DecisionTree" boostWeight="1.0000000000000000e+00" itree="173">
      <Node pos="s" depth="0" NCoef="0" IVar="1" Cut="6.8305328369140625e+02" cType="1" res="1.2269542552530766e-02" rms="4.6395900845527649e-01" purity="5.0238656997680664e-01" nType="0">
        <Node pos="l" depth="1" NCoef="0" IVar="7" Cut="-8.3441175520420074e-02" cType="1" res="-4.9723526462912560e-03" rms="4.6334147453308105e-01" purity="4.6623727679252625e-01" nType="0">
          <Node pos="l" depth="2" NCoef="0" IVar="-1" Cut="0.0000000000000000e+00" cType="1" res="-2.6616619434207678e-03" rms="4.4577726721763611e-01" purity="3.7043595314025879e-01" nType="-99"/>
          <Node pos="r" depth="2" NCoef="0" IVar="-1" Cut="0.0000000000000000e+00" cType="1" res="2.9309876845218241e-04" rms="4.6561804413795471e-01" purity="4.8648101091384888e-01" nType="-99"/>
        </Node>
        <Node pos="r" depth="1" NCoef="0" IVar="4" Cut="1.5134985351562500e+02" cType="1" res="7.2486214339733124e-02" rms="4.6107873320579529e-01" purity="6.2863647937774658e-01" nType="0">
          <Node pos="l" depth="2" NCoef="0" IVar="-1" Cut="0.0000000000000000e+00" cType="1" res="1.3270352501422167e-03" rms="4.6485346555709839e-01" purity="6.0536694526672363e-01" nType="-99"/>
          <Node pos="r" depth="2" NCoef="0" IVar="-1" Cut="0.0000000000000000e+00" cType="1" res="2.8726314194500446e-03" rms="4.4777503609657288e-01" purity="6.8488794565200806e-01" nType="-99"/>
        </Node>
      </Node>
    </BinaryTree>
    <BinaryTree type="DecisionTree" boostWeight="1.0000000000000000e+00" itree="174">
      <Node pos="s" depth="0" NCoef="0" IVar="2" Cut="1.0226526260375977e+00" cType="1" res="8.0530242994427681e-03" rms="4.6545067429542542e-01" purity="4.9712443351745605e-01" nType="0">
        <Node pos="l" depth="1" NCoef="0" IVar="1" Cut="5.0576058959960938e+02" cType="1" res="2.4949701502919197e-02" rms="4.6542373299598694e-01" purity="5.2102863788604736e-01" nType="0">
          <Node pos="l" depth="2" NCoef="0" IVar="-1" Cut="0.0000000000000000e+00" cType="1" res="-3.8186856545507908e-04" rms="4.6203967928886414e-01" purity="4.2166128754615784e-01" nType="-99"/>
          <Node pos="r" depth="2" NCoef="0" IVar="-1" Cut="0.0000000000000000e+00" cType="1" res="1.3851863332092762e-03" rms="4.6605688333511353e-01" purity="5.9846884012222290e-01" nType="-99"/>
        </Node>
        <Node pos="r" depth="1" NCoef="0" IVar="4" Cut="1.0539434814453125e+02" cType="1" res="-5.2218522876501083e-02" rms="4.6052438020706177e-01" purity="4.1185644268989563e-01" nType="0">
          <Node pos="l" depth="2" NCoef="0" IVar="-1" Cut="0.0000000000000000e+00" cType="1" res="-2.6328857056796551e-03" rms="4.5339131355285645e-01" purity="3.7658065557479858e-01" nType="-99"/>
          <Node pos="r" depth="2" NCoef="0" IVar="-1" Cut="0.0000000000000000e+00" cType="1" res="5.8172672288492322e-04" rms="4.7469970583915710e-01" purity="5.2178430557250977e-01" nType="-99"/>
        </Node>
      </Node>
    </BinaryTree>
    <BinaryTree type="DecisionTree" boostWeight="1.0000000000000000e+00" itree="175">
      <Node pos="s" depth="0" NCoef="0" IVar="5" Cut="2.3295948505401611e+00" cType="1" res="7.9831462353467941e-03" rms="4.6575582027435303e-01" purity="4.9637702107429504e-01" nType="0">
        <Node pos="l" depth="1" NCoef="0" IVar="0" Cut="9.4224780797958374e-01" cType="1" res="3.1444404274225235e-02" rms="4.6816325187683105e-01" purity="5.5371332168579102e-01" nType="0">
          <Node pos="l" depth="2" NCoef="0" IVar="-1" Cut="0.0000000000000000e+00" cType="1" res="1.8141720211133361e-03" rms="4.6497544646263123e-01" purity="6.0513287782669067e-01" nType="-99"/>
          <Node pos="r" depth="2" NCoef="0" IVar="-1" Cut="0.0000000000000000e+00" cType="1" res="8.4518062067218125e-05" rms="4.6840009093284607e-01" purity="5.1646512746810913e-01" nType="-99"/>
        </Node>
        <Node pos="r" depth="1" NCoef="0" IVar="5" Cut="2.8990259170532227e+00" cType="1" res="-3.5958100110292435e-02" rms="4.5799100399017334e-01" purity="3.8899025321006775e-01" nType="0">
          <Node pos="l" depth="2" NCoef="0" IVar="-1" Cut="0.0000000000000000e+00" cType="1" res="-6.9931003963574767e-04" rms="4.6595734357833862e-01" purity="4.1777738928794861e-01" nType="-99"/>
          <Node pos="r" depth="2" NCoef="0" IVar="-1" Cut="0.0000000000000000e+00" cType="1" res="-5.6932629086077213e-03" rms="3.9888352155685425e-01" purity="2.2392028570175171e-01" nType="-99"/>
        </Node>
      </Node>
    </BinaryTree>
    <BinaryTree type="DecisionTree" boostWeight="1.0000000000000000e+00" itree="176">
      <Node pos="s" depth="0" NCoef="0" IVar="6" Cut="3.9720969200134277e+00" cType="1" res="1.2141855433583260e-02" rms="4.6499469876289368e-01" purity="5.0246286392211914e-01" nType="0">
        <Node pos="l" depth="1" NCoef="0" IVar="7" Cut="1.2604852020740509e-01" cType="1" res="-6.6912639886140823e-03" rms="4.7269910573959351e-01" purity="4.3130612373352051e-01" nType="0">
          <Node pos="l" depth="2" NCoef="0" IVar="-1" Cut="0.0000000000000000e+00" cType="1" res="-7.9978437861427665e-04" rms="4.6900492906570435e-01" purity="4.0775790810585022e-01" nType="-99"/>
          <Node pos="r" depth="2" NCoef="0" IVar="-1" Cut="0.0000000000000000e+00" cType="1" res="1.5276387566700578e-03" rms="4.8030123114585876e-01" purity="5.1337724924087524e-01" nType="-99"/>
        </Node>
        <Node pos="r" depth="1" NCoef="0" IVar="5" Cut="2.3838868141174316e+00" cType="1" res="7.1377687156200409e-02" rms="4.3459486961364746e-01" purity="7.2627228498458862e-01" nType="0">
          <Node pos="l" depth="2" NCoef="0" IVar="-1" Cut="0.0000000000000000e+00" cType="1" res="2.1262650843709707e-03" rms="4.1549572348594666e-01" purity="7.7052992582321167e-01" nType="-99"/>
          <Node pos="r" depth="2" NCoef="0" IVar="-1" Cut="0.0000000000000000e+00" cType="1" res="3.9597644354216754e-04" rms="4.7906687855720520e-01" purity="6.0409837961196899e-01" nType="-99"/>
        </Node>
      </Node>
    </BinaryTree>
    <BinaryTree type="DecisionTree" boostWeight="1.0000000000000000e+00" itree="177">
      <Node pos="s" depth="0" NCoef="0" IVar="6" Cut="4.3088245391845703e+00" cType="1" res="8.1684319302439690e-03" rms="4.6416121721267700e-01" purity="4.9789762496948242e-01" nType="0">
        <Node pos="l" depth="1" NCoef="0" IVar="1" Cut="6.7845904541015625e+02" cType="1" res="-7.3195309378206730e-03" rms="4.7110366821289062e-01" purity="4.4340214133262634e-01" nType="0">
          <Node pos="l" depth="2" NCoef="0" IVar="-1" Cut="0.0000000000000000e+00" cType="1" res="-7.6661910861730576e-04" rms="4.6684688329696655e-01" purity="4.0850329399108887e-01" nType="-99"/>
          <Node pos="r" depth="2" NCoef="0" IVar="-1" Cut="0.0000000000000000e+00" cType="1" res="1.3491681311279535e-03" rms="4.8171347379684448e-01" purity="5.7000750303268433e-01" nType="-99"/>
        </Node>
        <Node pos="r" depth="1" NCoef="0" IVar="5" Cut="2.1898045539855957e+00" cType="1" res="7.9502865672111511e-02" rms="4.2349344491958618e-01" purity="7.4889290332794189e-01" nType="0">
          <Node pos="l" depth="2" NCoef="0" IVar="-1" Cut="0.0000000000000000e+00" cType="1" res="2.5402798783034086e-03" rms="3.9269992709159851e-01" purity="8.0490159988403320e-01" nType="-99"/>
          <Node pos="r" depth="2" NCoef="0" IVar="-1" Cut="0.0000000000000000e+00" cType="1" res="1.1110509512946010e-03" rms="4.5212185382843018e-01" purity="6.8810766935348511e-01" nType="-99"/>
        </Node>
      </Node>
    </BinaryTree>
    <BinaryTree type="DecisionTree" boostWeight="1.0000000000000000e+00" itree="178">
      <Node pos="s" depth="0" NCoef="0" IVar="6" Cut="3.4235603809356689e+00" cType="1" res="5.3141037933528423e-03" rms="4.6387016773223877e-01" purity="4.9487206339836121e-01" nType="0">
        <Node pos="l" depth="1" NCoef="0" IVar="5" Cut="1.6604323387145996e+00" cType="1" res="-2.0227953791618347e-02" rms="4.6901032328605652e-01" purity="3.9376246929168701e-01" nType="0">
          <Node pos="l" depth="2" NCoef="0" IVar="-1" Cut="0.0000000000000000e+00" cType="1" res="2.0203113090246916e-03" rms="4.8386177420616150e-01" purity="5.2659809589385986e-01" nType="-99"/>
          <Node pos="r" depth="2" NCoef="0" IVar="-1" Cut="0.0000000000000000e+00" cType="1" res="-1.1318521574139595e-03" rms="4.6560260653495789e-01" purity="3.7637808918952942e-01" nType="-99"/>
        </Node>
        <Node pos="r" depth="1" NCoef="0" IVar="1" Cut="4.3552990722656250e+02" cType="1" res="5.3307875990867615e-02" rms="4.5015123486518860e-01" purity="6.8485802412033081e-01" nType="0">
          <Node pos="l" depth="2" NCoef="0" IVar="-1" Cut="0.0000000000000000e+00" cType="1" res="-5.3736683912575245e-04" rms="4.8288303613662720e-01" purity="5.5189484357833862e-01" nType="-99"/>
          <Node pos="r" depth="2" NCoef="0" IVar="-1" Cut="0.0000000000000000e+00" cType="1" res="1.6879701288416982e-03" rms="4.3964421749114990e-01" purity="7.1815806627273560e-01" nType="-99"/>
        </Node>
      </Node>
    </BinaryTree>
    <BinaryTree type="DecisionTree" boostWeight="1.0000000000000000e+00" itree="179">
      <Node pos="s" depth="0" NCoef="0" IVar="2" Cut="6.2459170818328857e-01" cType="1" res="7.0466655306518078e-03" rms="4.6452713012695312e-01" purity="4.9494120478630066e-01" nType="0">
        <Node pos="l" depth="1" NCoef="0" IVar="6" Cut="1.4823800325393677e+00" cType="1" res="5.6001614779233932e-02" rms="4.6196687221527100e-01" purity="5.7323843240737915e-01" nType="0">
          <Node pos="l" depth="2" NCoef="0" IVar="-1" Cut="0.0000000000000000e+00" cType="1" res="-1.7094705253839493e-03" rms="4.5780807733535767e-01" purity="3.2774212956428528e-01" nType="-99"/>
          <Node pos="r" depth="2" NCoef="0" IVar="-1" Cut="0.0000000000000000e+00" cType="1" res="1.9217141671106219e-03" rms="4.6018755435943604e-01" purity="6.2299937009811401e-01" nType="-99"/>
        </Node>
        <Node pos="r" depth="1" NCoef="0" IVar="7" Cut="-2.5657080113887787e-02" cType="1" res="-1.4965849928557873e-02" rms="4.6399343013763428e-01" purity="4.5973494648933411e-01" nType="0">
          <Node pos="l" depth="2" NCoef="0" IVar="-1" Cut="0.0000000000000000e+00" cType="1" res="-2.1529926452785730e-03" rms="4.5647856593132019e-01" purity="3.8713416457176208e-01" nType="-99"/>
          <Node pos="r" depth="2" NCoef="0" IVar="-1" Cut="0.0000000000000000e+00" cType="1" res="3.7112017162144184e-04" rms="4.6610033512115479e-01" purity="5.0206768512725830e-01" nType="-99"/>
        </Node>
      </Node>
    </BinaryTree>
    <BinaryTree type="DecisionTree" boostWeight="1.0000000000000000e+00" itree="180">
      <Node pos="s" depth="0" NCoef="0" IVar="6" Cut="4.5960006713867188e+00" cType="1" res="1.0525682009756565e-02" rms="4.6350729465484619e-01" purity="5.0051307678222656e-01" nType="0">
        <Node pos="l" depth="1" NCoef="0" IVar="1" Cut="4.4974636840820312e+02" cType="1" res="-3.0237943865358829e-03" rms="4.7003820538520813e-01" purity="4.5624911785125732e-01" nType="0">
          <Node pos="l" depth="2" NCoef="0" IVar="-1" Cut="0.0000000000000000e+00" cType="1" res="-1.9052170682698488e-03" rms="4.4599753618240356e-01" purity="3.1903055310249329e-01" nType="-99"/>
          <Node pos="r" depth="2" NCoef="0" IVar="-1" Cut="0.0000000000000000e+00" cType="1" res="4.6303603448905051e-04" rms="4.7862184047698975e-01" purity="5.1496231555938721e-01" nType="-99"/>
        </Node>
        <Node pos="r" depth="1" NCoef="0" IVar="-1" Cut="0.0000000000000000e+00" cType="1" res="2.1949415095150471e-03" rms="4.1183465719223022e-01" purity="7.7098548412322998e-01" nType="-99"/>
      </Node>
    </BinaryTree>
    <BinaryTree type="DecisionTree" boostWeight="1.0000000000000000e+00" itree="181">
      <Node pos="s" depth="0" NCoef="0" IVar="5" Cut="2.2714455127716064e+00" cType="1" res="1.3291784562170506e-02" rms="4.6411758661270142e-01" purity="5.0204527378082275e-01" nType="0">
        <Node pos="l" depth="1" NCoef="0" IVar="6" Cut="1.9355993270874023e+00" cType="1" res="4.0302820503711700e-02" rms="4.6487662196159363e-01" purity="5.6601417064666748e-01" nType="0">
          <Node pos="l" depth="2" NCoef="0" IVar="-1" Cut="0.0000000000000000e+00" cType="1" res="-6.0073996428400278e-04" rms="4.7061020135879517e-01" purity="3.6918166279792786e-01" nType="-99"/>
          <Node pos="r" depth="2" NCoef="0" IVar="-1" Cut="0.0000000000000000e+00" cType="1" res="1.5107074286788702e-03" rms="4.6099457144737244e-01" purity="6.3806027173995972e-01" nType="-99"/>
        </Node>
        <Node pos="r" depth="1" NCoef="0" IVar="7" Cut="-6.8826191127300262e-02" cType="1" res="-2.5133635848760605e-02" rms="4.6031248569488525e-01" purity="4.1104438900947571e-01" nType="0">
          <Node pos="l" depth="2" NCoef="0" IVar="-1" Cut="0.0000000000000000e+00" cType="1" res="-3.1684492714703083e-03" rms="4.3895873427391052e-01" purity="3.3528527617454529e-01" nType="-99"/>
          <Node pos="r" depth="2" NCoef="0" IVar="-1" Cut="0.0000000000000000e+00" cType="1" res="-1.5954303307808004e-05" rms="4.6683165431022644e-01" purity="4.4296163320541382e-01" nType="-99"/>
        </Node>
      </Node>
    </BinaryTree>
    <BinaryTree type="DecisionTree" boostWeight="1.0000000000000000e+00" itree="182">
      <Node pos="s" depth="0" NCoef="0" IVar="5" Cut="2.8286416530609131e+00" cType="1" res="1.2253778986632824e-02" rms="4.6325004100799561e-01" purity="5.0351631641387939e-01" nType="0">
        <Node pos="l" depth="1" NCoef="0" IVar="6" Cut="4.2001447677612305e+00" cType="1" res="2.1853130310773849e-02" rms="4.6634784340858459e-01" purity="5.2357149124145508e-01" nType="0">
          <Node pos="l" depth="2" NCoef="0" IVar="-1" Cut="0.0000000000000000e+00" cType="1" res="1.7750923871062696e-04" rms="4.7577100992202759e-01" purity="4.6403974294662476e-01" nType="-99"/>
          <Node pos="r" depth="2" NCoef="0" IVar="-1" Cut="0.0000000000000000e+00" cType="1" res="1.9856176804751158e-03" rms="4.2092132568359375e-01" purity="7.6023393869400024e-01" nType="-99"/>
        </Node>
        <Node pos="r" depth="1" NCoef="0" IVar="-1" Cut="0.0000000000000000e+00" cType="1" res="-6.2580476514995098e-03" rms="3.8989531993865967e-01" purity="2.1230427920818329e-01" nType="-99"/>
      </Node>
    </BinaryTree>
    <BinaryTree type="DecisionTree" boostWeight="1.0000000000000000e+00" itree="183">
      <Node pos="s" depth="0" NCoef="0" IVar="2" Cut="6.4691984653472900e-01" cType="1" res="8.4289992228150368e-03" rms="4.6484112739562988e-01" purity="4.9611160159111023e-01" nType="0">
        <Node pos="l" depth="1" NCoef="0" IVar="6" Cut="1.5266517400741577e+00" cType="1" res="5.3656302392482758e-02" rms="4.6404382586479187e-01" purity="5.6744754314422607e-01" nType="0">
          <Node pos="l" depth="2" NCoef="0" IVar="-1" Cut="0.0000000000000000e+00" cType="1" res="-9.6949748694896698e-04" rms="4.6457740664482117e-01" purity="3.4512791037559509e-01" nType="-99"/>
          <Node pos="r" depth="2" NCoef="0" IVar="-1" Cut="0.0000000000000000e+00" cType="1" res="1.8059690482914448e-03" rms="4.6205514669418335e-01" purity="6.1737996339797974e-01" nType="-99"/>
        </Node>
        <Node pos="r" depth="1" NCoef="0" IVar="7" Cut="-1.2791449204087257e-02" cType="1" res="-1.4889237470924854e-02" rms="4.6353074908256531e-01" purity="4.5933234691619873e-01" nType="0">
          <Node pos="l" depth="2" NCoef="0" IVar="-1" Cut="0.0000000000000000e+00" cType="1" res="-2.2233896888792515e-03" rms="4.5140188932418823e-01" purity="3.8690128922462463e-01" nType="-99"/>
          <Node pos="r" depth="2" NCoef="0" IVar="-1" Cut="0.0000000000000000e+00" cType="1" res="5.2965368377044797e-04" rms="4.6862706542015076e-01" purity="5.0828653573989868e-01" nType="-99"/>
        </Node>
      </Node>
    </BinaryTree>
    <BinaryTree type="DecisionTree" boostWeight="1.0000000000000000e+00" itree="184">
      <Node pos="s" depth="0" NCoef="0" IVar="6" Cut="4.6224908828735352e+00" cType="1" res="1.3234154321253300e-02" rms="4.6285763382911682e-01" purity="5.0383204221725464e-01" nType="0">
        <Node pos="l" depth="1" NCoef="0" IVar="5" Cut="2.2296023368835449e+00" cType="1" res="6.1676066252402961e-05" rms="4.6961033344268799e-01" purity="4.6157371997833252e-01" nType="0">
          <Node pos="l" depth="2" NCoef="0" IVar="-1" Cut="0.0000000000000000e+00" cType="1" res="8.6236948845908046e-04" rms="4.7621545195579529e-01" purity="5.3043937683105469e-01" nType="-99"/>
          <Node pos="r" depth="2" NCoef="0" IVar="-1" Cut="0.0000000000000000e+00" cType="1" res="-1.2451125076040626e-03" rms="4.5924034714698792e-01" purity="3.8223174214363098e-01" nType="-99"/>
        </Node>
        <Node pos="r" depth="1" NCoef="0" IVar="-1" Cut="0.0000000000000000e+00" cType="1" res="2.3185310419648886e-03" rms="4.0609568357467651e-01" purity="7.7820259332656860e-01" nType="-99"/>
      </Node>
    </BinaryTree>
    <BinaryTree type="DecisionTree" boostWeight="1.0000000000000000e+00" itree="185">
      <Node pos="s" depth="0" NCoef="0" IVar="5" Cut="2.8566870689392090e+00" cType="1" res="1.3359830714762211e-02" rms="4.6438893675804138e-01" purity="5.0254017114639282e-01" nType="0">
        <Node pos="l" depth="1" NCoef="0" IVar="6" Cut="4.5837841033935547e+00" cType="1" res="2.0994504913687706e-02" rms="4.6695515513420105e-01" purity="5.1938635110855103e-01" nType="0">
          <Node pos="l" depth="2" NCoef="0" IVar="-1" Cut="0.0000000000000000e+00" cType="1" res="2.6951110339723527e-04" rms="4.7472143173217773e-01" purity="4.7735843062400818e-01" nType="-99"/>
          <Node pos="r" depth="2" NCoef="0" IVar="-1" Cut="0.0000000000000000e+00" cType="1" res="2.2453363053500652e-03" rms="4.0739077329635620e-01" purity="7.8192937374114990e-01" nType="-99"/>
        </Node>
        <Node pos="r" depth="1" NCoef="0" IVar="-1" Cut="0.0000000000000000e+00" cType="1" res="-5.1660863682627678e-03" rms="4.0074482560157776e-01" purity="2.2923994064331055e-01" nType="-99"/>
      </Node>
    </BinaryTree>
    <BinaryTree type="DecisionTree" boostWeight="1.0000000000000000e+00" itree="186">
      <Node pos="s" depth="0" NCoef="0" IVar="6" Cut="4.4190764427185059e+00" cType="1" res="5.1923948340117931e-03" rms="4.6325051784515381e-01" purity="4.9581983685493469e-01" nType="0">
        <Node pos="l" depth="1" NCoef="0" IVar="2" Cut="7.7038854360580444e-01" cType="1" res="-9.7412029281258583e-03" rms="4.7023671865463257e-01" purity="4.4384524226188660e-01" nType="0">
          <Node pos="l" depth="2" NCoef="0" IVar="-1" Cut="0.0000000000000000e+00" cType="1" res="6.2869524117559195e-04" rms="4.7473043203353882e-01" purity="4.9451950192451477e-01" nType="-99"/>
          <Node pos="r" depth="2" NCoef="0" IVar="-1" Cut="0.0000000000000000e+00" cType="1" res="-1.3348531210795045e-03" rms="4.6389389038085938e-01" purity="3.9526668190956116e-01" nType="-99"/>
        </Node>
        <Node pos="r" depth="1" NCoef="0" IVar="6" Cut="5.0456233024597168e+00" cType="1" res="8.0405518412590027e-02" rms="4.1830021142959595e-01" purity="7.5758999586105347e-01" nType="0">
          <Node pos="l" depth="2" NCoef="0" IVar="-1" Cut="0.0000000000000000e+00" cType="1" res="1.1315281735733151e-03" rms="4.4468218088150024e-01" purity="7.0957803726196289e-01" nType="-99"/>
          <Node pos="r" depth="2" NCoef="0" IVar="-1" Cut="0.0000000000000000e+00" cType="1" res="2.5441923644393682e-03" rms="3.9206731319427490e-01" purity="7.9859435558319092e-01" nType="-99"/>
        </Node>
      </Node>
    </BinaryTree>
    <BinaryTree type="DecisionTree" boostWeight="1.0000000000000000e+00" itree="187">
      <Node pos="s" depth="0" NCoef="0" IVar="2" Cut="7.9860407114028931e-01" cType="1" res="7.4073495343327522e-03" rms="4.6305552124977112e-01" purity="4.9842005968093872e-01" nType="0">
        <Node pos="l" depth="1" NCoef="0" IVar="6" Cut="1.3356289863586426e+00" cType="1" res="3.6634683609008789e-02" rms="4.6287220716476440e-01" purity="5.4600381851196289e-01" nType="0">
          <Node pos="l" depth="2" NCoef="0" IVar="-1" Cut="0.0000000000000000e+00" cType="1" res="-2.1097548305988312e-03" rms="4.4959628582000732e-01" purity="3.0789354443550110e-01" nType="-99"/>
          <Node pos="r" depth="2" NCoef="0" IVar="-1" Cut="0.0000000000000000e+00" cType="1" res="1.3470009434968233e-03" rms="4.6342006325721741e-01" purity="5.8499717712402344e-01" nType="-99"/>
        </Node>
        <Node pos="r" depth="1" NCoef="0" IVar="7" Cut="-5.7448856532573700e-02" cType="1" res="-2.4697953835129738e-02" rms="4.6112662553787231e-01" purity="4.4615077972412109e-01" nType="0">
          <Node pos="l" depth="2" NCoef="0" IVar="-1" Cut="0.0000000000000000e+00" cType="1" res="-3.4410075750201941e-03" rms="4.3857571482658386e-01" purity="3.4288015961647034e-01" nType="-99"/>
          <Node pos="r" depth="2" NCoef="0" IVar="-1" Cut="0.0000000000000000e+00" cType="1" res="-4.3173338781343773e-05" rms="4.6634936332702637e-01" purity="4.8157936334609985e-01" nType="-99"/>
        </Node>
      </Node>
    </BinaryTree>
    <BinaryTree type="DecisionTree" boostWeight="1.0000000000000000e+00" itree="188">
      <Node pos="s" depth="0" NCoef="0" IVar="2" Cut="7.9621356725692749e-01" cType="1" res="1.2264840304851532e-02" rms="4.6407848596572876e-01" purity="5.0287854671478271e-01" nType="0">
        <Node pos="l" depth="1" NCoef="0" IVar="1" Cut="3.9558740234375000e+02" cType="1" res="3.9806976914405823e-02" rms="4.6302467584609985e-01" purity="5.4966086149215698e-01" nType="0">
          <Node pos="l" depth="2" NCoef="0" IVar="-1" Cut="0.0000000000000000e+00" cType="1" res="-1.6730519710108638e-03" rms="4.4662255048751831e-01" purity="3.4349828958511353e-01" nType="-99"/>
          <Node pos="r" depth="2" NCoef="0" IVar="-1" Cut="0.0000000000000000e+00" cType="1" res="1.3799752341583371e-03" rms="4.6406507492065430e-01" purity="5.7878339290618896e-01" nType="-99"/>
        </Node>
        <Node pos="r" depth="1" NCoef="0" IVar="7" Cut="-5.8462806046009064e-02" cType="1" res="-1.8313815817236900e-02" rms="4.6333175897598267e-01" purity="4.5093849301338196e-01" nType="0">
          <Node pos="l" depth="2" NCoef="0" IVar="-1" Cut="0.0000000000000000e+00" cType="1" res="-3.4342352300882339e-03" rms="4.4562450051307678e-01" purity="3.4068334102630615e-01" nType="-99"/>
          <Node pos="r" depth="2" NCoef="0" IVar="-1" Cut="0.0000000000000000e+00" cType="1" res="1.8675840692594647e-04" rms="4.6662849187850952e-01" purity="4.8832771182060242e-01" nType="-99"/>
        </Node>
      </Node>
    </BinaryTree>
    <BinaryTree type="DecisionTree" boostWeight="1.0000000000000000e+00" itree="189">
      <Node pos="s" depth="0" NCoef="0" IVar="1" Cut="6.6265948486328125e+02" cType="1" res="1.2255787849426270e-02" rms="4.6516343951225281e-01" purity="5.0103002786636353e-01" nType="0">
        <Node pos="l" depth="1" NCoef="0" IVar="7" Cut="-9.7464159131050110e-02" cType="1" res="-5.1160356961190701e-03" rms="4.6444848179817200e-01" purity="4.6168321371078491e-01" nType="0">
          <Node pos="l" depth="2" NCoef="0" IVar="-1" Cut="0.0000000000000000e+00" cType="1" res="-3.4523482900112867e-03" rms="4.3846774101257324e-01" purity="3.3772307634353638e-01" nType="-99"/>
          <Node pos="r" depth="2" NCoef="0" IVar="-1" Cut="0.0000000000000000e+00" cType="1" res="1.6433376003988087e-04" rms="4.6643695235252380e-01" purity="4.7686326503753662e-01" nType="-99"/>
        </Node>
        <Node pos="r" depth="1" NCoef="0" IVar="9" Cut="9.2385009765625000e+01" cType="1" res="6.5468505024909973e-02" rms="4.6331077814102173e-01" purity="6.2155574560165405e-01" nType="0">
          <Node pos="l" depth="2" NCoef="0" IVar="-1" Cut="0.0000000000000000e+00" cType="1" res="2.8161361115053296e-04" rms="4.6997827291488647e-01" purity="5.8252382278442383e-01" nType="-99"/>
          <Node pos="r" depth="2" NCoef="0" IVar="-1" Cut="0.0000000000000000e+00" cType="1" res="2.1141341421753168e-03" rms="4.5959374308586121e-01" purity="6.3462626934051514e-01" nType="-99"/>
        </Node>
      </Node>
    </BinaryTree>
    <BinaryTree type="DecisionTree" boostWeight="1.0000000000000000e+00" itree="190">
      <Node pos="s" depth="0" NCoef="0" IVar="6" Cut="2.4415774345397949e+00" cType="1" res="1.2215157970786095e-02" rms="4.6245461702346802e-01" purity="5.0402611494064331e-01" nType="0">
        <Node pos="l" depth="1" NCoef="0" IVar="7" Cut="1.4368459582328796e-01" cType="1" res="-2.7955569326877594e-02" rms="4.5829117298126221e-01" purity="3.4010609984397888e-01" nType="0">
          <Node pos="l" depth="2" NCoef="0" IVar="-1" Cut="0.0000000000000000e+00" cType="1" res="-1.7428986029699445e-03" rms="4.5167496800422668e-01" purity="3.1887128949165344e-01" nType="-99"/>
          <Node pos="r" depth="2" NCoef="0" IVar="-1" Cut="0.0000000000000000e+00" cType="1" res="1.3710979837924242e-03" rms="4.7999650239944458e-01" purity="4.3370655179023743e-01" nType="-99"/>
        </Node>
        <Node pos="r" depth="1" NCoef="0" IVar="3" Cut="2.4838504195213318e-01" cType="1" res="4.0587894618511200e-02" rms="4.6327865123748779e-01" purity="6.1980342864990234e-01" nType="0">
          <Node pos="l" depth="2" NCoef="0" IVar="-1" Cut="0.0000000000000000e+00" cType="1" res="3.5285067278891802e-03" rms="4.5603352785110474e-01" purity="6.6536974906921387e-01" nType="-99"/>
          <Node pos="r" depth="2" NCoef="0" IVar="-1" Cut="0.0000000000000000e+00" cType="1" res="6.7762803519144654e-04" rms="4.6236836910247803e-01" purity="6.1396449804306030e-01" nType="-99"/>
        </Node>
      </Node>
    </BinaryTree>
    <BinaryTree type="DecisionTree" boostWeight="1.0000000000000000e+00" itree="191">
      <Node pos="s" depth="0" NCoef="0" IVar="5" Cut="2.3093121051788330e+00" cType="1" res="8.6258510127663612e-03" rms="4.6328961849212646e-01" purity="4.9938744306564331e-01" nType="0">
        <Node pos="l" depth="1" NCoef="0" IVar="6" Cut="1.8757408857345581e+00" cType="1" res="3.1955953687429428e-02" rms="4.6589627861976624e-01" purity="5.5944579839706421e-01" nType="0">
          <Node pos="l" depth="2" NCoef="0" IVar="-1" Cut="0.0000000000000000e+00" cType="1" res="-1.0026689851656556e-03" rms="4.6911767125129700e-01" purity="3.5620561242103577e-01" nType="-99"/>
          <Node pos="r" depth="2" NCoef="0" IVar="-1" Cut="0.0000000000000000e+00" cType="1" res="1.3008984969928861e-03" rms="4.6313428878784180e-01" purity="6.2688326835632324e-01" nType="-99"/>
        </Node>
        <Node pos="r" depth="1" NCoef="0" IVar="5" Cut="2.8810186386108398e+00" cType="1" res="-3.2211489975452423e-02" rms="4.5582586526870728e-01" purity="3.9426055550575256e-01" nType="0">
          <Node pos="l" depth="2" NCoef="0" IVar="-1" Cut="0.0000000000000000e+00" cType="1" res="-5.4932042257860303e-04" rms="4.6359086036682129e-01" purity="4.2573365569114685e-01" nType="-99"/>
          <Node pos="r" depth="2" NCoef="0" IVar="-1" Cut="0.0000000000000000e+00" cType="1" res="-6.0819946229457855e-03" rms="3.9655840396881104e-01" purity="2.1221195161342621e-01" nType="-99"/>
        </Node>
      </Node>
    </BinaryTree>
    <BinaryTree type="DecisionTree" boostWeight="1.0000000000000000e+00" itree="192">
      <Node pos="s" depth="0" NCoef="0" IVar="2" Cut="9.1000097990036011e-01" cType="1" res="6.0074781067669392e-03" rms="4.6228781342506409e-01" purity="4.9680680036544800e-01" nType="0">
        <Node pos="l" depth="1" NCoef="0" IVar="6" Cut="1.4119824171066284e+00" cType="1" res="2.8050860390067101e-02" rms="4.6271663904190063e-01" purity="5.3276532888412476e-01" nType="0">
          <Node pos="l" depth="2" NCoef="0" IVar="-1" Cut="0.0000000000000000e+00" cType="1" res="-2.2485000081360340e-03" rms="4.4403520226478577e-01" purity="3.0029809474945068e-01" nType="-99"/>
          <Node pos="r" depth="2" NCoef="0" IVar="-1" Cut="0.0000000000000000e+00" cType="1" res="1.1443572584539652e-03" rms="4.6449735760688782e-01" purity="5.7520717382431030e-01" nType="-99"/>
        </Node>
        <Node pos="r" depth="1" NCoef="0" IVar="7" Cut="1.4645412564277649e-01" cType="1" res="-3.7733353674411774e-02" rms="4.5830720663070679e-01" purity="4.2545396089553833e-01" nType="0">
          <Node pos="l" depth="2" NCoef="0" IVar="-1" Cut="0.0000000000000000e+00" cType="1" res="-2.1299298387020826e-03" rms="4.5204991102218628e-01" purity="3.9112323522567749e-01" nType="-99"/>
          <Node pos="r" depth="2" NCoef="0" IVar="-1" Cut="0.0000000000000000e+00" cType="1" res="1.1554420925676823e-03" rms="4.6951949596405029e-01" purity="5.3807151317596436e-01" nType="-99"/>
        </Node>
      </Node>
    </BinaryTree>
    <BinaryTree type="DecisionTree" boostWeight="1.0000000000000000e+00" itree="193">
      <Node pos="s" depth="0" NCoef="0" IVar="5" Cut="2.2158446311950684e+00" cType="1" res="1.1238826438784599e-02" rms="4.6401894092559814e-01" purity="4.9969959259033203e-01" nType="0">
        <Node pos="l" depth="1" NCoef="0" IVar="1" Cut="4.7187979125976562e+02" cType="1" res="3.8382474333047867e-02" rms="4.6466386318206787e-01" purity="5.6717324256896973e-01" nType="0">
          <Node pos="l" depth="2" NCoef="0" IVar="-1" Cut="0.0000000000000000e+00" cType="1" res="-2.6950397295877337e-04" rms="4.6652063727378845e-01" purity="4.4394576549530029e-01" nType="-99"/>
          <Node pos="r" depth="2" NCoef="0" IVar="-1" Cut="0.0000000000000000e+00" cType="1" res="1.5635194722563028e-03" rms="4.6185642480850220e-01" purity="6.3031697273254395e-01" nType="-99"/>
        </Node>
        <Node pos="r" depth="1" NCoef="0" IVar="5" Cut="2.7320361137390137e+00" cType="1" res="-1.8046949058771133e-02" rms="4.6153530478477478e-01" purity="4.2690107226371765e-01" nType="0">
          <Node pos="l" depth="2" NCoef="0" IVar="-1" Cut="0.0000000000000000e+00" cType="1" res="-1.0603627015370876e-04" rms="4.6921914815902710e-01" purity="4.6591505408287048e-01" nType="-99"/>
          <Node pos="r" depth="2" NCoef="0" IVar="-1" Cut="0.0000000000000000e+00" cType="1" res="-3.5210391506552696e-03" rms="4.2251589894294739e-01" purity="2.6389729976654053e-01" nType="-99"/>
        </Node>
      </Node>
    </BinaryTree>
    <BinaryTree type="DecisionTree" boostWeight="1.0000000000000000e+00" itree="194">
      <Node pos="s" depth="0" NCoef="0" IVar="6" Cut="4.8793768882751465e+00" cType="1" res="8.5798259824514389e-03" rms="4.6128708124160767e-01" purity="4.9910247325897217e-01" nType="0">
        <Node pos="l" depth="1" NCoef="0" IVar="1" Cut="3.8231021118164062e+02" cType="1" res="-3.8771138060837984e-03" rms="4.6739393472671509e-01" purity="4.6256241202354431e-01" nType="0">
          <Node pos="l" depth="2" NCoef="0" IVar="-1" Cut="0.0000000000000000e+00" cType="1" res="-4.0055536665022373e-03" rms="4.1781961917877197e-01" purity="2.5611716508865356e-01" nType="-99"/>
          <Node pos="r" depth="2" NCoef="0" IVar="-1" Cut="0.0000000000000000e+00" cType="1" res="2.0096001389902085e-04" rms="4.7223687171936035e-01" purity="4.8877754807472229e-01" nType="-99"/>
        </Node>
        <Node pos="r" depth="1" NCoef="0" IVar="-1" Cut="0.0000000000000000e+00" cType="1" res="2.5678044185042381e-03" rms="3.9365732669830322e-01" purity="7.9702085256576538e-01" nType="-99"/>
      </Node>
    </BinaryTree>
    <BinaryTree type="DecisionTree" boostWeight="1.0000000000000000e+00" itree="195">
      <Node pos="s" depth="0" NCoef="0" IVar="1" Cut="5.2029980468750000e+02" cType="1" res="1.2271953746676445e-02" rms="4.6385574340820312e-01" purity="5.0344306230545044e-01" nType="0">
        <Node pos="l" depth="1" NCoef="0" IVar="7" Cut="-8.2176312804222107e-02" cType="1" res="-1.7586657777428627e-02" rms="4.5765566825866699e-01" purity="4.1620111465454102e-01" nType="0">
          <Node pos="l" depth="2" NCoef="0" IVar="-1" Cut="0.0000000000000000e+00" cType="1" res="-3.3645140938460827e-03" rms="4.3396383523941040e-01" purity="3.1339028477668762e-01" nType="-99"/>
          <Node pos="r" depth="2" NCoef="0" IVar="-1" Cut="0.0000000000000000e+00" cType="1" res="-1.0048721014754847e-04" rms="4.6137720346450806e-01" purity="4.3853881955146790e-01" nType="-99"/>
        </Node>
        <Node pos="r" depth="1" NCoef="0" IVar="8" Cut="9.2205047607421875e+01" cType="1" res="4.0534593164920807e-02" rms="4.6789693832397461e-01" purity="5.8602190017700195e-01" nType="0">
          <Node pos="l" depth="2" NCoef="0" IVar="-1" Cut="0.0000000000000000e+00" cType="1" res="-1.5909405192360282e-03" rms="4.7312107682228088e-01" purity="4.8926386237144470e-01" nType="-99"/>
          <Node pos="r" depth="2" NCoef="0" IVar="-1" Cut="0.0000000000000000e+00" cType="1" res="1.3313080416992307e-03" rms="4.6613058447837830e-01" purity="5.9688174724578857e-01" nType="-99"/>
        </Node>
      </Node>
    </BinaryTree>
    <BinaryTree type="DecisionTree" boostWeight="1.0000000000000000e+00" itree="196">
      <Node pos="s" depth="0" NCoef="0" IVar="1" Cut="4.9818945312500000e+02" cType="1" res="6.9392649456858635e-03" rms="4.6338495612144470e-01" purity="4.9811372160911560e-01" nType="0">
        <Node pos="l" depth="1" NCoef="0" IVar="2" Cut="9.8783099651336670e-01" cType="1" res="-2.8808303177356720e-02" rms="4.5602199435234070e-01" purity="3.9431008696556091e-01" nType="0">
          <Node pos="l" depth="2" NCoef="0" IVar="-1" Cut="0.0000000000000000e+00" cType="1" res="-3.3539187279529870e-04" rms="4.6008792519569397e-01" purity="4.2328217625617981e-01" nType="-99"/>
          <Node pos="r" depth="2" NCoef="0" IVar="-1" Cut="0.0000000000000000e+00" cType="1" res="-3.0899704433977604e-03" rms="4.4107532501220703e-01" purity="3.1661477684974670e-01" nType="-99"/>
        </Node>
        <Node pos="r" depth="1" NCoef="0" IVar="5" Cut="2.4935643672943115e+00" cType="1" res="3.3348668366670609e-02" rms="4.6699604392051697e-01" purity="5.7480126619338989e-01" nType="0">
          <Node pos="l" depth="2" NCoef="0" IVar="-1" Cut="0.0000000000000000e+00" cType="1" res="1.2605774682015181e-03" rms="4.6592220664024353e-01" purity="6.1307847499847412e-01" nType="-99"/>
          <Node pos="r" depth="2" NCoef="0" IVar="-1" Cut="0.0000000000000000e+00" cType="1" res="-1.2635902967303991e-03" rms="4.6526968479156494e-01" purity="3.9934116601943970e-01" nType="-99"/>
        </Node>
      </Node>
    </BinaryTree>
    <BinaryTree type="DecisionTree" boostWeight="1.0000000000000000e+00" itree="197">
      <Node pos="s" depth="0" NCoef="0" IVar="2" Cut="8.3492112159729004e-01" cType="1" res="1.1471020989120007e-02" rms="4.6354761719703674e-01" purity="5.0213366746902466e-01" nType="0">
        <Node pos="l" depth="1" NCoef="0" IVar="8" Cut="9.2307037353515625e+01" cType="1" res="3.8347739726305008e-02" rms="4.6375283598899841e-01" purity="5.4717195034027100e-01" nType="0">
          <Node pos="l" depth="2" NCoef="0" IVar="-1" Cut="0.0000000000000000e+00" cType="1" res="-1.5685715479776263e-03" rms="4.6111190319061279e-01" purity="4.5153683423995972e-01" nType="-99"/>
          <Node pos="r" depth="2" NCoef="0" IVar="-1" Cut="0.0000000000000000e+00" cType="1" res="1.3367519713938236e-03" rms="4.6297118067741394e-01" purity="5.5816078186035156e-01" nType="-99"/>
        </Node>
        <Node pos="r" depth="1" NCoef="0" IVar="7" Cut="5.3231649100780487e-02" cType="1" res="-2.5323428213596344e-02" rms="4.6073108911514282e-01" purity="4.4047585129737854e-01" nType="0">
          <Node pos="l" depth="2" NCoef="0" IVar="-1" Cut="0.0000000000000000e+00" cType="1" res="-1.9902847707271576e-03" rms="4.5195099711418152e-01" purity="3.8852018117904663e-01" nType="-99"/>
          <Node pos="r" depth="2" NCoef="0" IVar="-1" Cut="0.0000000000000000e+00" cType="1" res="4.5168880023993552e-04" rms="4.6847909688949585e-01" purity="5.0664830207824707e-01" nType="-99"/>
        </Node>
      </Node>
    </BinaryTree>
    <BinaryTree type="DecisionTree" boostWeight="1.0000000000000000e+00" itree="198">
      <Node pos="s" depth="0" NCoef="0" IVar="6" Cut="2.7001657485961914e+00" cType="1" res="1.4522162266075611e-02" rms="4.6160420775413513e-01" purity="5.0751584768295288e-01" nType="0">
        <Node pos="l" depth="1" NCoef="0" IVar="3" Cut="1.9957390427589417e-01" cType="1" res="-1.8907785415649414e-02" rms="4.6193921566009521e-01" purity="3.6372461915016174e-01" nType="0">
          <Node pos="l" depth="2" NCoef="0" IVar="-1" Cut="0.0000000000000000e+00" cType="1" res="8.2837563240900636e-04" rms="4.6710160374641418e-01" purity="3.9371109008789062e-01" nType="-99"/>
          <Node pos="r" depth="2" NCoef="0" IVar="-1" Cut="0.0000000000000000e+00" cType="1" res="-1.7173113301396370e-03" rms="4.5612987875938416e-01" purity="3.4304952621459961e-01" nType="-99"/>
        </Node>
        <Node pos="r" depth="1" NCoef="0" IVar="2" Cut="7.5175988674163818e-01" cType="1" res="4.5504014939069748e-02" rms="4.5912539958953857e-01" purity="6.4077705144882202e-01" nType="0">
          <Node pos="l" depth="2" NCoef="0" IVar="-1" Cut="0.0000000000000000e+00" cType="1" res="1.9552633166313171e-03" rms="4.4211673736572266e-01" purity="7.0044595003128052e-01" nType="-99"/>
          <Node pos="r" depth="2" NCoef="0" IVar="-1" Cut="0.0000000000000000e+00" cType="1" res="2.7501472504809499e-04" rms="4.7180050611495972e-01" purity="5.8502429723739624e-01" nType="-99"/>
        </Node>
      </Node>
    </BinaryTree>
    <BinaryTree type="DecisionTree" boostWeight="1.0000000000000000e+00" itree="199">
      <Node pos="s" depth="0" NCoef="0" IVar="6" Cut="1.9607962369918823e+00" cType="1" res="8.6761955171823502e-03" rms="4.6235716342926025e-01" purity="4.9983054399490356e-01" nType="0">
        <Node pos="l" depth="1" NCoef="0" IVar="4" Cut="1.0716579437255859e+02" cType="1" res="-4.0917556732892990e-02" rms="4.4611623883247375e-01" purity="3.0791687965393066e-01" nType="0">
          <Node pos="l" depth="2" NCoef="0" IVar="-1" Cut="0.0000000000000000e+00" cType="1" res="-2.4941319134086370e-03" rms="4.3446743488311768e-01" purity="2.7686107158660889e-01" nType="-99"/>
          <Node pos="r" depth="2" NCoef="0" IVar="-1" Cut="0.0000000000000000e+00" cType="1" res="5.1068334141746163e-04" rms="4.8085269331932068e-01" purity="4.1773498058319092e-01" nType="-99"/>
        </Node>
        <Node pos="r" depth="1" NCoef="0" IVar="3" Cut="2.0967923104763031e-01" cType="1" res="2.8287542983889580e-02" rms="4.6717390418052673e-01" purity="5.7572084665298462e-01" nType="0">
          <Node pos="l" depth="2" NCoef="0" IVar="-1" Cut="0.0000000000000000e+00" cType="1" res="3.2365466468036175e-03" rms="4.6808806061744690e-01" purity="5.9635066986083984e-01" nType="-99"/>
          <Node pos="r" depth="2" NCoef="0" IVar="-1" Cut="0.0000000000000000e+00" cType="1" res="4.4105001143179834e-04" rms="4.6569365262985229e-01" purity="5.7321226596832275e-01" nType="-99"/>
        </Node>
      </Node>
    </BinaryTree>
    <BinaryTree type="DecisionTree" boostWeight="1.0000000000000000e+00" itree="200">
      <Node pos="s" depth="0" NCoef="0" IVar="2" Cut="6.6034024953842163e-01" cType="1" res="1.0741556063294411e-02" rms="4.6345701813697815e-01" purity="5.0123113393783569e-01" nType="0">
        <Node pos="l" depth="1" NCoef="0" IVar="6" Cut="1.4237102270126343e+00" cType="1" res="5.5035952478647232e-02" rms="4.6039405465126038e-01" purity="5.7884252071380615e-01" nType="0">
          <Node pos="l" depth="2" NCoef="0" IVar="-1" Cut="0.0000000000000000e+00" cType="1" res="-6.9807143881917000e-04" rms="4.6036615967750549e-01" purity="3.4953591227531433e-01" nType="-99"/>
          <Node pos="r" depth="2" NCoef="0" IVar="-1" Cut="0.0000000000000000e+00" cType="1" res="1.7348384717479348e-03" rms="4.5913049578666687e-01" purity="6.2063717842102051e-01" nType="-99"/>
        </Node>
        <Node pos="r" depth="1" NCoef="0" IVar="7" Cut="8.8716685771942139e-02" cType="1" res="-1.4566965401172638e-02" rms="4.6330085396766663e-01" purity="4.5688617229461670e-01" nType="0">
          <Node pos="l" depth="2" NCoef="0" IVar="-1" Cut="0.0000000000000000e+00" cType="1" res="-1.2961614411324263e-03" rms="4.5833119750022888e-01" purity="4.1734650731086731e-01" nType="-99"/>
          <Node pos="r" depth="2" NCoef="0" IVar="-1" Cut="0.0000000000000000e+00" cType="1" res="9.3517923960462213e-04" rms="4.6906057000160217e-01" purity="5.3323918581008911e-01" nType="-99"/>
        </Node>
      </Node>
    </BinaryTree>
    <BinaryTree type="DecisionTree" boostWeight="1.0000000000000000e+00" itree="201">
      <Node pos="s" depth="0" NCoef="0" IVar="7" Cut="-1.1109209805727005e-01" cType="1" res="1.2107466347515583e-02" rms="4.6415463089942932e-01" purity="5.0313061475753784e-01" nType="0">
        <Node pos="l" depth="1" NCoef="0" IVar="-1" Cut="0.0000000000000000e+00" cType="1" res="-4.1913930326700211e-03" rms="4.4349807500839233e-01" purity="3.4864020347595215e-01" nType="-99"/>
        <Node pos="r" depth="1" NCoef="0" IVar="6" Cut="2.1462173461914062e+00" cType="1" res="2.0973362028598785e-02" rms="4.6428698301315308e-01" purity="5.1399827003479004e-01" nType="0">
          <Node pos="l" depth="2" NCoef="0" IVar="-1" Cut="0.0000000000000000e+00" cType="1" res="-6.8527553230524063e-04" rms="4.5823651552200317e-01" purity="3.3741024136543274e-01" nType="-99"/>
          <Node pos="r" depth="2" NCoef="0" IVar="-1" Cut="0.0000000000000000e+00" cType="1" res="1.0388320079073310e-03" rms="4.6607619524002075e-01" purity="6.0228818655014038e-01" nType="-99"/>
        </Node>
      </Node>
    </BinaryTree>
    <BinaryTree type="DecisionTree" boostWeight="1.0000000000000000e+00" itree="202">
      <Node pos="s" depth="0" NCoef="0" IVar="6" Cut="4.9762382507324219e+00" cType="1" res="8.4498999640345573e-03" rms="4.6375507116317749e-01" purity="5.0024956464767456e-01" nType="0">
        <Node pos="l" depth="1" NCoef="0" IVar="4" Cut="8.5940124511718750e+01" cType="1" res="-1.1941058328375220e-03" rms="4.6926504373550415e-01" purity="4.6935847401618958e-01" nType="0">
          <Node pos="l" depth="2" NCoef="0" IVar="-1" Cut="0.0000000000000000e+00" cType="1" res="-7.0553808473050594e-04" rms="4.6477502584457397e-01" purity="4.3006244301795959e-01" nType="-99"/>
          <Node pos="r" depth="2" NCoef="0" IVar="-1" Cut="0.0000000000000000e+00" cType="1" res="9.7947893664240837e-04" rms="4.7491684556007385e-01" purity="5.3926295042037964e-01" nType="-99"/>
        </Node>
        <Node pos="r" depth="1" NCoef="0" IVar="-1" Cut="0.0000000000000000e+00" cType="1" res="2.3725479841232300e-03" rms="3.9615774154663086e-01" purity="7.9376518726348877e-01" nType="-99"/>
      </Node>
    </BinaryTree>
    <BinaryTree type="DecisionTree" boostWeight="1.0000000000000000e+00" itree="203">
      <Node pos="s" depth="0" NCoef="0" IVar="1" Cut="3.9864895629882812e+02" cType="1" res="8.0397306010127068e-03" rms="4.6242436766624451e-01" purity="4.9877730011940002e-01" nType="0">
        <Node pos="l" depth="1" NCoef="0" IVar="1" Cut="3.6701428222656250e+02" cType="1" res="-6.2769532203674316e-02" rms="4.2878794670104980e-01" purity="3.0538412928581238e-01" nType="0">
          <Node pos="l" depth="2" NCoef="0" IVar="-1" Cut="0.0000000000000000e+00" cType="1" res="-3.9912587963044643e-03" rms="4.1191804409027100e-01" purity="2.6906108856201172e-01" nType="-99"/>
          <Node pos="r" depth="2" NCoef="0" IVar="-1" Cut="0.0000000000000000e+00" cType="1" res="-1.3091840082779527e-03" rms="4.4411930441856384e-01" purity="3.4365126490592957e-01" nType="-99"/>
        </Node>
        <Node pos="r" depth="1" NCoef="0" IVar="5" Cut="2.2230019569396973e+00" cType="1" res="2.0231099799275398e-02" rms="4.6688932180404663e-01" purity="5.3207421302795410e-01" nType="0">
          <Node pos="l" depth="2" NCoef="0" IVar="-1" Cut="0.0000000000000000e+00" cType="1" res="1.2730485759675503e-03" rms="4.6518510580062866e-01" purity="5.9794521331787109e-01" nType="-99"/>
          <Node pos="r" depth="2" NCoef="0" IVar="-1" Cut="0.0000000000000000e+00" cType="1" res="-4.2632393888197839e-04" rms="4.6662577986717224e-01" purity="4.5438152551651001e-01" nType="-99"/>
        </Node>
      </Node>
    </BinaryTree>
    <BinaryTree type="DecisionTree" boostWeight="1.0000000000000000e+00" itree="204">
      <Node pos="s" depth="0" NCoef="0" IVar="6" Cut="4.9568772315979004e+00" cType="1" res="1.3991457410156727e-02" rms="4.6313586831092834e-01" purity="5.0619637966156006e-01" nType="0">
        <Node pos="l" depth="1" NCoef="0" IVar="1" Cut="7.1475122070312500e+02" cType="1" res="3.5901092924177647e-03" rms="4.6941334009170532e-01" purity="4.7336170077323914e-01" nType="0">
          <Node pos="l" depth="2" NCoef="0" IVar="-1" Cut="0.0000000000000000e+00" cType="1" res="-3.0550122028216720e-04" rms="4.6801665425300598e-01" purity="4.4414687156677246e-01" nType="-99"/>
          <Node pos="r" depth="2" NCoef="0" IVar="-1" Cut="0.0000000000000000e+00" cType="1" res="1.6220010584220290e-03" rms="4.7102978825569153e-01" purity="6.0384970903396606e-01" nType="-99"/>
        </Node>
        <Node pos="r" depth="1" NCoef="0" IVar="-1" Cut="0.0000000000000000e+00" cType="1" res="2.5203127879649401e-03" rms="3.8986241817474365e-01" purity="8.0203497409820557e-01" nType="-99"/>
      </Node>
    </BinaryTree>
    <BinaryTree type="DecisionTree" boostWeight="1.0000000000000000e+00" itree="205">
      <Node pos="s" depth="0" NCoef="0" IVar="6" Cut="4.2958846092224121e+00" cType="1" res="1.2282492825761437e-03" rms="4.6304145455360413e-01" purity="4.9333089590072632e-01" nType="0">
        <Node pos="l" depth="1" NCoef="0" IVar="3" Cut="5.3808635473251343e-01" cType="1" res="-1.4526918530464172e-02" rms="4.7034949064254761e-01" purity="4.3403103947639465e-01" nType="0">
          <Node pos="l" depth="2" NCoef="0" IVar="-1" Cut="0.0000000000000000e+00" cType="1" res="6.0622558521572500e-05" rms="4.6659001708030701e-01" purity="4.2753550410270691e-01" nType="-99"/>
          <Node pos="r" depth="2" NCoef="0" IVar="-1" Cut="0.0000000000000000e+00" cType="1" res="-2.4269416462630033e-03" rms="4.7974601387977600e-01" purity="4.6133747696876526e-01" nType="-99"/>
        </Node>
        <Node pos="r" depth="1" NCoef="0" IVar="6" Cut="5.1103444099426270e+00" cType="1" res="6.8695984780788422e-02" rms="4.2377132177352905e-01" purity="7.4726843833923340e-01" nType="0">
          <Node pos="l" depth="2" NCoef="0" IVar="-1" Cut="0.0000000000000000e+00" cType="1" res="9.0898800408467650e-04" rms="4.4718259572982788e-01" purity="7.0213419198989868e-01" nType="-99"/>
          <Node pos="r" depth="2" NCoef="0" IVar="-1" Cut="0.0000000000000000e+00" cType="1" res="2.5175553746521473e-03" rms="3.8970661163330078e-01" purity="8.0260676145553589e-01" nType="-99"/>
        </Node>
      </Node>
    </BinaryTree>
    <BinaryTree type="DecisionTree" boostWeight="1.0000000000000000e+00" itree="206">
      <Node pos="s" depth="0" NCoef="0" IVar="1" Cut="4.9956903076171875e+02" cType="1" res="8.4045911207795143e-03" rms="4.6245789527893066e-01" purity="4.9989715218544006e-01" nType="0">
        <Node pos="l" depth="1" NCoef="0" IVar="7" Cut="-8.8536985218524933e-02" cType="1" res="-2.7860773727297783e-02" rms="4.5474949479103088e-01" purity="3.9328661561012268e-01" nType="0">
          <Node pos="l" depth="2" NCoef="0" IVar="-1" Cut="0.0000000000000000e+00" cType="1" res="-4.2022638954222202e-03" rms="4.2583778500556946e-01" purity="2.7882435917854309e-01" nType="-99"/>
          <Node pos="r" depth="2" NCoef="0" IVar="-1" Cut="0.0000000000000000e+00" cType="1" res="-5.2174186566844583e-04" rms="4.5848754048347473e-01" purity="4.1318383812904358e-01" nType="-99"/>
        </Node>
        <Node pos="r" depth="1" NCoef="0" IVar="7" Cut="4.2825978249311447e-02" cType="1" res="3.5185206681489944e-02" rms="4.6626171469688416e-01" purity="5.7862514257431030e-01" nType="0">
          <Node pos="l" depth="2" NCoef="0" IVar="-1" Cut="0.0000000000000000e+00" cType="1" res="2.7244206285104156e-04" rms="4.6793308854103088e-01" purity="5.4278755187988281e-01" nType="-99"/>
          <Node pos="r" depth="2" NCoef="0" IVar="-1" Cut="0.0000000000000000e+00" cType="1" res="1.8468428170308471e-03" rms="4.6117222309112549e-01" purity="6.3210248947143555e-01" nType="-99"/>
        </Node>
      </Node>
    </BinaryTree>
    <BinaryTree type="DecisionTree" boostWeight="1.0000000000000000e+00" itree="207">
      <Node pos="s" depth="0" NCoef="0" IVar="6" Cut="1.2982071638107300e+00" cType="1" res="1.1289684101939201e-02" rms="4.6329471468925476e-01" purity="5.0212341547012329e-01" nType="0">
        <Node pos="l" depth="1" NCoef="0" IVar="3" Cut="1.7129921913146973e-01" cType="1" res="-6.2332585453987122e-02" rms="4.3132001161575317e-01" purity="2.7469721436500549e-01" nType="0">
          <Node pos="l" depth="2" NCoef="0" IVar="-1" Cut="0.0000000000000000e+00" cType="1" res="-1.5245842514559627e-03" rms="4.4735336303710938e-01" purity="3.0724909901618958e-01" nType="-99"/>
          <Node pos="r" depth="2" NCoef="0" IVar="-1" Cut="0.0000000000000000e+00" cType="1" res="-4.8009222373366356e-03" rms="4.0463140606880188e-01" purity="2.2877034544944763e-01" nType="-99"/>
        </Node>
        <Node pos="r" depth="1" NCoef="0" IVar="3" Cut="1.7095439136028290e-01" cType="1" res="2.2078413516283035e-02" rms="4.6682238578796387e-01" purity="5.3545087575912476e-01" nType="0">
          <Node pos="l" depth="2" NCoef="0" IVar="-1" Cut="0.0000000000000000e+00" cType="1" res="3.3432410564273596e-03" rms="4.8036885261535645e-01" purity="5.3627568483352661e-01" nType="-99"/>
          <Node pos="r" depth="2" NCoef="0" IVar="-1" Cut="0.0000000000000000e+00" cType="1" res="3.2928292057476938e-04" rms="4.6415174007415771e-01" purity="5.3535974025726318e-01" nType="-99"/>
        </Node>
      </Node>
    </BinaryTree>
    <BinaryTree type="DecisionTree" boostWeight="1.0000000000000000e+00" itree="208">
      <Node pos="s" depth="0" NCoef="0" IVar="7" Cut="-1.1464349180459976e-01" cType="1" res="8.9891925454139709e-03" rms="4.6414268016815186e-01" purity="4.9972352385520935e-01" nType="0">
        <Node pos="l" depth="1" NCoef="0" IVar="-1" Cut="0.0000000000000000e+00" cType="1" res="-3.6462992429733276e-03" rms="4.4549265503883362e-01" purity="3.6662384867668152e-01" nType="-99"/>
        <Node pos="r" depth="1" NCoef="0" IVar="1" Cut="6.9920013427734375e+02" cType="1" res="1.5662370249629021e-02" rms="4.6439966559410095e-01" purity="5.0774341821670532e-01" nType="0">
          <Node pos="l" depth="2" NCoef="0" IVar="-1" Cut="0.0000000000000000e+00" cType="1" res="8.9863809989765286e-05" rms="4.6431535482406616e-01" purity="4.7747293114662170e-01" nType="-99"/>
          <Node pos="r" depth="2" NCoef="0" IVar="-1" Cut="0.0000000000000000e+00" cType="1" res="1.7408712301403284e-03" rms="4.6099522709846497e-01" purity="6.3381391763687134e-01" nType="-99"/>
        </Node>
      </Node>
    </BinaryTree>
    <BinaryTree type="DecisionTree" boostWeight="1.0000000000000000e+00" itree="209">
      <Node pos="s" depth="0" NCoef="0" IVar="6" Cut="4.5960006713867188e+00" cType="1" res="1.0339452885091305e-02" rms="4.6339875459671021e-01" purity="5.0354784727096558e-01" nType="0">
        <Node pos="l" depth="1" NCoef="0" IVar="1" Cut="5.9731152343750000e+02" cType="1" res="-1.2553787091746926e-03" rms="4.7044759988784790e-01" purity="4.5941019058227539e-01" nType="0">
          <Node pos="l" depth="2" NCoef="0" IVar="-1" Cut="0.0000000000000000e+00" cType="1" res="-6.6969642648473382e-04" rms="4.6502104401588440e-01" purity="4.0606704354286194e-01" nType="-99"/>
          <Node pos="r" depth="2" NCoef="0" IVar="-1" Cut="0.0000000000000000e+00" cType="1" res="9.4131560763344169e-04" rms="4.7863435745239258e-01" purity="5.6250447034835815e-01" nType="-99"/>
        </Node>
        <Node pos="r" depth="1" NCoef="0" IVar="-1" Cut="0.0000000000000000e+00" cType="1" res="1.9241690170019865e-03" rms="4.1181430220603943e-01" purity="7.6840370893478394e-01" nType="-99"/>
      </Node>
    </BinaryTree>
    <BinaryTree type="DecisionTree" boostWeight="1.0000000000000000e+00" itree="210">
      <Node pos="s" depth="0" NCoef="0" IVar="2" Cut="6.2459170818328857e-01" cType="1" res="5.5168289691209793e-03" rms="4.6359279751777649e-01" purity="4.9544146656990051e-01" nType="0">
        <Node pos="l" depth="1" NCoef="0" IVar="5" Cut="2.2906768321990967e+00" cType="1" res="4.6607598662376404e-02" rms="4.6092590689659119e-01" purity="5.7141023874282837e-01" nType="0">
          <Node pos="l" depth="2" NCoef="0" IVar="-1" Cut="0.0000000000000000e+00" cType="1" res="1.7520111287012696e-03" rms="4.5714443922042847e-01" purity="6.1239606142044067e-01" nType="-99"/>
          <Node pos="r" depth="2" NCoef="0" IVar="-1" Cut="0.0000000000000000e+00" cType="1" res="-5.2400800632312894e-04" rms="4.6671617031097412e-01" purity="4.4561725854873657e-01" nType="-99"/>
        </Node>
        <Node pos="r" depth="1" NCoef="0" IVar="7" Cut="4.0989663451910019e-02" cType="1" res="-1.3114130124449730e-02" rms="4.6359845995903015e-01" purity="4.6099647879600525e-01" nType="0">
          <Node pos="l" depth="2" NCoef="0" IVar="-1" Cut="0.0000000000000000e+00" cType="1" res="-1.4999269042164087e-03" rms="4.5697242021560669e-01" purity="4.0912199020385742e-01" nType="-99"/>
          <Node pos="r" depth="2" NCoef="0" IVar="-1" Cut="0.0000000000000000e+00" cType="1" res="7.1137689519673586e-04" rms="4.6859735250473022e-01" purity="5.2319598197937012e-01" nType="-99"/>
        </Node>
      </Node>
    </BinaryTree>
    <BinaryTree type="DecisionTree" boostWeight="1.0000000000000000e+00" itree="211">
      <Node pos="s" depth="0" NCoef="0" IVar="7" Cut="-8.8139541447162628e-02" cType="1" res="1.0291983373463154e-02" rms="4.6374306082725525e-01" purity="5.0146877765655518e-01" nType="0">
        <Node pos="l" depth="1" NCoef="0" IVar="9" Cut="8.8807708740234375e+01" cType="1" res="-5.5832896381616592e-02" rms="4.4996231794357300e-01" purity="4.0689301490783691e-01" nType="0">
          <Node pos="l" depth="2" NCoef="0" IVar="-1" Cut="0.0000000000000000e+00" cType="1" res="-4.1569406166672707e-03" rms="4.3553844094276428e-01" purity="3.4220296144485474e-01" nType="-99"/>
          <Node pos="r" depth="2" NCoef="0" IVar="-1" Cut="0.0000000000000000e+00" cType="1" res="-8.5406738799065351e-04" rms="4.5422008633613586e-01" purity="4.3960413336753845e-01" nType="-99"/>
        </Node>
        <Node pos="r" depth="1" NCoef="0" IVar="1" Cut="5.8046118164062500e+02" cType="1" res="2.2719928994774818e-02" rms="4.6523961424827576e-01" purity="5.1924395561218262e-01" nType="0">
          <Node pos="l" depth="2" NCoef="0" IVar="-1" Cut="0.0000000000000000e+00" cType="1" res="9.0949906734749675e-05" rms="4.6464970707893372e-01" purity="4.6175900101661682e-01" nType="-99"/>
          <Node pos="r" depth="2" NCoef="0" IVar="-1" Cut="0.0000000000000000e+00" cType="1" res="1.4400099171325564e-03" rms="4.6431121230125427e-01" purity="6.1683136224746704e-01" nType="-99"/>
        </Node>
      </Node>
    </BinaryTree>
    <BinaryTree type="DecisionTree" boostWeight="1.0000000000000000e+00" itree="212">
      <Node pos="s" depth="0" NCoef="0" IVar="2" Cut="7.7054268121719360e-01" cType="1" res="8.9840209111571312e-03" rms="4.6295017004013062e-01" purity="5.0097662210464478e-01" nType="0">
        <Node pos="l" depth="1" NCoef="0" IVar="6" Cut="3.4455051422119141e+00" cType="1" res="3.9343219250440598e-02" rms="4.6123394370079041e-01" purity="5.5653572082519531e-01" nType="0">
          <Node pos="l" depth="2" NCoef="0" IVar="-1" Cut="0.0000000000000000e+00" cType="1" res="4.6066497452557087e-04" rms="4.7764539718627930e-01" purity="4.5148292183876038e-01" nType="-99"/>
          <Node pos="r" depth="2" NCoef="0" IVar="-1" Cut="0.0000000000000000e+00" cType="1" res="1.9262585556134582e-03" rms="4.2762678861618042e-01" purity="7.4063736200332642e-01" nType="-99"/>
        </Node>
        <Node pos="r" depth="1" NCoef="0" IVar="7" Cut="-5.8462806046009064e-02" cType="1" res="-2.1330613642930984e-02" rms="4.6267411112785339e-01" purity="4.4549897313117981e-01" nType="0">
          <Node pos="l" depth="2" NCoef="0" IVar="-1" Cut="0.0000000000000000e+00" cType="1" res="-3.4576677717268467e-03" rms="4.4099235534667969e-01" purity="3.3380040526390076e-01" nType="-99"/>
          <Node pos="r" depth="2" NCoef="0" IVar="-1" Cut="0.0000000000000000e+00" cType="1" res="5.7350083807250485e-05" rms="4.6745100617408752e-01" purity="4.8306295275688171e-01" nType="-99"/>
        </Node>
      </Node>
    </BinaryTree>
    <BinaryTree type="DecisionTree" boostWeight="1.0000000000000000e+00" itree="213">
      <Node pos="s" depth="0" NCoef="0" IVar="6" Cut="4.5837841033935547e+00" cType="1" res="5.0436002202332020e-03" rms="4.6273088455200195e-01" purity="4.9648627638816833e-01" nType="0">
        <Node pos="l" depth="1" NCoef="0" IVar="7" Cut="6.7131236195564270e-02" cType="1" res="-6.5298769623041153e-03" rms="4.6925514936447144e-01" purity="4.5199009776115417e-01" nType="0">
          <Node pos="l" depth="2" NCoef="0" IVar="-1" Cut="0.0000000000000000e+00" cType="1" res="-7.9573655966669321e-04" rms="4.6464881300926208e-01" purity="4.2275527119636536e-01" nType="-99"/>
          <Node pos="r" depth="2" NCoef="0" IVar="-1" Cut="0.0000000000000000e+00" cType="1" res="8.3403283497318625e-04" rms="4.7626250982284546e-01" purity="5.1018714904785156e-01" nType="-99"/>
        </Node>
        <Node pos="r" depth="1" NCoef="0" IVar="-1" Cut="0.0000000000000000e+00" cType="1" res="1.8097386928275228e-03" rms="4.1456955671310425e-01" purity="7.6427745819091797e-01" nType="-99"/>
      </Node>
    </BinaryTree>
    <BinaryTree type="DecisionTree" boostWeight="1.0000000000000000e+00" itree="214">
      <Node pos="s" depth="0" NCoef="0" IVar="6" Cut="1.7746524810791016e+00" cType="1" res="1.0774094611406326e-02" rms="4.6312212944030762e-01" purity="5.0190007686614990e-01" nType="0">
        <Node pos="l" depth="1" NCoef="0" IVar="3" Cut="1.8217416107654572e-01" cType="1" res="-3.9139788597822189e-02" rms="4.4706445932388306e-01" purity="3.0479270219802856e-01" nType="0">
          <Node pos="l" depth="2" NCoef="0" IVar="-1" Cut="0.0000000000000000e+00" cType="1" res="-1.9868418166879565e-04" rms="4.6228697896003723e-01" purity="3.4281340241432190e-01" nType="-99"/>
          <Node pos="r" depth="2" NCoef="0" IVar="-1" Cut="0.0000000000000000e+00" cType="1" res="-3.1432451214641333e-03" rms="4.2867851257324219e-01" purity="2.6695623993873596e-01" nType="-99"/>
        </Node>
        <Node pos="r" depth="1" NCoef="0" IVar="3" Cut="2.2903673350811005e-01" cType="1" res="2.6450127363204956e-02" rms="4.6695190668106079e-01" purity="5.6380391120910645e-01" nType="0">
          <Node pos="l" depth="2" NCoef="0" IVar="-1" Cut="0.0000000000000000e+00" cType="1" res="2.8817669954150915e-03" rms="4.7176441550254822e-01" purity="5.6336724758148193e-01" nType="-99"/>
          <Node pos="r" depth="2" NCoef="0" IVar="-1" Cut="0.0000000000000000e+00" cType="1" res="3.2723977346904576e-04" rms="4.6463856101036072e-01" purity="5.6388211250305176e-01" nType="-99"/>
        </Node>
      </Node>
    </BinaryTree>
    <BinaryTree type="DecisionTree" boostWeight="1.0000000000000000e+00" itree="215">
      <Node pos="s" depth="0" NCoef="0" IVar="6" Cut="3.4480304718017578e+00" cType="1" res="5.0065615214407444e-03" rms="4.6283575892448425e-01" purity="4.9567803740501404e-01" nType="0">
        <Node pos="l" depth="1" NCoef="0" IVar="3" Cut="3.6305296421051025e-01" cType="1" res="-1.5136578120291233e-02" rms="4.6840193867683411e-01" purity="3.9913254976272583e-01" nType="0">
          <Node pos="l" depth="2" NCoef="0" IVar="-1" Cut="0.0000000000000000e+00" cType="1" res="1.3966938422527164e-04" rms="4.6587893366813660e-01" purity="3.9856368303298950e-01" nType="-99"/>
          <Node pos="r" depth="2" NCoef="0" IVar="-1" Cut="0.0000000000000000e+00" cType="1" res="-1.8487012712284923e-03" rms="4.7119638323783875e-01" purity="4.0043312311172485e-01" nType="-99"/>
        </Node>
        <Node pos="r" depth="1" NCoef="0" IVar="3" Cut="5.5806082487106323e-01" cType="1" res="4.4303707778453827e-02" rms="4.4918677210807800e-01" purity="6.8402820825576782e-01" nType="0">
          <Node pos="l" depth="2" NCoef="0" IVar="-1" Cut="0.0000000000000000e+00" cType="1" res="2.1295393817126751e-03" rms="4.4172486662864685e-01" purity="7.0451205968856812e-01" nType="-99"/>
          <Node pos="r" depth="2" NCoef="0" IVar="-1" Cut="0.0000000000000000e+00" cType="1" res="6.8290083436295390e-04" rms="4.5061317086219788e-01" purity="6.7674267292022705e-01" nType="-99"/>
        </Node>
      </Node>
    </BinaryTree>
    <BinaryTree type="DecisionTree" boostWeight="1.0000000000000000e+00" itree="216">
      <Node pos="s" depth="0" NCoef="0" IVar="2" Cut="7.4081814289093018e-01" cType="1" res="1.1240335181355476e-02" rms="4.6293222904205322e-01" purity="5.0514310598373413e-01" nType="0">
        <Node pos="l" depth="1" NCoef="0" IVar="9" Cut="1.1911347961425781e+02" cType="1" res="4.4517878443002701e-02" rms="4.6259480714797974e-01" purity="5.6346434354782104e-01" nType="0">
          <Node pos="l" depth="2" NCoef="0" IVar="-1" Cut="0.0000000000000000e+00" cType="1" res="6.4888014458119869e-04" rms="4.6554359793663025e-01" purity="5.3416663408279419e-01" nType="-99"/>
          <Node pos="r" depth="2" NCoef="0" IVar="-1" Cut="0.0000000000000000e+00" cType="1" res="2.3555841762572527e-03" rms="4.5255583524703979e-01" purity="6.2717854976654053e-01" nType="-99"/>
        </Node>
        <Node pos="r" depth="1" NCoef="0" IVar="7" Cut="-3.4805864561349154e-03" cType="1" res="-1.7532167956233025e-02" rms="4.6129268407821655e-01" purity="4.5471724867820740e-01" nType="0">
          <Node pos="l" depth="2" NCoef="0" IVar="-1" Cut="0.0000000000000000e+00" cType="1" res="-2.1246827673166990e-03" rms="4.4960629940032959e-01" purity="3.8054263591766357e-01" nType="-99"/>
          <Node pos="r" depth="2" NCoef="0" IVar="-1" Cut="0.0000000000000000e+00" cType="1" res="3.8182002026587725e-04" rms="4.6706140041351318e-01" purity="5.0768190622329712e-01" nType="-99"/>
        </Node>
      </Node>
    </BinaryTree>
    <BinaryTree type="DecisionTree" boostWeight="1.0000000000000000e+00" itree="217">
      <Node pos="s" depth="0" NCoef="0" IVar="6" Cut="4.8831772804260254e+00" cType="1" res="9.8714027553796768e-03" rms="4.6339610219001770e-01" purity="5.0145691633224487e-01" nType="0">
        <Node pos="l" depth="1" NCoef="0" IVar="4" Cut="8.4853858947753906e+01" cType="1" res="3.5179161932319403e-04" rms="4.6933227777481079e-01" purity="4.6832808852195740e-01" nType="0">
          <Node pos="l" depth="2" NCoef="0" IVar="-1" Cut="0.0000000000000000e+00" cType="1" res="-6.9096800871193409e-04" rms="4.6453493833541870e-01" purity="4.2669025063514709e-01" nType="-99"/>
          <Node pos="r" depth="2" NCoef="0" IVar="-1" Cut="0.0000000000000000e+00" cType="1" res="1.0356509592384100e-03" rms="4.7517210245132446e-01" purity="5.4023033380508423e-01" nType="-99"/>
        </Node>
        <Node pos="r" depth="1" NCoef="0" IVar="-1" Cut="0.0000000000000000e+00" cType="1" res="2.2237275261431932e-03" rms="3.9867380261421204e-01" purity="7.8957259654998779e-01" nType="-99"/>
      </Node>
    </BinaryTree>
    <BinaryTree type="DecisionTree" boostWeight="1.0000000000000000e+00" itree="218">
      <Node pos="s" depth="0" NCoef="0" IVar="0" Cut="9.6636968851089478e-01" cType="1" res="1.0295302607119083e-02" rms="4.6410983800888062e-01" purity="5.0158518552780151e-01" nType="0">
        <Node pos="l" depth="1" NCoef="0" IVar="7" Cut="9.0147823095321655e-02" cType="1" res="4.3592419475317001e-02" rms="4.6588966250419617e-01" purity="5.5269479751586914e-01" nType="0">
          <Node pos="l" depth="2" NCoef="0" IVar="-1" Cut="0.0000000000000000e+00" cType="1" res="7.6503865420818329e-04" rms="4.6492448449134827e-01" purity="5.2897685766220093e-01" nType="-99"/>
          <Node pos="r" depth="2" NCoef="0" IVar="-1" Cut="0.0000000000000000e+00" cType="1" res="2.1580674219876528e-03" rms="4.6575930714607239e-01" purity="6.1004370450973511e-01" nType="-99"/>
        </Node>
        <Node pos="r" depth="1" NCoef="0" IVar="7" Cut="1.6931997239589691e-01" cType="1" res="-1.3885862194001675e-02" rms="4.6130901575088501e-01" purity="4.6446815133094788e-01" nType="0">
          <Node pos="l" depth="2" NCoef="0" IVar="-1" Cut="0.0000000000000000e+00" cType="1" res="-8.6575729073956609e-04" rms="4.5926979184150696e-01" purity="4.4557043910026550e-01" nType="-99"/>
          <Node pos="r" depth="2" NCoef="0" IVar="-1" Cut="0.0000000000000000e+00" cType="1" res="1.5701383817940950e-03" rms="4.6583080291748047e-01" purity="5.6813991069793701e-01" nType="-99"/>
        </Node>
      </Node>
    </BinaryTree>
    <BinaryTree type="DecisionTree" boostWeight="1.0000000000000000e+00" itree="219">
      <Node pos="s" depth="0" NCoef="0" IVar="0" Cut="1.0531220436096191e+00" cType="1" res="1.0890543460845947e-02" rms="4.6281638741493225e-01" purity="5.0258398056030273e-01" nType="0">
        <Node pos="l" depth="1" NCoef="0" IVar="6" Cut="2.1436417102813721e+00" cType="1" res="3.8714271038770676e-02" rms="4.6177768707275391e-01" purity="5.4850178956985474e-01" nType="0">
          <Node pos="l" depth="2" NCoef="0" IVar="-1" Cut="0.0000000000000000e+00" cType="1" res="-3.2029367866925895e-04" rms="4.6527659893035889e-01" purity="3.6063775420188904e-01" nType="-99"/>
          <Node pos="r" depth="2" NCoef="0" IVar="-1" Cut="0.0000000000000000e+00" cType="1" res="1.5351058682426810e-03" rms="4.5837393403053284e-01" purity="6.3818681240081787e-01" nType="-99"/>
        </Node>
        <Node pos="r" depth="1" NCoef="0" IVar="4" Cut="6.6811683654785156e+01" cType="1" res="-1.7047559842467308e-02" rms="4.6217471361160278e-01" purity="4.5647737383842468e-01" nType="0">
          <Node pos="l" depth="2" NCoef="0" IVar="-1" Cut="0.0000000000000000e+00" cType="1" res="-1.6926146345213056e-03" rms="4.5221936702728271e-01" purity="3.9810758829116821e-01" nType="-99"/>
          <Node pos="r" depth="2" NCoef="0" IVar="-1" Cut="0.0000000000000000e+00" cType="1" res="4.1617843089625239e-04" rms="4.6945571899414062e-01" purity="5.1273274421691895e-01" nType="-99"/>
        </Node>
      </Node>
    </BinaryTree>
    <BinaryTree type="DecisionTree" boostWeight="1.0000000000000000e+00" itree="220">
      <Node pos="s" depth="0" NCoef="0" IVar="2" Cut="9.9211841821670532e-01" cType="1" res="4.6654492616653442e-03" rms="4.6388879418373108e-01" purity="4.9517726898193359e-01" nType="0">
        <Node pos="l" depth="1" NCoef="0" IVar="5" Cut="2.5441167354583740e+00" cType="1" res="1.9697830080986023e-02" rms="4.6456995606422424e-01" purity="5.2097755670547485e-01" nType="0">
          <Node pos="l" depth="2" NCoef="0" IVar="-1" Cut="0.0000000000000000e+00" cType="1" res="8.5938326083123684e-04" rms="4.6632528305053711e-01" purity="5.5243843793869019e-01" nType="-99"/>
          <Node pos="r" depth="2" NCoef="0" IVar="-1" Cut="0.0000000000000000e+00" cType="1" res="-1.7794786253944039e-03" rms="4.4841173291206360e-01" purity="3.3471646904945374e-01" nType="-99"/>
        </Node>
        <Node pos="r" depth="1" NCoef="0" IVar="7" Cut="6.5079122781753540e-02" cType="1" res="-4.1243862360715866e-02" rms="4.5876303315162659e-01" purity="4.1638246178627014e-01" nType="0">
          <Node pos="l" depth="2" NCoef="0" IVar="-1" Cut="0.0000000000000000e+00" cType="1" res="-2.4852333590388298e-03" rms="4.4601348042488098e-01" purity="3.6925375461578369e-01" nType="-99"/>
          <Node pos="r" depth="2" NCoef="0" IVar="-1" Cut="0.0000000000000000e+00" cType="1" res="8.1976242654491216e-05" rms="4.7416988015174866e-01" purity="4.8821869492530823e-01" nType="-99"/>
        </Node>
      </Node>
    </BinaryTree>
    <BinaryTree type="DecisionTree" boostWeight="1.0000000000000000e+00" itree="221">
      <Node pos="s" depth="0" NCoef="0" IVar="6" Cut="2.0768418312072754e+00" cType="1" res="7.3281885124742985e-03" rms="4.6163567900657654e-01" purity="5.0103610754013062e-01" nType="0">
        <Node pos="l" depth="1" NCoef="0" IVar="3" Cut="1.8179991841316223e-01" cType="1" res="-3.7036620080471039e-02" rms="4.5017099380493164e-01" purity="3.1475859880447388e-01" nType="0">
          <Node pos="l" depth="2" NCoef="0" IVar="-1" Cut="0.0000000000000000e+00" cType="1" res="1.2723938561975956e-04" rms="4.6457818150520325e-01" purity="3.5631462931632996e-01" nType="-99"/>
          <Node pos="r" depth="2" NCoef="0" IVar="-1" Cut="0.0000000000000000e+00" cType="1" res="-2.8211220633238554e-03" rms="4.3604481220245361e-01" purity="2.8237780928611755e-01" nType="-99"/>
        </Node>
        <Node pos="r" depth="1" NCoef="0" IVar="3" Cut="2.0967569947242737e-01" cType="1" res="2.7614690363407135e-02" rms="4.6537727117538452e-01" purity="5.8621448278427124e-01" nType="0">
          <Node pos="l" depth="2" NCoef="0" IVar="-1" Cut="0.0000000000000000e+00" cType="1" res="3.0447824392467737e-03" rms="4.6536180377006531e-01" purity="6.0937404632568359e-01" nType="-99"/>
          <Node pos="r" depth="2" NCoef="0" IVar="-1" Cut="0.0000000000000000e+00" cType="1" res="4.5802115346305072e-04" rms="4.6430188417434692e-01" purity="5.8355283737182617e-01" nType="-99"/>
        </Node>
      </Node>
    </BinaryTree>
    <BinaryTree type="DecisionTree" boostWeight="1.0000000000000000e+00" itree="222">
      <Node pos="s" depth="0" NCoef="0" IVar="2" Cut="6.6244542598724365e-01" cType="1" res="2.9661695007234812e-03" rms="4.6190261840820312e-01" purity="4.9517786502838135e-01" nType="0">
        <Node pos="l" depth="1" NCoef="0" IVar="6" Cut="1.4178663492202759e+00" cType="1" res="3.8687579333782196e-02" rms="4.6117201447486877e-01" purity="5.6464034318923950e-01" nType="0">
          <Node pos="l" depth="2" NCoef="0" IVar="-1" Cut="0.0000000000000000e+00" cType="1" res="-1.6809987137094140e-03" rms="4.5598068833351135e-01" purity="3.2090392708778381e-01" nType="-99"/>
          <Node pos="r" depth="2" NCoef="0" IVar="-1" Cut="0.0000000000000000e+00" cType="1" res="1.3799106236547232e-03" rms="4.6060949563980103e-01" purity="6.0803383588790894e-01" nType="-99"/>
        </Node>
        <Node pos="r" depth="1" NCoef="0" IVar="7" Cut="-1.9068517722189426e-03" cType="1" res="-1.7208129167556763e-02" rms="4.6109354496002197e-01" purity="4.5594772696495056e-01" nType="0">
          <Node pos="l" depth="2" NCoef="0" IVar="-1" Cut="0.0000000000000000e+00" cType="1" res="-2.1335007622838020e-03" rms="4.4944146275520325e-01" purity="3.8303402066230774e-01" nType="-99"/>
          <Node pos="r" depth="2" NCoef="0" IVar="-1" Cut="0.0000000000000000e+00" cType="1" res="4.2523091542534530e-04" rms="4.6681204438209534e-01" purity="5.0889468193054199e-01" nType="-99"/>
        </Node>
      </Node>
    </BinaryTree>
    <BinaryTree type="DecisionTree" boostWeight="1.0000000000000000e+00" itree="223">
      <Node pos="s" depth="0" NCoef="0" IVar="5" Cut="2.7361085414886475e+00" cType="1" res="1.1523201130330563e-02" rms="4.6400290727615356e-01" purity="5.0255727767944336e-01" nType="0">
        <Node pos="l" depth="1" NCoef="0" IVar="8" Cut="9.9947105407714844e+01" cType="1" res="1.9952604547142982e-02" rms="4.6703466773033142e-01" purity="5.2573627233505249e-01" nType="0">
          <Node pos="l" depth="2" NCoef="0" IVar="-1" Cut="0.0000000000000000e+00" cType="1" res="-1.1868019355461001e-03" rms="4.6822229027748108e-01" purity="4.5756086707115173e-01" nType="-99"/>
          <Node pos="r" depth="2" NCoef="0" IVar="-1" Cut="0.0000000000000000e+00" cType="1" res="8.6568319238722324e-04" rms="4.6601682901382446e-01" purity="5.3834962844848633e-01" nType="-99"/>
        </Node>
        <Node pos="r" depth="1" NCoef="0" IVar="-1" Cut="0.0000000000000000e+00" cType="1" res="-3.3260553609579802e-03" rms="4.2225646972656250e-01" purity="2.6565450429916382e-01" nType="-99"/>
      </Node>
    </BinaryTree>
    <BinaryTree type="DecisionTree" boostWeight="1.0000000000000000e+00" itree="224">
      <Node pos="s" depth="0" NCoef="0" IVar="6" Cut="4.8831772804260254e+00" cType="1" res="5.2076592110097408e-03" rms="4.6118792891502380e-01" purity="4.9741131067276001e-01" nType="0">
        <Node pos="l" depth="1" NCoef="0" IVar="1" Cut="5.9953631591796875e+02" cType="1" res="-4.7419248148798943e-03" rms="4.6683514118194580e-01" purity="4.6368294954299927e-01" nType="0">
          <Node pos="l" depth="2" NCoef="0" IVar="-1" Cut="0.0000000000000000e+00" cType="1" res="-8.6269667372107506e-04" rms="4.6144050359725952e-01" purity="4.0704560279846191e-01" nType="-99"/>
          <Node pos="r" depth="2" NCoef="0" IVar="-1" Cut="0.0000000000000000e+00" cType="1" res="9.6485821995884180e-04" rms="4.7447717189788818e-01" purity="5.7400637865066528e-01" nType="-99"/>
        </Node>
        <Node pos="r" depth="1" NCoef="0" IVar="-1" Cut="0.0000000000000000e+00" cType="1" res="2.1984565537422895e-03" rms="3.9890968799591064e-01" purity="7.8901702165603638e-01" nType="-99"/>
      </Node>
    </BinaryTree>
    <BinaryTree type="DecisionTree" boostWeight="1.0000000000000000e+00" itree="225">
      <Node pos="s" depth="0" NCoef="0" IVar="6" Cut="4.2222785949707031e+00" cType="1" res="6.5041841007769108e-03" rms="4.6133324503898621e-01" purity="4.9919578433036804e-01" nType="0">
        <Node pos="l" depth="1" NCoef="0" IVar="3" Cut="4.0315368771553040e-01" cType="1" res="-7.7073150314390659e-03" rms="4.6908637881278992e-01" purity="4.3842288851737976e-01" nType="0">
          <Node pos="l" depth="2" NCoef="0" IVar="-1" Cut="0.0000000000000000e+00" cType="1" res="4.3999173794873059e-04" rms="4.6579620242118835e-01" purity="4.2374721169471741e-01" nType="-99"/>
          <Node pos="r" depth="2" NCoef="0" IVar="-1" Cut="0.0000000000000000e+00" cType="1" res="-1.3912129215896130e-03" rms="4.7272834181785583e-01" purity="4.6661466360092163e-01" nType="-99"/>
        </Node>
        <Node pos="r" depth="1" NCoef="0" IVar="6" Cut="5.0667829513549805e+00" cType="1" res="6.3810616731643677e-02" rms="4.2384141683578491e-01" purity="7.4425619840621948e-01" nType="0">
          <Node pos="l" depth="2" NCoef="0" IVar="-1" Cut="0.0000000000000000e+00" cType="1" res="9.8764081485569477e-04" rms="4.4346785545349121e-01" purity="7.0474565029144287e-01" nType="-99"/>
          <Node pos="r" depth="2" NCoef="0" IVar="-1" Cut="0.0000000000000000e+00" cType="1" res="2.2490608971565962e-03" rms="3.9552426338195801e-01" purity="7.9448878765106201e-01" nType="-99"/>
        </Node>
      </Node>
    </BinaryTree>
    <BinaryTree type="DecisionTree" boostWeight="1.0000000000000000e+00" itree="226">
      <Node pos="s" depth="0" NCoef="0" IVar="5" Cut="2.1951155662536621e+00" cType="1" res="5.6757032871246338e-03" rms="4.6086522936820984e-01" purity="4.9780142307281494e-01" nType="0">
        <Node pos="l" depth="1" NCoef="0" IVar="9" Cut="9.2861686706542969e+01" cType="1" res="3.4470476210117340e-02" rms="4.6295693516731262e-01" purity="5.6983691453933716e-01" nType="0">
          <Node pos="l" depth="2" NCoef="0" IVar="-1" Cut="0.0000000000000000e+00" cType="1" res="2.1805704454891384e-04" rms="4.6646907925605774e-01" purity="5.2266961336135864e-01" nType="-99"/>
          <Node pos="r" depth="2" NCoef="0" IVar="-1" Cut="0.0000000000000000e+00" cType="1" res="1.9425821956247091e-03" rms="4.5401623845100403e-01" purity="6.4518493413925171e-01" nType="-99"/>
        </Node>
        <Node pos="r" depth="1" NCoef="0" IVar="1" Cut="6.7391003417968750e+02" cType="1" res="-2.2412607446312904e-02" rms="4.5707118511199951e-01" purity="4.2753329873085022e-01" nType="0">
          <Node pos="l" depth="2" NCoef="0" IVar="-1" Cut="0.0000000000000000e+00" cType="1" res="-1.3107961276546121e-03" rms="4.5107644796371460e-01" purity="3.9179137349128723e-01" nType="-99"/>
          <Node pos="r" depth="2" NCoef="0" IVar="-1" Cut="0.0000000000000000e+00" cType="1" res="9.1502361465245485e-04" rms="4.7386607527732849e-01" purity="5.5641692876815796e-01" nType="-99"/>
        </Node>
      </Node>
    </BinaryTree>
    <BinaryTree type="DecisionTree" boostWeight="1.0000000000000000e+00" itree="227">
      <Node pos="s" depth="0" NCoef="0" IVar="8" Cut="1.0111430358886719e+02" cType="1" res="1.1203913949429989e-02" rms="4.6320071816444397e-01" purity="5.0262093544006348e-01" nType="0">
        <Node pos="l" depth="1" NCoef="0" IVar="0" Cut="1.1976543664932251e+00" cType="1" res="-4.5755080878734589e-02" rms="4.5899465680122375e-01" purity="4.3385446071624756e-01" nType="0">
          <Node pos="l" depth="2" NCoef="0" IVar="-1" Cut="0.0000000000000000e+00" cType="1" res="-5.4222304606810212e-04" rms="4.6499347686767578e-01" purity="4.7737681865692139e-01" nType="-99"/>
          <Node pos="r" depth="2" NCoef="0" IVar="-1" Cut="0.0000000000000000e+00" cType="1" res="-3.2828797120600939e-03" rms="4.4497451186180115e-01" purity="3.6116814613342285e-01" nType="-99"/>
        </Node>
        <Node pos="r" depth="1" NCoef="0" IVar="5" Cut="1.9449493885040283e+00" cType="1" res="2.2227479144930840e-02" rms="4.6320208907127380e-01" purity="5.1592963933944702e-01" nType="0">
          <Node pos="l" depth="2" NCoef="0" IVar="-1" Cut="0.0000000000000000e+00" cType="1" res="1.8370796460658312e-03" rms="4.5799848437309265e-01" purity="6.1661070585250854e-01" nType="-99"/>
          <Node pos="r" depth="2" NCoef="0" IVar="-1" Cut="0.0000000000000000e+00" cType="1" res="2.2605239064432681e-04" rms="4.6369057893753052e-01" purity="4.8631203174591064e-01" nType="-99"/>
        </Node>
      </Node>
    </BinaryTree>
    <BinaryTree type="DecisionTree" boostWeight="1.0000000000000000e+00" itree="228">
      <Node pos="s" depth="0" NCoef="0" IVar="2" Cut="6.2441635131835938e-01" cType="1" res="5.3990934975445271e-03" rms="4.6335834264755249e-01" purity="4.9599206447601318e-01" nType="0">
        <Node pos="l" depth="1" NCoef="0" IVar="8" Cut="1.0085485076904297e+02" cType="1" res="4.8398401588201523e-02" rms="4.5986172556877136e-01" purity="5.7587915658950806e-01" nType="0">
          <Node pos="l" depth="2" NCoef="0" IVar="-1" Cut="0.0000000000000000e+00" cType="1" res="-5.8810733025893569e-04" rms="4.6339765191078186e-01" purity="4.9533015489578247e-01" nType="-99"/>
          <Node pos="r" depth="2" NCoef="0" IVar="-1" Cut="0.0000000000000000e+00" cType="1" res="1.6591406892985106e-03" rms="4.5793992280960083e-01" purity="5.9193670749664307e-01" nType="-99"/>
        </Node>
        <Node pos="r" depth="1" NCoef="0" IVar="7" Cut="6.6097788512706757e-02" cType="1" res="-1.4047628268599510e-02" rms="4.6362325549125671e-01" purity="4.5986258983612061e-01" nType="0">
          <Node pos="l" depth="2" NCoef="0" IVar="-1" Cut="0.0000000000000000e+00" cType="1" res="-1.1697032023221254e-03" rms="4.5779600739479065e-01" purity="4.2042210698127747e-01" nType="-99"/>
          <Node pos="r" depth="2" NCoef="0" IVar="-1" Cut="0.0000000000000000e+00" cType="1" res="5.4189242655411363e-04" rms="4.7057369351387024e-01" purity="5.2069777250289917e-01" nType="-99"/>
        </Node>
      </Node>
    </BinaryTree>
    <BinaryTree type="DecisionTree" boostWeight="1.0000000000000000e+00" itree="229">
      <Node pos="s" depth="0" NCoef="0" IVar="5" Cut="2.8518407344818115e+00" cType="1" res="7.9145915806293488e-03" rms="4.6202564239501953e-01" purity="4.9975413084030151e-01" nType="0">
        <Node pos="l" depth="1" NCoef="0" IVar="6" Cut="2.0100903511047363e+00" cType="1" res="1.5705842524766922e-02" rms="4.6505138278007507e-01" purity="5.1827907562255859e-01" nType="0">
          <Node pos="l" depth="2" NCoef="0" IVar="-1" Cut="0.0000000000000000e+00" cType="1" res="-9.3712960369884968e-04" rms="4.5742943882942200e-01" purity="3.3367326855659485e-01" nType="-99"/>
          <Node pos="r" depth="2" NCoef="0" IVar="-1" Cut="0.0000000000000000e+00" cType="1" res="8.5260125342756510e-04" rms="4.6722522377967834e-01" purity="5.9682226181030273e-01" nType="-99"/>
        </Node>
        <Node pos="r" depth="1" NCoef="0" IVar="-1" Cut="0.0000000000000000e+00" cType="1" res="-5.5931750684976578e-03" rms="3.9349490404129028e-01" purity="2.1408009529113770e-01" nType="-99"/>
      </Node>
    </BinaryTree>
    <BinaryTree type="DecisionTree" boostWeight="1.0000000000000000e+00" itree="230">
      <Node pos="s" depth="0" NCoef="0" IVar="6" Cut="1.6266952753067017e+00" cType="1" res="4.9140006303787231e-03" rms="4.6094611287117004e-01" purity="4.9687761068344116e-01" nType="0">
        <Node pos="l" depth="1" NCoef="0" IVar="3" Cut="1.4696234464645386e-01" cType="1" res="-5.3411427885293961e-02" rms="4.3516036868095398e-01" purity="2.8623315691947937e-01" nType="0">
          <Node pos="l" depth="2" NCoef="0" IVar="-1" Cut="0.0000000000000000e+00" cType="1" res="-2.8703418138320558e-05" rms="4.6013703942298889e-01" purity="3.4802654385566711e-01" nType="-99"/>
          <Node pos="r" depth="2" NCoef="0" IVar="-1" Cut="0.0000000000000000e+00" cType="1" res="-3.4745582379400730e-03" rms="4.2099669575691223e-01" purity="2.5786507129669189e-01" nType="-99"/>
        </Node>
        <Node pos="r" depth="1" NCoef="0" IVar="3" Cut="1.9032473862171173e-01" cType="1" res="1.9820109009742737e-02" rms="4.6613848209381104e-01" purity="5.5071157217025757e-01" nType="0">
          <Node pos="l" depth="2" NCoef="0" IVar="-1" Cut="0.0000000000000000e+00" cType="1" res="3.0672091525048018e-03" rms="4.7224283218383789e-01" purity="5.5803477764129639e-01" nType="-99"/>
          <Node pos="r" depth="2" NCoef="0" IVar="-1" Cut="0.0000000000000000e+00" cType="1" res="2.5559961795806885e-04" rms="4.6427962183952332e-01" purity="5.4983687400817871e-01" nType="-99"/>
        </Node>
      </Node>
    </BinaryTree>
    <BinaryTree type="DecisionTree" boostWeight="1.0000000000000000e+00" itree="231">
      <Node pos="s" depth="0" NCoef="0" IVar="6" Cut="2.0700516700744629e+00" cType="1" res="8.9852986857295036e-03" rms="4.6082389354705811e-01" purity="5.0236946344375610e-01" nType="0">
        <Node pos="l" depth="1" NCoef="0" IVar="1" Cut="4.3600000000000000e+02" cType="1" res="-3.1524822115898132e-02" rms="4.4893428683280945e-01" purity="3.1895181536674500e-01" nType="0">
          <Node pos="l" depth="2" NCoef="0" IVar="-1" Cut="0.0000000000000000e+00" cType="1" res="-4.8479475080966949e-03" rms="3.7309205532073975e-01" purity="1.7466078698635101e-01" nType="-99"/>
          <Node pos="r" depth="2" NCoef="0" IVar="-1" Cut="0.0000000000000000e+00" cType="1" res="-4.2387066059745848e-04" rms="4.7474530339241028e-01" purity="3.7718266248703003e-01" nType="-99"/>
        </Node>
        <Node pos="r" depth="1" NCoef="0" IVar="3" Cut="2.2903673350811005e-01" cType="1" res="2.7811001986265182e-02" rms="4.6504658460617065e-01" purity="5.8760660886764526e-01" nType="0">
          <Node pos="l" depth="2" NCoef="0" IVar="-1" Cut="0.0000000000000000e+00" cType="1" res="2.9439856298267841e-03" rms="4.6354493498802185e-01" purity="6.1057239770889282e-01" nType="-99"/>
          <Node pos="r" depth="2" NCoef="0" IVar="-1" Cut="0.0000000000000000e+00" cType="1" res="4.1520746890455484e-04" rms="4.6397250890731812e-01" purity="5.8440667390823364e-01" nType="-99"/>
        </Node>
      </Node>
    </BinaryTree>
    <BinaryTree type="DecisionTree" boostWeight="1.0000000000000000e+00" itree="232">
      <Node pos="s" depth="0" NCoef="0" IVar="1" Cut="4.3600000000000000e+02" cType="1" res="6.2612672336399555e-03" rms="4.6158608794212341e-01" purity="4.9809616804122925e-01" nType="0">
        <Node pos="l" depth="1" NCoef="0" IVar="0" Cut="1.1237027645111084e+00" cType="1" res="-4.2699828743934631e-02" rms="4.4100093841552734e-01" purity="3.4239846467971802e-01" nType="0">
          <Node pos="l" depth="2" NCoef="0" IVar="-1" Cut="0.0000000000000000e+00" cType="1" res="-2.9857427580282092e-04" rms="4.5322832465171814e-01" purity="3.8684403896331787e-01" nType="-99"/>
          <Node pos="r" depth="2" NCoef="0" IVar="-1" Cut="0.0000000000000000e+00" cType="1" res="-3.0183300841599703e-03" rms="4.2729502916336060e-01" purity="3.0220928788185120e-01" nType="-99"/>
        </Node>
        <Node pos="r" depth="1" NCoef="0" IVar="5" Cut="1.6535201072692871e+00" cType="1" res="2.2734098136425018e-02" rms="4.6715626120567322e-01" purity="5.5048030614852905e-01" nType="0">
          <Node pos="l" depth="2" NCoef="0" IVar="-1" Cut="0.0000000000000000e+00" cType="1" res="2.3747407831251621e-03" rms="4.4687977433204651e-01" purity="6.7089366912841797e-01" nType="-99"/>
          <Node pos="r" depth="2" NCoef="0" IVar="-1" Cut="0.0000000000000000e+00" cType="1" res="3.5128963645547628e-04" rms="4.6894818544387817e-01" purity="5.3382480144500732e-01" nType="-99"/>
        </Node>
      </Node>
    </BinaryTree>
    <BinaryTree type="DecisionTree" boostWeight="1.0000000000000000e+00" itree="233">
      <Node pos="s" depth="0" NCoef="0" IVar="6" Cut="4.9352197647094727e+00" cType="1" res="8.3712227642536163e-03" rms="4.6318528056144714e-01" purity="4.9988022446632385e-01" nType="0">
        <Node pos="l" depth="1" NCoef="0" IVar="7" Cut="2.2809682786464691e-01" cType="1" res="-3.9887432649265975e-05" rms="4.6875917911529541e-01" purity="4.6858292818069458e-01" nType="0">
          <Node pos="l" depth="2" NCoef="0" IVar="-1" Cut="0.0000000000000000e+00" cType="1" res="-2.3453733592759818e-04" rms="4.6794500946998596e-01" purity="4.5775556564331055e-01" nType="-99"/>
          <Node pos="r" depth="2" NCoef="0" IVar="-1" Cut="0.0000000000000000e+00" cType="1" res="2.4064371827989817e-03" rms="4.6877199411392212e-01" purity="6.0438907146453857e-01" nType="-99"/>
        </Node>
        <Node pos="r" depth="1" NCoef="0" IVar="-1" Cut="0.0000000000000000e+00" cType="1" res="2.0631346851587296e-03" rms="4.0055310726165771e-01" purity="7.8623580932617188e-01" nType="-99"/>
      </Node>
    </BinaryTree>
    <BinaryTree type="DecisionTree" boostWeight="1.0000000000000000e+00" itree="234">
      <Node pos="s" depth="0" NCoef="0" IVar="7" Cut="-5.6893073022365570e-02" cType="1" res="2.5052458513528109e-03" rms="4.6157869696617126e-01" purity="4.9439471960067749e-01" nType="0">
        <Node pos="l" depth="1" NCoef="0" IVar="2" Cut="8.3995968103408813e-01" cType="1" res="-3.9556439965963364e-02" rms="4.5447319746017456e-01" purity="4.2663732171058655e-01" nType="0">
          <Node pos="l" depth="2" NCoef="0" IVar="-1" Cut="0.0000000000000000e+00" cType="1" res="-2.1619269682560116e-04" rms="4.6315896511077881e-01" purity="4.8761829733848572e-01" nType="-99"/>
          <Node pos="r" depth="2" NCoef="0" IVar="-1" Cut="0.0000000000000000e+00" cType="1" res="-3.6922178696841002e-03" rms="4.3388321995735168e-01" purity="3.2337945699691772e-01" nType="-99"/>
        </Node>
        <Node pos="r" depth="1" NCoef="0" IVar="1" Cut="3.9864895629882812e+02" cType="1" res="1.9957942888140678e-02" rms="4.6337565779685974e-01" purity="5.2250939607620239e-01" nType="0">
          <Node pos="l" depth="2" NCoef="0" IVar="-1" Cut="0.0000000000000000e+00" cType="1" res="-1.7408085986971855e-03" rms="4.4020119309425354e-01" purity="3.3057224750518799e-01" nType="-99"/>
          <Node pos="r" depth="2" NCoef="0" IVar="-1" Cut="0.0000000000000000e+00" cType="1" res="8.5183326154947281e-04" rms="4.6627461910247803e-01" purity="5.5475389957427979e-01" nType="-99"/>
        </Node>
      </Node>
    </BinaryTree>
    <BinaryTree type="DecisionTree" boostWeight="1.0000000000000000e+00" itree="235">
      <Node pos="s" depth="0" NCoef="0" IVar="7" Cut="-1.0354887694120407e-01" cType="1" res="5.6975292973220348e-03" rms="4.6336209774017334e-01" purity="4.9569979310035706e-01" nType="0">
        <Node pos="l" depth="1" NCoef="0" IVar="-1" Cut="0.0000000000000000e+00" cType="1" res="-2.4615663569420576e-03" rms="4.4886776804924011e-01" purity="3.8439306616783142e-01" nType="-99"/>
        <Node pos="r" depth="1" NCoef="0" IVar="1" Cut="4.0390548706054688e+02" cType="1" res="1.3479116372764111e-02" rms="4.6414661407470703e-01" purity="5.0724810361862183e-01" nType="0">
          <Node pos="l" depth="2" NCoef="0" IVar="-1" Cut="0.0000000000000000e+00" cType="1" res="-1.5042641898617148e-03" rms="4.3934541940689087e-01" purity="3.3236685395240784e-01" nType="-99"/>
          <Node pos="r" depth="2" NCoef="0" IVar="-1" Cut="0.0000000000000000e+00" cType="1" res="6.7073461832478642e-04" rms="4.6828901767730713e-01" purity="5.4245364665985107e-01" nType="-99"/>
        </Node>
      </Node>
    </BinaryTree>
    <BinaryTree type="DecisionTree" boostWeight="1.0000000000000000e+00" itree="236">
      <Node pos="s" depth="0" NCoef="0" IVar="2" Cut="6.2441635131835938e-01" cType="1" res="1.0115463286638260e-02" rms="4.6179312467575073e-01" purity="5.0183945894241333e-01" nType="0">
        <Node pos="l" depth="1" NCoef="0" IVar="1" Cut="5.1741186523437500e+02" cType="1" res="4.8247862607240677e-02" rms="4.6038681268692017e-01" purity="5.7744854688644409e-01" nType="0">
          <Node pos="l" depth="2" NCoef="0" IVar="-1" Cut="0.0000000000000000e+00" cType="1" res="5.0866644596680999e-04" rms="4.6848630905151367e-01" purity="4.7485065460205078e-01" nType="-99"/>
          <Node pos="r" depth="2" NCoef="0" IVar="-1" Cut="0.0000000000000000e+00" cType="1" res="1.7926869913935661e-03" rms="4.5295950770378113e-01" purity="6.5258914232254028e-01" nType="-99"/>
        </Node>
        <Node pos="r" depth="1" NCoef="0" IVar="7" Cut="1.0106418281793594e-01" cType="1" res="-7.1424208581447601e-03" rms="4.6139344573020935e-01" purity="4.6762052178382874e-01" nType="0">
          <Node pos="l" depth="2" NCoef="0" IVar="-1" Cut="0.0000000000000000e+00" cType="1" res="-8.8089128257706761e-04" rms="4.5801961421966553e-01" purity="4.3161162734031677e-01" nType="-99"/>
          <Node pos="r" depth="2" NCoef="0" IVar="-1" Cut="0.0000000000000000e+00" cType="1" res="9.9304015748202801e-04" rms="4.6573776006698608e-01" purity="5.4554194211959839e-01" nType="-99"/>
        </Node>
      </Node>
    </BinaryTree>
    <BinaryTree type="DecisionTree" boostWeight="1.0000000000000000e+00" itree="237">
      <Node pos="s" depth="0" NCoef="0" IVar="6" Cut="5.1055793762207031e+00" cType="1" res="3.4071223344653845e-03" rms="4.6132442355155945e-01" purity="4.9624714255332947e-01" nType="0">
        <Node pos="l" depth="1" NCoef="0" IVar="7" Cut="-8.3134226500988007e-02" cType="1" res="-4.3116519227623940e-03" rms="4.6619853377342224e-01" purity="4.6891197562217712e-01" nType="0">
          <Node pos="l" depth="2" NCoef="0" IVar="-1" Cut="0.0000000000000000e+00" cType="1" res="-1.9702592398971319e-03" rms="4.5525237917900085e-01" purity="3.8273513317108154e-01" nType="-99"/>
          <Node pos="r" depth="2" NCoef="0" IVar="-1" Cut="0.0000000000000000e+00" cType="1" res="2.2081150382291526e-04" rms="4.6786907315254211e-01" purity="4.8858940601348877e-01" nType="-99"/>
        </Node>
        <Node pos="r" depth="1" NCoef="0" IVar="-1" Cut="0.0000000000000000e+00" cType="1" res="2.1241153590381145e-03" rms="3.9515435695648193e-01" purity="7.9265481233596802e-01" nType="-99"/>
      </Node>
    </BinaryTree>
    <BinaryTree type="DecisionTree" boostWeight="1.0000000000000000e+00" itree="238">
      <Node pos="s" depth="0" NCoef="0" IVar="1" Cut="5.1910333251953125e+02" cType="1" res="1.0507207363843918e-02" rms="4.6003499627113342e-01" purity="5.0570577383041382e-01" nType="0">
        <Node pos="l" depth="1" NCoef="0" IVar="2" Cut="9.9641144275665283e-01" cType="1" res="-2.3933218792080879e-02" rms="4.5553472638130188e-01" purity="4.0523183345794678e-01" nType="0">
          <Node pos="l" depth="2" NCoef="0" IVar="-1" Cut="0.0000000000000000e+00" cType="1" res="-2.1191456471569836e-04" rms="4.5974376797676086e-01" purity="4.3402433395385742e-01" nType="-99"/>
          <Node pos="r" depth="2" NCoef="0" IVar="-1" Cut="0.0000000000000000e+00" cType="1" res="-2.8825695626437664e-03" rms="4.3951308727264404e-01" purity="3.2303309440612793e-01" nType="-99"/>
        </Node>
        <Node pos="r" depth="1" NCoef="0" IVar="6" Cut="3.6824138164520264e+00" cType="1" res="4.1381601244211197e-02" rms="4.6185424923896790e-01" purity="5.9577643871307373e-01" nType="0">
          <Node pos="l" depth="2" NCoef="0" IVar="-1" Cut="0.0000000000000000e+00" cType="1" res="5.8467424241825938e-04" rms="4.8297947645187378e-01" purity="5.1107925176620483e-01" nType="-99"/>
          <Node pos="r" depth="2" NCoef="0" IVar="-1" Cut="0.0000000000000000e+00" cType="1" res="1.9465322839096189e-03" rms="4.1330036520957947e-01" purity="7.6559841632843018e-01" nType="-99"/>
        </Node>
      </Node>
    </BinaryTree>
    <BinaryTree type="DecisionTree" boostWeight="1.0000000000000000e+00" itree="239">
      <Node pos="s" depth="0" NCoef="0" IVar="6" Cut="1.9559385776519775e+00" cType="1" res="5.1068896427750587e-03" rms="4.6095001697540283e-01" purity="4.9800112843513489e-01" nType="0">
        <Node pos="l" depth="1" NCoef="0" IVar="6" Cut="8.9880114793777466e-01" cType="1" res="-3.6656960844993591e-02" rms="4.4681563973426819e-01" purity="3.0717623233795166e-01" nType="0">
          <Node pos="l" depth="2" NCoef="0" IVar="-1" Cut="0.0000000000000000e+00" cType="1" res="-4.1738441213965416e-03" rms="4.1915315389633179e-01" purity="2.4446696043014526e-01" nType="-99"/>
          <Node pos="r" depth="2" NCoef="0" IVar="-1" Cut="0.0000000000000000e+00" cType="1" res="-9.3882629880681634e-04" rms="4.5305570960044861e-01" purity="3.2397773861885071e-01" nType="-99"/>
        </Node>
        <Node pos="r" depth="1" NCoef="0" IVar="3" Cut="2.2903673350811005e-01" cType="1" res="2.1791342645883560e-02" rms="4.6543046832084656e-01" purity="5.7423472404479980e-01" nType="0">
          <Node pos="l" depth="2" NCoef="0" IVar="-1" Cut="0.0000000000000000e+00" cType="1" res="2.6651364751160145e-03" rms="4.6466314792633057e-01" purity="5.8770155906677246e-01" nType="-99"/>
          <Node pos="r" depth="2" NCoef="0" IVar="-1" Cut="0.0000000000000000e+00" cType="1" res="2.5730364723131061e-04" rms="4.6435037255287170e-01" purity="5.7213783264160156e-01" nType="-99"/>
        </Node>
      </Node>
    </BinaryTree>
    <BinaryTree type="DecisionTree" boostWeight="1.0000000000000000e+00" itree="240">
      <Node pos="s" depth="0" NCoef="0" IVar="5" Cut="2.8959271907806396e+00" cType="1" res="5.9219445101916790e-03" rms="4.6081453561782837e-01" purity="4.9928203225135803e-01" nType="0">
        <Node pos="l" depth="1" NCoef="0" IVar="6" Cut="4.7287297248840332e+00" cType="1" res="1.2272548861801624e-02" rms="4.6359416842460632e-01" purity="5.1478123664855957e-01" nType="0">
          <Node pos="l" depth="2" NCoef="0" IVar="-1" Cut="0.0000000000000000e+00" cType="1" res="6.6266831709071994e-05" rms="4.7084662318229675e-01" purity="4.7565072774887085e-01" nType="-99"/>
          <Node pos="r" depth="2" NCoef="0" IVar="-1" Cut="0.0000000000000000e+00" cType="1" res="1.9983788952231407e-03" rms="4.0305122733116150e-01" purity="7.8565686941146851e-01" nType="-99"/>
        </Node>
        <Node pos="r" depth="1" NCoef="0" IVar="-1" Cut="0.0000000000000000e+00" cType="1" res="-5.3683030419051647e-03" rms="3.8988348841667175e-01" purity="2.1916423738002777e-01" nType="-99"/>
      </Node>
    </BinaryTree>
    <BinaryTree type="DecisionTree" boostWeight="1.0000000000000000e+00" itree="241">
      <Node pos="s" depth="0" NCoef="0" IVar="7" Cut="6.7131236195564270e-02" cType="1" res="6.3328472897410393e-03" rms="4.6143111586570740e-01" purity="4.9754303693771362e-01" nType="0">
        <Node pos="l" depth="1" NCoef="0" IVar="2" Cut="8.7850171327590942e-01" cType="1" res="-1.3976063579320908e-02" rms="4.5850551128387451e-01" purity="4.6450611948966980e-01" nType="0">
          <Node pos="l" depth="2" NCoef="0" IVar="-1" Cut="0.0000000000000000e+00" cType="1" res="3.0133235850371420e-04" rms="4.6162244677543640e-01" purity="5.0853472948074341e-01" nType="-99"/>
          <Node pos="r" depth="2" NCoef="0" IVar="-1" Cut="0.0000000000000000e+00" cType="1" res="-2.1898306440562010e-03" rms="4.4838529825210571e-01" purity="3.7698748707771301e-01" nType="-99"/>
        </Node>
        <Node pos="r" depth="1" NCoef="0" IVar="9" Cut="8.6472396850585938e+01" cType="1" res="4.5176852494478226e-02" rms="4.6450898051261902e-01" purity="5.6073141098022461e-01" nType="0">
          <Node pos="l" depth="2" NCoef="0" IVar="-1" Cut="0.0000000000000000e+00" cType="1" res="2.3865865659900010e-04" rms="4.7091329097747803e-01" purity="5.1285457611083984e-01" nType="-99"/>
          <Node pos="r" depth="2" NCoef="0" IVar="-1" Cut="0.0000000000000000e+00" cType="1" res="1.9319663988426328e-03" rms="4.5777305960655212e-01" purity="5.9628361463546753e-01" nType="-99"/>
        </Node>
      </Node>
    </BinaryTree>
    <BinaryTree type="DecisionTree" boostWeight="1.0000000000000000e+00" itree="242">
      <Node pos="s" depth="0" NCoef="0" IVar="1" Cut="4.0610369873046875e+02" cType="1" res="6.2249945476651192e-03" rms="4.6150395274162292e-01" purity="4.9797981977462769e-01" nType="0">
        <Node pos="l" depth="1" NCoef="0" IVar="0" Cut="1.3946788311004639e+00" cType="1" res="-5.7229790836572647e-02" rms="4.3318346142768860e-01" purity="3.0748656392097473e-01" nType="0">
          <Node pos="l" depth="2" NCoef="0" IVar="-1" Cut="0.0000000000000000e+00" cType="1" res="-1.2766823638230562e-03" rms="4.4641563296318054e-01" purity="3.3779332041740417e-01" nType="-99"/>
          <Node pos="r" depth="2" NCoef="0" IVar="-1" Cut="0.0000000000000000e+00" cType="1" res="-5.1426836289465427e-03" rms="3.9791163802146912e-01" purity="2.4176310002803802e-01" nType="-99"/>
        </Node>
        <Node pos="r" depth="1" NCoef="0" IVar="6" Cut="1.2982071638107300e+00" cType="1" res="1.8692398443818092e-02" rms="4.6585154533386230e-01" purity="5.3540742397308350e-01" nType="0">
          <Node pos="l" depth="2" NCoef="0" IVar="-1" Cut="0.0000000000000000e+00" cType="1" res="-2.2690040059387684e-03" rms="4.4761484861373901e-01" purity="3.0277994275093079e-01" nType="-99"/>
          <Node pos="r" depth="2" NCoef="0" IVar="-1" Cut="0.0000000000000000e+00" cType="1" res="7.8583596041426063e-04" rms="4.6745693683624268e-01" purity="5.6831932067871094e-01" nType="-99"/>
        </Node>
      </Node>
    </BinaryTree>
    <BinaryTree type="DecisionTree" boostWeight="1.0000000000000000e+00" itree="243">
      <Node pos="s" depth="0" NCoef="0" IVar="1" Cut="3.9563449096679688e+02" cType="1" res="8.9670317247509956e-03" rms="4.6181258559226990e-01" purity="5.0135475397109985e-01" nType="0">
        <Node pos="l" depth="1" NCoef="0" IVar="1" Cut="3.5891973876953125e+02" cType="1" res="-5.5107381194829941e-02" rms="4.2712378501892090e-01" purity="3.0653786659240723e-01" nType="0">
          <Node pos="l" depth="2" NCoef="0" IVar="-1" Cut="0.0000000000000000e+00" cType="1" res="-4.3663368560373783e-03" rms="4.0769261121749878e-01" purity="2.5383409857749939e-01" nType="-99"/>
          <Node pos="r" depth="2" NCoef="0" IVar="-1" Cut="0.0000000000000000e+00" cType="1" res="-9.4769924180582166e-04" rms="4.3933340907096863e-01" purity="3.4763106703758240e-01" nType="-99"/>
        </Node>
        <Node pos="r" depth="1" NCoef="0" IVar="5" Cut="2.8412508964538574e+00" cType="1" res="1.9205892458558083e-02" rms="4.6630191802978516e-01" purity="5.3248584270477295e-01" nType="0">
          <Node pos="l" depth="2" NCoef="0" IVar="-1" Cut="0.0000000000000000e+00" cType="1" res="7.3304743273183703e-04" rms="4.6851342916488647e-01" purity="5.5035138130187988e-01" nType="-99"/>
          <Node pos="r" depth="2" NCoef="0" IVar="-1" Cut="0.0000000000000000e+00" cType="1" res="-4.2631602846086025e-03" rms="4.1324073076248169e-01" purity="2.4895249307155609e-01" nType="-99"/>
        </Node>
      </Node>
    </BinaryTree>
    <BinaryTree type="DecisionTree" boostWeight="1.0000000000000000e+00" itree="244">
      <Node pos="s" depth="0" NCoef="0" IVar="7" Cut="-1.1176129430532455e-01" cType="1" res="6.0656792484223843e-03" rms="4.6000605821609497e-01" purity="4.9829760193824768e-01" nType="0">
        <Node pos="l" depth="1" NCoef="0" IVar="-1" Cut="0.0000000000000000e+00" cType="1" res="-4.0737795643508434e-03" rms="4.3369820713996887e-01" purity="3.4779822826385498e-01" nType="-99"/>
        <Node pos="r" depth="1" NCoef="0" IVar="5" Cut="2.4527215957641602e+00" cType="1" res="1.3906703330576420e-02" rms="4.6068054437637329e-01" purity="5.0848191976547241e-01" nType="0">
          <Node pos="l" depth="2" NCoef="0" IVar="-1" Cut="0.0000000000000000e+00" cType="1" res="8.0065208021551371e-04" rms="4.6359482407569885e-01" purity="5.5212867259979248e-01" nType="-99"/>
          <Node pos="r" depth="2" NCoef="0" IVar="-1" Cut="0.0000000000000000e+00" cType="1" res="-1.4681061729788780e-03" rms="4.4607478380203247e-01" purity="3.5236802697181702e-01" nType="-99"/>
        </Node>
      </Node>
    </BinaryTree>
    <BinaryTree type="DecisionTree" boostWeight="1.0000000000000000e+00" itree="245">
      <Node pos="s" depth="0" NCoef="0" IVar="6" Cut="4.2118778228759766e+00" cType="1" res="7.8249461948871613e-03" rms="4.6094390749931335e-01" purity="5.0017744302749634e-01" nType="0">
        <Node pos="l" depth="1" NCoef="0" IVar="5" Cut="1.7469167709350586e+00" cType="1" res="-4.2695403099060059e-03" rms="4.6827900409698486e-01" purity="4.4155722856521606e-01" nType="0">
          <Node pos="l" depth="2" NCoef="0" IVar="-1" Cut="0.0000000000000000e+00" cType="1" res="1.6305473400279880e-03" rms="4.7573801875114441e-01" purity="5.5319792032241821e-01" nType="-99"/>
          <Node pos="r" depth="2" NCoef="0" IVar="-1" Cut="0.0000000000000000e+00" cType="1" res="-4.9124896759167314e-04" rms="4.6614468097686768e-01" purity="4.2293673753738403e-01" nType="-99"/>
        </Node>
        <Node pos="r" depth="1" NCoef="0" IVar="9" Cut="8.8038681030273438e+01" cType="1" res="5.7313598692417145e-02" rms="4.2606559395790100e-01" purity="7.4004179239273071e-01" nType="0">
          <Node pos="l" depth="2" NCoef="0" IVar="-1" Cut="0.0000000000000000e+00" cType="1" res="6.0462119290605187e-04" rms="4.4083318114280701e-01" purity="7.1416121721267700e-01" nType="-99"/>
          <Node pos="r" depth="2" NCoef="0" IVar="-1" Cut="0.0000000000000000e+00" cType="1" res="1.8729884177446365e-03" rms="4.1546967625617981e-01" purity="7.5585252046585083e-01" nType="-99"/>
        </Node>
      </Node>
    </BinaryTree>
    <BinaryTree type="DecisionTree" boostWeight="1.0000000000000000e+00" itree="246">
      <Node pos="s" depth="0" NCoef="0" IVar="5" Cut="1.6850054264068604e+00" cType="1" res="7.1294386871159077e-03" rms="4.6014040708541870e-01" purity="5.0007474422454834e-01" nType="0">
        <Node pos="l" depth="1" NCoef="0" IVar="8" Cut="1.1386479949951172e+02" cType="1" res="7.6184615492820740e-02" rms="4.5640760660171509e-01" purity="6.2117642164230347e-01" nType="0">
          <Node pos="l" depth="2" NCoef="0" IVar="-1" Cut="0.0000000000000000e+00" cType="1" res="8.3146238466724753e-04" rms="4.7162497043609619e-01" purity="5.4775881767272949e-01" nType="-99"/>
          <Node pos="r" depth="2" NCoef="0" IVar="-1" Cut="0.0000000000000000e+00" cType="1" res="2.7692741714417934e-03" rms="4.3952226638793945e-01" purity="6.8303406238555908e-01" nType="-99"/>
        </Node>
        <Node pos="r" depth="1" NCoef="0" IVar="6" Cut="2.1141817569732666e+00" cType="1" res="-2.9444554820656776e-03" rms="4.5981645584106445e-01" purity="4.8240819573402405e-01" nType="0">
          <Node pos="l" depth="2" NCoef="0" IVar="-1" Cut="0.0000000000000000e+00" cType="1" res="-1.5970881795510650e-03" rms="4.4416251778602600e-01" purity="3.0470928549766541e-01" nType="-99"/>
          <Node pos="r" depth="2" NCoef="0" IVar="-1" Cut="0.0000000000000000e+00" cType="1" res="4.0772190550342202e-04" rms="4.6650820970535278e-01" purity="5.7238799333572388e-01" nType="-99"/>
        </Node>
      </Node>
    </BinaryTree>
    <BinaryTree type="DecisionTree" boostWeight="1.0000000000000000e+00" itree="247">
      <Node pos="s" depth="0" NCoef="0" IVar="8" Cut="9.2612442016601562e+01" cType="1" res="7.6715266332030296e-03" rms="4.6235236525535583e-01" purity="4.9838265776634216e-01" nType="0">
        <Node pos="l" depth="1" NCoef="0" IVar="2" Cut="7.6484829187393188e-01" cType="1" res="-6.6034719347953796e-02" rms="4.5904755592346191e-01" purity="4.1286799311637878e-01" nType="0">
          <Node pos="l" depth="2" NCoef="0" IVar="-1" Cut="0.0000000000000000e+00" cType="1" res="-1.7570166382938623e-03" rms="4.6546602249145508e-01" purity="4.4897830486297607e-01" nType="-99"/>
          <Node pos="r" depth="2" NCoef="0" IVar="-1" Cut="0.0000000000000000e+00" cType="1" res="-2.6891171000897884e-03" rms="4.5230451226234436e-01" purity="3.7690410017967224e-01" nType="-99"/>
        </Node>
        <Node pos="r" depth="1" NCoef="0" IVar="2" Cut="5.4780840873718262e-01" cType="1" res="1.6030250117182732e-02" rms="4.6198385953903198e-01" purity="5.0808048248291016e-01" nType="0">
          <Node pos="l" depth="2" NCoef="0" IVar="-1" Cut="0.0000000000000000e+00" cType="1" res="1.7285109497606754e-03" rms="4.5577377080917358e-01" purity="5.9663391113281250e-01" nType="-99"/>
          <Node pos="r" depth="2" NCoef="0" IVar="-1" Cut="0.0000000000000000e+00" cType="1" res="6.7570283135864884e-05" rms="4.6281126141548157e-01" purity="4.8282366991043091e-01" nType="-99"/>
        </Node>
      </Node>
    </BinaryTree>
    <BinaryTree type="DecisionTree" boostWeight="1.0000000000000000e+00" itree="248">
      <Node pos="s" depth="0" NCoef="0" IVar="1" Cut="6.1284637451171875e+02" cType="1" res="3.2574725337326527e-03" rms="4.6207067370414734e-01" purity="4.9579367041587830e-01" nType="0">
        <Node pos="l" depth="1" NCoef="0" IVar="7" Cut="-1.0455364733934402e-01" cType="1" res="-1.4419822022318840e-02" rms="4.5893782377243042e-01" purity="4.4547849893569946e-01" nType="0">
          <Node pos="l" depth="2" NCoef="0" IVar="-1" Cut="0.0000000000000000e+00" cType="1" res="-4.5211175456643105e-03" rms="4.2218932509422302e-01" purity="2.8593662381172180e-01" nType="-99"/>
          <Node pos="r" depth="2" NCoef="0" IVar="-1" Cut="0.0000000000000000e+00" cType="1" res="-2.1273149468470365e-04" rms="4.6100679039955139e-01" purity="4.5860975980758667e-01" nType="-99"/>
        </Node>
        <Node pos="r" depth="1" NCoef="0" IVar="9" Cut="1.0925691986083984e+02" cType="1" res="4.1391286998987198e-02" rms="4.6648192405700684e-01" purity="6.0433453321456909e-01" nType="0">
          <Node pos="l" depth="2" NCoef="0" IVar="-1" Cut="0.0000000000000000e+00" cType="1" res="1.6476350720040500e-04" rms="4.7196033596992493e-01" purity="5.8093774318695068e-01" nType="-99"/>
          <Node pos="r" depth="2" NCoef="0" IVar="-1" Cut="0.0000000000000000e+00" cType="1" res="1.7269791569560766e-03" rms="4.6109589934349060e-01" purity="6.2047928571701050e-01" nType="-99"/>
        </Node>
      </Node>
    </BinaryTree>
    <BinaryTree type="DecisionTree" boostWeight="1.0000000000000000e+00" itree="249">
      <Node pos="s" depth="0" NCoef="0" IVar="8" Cut="9.2840309143066406e+01" cType="1" res="5.6942906230688095e-03" rms="4.6184015274047852e-01" purity="4.9826690554618835e-01" nType="0">
        <Node pos="l" depth="1" NCoef="0" IVar="2" Cut="7.5930744409561157e-01" cType="1" res="-6.5627343952655792e-02" rms="4.5538809895515442e-01" purity="4.1112014651298523e-01" nType="0">
          <Node pos="l" depth="2" NCoef="0" IVar="-1" Cut="0.0000000000000000e+00" cType="1" res="-1.4878837391734123e-03" rms="4.6538192033767700e-01" purity="4.5357760787010193e-01" nType="-99"/>
          <Node pos="r" depth="2" NCoef="0" IVar="-1" Cut="0.0000000000000000e+00" cType="1" res="-3.0027425382286310e-03" rms="4.4474425911903381e-01" purity="3.7004226446151733e-01" nType="-99"/>
        </Node>
        <Node pos="r" depth="1" NCoef="0" IVar="5" Cut="1.6933814287185669e+00" cType="1" res="1.3809517025947571e-02" rms="4.6187126636505127e-01" purity="5.0818276405334473e-01" nType="0">
          <Node pos="l" depth="2" NCoef="0" IVar="-1" Cut="0.0000000000000000e+00" cType="1" res="2.1172449924051762e-03" rms="4.5446678996086121e-01" purity="6.4125341176986694e-01" nType="-99"/>
          <Node pos="r" depth="2" NCoef="0" IVar="-1" Cut="0.0000000000000000e+00" cType="1" res="1.2825957674067467e-04" rms="4.6205130219459534e-01" purity="4.8997843265533447e-01" nType="-99"/>
        </Node>
      </Node>
    </BinaryTree>
    <BinaryTree type="DecisionTree" boostWeight="1.0000000000000000e+00" itree="250">
      <Node pos="s" depth="0" NCoef="0" IVar="1" Cut="4.0390548706054688e+02" cType="1" res="4.9822363071143627e-03" rms="4.6143200993537903e-01" purity="4.9714887142181396e-01" nType="0">
        <Node pos="l" depth="1" NCoef="0" IVar="0" Cut="1.1182131767272949e+00" cType="1" res="-5.9602390974760056e-02" rms="4.3206512928009033e-01" purity="3.0231946706771851e-01" nType="0">
          <Node pos="l" depth="2" NCoef="0" IVar="-1" Cut="0.0000000000000000e+00" cType="1" res="-9.9500128999352455e-04" rms="4.4702810049057007e-01" purity="3.5047528147697449e-01" nType="-99"/>
          <Node pos="r" depth="2" NCoef="0" IVar="-1" Cut="0.0000000000000000e+00" cType="1" res="-4.0299538522958755e-03" rms="4.1646000742912292e-01" purity="2.6033654808998108e-01" nType="-99"/>
        </Node>
        <Node pos="r" depth="1" NCoef="0" IVar="2" Cut="9.0482330322265625e-01" cType="1" res="1.7380321398377419e-02" rms="4.6583485603332520e-01" purity="5.3454953432083130e-01" nType="0">
          <Node pos="l" depth="2" NCoef="0" IVar="-1" Cut="0.0000000000000000e+00" cType="1" res="9.5755222719162703e-04" rms="4.6450585126876831e-01" purity="5.6698769330978394e-01" nType="-99"/>
          <Node pos="r" depth="2" NCoef="0" IVar="-1" Cut="0.0000000000000000e+00" cType="1" res="-5.6033924920484424e-04" rms="4.6649339795112610e-01" purity="4.6874350309371948e-01" nType="-99"/>
        </Node>
      </Node>
    </BinaryTree>
    <BinaryTree type="DecisionTree" boostWeight="1.0000000000000000e+00" itree="251">
      <Node pos="s" depth="0" NCoef="0" IVar="6" Cut="1.9573223590850830e+00" cType="1" res="6.4889071509242058e-03" rms="4.6051672101020813e-01" purity="5.0000673532485962e-01" nType="0">
        <Node pos="l" depth="1" NCoef="0" IVar="6" Cut="8.8384813070297241e-01" cType="1" res="-3.8346718996763229e-02" rms="4.4497975707054138e-01" purity="3.0511271953582764e-01" nType="0">
          <Node pos="l" depth="2" NCoef="0" IVar="-1" Cut="0.0000000000000000e+00" cType="1" res="-5.1243677735328674e-03" rms="4.0877705812454224e-01" purity="2.2733527421951294e-01" nType="-99"/>
          <Node pos="r" depth="2" NCoef="0" IVar="-1" Cut="0.0000000000000000e+00" cType="1" res="-8.7959371739998460e-04" rms="4.5247060060501099e-01" purity="3.2527151703834534e-01" nType="-99"/>
        </Node>
        <Node pos="r" depth="1" NCoef="0" IVar="3" Cut="2.2903119027614594e-01" cType="1" res="2.4352988228201866e-02" rms="4.6536117792129517e-01" purity="5.7765930891036987e-01" nType="0">
          <Node pos="l" depth="2" NCoef="0" IVar="-1" Cut="0.0000000000000000e+00" cType="1" res="2.5772871449589729e-03" rms="4.7175902128219604e-01" purity="5.8034974336624146e-01" nType="-99"/>
          <Node pos="r" depth="2" NCoef="0" IVar="-1" Cut="0.0000000000000000e+00" cType="1" res="3.6028234171681106e-04" rms="4.6341398358345032e-01" purity="5.7725512981414795e-01" nType="-99"/>
        </Node>
      </Node>
    </BinaryTree>
    <BinaryTree type="DecisionTree" boostWeight="1.0000000000000000e+00" itree="252">
      <Node pos="s" depth="0" NCoef="0" IVar="5" Cut="2.3067371845245361e+00" cType="1" res="1.4151623472571373e-02" rms="4.6210172772407532e-01" purity="5.0706773996353149e-01" nType="0">
        <Node pos="l" depth="1" NCoef="0" IVar="6" Cut="2.1717309951782227e+00" cType="1" res="3.3124458044767380e-02" rms="4.6417224407196045e-01" purity="5.6604558229446411e-01" nType="0">
          <Node pos="l" depth="2" NCoef="0" IVar="-1" Cut="0.0000000000000000e+00" cType="1" res="1.4498617019853555e-05" rms="4.7466251254081726e-01" purity="3.8949704170227051e-01" nType="-99"/>
          <Node pos="r" depth="2" NCoef="0" IVar="-1" Cut="0.0000000000000000e+00" cType="1" res="1.2206695973873138e-03" rms="4.5815691351890564e-01" purity="6.5169084072113037e-01" nType="-99"/>
        </Node>
        <Node pos="r" depth="1" NCoef="0" IVar="7" Cut="8.4473766386508942e-02" cType="1" res="-1.8056113272905350e-02" rms="4.5676460862159729e-01" purity="4.0694874525070190e-01" nType="0">
          <Node pos="l" depth="2" NCoef="0" IVar="-1" Cut="0.0000000000000000e+00" cType="1" res="-1.2067281641066074e-03" rms="4.5142480731010437e-01" purity="3.8066363334655762e-01" nType="-99"/>
          <Node pos="r" depth="2" NCoef="0" IVar="-1" Cut="0.0000000000000000e+00" cType="1" res="1.0335834231227636e-03" rms="4.7031691670417786e-01" purity="4.9481233954429626e-01" nType="-99"/>
        </Node>
      </Node>
    </BinaryTree>
    <BinaryTree type="DecisionTree" boostWeight="1.0000000000000000e+00" itree="253">
      <Node pos="s" depth="0" NCoef="0" IVar="8" Cut="1.0111430358886719e+02" cType="1" res="7.5028957799077034e-03" rms="4.6166297793388367e-01" purity="4.9902653694152832e-01" nType="0">
        <Node pos="l" depth="1" NCoef="0" IVar="6" Cut="2.9720830917358398e+00" cType="1" res="-4.6791266649961472e-02" rms="4.5771118998527527e-01" purity="4.3518880009651184e-01" nType="0">
          <Node pos="l" depth="2" NCoef="0" IVar="-1" Cut="0.0000000000000000e+00" cType="1" res="-2.7657265309244394e-03" rms="4.4615906476974487e-01" purity="3.1433942914009094e-01" nType="-99"/>
          <Node pos="r" depth="2" NCoef="0" IVar="-1" Cut="0.0000000000000000e+00" cType="1" res="-3.9093612576834857e-04" rms="4.7072780132293701e-01" purity="5.9589898586273193e-01" nType="-99"/>
        </Node>
        <Node pos="r" depth="1" NCoef="0" IVar="5" Cut="1.6859000921249390e+00" cType="1" res="1.8282089382410049e-02" rms="4.6168452501296997e-01" purity="5.1170039176940918e-01" nType="0">
          <Node pos="l" depth="2" NCoef="0" IVar="-1" Cut="0.0000000000000000e+00" cType="1" res="2.3528365418314934e-03" rms="4.5431718230247498e-01" purity="6.5067404508590698e-01" nType="-99"/>
          <Node pos="r" depth="2" NCoef="0" IVar="-1" Cut="0.0000000000000000e+00" cType="1" res="2.7091416995972395e-04" rms="4.6172392368316650e-01" purity="4.9472874402999878e-01" nType="-99"/>
        </Node>
      </Node>
    </BinaryTree>
    <BinaryTree type="DecisionTree" boostWeight="1.0000000000000000e+00" itree="254">
      <Node pos="s" depth="0" NCoef="0" IVar="6" Cut="3.4133126735687256e+00" cType="1" res="9.4078229740262032e-03" rms="4.6065592765808105e-01" purity="5.0278592109680176e-01" nType="0">
        <Node pos="l" depth="1" NCoef="0" IVar="2" Cut="9.4870126247406006e-01" cType="1" res="-8.5036745294928551e-03" rms="4.6673396229743958e-01" purity="4.0548115968704224e-01" nType="0">
          <Node pos="l" depth="2" NCoef="0" IVar="-1" Cut="0.0000000000000000e+00" cType="1" res="2.8707119054161012e-04" rms="4.7329524159431458e-01" purity="4.3665361404418945e-01" nType="-99"/>
          <Node pos="r" depth="2" NCoef="0" IVar="-1" Cut="0.0000000000000000e+00" cType="1" res="-1.9339553546160460e-03" rms="4.4748857617378235e-01" purity="3.2957932353019714e-01" nType="-99"/>
        </Node>
        <Node pos="r" depth="1" NCoef="0" IVar="3" Cut="5.5670446157455444e-01" cType="1" res="4.3193701654672623e-02" rms="4.4701778888702393e-01" purity="6.8632876873016357e-01" nType="0">
          <Node pos="l" depth="2" NCoef="0" IVar="-1" Cut="0.0000000000000000e+00" cType="1" res="2.3366233799606562e-03" rms="4.3455862998962402e-01" purity="7.1822190284729004e-01" nType="-99"/>
          <Node pos="r" depth="2" NCoef="0" IVar="-1" Cut="0.0000000000000000e+00" cType="1" res="5.0701753934845328e-04" rms="4.4970136880874634e-01" purity="6.7385065555572510e-01" nType="-99"/>
        </Node>
      </Node>
    </BinaryTree>
    <BinaryTree type="DecisionTree" boostWeight="1.0000000000000000e+00" itree="255">
      <Node pos="s" depth="0" NCoef="0" IVar="6" Cut="1.7129387855529785e+00" cType="1" res="4.6770977787673473e-03" rms="4.6202546358108521e-01" purity="4.9705931544303894e-01" nType="0">
        <Node pos="l" depth="1" NCoef="0" IVar="9" Cut="1.2338764953613281e+02" cType="1" res="-4.2163975536823273e-02" rms="4.3945154547691345e-01" purity="2.9522088170051575e-01" nType="0">
          <Node pos="l" depth="2" NCoef="0" IVar="-1" Cut="0.0000000000000000e+00" cType="1" res="-2.6944573037326336e-03" rms="4.3126529455184937e-01" purity="2.7310383319854736e-01" nType="-99"/>
          <Node pos="r" depth="2" NCoef="0" IVar="-1" Cut="0.0000000000000000e+00" cType="1" res="2.6655328110791743e-04" rms="4.5642057061195374e-01" purity="3.5266345739364624e-01" nType="-99"/>
        </Node>
        <Node pos="r" depth="1" NCoef="0" IVar="3" Cut="2.2903673350811005e-01" cType="1" res="1.8113644793629646e-02" rms="4.6743452548980713e-01" purity="5.5495744943618774e-01" nType="0">
          <Node pos="l" depth="2" NCoef="0" IVar="-1" Cut="0.0000000000000000e+00" cType="1" res="2.3100611288100481e-03" rms="4.7224593162536621e-01" purity="5.4394048452377319e-01" nType="-99"/>
          <Node pos="r" depth="2" NCoef="0" IVar="-1" Cut="0.0000000000000000e+00" cType="1" res="1.7767852114047855e-04" rms="4.6560674905776978e-01" purity="5.5697566270828247e-01" nType="-99"/>
        </Node>
      </Node>
    </BinaryTree>
    <BinaryTree type="DecisionTree" boostWeight="1.0000000000000000e+00" itree="256">
      <Node pos="s" depth="0" NCoef="0" IVar="5" Cut="2.2859897613525391e+00" cType="1" res="4.4290595687925816e-03" rms="4.6098452806472778e-01" purity="4.9725160002708435e-01" nType="0">
        <Node pos="l" depth="1" NCoef="0" IVar="1" Cut="3.8501473999023438e+02" cType="1" res="2.4591607972979546e-02" rms="4.6325188875198364e-01" purity="5.5915307998657227e-01" nType="0">
          <Node pos="l" depth="2" NCoef="0" IVar="-1" Cut="0.0000000000000000e+00" cType="1" res="-2.1541414316743612e-03" rms="4.4335991144180298e-01" purity="3.4206438064575195e-01" nType="-99"/>
          <Node pos="r" depth="2" NCoef="0" IVar="-1" Cut="0.0000000000000000e+00" cType="1" res="9.0769899543374777e-04" rms="4.6458020806312561e-01" purity="5.8384227752685547e-01" nType="-99"/>
        </Node>
        <Node pos="r" depth="1" NCoef="0" IVar="5" Cut="2.7453184127807617e+00" cType="1" res="-2.7239145711064339e-02" rms="4.5560282468795776e-01" purity="4.0002638101577759e-01" nType="0">
          <Node pos="l" depth="2" NCoef="0" IVar="-1" Cut="0.0000000000000000e+00" cType="1" res="-4.3740714318118989e-04" rms="4.6592748165130615e-01" purity="4.4182917475700378e-01" nType="-99"/>
          <Node pos="r" depth="2" NCoef="0" IVar="-1" Cut="0.0000000000000000e+00" cType="1" res="-3.4672990441322327e-03" rms="4.1371294856071472e-01" purity="2.5306484103202820e-01" nType="-99"/>
        </Node>
      </Node>
    </BinaryTree>
    <BinaryTree type="DecisionTree" boostWeight="1.0000000000000000e+00" itree="257">
      <Node pos="s" depth="0" NCoef="0" IVar="6" Cut="9.8874342441558838e-01" cType="1" res="7.8467214480042458e-03" rms="4.6229195594787598e-01" purity="5.0075346231460571e-01" nType="0">
        <Node pos="l" depth="1" NCoef="0" IVar="-1" Cut="0.0000000000000000e+00" cType="1" res="-4.1352356784045696e-03" rms="4.1566121578216553e-01" purity="2.4261072278022766e-01" nType="-99"/>
        <Node pos="r" depth="1" NCoef="0" IVar="3" Cut="1.9032187759876251e-01" cType="1" res="1.4912088401615620e-02" rms="4.6493309736251831e-01" purity="5.2060317993164062e-01" nType="0">
          <Node pos="l" depth="2" NCoef="0" IVar="-1" Cut="0.0000000000000000e+00" cType="1" res="2.7534463442862034e-03" rms="4.7327354550361633e-01" purity="5.0267279148101807e-01" nType="-99"/>
          <Node pos="r" depth="2" NCoef="0" IVar="-1" Cut="0.0000000000000000e+00" cType="1" res="2.4470777134411037e-05" rms="4.6200236678123474e-01" purity="5.2394503355026245e-01" nType="-99"/>
        </Node>
      </Node>
    </BinaryTree>
    <BinaryTree type="DecisionTree" boostWeight="1.0000000000000000e+00" itree="258">
      <Node pos="s" depth="0" NCoef="0" IVar="6" Cut="1.5010296106338501e+00" cType="1" res="8.6198551580309868e-03" rms="4.6070176362991333e-01" purity="5.0327622890472412e-01" nType="0">
        <Node pos="l" depth="1" NCoef="0" IVar="3" Cut="1.7959807813167572e-01" cType="1" res="-4.8760112375020981e-02" rms="4.3747878074645996e-01" purity="2.8128001093864441e-01" nType="0">
          <Node pos="l" depth="2" NCoef="0" IVar="-1" Cut="0.0000000000000000e+00" cType="1" res="-8.9914468117058277e-04" rms="4.5278149843215942e-01" purity="3.1483772397041321e-01" nType="-99"/>
          <Node pos="r" depth="2" NCoef="0" IVar="-1" Cut="0.0000000000000000e+00" cType="1" res="-4.0140682831406593e-03" rms="4.1385537385940552e-01" purity="2.3747736215591431e-01" nType="-99"/>
        </Node>
        <Node pos="r" depth="1" NCoef="0" IVar="3" Cut="2.2903497517108917e-01" cType="1" res="2.0357996225357056e-02" rms="4.6443706750869751e-01" purity="5.4868966341018677e-01" nType="0">
          <Node pos="l" depth="2" NCoef="0" IVar="-1" Cut="0.0000000000000000e+00" cType="1" res="2.2071364801377058e-03" rms="4.7165110707283020e-01" purity="5.2726417779922485e-01" nType="-99"/>
          <Node pos="r" depth="2" NCoef="0" IVar="-1" Cut="0.0000000000000000e+00" cType="1" res="2.2912725398782641e-04" rms="4.6198675036430359e-01" purity="5.5326777696609497e-01" nType="-99"/>
        </Node>
      </Node>
    </BinaryTree>
    <BinaryTree type="DecisionTree" boostWeight="1.0000000000000000e+00" itree="259">
      <Node pos="s" depth="0" NCoef="0" IVar="5" Cut="2.7189910411834717e+00" cType="1" res="9.3144699931144714e-03" rms="4.6184247732162476e-01" purity="5.0179946422576904e-01" nType="0">
        <Node pos="l" depth="1" NCoef="0" IVar="1" Cut="4.0395260620117188e+02" cType="1" res="1.6933398321270943e-02" rms="4.6535187959671021e-01" purity="5.2648329734802246e-01" nType="0">
          <Node pos="l" depth="2" NCoef="0" IVar="-1" Cut="0.0000000000000000e+00" cType="1" res="-1.5247921692207456e-03" rms="4.4104370474815369e-01" purity="3.4216907620429993e-01" nType="-99"/>
          <Node pos="r" depth="2" NCoef="0" IVar="-1" Cut="0.0000000000000000e+00" cType="1" res="7.5575651135295630e-04" rms="4.6894606947898865e-01" purity="5.6049060821533203e-01" nType="-99"/>
        </Node>
        <Node pos="r" depth="1" NCoef="0" IVar="-1" Cut="0.0000000000000000e+00" cType="1" res="-2.8676798101514578e-03" rms="4.2025136947631836e-01" purity="2.6738750934600830e-01" nType="-99"/>
      </Node>
    </BinaryTree>
    <BinaryTree type="DecisionTree" boostWeight="1.0000000000000000e+00" itree="260">
      <Node pos="s" depth="0" NCoef="0" IVar="1" Cut="4.3970571899414062e+02" cType="1" res="8.7196743115782738e-03" rms="4.6198719739913940e-01" purity="5.0261116027832031e-01" nType="0">
        <Node pos="l" depth="1" NCoef="0" IVar="3" Cut="1.9030784070491791e-01" cType="1" res="-3.1991582363843918e-02" rms="4.4386959075927734e-01" purity="3.5389432311058044e-01" nType="0">
          <Node pos="l" depth="2" NCoef="0" IVar="-1" Cut="0.0000000000000000e+00" cType="1" res="1.5735358465462923e-03" rms="4.4015070796012878e-01" purity="3.1548461318016052e-01" nType="-99"/>
          <Node pos="r" depth="2" NCoef="0" IVar="-1" Cut="0.0000000000000000e+00" cType="1" res="-1.7844629473984241e-03" rms="4.4318097829818726e-01" purity="3.6430051922798157e-01" nType="-99"/>
        </Node>
        <Node pos="r" depth="1" NCoef="0" IVar="7" Cut="-6.1751391738653183e-02" cType="1" res="2.2724866867065430e-02" rms="4.6723845601081848e-01" purity="5.5377173423767090e-01" nType="0">
          <Node pos="l" depth="2" NCoef="0" IVar="-1" Cut="0.0000000000000000e+00" cType="1" res="-5.5150565458461642e-04" rms="4.6609228849411011e-01" purity="4.8305013775825500e-01" nType="-99"/>
          <Node pos="r" depth="2" NCoef="0" IVar="-1" Cut="0.0000000000000000e+00" cType="1" res="1.0224968427792192e-03" rms="4.6674761176109314e-01" purity="5.8030086755752563e-01" nType="-99"/>
        </Node>
      </Node>
    </BinaryTree>
    <BinaryTree type="DecisionTree" boostWeight="1.0000000000000000e+00" itree="261">
      <Node pos="s" depth="0" NCoef="0" IVar="0" Cut="1.0645828247070312e+00" cType="1" res="2.5313743390142918e-03" rms="4.6280869841575623e-01" purity="4.9297219514846802e-01" nType="0">
        <Node pos="l" depth="1" NCoef="0" IVar="5" Cut="2.1497757434844971e+00" cType="1" res="2.7482600882649422e-02" rms="4.6407797932624817e-01" purity="5.3607946634292603e-01" nType="0">
          <Node pos="l" depth="2" NCoef="0" IVar="-1" Cut="0.0000000000000000e+00" cType="1" res="1.4424067921936512e-03" rms="4.6011030673980713e-01" purity="6.0700541734695435e-01" nType="-99"/>
          <Node pos="r" depth="2" NCoef="0" IVar="-1" Cut="0.0000000000000000e+00" cType="1" res="2.2172679018694907e-04" rms="4.6587559580802917e-01" purity="4.8489257693290710e-01" nType="-99"/>
        </Node>
        <Node pos="r" depth="1" NCoef="0" IVar="1" Cut="5.7332482910156250e+02" cType="1" res="-2.3539222776889801e-02" rms="4.6003529429435730e-01" purity="4.4793099164962769e-01" nType="0">
          <Node pos="l" depth="2" NCoef="0" IVar="-1" Cut="0.0000000000000000e+00" cType="1" res="-1.6186474822461605e-03" rms="4.5291888713836670e-01" purity="3.8727033138275146e-01" nType="-99"/>
          <Node pos="r" depth="2" NCoef="0" IVar="-1" Cut="0.0000000000000000e+00" cType="1" res="6.7110778763890266e-04" rms="4.7135460376739502e-01" purity="5.7817977666854858e-01" nType="-99"/>
        </Node>
      </Node>
    </BinaryTree>
    <BinaryTree type="DecisionTree" boostWeight="1.0000000000000000e+00" itree="262">
      <Node pos="s" depth="0" NCoef="0" IVar="7" Cut="2.5332883000373840e-02" cType="1" res="1.1650933884084225e-02" rms="4.6040457487106323e-01" purity="5.0560802221298218e-01" nType="0">
        <Node pos="l" depth="1" NCoef="0" IVar="2" Cut="7.9621356725692749e-01" cType="1" res="-1.3780941255390644e-02" rms="4.5745801925659180e-01" purity="4.6137589216232300e-01" nType="0">
          <Node pos="l" depth="2" NCoef="0" IVar="-1" Cut="0.0000000000000000e+00" cType="1" res="4.4386927038431168e-04" rms="4.6156200766563416e-01" purity="5.2024656534194946e-01" nType="-99"/>
          <Node pos="r" depth="2" NCoef="0" IVar="-1" Cut="0.0000000000000000e+00" cType="1" res="-2.0085819996893406e-03" rms="4.4811543822288513e-01" purity="3.7603703141212463e-01" nType="-99"/>
        </Node>
        <Node pos="r" depth="1" NCoef="0" IVar="1" Cut="7.6380249023437500e+02" cType="1" res="4.2822755873203278e-02" rms="4.6208533644676208e-01" purity="5.5982333421707153e-01" nType="0">
          <Node pos="l" depth="2" NCoef="0" IVar="-1" Cut="0.0000000000000000e+00" cType="1" res="8.9366122847422957e-04" rms="4.6418726444244385e-01" purity="5.3591716289520264e-01" nType="-99"/>
          <Node pos="r" depth="2" NCoef="0" IVar="-1" Cut="0.0000000000000000e+00" cType="1" res="2.6003280654549599e-03" rms="4.4437918066978455e-01" purity="6.9801771640777588e-01" nType="-99"/>
        </Node>
      </Node>
    </BinaryTree>
    <BinaryTree type="DecisionTree" boostWeight="1.0000000000000000e+00" itree="263">
      <Node pos="s" depth="0" NCoef="0" IVar="1" Cut="7.7941973876953125e+02" cType="1" res="1.3328245840966702e-02" rms="4.6087539196014404e-01" purity="5.0590372085571289e-01" nType="0">
        <Node pos="l" depth="1" NCoef="0" IVar="7" Cut="-1.0938233882188797e-01" cType="1" res="3.0788532458245754e-03" rms="4.6132954955101013e-01" purity="4.8183578252792358e-01" nType="0">
          <Node pos="l" depth="2" NCoef="0" IVar="-1" Cut="0.0000000000000000e+00" cType="1" res="-4.4939978979527950e-03" rms="4.2690360546112061e-01" purity="3.1406092643737793e-01" nType="-99"/>
          <Node pos="r" depth="2" NCoef="0" IVar="-1" Cut="0.0000000000000000e+00" cType="1" res="3.2446233672089875e-04" rms="4.6249166131019592e-01" purity="4.9300459027290344e-01" nType="-99"/>
        </Node>
        <Node pos="r" depth="1" NCoef="0" IVar="3" Cut="3.1651186943054199e-01" cType="1" res="7.6074704527854919e-02" rms="4.5305848121643066e-01" purity="6.5324717760086060e-01" nType="0">
          <Node pos="l" depth="2" NCoef="0" IVar="-1" Cut="0.0000000000000000e+00" cType="1" res="2.9006199911236763e-03" rms="4.7176399827003479e-01" purity="6.0221052169799805e-01" nType="-99"/>
          <Node pos="r" depth="2" NCoef="0" IVar="-1" Cut="0.0000000000000000e+00" cType="1" res="1.3420236064121127e-03" rms="4.3899875879287720e-01" purity="6.8626797199249268e-01" nType="-99"/>
        </Node>
      </Node>
    </BinaryTree>
    <BinaryTree type="DecisionTree" boostWeight="1.0000000000000000e+00" itree="264">
      <Node pos="s" depth="0" NCoef="0" IVar="2" Cut="7.6284730434417725e-01" cType="1" res="5.9798737056553364e-03" rms="4.6064662933349609e-01" purity="4.9835738539695740e-01" nType="0">
        <Node pos="l" depth="1" NCoef="0" IVar="1" Cut="3.9472412109375000e+02" cType="1" res="3.3298719674348831e-02" rms="4.5865049958229065e-01" purity="5.5588108301162720e-01" nType="0">
          <Node pos="l" depth="2" NCoef="0" IVar="-1" Cut="0.0000000000000000e+00" cType="1" res="-1.8881266005337238e-03" rms="4.3617433309555054e-01" purity="3.3056563138961792e-01" nType="-99"/>
          <Node pos="r" depth="2" NCoef="0" IVar="-1" Cut="0.0000000000000000e+00" cType="1" res="1.1856766650453210e-03" rms="4.6046915650367737e-01" purity="5.8544123172760010e-01" nType="-99"/>
        </Node>
        <Node pos="r" depth="1" NCoef="0" IVar="7" Cut="7.5162932276725769e-02" cType="1" res="-2.0108751952648163e-02" rms="4.6103623509407043e-01" purity="4.4342407584190369e-01" nType="0">
          <Node pos="l" depth="2" NCoef="0" IVar="-1" Cut="0.0000000000000000e+00" cType="1" res="-1.7875216435641050e-03" rms="4.5197159051895142e-01" purity="3.8907843828201294e-01" nType="-99"/>
          <Node pos="r" depth="2" NCoef="0" IVar="-1" Cut="0.0000000000000000e+00" cType="1" res="7.8730558743700385e-04" rms="4.7072678804397583e-01" purity="5.2755743265151978e-01" nType="-99"/>
        </Node>
      </Node>
    </BinaryTree>
    <BinaryTree type="DecisionTree" boostWeight="1.0000000000000000e+00" itree="265">
      <Node pos="s" depth="0" NCoef="0" IVar="6" Cut="4.6944932937622070e+00" cType="1" res="5.2669798023998737e-03" rms="4.5978781580924988e-01" purity="4.9826264381408691e-01" nType="0">
        <Node pos="l" depth="1" NCoef="0" IVar="5" Cut="1.7037526369094849e+00" cType="1" res="-4.6792468056082726e-03" rms="4.6618095040321350e-01" purity="4.5859035849571228e-01" nType="0">
          <Node pos="l" depth="2" NCoef="0" IVar="-1" Cut="0.0000000000000000e+00" cType="1" res="1.3750460930168629e-03" rms="4.7105616331100464e-01" purity="5.7039415836334229e-01" nType="-99"/>
          <Node pos="r" depth="2" NCoef="0" IVar="-1" Cut="0.0000000000000000e+00" cType="1" res="-4.1688489727675915e-04" rms="4.6485838294029236e-01" purity="4.4199752807617188e-01" nType="-99"/>
        </Node>
        <Node pos="r" depth="1" NCoef="0" IVar="-1" Cut="0.0000000000000000e+00" cType="1" res="1.8516930285841227e-03" rms="4.0506970882415771e-01" purity="7.7781444787979126e-01" nType="-99"/>
      </Node>
    </BinaryTree>
    <BinaryTree type="DecisionTree" boostWeight="1.0000000000000000e+00" itree="266">
      <Node pos="s" depth="0" NCoef="0" IVar="6" Cut="4.9151616096496582e+00" cType="1" res="8.9422874152660370e-03" rms="4.5955890417098999e-01" purity="5.0428551435470581e-01" nType="0">
        <Node pos="l" depth="1" NCoef="0" IVar="3" Cut="3.2580995559692383e-01" cType="1" res="-8.7888806592673063e-04" rms="4.6603149175643921e-01" purity="4.7004735469818115e-01" nType="0">
          <Node pos="l" depth="2" NCoef="0" IVar="-1" Cut="0.0000000000000000e+00" cType="1" res="8.0672494368627667e-04" rms="4.6363663673400879e-01" purity="4.2953082919120789e-01" nType="-99"/>
          <Node pos="r" depth="2" NCoef="0" IVar="-1" Cut="0.0000000000000000e+00" cType="1" res="-7.1320874849334359e-04" rms="4.6705779433250427e-01" purity="5.0933241844177246e-01" nType="-99"/>
        </Node>
        <Node pos="r" depth="1" NCoef="0" IVar="-1" Cut="0.0000000000000000e+00" cType="1" res="2.2719383705407381e-03" rms="3.8895121216773987e-01" purity="8.0061376094818115e-01" nType="-99"/>
      </Node>
    </BinaryTree>
    <BinaryTree type="DecisionTree" boostWeight="1.0000000000000000e+00" itree="267">
      <Node pos="s" depth="0" NCoef="0" IVar="2" Cut="8.3505815267562866e-01" cType="1" res="7.6025943271815777e-03" rms="4.6250686049461365e-01" purity="4.9953889846801758e-01" nType="0">
        <Node pos="l" depth="1" NCoef="0" IVar="8" Cut="9.1770538330078125e+01" cType="1" res="2.7999563142657280e-02" rms="4.6268483996391296e-01" purity="5.4248577356338501e-01" nType="0">
          <Node pos="l" depth="2" NCoef="0" IVar="-1" Cut="0.0000000000000000e+00" cType="1" res="-1.5831105411052704e-03" rms="4.6368268132209778e-01" purity="4.4887769222259521e-01" nType="-99"/>
          <Node pos="r" depth="2" NCoef="0" IVar="-1" Cut="0.0000000000000000e+00" cType="1" res="1.0230786865577102e-03" rms="4.6178588271141052e-01" purity="5.5269324779510498e-01" nType="-99"/>
        </Node>
        <Node pos="r" depth="1" NCoef="0" IVar="7" Cut="-1.3042051345109940e-02" cType="1" res="-1.9854201003909111e-02" rms="4.6084383130073547e-01" purity="4.4172719120979309e-01" nType="0">
          <Node pos="l" depth="2" NCoef="0" IVar="-1" Cut="0.0000000000000000e+00" cType="1" res="-2.4002201389521360e-03" rms="4.4591471552848816e-01" purity="3.5834133625030518e-01" nType="-99"/>
          <Node pos="r" depth="2" NCoef="0" IVar="-1" Cut="0.0000000000000000e+00" cType="1" res="2.5018086307682097e-04" rms="4.6789065003395081e-01" purity="4.9469652771949768e-01" nType="-99"/>
        </Node>
      </Node>
    </BinaryTree>
    <BinaryTree type="DecisionTree" boostWeight="1.0000000000000000e+00" itree="268">
      <Node pos="s" depth="0" NCoef="0" IVar="6" Cut="3.9958367347717285e+00" cType="1" res="9.0465415269136429e-03" rms="4.6009516716003418e-01" purity="5.0283360481262207e-01" nType="0">
        <Node pos="l" depth="1" NCoef="0" IVar="9" Cut="1.0540419769287109e+02" cType="1" res="-4.6354020014405251e-03" rms="4.6815258264541626e-01" purity="4.3396705389022827e-01" nType="0">
          <Node pos="l" depth="2" NCoef="0" IVar="-1" Cut="0.0000000000000000e+00" cType="1" res="-9.0716616250574589e-04" rms="4.6547102928161621e-01" purity="4.0625035762786865e-01" nType="-99"/>
          <Node pos="r" depth="2" NCoef="0" IVar="-1" Cut="0.0000000000000000e+00" cType="1" res="7.6618150342255831e-04" rms="4.6993592381477356e-01" purity="4.6979710459709167e-01" nType="-99"/>
        </Node>
        <Node pos="r" depth="1" NCoef="0" IVar="6" Cut="4.9498782157897949e+00" cType="1" res="5.4059240967035294e-02" rms="4.2946392297744751e-01" purity="7.2940015792846680e-01" nType="0">
          <Node pos="l" depth="2" NCoef="0" IVar="-1" Cut="0.0000000000000000e+00" cType="1" res="8.3129608538001776e-04" rms="4.5153459906578064e-01" purity="6.8472194671630859e-01" nType="-99"/>
          <Node pos="r" depth="2" NCoef="0" IVar="-1" Cut="0.0000000000000000e+00" cType="1" res="2.0397955086082220e-03" rms="3.9429077506065369e-01" purity="7.9272192716598511e-01" nType="-99"/>
        </Node>
      </Node>
    </BinaryTree>
    <BinaryTree type="DecisionTree" boostWeight="1.0000000000000000e+00" itree="269">
      <Node pos="s" depth="0" NCoef="0" IVar="6" Cut="5.0909295082092285e+00" cType="1" res="6.7635164596140385e-03" rms="4.6068266034126282e-01" purity="5.0020784139633179e-01" nType="0">
        <Node pos="l" depth="1" NCoef="0" IVar="3" Cut="2.0968163013458252e-01" cType="1" res="-2.0474272314459085e-03" rms="4.6653801202774048e-01" purity="4.7076988220214844e-01" nType="0">
          <Node pos="l" depth="2" NCoef="0" IVar="-1" Cut="0.0000000000000000e+00" cType="1" res="1.1853476753458381e-03" rms="4.6235629916191101e-01" purity="4.2665836215019226e-01" nType="-99"/>
          <Node pos="r" depth="2" NCoef="0" IVar="-1" Cut="0.0000000000000000e+00" cType="1" res="-4.6537059824913740e-04" rms="4.6735653281211853e-01" purity="4.8728984594345093e-01" nType="-99"/>
        </Node>
        <Node pos="r" depth="1" NCoef="0" IVar="-1" Cut="0.0000000000000000e+00" cType="1" res="2.4150782264769077e-03" rms="3.8058665394783020e-01" purity="8.1343072652816772e-01" nType="-99"/>
      </Node>
    </BinaryTree>
    <BinaryTree type="DecisionTree" boostWeight="1.0000000000000000e+00" itree="270">
      <Node pos="s" depth="0" NCoef="0" IVar="6" Cut="4.6967482566833496e+00" cType="1" res="5.2508176304399967e-03" rms="4.5914700627326965e-01" purity="4.9776387214660645e-01" nType="0">
        <Node pos="l" depth="1" NCoef="0" IVar="4" Cut="7.1820167541503906e+01" cType="1" res="-5.5714799091219902e-03" rms="4.6621125936508179e-01" purity="4.5574319362640381e-01" nType="0">
          <Node pos="l" depth="2" NCoef="0" IVar="-1" Cut="0.0000000000000000e+00" cType="1" res="-1.0288141202181578e-03" rms="4.5890471339225769e-01" purity="4.0520107746124268e-01" nType="-99"/>
          <Node pos="r" depth="2" NCoef="0" IVar="-1" Cut="0.0000000000000000e+00" cType="1" res="6.5783836180344224e-04" rms="4.7283780574798584e-01" purity="5.1366698741912842e-01" nType="-99"/>
        </Node>
        <Node pos="r" depth="1" NCoef="0" IVar="-1" Cut="0.0000000000000000e+00" cType="1" res="1.9325142493471503e-03" rms="4.0040543675422668e-01" purity="7.8262698650360107e-01" nType="-99"/>
      </Node>
    </BinaryTree>
    <BinaryTree type="DecisionTree" boostWeight="1.0000000000000000e+00" itree="271">
      <Node pos="s" depth="0" NCoef="0" IVar="5" Cut="1.6714614629745483e+00" cType="1" res="2.6817747857421637e-03" rms="4.6058961749076843e-01" purity="4.9632653594017029e-01" nType="0">
        <Node pos="l" depth="1" NCoef="0" IVar="4" Cut="7.5891357421875000e+01" cType="1" res="6.5697409212589264e-02" rms="4.5436143875122070e-01" purity="6.1439830064773560e-01" nType="0">
          <Node pos="l" depth="2" NCoef="0" IVar="-1" Cut="0.0000000000000000e+00" cType="1" res="7.1925885276868939e-04" rms="4.6293082833290100e-01" purity="5.5430406332015991e-01" nType="-99"/>
          <Node pos="r" depth="2" NCoef="0" IVar="-1" Cut="0.0000000000000000e+00" cType="1" res="2.4533793330192566e-03" rms="4.4388571381568909e-01" purity="6.6680008172988892e-01" nType="-99"/>
        </Node>
        <Node pos="r" depth="1" NCoef="0" IVar="9" Cut="9.3475860595703125e+01" cType="1" res="-6.3186283223330975e-03" rms="4.6076947450637817e-01" purity="4.7946259379386902e-01" nType="0">
          <Node pos="l" depth="2" NCoef="0" IVar="-1" Cut="0.0000000000000000e+00" cType="1" res="-1.0505500249564648e-03" rms="4.6038192510604858e-01" purity="4.4129979610443115e-01" nType="-99"/>
          <Node pos="r" depth="2" NCoef="0" IVar="-1" Cut="0.0000000000000000e+00" cType="1" res="3.6361618549562991e-04" rms="4.6015107631683350e-01" purity="5.0627261400222778e-01" nType="-99"/>
        </Node>
      </Node>
    </BinaryTree>
    <BinaryTree type="DecisionTree" boostWeight="1.0000000000000000e+00" itree="272">
      <Node pos="s" depth="0" NCoef="0" IVar="7" Cut="1.8272005021572113e-01" cType="1" res="5.6947544217109680e-03" rms="4.6249687671661377e-01" purity="4.9791195988655090e-01" nType="0">
        <Node pos="l" depth="1" NCoef="0" IVar="2" Cut="7.9212075471878052e-01" cType="1" res="-2.6058026123791933e-03" rms="4.6236091852188110e-01" purity="4.8344889283180237e-01" nType="0">
          <Node pos="l" depth="2" NCoef="0" IVar="-1" Cut="0.0000000000000000e+00" cType="1" res="5.4097757674753666e-04" rms="4.6159365773200989e-01" purity="5.3533095121383667e-01" nType="-99"/>
          <Node pos="r" depth="2" NCoef="0" IVar="-1" Cut="0.0000000000000000e+00" cType="1" res="-9.4086816534399986e-04" rms="4.6197250485420227e-01" purity="4.2153814435005188e-01" nType="-99"/>
        </Node>
        <Node pos="r" depth="1" NCoef="0" IVar="0" Cut="1.1117554903030396e+00" cType="1" res="6.1799954622983932e-02" rms="4.5949950814247131e-01" purity="5.9567093849182129e-01" nType="0">
          <Node pos="l" depth="2" NCoef="0" IVar="-1" Cut="0.0000000000000000e+00" cType="1" res="2.2257170639932156e-03" rms="4.5156759023666382e-01" purity="6.3756376504898071e-01" nType="-99"/>
          <Node pos="r" depth="2" NCoef="0" IVar="-1" Cut="0.0000000000000000e+00" cType="1" res="8.5576443234458566e-04" rms="4.6719998121261597e-01" purity="5.4392564296722412e-01" nType="-99"/>
        </Node>
      </Node>
    </BinaryTree>
    <BinaryTree type="DecisionTree" boostWeight="1.0000000000000000e+00" itree="273">
      <Node pos="s" depth="0" NCoef="0" IVar="6" Cut="4.9108719825744629e+00" cType="1" res="3.4240402746945620e-03" rms="4.6032637357711792e-01" purity="4.9621075391769409e-01" nType="0">
        <Node pos="l" depth="1" NCoef="0" IVar="7" Cut="-1.1430063098669052e-01" cType="1" res="-4.9321968108415604e-03" rms="4.6631187200546265e-01" purity="4.6336361765861511e-01" nType="0">
          <Node pos="l" depth="2" NCoef="0" IVar="-1" Cut="0.0000000000000000e+00" cType="1" res="-4.3680318631231785e-03" rms="4.2959085106849670e-01" purity="3.1446510553359985e-01" nType="-99"/>
          <Node pos="r" depth="2" NCoef="0" IVar="-1" Cut="0.0000000000000000e+00" cType="1" res="4.1486167901894078e-05" rms="4.6764585375785828e-01" purity="4.7219836711883545e-01" nType="-99"/>
        </Node>
        <Node pos="r" depth="1" NCoef="0" IVar="-1" Cut="0.0000000000000000e+00" cType="1" res="1.9296531099826097e-03" rms="3.9512127637863159e-01" purity="7.8981530666351318e-01" nType="-99"/>
      </Node>
    </BinaryTree>
    <BinaryTree type="DecisionTree" boostWeight="1.0000000000000000e+00" itree="274">
      <Node pos="s" depth="0" NCoef="0" IVar="6" Cut="2.2428410053253174e+00" cType="1" res="2.0290268585085869e-03" rms="4.6018478274345398e-01" purity="4.9539363384246826e-01" nType="0">
        <Node pos="l" depth="1" NCoef="0" IVar="4" Cut="1.0414083099365234e+02" cType="1" res="-3.0926080420613289e-02" rms="4.4948410987854004e-01" purity="3.2296106219291687e-01" nType="0">
          <Node pos="l" depth="2" NCoef="0" IVar="-1" Cut="0.0000000000000000e+00" cType="1" res="-2.0540247205644846e-03" rms="4.3754234910011292e-01" purity="2.8699934482574463e-01" nType="-99"/>
          <Node pos="r" depth="2" NCoef="0" IVar="-1" Cut="0.0000000000000000e+00" cType="1" res="6.6023977706208825e-04" rms="4.8113444447517395e-01" purity="4.3490841984748840e-01" nType="-99"/>
        </Node>
        <Node pos="r" depth="1" NCoef="0" IVar="3" Cut="4.0323266386985779e-01" cType="1" res="2.0693100988864899e-02" rms="4.6510156989097595e-01" purity="5.9305059909820557e-01" nType="0">
          <Node pos="l" depth="2" NCoef="0" IVar="-1" Cut="0.0000000000000000e+00" cType="1" res="1.7495390493422747e-03" rms="4.6966153383255005e-01" purity="5.8548206090927124e-01" nType="-99"/>
          <Node pos="r" depth="2" NCoef="0" IVar="-1" Cut="0.0000000000000000e+00" cType="1" res="-5.3654537623515353e-05" rms="4.6117088198661804e-01" purity="5.9670561552047729e-01" nType="-99"/>
        </Node>
      </Node>
    </BinaryTree>
    <BinaryTree type="DecisionTree" boostWeight="1.0000000000000000e+00" itree="275">
      <Node pos="s" depth="0" NCoef="0" IVar="5" Cut="1.8035235404968262e+00" cType="1" res="7.8062652610242367e-03" rms="4.5965614914894104e-01" purity="5.0266742706298828e-01" nType="0">
        <Node pos="l" depth="1" NCoef="0" IVar="0" Cut="1.1513153314590454e+00" cType="1" res="5.9431035071611404e-02" rms="4.5662420988082886e-01" purity="5.9979420900344849e-01" nType="0">
          <Node pos="l" depth="2" NCoef="0" IVar="-1" Cut="0.0000000000000000e+00" cType="1" res="2.3601935245096684e-03" rms="4.5448872447013855e-01" purity="6.4861917495727539e-01" nType="-99"/>
          <Node pos="r" depth="2" NCoef="0" IVar="-1" Cut="0.0000000000000000e+00" cType="1" res="5.5596715537831187e-04" rms="4.5571008324623108e-01" purity="5.4548251628875732e-01" nType="-99"/>
        </Node>
        <Node pos="r" depth="1" NCoef="0" IVar="6" Cut="1.7641322612762451e+00" cType="1" res="-3.0149184167385101e-03" rms="4.5955452322959900e-01" purity="4.8230850696563721e-01" nType="0">
          <Node pos="l" depth="2" NCoef="0" IVar="-1" Cut="0.0000000000000000e+00" cType="1" res="-2.0789697300642729e-03" rms="4.3347221612930298e-01" purity="2.8202316164970398e-01" nType="-99"/>
          <Node pos="r" depth="2" NCoef="0" IVar="-1" Cut="0.0000000000000000e+00" cType="1" res="2.9119726968929172e-04" rms="4.6653035283088684e-01" purity="5.4443711042404175e-01" nType="-99"/>
        </Node>
      </Node>
    </BinaryTree>
    <BinaryTree type="DecisionTree" boostWeight="1.0000000000000000e+00" itree="276">
      <Node pos="s" depth="0" NCoef="0" IVar="4" Cut="8.5447898864746094e+01" cType="1" res="8.0435918644070625e-03" rms="4.6000805497169495e-01" purity="5.0175523757934570e-01" nType="0">
        <Node pos="l" depth="1" NCoef="0" IVar="6" Cut="4.2072510719299316e+00" cType="1" res="-1.2430437840521336e-02" rms="4.5867162942886353e-01" purity="4.5817288756370544e-01" nType="0">
          <Node pos="l" depth="2" NCoef="0" IVar="-1" Cut="0.0000000000000000e+00" cType="1" res="-8.4743212210014462e-04" rms="4.6322768926620483e-01" purity="3.9698266983032227e-01" nType="-99"/>
          <Node pos="r" depth="2" NCoef="0" IVar="-1" Cut="0.0000000000000000e+00" cType="1" res="1.0229439940303564e-03" rms="4.3464323878288269e-01" purity="7.1946364641189575e-01" nType="-99"/>
        </Node>
        <Node pos="r" depth="1" NCoef="0" IVar="5" Cut="2.4055650234222412e+00" cType="1" res="4.3534237891435623e-02" rms="4.6016237139701843e-01" purity="5.7730293273925781e-01" nType="0">
          <Node pos="l" depth="2" NCoef="0" IVar="-1" Cut="0.0000000000000000e+00" cType="1" res="1.5229514101520181e-03" rms="4.5839276909828186e-01" purity="6.2335157394409180e-01" nType="-99"/>
          <Node pos="r" depth="2" NCoef="0" IVar="-1" Cut="0.0000000000000000e+00" cType="1" res="-2.1949647634755820e-04" rms="4.6229869127273560e-01" purity="4.2781656980514526e-01" nType="-99"/>
        </Node>
      </Node>
    </BinaryTree>
    <BinaryTree type="DecisionTree" boostWeight="1.0000000000000000e+00" itree="277">
      <Node pos="s" depth="0" NCoef="0" IVar="5" Cut="2.8111283779144287e+00" cType="1" res="5.8427378535270691e-03" rms="4.6153280138969421e-01" purity="4.9863985180854797e-01" nType="0">
        <Node pos="l" depth="1" NCoef="0" IVar="6" Cut="1.0093308687210083e+00" cType="1" res="1.2428264133632183e-02" rms="4.6464321017265320e-01" purity="5.1848453283309937e-01" nType="0">
          <Node pos="l" depth="2" NCoef="0" IVar="-1" Cut="0.0000000000000000e+00" cType="1" res="-3.0251366551965475e-03" rms="4.2704108357429504e-01" purity="2.6728770136833191e-01" nType="-99"/>
          <Node pos="r" depth="2" NCoef="0" IVar="-1" Cut="0.0000000000000000e+00" cType="1" res="5.3171947365626693e-04" rms="4.6700912714004517e-01" purity="5.3901886940002441e-01" nType="-99"/>
        </Node>
        <Node pos="r" depth="1" NCoef="0" IVar="-1" Cut="0.0000000000000000e+00" cType="1" res="-4.0304223075509071e-03" rms="4.0783622860908508e-01" purity="2.3412489891052246e-01" nType="-99"/>
      </Node>
    </BinaryTree>
    <BinaryTree type="DecisionTree" boostWeight="1.0000000000000000e+00" itree="278">
      <Node pos="s" depth="0" NCoef="0" IVar="6" Cut="4.1447324752807617e+00" cType="1" res="7.8979609534144402e-03" rms="4.6069589257240295e-01" purity="5.0149482488632202e-01" nType="0">
        <Node pos="l" depth="1" NCoef="0" IVar="3" Cut="3.8339725136756897e-01" cType="1" res="-5.4388549178838730e-03" rms="4.6936661005020142e-01" purity="4.3706923723220825e-01" nType="0">
          <Node pos="l" depth="2" NCoef="0" IVar="-1" Cut="0.0000000000000000e+00" cType="1" res="5.3286697948351502e-04" rms="4.6481832861900330e-01" purity="4.2276138067245483e-01" nType="-99"/>
          <Node pos="r" depth="2" NCoef="0" IVar="-1" Cut="0.0000000000000000e+00" cType="1" res="-1.2613584985956550e-03" rms="4.7494468092918396e-01" purity="4.6231630444526672e-01" nType="-99"/>
        </Node>
        <Node pos="r" depth="1" NCoef="0" IVar="6" Cut="5.0793976783752441e+00" cType="1" res="5.7800777256488800e-02" rms="4.2297792434692383e-01" purity="7.4255830049514771e-01" nType="0">
          <Node pos="l" depth="2" NCoef="0" IVar="-1" Cut="0.0000000000000000e+00" cType="1" res="9.1308995615690947e-04" rms="4.4354709982872009e-01" purity="7.0094126462936401e-01" nType="-99"/>
          <Node pos="r" depth="2" NCoef="0" IVar="-1" Cut="0.0000000000000000e+00" cType="1" res="2.1898646373301744e-03" rms="3.8838559389114380e-01" purity="8.0429762601852417e-01" nType="-99"/>
        </Node>
      </Node>
    </BinaryTree>
    <BinaryTree type="DecisionTree" boostWeight="1.0000000000000000e+00" itree="279">
      <Node pos="s" depth="0" NCoef="0" IVar="7" Cut="1.7116117477416992e-01" cType="1" res="4.0992046706378460e-03" rms="4.6087071299552917e-01" purity="4.9662554264068604e-01" nType="0">
        <Node pos="l" depth="1" NCoef="0" IVar="2" Cut="6.4831358194351196e-01" cType="1" res="-6.0354475863277912e-03" rms="4.5991870760917664e-01" purity="4.7973665595054626e-01" nType="0">
          <Node pos="l" depth="2" NCoef="0" IVar="-1" Cut="0.0000000000000000e+00" cType="1" res="7.4309296905994415e-04" rms="4.6106466650962830e-01" purity="5.5216616392135620e-01" nType="-99"/>
          <Node pos="r" depth="2" NCoef="0" IVar="-1" Cut="0.0000000000000000e+00" cType="1" res="-7.9432787606492639e-04" rms="4.5825123786926270e-01" purity="4.3856322765350342e-01" nType="-99"/>
        </Node>
        <Node pos="r" depth="1" NCoef="0" IVar="3" Cut="3.8387754559516907e-01" cType="1" res="6.0621153563261032e-02" rms="4.6208569407463074e-01" purity="5.9081637859344482e-01" nType="0">
          <Node pos="l" depth="2" NCoef="0" IVar="-1" Cut="0.0000000000000000e+00" cType="1" res="2.4321957025676966e-03" rms="4.7247046232223511e-01" purity="5.3438246250152588e-01" nType="-99"/>
          <Node pos="r" depth="2" NCoef="0" IVar="-1" Cut="0.0000000000000000e+00" cType="1" res="9.4034103676676750e-04" rms="4.5097020268440247e-01" purity="6.4277583360671997e-01" nType="-99"/>
        </Node>
      </Node>
    </BinaryTree>
    <BinaryTree type="DecisionTree" boostWeight="1.0000000000000000e+00" itree="280">
      <Node pos="s" depth="0" NCoef="0" IVar="0" Cut="1.1976543664932251e+00" cType="1" res="7.8386273235082626e-03" rms="4.6147537231445312e-01" purity="5.0080543756484985e-01" nType="0">
        <Node pos="l" depth="1" NCoef="0" IVar="5" Cut="2.5491690635681152e+00" cType="1" res="2.6396883651614189e-02" rms="4.6277034282684326e-01" purity="5.3387463092803955e-01" nType="0">
          <Node pos="l" depth="2" NCoef="0" IVar="-1" Cut="0.0000000000000000e+00" cType="1" res="1.0106620611622930e-03" rms="4.6532785892486572e-01" purity="5.6707531213760376e-01" nType="-99"/>
          <Node pos="r" depth="2" NCoef="0" IVar="-1" Cut="0.0000000000000000e+00" cType="1" res="-1.2535847490653396e-03" rms="4.4326946139335632e-01" purity="3.4412804245948792e-01" nType="-99"/>
        </Node>
        <Node pos="r" depth="1" NCoef="0" IVar="4" Cut="4.2681846618652344e+01" cType="1" res="-2.3353166878223419e-02" rms="4.5759814977645874e-01" purity="4.4522437453269958e-01" nType="0">
          <Node pos="l" depth="2" NCoef="0" IVar="-1" Cut="0.0000000000000000e+00" cType="1" res="-2.7824949938803911e-03" rms="4.3268555402755737e-01" purity="3.5722032189369202e-01" nType="-99"/>
          <Node pos="r" depth="2" NCoef="0" IVar="-1" Cut="0.0000000000000000e+00" cType="1" res="-1.7614915850572288e-04" rms="4.6443295478820801e-01" purity="4.7510564327239990e-01" nType="-99"/>
        </Node>
      </Node>
    </BinaryTree>
    <BinaryTree type="DecisionTree" boostWeight="1.0000000000000000e+00" itree="281">
      <Node pos="s" depth="0" NCoef="0" IVar="6" Cut="3.9720969200134277e+00" cType="1" res="7.8059779480099678e-03" rms="4.6030882000923157e-01" purity="5.0171744823455811e-01" nType="0">
        <Node pos="l" depth="1" NCoef="0" IVar="4" Cut="1.6376255798339844e+02" cType="1" res="-5.3846007212996483e-03" rms="4.6809798479080200e-01" purity="4.3064323067665100e-01" nType="0">
          <Node pos="l" depth="2" NCoef="0" IVar="-1" Cut="0.0000000000000000e+00" cType="1" res="-4.0375499520450830e-04" rms="4.6716329455375671e-01" purity="4.1682529449462891e-01" nType="-99"/>
          <Node pos="r" depth="2" NCoef="0" IVar="-1" Cut="0.0000000000000000e+00" cType="1" res="1.9297284306958318e-03" rms="4.7140321135520935e-01" purity="5.9261673688888550e-01" nType="-99"/>
        </Node>
        <Node pos="r" depth="1" NCoef="0" IVar="9" Cut="9.1952705383300781e+01" cType="1" res="4.9625206738710403e-02" rms="4.3203824758529663e-01" purity="7.2705006599426270e-01" nType="0">
          <Node pos="l" depth="2" NCoef="0" IVar="-1" Cut="0.0000000000000000e+00" cType="1" res="5.1331165013834834e-04" rms="4.4154804944992065e-01" purity="7.0385062694549561e-01" nType="-99"/>
          <Node pos="r" depth="2" NCoef="0" IVar="-1" Cut="0.0000000000000000e+00" cType="1" res="1.7135214293375611e-03" rms="4.2414668202400208e-01" purity="7.4306118488311768e-01" nType="-99"/>
        </Node>
      </Node>
    </BinaryTree>
    <BinaryTree type="DecisionTree" boostWeight="1.0000000000000000e+00" itree="282">
      <Node pos="s" depth="0" NCoef="0" IVar="6" Cut="4.8053774833679199e+00" cType="1" res="7.3359427042305470e-03" rms="4.5980536937713623e-01" purity="5.0143343210220337e-01" nType="0">
        <Node pos="l" depth="1" NCoef="0" IVar="4" Cut="7.1639289855957031e+01" cType="1" res="-1.5244578244164586e-03" rms="4.6655607223510742e-01" purity="4.6404334902763367e-01" nType="0">
          <Node pos="l" depth="2" NCoef="0" IVar="-1" Cut="0.0000000000000000e+00" cType="1" res="-7.6816568616777658e-04" rms="4.6077266335487366e-01" purity="4.1659280657768250e-01" nType="-99"/>
          <Node pos="r" depth="2" NCoef="0" IVar="-1" Cut="0.0000000000000000e+00" cType="1" res="6.5639062086120248e-04" rms="4.7181782126426697e-01" purity="5.1778149604797363e-01" nType="-99"/>
        </Node>
        <Node pos="r" depth="1" NCoef="0" IVar="-1" Cut="0.0000000000000000e+00" cType="1" res="1.8774509662762284e-03" rms="3.9812663197517395e-01" purity="7.8687834739685059e-01" nType="-99"/>
      </Node>
    </BinaryTree>
    <BinaryTree type="DecisionTree" boostWeight="1.0000000000000000e+00" itree="283">
      <Node pos="s" depth="0" NCoef="0" IVar="6" Cut="4.9333343505859375e+00" cType="1" res="1.0469408705830574e-02" rms="4.6034142374992371e-01" purity="5.0453102588653564e-01" nType="0">
        <Node pos="l" depth="1" NCoef="0" IVar="3" Cut="2.2903673350811005e-01" cType="1" res="3.2008178532123566e-03" rms="4.6631628274917603e-01" purity="4.7298839688301086e-01" nType="0">
          <Node pos="l" depth="2" NCoef="0" IVar="-1" Cut="0.0000000000000000e+00" cType="1" res="1.2820316478610039e-03" rms="4.6256351470947266e-01" purity="4.3062353134155273e-01" nType="-99"/>
          <Node pos="r" depth="2" NCoef="0" IVar="-1" Cut="0.0000000000000000e+00" cType="1" res="-3.7081976188346744e-04" rms="4.6717262268066406e-01" purity="4.9243581295013428e-01" nType="-99"/>
        </Node>
        <Node pos="r" depth="1" NCoef="0" IVar="-1" Cut="0.0000000000000000e+00" cType="1" res="1.9141711527481675e-03" rms="3.9561504125595093e-01" purity="7.9235643148422241e-01" nType="-99"/>
      </Node>
    </BinaryTree>
    <BinaryTree type="DecisionTree" boostWeight="1.0000000000000000e+00" itree="284">
      <Node pos="s" depth="0" NCoef="0" IVar="5" Cut="2.8825612068176270e+00" cType="1" res="6.0441438108682632e-03" rms="4.6105673909187317e-01" purity="5.0022059679031372e-01" nType="0">
        <Node pos="l" depth="1" NCoef="0" IVar="1" Cut="3.9062829589843750e+02" cType="1" res="1.1665028519928455e-02" rms="4.6399155259132385e-01" purity="5.1612251996994019e-01" nType="0">
          <Node pos="l" depth="2" NCoef="0" IVar="-1" Cut="0.0000000000000000e+00" cType="1" res="-2.1752635948359966e-03" rms="4.3156629800796509e-01" purity="3.1303051114082336e-01" nType="-99"/>
          <Node pos="r" depth="2" NCoef="0" IVar="-1" Cut="0.0000000000000000e+00" cType="1" res="5.8893411187455058e-04" rms="4.6766158938407898e-01" purity="5.4479688405990601e-01" nType="-99"/>
        </Node>
        <Node pos="r" depth="1" NCoef="0" IVar="-1" Cut="0.0000000000000000e+00" cType="1" res="-4.9036922864615917e-03" rms="3.9002215862274170e-01" purity="2.1078121662139893e-01" nType="-99"/>
      </Node>
    </BinaryTree>
    <BinaryTree type="DecisionTree" boostWeight="1.0000000000000000e+00" itree="285">
      <Node pos="s" depth="0" NCoef="0" IVar="9" Cut="9.2356559753417969e+01" cType="1" res="7.4172825552523136e-03" rms="4.6130123734474182e-01" purity="5.0127637386322021e-01" nType="0">
        <Node pos="l" depth="1" NCoef="0" IVar="5" Cut="2.0487377643585205e+00" cType="1" res="-2.0442228764295578e-02" rms="4.6223130822181702e-01" purity="4.6440976858139038e-01" nType="0">
          <Node pos="l" depth="2" NCoef="0" IVar="-1" Cut="0.0000000000000000e+00" cType="1" res="3.1910426332615316e-04" rms="4.6822014451026917e-01" purity="5.2968448400497437e-01" nType="-99"/>
          <Node pos="r" depth="2" NCoef="0" IVar="-1" Cut="0.0000000000000000e+00" cType="1" res="-1.6030828701332211e-03" rms="4.5545250177383423e-01" purity="4.0961778163909912e-01" nType="-99"/>
        </Node>
        <Node pos="r" depth="1" NCoef="0" IVar="5" Cut="2.2229447364807129e+00" cType="1" res="2.9385326430201530e-02" rms="4.5937666296958923e-01" purity="5.3034681081771851e-01" nType="0">
          <Node pos="l" depth="2" NCoef="0" IVar="-1" Cut="0.0000000000000000e+00" cType="1" res="1.7418185016140342e-03" rms="4.5127278566360474e-01" purity="6.4377802610397339e-01" nType="-99"/>
          <Node pos="r" depth="2" NCoef="0" IVar="-1" Cut="0.0000000000000000e+00" cType="1" res="1.3565906556323171e-04" rms="4.6287187933921814e-01" purity="4.5621380209922791e-01" nType="-99"/>
        </Node>
      </Node>
    </BinaryTree>
    <BinaryTree type="DecisionTree" boostWeight="1.0000000000000000e+00" itree="286">
      <Node pos="s" depth="0" NCoef="0" IVar="2" Cut="6.5340960025787354e-01" cType="1" res="9.6067907288670540e-03" rms="4.6138247847557068e-01" purity="5.0271582603454590e-01" nType="0">
        <Node pos="l" depth="1" NCoef="0" IVar="1" Cut="6.3750732421875000e+02" cType="1" res="4.2552139610052109e-02" rms="4.6057346463203430e-01" purity="5.7487779855728149e-01" nType="0">
          <Node pos="l" depth="2" NCoef="0" IVar="-1" Cut="0.0000000000000000e+00" cType="1" res="7.8341463813558221e-04" rms="4.6497955918312073e-01" purity="5.2648633718490601e-01" nType="-99"/>
          <Node pos="r" depth="2" NCoef="0" IVar="-1" Cut="0.0000000000000000e+00" cType="1" res="1.8695313483476639e-03" rms="4.4954082369804382e-01" purity="6.7552053928375244e-01" nType="-99"/>
        </Node>
        <Node pos="r" depth="1" NCoef="0" IVar="7" Cut="-2.8782548382878304e-02" cType="1" res="-8.1075970083475113e-03" rms="4.6084427833557129e-01" purity="4.6391507983207703e-01" nType="0">
          <Node pos="l" depth="2" NCoef="0" IVar="-1" Cut="0.0000000000000000e+00" cType="1" res="-1.4967998722568154e-03" rms="4.4904562830924988e-01" purity="3.8829234242439270e-01" nType="-99"/>
          <Node pos="r" depth="2" NCoef="0" IVar="-1" Cut="0.0000000000000000e+00" cType="1" res="3.1099843909032643e-04" rms="4.6605911850929260e-01" purity="5.0489413738250732e-01" nType="-99"/>
        </Node>
      </Node>
    </BinaryTree>
    <BinaryTree type="DecisionTree" boostWeight="1.0000000000000000e+00" itree="287">
      <Node pos="s" depth="0" NCoef="0" IVar="7" Cut="-8.8640257716178894e-02" cType="1" res="5.2380836568772793e-03" rms="4.6130749583244324e-01" purity="4.9895679950714111e-01" nType="0">
        <Node pos="l" depth="1" NCoef="0" IVar="2" Cut="6.2998729944229126e-01" cType="1" res="-5.9588849544525146e-02" rms="4.4833934307098389e-01" purity="3.9322617650032043e-01" nType="0">
          <Node pos="l" depth="2" NCoef="0" IVar="-1" Cut="0.0000000000000000e+00" cType="1" res="-6.7181710619479418e-04" rms="4.6170762181282043e-01" purity="4.9729371070861816e-01" nType="-99"/>
          <Node pos="r" depth="2" NCoef="0" IVar="-1" Cut="0.0000000000000000e+00" cType="1" res="-3.0439670663326979e-03" rms="4.3948245048522949e-01" purity="3.3590072393417358e-01" nType="-99"/>
        </Node>
        <Node pos="r" depth="1" NCoef="0" IVar="6" Cut="4.7482962608337402e+00" cType="1" res="1.7474422231316566e-02" rms="4.6269673109054565e-01" purity="5.1891386508941650e-01" nType="0">
          <Node pos="l" depth="2" NCoef="0" IVar="-1" Cut="0.0000000000000000e+00" cType="1" res="2.7158379089087248e-04" rms="4.7062927484512329e-01" purity="4.8036241531372070e-01" nType="-99"/>
          <Node pos="r" depth="2" NCoef="0" IVar="-1" Cut="0.0000000000000000e+00" cType="1" res="1.9432833651080728e-03" rms="3.9620709419250488e-01" purity="7.9454201459884644e-01" nType="-99"/>
        </Node>
      </Node>
    </BinaryTree>
    <BinaryTree type="DecisionTree" boostWeight="1.0000000000000000e+00" itree="288">
      <Node pos="s" depth="0" NCoef="0" IVar="6" Cut="4.9333343505859375e+00" cType="1" res="4.2235418222844601e-03" rms="4.5938050746917725e-01" purity="4.9834412336349487e-01" nType="0">
        <Node pos="l" depth="1" NCoef="0" IVar="0" Cut="1.1180982589721680e+00" cType="1" res="-4.1221329011023045e-03" rms="4.6559569239616394e-01" purity="4.6563649177551270e-01" nType="0">
          <Node pos="l" depth="2" NCoef="0" IVar="-1" Cut="0.0000000000000000e+00" cType="1" res="4.7389365499839187e-04" rms="4.6953713893890381e-01" purity="5.0497144460678101e-01" nType="-99"/>
          <Node pos="r" depth="2" NCoef="0" IVar="-1" Cut="0.0000000000000000e+00" cType="1" res="-9.8774814978241920e-04" rms="4.5932158827781677e-01" purity="4.1633024811744690e-01" nType="-99"/>
        </Node>
        <Node pos="r" depth="1" NCoef="0" IVar="-1" Cut="0.0000000000000000e+00" cType="1" res="2.0027402788400650e-03" rms="3.8941082358360291e-01" purity="7.9908752441406250e-01" nType="-99"/>
      </Node>
    </BinaryTree>
    <BinaryTree type="DecisionTree" boostWeight="1.0000000000000000e+00" itree="289">
      <Node pos="s" depth="0" NCoef="0" IVar="2" Cut="7.7054268121719360e-01" cType="1" res="5.0255027599632740e-03" rms="4.5886626839637756e-01" purity="5.0132966041564941e-01" nType="0">
        <Node pos="l" depth="1" NCoef="0" IVar="6" Cut="1.3697048425674438e+00" cType="1" res="2.9581299051642418e-02" rms="4.5832657814025879e-01" purity="5.5572754144668579e-01" nType="0">
          <Node pos="l" depth="2" NCoef="0" IVar="-1" Cut="0.0000000000000000e+00" cType="1" res="-1.4271307736635208e-03" rms="4.4848307967185974e-01" purity="3.1565505266189575e-01" nType="-99"/>
          <Node pos="r" depth="2" NCoef="0" IVar="-1" Cut="0.0000000000000000e+00" cType="1" res="1.0801757453009486e-03" rms="4.5907008647918701e-01" purity="5.9557813405990601e-01" nType="-99"/>
        </Node>
        <Node pos="r" depth="1" NCoef="0" IVar="9" Cut="9.1222938537597656e+01" cType="1" res="-1.9489144906401634e-02" rms="4.5809331536293030e-01" purity="4.4702294468879700e-01" nType="0">
          <Node pos="l" depth="2" NCoef="0" IVar="-1" Cut="0.0000000000000000e+00" cType="1" res="-1.9956880714744329e-03" rms="4.5447432994842529e-01" purity="4.0121737122535706e-01" nType="-99"/>
          <Node pos="r" depth="2" NCoef="0" IVar="-1" Cut="0.0000000000000000e+00" cType="1" res="2.2036141308490187e-04" rms="4.5862883329391479e-01" purity="4.7811242938041687e-01" nType="-99"/>
        </Node>
      </Node>
    </BinaryTree>
    <BinaryTree type="DecisionTree" boostWeight="1.0000000000000000e+00" itree="290">
      <Node pos="s" depth="0" NCoef="0" IVar="2" Cut="7.6228696107864380e-01" cType="1" res="6.1610816046595573e-03" rms="4.5975062251091003e-01" purity="4.9994775652885437e-01" nType="0">
        <Node pos="l" depth="1" NCoef="0" IVar="6" Cut="1.9366036653518677e+00" cType="1" res="2.9839223250746727e-02" rms="4.5830926299095154e-01" purity="5.5600261688232422e-01" nType="0">
          <Node pos="l" depth="2" NCoef="0" IVar="-1" Cut="0.0000000000000000e+00" cType="1" res="-7.5741234468296170e-04" rms="4.6229505538940430e-01" purity="3.4911021590232849e-01" nType="-99"/>
          <Node pos="r" depth="2" NCoef="0" IVar="-1" Cut="0.0000000000000000e+00" cType="1" res="1.2626714305952191e-03" rms="4.5526838302612305e-01" purity="6.3645553588867188e-01" nType="-99"/>
        </Node>
        <Node pos="r" depth="1" NCoef="0" IVar="7" Cut="5.8822050690650940e-02" cType="1" res="-1.6473909839987755e-02" rms="4.5998618006706238e-01" purity="4.4636246562004089e-01" nType="0">
          <Node pos="l" depth="2" NCoef="0" IVar="-1" Cut="0.0000000000000000e+00" cType="1" res="-1.3632755726575851e-03" rms="4.5145377516746521e-01" purity="3.9712917804718018e-01" nType="-99"/>
          <Node pos="r" depth="2" NCoef="0" IVar="-1" Cut="0.0000000000000000e+00" cType="1" res="4.0765193989500403e-04" rms="4.6945065259933472e-01" purity="5.1230871677398682e-01" nType="-99"/>
        </Node>
      </Node>
    </BinaryTree>
    <BinaryTree type="DecisionTree" boostWeight="1.0000000000000000e+00" itree="291">
      <Node pos="s" depth="0" NCoef="0" IVar="6" Cut="3.5989587306976318e+00" cType="1" res="8.7163416901603341e-04" rms="4.5860597491264343e-01" purity="4.9498245120048523e-01" nType="0">
        <Node pos="l" depth="1" NCoef="0" IVar="1" Cut="8.3386566162109375e+02" cType="1" res="-1.6845932230353355e-02" rms="4.6424180269241333e-01" purity="4.0289944410324097e-01" nType="0">
          <Node pos="l" depth="2" NCoef="0" IVar="-1" Cut="0.0000000000000000e+00" cType="1" res="-9.0344471391290426e-04" rms="4.6165451407432556e-01" purity="3.8410046696662903e-01" nType="-99"/>
          <Node pos="r" depth="2" NCoef="0" IVar="-1" Cut="0.0000000000000000e+00" cType="1" res="1.9012922421097755e-03" rms="4.7931548953056335e-01" purity="5.8186525106430054e-01" nType="-99"/>
        </Node>
        <Node pos="r" depth="1" NCoef="0" IVar="3" Cut="5.6026798486709595e-01" cType="1" res="3.9925973862409592e-02" rms="4.4343861937522888e-01" purity="6.9795840978622437e-01" nType="0">
          <Node pos="l" depth="2" NCoef="0" IVar="-1" Cut="0.0000000000000000e+00" cType="1" res="2.4785764981061220e-03" rms="4.2385014891624451e-01" purity="7.4054831266403198e-01" nType="-99"/>
          <Node pos="r" depth="2" NCoef="0" IVar="-1" Cut="0.0000000000000000e+00" cType="1" res="4.4142734259366989e-04" rms="4.4754955172538757e-01" purity="6.8366479873657227e-01" nType="-99"/>
        </Node>
      </Node>
    </BinaryTree>
    <BinaryTree type="DecisionTree" boostWeight="1.0000000000000000e+00" itree="292">
      <Node pos="s" depth="0" NCoef="0" IVar="2" Cut="7.4712711572647095e-01" cType="1" res="8.6274733766913414e-03" rms="4.5990473031997681e-01" purity="5.0295370817184448e-01" nType="0">
        <Node pos="l" depth="1" NCoef="0" IVar="8" Cut="1.0141689300537109e+02" cType="1" res="3.3358268439769745e-02" rms="4.6061962842941284e-01" purity="5.6034398078918457e-01" nType="0">
          <Node pos="l" depth="2" NCoef="0" IVar="-1" Cut="0.0000000000000000e+00" cType="1" res="-7.3243281804025173e-04" rms="4.6465241909027100e-01" purity="4.8196545243263245e-01" nType="-99"/>
          <Node pos="r" depth="2" NCoef="0" IVar="-1" Cut="0.0000000000000000e+00" cType="1" res="1.2482189340516925e-03" rms="4.5887991786003113e-01" purity="5.7669925689697266e-01" nType="-99"/>
        </Node>
        <Node pos="r" depth="1" NCoef="0" IVar="6" Cut="3.3477952480316162e+00" cType="1" res="-1.2860278598964214e-02" rms="4.5820024609565735e-01" purity="4.5308920741081238e-01" nType="0">
          <Node pos="l" depth="2" NCoef="0" IVar="-1" Cut="0.0000000000000000e+00" cType="1" res="-1.2500071898102760e-03" rms="4.5494863390922546e-01" purity="3.4904193878173828e-01" nType="-99"/>
          <Node pos="r" depth="2" NCoef="0" IVar="-1" Cut="0.0000000000000000e+00" cType="1" res="6.1956833815202117e-04" rms="4.6165910363197327e-01" purity="6.4056873321533203e-01" nType="-99"/>
        </Node>
      </Node>
    </BinaryTree>
    <BinaryTree type="DecisionTree" boostWeight="1.0000000000000000e+00" itree="293">
      <Node pos="s" depth="0" NCoef="0" IVar="5" Cut="1.6848973035812378e+00" cType="1" res="6.0121132992208004e-03" rms="4.6021452546119690e-01" purity="5.0047212839126587e-01" nType="0">
        <Node pos="l" depth="1" NCoef="0" IVar="0" Cut="1.1565157175064087e+00" cType="1" res="6.7838162183761597e-02" rms="4.5651564002037048e-01" purity="6.1735081672668457e-01" nType="0">
          <Node pos="l" depth="2" NCoef="0" IVar="-1" Cut="0.0000000000000000e+00" cType="1" res="2.5186398997902870e-03" rms="4.4764295220375061e-01" purity="6.6551721096038818e-01" nType="-99"/>
          <Node pos="r" depth="2" NCoef="0" IVar="-1" Cut="0.0000000000000000e+00" cType="1" res="7.6089921640232205e-04" rms="4.6341255307197571e-01" purity="5.6127643585205078e-01" nType="-99"/>
        </Node>
        <Node pos="r" depth="1" NCoef="0" IVar="6" Cut="5.0519728660583496e+00" cType="1" res="-2.8964048251509666e-03" rms="4.6006071567535400e-01" purity="4.8363107442855835e-01" nType="0">
          <Node pos="l" depth="2" NCoef="0" IVar="-1" Cut="0.0000000000000000e+00" cType="1" res="-3.1523910001851618e-04" rms="4.6482884883880615e-01" purity="4.5401641726493835e-01" nType="-99"/>
          <Node pos="r" depth="2" NCoef="0" IVar="-1" Cut="0.0000000000000000e+00" cType="1" res="1.7343714134767652e-03" rms="4.0157186985015869e-01" purity="7.8387415409088135e-01" nType="-99"/>
        </Node>
      </Node>
    </BinaryTree>
    <BinaryTree type="DecisionTree" boostWeight="1.0000000000000000e+00" itree="294">
      <Node pos="s" depth="0" NCoef="0" IVar="8" Cut="9.2840309143066406e+01" cType="1" res="8.1289289519190788e-03" rms="4.6098688244819641e-01" purity="5.0175511837005615e-01" nType="0">
        <Node pos="l" depth="1" NCoef="0" IVar="2" Cut="7.5756174325942993e-01" cType="1" res="-5.5497977882623672e-02" rms="4.5892691612243652e-01" purity="4.2159169912338257e-01" nType="0">
          <Node pos="l" depth="2" NCoef="0" IVar="-1" Cut="0.0000000000000000e+00" cType="1" res="-1.1185139883309603e-03" rms="4.6720811724662781e-01" purity="4.7179323434829712e-01" nType="-99"/>
          <Node pos="r" depth="2" NCoef="0" IVar="-1" Cut="0.0000000000000000e+00" cType="1" res="-2.6371700223535299e-03" rms="4.4992470741271973e-01" purity="3.7282022833824158e-01" nType="-99"/>
        </Node>
        <Node pos="r" depth="1" NCoef="0" IVar="7" Cut="1.8858465552330017e-01" cType="1" res="1.5534384176135063e-02" rms="4.6065542101860046e-01" purity="5.1108515262603760e-01" nType="0">
          <Node pos="l" depth="2" NCoef="0" IVar="-1" Cut="0.0000000000000000e+00" cType="1" res="2.1185477089602500e-04" rms="4.6037685871124268e-01" purity="4.9666595458984375e-01" nType="-99"/>
          <Node pos="r" depth="2" NCoef="0" IVar="-1" Cut="0.0000000000000000e+00" cType="1" res="1.9742727745324373e-03" rms="4.5820486545562744e-01" purity="6.1154603958129883e-01" nType="-99"/>
        </Node>
      </Node>
    </BinaryTree>
    <BinaryTree type="DecisionTree" boostWeight="1.0000000000000000e+00" itree="295">
      <Node pos="s" depth="0" NCoef="0" IVar="5" Cut="1.6863090991973877e+00" cType="1" res="2.7372466865926981e-03" rms="4.6011704206466675e-01" purity="4.9655079841613770e-01" nType="0">
        <Node pos="l" depth="1" NCoef="0" IVar="8" Cut="1.1179421234130859e+02" cType="1" res="6.4834132790565491e-02" rms="4.5570829510688782e-01" purity="6.1533474922180176e-01" nType="0">
          <Node pos="l" depth="2" NCoef="0" IVar="-1" Cut="0.0000000000000000e+00" cType="1" res="8.3958497270941734e-04" rms="4.6704074740409851e-01" purity="5.4351264238357544e-01" nType="-99"/>
          <Node pos="r" depth="2" NCoef="0" IVar="-1" Cut="0.0000000000000000e+00" cType="1" res="2.2384966723620892e-03" rms="4.4539433717727661e-01" purity="6.6840744018554688e-01" nType="-99"/>
        </Node>
        <Node pos="r" depth="1" NCoef="0" IVar="0" Cut="9.4161862134933472e-01" cType="1" res="-6.2127164565026760e-03" rms="4.6005842089653015e-01" purity="4.7943064570426941e-01" nType="0">
          <Node pos="l" depth="2" NCoef="0" IVar="-1" Cut="0.0000000000000000e+00" cType="1" res="6.2750268261879683e-04" rms="4.6346294879913330e-01" purity="5.3221994638442993e-01" nType="-99"/>
          <Node pos="r" depth="2" NCoef="0" IVar="-1" Cut="0.0000000000000000e+00" cType="1" res="-8.1986666191369295e-04" rms="4.5678260922431946e-01" purity="4.4386515021324158e-01" nType="-99"/>
        </Node>
      </Node>
    </BinaryTree>
    <BinaryTree type="DecisionTree" boostWeight="1.0000000000000000e+00" itree="296">
      <Node pos="s" depth="0" NCoef="0" IVar="2" Cut="6.2080180644989014e-01" cType="1" res="7.4617047794163227e-03" rms="4.5987114310264587e-01" purity="5.0201892852783203e-01" nType="0">
        <Node pos="l" depth="1" NCoef="0" IVar="6" Cut="1.5029346942901611e+00" cType="1" res="4.5129779726266861e-02" rms="4.5464062690734863e-01" purity="5.8544069528579712e-01" nType="0">
          <Node pos="l" depth="2" NCoef="0" IVar="-1" Cut="0.0000000000000000e+00" cType="1" res="-4.3795959209091961e-04" rms="4.6588823199272156e-01" purity="3.5569733381271362e-01" nType="-99"/>
          <Node pos="r" depth="2" NCoef="0" IVar="-1" Cut="0.0000000000000000e+00" cType="1" res="1.4605753822252154e-03" rms="4.5134285092353821e-01" purity="6.3355988264083862e-01" nType="-99"/>
        </Node>
        <Node pos="r" depth="1" NCoef="0" IVar="7" Cut="2.0846350491046906e-01" cType="1" res="-9.2436959967017174e-03" rms="4.6118816733360291e-01" purity="4.6502217650413513e-01" nType="0">
          <Node pos="l" depth="2" NCoef="0" IVar="-1" Cut="0.0000000000000000e+00" cType="1" res="-5.7029339950531721e-04" rms="4.5949327945709229e-01" purity="4.5022740960121155e-01" nType="-99"/>
          <Node pos="r" depth="2" NCoef="0" IVar="-1" Cut="0.0000000000000000e+00" cType="1" res="1.6580554656684399e-03" rms="4.6909609436988831e-01" purity="5.9017258882522583e-01" nType="-99"/>
        </Node>
      </Node>
    </BinaryTree>
    <BinaryTree type="DecisionTree" boostWeight="1.0000000000000000e+00" itree="297">
      <Node pos="s" depth="0" NCoef="0" IVar="5" Cut="2.2564368247985840e+00" cType="1" res="6.1790072359144688e-03" rms="4.5965570211410522e-01" purity="5.0016278028488159e-01" nType="0">
        <Node pos="l" depth="1" NCoef="0" IVar="9" Cut="9.9306907653808594e+01" cType="1" res="2.5818184018135071e-02" rms="4.6205881237983704e-01" purity="5.6545370817184448e-01" nType="0">
          <Node pos="l" depth="2" NCoef="0" IVar="-1" Cut="0.0000000000000000e+00" cType="1" res="1.0058209591079503e-04" rms="4.6618378162384033e-01" purity="5.1913124322891235e-01" nType="-99"/>
          <Node pos="r" depth="2" NCoef="0" IVar="-1" Cut="0.0000000000000000e+00" cType="1" res="1.6298918053507805e-03" rms="4.5263335108757019e-01" purity="6.4283782243728638e-01" nType="-99"/>
        </Node>
        <Node pos="r" depth="1" NCoef="0" IVar="9" Cut="8.8166946411132812e+01" cType="1" res="-2.0078692585229874e-02" rms="4.5510083436965942e-01" purity="4.1286841034889221e-01" nType="0">
          <Node pos="l" depth="2" NCoef="0" IVar="-1" Cut="0.0000000000000000e+00" cType="1" res="-2.4114546831697226e-03" rms="4.4462513923645020e-01" purity="3.4745582938194275e-01" nType="-99"/>
          <Node pos="r" depth="2" NCoef="0" IVar="-1" Cut="0.0000000000000000e+00" cType="1" res="-1.9276181410532445e-04" rms="4.5754447579383850e-01" purity="4.3410250544548035e-01" nType="-99"/>
        </Node>
      </Node>
    </BinaryTree>
    <BinaryTree type="DecisionTree" boostWeight="1.0000000000000000e+00" itree="298">
      <Node pos="s" depth="0" NCoef="0" IVar="2" Cut="1.1691875457763672e+00" cType="1" res="9.4683971256017685e-03" rms="4.6033826470375061e-01" purity="5.0398933887481689e-01" nType="0">
        <Node pos="l" depth="1" NCoef="0" IVar="7" Cut="-1.0668408870697021e-01" cType="1" res="1.7589116469025612e-02" rms="4.6104493737220764e-01" purity="5.1678806543350220e-01" nType="0">
          <Node pos="l" depth="2" NCoef="0" IVar="-1" Cut="0.0000000000000000e+00" cType="1" res="-1.9238743698224425e-03" rms="4.5568314194679260e-01" purity="3.9765828847885132e-01" nType="-99"/>
          <Node pos="r" depth="2" NCoef="0" IVar="-1" Cut="0.0000000000000000e+00" cType="1" res="6.9792405702173710e-04" rms="4.6096047759056091e-01" purity="5.2732026576995850e-01" nType="-99"/>
        </Node>
        <Node pos="r" depth="1" NCoef="0" IVar="5" Cut="2.2528324127197266e+00" cType="1" res="-5.9678394347429276e-02" rms="4.4835728406906128e-01" purity="3.9501017332077026e-01" nType="0">
          <Node pos="l" depth="2" NCoef="0" IVar="-1" Cut="0.0000000000000000e+00" cType="1" res="-9.4799563521519303e-04" rms="4.6343636512756348e-01" purity="4.8298329114913940e-01" nType="-99"/>
          <Node pos="r" depth="2" NCoef="0" IVar="-1" Cut="0.0000000000000000e+00" cType="1" res="-3.5005386453121901e-03" rms="4.3185454607009888e-01" purity="3.1145894527435303e-01" nType="-99"/>
        </Node>
      </Node>
    </BinaryTree>
    <BinaryTree type="DecisionTree" boostWeight="1.0000000000000000e+00" itree="299">
      <Node pos="s" depth="0" NCoef="0" IVar="1" Cut="4.4898855590820312e+02" cType="1" res="3.4343071747571230e-03" rms="4.5919540524482727e-01" purity="4.9784699082374573e-01" nType="0">
        <Node pos="l" depth="1" NCoef="0" IVar="0" Cut="1.4752781391143799e+00" cType="1" res="-3.2046191394329071e-02" rms="4.4316631555557251e-01" purity="3.5294041037559509e-01" nType="0">
          <Node pos="l" depth="2" NCoef="0" IVar="-1" Cut="0.0000000000000000e+00" cType="1" res="-4.4379534665495157e-04" rms="4.5141711831092834e-01" purity="3.8021403551101685e-01" nType="-99"/>
          <Node pos="r" depth="2" NCoef="0" IVar="-1" Cut="0.0000000000000000e+00" cType="1" res="-4.0454971604049206e-03" rms="4.1077584028244019e-01" purity="2.6896050572395325e-01" nType="-99"/>
        </Node>
        <Node pos="r" depth="1" NCoef="0" IVar="6" Cut="1.1398928165435791e+00" cType="1" res="1.7808459699153900e-02" rms="4.6476188302040100e-01" purity="5.5655270814895630e-01" nType="0">
          <Node pos="l" depth="2" NCoef="0" IVar="-1" Cut="0.0000000000000000e+00" cType="1" res="-1.9800262525677681e-03" rms="4.5392161607742310e-01" purity="3.1872472167015076e-01" nType="-99"/>
          <Node pos="r" depth="2" NCoef="0" IVar="-1" Cut="0.0000000000000000e+00" cType="1" res="6.7294517066329718e-04" rms="4.6532335877418518e-01" purity="5.8137190341949463e-01" nType="-99"/>
        </Node>
      </Node>
    </BinaryTree>
    <BinaryTree type="DecisionTree" boostWeight="1.0000000000000000e+00" itree="300">
      <Node pos="s" depth="0" NCoef="0" IVar="5" Cut="1.7491326332092285e+00" cType="1" res="4.1693788953125477e-03" rms="4.6082186698913574e-01" purity="4.9838864803314209e-01" nType="0">
        <Node pos="l" depth="1" NCoef="0" IVar="8" Cut="1.0789598846435547e+02" cType="1" res="5.7021476328372955e-02" rms="4.6012085676193237e-01" purity="6.0431236028671265e-01" nType="0">
          <Node pos="l" depth="2" NCoef="0" IVar="-1" Cut="0.0000000000000000e+00" cType="1" res="2.1135037241037935e-04" rms="4.6966615319252014e-01" purity="5.1794314384460449e-01" nType="-99"/>
          <Node pos="r" depth="2" NCoef="0" IVar="-1" Cut="0.0000000000000000e+00" cType="1" res="2.0839436911046505e-03" rms="4.5286658406257629e-01" purity="6.4956831932067871e-01" nType="-99"/>
        </Node>
        <Node pos="r" depth="1" NCoef="0" IVar="7" Cut="-1.1095623672008514e-01" cType="1" res="-5.3329090587794781e-03" rms="4.6030461788177490e-01" purity="4.7934460639953613e-01" nType="0">
          <Node pos="l" depth="2" NCoef="0" IVar="-1" Cut="0.0000000000000000e+00" cType="1" res="-3.2701438758522272e-03" rms="4.3099358677864075e-01" purity="3.4534242749214172e-01" nType="-99"/>
          <Node pos="r" depth="2" NCoef="0" IVar="-1" Cut="0.0000000000000000e+00" cType="1" res="2.0186049368930981e-05" rms="4.6182358264923096e-01" purity="4.8921421170234680e-01" nType="-99"/>
        </Node>
      </Node>
    </BinaryTree>
    <BinaryTree type="DecisionTree" boostWeight="1.0000000000000000e+00" itree="301">
      <Node pos="s" depth="0" NCoef="0" IVar="6" Cut="1.4039888381958008e+00" cType="1" res="5.2496045827865601e-03" rms="4.5902726054191589e-01" purity="5.0097686052322388e-01" nType="0">
        <Node pos="l" depth="1" NCoef="0" IVar="4" Cut="7.7858306884765625e+01" cType="1" res="-4.9894392490386963e-02" rms="4.2882183194160461e-01" purity="2.7434730529785156e-01" nType="0">
          <Node pos="l" depth="2" NCoef="0" IVar="-1" Cut="0.0000000000000000e+00" cType="1" res="-3.9208028465509415e-03" rms="4.0302270650863647e-01" purity="2.2327528893947601e-01" nType="-99"/>
          <Node pos="r" depth="2" NCoef="0" IVar="-1" Cut="0.0000000000000000e+00" cType="1" res="-4.9274577759206295e-04" rms="4.6245762705802917e-01" purity="3.5113310813903809e-01" nType="-99"/>
        </Node>
        <Node pos="r" depth="1" NCoef="0" IVar="3" Cut="1.9032497704029083e-01" cType="1" res="1.4793916605412960e-02" rms="4.6338993310928345e-01" purity="5.4020184278488159e-01" nType="0">
          <Node pos="l" depth="2" NCoef="0" IVar="-1" Cut="0.0000000000000000e+00" cType="1" res="2.3440602235496044e-03" rms="4.6756699681282043e-01" purity="5.3061658143997192e-01" nType="-99"/>
          <Node pos="r" depth="2" NCoef="0" IVar="-1" Cut="0.0000000000000000e+00" cType="1" res="1.5393138164654374e-04" rms="4.6203142404556274e-01" purity="5.4153698682785034e-01" nType="-99"/>
        </Node>
      </Node>
    </BinaryTree>
    <BinaryTree type="DecisionTree" boostWeight="1.0000000000000000e+00" itree="302">
      <Node pos="s" depth="0" NCoef="0" IVar="6" Cut="2.7063794136047363e+00" cType="1" res="2.1090053487569094e-03" rms="4.5733326673507690e-01" purity="4.9811893701553345e-01" nType="0">
        <Node pos="l" depth="1" NCoef="0" IVar="3" Cut="3.2445570826530457e-01" cType="1" res="-2.5192804634571075e-02" rms="4.5666366815567017e-01" purity="3.5233175754547119e-01" nType="0">
          <Node pos="l" depth="2" NCoef="0" IVar="-1" Cut="0.0000000000000000e+00" cType="1" res="-1.5684879326727241e-04" rms="4.5804366469383240e-01" purity="3.6572727560997009e-01" nType="-99"/>
          <Node pos="r" depth="2" NCoef="0" IVar="-1" Cut="0.0000000000000000e+00" cType="1" res="-3.1438565347343683e-03" rms="4.4748416543006897e-01" purity="3.1460943818092346e-01" nType="-99"/>
        </Node>
        <Node pos="r" depth="1" NCoef="0" IVar="3" Cut="5.3871834278106689e-01" cType="1" res="2.7662694454193115e-02" rms="4.5648208260536194e-01" purity="6.3457155227661133e-01" nType="0">
          <Node pos="l" depth="2" NCoef="0" IVar="-1" Cut="0.0000000000000000e+00" cType="1" res="1.5498602297157049e-03" rms="4.6135038137435913e-01" purity="6.2638962268829346e-01" nType="-99"/>
          <Node pos="r" depth="2" NCoef="0" IVar="-1" Cut="0.0000000000000000e+00" cType="1" res="1.3470693374983966e-04" rms="4.5184120535850525e-01" purity="6.3995271921157837e-01" nType="-99"/>
        </Node>
      </Node>
    </BinaryTree>
    <BinaryTree type="DecisionTree" boostWeight="1.0000000000000000e+00" itree="303">
      <Node pos="s" depth="0" NCoef="0" IVar="1" Cut="3.9558740234375000e+02" cType="1" res="1.6185668064281344e-03" rms="4.6007931232452393e-01" purity="4.9507218599319458e-01" nType="0">
        <Node pos="l" depth="1" NCoef="0" IVar="3" Cut="2.6774105429649353e-01" cType="1" res="-5.7358905673027039e-02" rms="4.2591375112533569e-01" purity="2.9419246315956116e-01" nType="0">
          <Node pos="l" depth="2" NCoef="0" IVar="-1" Cut="0.0000000000000000e+00" cType="1" res="-7.4114045128226280e-04" rms="4.1298082470893860e-01" purity="2.4673606455326080e-01" nType="-99"/>
          <Node pos="r" depth="2" NCoef="0" IVar="-1" Cut="0.0000000000000000e+00" cType="1" res="-3.2152382191270590e-03" rms="4.3140482902526855e-01" purity="3.2286643981933594e-01" nType="-99"/>
        </Node>
        <Node pos="r" depth="1" NCoef="0" IVar="6" Cut="1.0723695755004883e+00" cType="1" res="1.1201445944607258e-02" rms="4.6468746662139893e-01" purity="5.2771186828613281e-01" nType="0">
          <Node pos="l" depth="2" NCoef="0" IVar="-1" Cut="0.0000000000000000e+00" cType="1" res="-3.5818263422697783e-03" rms="4.2961868643760681e-01" purity="2.6289030909538269e-01" nType="-99"/>
          <Node pos="r" depth="2" NCoef="0" IVar="-1" Cut="0.0000000000000000e+00" cType="1" res="5.3293531527742743e-04" rms="4.6688246726989746e-01" purity="5.5133676528930664e-01" nType="-99"/>
        </Node>
      </Node>
    </BinaryTree>
    <BinaryTree type="DecisionTree" boostWeight="1.0000000000000000e+00" itree="304">
      <Node pos="s" depth="0" NCoef="0" IVar="5" Cut="2.8893353939056396e+00" cType="1" res="6.7502688616514206e-03" rms="4.5765048265457153e-01" purity="5.0313532352447510e-01" nType="0">
        <Node pos="l" depth="1" NCoef="0" IVar="6" Cut="1.1767230033874512e+00" cType="1" res="1.2367028743028641e-02" rms="4.6030130982398987e-01" purity="5.1937174797058105e-01" nType="0">
          <Node pos="l" depth="2" NCoef="0" IVar="-1" Cut="0.0000000000000000e+00" cType="1" res="-3.0882738064974546e-03" rms="4.2508479952812195e-01" purity="2.6305380463600159e-01" nType="-99"/>
          <Node pos="r" depth="2" NCoef="0" IVar="-1" Cut="0.0000000000000000e+00" cType="1" res="5.9109210269525647e-04" rms="4.6323990821838379e-01" purity="5.4779767990112305e-01" nType="-99"/>
        </Node>
        <Node pos="r" depth="1" NCoef="0" IVar="-1" Cut="0.0000000000000000e+00" cType="1" res="-5.4549621418118477e-03" rms="3.8938525319099426e-01" purity="1.9641122221946716e-01" nType="-99"/>
      </Node>
    </BinaryTree>
    <BinaryTree type="DecisionTree" boostWeight="1.0000000000000000e+00" itree="305">
      <Node pos="s" depth="0" NCoef="0" IVar="6" Cut="1.3052685260772705e+00" cType="1" res="9.3502190429717302e-04" rms="4.5904943346977234e-01" purity="4.9443852901458740e-01" nType="0">
        <Node pos="l" depth="1" NCoef="0" IVar="3" Cut="1.4768628776073456e-01" cType="1" res="-6.4717382192611694e-02" rms="4.2130243778228760e-01" purity="2.5371849536895752e-01" nType="0">
          <Node pos="l" depth="2" NCoef="0" IVar="-1" Cut="0.0000000000000000e+00" cType="1" res="-1.8137086881324649e-03" rms="4.4077521562576294e-01" purity="2.9096478223800659e-01" nType="-99"/>
          <Node pos="r" depth="2" NCoef="0" IVar="-1" Cut="0.0000000000000000e+00" cType="1" res="-4.0214266628026962e-03" rms="4.0759274363517761e-01" purity="2.3002138733863831e-01" nType="-99"/>
        </Node>
        <Node pos="r" depth="1" NCoef="0" IVar="3" Cut="1.9032473862171173e-01" cType="1" res="1.0732884518802166e-02" rms="4.6362313628196716e-01" purity="5.3036320209503174e-01" nType="0">
          <Node pos="l" depth="2" NCoef="0" IVar="-1" Cut="0.0000000000000000e+00" cType="1" res="2.2588446736335754e-03" rms="4.7336453199386597e-01" purity="5.1058369874954224e-01" nType="-99"/>
          <Node pos="r" depth="2" NCoef="0" IVar="-1" Cut="0.0000000000000000e+00" cType="1" res="3.6412431654753163e-05" rms="4.6142029762268066e-01" purity="5.3326088190078735e-01" nType="-99"/>
        </Node>
      </Node>
    </BinaryTree>
    <BinaryTree type="DecisionTree" boostWeight="1.0000000000000000e+00" itree="306">
      <Node pos="s" depth="0" NCoef="0" IVar="2" Cut="9.2372417449951172e-01" cType="1" res="1.1329771019518375e-02" rms="4.6080917119979858e-01" purity="5.0559318065643311e-01" nType="0">
        <Node pos="l" depth="1" NCoef="0" IVar="4" Cut="8.3907897949218750e+01" cType="1" res="2.6697309687733650e-02" rms="4.6222814917564392e-01" purity="5.3868120908737183e-01" nType="0">
          <Node pos="l" depth="2" NCoef="0" IVar="-1" Cut="0.0000000000000000e+00" cType="1" res="2.9128862661309540e-04" rms="4.6357655525207520e-01" purity="4.9786531925201416e-01" nType="-99"/>
          <Node pos="r" depth="2" NCoef="0" IVar="-1" Cut="0.0000000000000000e+00" cType="1" res="1.4354914892464876e-03" rms="4.5872461795806885e-01" purity="6.0417538881301880e-01" nType="-99"/>
        </Node>
        <Node pos="r" depth="1" NCoef="0" IVar="7" Cut="1.0508003830909729e-01" cType="1" res="-2.1268729120492935e-02" rms="4.5607352256774902e-01" purity="4.3540492653846741e-01" nType="0">
          <Node pos="l" depth="2" NCoef="0" IVar="-1" Cut="0.0000000000000000e+00" cType="1" res="-1.4212974347174168e-03" rms="4.4872760772705078e-01" purity="3.9698141813278198e-01" nType="-99"/>
          <Node pos="r" depth="2" NCoef="0" IVar="-1" Cut="0.0000000000000000e+00" cType="1" res="6.1144115170463920e-04" rms="4.6854683756828308e-01" purity="5.1723700761795044e-01" nType="-99"/>
        </Node>
      </Node>
    </BinaryTree>
    <BinaryTree type="DecisionTree" boostWeight="1.0000000000000000e+00" itree="307">
      <Node pos="s" depth="0" NCoef="0" IVar="4" Cut="5.1431171417236328e+01" cType="1" res="2.0518619567155838e-03" rms="4.5858925580978394e-01" purity="4.9614673852920532e-01" nType="0">
        <Node pos="l" depth="1" NCoef="0" IVar="6" Cut="4.0087962150573730e+00" cType="1" res="-3.2257344573736191e-02" rms="4.5067331194877625e-01" purity="4.2847442626953125e-01" nType="0">
          <Node pos="l" depth="2" NCoef="0" IVar="-1" Cut="0.0000000000000000e+00" cType="1" res="-1.7511923797428608e-03" rms="4.5119860768318176e-01" purity="3.5455510020256042e-01" nType="-99"/>
          <Node pos="r" depth="2" NCoef="0" IVar="-1" Cut="0.0000000000000000e+00" cType="1" res="5.9037323808297515e-04" rms="4.4440710544586182e-01" purity="6.9200152158737183e-01" nType="-99"/>
        </Node>
        <Node pos="r" depth="1" NCoef="0" IVar="5" Cut="2.6740715503692627e+00" cType="1" res="1.9371990114450455e-02" rms="4.6156629920005798e-01" purity="5.3030943870544434e-01" nType="0">
          <Node pos="l" depth="2" NCoef="0" IVar="-1" Cut="0.0000000000000000e+00" cType="1" res="7.5705419294536114e-04" rms="4.6340110898017883e-01" purity="5.5687695741653442e-01" nType="-99"/>
          <Node pos="r" depth="2" NCoef="0" IVar="-1" Cut="0.0000000000000000e+00" cType="1" res="-2.0948785822838545e-03" rms="4.3925654888153076e-01" purity="2.9687955975532532e-01" nType="-99"/>
        </Node>
      </Node>
    </BinaryTree>
    <BinaryTree type="DecisionTree" boostWeight="1.0000000000000000e+00" itree="308">
      <Node pos="s" depth="0" NCoef="0" IVar="6" Cut="4.5857110023498535e+00" cType="1" res="8.3509851247072220e-03" rms="4.5688113570213318e-01" purity="5.0595533847808838e-01" nType="0">
        <Node pos="l" depth="1" NCoef="0" IVar="3" Cut="5.5807346105575562e-01" cType="1" res="-2.1335799247026443e-03" rms="4.6487322449684143e-01" purity="4.5922681689262390e-01" nType="0">
          <Node pos="l" depth="2" NCoef="0" IVar="-1" Cut="0.0000000000000000e+00" cType="1" res="3.0805863207206130e-04" rms="4.6013784408569336e-01" purity="4.4357633590698242e-01" nType="-99"/>
          <Node pos="r" depth="2" NCoef="0" IVar="-1" Cut="0.0000000000000000e+00" cType="1" res="-1.3295651879161596e-03" rms="4.8039755225181580e-01" purity="5.2142310142517090e-01" nType="-99"/>
        </Node>
        <Node pos="r" depth="1" NCoef="0" IVar="-1" Cut="0.0000000000000000e+00" cType="1" res="1.7511412734165788e-03" rms="4.0116944909095764e-01" purity="7.8093153238296509e-01" nType="-99"/>
      </Node>
    </BinaryTree>
    <BinaryTree type="DecisionTree" boostWeight="1.0000000000000000e+00" itree="309">
      <Node pos="s" depth="0" NCoef="0" IVar="6" Cut="4.7695207595825195e+00" cType="1" res="8.1833852455019951e-03" rms="4.5991614460945129e-01" purity="5.0345474481582642e-01" nType="0">
        <Node pos="l" depth="1" NCoef="0" IVar="3" Cut="4.0323266386985779e-01" cType="1" res="-9.1748515842482448e-04" rms="4.6752256155014038e-01" purity="4.6422398090362549e-01" nType="0">
          <Node pos="l" depth="2" NCoef="0" IVar="-1" Cut="0.0000000000000000e+00" cType="1" res="6.1585567891597748e-04" rms="4.6423763036727905e-01" purity="4.3309435248374939e-01" nType="-99"/>
          <Node pos="r" depth="2" NCoef="0" IVar="-1" Cut="0.0000000000000000e+00" cType="1" res="-8.8990724179893732e-04" rms="4.7097870707511902e-01" purity="5.1263177394866943e-01" nType="-99"/>
        </Node>
        <Node pos="r" depth="1" NCoef="0" IVar="-1" Cut="0.0000000000000000e+00" cType="1" res="1.9042604835703969e-03" rms="3.9233776926994324e-01" purity="7.9489874839782715e-01" nType="-99"/>
      </Node>
    </BinaryTree>
    <BinaryTree type="DecisionTree" boostWeight="1.0000000000000000e+00" itree="310">
      <Node pos="s" depth="0" NCoef="0" IVar="6" Cut="1.0713223218917847e+00" cType="1" res="6.6755590960383415e-03" rms="4.5993360877037048e-01" purity="5.0212812423706055e-01" nType="0">
        <Node pos="l" depth="1" NCoef="0" IVar="-1" Cut="0.0000000000000000e+00" cType="1" res="-3.1677728984504938e-03" rms="4.2043653130531311e-01" purity="2.5253814458847046e-01" nType="-99"/>
        <Node pos="r" depth="1" NCoef="0" IVar="7" Cut="1.2803167104721069e-01" cType="1" res="1.3395126909017563e-02" rms="4.6287301182746887e-01" purity="5.2539843320846558e-01" nType="0">
          <Node pos="l" depth="2" NCoef="0" IVar="-1" Cut="0.0000000000000000e+00" cType="1" res="1.8037340851151384e-05" rms="4.6196883916854858e-01" purity="5.0290817022323608e-01" nType="-99"/>
          <Node pos="r" depth="2" NCoef="0" IVar="-1" Cut="0.0000000000000000e+00" cType="1" res="1.4894744381308556e-03" rms="4.6331834793090820e-01" purity="6.0092455148696899e-01" nType="-99"/>
        </Node>
      </Node>
    </BinaryTree>
    <BinaryTree type="DecisionTree" boostWeight="1.0000000000000000e+00" itree="311">
      <Node pos="s" depth="0" NCoef="0" IVar="6" Cut="3.9756820201873779e+00" cType="1" res="4.3962211348116398e-03" rms="4.5983538031578064e-01" purity="4.9749872088432312e-01" nType="0">
        <Node pos="l" depth="1" NCoef="0" IVar="3" Cut="1.9003835320472717e-01" cType="1" res="-8.3106635138392448e-03" rms="4.6791487932205200e-01" purity="4.2673507332801819e-01" nType="0">
          <Node pos="l" depth="2" NCoef="0" IVar="-1" Cut="0.0000000000000000e+00" cType="1" res="1.3345744227990508e-03" rms="4.6627050638198853e-01" purity="4.2635470628738403e-01" nType="-99"/>
          <Node pos="r" depth="2" NCoef="0" IVar="-1" Cut="0.0000000000000000e+00" cType="1" res="-7.9969561193138361e-04" rms="4.6735319495201111e-01" purity="4.2687302827835083e-01" nType="-99"/>
        </Node>
        <Node pos="r" depth="1" NCoef="0" IVar="6" Cut="4.9484629631042480e+00" cType="1" res="4.5684497803449631e-02" rms="4.2995733022689819e-01" purity="7.2742992639541626e-01" nType="0">
          <Node pos="l" depth="2" NCoef="0" IVar="-1" Cut="0.0000000000000000e+00" cType="1" res="7.0993124973028898e-04" rms="4.5111674070358276e-01" purity="6.8306553363800049e-01" nType="-99"/>
          <Node pos="r" depth="2" NCoef="0" IVar="-1" Cut="0.0000000000000000e+00" cType="1" res="1.7774357693269849e-03" rms="3.9626193046569824e-01" purity="7.9121816158294678e-01" nType="-99"/>
        </Node>
      </Node>
    </BinaryTree>
    <BinaryTree type="DecisionTree" boostWeight="1.0000000000000000e+00" itree="312">
      <Node pos="s" depth="0" NCoef="0" IVar="7" Cut="-1.1159882694482803e-01" cType="1" res="8.1885037943720818e-03" rms="4.5892935991287231e-01" purity="5.0355345010757446e-01" nType="0">
        <Node pos="l" depth="1" NCoef="0" IVar="-1" Cut="0.0000000000000000e+00" cType="1" res="-3.1022338662296534e-03" rms="4.4145822525024414e-01" purity="3.6465576291084290e-01" nType="-99"/>
        <Node pos="r" depth="1" NCoef="0" IVar="6" Cut="4.5232110023498535e+00" cType="1" res="1.4738734811544418e-02" rms="4.5942580699920654e-01" purity="5.1333659887313843e-01" nType="0">
          <Node pos="l" depth="2" NCoef="0" IVar="-1" Cut="0.0000000000000000e+00" cType="1" res="1.5460200665984303e-04" rms="4.6801352500915527e-01" purity="4.6694639325141907e-01" nType="-99"/>
          <Node pos="r" depth="2" NCoef="0" IVar="-1" Cut="0.0000000000000000e+00" cType="1" res="1.7715289723128080e-03" rms="4.0150961279869080e-01" purity="7.8221958875656128e-01" nType="-99"/>
        </Node>
      </Node>
    </BinaryTree>
    <BinaryTree type="DecisionTree" boostWeight="1.0000000000000000e+00" itree="313">
      <Node pos="s" depth="0" NCoef="0" IVar="7" Cut="8.2786098122596741e-02" cType="1" res="1.2481736950576305e-02" rms="4.5978945493698120e-01" purity="5.0766605138778687e-01" nType="0">
        <Node pos="l" depth="1" NCoef="0" IVar="4" Cut="8.0623046875000000e+01" cType="1" res="-5.0898306071758270e-03" rms="4.5706200599670410e-01" purity="4.7648614645004272e-01" nType="0">
          <Node pos="l" depth="2" NCoef="0" IVar="-1" Cut="0.0000000000000000e+00" cType="1" res="-8.5951254004612565e-04" rms="4.5302450656890869e-01" purity="4.3196231126785278e-01" nType="-99"/>
          <Node pos="r" depth="2" NCoef="0" IVar="-1" Cut="0.0000000000000000e+00" cType="1" res="7.8627606853842735e-04" rms="4.6148279309272766e-01" purity="5.4699414968490601e-01" nType="-99"/>
        </Node>
        <Node pos="r" depth="1" NCoef="0" IVar="9" Cut="9.6997238159179688e+01" cType="1" res="5.1376022398471832e-02" rms="4.6340623497962952e-01" purity="5.7668209075927734e-01" nType="0">
          <Node pos="l" depth="2" NCoef="0" IVar="-1" Cut="0.0000000000000000e+00" cType="1" res="8.4186386084184051e-04" rms="4.6851131319999695e-01" purity="5.3992694616317749e-01" nType="-99"/>
          <Node pos="r" depth="2" NCoef="0" IVar="-1" Cut="0.0000000000000000e+00" cType="1" res="1.9944554660469294e-03" rms="4.5635747909545898e-01" purity="6.1840385198593140e-01" nType="-99"/>
        </Node>
      </Node>
    </BinaryTree>
    <BinaryTree type="DecisionTree" boostWeight="1.0000000000000000e+00" itree="314">
      <Node pos="s" depth="0" NCoef="0" IVar="1" Cut="6.6815344238281250e+02" cType="1" res="5.0559705123305321e-03" rms="4.5849776268005371e-01" purity="5.0020724534988403e-01" nType="0">
        <Node pos="l" depth="1" NCoef="0" IVar="7" Cut="1.5323710441589355e-01" cType="1" res="-8.3967847749590874e-03" rms="4.5754823088645935e-01" purity="4.6121537685394287e-01" nType="0">
          <Node pos="l" depth="2" NCoef="0" IVar="-1" Cut="0.0000000000000000e+00" cType="1" res="-6.4695184119045734e-04" rms="4.5517095923423767e-01" purity="4.3982619047164917e-01" nType="-99"/>
          <Node pos="r" depth="2" NCoef="0" IVar="-1" Cut="0.0000000000000000e+00" cType="1" res="1.2019396526739001e-03" rms="4.6468585729598999e-01" purity="5.5839061737060547e-01" nType="-99"/>
        </Node>
        <Node pos="r" depth="1" NCoef="0" IVar="9" Cut="1.1376928710937500e+02" cType="1" res="4.7990243881940842e-02" rms="4.5888483524322510e-01" purity="6.2464946508407593e-01" nType="0">
          <Node pos="l" depth="2" NCoef="0" IVar="-1" Cut="0.0000000000000000e+00" cType="1" res="2.4656538153067231e-04" rms="4.6334609389305115e-01" purity="5.9741878509521484e-01" nType="-99"/>
          <Node pos="r" depth="2" NCoef="0" IVar="-1" Cut="0.0000000000000000e+00" cType="1" res="1.9666338339447975e-03" rms="4.5360586047172546e-01" purity="6.4420956373214722e-01" nType="-99"/>
        </Node>
      </Node>
    </BinaryTree>
    <BinaryTree type="DecisionTree" boostWeight="1.0000000000000000e+00" itree="315">
      <Node pos="s" depth="0" NCoef="0" IVar="0" Cut="1.3036793470382690e+00" cType="1" res="2.7488030027598143e-03" rms="4.6011787652969360e-01" purity="4.9743202328681946e-01" nType="0">
        <Node pos="l" depth="1" NCoef="0" IVar="2" Cut="9.9658876657485962e-01" cType="1" res="1.8603552132844925e-02" rms="4.6229216456413269e-01" purity="5.2595800161361694e-01" nType="0">
          <Node pos="l" depth="2" NCoef="0" IVar="-1" Cut="0.0000000000000000e+00" cType="1" res="8.6477748118340969e-04" rms="4.6232610940933228e-01" purity="5.5063748359680176e-01" nType="-99"/>
          <Node pos="r" depth="2" NCoef="0" IVar="-1" Cut="0.0000000000000000e+00" cType="1" res="-7.0230272831395268e-04" rms="4.5988944172859192e-01" purity="4.4230601191520691e-01" nType="-99"/>
        </Node>
        <Node pos="r" depth="1" NCoef="0" IVar="1" Cut="4.0392922973632812e+02" cType="1" res="-3.5965360701084137e-02" rms="4.5243632793426514e-01" purity="4.2777720093727112e-01" nType="0">
          <Node pos="l" depth="2" NCoef="0" IVar="-1" Cut="0.0000000000000000e+00" cType="1" res="-4.2058648541569710e-03" rms="4.0052977204322815e-01" purity="2.5249123573303223e-01" nType="-99"/>
          <Node pos="r" depth="2" NCoef="0" IVar="-1" Cut="0.0000000000000000e+00" cType="1" res="-6.5275916131213307e-04" rms="4.6453958749771118e-01" purity="4.7582781314849854e-01" nType="-99"/>
        </Node>
      </Node>
    </BinaryTree>
    <BinaryTree type="DecisionTree" boostWeight="1.0000000000000000e+00" itree="316">
      <Node pos="s" depth="0" NCoef="0" IVar="8" Cut="9.2205047607421875e+01" cType="1" res="2.7839702670462430e-04" rms="4.6010935306549072e-01" purity="4.9181056022644043e-01" nType="0">
        <Node pos="l" depth="1" NCoef="0" IVar="2" Cut="7.5231063365936279e-01" cType="1" res="-7.1658492088317871e-02" rms="4.5364889502525330e-01" purity="4.0076026320457458e-01" nType="0">
          <Node pos="l" depth="2" NCoef="0" IVar="-1" Cut="0.0000000000000000e+00" cType="1" res="-1.5437487745657563e-03" rms="4.6198511123657227e-01" purity="4.5522764325141907e-01" nType="-99"/>
          <Node pos="r" depth="2" NCoef="0" IVar="-1" Cut="0.0000000000000000e+00" cType="1" res="-3.5574801731854677e-03" rms="4.4379982352256775e-01" purity="3.4558185935020447e-01" nType="-99"/>
        </Node>
        <Node pos="r" depth="1" NCoef="0" IVar="1" Cut="7.2862152099609375e+02" cType="1" res="8.5337692871689796e-03" rms="4.6012613177299500e-01" purity="5.0225937366485596e-01" nType="0">
          <Node pos="l" depth="2" NCoef="0" IVar="-1" Cut="0.0000000000000000e+00" cType="1" res="-4.1769944800762460e-05" rms="4.5985013246536255e-01" purity="4.7438254952430725e-01" nType="-99"/>
          <Node pos="r" depth="2" NCoef="0" IVar="-1" Cut="0.0000000000000000e+00" cType="1" res="1.4683454064652324e-03" rms="4.5850554108619690e-01" purity="6.3598871231079102e-01" nType="-99"/>
        </Node>
      </Node>
    </BinaryTree>
    <BinaryTree type="DecisionTree" boostWeight="1.0000000000000000e+00" itree="317">
      <Node pos="s" depth="0" NCoef="0" IVar="0" Cut="1.0298986434936523e+00" cType="1" res="1.6399861779063940e-03" rms="4.5851945877075195e-01" purity="4.9641188979148865e-01" nType="0">
        <Node pos="l" depth="1" NCoef="0" IVar="6" Cut="1.6947395801544189e+00" cType="1" res="2.6867892593145370e-02" rms="4.5907688140869141e-01" purity="5.4354459047317505e-01" nType="0">
          <Node pos="l" depth="2" NCoef="0" IVar="-1" Cut="0.0000000000000000e+00" cType="1" res="-1.0685679735615849e-03" rms="4.4829446077346802e-01" purity="3.2179743051528931e-01" nType="-99"/>
          <Node pos="r" depth="2" NCoef="0" IVar="-1" Cut="0.0000000000000000e+00" cType="1" res="1.0842593619599938e-03" rms="4.6085625886917114e-01" purity="6.0243386030197144e-01" nType="-99"/>
        </Node>
        <Node pos="r" depth="1" NCoef="0" IVar="1" Cut="6.5725701904296875e+02" cType="1" res="-2.1323869004845619e-02" rms="4.5680174231529236e-01" purity="4.5350903272628784e-01" nType="0">
          <Node pos="l" depth="2" NCoef="0" IVar="-1" Cut="0.0000000000000000e+00" cType="1" res="-1.1191642843186855e-03" rms="4.5446678996086121e-01" purity="4.2069232463836670e-01" nType="-99"/>
          <Node pos="r" depth="2" NCoef="0" IVar="-1" Cut="0.0000000000000000e+00" cType="1" res="8.9016632409766316e-04" rms="4.6339794993400574e-01" purity="6.0308688879013062e-01" nType="-99"/>
        </Node>
      </Node>
    </BinaryTree>
    <BinaryTree type="DecisionTree" boostWeight="1.0000000000000000e+00" itree="318">
      <Node pos="s" depth="0" NCoef="0" IVar="2" Cut="1.0131289958953857e+00" cType="1" res="6.5087857656180859e-03" rms="4.5953309535980225e-01" purity="5.0194364786148071e-01" nType="0">
        <Node pos="l" depth="1" NCoef="0" IVar="6" Cut="4.5785899162292480e+00" cType="1" res="1.8456742167472839e-02" rms="4.5953035354614258e-01" purity="5.2702248096466064e-01" nType="0">
          <Node pos="l" depth="2" NCoef="0" IVar="-1" Cut="0.0000000000000000e+00" cType="1" res="2.7144193882122636e-04" rms="4.6908754110336304e-01" purity="4.8086294531822205e-01" nType="-99"/>
          <Node pos="r" depth="2" NCoef="0" IVar="-1" Cut="0.0000000000000000e+00" cType="1" res="1.8241743091493845e-03" rms="3.9555999636650085e-01" purity="7.9347568750381470e-01" nType="-99"/>
        </Node>
        <Node pos="r" depth="1" NCoef="0" IVar="7" Cut="6.0836527496576309e-02" cType="1" res="-3.4325961023569107e-02" rms="4.5719128847122192e-01" purity="4.1623148322105408e-01" nType="0">
          <Node pos="l" depth="2" NCoef="0" IVar="-1" Cut="0.0000000000000000e+00" cType="1" res="-2.2947280667722225e-03" rms="4.4607859849929810e-01" purity="3.6193650960922241e-01" nType="-99"/>
          <Node pos="r" depth="2" NCoef="0" IVar="-1" Cut="0.0000000000000000e+00" cType="1" res="1.6080179193522781e-04" rms="4.6968972682952881e-01" purity="4.9343365430831909e-01" nType="-99"/>
        </Node>
      </Node>
    </BinaryTree>
    <BinaryTree type="DecisionTree" boostWeight="1.0000000000000000e+00" itree="319">
      <Node pos="s" depth="0" NCoef="0" IVar="5" Cut="1.6933814287185669e+00" cType="1" res="5.8697164058685303e-03" rms="4.5833805203437805e-01" purity="5.0057798624038696e-01" nType="0">
        <Node pos="l" depth="1" NCoef="0" IVar="8" Cut="1.1451424407958984e+02" cType="1" res="6.2275405973196030e-02" rms="4.5158165693283081e-01" purity="6.1604875326156616e-01" nType="0">
          <Node pos="l" depth="2" NCoef="0" IVar="-1" Cut="0.0000000000000000e+00" cType="1" res="7.6804857235401869e-04" rms="4.5683407783508301e-01" purity="5.5455791950225830e-01" nType="-99"/>
          <Node pos="r" depth="2" NCoef="0" IVar="-1" Cut="0.0000000000000000e+00" cType="1" res="2.3228505160659552e-03" rms="4.4463294744491577e-01" purity="6.7001122236251831e-01" nType="-99"/>
        </Node>
        <Node pos="r" depth="1" NCoef="0" IVar="0" Cut="1.6397918462753296e+00" cType="1" res="-2.4377177469432354e-03" rms="4.5873916149139404e-01" purity="4.8357146978378296e-01" nType="0">
          <Node pos="l" depth="2" NCoef="0" IVar="-1" Cut="0.0000000000000000e+00" cType="1" res="1.3061270874459296e-04" rms="4.5970451831817627e-01" purity="4.9684602022171021e-01" nType="-99"/>
          <Node pos="r" depth="2" NCoef="0" IVar="-1" Cut="0.0000000000000000e+00" cType="1" res="-2.3137133102864027e-03" rms="4.4560605287551880e-01" purity="3.6562535166740417e-01" nType="-99"/>
        </Node>
      </Node>
    </BinaryTree>
    <BinaryTree type="DecisionTree" boostWeight="1.0000000000000000e+00" itree="320">
      <Node pos="s" depth="0" NCoef="0" IVar="1" Cut="6.6815344238281250e+02" cType="1" res="-2.5544894742779434e-04" rms="4.5774748921394348e-01" purity="4.9431112408638000e-01" nType="0">
        <Node pos="l" depth="1" NCoef="0" IVar="7" Cut="-4.2620941996574402e-02" cType="1" res="-1.4601238071918488e-02" rms="4.5714208483695984e-01" purity="4.5289763808250427e-01" nType="0">
          <Node pos="l" depth="2" NCoef="0" IVar="-1" Cut="0.0000000000000000e+00" cType="1" res="-1.5898725250735879e-03" rms="4.4583585858345032e-01" purity="3.8986250758171082e-01" nType="-99"/>
          <Node pos="r" depth="2" NCoef="0" IVar="-1" Cut="0.0000000000000000e+00" cType="1" res="4.1243787563871592e-05" rms="4.6221208572387695e-01" purity="4.8622065782546997e-01" nType="-99"/>
        </Node>
        <Node pos="r" depth="1" NCoef="0" IVar="9" Cut="9.5131752014160156e+01" cType="1" res="4.4646847993135452e-02" rms="4.5673409104347229e-01" purity="6.2393528223037720e-01" nType="0">
          <Node pos="l" depth="2" NCoef="0" IVar="-1" Cut="0.0000000000000000e+00" cType="1" res="-1.9915074517484754e-04" rms="4.6606487035751343e-01" purity="5.7742148637771606e-01" nType="-99"/>
          <Node pos="r" depth="2" NCoef="0" IVar="-1" Cut="0.0000000000000000e+00" cType="1" res="1.6560358926653862e-03" rms="4.5177987217903137e-01" purity="6.4096724987030029e-01" nType="-99"/>
        </Node>
      </Node>
    </BinaryTree>
    <BinaryTree type="DecisionTree" boostWeight="1.0000000000000000e+00" itree="321">
      <Node pos="s" depth="0" NCoef="0" IVar="9" Cut="9.0891426086425781e+01" cType="1" res="7.4518476612865925e-03" rms="4.5991590619087219e-01" purity="5.0190186500549316e-01" nType="0">
        <Node pos="l" depth="1" NCoef="0" IVar="5" Cut="1.6651524305343628e+00" cType="1" res="-1.7752805724740028e-02" rms="4.6223649382591248e-01" purity="4.6679309010505676e-01" nType="0">
          <Node pos="l" depth="2" NCoef="0" IVar="-1" Cut="0.0000000000000000e+00" cType="1" res="1.0080399224534631e-03" rms="4.6662202477455139e-01" purity="5.7052999734878540e-01" nType="-99"/>
          <Node pos="r" depth="2" NCoef="0" IVar="-1" Cut="0.0000000000000000e+00" cType="1" res="-1.0575969936326146e-03" rms="4.5993310213088989e-01" purity="4.3862491846084595e-01" nType="-99"/>
        </Node>
        <Node pos="r" depth="1" NCoef="0" IVar="1" Cut="5.7514715576171875e+02" cType="1" res="2.6302602142095566e-02" rms="4.5726543664932251e-01" purity="5.2815997600555420e-01" nType="0">
          <Node pos="l" depth="2" NCoef="0" IVar="-1" Cut="0.0000000000000000e+00" cType="1" res="-5.1697868912015110e-05" rms="4.5313620567321777e-01" purity="4.3677988648414612e-01" nType="-99"/>
          <Node pos="r" depth="2" NCoef="0" IVar="-1" Cut="0.0000000000000000e+00" cType="1" res="1.4235351700335741e-03" rms="4.5965978503227234e-01" purity="6.1885875463485718e-01" nType="-99"/>
        </Node>
      </Node>
    </BinaryTree>
    <BinaryTree type="DecisionTree" boostWeight="1.0000000000000000e+00" itree="322">
      <Node pos="s" depth="0" NCoef="0" IVar="0" Cut="1.0302873849868774e+00" cType="1" res="3.4274947829544544e-03" rms="4.5977592468261719e-01" purity="4.9766492843627930e-01" nType="0">
        <Node pos="l" depth="1" NCoef="0" IVar="8" Cut="1.0141689300537109e+02" cType="1" res="2.5433583185076714e-02" rms="4.6179229021072388e-01" purity="5.4172927141189575e-01" nType="0">
          <Node pos="l" depth="2" NCoef="0" IVar="-1" Cut="0.0000000000000000e+00" cType="1" res="-6.6684978082776070e-04" rms="4.6176087856292725e-01" purity="4.8432841897010803e-01" nType="-99"/>
          <Node pos="r" depth="2" NCoef="0" IVar="-1" Cut="0.0000000000000000e+00" cType="1" res="9.8501087632030249e-04" rms="4.6121400594711304e-01" purity="5.5317956209182739e-01" nType="-99"/>
        </Node>
        <Node pos="r" depth="1" NCoef="0" IVar="1" Cut="5.1653845214843750e+02" cType="1" res="-1.6906686127185822e-02" rms="4.5696380734443665e-01" purity="4.5694836974143982e-01" nType="0">
          <Node pos="l" depth="2" NCoef="0" IVar="-1" Cut="0.0000000000000000e+00" cType="1" res="-1.5905818436294794e-03" rms="4.4673886895179749e-01" purity="3.6691278219223022e-01" nType="-99"/>
          <Node pos="r" depth="2" NCoef="0" IVar="-1" Cut="0.0000000000000000e+00" cType="1" res="3.7737263482995331e-04" rms="4.6663525700569153e-01" purity="5.6077343225479126e-01" nType="-99"/>
        </Node>
      </Node>
    </BinaryTree>
    <BinaryTree type="DecisionTree" boostWeight="1.0000000000000000e+00" itree="323">
      <Node pos="s" depth="0" NCoef="0" IVar="7" Cut="4.8049155622720718e-02" cType="1" res="-6.6744425566866994e-04" rms="4.5989811420440674e-01" purity="4.9323365092277527e-01" nType="0">
        <Node pos="l" depth="1" NCoef="0" IVar="2" Cut="5.8232015371322632e-01" cType="1" res="-1.8882842734456062e-02" rms="4.5690399408340454e-01" purity="4.5693463087081909e-01" nType="0">
          <Node pos="l" depth="2" NCoef="0" IVar="-1" Cut="0.0000000000000000e+00" cType="1" res="6.2322663143277168e-04" rms="4.5747759938240051e-01" purity="5.5469810962677002e-01" nType="-99"/>
          <Node pos="r" depth="2" NCoef="0" IVar="-1" Cut="0.0000000000000000e+00" cType="1" res="-1.2820103438571095e-03" rms="4.5542758703231812e-01" purity="4.1219085454940796e-01" nType="-99"/>
        </Node>
        <Node pos="r" depth="1" NCoef="0" IVar="3" Cut="2.2903497517108917e-01" cType="1" res="2.7149923145771027e-02" rms="4.6305269002914429e-01" purity="5.4866707324981689e-01" nType="0">
          <Node pos="l" depth="2" NCoef="0" IVar="-1" Cut="0.0000000000000000e+00" cType="1" res="1.9623965490609407e-03" rms="4.6773672103881836e-01" purity="4.8703661561012268e-01" nType="-99"/>
          <Node pos="r" depth="2" NCoef="0" IVar="-1" Cut="0.0000000000000000e+00" cType="1" res="3.7692056503146887e-04" rms="4.6058377623558044e-01" purity="5.7136988639831543e-01" nType="-99"/>
        </Node>
      </Node>
    </BinaryTree>
    <BinaryTree type="DecisionTree" boostWeight="1.0000000000000000e+00" itree="324">
      <Node pos="s" depth="0" NCoef="0" IVar="6" Cut="4.6224908828735352e+00" cType="1" res="5.7451822794973850e-03" rms="4.5941457152366638e-01" purity="5.0143224000930786e-01" nType="0">
        <Node pos="l" depth="1" NCoef="0" IVar="3" Cut="6.5484899282455444e-01" cType="1" res="-3.2944213598966599e-03" rms="4.6682766079902649e-01" purity="4.5696458220481873e-01" nType="0">
          <Node pos="l" depth="2" NCoef="0" IVar="-1" Cut="0.0000000000000000e+00" cType="1" res="1.5932002861518413e-04" rms="4.6458807587623596e-01" purity="4.4755199551582336e-01" nType="-99"/>
          <Node pos="r" depth="2" NCoef="0" IVar="-1" Cut="0.0000000000000000e+00" cType="1" res="-1.7645176267251372e-03" rms="4.7857919335365295e-01" purity="5.2613884210586548e-01" nType="-99"/>
        </Node>
        <Node pos="r" depth="1" NCoef="0" IVar="-1" Cut="0.0000000000000000e+00" cType="1" res="1.5569219831377268e-03" rms="4.0628769993782043e-01" purity="7.7586466073989868e-01" nType="-99"/>
      </Node>
    </BinaryTree>
    <BinaryTree type="DecisionTree" boostWeight="1.0000000000000000e+00" itree="325">
      <Node pos="s" depth="0" NCoef="0" IVar="5" Cut="1.7483171224594116e+00" cType="1" res="4.1055604815483093e-03" rms="4.5992970466613770e-01" purity="4.9969828128814697e-01" nType="0">
        <Node pos="l" depth="1" NCoef="0" IVar="4" Cut="8.5822349548339844e+01" cType="1" res="5.7143561542034149e-02" rms="4.5341467857360840e-01" purity="6.1066871881484985e-01" nType="0">
          <Node pos="l" depth="2" NCoef="0" IVar="-1" Cut="0.0000000000000000e+00" cType="1" res="8.4632151992991567e-04" rms="4.6245071291923523e-01" purity="5.5922579765319824e-01" nType="-99"/>
          <Node pos="r" depth="2" NCoef="0" IVar="-1" Cut="0.0000000000000000e+00" cType="1" res="2.2309729829430580e-03" rms="4.3975767493247986e-01" purity="6.7423075437545776e-01" nType="-99"/>
        </Node>
        <Node pos="r" depth="1" NCoef="0" IVar="2" Cut="1.0762796401977539e+00" cType="1" res="-5.0044315867125988e-03" rms="4.6042507886886597e-01" purity="4.8063760995864868e-01" nType="0">
          <Node pos="l" depth="2" NCoef="0" IVar="-1" Cut="0.0000000000000000e+00" cType="1" res="1.5533542318735272e-04" rms="4.6130001544952393e-01" purity="5.0072479248046875e-01" nType="-99"/>
          <Node pos="r" depth="2" NCoef="0" IVar="-1" Cut="0.0000000000000000e+00" cType="1" res="-1.8354419153183699e-03" rms="4.5334014296531677e-01" purity="3.8686981797218323e-01" nType="-99"/>
        </Node>
      </Node>
    </BinaryTree>
    <BinaryTree type="DecisionTree" boostWeight="1.0000000000000000e+00" itree="326">
      <Node pos="s" depth="0" NCoef="0" IVar="2" Cut="1.0167201757431030e+00" cType="1" res="-1.9786541815847158e-03" rms="4.5873346924781799e-01" purity="4.9364385008811951e-01" nType="0">
        <Node pos="l" depth="1" NCoef="0" IVar="7" Cut="9.4060257077217102e-02" cType="1" res="9.0914759784936905e-03" rms="4.5954519510269165e-01" purity="5.1749610900878906e-01" nType="0">
          <Node pos="l" depth="2" NCoef="0" IVar="-1" Cut="0.0000000000000000e+00" cType="1" res="-1.5625958621967584e-04" rms="4.5888027548789978e-01" purity="4.9172452092170715e-01" nType="-99"/>
          <Node pos="r" depth="2" NCoef="0" IVar="-1" Cut="0.0000000000000000e+00" cType="1" res="1.2832634383812547e-03" rms="4.5916008949279785e-01" purity="5.8677393198013306e-01" nType="-99"/>
        </Node>
        <Node pos="r" depth="1" NCoef="0" IVar="4" Cut="9.8098991394042969e+01" cType="1" res="-4.0652822703123093e-02" rms="4.5377144217491150e-01" purity="4.1031476855278015e-01" nType="0">
          <Node pos="l" depth="2" NCoef="0" IVar="-1" Cut="0.0000000000000000e+00" cType="1" res="-2.0910159219056368e-03" rms="4.4797191023826599e-01" purity="3.7209779024124146e-01" nType="-99"/>
          <Node pos="r" depth="2" NCoef="0" IVar="-1" Cut="0.0000000000000000e+00" cType="1" res="8.9476794528309256e-05" rms="4.6546334028244019e-01" purity="5.0826919078826904e-01" nType="-99"/>
        </Node>
      </Node>
    </BinaryTree>
    <BinaryTree type="DecisionTree" boostWeight="1.0000000000000000e+00" itree="327">
      <Node pos="s" depth="0" NCoef="0" IVar="7" Cut="-1.0625199228525162e-01" cType="1" res="5.7037440128624439e-03" rms="4.5878145098686218e-01" purity="5.0147569179534912e-01" nType="0">
        <Node pos="l" depth="1" NCoef="0" IVar="-1" Cut="0.0000000000000000e+00" cType="1" res="-2.4937873240560293e-03" rms="4.4497567415237427e-01" purity="3.7257272005081177e-01" nType="-99"/>
        <Node pos="r" depth="1" NCoef="0" IVar="6" Cut="3.8684644699096680e+00" cType="1" res="1.2526958249509335e-02" rms="4.5942893624305725e-01" purity="5.1332938671112061e-01" nType="0">
          <Node pos="l" depth="2" NCoef="0" IVar="-1" Cut="0.0000000000000000e+00" cType="1" res="1.4647451280325186e-05" rms="4.6861362457275391e-01" purity="4.3751910328865051e-01" nType="-99"/>
          <Node pos="r" depth="2" NCoef="0" IVar="-1" Cut="0.0000000000000000e+00" cType="1" res="1.1726528173312545e-03" rms="4.3049293756484985e-01" purity="7.2827291488647461e-01" nType="-99"/>
        </Node>
      </Node>
    </BinaryTree>
    <BinaryTree type="DecisionTree" boostWeight="1.0000000000000000e+00" itree="328">
      <Node pos="s" depth="0" NCoef="0" IVar="6" Cut="4.1242313385009766e+00" cType="1" res="5.0037549808621407e-03" rms="4.5834633708000183e-01" purity="5.0098586082458496e-01" nType="0">
        <Node pos="l" depth="1" NCoef="0" IVar="3" Cut="5.5784296989440918e-01" cType="1" res="-6.5560094080865383e-03" rms="4.6619707345962524e-01" purity="4.3563538789749146e-01" nType="0">
          <Node pos="l" depth="2" NCoef="0" IVar="-1" Cut="0.0000000000000000e+00" cType="1" res="1.2076747952960432e-04" rms="4.6321058273315430e-01" purity="4.2705541849136353e-01" nType="-99"/>
          <Node pos="r" depth="2" NCoef="0" IVar="-1" Cut="0.0000000000000000e+00" cType="1" res="-1.6885909717530012e-03" rms="4.7800704836845398e-01" purity="4.8073601722717285e-01" nType="-99"/>
        </Node>
        <Node pos="r" depth="1" NCoef="0" IVar="6" Cut="5.0695385932922363e+00" cType="1" res="4.6969961374998093e-02" rms="4.2601007223129272e-01" purity="7.3823237419128418e-01" nType="0">
          <Node pos="l" depth="2" NCoef="0" IVar="-1" Cut="0.0000000000000000e+00" cType="1" res="7.2570971678942442e-04" rms="4.4792851805686951e-01" purity="6.9604563713073730e-01" nType="-99"/>
          <Node pos="r" depth="2" NCoef="0" IVar="-1" Cut="0.0000000000000000e+00" cType="1" res="1.9024612847715616e-03" rms="3.8821414113044739e-01" purity="8.0322873592376709e-01" nType="-99"/>
        </Node>
      </Node>
    </BinaryTree>
    <BinaryTree type="DecisionTree" boostWeight="1.0000000000000000e+00" itree="329">
      <Node pos="s" depth="0" NCoef="0" IVar="2" Cut="6.3715994358062744e-01" cType="1" res="-5.3670658962801099e-04" rms="4.5939424633979797e-01" purity="4.9295029044151306e-01" nType="0">
        <Node pos="l" depth="1" NCoef="0" IVar="8" Cut="1.0085485076904297e+02" cType="1" res="3.1315408647060394e-02" rms="4.5728325843811035e-01" purity="5.6859546899795532e-01" nType="0">
          <Node pos="l" depth="2" NCoef="0" IVar="-1" Cut="0.0000000000000000e+00" cType="1" res="-5.1823299145326018e-04" rms="4.6227777004241943e-01" purity="4.9818274378776550e-01" nType="-99"/>
          <Node pos="r" depth="2" NCoef="0" IVar="-1" Cut="0.0000000000000000e+00" cType="1" res="1.1578414123505354e-03" rms="4.5553860068321228e-01" purity="5.8357930183410645e-01" nType="-99"/>
        </Node>
        <Node pos="r" depth="1" NCoef="0" IVar="7" Cut="1.9507120549678802e-01" cType="1" res="-1.6494814306497574e-02" rms="4.5961895585060120e-01" purity="4.5505160093307495e-01" nType="0">
          <Node pos="l" depth="2" NCoef="0" IVar="-1" Cut="0.0000000000000000e+00" cType="1" res="-8.1093690823763609e-04" rms="4.5829212665557861e-01" purity="4.3835067749023438e-01" nType="-99"/>
          <Node pos="r" depth="2" NCoef="0" IVar="-1" Cut="0.0000000000000000e+00" cType="1" res="1.0809990344569087e-03" rms="4.6473947167396545e-01" purity="5.6859230995178223e-01" nType="-99"/>
        </Node>
      </Node>
    </BinaryTree>
    <BinaryTree type="DecisionTree" boostWeight="1.0000000000000000e+00" itree="330">
      <Node pos="s" depth="0" NCoef="0" IVar="0" Cut="1.3628723621368408e+00" cType="1" res="6.0861879028379917e-03" rms="4.5941132307052612e-01" purity="5.0095260143280029e-01" nType="0">
        <Node pos="l" depth="1" NCoef="0" IVar="4" Cut="5.4991451263427734e+01" cType="1" res="1.9112640991806984e-02" rms="4.6139839291572571e-01" purity="5.2506840229034424e-01" nType="0">
          <Node pos="l" depth="2" NCoef="0" IVar="-1" Cut="0.0000000000000000e+00" cType="1" res="-2.6384895318187773e-04" rms="4.5895594358444214e-01" purity="4.6723622083663940e-01" nType="-99"/>
          <Node pos="r" depth="2" NCoef="0" IVar="-1" Cut="0.0000000000000000e+00" cType="1" res="9.9179055541753769e-04" rms="4.6207076311111450e-01" purity="5.5932289361953735e-01" nType="-99"/>
        </Node>
        <Node pos="r" depth="1" NCoef="0" IVar="3" Cut="3.2571133971214294e-01" cType="1" res="-3.2859846949577332e-02" rms="4.5118090510368347e-01" purity="4.2885172367095947e-01" nType="0">
          <Node pos="l" depth="2" NCoef="0" IVar="-1" Cut="0.0000000000000000e+00" cType="1" res="2.2594413894694299e-04" rms="4.4919213652610779e-01" purity="3.8084006309509277e-01" nType="-99"/>
          <Node pos="r" depth="2" NCoef="0" IVar="-1" Cut="0.0000000000000000e+00" cType="1" res="-2.0110867917537689e-03" rms="4.5033073425292969e-01" purity="4.6749165654182434e-01" nType="-99"/>
        </Node>
      </Node>
    </BinaryTree>
    <BinaryTree type="DecisionTree" boostWeight="1.0000000000000000e+00" itree="331">
      <Node pos="s" depth="0" NCoef="0" IVar="8" Cut="9.2840309143066406e+01" cType="1" res="6.5564229153096676e-03" rms="4.5880669355392456e-01" purity="5.0199460983276367e-01" nType="0">
        <Node pos="l" depth="1" NCoef="0" IVar="7" Cut="-1.1374141089618206e-02" cType="1" res="-5.3348980844020844e-02" rms="4.6045273542404175e-01" purity="4.1511985659599304e-01" nType="0">
          <Node pos="l" depth="2" NCoef="0" IVar="-1" Cut="0.0000000000000000e+00" cType="1" res="-1.2721453094854951e-03" rms="4.5601043105125427e-01" purity="4.1131570935249329e-01" nType="-99"/>
          <Node pos="r" depth="2" NCoef="0" IVar="-1" Cut="0.0000000000000000e+00" cType="1" res="-2.3046482820063829e-03" rms="4.6417218446731567e-01" purity="4.1881102323532104e-01" nType="-99"/>
        </Node>
        <Node pos="r" depth="1" NCoef="0" IVar="5" Cut="1.6845254898071289e+00" cType="1" res="1.3393741101026535e-02" rms="4.5812064409255981e-01" purity="5.1191008090972900e-01" nType="0">
          <Node pos="l" depth="2" NCoef="0" IVar="-1" Cut="0.0000000000000000e+00" cType="1" res="1.9118156051263213e-03" rms="4.4761615991592407e-01" purity="6.4596992731094360e-01" nType="-99"/>
          <Node pos="r" depth="2" NCoef="0" IVar="-1" Cut="0.0000000000000000e+00" cType="1" res="1.5228296979330480e-04" rms="4.5889005064964294e-01" purity="4.9365285038948059e-01" nType="-99"/>
        </Node>
      </Node>
    </BinaryTree>
    <BinaryTree type="DecisionTree" boostWeight="1.0000000000000000e+00" itree="332">
      <Node pos="s" depth="0" NCoef="0" IVar="6" Cut="5.0367631912231445e+00" cType="1" res="4.7139255329966545e-03" rms="4.5710727572441101e-01" purity="4.9891504645347595e-01" nType="0">
        <Node pos="l" depth="1" NCoef="0" IVar="2" Cut="6.3798016309738159e-01" cType="1" res="-2.2585915867239237e-03" rms="4.6267190575599670e-01" purity="4.7000536322593689e-01" nType="0">
          <Node pos="l" depth="2" NCoef="0" IVar="-1" Cut="0.0000000000000000e+00" cType="1" res="8.3064869977533817e-04" rms="4.6510598063468933e-01" purity="5.4437655210494995e-01" nType="-99"/>
          <Node pos="r" depth="2" NCoef="0" IVar="-1" Cut="0.0000000000000000e+00" cType="1" res="-5.7654001284390688e-04" rms="4.6069043874740601e-01" purity="4.3394175171852112e-01" nType="-99"/>
        </Node>
        <Node pos="r" depth="1" NCoef="0" IVar="-1" Cut="0.0000000000000000e+00" cType="1" res="2.0053305197507143e-03" rms="3.8525900244712830e-01" purity="8.0671739578247070e-01" nType="-99"/>
      </Node>
    </BinaryTree>
    <BinaryTree type="DecisionTree" boostWeight="1.0000000000000000e+00" itree="333">
      <Node pos="s" depth="0" NCoef="0" IVar="1" Cut="4.0390548706054688e+02" cType="1" res="5.2935811690986156e-03" rms="4.5972234010696411e-01" purity="5.0015300512313843e-01" nType="0">
        <Node pos="l" depth="1" NCoef="0" IVar="3" Cut="3.4516021609306335e-01" cType="1" res="-3.9992693811655045e-02" rms="4.3591305613517761e-01" purity="3.1313821673393250e-01" nType="0">
          <Node pos="l" depth="2" NCoef="0" IVar="-1" Cut="0.0000000000000000e+00" cType="1" res="-7.6783711847383529e-05" rms="4.2300936579704285e-01" purity="2.7032986283302307e-01" nType="-99"/>
          <Node pos="r" depth="2" NCoef="0" IVar="-1" Cut="0.0000000000000000e+00" cType="1" res="-2.8568098787218332e-03" rms="4.4547078013420105e-01" purity="3.5784715414047241e-01" nType="-99"/>
        </Node>
        <Node pos="r" depth="1" NCoef="0" IVar="5" Cut="2.2127294540405273e+00" cType="1" res="1.3988965190947056e-02" rms="4.6364828944206238e-01" purity="5.3606152534484863e-01" nType="0">
          <Node pos="l" depth="2" NCoef="0" IVar="-1" Cut="0.0000000000000000e+00" cType="1" res="9.1025989968329668e-04" rms="4.6217980980873108e-01" purity="6.0059422254562378e-01" nType="-99"/>
          <Node pos="r" depth="2" NCoef="0" IVar="-1" Cut="0.0000000000000000e+00" cType="1" res="-2.4148708325810730e-04" rms="4.6426522731781006e-01" purity="4.6595737338066101e-01" nType="-99"/>
        </Node>
      </Node>
    </BinaryTree>
    <BinaryTree type="DecisionTree" boostWeight="1.0000000000000000e+00" itree="334">
      <Node pos="s" depth="0" NCoef="0" IVar="6" Cut="1.4122595787048340e+00" cType="1" res="6.1351945623755455e-03" rms="4.5992332696914673e-01" purity="5.0037443637847900e-01" nType="0">
        <Node pos="l" depth="1" NCoef="0" IVar="3" Cut="1.8991403281688690e-01" cType="1" res="-4.2671184986829758e-02" rms="4.3328097462654114e-01" purity="2.7895730733871460e-01" nType="0">
          <Node pos="l" depth="2" NCoef="0" IVar="-1" Cut="0.0000000000000000e+00" cType="1" res="-1.1745063820853829e-03" rms="4.4668409228324890e-01" purity="3.0251216888427734e-01" nType="-99"/>
          <Node pos="r" depth="2" NCoef="0" IVar="-1" Cut="0.0000000000000000e+00" cType="1" res="-3.4528695978224277e-03" rms="4.0626576542854309e-01" purity="2.3638467490673065e-01" nType="-99"/>
        </Node>
        <Node pos="r" depth="1" NCoef="0" IVar="3" Cut="1.9032497704029083e-01" cType="1" res="1.4942565932869911e-02" rms="4.6402192115783691e-01" purity="5.4033035039901733e-01" nType="0">
          <Node pos="l" depth="2" NCoef="0" IVar="-1" Cut="0.0000000000000000e+00" cType="1" res="2.7492074295878410e-03" rms="4.7424754500389099e-01" purity="5.4243743419647217e-01" nType="-99"/>
          <Node pos="r" depth="2" NCoef="0" IVar="-1" Cut="0.0000000000000000e+00" cType="1" res="9.8340082331560552e-05" rms="4.6140286326408386e-01" purity="5.4003107547760010e-01" nType="-99"/>
        </Node>
      </Node>
    </BinaryTree>
    <BinaryTree type="DecisionTree" boostWeight="1.0000000000000000e+00" itree="335">
      <Node pos="s" depth="0" NCoef="0" IVar="6" Cut="2.4415774345397949e+00" cType="1" res="5.9361476451158524e-03" rms="4.5764675736427307e-01" purity="5.0207370519638062e-01" nType="0">
        <Node pos="l" depth="1" NCoef="0" IVar="3" Cut="2.8928831219673157e-01" cType="1" res="-1.9530067220330238e-02" rms="4.5314806699752808e-01" purity="3.4192889928817749e-01" nType="0">
          <Node pos="l" depth="2" NCoef="0" IVar="-1" Cut="0.0000000000000000e+00" cType="1" res="-1.1041282414225861e-04" rms="4.5695132017135620e-01" purity="3.5423606634140015e-01" nType="-99"/>
          <Node pos="r" depth="2" NCoef="0" IVar="-1" Cut="0.0000000000000000e+00" cType="1" res="-2.2040966432541609e-03" rms="4.4164678454399109e-01" purity="3.1308561563491821e-01" nType="-99"/>
        </Node>
        <Node pos="r" depth="1" NCoef="0" IVar="3" Cut="2.8709903359413147e-01" cType="1" res="2.3796811699867249e-02" rms="4.5993521809577942e-01" purity="6.1439079046249390e-01" nType="0">
          <Node pos="l" depth="2" NCoef="0" IVar="-1" Cut="0.0000000000000000e+00" cType="1" res="2.2630486637353897e-03" rms="4.6159768104553223e-01" purity="6.2852674722671509e-01" nType="-99"/>
          <Node pos="r" depth="2" NCoef="0" IVar="-1" Cut="0.0000000000000000e+00" cType="1" res="3.2259084400720894e-04" rms="4.5867794752120972e-01" purity="6.1188089847564697e-01" nType="-99"/>
        </Node>
      </Node>
    </BinaryTree>
    <BinaryTree type="DecisionTree" boostWeight="1.0000000000000000e+00" itree="336">
      <Node pos="s" depth="0" NCoef="0" IVar="1" Cut="7.4620544433593750e+02" cType="1" res="7.4736913666129112e-03" rms="4.5819035172462463e-01" purity="5.0319647789001465e-01" nType="0">
        <Node pos="l" depth="1" NCoef="0" IVar="2" Cut="1.0586903095245361e+00" cType="1" res="-2.3889925796538591e-03" rms="4.5835697650909424e-01" purity="4.7601389884948730e-01" nType="0">
          <Node pos="l" depth="2" NCoef="0" IVar="-1" Cut="0.0000000000000000e+00" cType="1" res="2.4118502915371209e-04" rms="4.5916137099266052e-01" purity="4.9685716629028320e-01" nType="-99"/>
          <Node pos="r" depth="2" NCoef="0" IVar="-1" Cut="0.0000000000000000e+00" cType="1" res="-1.6013991553336382e-03" rms="4.5244228839874268e-01" purity="3.8899338245391846e-01" nType="-99"/>
        </Node>
        <Node pos="r" depth="1" NCoef="0" IVar="9" Cut="1.1288665008544922e+02" cType="1" res="5.8129008859395981e-02" rms="4.5396956801414490e-01" purity="6.4280754327774048e-01" nType="0">
          <Node pos="l" depth="2" NCoef="0" IVar="-1" Cut="0.0000000000000000e+00" cType="1" res="7.8302779002115130e-04" rms="4.6230801939964294e-01" purity="6.2071692943572998e-01" nType="-99"/>
          <Node pos="r" depth="2" NCoef="0" IVar="-1" Cut="0.0000000000000000e+00" cType="1" res="1.9425642676651478e-03" rms="4.4820675253868103e-01" purity="6.5572440624237061e-01" nType="-99"/>
        </Node>
      </Node>
    </BinaryTree>
    <BinaryTree type="DecisionTree" boostWeight="1.0000000000000000e+00" itree="337">
      <Node pos="s" depth="0" NCoef="0" IVar="7" Cut="1.4964731037616730e-01" cType="1" res="1.0382828302681446e-02" rms="4.6013852953910828e-01" purity="5.0388383865356445e-01" nType="0">
        <Node pos="l" depth="1" NCoef="0" IVar="6" Cut="4.6036767959594727e+00" cType="1" res="8.2688411930575967e-04" rms="4.5981094241142273e-01" purity="4.8487186431884766e-01" nType="0">
          <Node pos="l" depth="2" NCoef="0" IVar="-1" Cut="0.0000000000000000e+00" cType="1" res="-2.5470682885497808e-04" rms="4.6690911054611206e-01" purity="4.4080159068107605e-01" nType="-99"/>
          <Node pos="r" depth="2" NCoef="0" IVar="-1" Cut="0.0000000000000000e+00" cType="1" res="1.4601387083530426e-03" rms="4.0643504261970520e-01" purity="7.6990336179733276e-01" nType="-99"/>
        </Node>
        <Node pos="r" depth="1" NCoef="0" IVar="0" Cut="9.5285481214523315e-01" cType="1" res="5.3333695977926254e-02" rms="4.5915877819061279e-01" purity="5.8933657407760620e-01" nType="0">
          <Node pos="l" depth="2" NCoef="0" IVar="-1" Cut="0.0000000000000000e+00" cType="1" res="2.2626195568591356e-03" rms="4.5446851849555969e-01" purity="6.4455378055572510e-01" nType="-99"/>
          <Node pos="r" depth="2" NCoef="0" IVar="-1" Cut="0.0000000000000000e+00" cType="1" res="8.0778752453625202e-04" rms="4.6076792478561401e-01" purity="5.5133420228958130e-01" nType="-99"/>
        </Node>
      </Node>
    </BinaryTree>
    <BinaryTree type="DecisionTree" boostWeight="1.0000000000000000e+00" itree="338">
      <Node pos="s" depth="0" NCoef="0" IVar="0" Cut="1.1513153314590454e+00" cType="1" res="7.1407919749617577e-03" rms="4.5743754506111145e-01" purity="5.0302255153656006e-01" nType="0">
        <Node pos="l" depth="1" NCoef="0" IVar="6" Cut="2.7550444602966309e+00" cType="1" res="2.6811406016349792e-02" rms="4.5918491482734680e-01" purity="5.4096496105194092e-01" nType="0">
          <Node pos="l" depth="2" NCoef="0" IVar="-1" Cut="0.0000000000000000e+00" cType="1" res="1.7795502208173275e-04" rms="4.6942424774169922e-01" purity="4.0189620852470398e-01" nType="-99"/>
          <Node pos="r" depth="2" NCoef="0" IVar="-1" Cut="0.0000000000000000e+00" cType="1" res="1.1714444262906909e-03" rms="4.4851735234260559e-01" purity="6.7036646604537964e-01" nType="-99"/>
        </Node>
        <Node pos="r" depth="1" NCoef="0" IVar="1" Cut="6.6121893310546875e+02" cType="1" res="-2.1680859848856926e-02" rms="4.5332625508308411e-01" purity="4.4742882251739502e-01" nType="0">
          <Node pos="l" depth="2" NCoef="0" IVar="-1" Cut="0.0000000000000000e+00" cType="1" res="-1.1063514975830913e-03" rms="4.5122805237770081e-01" purity="4.1703364253044128e-01" nType="-99"/>
          <Node pos="r" depth="2" NCoef="0" IVar="-1" Cut="0.0000000000000000e+00" cType="1" res="9.6862512873485684e-04" rms="4.5982956886291504e-01" purity="6.0564601421356201e-01" nType="-99"/>
        </Node>
      </Node>
    </BinaryTree>
    <BinaryTree type="DecisionTree" boostWeight="1.0000000000000000e+00" itree="339">
      <Node pos="s" depth="0" NCoef="0" IVar="9" Cut="9.2125442504882812e+01" cType="1" res="4.0234746411442757e-03" rms="4.6004500985145569e-01" purity="4.9757161736488342e-01" nType="0">
        <Node pos="l" depth="1" NCoef="0" IVar="5" Cut="1.9141985177993774e+00" cType="1" res="-1.9131511449813843e-02" rms="4.6297484636306763e-01" purity="4.6267285943031311e-01" nType="0">
          <Node pos="l" depth="2" NCoef="0" IVar="-1" Cut="0.0000000000000000e+00" cType="1" res="4.5628249063156545e-04" rms="4.6673378348350525e-01" purity="5.4083144664764404e-01" nType="-99"/>
          <Node pos="r" depth="2" NCoef="0" IVar="-1" Cut="0.0000000000000000e+00" cType="1" res="-1.2940043816342950e-03" rms="4.5973703265190125e-01" purity="4.1969558596611023e-01" nType="-99"/>
        </Node>
        <Node pos="r" depth="1" NCoef="0" IVar="5" Cut="2.7466280460357666e+00" cType="1" res="2.2389153018593788e-02" rms="4.5687407255172729e-01" purity="5.2525198459625244e-01" nType="0">
          <Node pos="l" depth="2" NCoef="0" IVar="-1" Cut="0.0000000000000000e+00" cType="1" res="9.2336564557626843e-04" rms="4.6030628681182861e-01" purity="5.6338953971862793e-01" nType="-99"/>
          <Node pos="r" depth="2" NCoef="0" IVar="-1" Cut="0.0000000000000000e+00" cType="1" res="-2.0419957581907511e-03" rms="4.2764729261398315e-01" purity="2.7536758780479431e-01" nType="-99"/>
        </Node>
      </Node>
    </BinaryTree>
    <BinaryTree type="DecisionTree" boostWeight="1.0000000000000000e+00" itree="340">
      <Node pos="s" depth="0" NCoef="0" IVar="5" Cut="2.2319736480712891e+00" cType="1" res="2.8834810946136713e-03" rms="4.5878201723098755e-01" purity="4.9849954247474670e-01" nType="0">
        <Node pos="l" depth="1" NCoef="0" IVar="2" Cut="9.3136209249496460e-01" cType="1" res="2.1657647565007210e-02" rms="4.6108117699623108e-01" purity="5.6387054920196533e-01" nType="0">
          <Node pos="l" depth="2" NCoef="0" IVar="-1" Cut="0.0000000000000000e+00" cType="1" res="9.5781398704275489e-04" rms="4.5925518870353699e-01" purity="5.8781069517135620e-01" nType="-99"/>
          <Node pos="r" depth="2" NCoef="0" IVar="-1" Cut="0.0000000000000000e+00" cType="1" res="-5.3610082250088453e-04" rms="4.6428608894348145e-01" purity="4.9205848574638367e-01" nType="-99"/>
        </Node>
        <Node pos="r" depth="1" NCoef="0" IVar="7" Cut="-7.4849270284175873e-02" cType="1" res="-1.9016185775399208e-02" rms="4.5510789752006531e-01" purity="4.2224562168121338e-01" nType="0">
          <Node pos="l" depth="2" NCoef="0" IVar="-1" Cut="0.0000000000000000e+00" cType="1" res="-2.0722926128655672e-03" rms="4.4002160429954529e-01" purity="3.4820631146430969e-01" nType="-99"/>
          <Node pos="r" depth="2" NCoef="0" IVar="-1" Cut="0.0000000000000000e+00" cType="1" res="-2.0378228509798646e-04" rms="4.5987290143966675e-01" purity="4.4944390654563904e-01" nType="-99"/>
        </Node>
      </Node>
    </BinaryTree>
    <BinaryTree type="DecisionTree" boostWeight="1.0000000000000000e+00" itree="341">
      <Node pos="s" depth="0" NCoef="0" IVar="8" Cut="9.2840309143066406e+01" cType="1" res="-8.6449275841005147e-05" rms="4.5944011211395264e-01" purity="4.9432545900344849e-01" nType="0">
        <Node pos="l" depth="1" NCoef="0" IVar="-1" Cut="0.0000000000000000e+00" cType="1" res="-2.2126894909888506e-03" rms="4.5455211400985718e-01" purity="4.1002225875854492e-01" nType="-99"/>
        <Node pos="r" depth="1" NCoef="0" IVar="6" Cut="1.5405582189559937e+00" cType="1" res="7.1645169518887997e-03" rms="4.5942172408103943e-01" purity="5.0381380319595337e-01" nType="0">
          <Node pos="l" depth="2" NCoef="0" IVar="-1" Cut="0.0000000000000000e+00" cType="1" res="-1.4937646919861436e-03" rms="4.3706879019737244e-01" purity="2.9228612780570984e-01" nType="-99"/>
          <Node pos="r" depth="2" NCoef="0" IVar="-1" Cut="0.0000000000000000e+00" cType="1" res="4.5896842493675649e-04" rms="4.6377602219581604e-01" purity="5.5110049247741699e-01" nType="-99"/>
        </Node>
      </Node>
    </BinaryTree>
    <BinaryTree type="DecisionTree" boostWeight="1.0000000000000000e+00" itree="342">
      <Node pos="s" depth="0" NCoef="0" IVar="5" Cut="1.8755648136138916e+00" cType="1" res="5.0749429501593113e-03" rms="4.5990103483200073e-01" purity="4.9840381741523743e-01" nType="0">
        <Node pos="l" depth="1" NCoef="0" IVar="8" Cut="1.0346976470947266e+02" cType="1" res="4.4548872858285904e-02" rms="4.5565742254257202e-01" purity="5.9276974201202393e-01" nType="0">
          <Node pos="l" depth="2" NCoef="0" IVar="-1" Cut="0.0000000000000000e+00" cType="1" res="-4.7434977022930980e-04" rms="4.6546331048011780e-01" purity="4.8668172955513000e-01" nType="-99"/>
          <Node pos="r" depth="2" NCoef="0" IVar="-1" Cut="0.0000000000000000e+00" cType="1" res="1.7035701312124729e-03" rms="4.5035439729690552e-01" purity="6.2948042154312134e-01" nType="-99"/>
        </Node>
        <Node pos="r" depth="1" NCoef="0" IVar="9" Cut="1.0672460174560547e+02" cType="1" res="-4.9063400365412235e-03" rms="4.6043211221694946e-01" purity="4.7454267740249634e-01" nType="0">
          <Node pos="l" depth="2" NCoef="0" IVar="-1" Cut="0.0000000000000000e+00" cType="1" res="-8.4503687685355544e-04" rms="4.6038544178009033e-01" purity="4.3941488862037659e-01" nType="-99"/>
          <Node pos="r" depth="2" NCoef="0" IVar="-1" Cut="0.0000000000000000e+00" cType="1" res="4.8896175576373935e-04" rms="4.5952388644218445e-01" purity="5.0995546579360962e-01" nType="-99"/>
        </Node>
      </Node>
    </BinaryTree>
    <BinaryTree type="DecisionTree" boostWeight="1.0000000000000000e+00" itree="343">
      <Node pos="s" depth="0" NCoef="0" IVar="6" Cut="4.9309616088867188e+00" cType="1" res="2.0752849522978067e-03" rms="4.5957848429679871e-01" purity="4.9666482210159302e-01" nType="0">
        <Node pos="l" depth="1" NCoef="0" IVar="3" Cut="3.6448794603347778e-01" cType="1" res="-5.3455508314073086e-03" rms="4.6539676189422607e-01" purity="4.6428629755973816e-01" nType="0">
          <Node pos="l" depth="2" NCoef="0" IVar="-1" Cut="0.0000000000000000e+00" cType="1" res="6.1132712289690971e-04" rms="4.6121406555175781e-01" purity="4.2728441953659058e-01" nType="-99"/>
          <Node pos="r" depth="2" NCoef="0" IVar="-1" Cut="0.0000000000000000e+00" cType="1" res="-9.6371845575049520e-04" rms="4.6880441904067993e-01" purity="5.0860548019409180e-01" nType="-99"/>
        </Node>
        <Node pos="r" depth="1" NCoef="0" IVar="-1" Cut="0.0000000000000000e+00" cType="1" res="1.7826105467975140e-03" rms="3.9598622918128967e-01" purity="7.9317897558212280e-01" nType="-99"/>
      </Node>
    </BinaryTree>
    <BinaryTree type="DecisionTree" boostWeight="1.0000000000000000e+00" itree="344">
      <Node pos="s" depth="0" NCoef="0" IVar="7" Cut="8.3683028817176819e-02" cType="1" res="1.1291795410215855e-02" rms="4.5892396569252014e-01" purity="5.0592571496963501e-01" nType="0">
        <Node pos="l" depth="1" NCoef="0" IVar="2" Cut="8.1512457132339478e-01" cType="1" res="-4.8693921416997910e-03" rms="4.5800092816352844e-01" purity="4.7456693649291992e-01" nType="0">
          <Node pos="l" depth="2" NCoef="0" IVar="-1" Cut="0.0000000000000000e+00" cType="1" res="4.7827351954765618e-04" rms="4.6134972572326660e-01" purity="5.2870261669158936e-01" nType="-99"/>
          <Node pos="r" depth="2" NCoef="0" IVar="-1" Cut="0.0000000000000000e+00" cType="1" res="-1.2905367184430361e-03" rms="4.5107519626617432e-01" purity="3.9346879720687866e-01" nType="-99"/>
        </Node>
        <Node pos="r" depth="1" NCoef="0" IVar="9" Cut="1.1350899505615234e+02" cType="1" res="4.7791127115488052e-02" rms="4.5891237258911133e-01" purity="5.7674795389175415e-01" nType="0">
          <Node pos="l" depth="2" NCoef="0" IVar="-1" Cut="0.0000000000000000e+00" cType="1" res="7.6149863889440894e-04" rms="4.6290606260299683e-01" purity="5.4467523097991943e-01" nType="-99"/>
          <Node pos="r" depth="2" NCoef="0" IVar="-1" Cut="0.0000000000000000e+00" cType="1" res="2.2856695577502251e-03" rms="4.4838392734527588e-01" purity="6.3866358995437622e-01" nType="-99"/>
        </Node>
      </Node>
    </BinaryTree>
    <BinaryTree type="DecisionTree" boostWeight="1.0000000000000000e+00" itree="345">
      <Node pos="s" depth="0" NCoef="0" IVar="0" Cut="1.1213357448577881e+00" cType="1" res="1.0979257524013519e-02" rms="4.5844876766204834e-01" purity="5.0601309537887573e-01" nType="0">
        <Node pos="l" depth="1" NCoef="0" IVar="2" Cut="7.5010448694229126e-01" cType="1" res="2.9314335435628891e-02" rms="4.6047410368919373e-01" purity="5.4459118843078613e-01" nType="0">
          <Node pos="l" depth="2" NCoef="0" IVar="-1" Cut="0.0000000000000000e+00" cType="1" res="1.3527481351047754e-03" rms="4.5808434486389160e-01" purity="5.9405785799026489e-01" nType="-99"/>
          <Node pos="r" depth="2" NCoef="0" IVar="-1" Cut="0.0000000000000000e+00" cType="1" res="2.5769957574084401e-04" rms="4.6197187900543213e-01" purity="4.9414628744125366e-01" nType="-99"/>
        </Node>
        <Node pos="r" depth="1" NCoef="0" IVar="1" Cut="5.5914587402343750e+02" cType="1" res="-1.2839584611356258e-02" rms="4.5470151305198669e-01" purity="4.5589679479598999e-01" nType="0">
          <Node pos="l" depth="2" NCoef="0" IVar="-1" Cut="0.0000000000000000e+00" cType="1" res="-1.3000733451917768e-03" rms="4.4725698232650757e-01" purity="3.8674980401992798e-01" nType="-99"/>
          <Node pos="r" depth="2" NCoef="0" IVar="-1" Cut="0.0000000000000000e+00" cType="1" res="8.8699214393272996e-04" rms="4.6536564826965332e-01" purity="5.8928579092025757e-01" nType="-99"/>
        </Node>
      </Node>
    </BinaryTree>
    <BinaryTree type="DecisionTree" boostWeight="1.0000000000000000e+00" itree="346">
      <Node pos="s" depth="0" NCoef="0" IVar="7" Cut="-1.0625199228525162e-01" cType="1" res="1.0759921278804541e-03" rms="4.5811012387275696e-01" purity="4.9638637900352478e-01" nType="0">
        <Node pos="l" depth="1" NCoef="0" IVar="-1" Cut="0.0000000000000000e+00" cType="1" res="-2.4241737555712461e-03" rms="4.4069567322731018e-01" purity="3.7581163644790649e-01" nType="-99"/>
        <Node pos="r" depth="1" NCoef="0" IVar="5" Cut="1.7469316720962524e+00" cType="1" res="7.2050155140459538e-03" rms="4.5916655659675598e-01" purity="5.0732928514480591e-01" nType="0">
          <Node pos="l" depth="2" NCoef="0" IVar="-1" Cut="0.0000000000000000e+00" cType="1" res="1.4701370382681489e-03" rms="4.5262768864631653e-01" purity="6.1745202541351318e-01" nType="-99"/>
          <Node pos="r" depth="2" NCoef="0" IVar="-1" Cut="0.0000000000000000e+00" cType="1" res="-5.0124548579333350e-05" rms="4.5981249213218689e-01" purity="4.8710215091705322e-01" nType="-99"/>
        </Node>
      </Node>
    </BinaryTree>
    <BinaryTree type="DecisionTree" boostWeight="1.0000000000000000e+00" itree="347">
      <Node pos="s" depth="0" NCoef="0" IVar="2" Cut="1.0915331840515137e+00" cType="1" res="5.8287465944886208e-03" rms="4.5796951651573181e-01" purity="5.0128269195556641e-01" nType="0">
        <Node pos="l" depth="1" NCoef="0" IVar="6" Cut="2.6654071807861328e+00" cType="1" res="1.5437482856214046e-02" rms="4.5809081196784973e-01" purity="5.2066123485565186e-01" nType="0">
          <Node pos="l" depth="2" NCoef="0" IVar="-1" Cut="0.0000000000000000e+00" cType="1" res="-3.2897584605962038e-04" rms="4.6279385685920715e-01" purity="3.7356948852539062e-01" nType="-99"/>
          <Node pos="r" depth="2" NCoef="0" IVar="-1" Cut="0.0000000000000000e+00" cType="1" res="9.5546786906197667e-04" rms="4.5274752378463745e-01" purity="6.5157282352447510e-01" nType="-99"/>
        </Node>
        <Node pos="r" depth="1" NCoef="0" IVar="4" Cut="7.8080902099609375e+01" cType="1" res="-4.3904121965169907e-02" rms="4.5410317182540894e-01" purity="4.0098333358764648e-01" nType="0">
          <Node pos="l" depth="2" NCoef="0" IVar="-1" Cut="0.0000000000000000e+00" cType="1" res="-2.3866987321525812e-03" rms="4.4276431202888489e-01" purity="3.5352981090545654e-01" nType="-99"/>
          <Node pos="r" depth="2" NCoef="0" IVar="-1" Cut="0.0000000000000000e+00" cType="1" res="-4.1971018072217703e-04" rms="4.6884250640869141e-01" purity="4.7150120139122009e-01" nType="-99"/>
        </Node>
      </Node>
    </BinaryTree>
    <BinaryTree type="DecisionTree" boostWeight="1.0000000000000000e+00" itree="348">
      <Node pos="s" depth="0" NCoef="0" IVar="7" Cut="9.0248994529247284e-02" cType="1" res="8.1448312848806381e-03" rms="4.5929613709449768e-01" purity="5.0385218858718872e-01" nType="0">
        <Node pos="l" depth="1" NCoef="0" IVar="2" Cut="7.6001030206680298e-01" cType="1" res="-7.2736614383757114e-03" rms="4.5711559057235718e-01" purity="4.7367832064628601e-01" nType="0">
          <Node pos="l" depth="2" NCoef="0" IVar="-1" Cut="0.0000000000000000e+00" cType="1" res="5.6156807113438845e-04" rms="4.5963543653488159e-01" purity="5.4158157110214233e-01" nType="-99"/>
          <Node pos="r" depth="2" NCoef="0" IVar="-1" Cut="0.0000000000000000e+00" cType="1" res="-1.3082100776955485e-03" rms="4.5239174365997314e-01" purity="3.9726740121841431e-01" nType="-99"/>
        </Node>
        <Node pos="r" depth="1" NCoef="0" IVar="7" Cut="2.3179408907890320e-01" cType="1" res="4.3832596391439438e-02" rms="4.6233579516410828e-01" purity="5.7369291782379150e-01" nType="0">
          <Node pos="l" depth="2" NCoef="0" IVar="-1" Cut="0.0000000000000000e+00" cType="1" res="9.0510479640215635e-04" rms="4.6307301521301270e-01" purity="5.5624222755432129e-01" nType="-99"/>
          <Node pos="r" depth="2" NCoef="0" IVar="-1" Cut="0.0000000000000000e+00" cType="1" res="2.1737269125878811e-03" rms="4.5739021897315979e-01" purity="6.3402402400970459e-01" nType="-99"/>
        </Node>
      </Node>
    </BinaryTree>
    <BinaryTree type="DecisionTree" boostWeight="1.0000000000000000e+00" itree="349">
      <Node pos="s" depth="0" NCoef="0" IVar="7" Cut="1.5888279676437378e-01" cType="1" res="1.4316519955173135e-03" rms="4.5874220132827759e-01" purity="4.9724298715591431e-01" nType="0">
        <Node pos="l" depth="1" NCoef="0" IVar="2" Cut="9.0726900100708008e-01" cType="1" res="-7.9061239957809448e-03" rms="4.5762833952903748e-01" purity="4.8006197810173035e-01" nType="0">
          <Node pos="l" depth="2" NCoef="0" IVar="-1" Cut="0.0000000000000000e+00" cType="1" res="2.1592855046037585e-04" rms="4.6036344766616821e-01" purity="5.1640826463699341e-01" nType="-99"/>
          <Node pos="r" depth="2" NCoef="0" IVar="-1" Cut="0.0000000000000000e+00" cType="1" res="-1.4262152835726738e-03" rms="4.4984939694404602e-01" purity="4.0088129043579102e-01" nType="-99"/>
        </Node>
        <Node pos="r" depth="1" NCoef="0" IVar="2" Cut="9.7000157833099365e-01" cType="1" res="4.8684641718864441e-02" rms="4.6144932508468628e-01" purity="5.8418625593185425e-01" nType="0">
          <Node pos="l" depth="2" NCoef="0" IVar="-1" Cut="0.0000000000000000e+00" cType="1" res="1.7323300708085299e-03" rms="4.5513352751731873e-01" purity="6.1974453926086426e-01" nType="-99"/>
          <Node pos="r" depth="2" NCoef="0" IVar="-1" Cut="0.0000000000000000e+00" cType="1" res="4.1767774382606149e-04" rms="4.7251752018928528e-01" purity="5.0994735956192017e-01" nType="-99"/>
        </Node>
      </Node>
    </BinaryTree>
    <BinaryTree type="DecisionTree" boostWeight="1.0000000000000000e+00" itree="350">
      <Node pos="s" depth="0" NCoef="0" IVar="5" Cut="2.7257471084594727e+00" cType="1" res="4.0170000866055489e-03" rms="4.5968237519264221e-01" purity="4.9832630157470703e-01" nType="0">
        <Node pos="l" depth="1" NCoef="0" IVar="4" Cut="4.2681846618652344e+01" cType="1" res="1.0072874836623669e-02" rms="4.6318197250366211e-01" purity="5.2260267734527588e-01" nType="0">
          <Node pos="l" depth="2" NCoef="0" IVar="-1" Cut="0.0000000000000000e+00" cType="1" res="-6.5395643468946218e-04" rms="4.5732349157333374e-01" purity="4.5913502573966980e-01" nType="-99"/>
          <Node pos="r" depth="2" NCoef="0" IVar="-1" Cut="0.0000000000000000e+00" cType="1" res="5.8214185992255807e-04" rms="4.6469807624816895e-01" purity="5.4413843154907227e-01" nType="-99"/>
        </Node>
        <Node pos="r" depth="1" NCoef="0" IVar="-1" Cut="0.0000000000000000e+00" cType="1" res="-2.6370459236204624e-03" rms="4.1887202858924866e-01" purity="2.5845792889595032e-01" nType="-99"/>
      </Node>
    </BinaryTree>
    <BinaryTree type="DecisionTree" boostWeight="1.0000000000000000e+00" itree="351">
      <Node pos="s" depth="0" NCoef="0" IVar="6" Cut="2.4769353866577148e+00" cType="1" res="4.3810084462165833e-03" rms="4.5651891827583313e-01" purity="5.0140136480331421e-01" nType="0">
        <Node pos="l" depth="1" NCoef="0" IVar="9" Cut="1.5698692321777344e+02" cType="1" res="-2.0333321765065193e-02" rms="4.5231044292449951e-01" purity="3.4444570541381836e-01" nType="0">
          <Node pos="l" depth="2" NCoef="0" IVar="-1" Cut="0.0000000000000000e+00" cType="1" res="-1.1429933365434408e-03" rms="4.5094186067581177e-01" purity="3.3439555764198303e-01" nType="-99"/>
          <Node pos="r" depth="2" NCoef="0" IVar="-1" Cut="0.0000000000000000e+00" cType="1" res="1.5691273147240281e-03" rms="4.5660594105720520e-01" purity="4.1531792283058167e-01" nType="-99"/>
        </Node>
        <Node pos="r" depth="1" NCoef="0" IVar="3" Cut="4.2257896065711975e-01" cType="1" res="2.2487495094537735e-02" rms="4.5873340964317322e-01" purity="6.1639195680618286e-01" nType="0">
          <Node pos="l" depth="2" NCoef="0" IVar="-1" Cut="0.0000000000000000e+00" cType="1" res="1.6949780983850360e-03" rms="4.6144372224807739e-01" purity="6.1054068803787231e-01" nType="-99"/>
          <Node pos="r" depth="2" NCoef="0" IVar="-1" Cut="0.0000000000000000e+00" cType="1" res="9.5007075287867337e-05" rms="4.5625743269920349e-01" purity="6.1891442537307739e-01" nType="-99"/>
        </Node>
      </Node>
    </BinaryTree>
    <BinaryTree type="DecisionTree" boostWeight="1.0000000000000000e+00" itree="352">
      <Node pos="s" depth="0" NCoef="0" IVar="3" Cut="1.7096686363220215e-01" cType="1" res="3.3999523147940636e-03" rms="4.5911028981208801e-01" purity="4.9760586023330688e-01" nType="0">
        <Node pos="l" depth="1" NCoef="0" IVar="6" Cut="1.2795670032501221e+00" cType="1" res="4.9924541264772415e-02" rms="4.6440374851226807e-01" purity="4.3567240238189697e-01" nType="0">
          <Node pos="l" depth="2" NCoef="0" IVar="-1" Cut="0.0000000000000000e+00" cType="1" res="-2.6927917497232556e-04" rms="4.5032697916030884e-01" purity="3.1917262077331543e-01" nType="-99"/>
          <Node pos="r" depth="2" NCoef="0" IVar="-1" Cut="0.0000000000000000e+00" cType="1" res="2.9069161973893642e-03" rms="4.7093865275382996e-01" purity="5.3810012340545654e-01" nType="-99"/>
        </Node>
        <Node pos="r" depth="1" NCoef="0" IVar="6" Cut="3.4133126735687256e+00" cType="1" res="-5.4859179072082043e-03" rms="4.5755457878112793e-01" purity="5.0943464040756226e-01" nType="0">
          <Node pos="l" depth="2" NCoef="0" IVar="-1" Cut="0.0000000000000000e+00" cType="1" res="-8.9434575056657195e-04" rms="4.6337842941284180e-01" purity="3.9395204186439514e-01" nType="-99"/>
          <Node pos="r" depth="2" NCoef="0" IVar="-1" Cut="0.0000000000000000e+00" cType="1" res="6.4799125539138913e-04" rms="4.4716268777847290e-01" purity="6.7739909887313843e-01" nType="-99"/>
        </Node>
      </Node>
    </BinaryTree>
    <BinaryTree type="DecisionTree" boostWeight="1.0000000000000000e+00" itree="353">
      <Node pos="s" depth="0" NCoef="0" IVar="0" Cut="1.1191539764404297e+00" cType="1" res="-2.6743605849333107e-04" rms="4.5953413844108582e-01" purity="4.9392652511596680e-01" nType="0">
        <Node pos="l" depth="1" NCoef="0" IVar="5" Cut="1.6955457925796509e+00" cType="1" res="1.9642909988760948e-02" rms="4.6179100871086121e-01" purity="5.3426754474639893e-01" nType="0">
          <Node pos="l" depth="2" NCoef="0" IVar="-1" Cut="0.0000000000000000e+00" cType="1" res="2.2722219582647085e-03" rms="4.4644308090209961e-01" purity="6.6771537065505981e-01" nType="-99"/>
          <Node pos="r" depth="2" NCoef="0" IVar="-1" Cut="0.0000000000000000e+00" cType="1" res="2.9742327751591802e-04" rms="4.6297398209571838e-01" purity="5.1625114679336548e-01" nType="-99"/>
        </Node>
        <Node pos="r" depth="1" NCoef="0" IVar="7" Cut="1.3491816818714142e-01" cType="1" res="-2.5800082832574844e-02" rms="4.5535135269165039e-01" purity="4.4219398498535156e-01" nType="0">
          <Node pos="l" depth="2" NCoef="0" IVar="-1" Cut="0.0000000000000000e+00" cType="1" res="-1.2873567175120115e-03" rms="4.5226514339447021e-01" purity="4.1881653666496277e-01" nType="-99"/>
          <Node pos="r" depth="2" NCoef="0" IVar="-1" Cut="0.0000000000000000e+00" cType="1" res="5.2741123363375664e-04" rms="4.6406331658363342e-01" purity="5.2963858842849731e-01" nType="-99"/>
        </Node>
      </Node>
    </BinaryTree>
    <BinaryTree type="DecisionTree" boostWeight="1.0000000000000000e+00" itree="354">
      <Node pos="s" depth="0" NCoef="0" IVar="7" Cut="1.8159063160419464e-01" cType="1" res="8.0791795626282692e-03" rms="4.5921131968498230e-01" purity="5.0353020429611206e-01" nType="0">
        <Node pos="l" depth="1" NCoef="0" IVar="4" Cut="8.4151939392089844e+01" cType="1" res="-5.5261014495044947e-04" rms="4.5875489711761475e-01" purity="4.8771709203720093e-01" nType="0">
          <Node pos="l" depth="2" NCoef="0" IVar="-1" Cut="0.0000000000000000e+00" cType="1" res="-5.6471943389624357e-04" rms="4.5589244365692139e-01" purity="4.4546532630920410e-01" nType="-99"/>
          <Node pos="r" depth="2" NCoef="0" IVar="-1" Cut="0.0000000000000000e+00" cType="1" res="7.6140987221151590e-04" rms="4.6216368675231934e-01" purity="5.5826419591903687e-01" nType="-99"/>
        </Node>
        <Node pos="r" depth="1" NCoef="0" IVar="9" Cut="8.6218009948730469e+01" cType="1" res="6.3464127480983734e-02" rms="4.5827704668045044e-01" purity="6.0499328374862671e-01" nType="0">
          <Node pos="l" depth="2" NCoef="0" IVar="-1" Cut="0.0000000000000000e+00" cType="1" res="1.1885060230270028e-03" rms="4.6657365560531616e-01" purity="5.6198537349700928e-01" nType="-99"/>
          <Node pos="r" depth="2" NCoef="0" IVar="-1" Cut="0.0000000000000000e+00" cType="1" res="2.1011559292674065e-03" rms="4.5028653740882874e-01" purity="6.4197808504104614e-01" nType="-99"/>
        </Node>
      </Node>
    </BinaryTree>
    <BinaryTree type="DecisionTree" boostWeight="1.0000000000000000e+00" itree="355">
      <Node pos="s" depth="0" NCoef="0" IVar="7" Cut="-1.1527744680643082e-01" cType="1" res="1.7821158689912409e-04" rms="4.5924288034439087e-01" purity="4.9400904774665833e-01" nType="0">
        <Node pos="l" depth="1" NCoef="0" IVar="-1" Cut="0.0000000000000000e+00" cType="1" res="-3.2921798992902040e-03" rms="4.4298133254051208e-01" purity="3.4915950894355774e-01" nType="-99"/>
        <Node pos="r" depth="1" NCoef="0" IVar="0" Cut="1.1563835144042969e+00" cType="1" res="5.1448275335133076e-03" rms="4.5966848731040955e-01" purity="5.0234526395797729e-01" nType="0">
          <Node pos="l" depth="2" NCoef="0" IVar="-1" Cut="0.0000000000000000e+00" cType="1" res="6.1678682686761022e-04" rms="4.6238774061203003e-01" purity="5.3769630193710327e-01" nType="-99"/>
          <Node pos="r" depth="2" NCoef="0" IVar="-1" Cut="0.0000000000000000e+00" cType="1" res="-6.0179125284776092e-04" rms="4.5466738939285278e-01" purity="4.5115506649017334e-01" nType="-99"/>
        </Node>
      </Node>
    </BinaryTree>
    <BinaryTree type="DecisionTree" boostWeight="1.0000000000000000e+00" itree="356">
      <Node pos="s" depth="0" NCoef="0" IVar="2" Cut="8.7123823165893555e-01" cType="1" res="3.4623949322849512e-03" rms="4.5887118577957153e-01" purity="4.9721488356590271e-01" nType="0">
        <Node pos="l" depth="1" NCoef="0" IVar="8" Cut="1.0104552459716797e+02" cType="1" res="2.0601563155651093e-02" rms="4.5981502532958984e-01" purity="5.3903144598007202e-01" nType="0">
          <Node pos="l" depth="2" NCoef="0" IVar="-1" Cut="0.0000000000000000e+00" cType="1" res="-6.6159042762592435e-04" rms="4.5971509814262390e-01" purity="4.7501650452613831e-01" nType="-99"/>
          <Node pos="r" depth="2" NCoef="0" IVar="-1" Cut="0.0000000000000000e+00" cType="1" res="8.4028573473915458e-04" rms="4.5936450362205505e-01" purity="5.5217224359512329e-01" nType="-99"/>
        </Node>
        <Node pos="r" depth="1" NCoef="0" IVar="7" Cut="-6.9482147693634033e-02" cType="1" res="-2.4590961635112762e-02" rms="4.5593389868736267e-01" purity="4.2876949906349182e-01" nType="0">
          <Node pos="l" depth="2" NCoef="0" IVar="-1" Cut="0.0000000000000000e+00" cType="1" res="-2.6636100374162197e-03" rms="4.3392056226730347e-01" purity="3.2365632057189941e-01" nType="-99"/>
          <Node pos="r" depth="2" NCoef="0" IVar="-1" Cut="0.0000000000000000e+00" cType="1" res="-4.0944776264950633e-04" rms="4.6135374903678894e-01" purity="4.5878565311431885e-01" nType="-99"/>
        </Node>
      </Node>
    </BinaryTree>
    <BinaryTree type="DecisionTree" boostWeight="1.0000000000000000e+00" itree="357">
      <Node pos="s" depth="0" NCoef="0" IVar="7" Cut="-9.1316469013690948e-02" cType="1" res="5.9349373914301395e-03" rms="4.5933467149734497e-01" purity="5.0213176012039185e-01" nType="0">
        <Node pos="l" depth="1" NCoef="0" IVar="9" Cut="8.9894577026367188e+01" cType="1" res="-4.5087929815053940e-02" rms="4.4523048400878906e-01" purity="4.0544825792312622e-01" nType="0">
          <Node pos="l" depth="2" NCoef="0" IVar="-1" Cut="0.0000000000000000e+00" cType="1" res="-3.6941545549780130e-03" rms="4.3501725792884827e-01" purity="3.4221959114074707e-01" nType="-99"/>
          <Node pos="r" depth="2" NCoef="0" IVar="-1" Cut="0.0000000000000000e+00" cType="1" res="-6.0306949308142066e-04" rms="4.4808268547058105e-01" purity="4.3844550848007202e-01" nType="-99"/>
        </Node>
        <Node pos="r" depth="1" NCoef="0" IVar="9" Cut="1.0613520812988281e+02" cType="1" res="1.4948396012187004e-02" rms="4.6119520068168640e-01" purity="5.1921141147613525e-01" nType="0">
          <Node pos="l" depth="2" NCoef="0" IVar="-1" Cut="0.0000000000000000e+00" cType="1" res="-5.2256993512855843e-05" rms="4.6433374285697937e-01" purity="4.9006927013397217e-01" nType="-99"/>
          <Node pos="r" depth="2" NCoef="0" IVar="-1" Cut="0.0000000000000000e+00" cType="1" res="1.0806598002091050e-03" rms="4.5586493611335754e-01" purity="5.5918329954147339e-01" nType="-99"/>
        </Node>
      </Node>
    </BinaryTree>
    <BinaryTree type="DecisionTree" boostWeight="1.0000000000000000e+00" itree="358">
      <Node pos="s" depth="0" NCoef="0" IVar="6" Cut="2.1541986465454102e+00" cType="1" res="8.6950501427054405e-03" rms="4.5751154422760010e-01" purity="5.0432991981506348e-01" nType="0">
        <Node pos="l" depth="1" NCoef="0" IVar="9" Cut="1.4630944824218750e+02" cType="1" res="-1.8592659384012222e-02" rms="4.5105955004692078e-01" purity="3.2637098431587219e-01" nType="0">
          <Node pos="l" depth="2" NCoef="0" IVar="-1" Cut="0.0000000000000000e+00" cType="1" res="-1.1830603471025825e-03" rms="4.4812825322151184e-01" purity="3.1497633457183838e-01" nType="-99"/>
          <Node pos="r" depth="2" NCoef="0" IVar="-1" Cut="0.0000000000000000e+00" cType="1" res="1.3890760019421577e-03" rms="4.6267613768577576e-01" purity="3.8837516307830811e-01" nType="-99"/>
        </Node>
        <Node pos="r" depth="1" NCoef="0" IVar="3" Cut="3.0645495653152466e-01" cType="1" res="2.2773139178752899e-02" rms="4.6017256379127502e-01" purity="5.9614127874374390e-01" nType="0">
          <Node pos="l" depth="2" NCoef="0" IVar="-1" Cut="0.0000000000000000e+00" cType="1" res="2.0302699413150549e-03" rms="4.6723738312721252e-01" purity="5.9154784679412842e-01" nType="-99"/>
          <Node pos="r" depth="2" NCoef="0" IVar="-1" Cut="0.0000000000000000e+00" cType="1" res="2.3008575954008847e-04" rms="4.5724430680274963e-01" purity="5.9733921289443970e-01" nType="-99"/>
        </Node>
      </Node>
    </BinaryTree>
    <BinaryTree type="DecisionTree" boostWeight="1.0000000000000000e+00" itree="359">
      <Node pos="s" depth="0" NCoef="0" IVar="6" Cut="4.5523042678833008e+00" cType="1" res="2.5594537146389484e-03" rms="4.5749333500862122e-01" purity="4.9905633926391602e-01" nType="0">
        <Node pos="l" depth="1" NCoef="0" IVar="5" Cut="1.7162100076675415e+00" cType="1" res="-6.0779820196330547e-03" rms="4.6527686715126038e-01" purity="4.5251172780990601e-01" nType="0">
          <Node pos="l" depth="2" NCoef="0" IVar="-1" Cut="0.0000000000000000e+00" cType="1" res="1.3846358051523566e-03" rms="4.6439546346664429e-01" purity="5.7343351840972900e-01" nType="-99"/>
          <Node pos="r" depth="2" NCoef="0" IVar="-1" Cut="0.0000000000000000e+00" cType="1" res="-4.9570400733500719e-04" rms="4.6474456787109375e-01" purity="4.3343746662139893e-01" nType="-99"/>
        </Node>
        <Node pos="r" depth="1" NCoef="0" IVar="-1" Cut="0.0000000000000000e+00" cType="1" res="1.3694071676582098e-03" rms="4.0524205565452576e-01" purity="7.7175611257553101e-01" nType="-99"/>
      </Node>
    </BinaryTree>
    <BinaryTree type="DecisionTree" boostWeight="1.0000000000000000e+00" itree="360">
      <Node pos="s" depth="0" NCoef="0" IVar="0" Cut="1.1824737787246704e+00" cType="1" res="6.0790283605456352e-03" rms="4.5959195494651794e-01" purity="5.0013333559036255e-01" nType="0">
        <Node pos="l" depth="1" NCoef="0" IVar="2" Cut="8.9128005504608154e-01" cType="1" res="2.1810563281178474e-02" rms="4.6113401651382446e-01" purity="5.3545999526977539e-01" nType="0">
          <Node pos="l" depth="2" NCoef="0" IVar="-1" Cut="0.0000000000000000e+00" cType="1" res="1.0399767197668552e-03" rms="4.5952379703521729e-01" purity="5.7303613424301147e-01" nType="-99"/>
          <Node pos="r" depth="2" NCoef="0" IVar="-1" Cut="0.0000000000000000e+00" cType="1" res="-3.0277171754278243e-04" rms="4.6277442574501038e-01" purity="4.5980742573738098e-01" nType="-99"/>
        </Node>
        <Node pos="r" depth="1" NCoef="0" IVar="1" Cut="6.6594610595703125e+02" cType="1" res="-1.9109170883893967e-02" rms="4.5598334074020386e-01" purity="4.4357079267501831e-01" nType="0">
          <Node pos="l" depth="2" NCoef="0" IVar="-1" Cut="0.0000000000000000e+00" cType="1" res="-1.0435404255986214e-03" rms="4.5398616790771484e-01" purity="4.1272976994514465e-01" nType="-99"/>
          <Node pos="r" depth="2" NCoef="0" IVar="-1" Cut="0.0000000000000000e+00" cType="1" res="1.1426300043240190e-03" rms="4.6189656853675842e-01" purity="6.1353462934494019e-01" nType="-99"/>
        </Node>
      </Node>
    </BinaryTree>
    <BinaryTree type="DecisionTree" boostWeight="1.0000000000000000e+00" itree="361">
      <Node pos="s" depth="0" NCoef="0" IVar="8" Cut="9.2307037353515625e+01" cType="1" res="8.7132891640067101e-03" rms="4.5846715569496155e-01" purity="5.0555825233459473e-01" nType="0">
        <Node pos="l" depth="1" NCoef="0" IVar="5" Cut="2.1853985786437988e+00" cType="1" res="-5.1919125020503998e-02" rms="4.5502230525016785e-01" purity="4.2563110589981079e-01" nType="0">
          <Node pos="l" depth="2" NCoef="0" IVar="-1" Cut="0.0000000000000000e+00" cType="1" res="-1.7315950244665146e-03" rms="4.6346086263656616e-01" purity="4.6245384216308594e-01" nType="-99"/>
          <Node pos="r" depth="2" NCoef="0" IVar="-1" Cut="0.0000000000000000e+00" cType="1" res="-1.7249461961910129e-03" rms="4.4643566012382507e-01" purity="3.8891288638114929e-01" nType="-99"/>
        </Node>
        <Node pos="r" depth="1" NCoef="0" IVar="5" Cut="1.6326609849929810e+00" cType="1" res="1.5439623966813087e-02" rms="4.5835375785827637e-01" purity="5.1442509889602661e-01" nType="0">
          <Node pos="l" depth="2" NCoef="0" IVar="-1" Cut="0.0000000000000000e+00" cType="1" res="2.0171906799077988e-03" rms="4.4626212120056152e-01" purity="6.5601855516433716e-01" nType="-99"/>
          <Node pos="r" depth="2" NCoef="0" IVar="-1" Cut="0.0000000000000000e+00" cType="1" res="2.4040165590122342e-04" rms="4.5915725827217102e-01" purity="4.9783083796501160e-01" nType="-99"/>
        </Node>
      </Node>
    </BinaryTree>
    <BinaryTree type="DecisionTree" boostWeight="1.0000000000000000e+00" itree="362">
      <Node pos="s" depth="0" NCoef="0" IVar="6" Cut="3.1920919418334961e+00" cType="1" res="-9.1816345229744911e-04" rms="4.5728975534439087e-01" purity="4.9528592824935913e-01" nType="0">
        <Node pos="l" depth="1" NCoef="0" IVar="3" Cut="1.8940809369087219e-01" cType="1" res="-1.7326328903436661e-02" rms="4.6038728952407837e-01" purity="3.8430324196815491e-01" nType="0">
          <Node pos="l" depth="2" NCoef="0" IVar="-1" Cut="0.0000000000000000e+00" cType="1" res="7.3873670771718025e-04" rms="4.5839911699295044e-01" purity="4.0204498171806335e-01" nType="-99"/>
          <Node pos="r" depth="2" NCoef="0" IVar="-1" Cut="0.0000000000000000e+00" cType="1" res="-1.1948817409574986e-03" rms="4.6026906371116638e-01" purity="3.7615448236465454e-01" nType="-99"/>
        </Node>
        <Node pos="r" depth="1" NCoef="0" IVar="3" Cut="5.3871834278106689e-01" cType="1" res="2.3919418454170227e-02" rms="4.5142731070518494e-01" purity="6.6328406333923340e-01" nType="0">
          <Node pos="l" depth="2" NCoef="0" IVar="-1" Cut="0.0000000000000000e+00" cType="1" res="1.6047769458964467e-03" rms="4.5229765772819519e-01" purity="6.7096585035324097e-01" nType="-99"/>
          <Node pos="r" depth="2" NCoef="0" IVar="-1" Cut="0.0000000000000000e+00" cType="1" res="1.5753837942611426e-04" rms="4.4986334443092346e-01" purity="6.6000550985336304e-01" nType="-99"/>
        </Node>
      </Node>
    </BinaryTree>
    <BinaryTree type="DecisionTree" boostWeight="1.0000000000000000e+00" itree="363">
      <Node pos="s" depth="0" NCoef="0" IVar="6" Cut="4.3584451675415039e+00" cType="1" res="4.4456985779106617e-03" rms="4.5927232503890991e-01" purity="4.9837031960487366e-01" nType="0">
        <Node pos="l" depth="1" NCoef="0" IVar="3" Cut="4.6129795908927917e-01" cType="1" res="-4.3145189993083477e-03" rms="4.6675813198089600e-01" purity="4.4569864869117737e-01" nType="0">
          <Node pos="l" depth="2" NCoef="0" IVar="-1" Cut="0.0000000000000000e+00" cType="1" res="3.4531511482782662e-04" rms="4.6160924434661865e-01" purity="4.2897900938987732e-01" nType="-99"/>
          <Node pos="r" depth="2" NCoef="0" IVar="-1" Cut="0.0000000000000000e+00" cType="1" res="-1.1791923316195607e-03" rms="4.7737419605255127e-01" purity="4.8736420273780823e-01" nType="-99"/>
        </Node>
        <Node pos="r" depth="1" NCoef="0" IVar="5" Cut="2.2346806526184082e+00" cType="1" res="4.6823695302009583e-02" rms="4.1860437393188477e-01" purity="7.5317239761352539e-01" nType="0">
          <Node pos="l" depth="2" NCoef="0" IVar="-1" Cut="0.0000000000000000e+00" cType="1" res="1.7308603273704648e-03" rms="3.9117032289505005e-01" purity="8.0597460269927979e-01" nType="-99"/>
          <Node pos="r" depth="2" NCoef="0" IVar="-1" Cut="0.0000000000000000e+00" cType="1" res="4.6743405982851982e-04" rms="4.5240405201911926e-01" purity="6.7987036705017090e-01" nType="-99"/>
        </Node>
      </Node>
    </BinaryTree>
    <BinaryTree type="DecisionTree" boostWeight="1.0000000000000000e+00" itree="364">
      <Node pos="s" depth="0" NCoef="0" IVar="6" Cut="1.4438600540161133e+00" cType="1" res="9.8641794174909592e-03" rms="4.5880490541458130e-01" purity="5.0656944513320923e-01" nType="0">
        <Node pos="l" depth="1" NCoef="0" IVar="4" Cut="8.5127647399902344e+01" cType="1" res="-3.4017834812402725e-02" rms="4.3631288409233093e-01" purity="2.8483793139457703e-01" nType="0">
          <Node pos="l" depth="2" NCoef="0" IVar="-1" Cut="0.0000000000000000e+00" cType="1" res="-2.6421730872243643e-03" rms="4.1582372784614563e-01" purity="2.4011123180389404e-01" nType="-99"/>
          <Node pos="r" depth="2" NCoef="0" IVar="-1" Cut="0.0000000000000000e+00" cType="1" res="-2.1263727830955759e-05" rms="4.7029793262481689e-01" purity="3.6816981434822083e-01" nType="-99"/>
        </Node>
        <Node pos="r" depth="1" NCoef="0" IVar="3" Cut="1.9032163918018341e-01" cType="1" res="1.8027622252702713e-02" rms="4.6240937709808350e-01" purity="5.4781848192214966e-01" nType="0">
          <Node pos="l" depth="2" NCoef="0" IVar="-1" Cut="0.0000000000000000e+00" cType="1" res="2.3026699200272560e-03" rms="4.6727117896080017e-01" purity="5.4357337951660156e-01" nType="-99"/>
          <Node pos="r" depth="2" NCoef="0" IVar="-1" Cut="0.0000000000000000e+00" cType="1" res="2.6649731444194913e-04" rms="4.6107062697410583e-01" purity="5.4839223623275757e-01" nType="-99"/>
        </Node>
      </Node>
    </BinaryTree>
    <BinaryTree type="DecisionTree" boostWeight="1.0000000000000000e+00" itree="365">
      <Node pos="s" depth="0" NCoef="0" IVar="7" Cut="-1.0279093682765961e-01" cType="1" res="5.7971500791609287e-03" rms="4.5938262343406677e-01" purity="5.0104701519012451e-01" nType="0">
        <Node pos="l" depth="1" NCoef="0" IVar="-1" Cut="0.0000000000000000e+00" cType="1" res="-2.1507171913981438e-03" rms="4.4491800665855408e-01" purity="3.7932828068733215e-01" nType="-99"/>
        <Node pos="r" depth="1" NCoef="0" IVar="6" Cut="1.2504159212112427e+00" cType="1" res="1.2783410958945751e-02" rms="4.6034920215606689e-01" purity="5.1403135061264038e-01" nType="0">
          <Node pos="l" depth="2" NCoef="0" IVar="-1" Cut="0.0000000000000000e+00" cType="1" res="-1.8295848276466131e-03" rms="4.3366691470146179e-01" purity="2.8056728839874268e-01" nType="-99"/>
          <Node pos="r" depth="2" NCoef="0" IVar="-1" Cut="0.0000000000000000e+00" cType="1" res="5.6618475355207920e-04" rms="4.6331074833869934e-01" purity="5.4491347074508667e-01" nType="-99"/>
        </Node>
      </Node>
    </BinaryTree>
    <BinaryTree type="DecisionTree" boostWeight="1.0000000000000000e+00" itree="366">
      <Node pos="s" depth="0" NCoef="0" IVar="1" Cut="7.9359130859375000e+02" cType="1" res="7.0506799966096878e-04" rms="4.5794942975044250e-01" purity="4.9680042266845703e-01" nType="0">
        <Node pos="l" depth="1" NCoef="0" IVar="7" Cut="7.4912577867507935e-02" cType="1" res="-7.5194970704615116e-03" rms="4.5815691351890564e-01" purity="4.7467553615570068e-01" nType="0">
          <Node pos="l" depth="2" NCoef="0" IVar="-1" Cut="0.0000000000000000e+00" cType="1" res="-7.5016892515122890e-04" rms="4.5377808809280396e-01" purity="4.4247338175773621e-01" nType="-99"/>
          <Node pos="r" depth="2" NCoef="0" IVar="-1" Cut="0.0000000000000000e+00" cType="1" res="6.6861225059255958e-04" rms="4.6538788080215454e-01" purity="5.4005819559097290e-01" nType="-99"/>
        </Node>
        <Node pos="r" depth="1" NCoef="0" IVar="3" Cut="3.4516459703445435e-01" cType="1" res="5.7018134742975235e-02" rms="4.5252841711044312e-01" purity="6.4828836917877197e-01" nType="0">
          <Node pos="l" depth="2" NCoef="0" IVar="-1" Cut="0.0000000000000000e+00" cType="1" res="2.1501071751117706e-03" rms="4.7181591391563416e-01" purity="5.8758997917175293e-01" nType="-99"/>
          <Node pos="r" depth="2" NCoef="0" IVar="-1" Cut="0.0000000000000000e+00" cType="1" res="1.0356883285567164e-03" rms="4.3633639812469482e-01" purity="6.9507759809494019e-01" nType="-99"/>
        </Node>
      </Node>
    </BinaryTree>
    <BinaryTree type="DecisionTree" boostWeight="1.0000000000000000e+00" itree="367">
      <Node pos="s" depth="0" NCoef="0" IVar="8" Cut="9.2840309143066406e+01" cType="1" res="7.9647023230791092e-03" rms="4.6042618155479431e-01" purity="5.0231945514678955e-01" nType="0">
        <Node pos="l" depth="1" NCoef="0" IVar="3" Cut="3.6294004321098328e-01" cType="1" res="-6.3614219427108765e-02" rms="4.5941606163978577e-01" purity="4.0260487794876099e-01" nType="0">
          <Node pos="l" depth="2" NCoef="0" IVar="-1" Cut="0.0000000000000000e+00" cType="1" res="-1.0448638349771500e-03" rms="4.4979518651962280e-01" purity="3.5675939917564392e-01" nType="-99"/>
          <Node pos="r" depth="2" NCoef="0" IVar="-1" Cut="0.0000000000000000e+00" cType="1" res="-3.1742821447551250e-03" rms="4.6603244543075562e-01" purity="4.4784319400787354e-01" nType="-99"/>
        </Node>
        <Node pos="r" depth="1" NCoef="0" IVar="5" Cut="2.8252351284027100e+00" cType="1" res="1.6107330098748207e-02" rms="4.5983564853668213e-01" purity="5.1366269588470459e-01" nType="0">
          <Node pos="l" depth="2" NCoef="0" IVar="-1" Cut="0.0000000000000000e+00" cType="1" res="6.1482965247705579e-04" rms="4.6255549788475037e-01" purity="5.3144687414169312e-01" nType="-99"/>
          <Node pos="r" depth="2" NCoef="0" IVar="-1" Cut="0.0000000000000000e+00" cType="1" res="-2.8048998210579157e-03" rms="4.1012290120124817e-01" purity="2.4816899001598358e-01" nType="-99"/>
        </Node>
      </Node>
    </BinaryTree>
    <BinaryTree type="DecisionTree" boostWeight="1.0000000000000000e+00" itree="368">
      <Node pos="s" depth="0" NCoef="0" IVar="2" Cut="9.9323129653930664e-01" cType="1" res="2.2833121474832296e-03" rms="4.5851981639862061e-01" purity="4.9739155173301697e-01" nType="0">
        <Node pos="l" depth="1" NCoef="0" IVar="5" Cut="2.6585464477539062e+00" cType="1" res="1.2078657746315002e-02" rms="4.5964518189430237e-01" purity="5.2277171611785889e-01" nType="0">
          <Node pos="l" depth="2" NCoef="0" IVar="-1" Cut="0.0000000000000000e+00" cType="1" res="5.1918684039264917e-04" rms="4.6210944652557373e-01" purity="5.4707157611846924e-01" nType="-99"/>
          <Node pos="r" depth="2" NCoef="0" IVar="-1" Cut="0.0000000000000000e+00" cType="1" res="-1.8915728433057666e-03" rms="4.3208566308021545e-01" purity="2.9743090271949768e-01" nType="-99"/>
        </Node>
        <Node pos="r" depth="1" NCoef="0" IVar="7" Cut="4.9904938787221909e-02" cType="1" res="-2.8513528406620026e-02" rms="4.5358753204345703e-01" purity="4.1759562492370605e-01" nType="0">
          <Node pos="l" depth="2" NCoef="0" IVar="-1" Cut="0.0000000000000000e+00" cType="1" res="-1.8783145351335406e-03" rms="4.4202309846878052e-01" purity="3.6426433920860291e-01" nType="-99"/>
          <Node pos="r" depth="2" NCoef="0" IVar="-1" Cut="0.0000000000000000e+00" cType="1" res="-2.9460625228239223e-05" rms="4.6627154946327209e-01" purity="4.8468664288520813e-01" nType="-99"/>
        </Node>
      </Node>
    </BinaryTree>
    <BinaryTree type="DecisionTree" boostWeight="1.0000000000000000e+00" itree="369">
      <Node pos="s" depth="0" NCoef="0" IVar="2" Cut="1.0548779964447021e+00" cType="1" res="5.9259301051497459e-03" rms="4.5854118466377258e-01" purity="5.0013893842697144e-01" nType="0">
        <Node pos="l" depth="1" NCoef="0" IVar="7" Cut="1.6133646667003632e-01" cType="1" res="1.6431953758001328e-02" rms="4.5966118574142456e-01" purity="5.2225250005722046e-01" nType="0">
          <Node pos="l" depth="2" NCoef="0" IVar="-1" Cut="0.0000000000000000e+00" cType="1" res="2.4167362425941974e-04" rms="4.5924326777458191e-01" purity="5.0486105680465698e-01" nType="-99"/>
          <Node pos="r" depth="2" NCoef="0" IVar="-1" Cut="0.0000000000000000e+00" cType="1" res="1.6127162380144000e-03" rms="4.5931875705718994e-01" purity="6.1268901824951172e-01" nType="-99"/>
        </Node>
        <Node pos="r" depth="1" NCoef="0" IVar="7" Cut="5.1813390105962753e-02" cType="1" res="-3.9598342031240463e-02" rms="4.5083594322204590e-01" purity="4.0431749820709229e-01" nType="0">
          <Node pos="l" depth="2" NCoef="0" IVar="-1" Cut="0.0000000000000000e+00" cType="1" res="-2.3425361141562462e-03" rms="4.3808433413505554e-01" purity="3.5505321621894836e-01" nType="-99"/>
          <Node pos="r" depth="2" NCoef="0" IVar="-1" Cut="0.0000000000000000e+00" cType="1" res="-2.7556307031773031e-04" rms="4.6644622087478638e-01" purity="4.7351053357124329e-01" nType="-99"/>
        </Node>
      </Node>
    </BinaryTree>
    <BinaryTree type="DecisionTree" boostWeight="1.0000000000000000e+00" itree="370">
      <Node pos="s" depth="0" NCoef="0" IVar="4" Cut="4.2896244049072266e+01" cType="1" res="5.6059625931084156e-03" rms="4.5859006047248840e-01" purity="4.9971139430999756e-01" nType="0">
        <Node pos="l" depth="1" NCoef="0" IVar="7" Cut="-8.4366826340556145e-03" cType="1" res="-3.1945083290338516e-02" rms="4.5195335149765015e-01" purity="4.2366307973861694e-01" nType="0">
          <Node pos="l" depth="2" NCoef="0" IVar="-1" Cut="0.0000000000000000e+00" cType="1" res="-2.4189867544919252e-03" rms="4.4091439247131348e-01" purity="3.6723700165748596e-01" nType="-99"/>
          <Node pos="r" depth="2" NCoef="0" IVar="-1" Cut="0.0000000000000000e+00" cType="1" res="-2.9474272196239326e-06" rms="4.6026343107223511e-01" purity="4.7881078720092773e-01" nType="-99"/>
        </Node>
        <Node pos="r" depth="1" NCoef="0" IVar="6" Cut="1.2232518196105957e+00" cType="1" res="1.8228882923722267e-02" rms="4.6011179685592651e-01" purity="5.2527529001235962e-01" nType="0">
          <Node pos="l" depth="2" NCoef="0" IVar="-1" Cut="0.0000000000000000e+00" cType="1" res="-2.3110969923436642e-03" rms="4.3060207366943359e-01" purity="2.7638855576515198e-01" nType="-99"/>
          <Node pos="r" depth="2" NCoef="0" IVar="-1" Cut="0.0000000000000000e+00" cType="1" res="7.5243809260427952e-04" rms="4.6295878291130066e-01" purity="5.5639940500259399e-01" nType="-99"/>
        </Node>
      </Node>
    </BinaryTree>
    <BinaryTree type="DecisionTree" boostWeight="1.0000000000000000e+00" itree="371">
      <Node pos="s" depth="0" NCoef="0" IVar="2" Cut="6.3638228178024292e-01" cType="1" res="2.2408075165003538e-03" rms="4.6013253927230835e-01" purity="4.9657765030860901e-01" nType="0">
        <Node pos="l" depth="1" NCoef="0" IVar="3" Cut="1.9030496478080750e-01" cType="1" res="3.0099015682935715e-02" rms="4.5857971906661987e-01" purity="5.7259988784790039e-01" nType="0">
          <Node pos="l" depth="2" NCoef="0" IVar="-1" Cut="0.0000000000000000e+00" cType="1" res="1.9358252175152302e-03" rms="4.7349339723587036e-01" purity="4.9588966369628906e-01" nType="-99"/>
          <Node pos="r" depth="2" NCoef="0" IVar="-1" Cut="0.0000000000000000e+00" cType="1" res="5.6169356685131788e-04" rms="4.5365083217620850e-01" purity="5.9514033794403076e-01" nType="-99"/>
        </Node>
        <Node pos="r" depth="1" NCoef="0" IVar="9" Cut="9.1206092834472656e+01" cType="1" res="-1.1541178449988365e-02" rms="4.6027582883834839e-01" purity="4.5896795392036438e-01" nType="0">
          <Node pos="l" depth="2" NCoef="0" IVar="-1" Cut="0.0000000000000000e+00" cType="1" res="-1.0856330627575517e-03" rms="4.5814594626426697e-01" purity="4.3059024214744568e-01" nType="-99"/>
          <Node pos="r" depth="2" NCoef="0" IVar="-1" Cut="0.0000000000000000e+00" cType="1" res="1.2523244367912412e-04" rms="4.6119678020477295e-01" purity="4.7958913445472717e-01" nType="-99"/>
        </Node>
      </Node>
    </BinaryTree>
    <BinaryTree type="DecisionTree" boostWeight="1.0000000000000000e+00" itree="372">
      <Node pos="s" depth="0" NCoef="0" IVar="0" Cut="9.9321663379669189e-01" cType="1" res="9.6605215221643448e-03" rms="4.5834374427795410e-01" purity="5.0543218851089478e-01" nType="0">
        <Node pos="l" depth="1" NCoef="0" IVar="8" Cut="1.0111430358886719e+02" cType="1" res="3.4493476152420044e-02" rms="4.6089196205139160e-01" purity="5.5494332313537598e-01" nType="0">
          <Node pos="l" depth="2" NCoef="0" IVar="-1" Cut="0.0000000000000000e+00" cType="1" res="-5.4134137462824583e-04" rms="4.6808123588562012e-01" purity="4.7510823607444763e-01" nType="-99"/>
          <Node pos="r" depth="2" NCoef="0" IVar="-1" Cut="0.0000000000000000e+00" cType="1" res="1.2387397000566125e-03" rms="4.5885542035102844e-01" purity="5.7006978988647461e-01" nType="-99"/>
        </Node>
        <Node pos="r" depth="1" NCoef="0" IVar="6" Cut="4.6224908828735352e+00" cType="1" res="-1.0225051082670689e-02" rms="4.5531743764877319e-01" purity="4.6578496694564819e-01" nType="0">
          <Node pos="l" depth="2" NCoef="0" IVar="-1" Cut="0.0000000000000000e+00" cType="1" res="-6.8665185244753957e-04" rms="4.6118515729904175e-01" purity="4.1825389862060547e-01" nType="-99"/>
          <Node pos="r" depth="2" NCoef="0" IVar="-1" Cut="0.0000000000000000e+00" cType="1" res="1.3986066915094852e-03" rms="4.1070932149887085e-01" purity="7.6357471942901611e-01" nType="-99"/>
        </Node>
      </Node>
    </BinaryTree>
    <BinaryTree type="DecisionTree" boostWeight="1.0000000000000000e+00" itree="373">
      <Node pos="s" depth="0" NCoef="0" IVar="2" Cut="7.8745770454406738e-01" cType="1" res="7.6197572052478790e-03" rms="4.5880678296089172e-01" purity="5.0293123722076416e-01" nType="0">
        <Node pos="l" depth="1" NCoef="0" IVar="5" Cut="1.9373409748077393e+00" cType="1" res="2.5279274210333824e-02" rms="4.5905226469039917e-01" purity="5.5339342355728149e-01" nType="0">
          <Node pos="l" depth="2" NCoef="0" IVar="-1" Cut="0.0000000000000000e+00" cType="1" res="1.5341470716521144e-03" rms="4.5369020104408264e-01" purity="6.2444961071014404e-01" nType="-99"/>
          <Node pos="r" depth="2" NCoef="0" IVar="-1" Cut="0.0000000000000000e+00" cType="1" res="3.9329298306256533e-04" rms="4.6040976047515869e-01" purity="5.2750879526138306e-01" nType="-99"/>
        </Node>
        <Node pos="r" depth="1" NCoef="0" IVar="7" Cut="1.0397244244813919e-01" cType="1" res="-1.1574134230613708e-02" rms="4.5776787400245667e-01" purity="4.4808459281921387e-01" nType="0">
          <Node pos="l" depth="2" NCoef="0" IVar="-1" Cut="0.0000000000000000e+00" cType="1" res="-1.0094841709360480e-03" rms="4.5321953296661377e-01" purity="4.0521547198295593e-01" nType="-99"/>
          <Node pos="r" depth="2" NCoef="0" IVar="-1" Cut="0.0000000000000000e+00" cType="1" res="6.9378950865939260e-04" rms="4.6478587388992310e-01" purity="5.3498101234436035e-01" nType="-99"/>
        </Node>
      </Node>
    </BinaryTree>
    <BinaryTree type="DecisionTree" boostWeight="1.0000000000000000e+00" itree="374">
      <Node pos="s" depth="0" NCoef="0" IVar="6" Cut="3.4333894252777100e+00" cType="1" res="1.6423843335360289e-03" rms="4.5723560452461243e-01" purity="4.9809181690216064e-01" nType="0">
        <Node pos="l" depth="1" NCoef="0" IVar="3" Cut="3.4375908970832825e-01" cType="1" res="-1.2595039792358875e-02" rms="4.6323230862617493e-01" purity="3.9888247847557068e-01" nType="0">
          <Node pos="l" depth="2" NCoef="0" IVar="-1" Cut="0.0000000000000000e+00" cType="1" res="8.8094675447791815e-05" rms="4.5930638909339905e-01" purity="3.9487391710281372e-01" nType="-99"/>
          <Node pos="r" depth="2" NCoef="0" IVar="-1" Cut="0.0000000000000000e+00" cType="1" res="-1.3511356664821506e-03" rms="4.6947905421257019e-01" purity="4.0681421756744385e-01" nType="-99"/>
        </Node>
        <Node pos="r" depth="1" NCoef="0" IVar="3" Cut="5.9055060148239136e-01" cType="1" res="2.8428310528397560e-02" rms="4.4450065493583679e-01" purity="6.8474173545837402e-01" nType="0">
          <Node pos="l" depth="2" NCoef="0" IVar="-1" Cut="0.0000000000000000e+00" cType="1" res="1.7076659714803100e-03" rms="4.4227626919746399e-01" purity="6.9887542724609375e-01" nType="-99"/>
          <Node pos="r" depth="2" NCoef="0" IVar="-1" Cut="0.0000000000000000e+00" cType="1" res="2.4555885465815663e-04" rms="4.4419035315513611e-01" purity="6.7834895849227905e-01" nType="-99"/>
        </Node>
      </Node>
    </BinaryTree>
    <BinaryTree type="DecisionTree" boostWeight="1.0000000000000000e+00" itree="375">
      <Node pos="s" depth="0" NCoef="0" IVar="5" Cut="1.9479297399520874e+00" cType="1" res="4.5523778535425663e-03" rms="4.5890328288078308e-01" purity="5.0045168399810791e-01" nType="0">
        <Node pos="l" depth="1" NCoef="0" IVar="2" Cut="6.3154834508895874e-01" cType="1" res="3.9227630943059921e-02" rms="4.5795500278472900e-01" purity="5.8980739116668701e-01" nType="0">
          <Node pos="l" depth="2" NCoef="0" IVar="-1" Cut="0.0000000000000000e+00" cType="1" res="2.0212354138493538e-03" rms="4.5109739899635315e-01" purity="6.5099096298217773e-01" nType="-99"/>
          <Node pos="r" depth="2" NCoef="0" IVar="-1" Cut="0.0000000000000000e+00" cType="1" res="3.8514038897119462e-04" rms="4.6044841408729553e-01" purity="5.5079865455627441e-01" nType="-99"/>
        </Node>
        <Node pos="r" depth="1" NCoef="0" IVar="6" Cut="4.7421655654907227e+00" cType="1" res="-6.6268132068216801e-03" rms="4.5865011215209961e-01" purity="4.7164371609687805e-01" nType="0">
          <Node pos="l" depth="2" NCoef="0" IVar="-1" Cut="0.0000000000000000e+00" cType="1" res="-4.4500033254735172e-04" rms="4.6403110027313232e-01" purity="4.3255215883255005e-01" nType="-99"/>
          <Node pos="r" depth="2" NCoef="0" IVar="-1" Cut="0.0000000000000000e+00" cType="1" res="1.1516928207129240e-03" rms="4.1343477368354797e-01" purity="7.5867998600006104e-01" nType="-99"/>
        </Node>
      </Node>
    </BinaryTree>
    <BinaryTree type="DecisionTree" boostWeight="1.0000000000000000e+00" itree="376">
      <Node pos="s" depth="0" NCoef="0" IVar="0" Cut="1.5327328443527222e+00" cType="1" res="8.2919513806700706e-03" rms="4.5959839224815369e-01" purity="5.0313240289688110e-01" nType="0">
        <Node pos="l" depth="1" NCoef="0" IVar="5" Cut="1.7567044496536255e+00" cType="1" res="1.5503788366913795e-02" rms="4.6101456880569458e-01" purity="5.1822322607040405e-01" nType="0">
          <Node pos="l" depth="2" NCoef="0" IVar="-1" Cut="0.0000000000000000e+00" cType="1" res="1.6268306644633412e-03" rms="4.5326343178749084e-01" purity="6.2550520896911621e-01" nType="-99"/>
          <Node pos="r" depth="2" NCoef="0" IVar="-1" Cut="0.0000000000000000e+00" cType="1" res="2.3423861421179026e-04" rms="4.6182882785797119e-01" purity="5.0036513805389404e-01" nType="-99"/>
        </Node>
        <Node pos="r" depth="1" NCoef="0" IVar="3" Cut="4.0320026874542236e-01" cType="1" res="-3.0912443995475769e-02" rms="4.4980403780937195e-01" purity="4.2109709978103638e-01" nType="0">
          <Node pos="l" depth="2" NCoef="0" IVar="-1" Cut="0.0000000000000000e+00" cType="1" res="-4.3588755943346769e-05" rms="4.4518038630485535e-01" purity="3.7746137380599976e-01" nType="-99"/>
          <Node pos="r" depth="2" NCoef="0" IVar="-1" Cut="0.0000000000000000e+00" cType="1" res="-2.1157860755920410e-03" rms="4.5277491211891174e-01" purity="4.7545430064201355e-01" nType="-99"/>
        </Node>
      </Node>
    </BinaryTree>
    <BinaryTree type="DecisionTree" boostWeight="1.0000000000000000e+00" itree="377">
      <Node pos="s" depth="0" NCoef="0" IVar="4" Cut="7.1820167541503906e+01" cType="1" res="5.6365467607975006e-03" rms="4.5796549320220947e-01" purity="5.0078254938125610e-01" nType="0">
        <Node pos="l" depth="1" NCoef="0" IVar="6" Cut="1.3699847459793091e+00" cType="1" res="-1.3939381577074528e-02" rms="4.5468148589134216e-01" purity="4.5192110538482666e-01" nType="0">
          <Node pos="l" depth="2" NCoef="0" IVar="-1" Cut="0.0000000000000000e+00" cType="1" res="-3.4555140882730484e-03" rms="4.0554460883140564e-01" purity="2.2080072760581970e-01" nType="-99"/>
          <Node pos="r" depth="2" NCoef="0" IVar="-1" Cut="0.0000000000000000e+00" cType="1" res="-1.6392566612921655e-04" rms="4.6219977736473083e-01" purity="4.9230709671974182e-01" nType="-99"/>
        </Node>
        <Node pos="r" depth="1" NCoef="0" IVar="1" Cut="4.7789590454101562e+02" cType="1" res="2.7830651029944420e-02" rms="4.6065536141395569e-01" purity="5.5617892742156982e-01" nType="0">
          <Node pos="l" depth="2" NCoef="0" IVar="-1" Cut="0.0000000000000000e+00" cType="1" res="-3.0162159237079322e-04" rms="4.6362775564193726e-01" purity="4.0890482068061829e-01" nType="-99"/>
          <Node pos="r" depth="2" NCoef="0" IVar="-1" Cut="0.0000000000000000e+00" cType="1" res="1.0729953646659851e-03" rms="4.5904669165611267e-01" purity="6.0439693927764893e-01" nType="-99"/>
        </Node>
      </Node>
    </BinaryTree>
    <BinaryTree type="DecisionTree" boostWeight="1.0000000000000000e+00" itree="378">
      <Node pos="s" depth="0" NCoef="0" IVar="7" Cut="-8.0407477915287018e-02" cType="1" res="2.1598795428872108e-03" rms="4.5740839838981628e-01" purity="4.9861514568328857e-01" nType="0">
        <Node pos="l" depth="1" NCoef="0" IVar="2" Cut="9.0565109252929688e-01" cType="1" res="-3.7967123091220856e-02" rms="4.4863665103912354e-01" purity="4.1335877776145935e-01" nType="0">
          <Node pos="l" depth="2" NCoef="0" IVar="-1" Cut="0.0000000000000000e+00" cType="1" res="-6.2242028070613742e-04" rms="4.6003651618957520e-01" purity="4.6437591314315796e-01" nType="-99"/>
          <Node pos="r" depth="2" NCoef="0" IVar="-1" Cut="0.0000000000000000e+00" cType="1" res="-3.3508858177810907e-03" rms="4.1930910944938660e-01" purity="3.0006709694862366e-01" nType="-99"/>
        </Node>
        <Node pos="r" depth="1" NCoef="0" IVar="5" Cut="1.6670839786529541e+00" cType="1" res="1.1908945627510548e-02" rms="4.5898485183715820e-01" purity="5.1932859420776367e-01" nType="0">
          <Node pos="l" depth="2" NCoef="0" IVar="-1" Cut="0.0000000000000000e+00" cType="1" res="1.6616248758509755e-03" rms="4.5119398832321167e-01" purity="6.2600821256637573e-01" nType="-99"/>
          <Node pos="r" depth="2" NCoef="0" IVar="-1" Cut="0.0000000000000000e+00" cType="1" res="1.2729676382150501e-04" rms="4.5963981747627258e-01" purity="5.0340795516967773e-01" nType="-99"/>
        </Node>
      </Node>
    </BinaryTree>
    <BinaryTree type="DecisionTree" boostWeight="1.0000000000000000e+00" itree="379">
      <Node pos="s" depth="0" NCoef="0" IVar="1" Cut="5.3406787109375000e+02" cType="1" res="5.3595346398651600e-03" rms="4.5919671654701233e-01" purity="5.0160074234008789e-01" nType="0">
        <Node pos="l" depth="1" NCoef="0" IVar="3" Cut="1.9029927253723145e-01" cType="1" res="-1.4158477075397968e-02" rms="4.5657849311828613e-01" purity="4.1571289300918579e-01" nType="0">
          <Node pos="l" depth="2" NCoef="0" IVar="-1" Cut="0.0000000000000000e+00" cType="1" res="1.4745132066309452e-03" rms="4.5356148481369019e-01" purity="3.6220210790634155e-01" nType="-99"/>
          <Node pos="r" depth="2" NCoef="0" IVar="-1" Cut="0.0000000000000000e+00" cType="1" res="-9.1290980344638228e-04" rms="4.5642784237861633e-01" purity="4.3002471327781677e-01" nType="-99"/>
        </Node>
        <Node pos="r" depth="1" NCoef="0" IVar="9" Cut="1.1151345062255859e+02" cType="1" res="2.5978265330195427e-02" rms="4.6104985475540161e-01" purity="5.9233224391937256e-01" nType="0">
          <Node pos="l" depth="2" NCoef="0" IVar="-1" Cut="0.0000000000000000e+00" cType="1" res="7.8062614193186164e-05" rms="4.6428599953651428e-01" purity="5.7426607608795166e-01" nType="-99"/>
          <Node pos="r" depth="2" NCoef="0" IVar="-1" Cut="0.0000000000000000e+00" cType="1" res="1.2678909115493298e-03" rms="4.5708221197128296e-01" purity="6.0871273279190063e-01" nType="-99"/>
        </Node>
      </Node>
    </BinaryTree>
    <BinaryTree type="DecisionTree" boostWeight="1.0000000000000000e+00" itree="380">
      <Node pos="s" depth="0" NCoef="0" IVar="5" Cut="2.7472054958343506e+00" cType="1" res="5.1215952262282372e-03" rms="4.5805782079696655e-01" purity="5.0133979320526123e-01" nType="0">
        <Node pos="l" depth="1" NCoef="0" IVar="1" Cut="3.8148245239257812e+02" cType="1" res="1.0928151197731495e-02" rms="4.6164214611053467e-01" purity="5.2465564012527466e-01" nType="0">
          <Node pos="l" depth="2" NCoef="0" IVar="-1" Cut="0.0000000000000000e+00" cType="1" res="-1.7573882360011339e-03" rms="4.3326407670974731e-01" purity="3.1960615515708923e-01" nType="-99"/>
          <Node pos="r" depth="2" NCoef="0" IVar="-1" Cut="0.0000000000000000e+00" cType="1" res="4.9068237422034144e-04" rms="4.6442160010337830e-01" purity="5.4849404096603394e-01" nType="-99"/>
        </Node>
        <Node pos="r" depth="1" NCoef="0" IVar="-1" Cut="0.0000000000000000e+00" cType="1" res="-2.6696366257965565e-03" rms="4.1352036595344543e-01" purity="2.5575381517410278e-01" nType="-99"/>
      </Node>
    </BinaryTree>
    <BinaryTree type="DecisionTree" boostWeight="1.0000000000000000e+00" itree="381">
      <Node pos="s" depth="0" NCoef="0" IVar="1" Cut="8.1762268066406250e+02" cType="1" res="-1.4879947411827743e-04" rms="4.5813649892807007e-01" purity="4.9597835540771484e-01" nType="0">
        <Node pos="l" depth="1" NCoef="0" IVar="2" Cut="9.8224776983261108e-01" cType="1" res="-7.0878146216273308e-03" rms="4.5753160119056702e-01" purity="4.7761815786361694e-01" nType="0">
          <Node pos="l" depth="2" NCoef="0" IVar="-1" Cut="0.0000000000000000e+00" cType="1" res="1.3857611338607967e-04" rms="4.5840415358543396e-01" purity="5.0640153884887695e-01" nType="-99"/>
          <Node pos="r" depth="2" NCoef="0" IVar="-1" Cut="0.0000000000000000e+00" cType="1" res="-1.4057032531127334e-03" rms="4.5340219140052795e-01" purity="3.9573371410369873e-01" nType="-99"/>
        </Node>
        <Node pos="r" depth="1" NCoef="0" IVar="-1" Cut="0.0000000000000000e+00" cType="1" res="1.4843627577647567e-03" rms="4.5914757251739502e-01" purity="6.4536011219024658e-01" nType="-99"/>
      </Node>
    </BinaryTree>
    <BinaryTree type="DecisionTree" boostWeight="1.0000000000000000e+00" itree="382">
      <Node pos="s" depth="0" NCoef="0" IVar="7" Cut="-1.1176129430532455e-01" cType="1" res="3.7507512606680393e-03" rms="4.5880708098411560e-01" purity="4.9881407618522644e-01" nType="0">
        <Node pos="l" depth="1" NCoef="0" IVar="-1" Cut="0.0000000000000000e+00" cType="1" res="-2.2823992185294628e-03" rms="4.3840622901916504e-01" purity="3.7543040513992310e-01" nType="-99"/>
        <Node pos="r" depth="1" NCoef="0" IVar="5" Cut="1.6730338335037231e+00" cType="1" res="8.3082234486937523e-03" rms="4.5984277129173279e-01" purity="5.0738346576690674e-01" nType="0">
          <Node pos="l" depth="2" NCoef="0" IVar="-1" Cut="0.0000000000000000e+00" cType="1" res="1.4143171720206738e-03" rms="4.5159086585044861e-01" purity="6.1933344602584839e-01" nType="-99"/>
          <Node pos="r" depth="2" NCoef="0" IVar="-1" Cut="0.0000000000000000e+00" cType="1" res="5.6326236517634243e-05" rms="4.6062719821929932e-01" purity="4.9158942699432373e-01" nType="-99"/>
        </Node>
      </Node>
    </BinaryTree>
    <BinaryTree type="DecisionTree" boostWeight="1.0000000000000000e+00" itree="383">
      <Node pos="s" depth="0" NCoef="0" IVar="6" Cut="1.1276644468307495e+00" cType="1" res="1.2243345845490694e-03" rms="4.5831319689750671e-01" purity="4.9618524312973022e-01" nType="0">
        <Node pos="l" depth="1" NCoef="0" IVar="-1" Cut="0.0000000000000000e+00" cType="1" res="-2.5796995032578707e-03" rms="4.2113134264945984e-01" purity="2.5887039303779602e-01" nType="-99"/>
        <Node pos="r" depth="1" NCoef="0" IVar="3" Cut="1.9032652676105499e-01" cType="1" res="7.1433680132031441e-03" rms="4.6176236867904663e-01" purity="5.2182453870773315e-01" nType="0">
          <Node pos="l" depth="2" NCoef="0" IVar="-1" Cut="0.0000000000000000e+00" cType="1" res="1.9919371698051691e-03" rms="4.6749705076217651e-01" purity="4.9878028035163879e-01" nType="-99"/>
          <Node pos="r" depth="2" NCoef="0" IVar="-1" Cut="0.0000000000000000e+00" cType="1" res="-6.8164088588673621e-05" rms="4.6012523770332336e-01" purity="5.2558708190917969e-01" nType="-99"/>
        </Node>
      </Node>
    </BinaryTree>
    <BinaryTree type="DecisionTree" boostWeight="1.0000000000000000e+00" itree="384">
      <Node pos="s" depth="0" NCoef="0" IVar="9" Cut="1.6670022583007812e+02" cType="1" res="8.8553559035062790e-03" rms="4.5940256118774414e-01" purity="5.0521731376647949e-01" nType="0">
        <Node pos="l" depth="1" NCoef="0" IVar="5" Cut="1.9732824563980103e+00" cType="1" res="2.3335516452789307e-03" rms="4.6001273393630981e-01" purity="4.9817201495170593e-01" nType="0">
          <Node pos="l" depth="2" NCoef="0" IVar="-1" Cut="0.0000000000000000e+00" cType="1" res="8.6430844385176897e-04" rms="4.6151351928710938e-01" purity="5.7980227470397949e-01" nType="-99"/>
          <Node pos="r" depth="2" NCoef="0" IVar="-1" Cut="0.0000000000000000e+00" cType="1" res="-2.8686007135547698e-04" rms="4.5893117785453796e-01" purity="4.6660503745079041e-01" nType="-99"/>
        </Node>
        <Node pos="r" depth="1" NCoef="0" IVar="7" Cut="-3.4483026713132858e-02" cType="1" res="6.1009783297777176e-02" rms="4.5111441612243652e-01" purity="5.6155836582183838e-01" nType="0">
          <Node pos="l" depth="2" NCoef="0" IVar="-1" Cut="0.0000000000000000e+00" cType="1" res="1.0976715711876750e-03" rms="4.4969570636749268e-01" purity="5.0639808177947998e-01" nType="-99"/>
          <Node pos="r" depth="2" NCoef="0" IVar="-1" Cut="0.0000000000000000e+00" cType="1" res="2.2848201915621758e-03" rms="4.5121625065803528e-01" purity="6.1174368858337402e-01" nType="-99"/>
        </Node>
      </Node>
    </BinaryTree>
    <BinaryTree type="DecisionTree" boostWeight="1.0000000000000000e+00" itree="385">
      <Node pos="s" depth="0" NCoef="0" IVar="6" Cut="4.2036108970642090e+00" cType="1" res="8.5536148399114609e-03" rms="4.5901665091514587e-01" purity="5.0508302450180054e-01" nType="0">
        <Node pos="l" depth="1" NCoef="0" IVar="3" Cut="4.9968203902244568e-01" cType="1" res="-9.6016167663037777e-04" rms="4.6746513247489929e-01" purity="4.4507572054862976e-01" nType="0">
          <Node pos="l" depth="2" NCoef="0" IVar="-1" Cut="0.0000000000000000e+00" cType="1" res="3.5102420952171087e-04" rms="4.6371114253997803e-01" purity="4.3222963809967041e-01" nType="-99"/>
          <Node pos="r" depth="2" NCoef="0" IVar="-1" Cut="0.0000000000000000e+00" cType="1" res="-1.1310703121125698e-03" rms="4.7768989205360413e-01" purity="4.8769047856330872e-01" nType="-99"/>
        </Node>
        <Node pos="r" depth="1" NCoef="0" IVar="5" Cut="2.3152034282684326e+00" cType="1" res="4.6959608793258667e-02" rms="4.2101994156837463e-01" purity="7.4732530117034912e-01" nType="0">
          <Node pos="l" depth="2" NCoef="0" IVar="-1" Cut="0.0000000000000000e+00" cType="1" res="1.5120988246053457e-03" rms="3.9880010485649109e-01" purity="7.9302686452865601e-01" nType="-99"/>
          <Node pos="r" depth="2" NCoef="0" IVar="-1" Cut="0.0000000000000000e+00" cType="1" res="5.2328669698908925e-04" rms="4.6537366509437561e-01" purity="6.4617347717285156e-01" nType="-99"/>
        </Node>
      </Node>
    </BinaryTree>
    <BinaryTree type="DecisionTree" boostWeight="1.0000000000000000e+00" itree="386">
      <Node pos="s" depth="0" NCoef="0" IVar="7" Cut="-1.1163405328989029e-01" cType="1" res="2.2674372885376215e-03" rms="4.5881024003028870e-01" purity="4.9772807955741882e-01" nType="0">
        <Node pos="l" depth="1" NCoef="0" IVar="-1" Cut="0.0000000000000000e+00" cType="1" res="-2.4245369713753462e-03" rms="4.3944880366325378e-01" purity="3.6688840389251709e-01" nType="-99"/>
        <Node pos="r" depth="1" NCoef="0" IVar="0" Cut="1.1180982589721680e+00" cType="1" res="6.8559627979993820e-03" rms="4.5972892642021179e-01" purity="5.0657695531845093e-01" nType="0">
          <Node pos="l" depth="2" NCoef="0" IVar="-1" Cut="0.0000000000000000e+00" cType="1" res="6.7048158962279558e-04" rms="4.6266931295394897e-01" purity="5.4311597347259521e-01" nType="-99"/>
          <Node pos="r" depth="2" NCoef="0" IVar="-1" Cut="0.0000000000000000e+00" cType="1" res="-4.4058301136828959e-04" rms="4.5515277981758118e-01" purity="4.6034982800483704e-01" nType="-99"/>
        </Node>
      </Node>
    </BinaryTree>
    <BinaryTree type="DecisionTree" boostWeight="1.0000000000000000e+00" itree="387">
      <Node pos="s" depth="0" NCoef="0" IVar="6" Cut="2.7001657485961914e+00" cType="1" res="1.1449613375589252e-03" rms="4.5654183626174927e-01" purity="4.9854463338851929e-01" nType="0">
        <Node pos="l" depth="1" NCoef="0" IVar="3" Cut="2.0065613090991974e-01" cType="1" res="-1.9018746912479401e-02" rms="4.5581912994384766e-01" purity="3.5706552863121033e-01" nType="0">
          <Node pos="l" depth="2" NCoef="0" IVar="-1" Cut="0.0000000000000000e+00" cType="1" res="4.1465240065008402e-04" rms="4.5863458514213562e-01" purity="3.8144341111183167e-01" nType="-99"/>
          <Node pos="r" depth="2" NCoef="0" IVar="-1" Cut="0.0000000000000000e+00" cType="1" res="-1.4504097634926438e-03" rms="4.5277848839759827e-01" purity="3.4059795737266541e-01" nType="-99"/>
        </Node>
        <Node pos="r" depth="1" NCoef="0" IVar="3" Cut="4.8064193129539490e-01" cType="1" res="1.9931828603148460e-02" rms="4.5641323924064636e-01" purity="6.3036304712295532e-01" nType="0">
          <Node pos="l" depth="2" NCoef="0" IVar="-1" Cut="0.0000000000000000e+00" cType="1" res="1.6294780652970076e-03" rms="4.5832878351211548e-01" purity="6.3114732503890991e-01" nType="-99"/>
          <Node pos="r" depth="2" NCoef="0" IVar="-1" Cut="0.0000000000000000e+00" cType="1" res="-6.6162909206468612e-05" rms="4.5379909873008728e-01" purity="6.2996810674667358e-01" nType="-99"/>
        </Node>
      </Node>
    </BinaryTree>
    <BinaryTree type="DecisionTree" boostWeight="1.0000000000000000e+00" itree="388">
      <Node pos="s" depth="0" NCoef="0" IVar="0" Cut="1.4533168077468872e+00" cType="1" res="1.7326591769233346e-03" rms="4.5844554901123047e-01" purity="4.9815532565116882e-01" nType="0">
        <Node pos="l" depth="1" NCoef="0" IVar="7" Cut="-9.8673745989799500e-02" cType="1" res="1.2264917604625225e-02" rms="4.6109244227409363e-01" purity="5.1941329240798950e-01" nType="0">
          <Node pos="l" depth="2" NCoef="0" IVar="-1" Cut="0.0000000000000000e+00" cType="1" res="-1.2912268284708261e-03" rms="4.5339375734329224e-01" purity="4.1097456216812134e-01" nType="-99"/>
          <Node pos="r" depth="2" NCoef="0" IVar="-1" Cut="0.0000000000000000e+00" cType="1" res="5.4598198039457202e-04" rms="4.6169045567512512e-01" purity="5.3340941667556763e-01" nType="-99"/>
        </Node>
        <Node pos="r" depth="1" NCoef="0" IVar="1" Cut="5.4665936279296875e+02" cType="1" res="-4.2052339762449265e-02" rms="4.4460743665695190e-01" purity="4.0978124737739563e-01" nType="0">
          <Node pos="l" depth="2" NCoef="0" IVar="-1" Cut="0.0000000000000000e+00" cType="1" res="-2.5460666511207819e-03" rms="4.3324929475784302e-01" purity="3.3665618300437927e-01" nType="-99"/>
          <Node pos="r" depth="2" NCoef="0" IVar="-1" Cut="0.0000000000000000e+00" cType="1" res="2.1350625320337713e-04" rms="4.6353235840797424e-01" purity="5.6252253055572510e-01" nType="-99"/>
        </Node>
      </Node>
    </BinaryTree>
    <BinaryTree type="DecisionTree" boostWeight="1.0000000000000000e+00" itree="389">
      <Node pos="s" depth="0" NCoef="0" IVar="8" Cut="9.2840309143066406e+01" cType="1" res="3.2626627944409847e-03" rms="4.5855805277824402e-01" purity="5.0015473365783691e-01" nType="0">
        <Node pos="l" depth="1" NCoef="0" IVar="8" Cut="8.1081291198730469e+01" cType="1" res="-5.9992518275976181e-02" rms="4.5437598228454590e-01" purity="4.0923401713371277e-01" nType="0">
          <Node pos="l" depth="2" NCoef="0" IVar="-1" Cut="0.0000000000000000e+00" cType="1" res="-2.7021907735615969e-03" rms="4.5186650753021240e-01" purity="3.9536243677139282e-01" nType="-99"/>
          <Node pos="r" depth="2" NCoef="0" IVar="-1" Cut="0.0000000000000000e+00" cType="1" res="-1.4316370943561196e-03" rms="4.5624062418937683e-01" purity="4.2323833703994751e-01" nType="-99"/>
        </Node>
        <Node pos="r" depth="1" NCoef="0" IVar="7" Cut="1.7351453006267548e-01" cType="1" res="1.0404765605926514e-02" rms="4.5847988128662109e-01" purity="5.1042056083679199e-01" nType="0">
          <Node pos="l" depth="2" NCoef="0" IVar="-1" Cut="0.0000000000000000e+00" cType="1" res="7.1041125920601189e-05" rms="4.5825141668319702e-01" purity="4.9384492635726929e-01" nType="-99"/>
          <Node pos="r" depth="2" NCoef="0" IVar="-1" Cut="0.0000000000000000e+00" cType="1" res="1.5264608664438128e-03" rms="4.5699551701545715e-01" purity="6.0634911060333252e-01" nType="-99"/>
        </Node>
      </Node>
    </BinaryTree>
    <BinaryTree type="DecisionTree" boostWeight="1.0000000000000000e+00" itree="390">
      <Node pos="s" depth="0" NCoef="0" IVar="2" Cut="7.9860407114028931e-01" cType="1" res="8.0867838114500046e-03" rms="4.5817038416862488e-01" purity="5.0360780954360962e-01" nType="0">
        <Node pos="l" depth="1" NCoef="0" IVar="0" Cut="1.0382212400436401e+00" cType="1" res="2.5786379352211952e-02" rms="4.5665398240089417e-01" purity="5.5428236722946167e-01" nType="0">
          <Node pos="l" depth="2" NCoef="0" IVar="-1" Cut="0.0000000000000000e+00" cType="1" res="1.3678763061761856e-03" rms="4.5871868729591370e-01" purity="5.9647184610366821e-01" nType="-99"/>
          <Node pos="r" depth="2" NCoef="0" IVar="-1" Cut="0.0000000000000000e+00" cType="1" res="-5.9731878536695149e-06" rms="4.5301601290702820e-01" purity="5.0976085662841797e-01" nType="-99"/>
        </Node>
        <Node pos="r" depth="1" NCoef="0" IVar="7" Cut="8.3274073898792267e-02" cType="1" res="-1.2121639214456081e-02" rms="4.5906198024749756e-01" purity="4.4575041532516479e-01" nType="0">
          <Node pos="l" depth="2" NCoef="0" IVar="-1" Cut="0.0000000000000000e+00" cType="1" res="-1.0280446149408817e-03" rms="4.5300278067588806e-01" purity="3.9951854944229126e-01" nType="-99"/>
          <Node pos="r" depth="2" NCoef="0" IVar="-1" Cut="0.0000000000000000e+00" cType="1" res="4.8906909069046378e-04" rms="4.6761113405227661e-01" purity="5.2317857742309570e-01" nType="-99"/>
        </Node>
      </Node>
    </BinaryTree>
    <BinaryTree type="DecisionTree" boostWeight="1.0000000000000000e+00" itree="391">
      <Node pos="s" depth="0" NCoef="0" IVar="6" Cut="1.9996806383132935e+00" cType="1" res="4.3200883083045483e-03" rms="4.5868596434593201e-01" purity="5.0068348646163940e-01" nType="0">
        <Node pos="l" depth="1" NCoef="0" IVar="3" Cut="2.8325602412223816e-01" cType="1" res="-2.2775311022996902e-02" rms="4.4839605689048767e-01" purity="3.1502634286880493e-01" nType="0">
          <Node pos="l" depth="2" NCoef="0" IVar="-1" Cut="0.0000000000000000e+00" cType="1" res="-5.1523884758353233e-04" rms="4.5135039091110229e-01" purity="3.2768371701240540e-01" nType="-99"/>
          <Node pos="r" depth="2" NCoef="0" IVar="-1" Cut="0.0000000000000000e+00" cType="1" res="-2.6202469598501921e-03" rms="4.3510141968727112e-01" purity="2.6792874932289124e-01" nType="-99"/>
        </Node>
        <Node pos="r" depth="1" NCoef="0" IVar="3" Cut="4.6129795908927917e-01" cType="1" res="1.5857383608818054e-02" rms="4.6251642704010010e-01" purity="5.7973682880401611e-01" nType="0">
          <Node pos="l" depth="2" NCoef="0" IVar="-1" Cut="0.0000000000000000e+00" cType="1" res="1.3241077540442348e-03" rms="4.6869370341300964e-01" purity="5.5383819341659546e-01" nType="-99"/>
          <Node pos="r" depth="2" NCoef="0" IVar="-1" Cut="0.0000000000000000e+00" cType="1" res="-2.7418101672083139e-04" rms="4.5587074756622314e-01" purity="6.0040634870529175e-01" nType="-99"/>
        </Node>
      </Node>
    </BinaryTree>
    <BinaryTree type="DecisionTree" boostWeight="1.0000000000000000e+00" itree="392">
      <Node pos="s" depth="0" NCoef="0" IVar="3" Cut="2.2903470695018768e-01" cType="1" res="1.2459692545235157e-02" rms="4.6014070510864258e-01" purity="5.0665569305419922e-01" nType="0">
        <Node pos="l" depth="1" NCoef="0" IVar="6" Cut="1.0967829227447510e+00" cType="1" res="4.2023044079542160e-02" rms="4.6251812577247620e-01" purity="4.3860113620758057e-01" nType="0">
          <Node pos="l" depth="2" NCoef="0" IVar="-1" Cut="0.0000000000000000e+00" cType="1" res="-1.2377917300909758e-03" rms="4.3698441982269287e-01" purity="2.9061275720596313e-01" nType="-99"/>
          <Node pos="r" depth="2" NCoef="0" IVar="-1" Cut="0.0000000000000000e+00" cType="1" res="2.1505802869796753e-03" rms="4.6944001317024231e-01" purity="4.9720579385757446e-01" nType="-99"/>
        </Node>
        <Node pos="r" depth="1" NCoef="0" IVar="6" Cut="3.6332988739013672e+00" cType="1" res="6.4738414948806167e-04" rms="4.5865485072135925e-01" purity="5.3384745121002197e-01" nType="0">
          <Node pos="l" depth="2" NCoef="0" IVar="-1" Cut="0.0000000000000000e+00" cType="1" res="-5.0539663061499596e-04" rms="4.7075316309928894e-01" purity="4.2431083321571350e-01" nType="-99"/>
          <Node pos="r" depth="2" NCoef="0" IVar="-1" Cut="0.0000000000000000e+00" cType="1" res="6.4803264103829861e-04" rms="4.3910482525825500e-01" purity="6.9505143165588379e-01" nType="-99"/>
        </Node>
      </Node>
    </BinaryTree>
    <BinaryTree type="DecisionTree" boostWeight="1.0000000000000000e+00" itree="393">
      <Node pos="s" depth="0" NCoef="0" IVar="6" Cut="4.8305382728576660e+00" cType="1" res="-2.5691259652376175e-03" rms="4.5817041397094727e-01" purity="4.9493312835693359e-01" nType="0">
        <Node pos="l" depth="1" NCoef="0" IVar="9" Cut="1.5715995788574219e+02" cType="1" res="-9.6969678997993469e-03" rms="4.6436709165573120e-01" purity="4.5892086625099182e-01" nType="0">
          <Node pos="l" depth="2" NCoef="0" IVar="-1" Cut="0.0000000000000000e+00" cType="1" res="-5.5368093308061361e-04" rms="4.6361508965492249e-01" purity="4.5116564631462097e-01" nType="-99"/>
          <Node pos="r" depth="2" NCoef="0" IVar="-1" Cut="0.0000000000000000e+00" cType="1" res="1.2558879097923636e-03" rms="4.6606591343879700e-01" purity="5.1079696416854858e-01" nType="-99"/>
        </Node>
        <Node pos="r" depth="1" NCoef="0" IVar="-1" Cut="0.0000000000000000e+00" cType="1" res="1.4268616214394569e-03" rms="4.0069949626922607e-01" purity="7.8285908699035645e-01" nType="-99"/>
      </Node>
    </BinaryTree>
    <BinaryTree type="DecisionTree" boostWeight="1.0000000000000000e+00" itree="394">
      <Node pos="s" depth="0" NCoef="0" IVar="0" Cut="9.5245611667633057e-01" cType="1" res="6.4345598220825195e-03" rms="4.5964878797531128e-01" purity="5.0177687406539917e-01" nType="0">
        <Node pos="l" depth="1" NCoef="0" IVar="2" Cut="9.7837257385253906e-01" cType="1" res="3.1346313655376434e-02" rms="4.5954814553260803e-01" purity="5.5797272920608521e-01" nType="0">
          <Node pos="l" depth="2" NCoef="0" IVar="-1" Cut="0.0000000000000000e+00" cType="1" res="1.2237706687301397e-03" rms="4.5789465308189392e-01" purity="5.8637410402297974e-01" nType="-99"/>
          <Node pos="r" depth="2" NCoef="0" IVar="-1" Cut="0.0000000000000000e+00" cType="1" res="-4.1251516086049378e-04" rms="4.6224021911621094e-01" purity="4.6335163712501526e-01" nType="-99"/>
        </Node>
        <Node pos="r" depth="1" NCoef="0" IVar="9" Cut="8.8515548706054688e+01" cType="1" res="-1.0701723396778107e-02" rms="4.5893365144729614e-01" purity="4.6312087774276733e-01" nType="0">
          <Node pos="l" depth="2" NCoef="0" IVar="-1" Cut="0.0000000000000000e+00" cType="1" res="-1.0124358814209700e-03" rms="4.5955112576484680e-01" purity="4.3679237365722656e-01" nType="-99"/>
          <Node pos="r" depth="2" NCoef="0" IVar="-1" Cut="0.0000000000000000e+00" cType="1" res="1.6954666352830827e-04" rms="4.5780497789382935e-01" purity="4.8401629924774170e-01" nType="-99"/>
        </Node>
      </Node>
    </BinaryTree>
    <BinaryTree type="DecisionTree" boostWeight="1.0000000000000000e+00" itree="395">
      <Node pos="s" depth="0" NCoef="0" IVar="6" Cut="1.2706452608108521e+00" cType="1" res="2.0338387694209814e-03" rms="4.5843082666397095e-01" purity="4.9759113788604736e-01" nType="0">
        <Node pos="l" depth="1" NCoef="0" IVar="4" Cut="7.1826316833496094e+01" cType="1" res="-5.1761902868747711e-02" rms="4.2441135644912720e-01" purity="2.6143124699592590e-01" nType="0">
          <Node pos="l" depth="2" NCoef="0" IVar="-1" Cut="0.0000000000000000e+00" cType="1" res="-4.2822388932108879e-03" rms="3.9534333348274231e-01" purity="2.0503599941730499e-01" nType="-99"/>
          <Node pos="r" depth="2" NCoef="0" IVar="-1" Cut="0.0000000000000000e+00" cType="1" res="-9.9780748132616282e-04" rms="4.5511618256568909e-01" purity="3.2858151197433472e-01" nType="-99"/>
        </Node>
        <Node pos="r" depth="1" NCoef="0" IVar="3" Cut="2.2903673350811005e-01" cType="1" res="9.6035553142428398e-03" rms="4.6251532435417175e-01" purity="5.3082174062728882e-01" nType="0">
          <Node pos="l" depth="2" NCoef="0" IVar="-1" Cut="0.0000000000000000e+00" cType="1" res="1.5092063695192337e-03" rms="4.6728721261024475e-01" purity="4.9275487661361694e-01" nType="-99"/>
          <Node pos="r" depth="2" NCoef="0" IVar="-1" Cut="0.0000000000000000e+00" cType="1" res="-7.8475914051523432e-06" rms="4.6079304814338684e-01" purity="5.4024761915206909e-01" nType="-99"/>
        </Node>
      </Node>
    </BinaryTree>
    <BinaryTree type="DecisionTree" boostWeight="1.0000000000000000e+00" itree="396">
      <Node pos="s" depth="0" NCoef="0" IVar="2" Cut="8.1512457132339478e-01" cType="1" res="6.4465822651982307e-03" rms="4.5843163132667542e-01" purity="5.0247317552566528e-01" nType="0">
        <Node pos="l" depth="1" NCoef="0" IVar="0" Cut="7.0032656192779541e-01" cType="1" res="2.3183474317193031e-02" rms="4.5968410372734070e-01" purity="5.4952222108840942e-01" nType="0">
          <Node pos="l" depth="2" NCoef="0" IVar="-1" Cut="0.0000000000000000e+00" cType="1" res="1.6506664687767625e-03" rms="4.5263600349426270e-01" purity="6.2091606855392456e-01" nType="-99"/>
          <Node pos="r" depth="2" NCoef="0" IVar="-1" Cut="0.0000000000000000e+00" cType="1" res="4.1886715916916728e-04" rms="4.6080616116523743e-01" purity="5.3332489728927612e-01" nType="-99"/>
        </Node>
        <Node pos="r" depth="1" NCoef="0" IVar="7" Cut="6.2769740819931030e-02" cType="1" res="-1.4620642177760601e-02" rms="4.5597773790359497e-01" purity="4.4325116276741028e-01" nType="0">
          <Node pos="l" depth="2" NCoef="0" IVar="-1" Cut="0.0000000000000000e+00" cType="1" res="-1.2526039499789476e-03" rms="4.4812864065170288e-01" purity="3.8937467336654663e-01" nType="-99"/>
          <Node pos="r" depth="2" NCoef="0" IVar="-1" Cut="0.0000000000000000e+00" cType="1" res="3.9273881702683866e-04" rms="4.6517202258110046e-01" purity="5.1770544052124023e-01" nType="-99"/>
        </Node>
      </Node>
    </BinaryTree>
    <BinaryTree type="DecisionTree" boostWeight="1.0000000000000000e+00" itree="397">
      <Node pos="s" depth="0" NCoef="0" IVar="0" Cut="1.0304117202758789e+00" cType="1" res="2.9522287659347057e-03" rms="4.5834034681320190e-01" purity="4.9815028905868530e-01" nType="0">
        <Node pos="l" depth="1" NCoef="0" IVar="2" Cut="1.0119371414184570e+00" cType="1" res="2.1838955581188202e-02" rms="4.6007642149925232e-01" purity="5.4404151439666748e-01" nType="0">
          <Node pos="l" depth="2" NCoef="0" IVar="-1" Cut="0.0000000000000000e+00" cType="1" res="9.4831135356798768e-04" rms="4.6013605594635010e-01" purity="5.6940317153930664e-01" nType="-99"/>
          <Node pos="r" depth="2" NCoef="0" IVar="-1" Cut="0.0000000000000000e+00" cType="1" res="-8.1589951878413558e-04" rms="4.5681422948837280e-01" purity="4.4456934928894043e-01" nType="-99"/>
        </Node>
        <Node pos="r" depth="1" NCoef="0" IVar="1" Cut="6.6594610595703125e+02" cType="1" res="-1.4254266396164894e-02" rms="4.5607262849807739e-01" purity="4.5634171366691589e-01" nType="0">
          <Node pos="l" depth="2" NCoef="0" IVar="-1" Cut="0.0000000000000000e+00" cType="1" res="-8.2934298552572727e-04" rms="4.5504570007324219e-01" purity="4.2481091618537903e-01" nType="-99"/>
          <Node pos="r" depth="2" NCoef="0" IVar="-1" Cut="0.0000000000000000e+00" cType="1" res="9.8467175848782063e-04" rms="4.5767071843147278e-01" purity="6.1124497652053833e-01" nType="-99"/>
        </Node>
      </Node>
    </BinaryTree>
    <BinaryTree type="DecisionTree" boostWeight="1.0000000000000000e+00" itree="398">
      <Node pos="s" depth="0" NCoef="0" IVar="4" Cut="4.2719615936279297e+01" cType="1" res="1.9557152409106493e-03" rms="4.5767447352409363e-01" purity="4.9747893214225769e-01" nType="0">
        <Node pos="l" depth="1" NCoef="0" IVar="2" Cut="5.3750205039978027e-01" cType="1" res="-3.1163509935140610e-02" rms="4.5105966925621033e-01" purity="4.2566010355949402e-01" nType="0">
          <Node pos="l" depth="2" NCoef="0" IVar="-1" Cut="0.0000000000000000e+00" cType="1" res="2.0354540902189910e-04" rms="4.5708069205284119e-01" purity="5.2045720815658569e-01" nType="-99"/>
          <Node pos="r" depth="2" NCoef="0" IVar="-1" Cut="0.0000000000000000e+00" cType="1" res="-1.4636715641245246e-03" rms="4.4887489080429077e-01" purity="4.0010505914688110e-01" nType="-99"/>
        </Node>
        <Node pos="r" depth="1" NCoef="0" IVar="9" Cut="9.0874206542968750e+01" cType="1" res="1.3066195882856846e-02" rms="4.5933759212493896e-01" purity="5.2157193422317505e-01" nType="0">
          <Node pos="l" depth="2" NCoef="0" IVar="-1" Cut="0.0000000000000000e+00" cType="1" res="-2.4318177020177245e-04" rms="4.6215528249740601e-01" purity="4.8974397778511047e-01" nType="-99"/>
          <Node pos="r" depth="2" NCoef="0" IVar="-1" Cut="0.0000000000000000e+00" cType="1" res="8.2803529221564531e-04" rms="4.5666253566741943e-01" purity="5.4476803541183472e-01" nType="-99"/>
        </Node>
      </Node>
    </BinaryTree>
    <BinaryTree type="DecisionTree" boostWeight="1.0000000000000000e+00" itree="399">
      <Node pos="s" depth="0" NCoef="0" IVar="6" Cut="4.5960006713867188e+00" cType="1" res="-2.0904762204736471e-03" rms="4.5633220672607422e-01" purity="4.9467170238494873e-01" nType="0">
        <Node pos="l" depth="1" NCoef="0" IVar="7" Cut="1.9673959910869598e-01" cType="1" res="-9.8955007269978523e-03" rms="4.6292164921760559e-01" purity="4.5064935088157654e-01" nType="0">
          <Node pos="l" depth="2" NCoef="0" IVar="-1" Cut="0.0000000000000000e+00" cType="1" res="-5.5153714492917061e-04" rms="4.6199029684066772e-01" purity="4.3637377023696899e-01" nType="-99"/>
          <Node pos="r" depth="2" NCoef="0" IVar="-1" Cut="0.0000000000000000e+00" cType="1" res="1.2897637207061052e-03" rms="4.6640413999557495e-01" purity="5.6534951925277710e-01" nType="-99"/>
        </Node>
        <Node pos="r" depth="1" NCoef="0" IVar="-1" Cut="0.0000000000000000e+00" cType="1" res="1.2048049829900265e-03" rms="4.1007256507873535e-01" purity="7.6635831594467163e-01" nType="-99"/>
      </Node>
    </BinaryTree>
    <BinaryTree type="DecisionTree" boostWeight="1.0000000000000000e+00" itree="400">
      <Node pos="s" depth="0" NCoef="0" IVar="6" Cut="2.6154558658599854e+00" cType="1" res="9.9425925873219967e-04" rms="4.5695453882217407e-01" purity="4.9878510832786560e-01" nType="0">
        <Node pos="l" depth="1" NCoef="0" IVar="3" Cut="1.4759916067123413e-01" cType="1" res="-1.9768556579947472e-02" rms="4.5457443594932556e-01" purity="3.5279697179794312e-01" nType="0">
          <Node pos="l" depth="2" NCoef="0" IVar="-1" Cut="0.0000000000000000e+00" cType="1" res="1.2757286895066500e-03" rms="4.6274888515472412e-01" purity="4.0857300162315369e-01" nType="-99"/>
          <Node pos="r" depth="2" NCoef="0" IVar="-1" Cut="0.0000000000000000e+00" cType="1" res="-1.2585972435772419e-03" rms="4.5154145359992981e-01" purity="3.3916130661964417e-01" nType="-99"/>
        </Node>
        <Node pos="r" depth="1" NCoef="0" IVar="3" Cut="4.6129795908927917e-01" cType="1" res="1.8720347434282303e-02" rms="4.5823290944099426e-01" purity="6.2342131137847900e-01" nType="0">
          <Node pos="l" depth="2" NCoef="0" IVar="-1" Cut="0.0000000000000000e+00" cType="1" res="1.3262210413813591e-03" rms="4.6373578906059265e-01" purity="6.0981392860412598e-01" nType="-99"/>
          <Node pos="r" depth="2" NCoef="0" IVar="-1" Cut="0.0000000000000000e+00" cType="1" res="8.9531895355321467e-05" rms="4.5480665564537048e-01" purity="6.2984031438827515e-01" nType="-99"/>
        </Node>
      </Node>
    </BinaryTree>
    <BinaryTree type="DecisionTree" boostWeight="1.0000000000000000e+00" itree="401">
      <Node pos="s" depth="0" NCoef="0" IVar="6" Cut="3.3836989402770996e+00" cType="1" res="-8.6556799942627549e-04" rms="4.5607966184616089e-01" purity="4.9595531821250916e-01" nType="0">
        <Node pos="l" depth="1" NCoef="0" IVar="3" Cut="2.2715026140213013e-01" cType="1" res="-1.8105074763298035e-02" rms="4.6155649423599243e-01" purity="3.9179065823554993e-01" nType="0">
          <Node pos="l" depth="2" NCoef="0" IVar="-1" Cut="0.0000000000000000e+00" cType="1" res="4.9392093205824494e-04" rms="4.5900699496269226e-01" purity="4.0001341700553894e-01" nType="-99"/>
          <Node pos="r" depth="2" NCoef="0" IVar="-1" Cut="0.0000000000000000e+00" cType="1" res="-1.3777212006971240e-03" rms="4.6204194426536560e-01" purity="3.8582202792167664e-01" nType="-99"/>
        </Node>
        <Node pos="r" depth="1" NCoef="0" IVar="3" Cut="4.7649243474006653e-01" cType="1" res="3.0492607504129410e-02" rms="4.4423305988311768e-01" purity="6.8542784452438354e-01" nType="0">
          <Node pos="l" depth="2" NCoef="0" IVar="-1" Cut="0.0000000000000000e+00" cType="1" res="2.2328081540763378e-03" rms="4.3134057521820068e-01" purity="7.2116583585739136e-01" nType="-99"/>
          <Node pos="r" depth="2" NCoef="0" IVar="-1" Cut="0.0000000000000000e+00" cType="1" res="3.6080763675272465e-04" rms="4.4599506258964539e-01" purity="6.7615234851837158e-01" nType="-99"/>
        </Node>
      </Node>
    </BinaryTree>
    <BinaryTree type="DecisionTree" boostWeight="1.0000000000000000e+00" itree="402">
      <Node pos="s" depth="0" NCoef="0" IVar="3" Cut="1.7095439136028290e-01" cType="1" res="3.7277457304298878e-03" rms="4.5842695236206055e-01" purity="5.0082093477249146e-01" nType="0">
        <Node pos="l" depth="1" NCoef="0" IVar="6" Cut="1.3624405860900879e+00" cType="1" res="4.2061466723680496e-02" rms="4.6404388546943665e-01" purity="4.3433329463005066e-01" nType="0">
          <Node pos="l" depth="2" NCoef="0" IVar="-1" Cut="0.0000000000000000e+00" cType="1" res="-6.6521787084639072e-04" rms="4.4480866193771362e-01" purity="3.1503012776374817e-01" nType="-99"/>
          <Node pos="r" depth="2" NCoef="0" IVar="-1" Cut="0.0000000000000000e+00" cType="1" res="2.7859664987772703e-03" rms="4.7558292746543884e-01" purity="5.5260097980499268e-01" nType="-99"/>
        </Node>
        <Node pos="r" depth="1" NCoef="0" IVar="6" Cut="4.3003430366516113e+00" cType="1" res="-3.7001208402216434e-03" rms="4.5695880055427551e-01" purity="5.1370418071746826e-01" nType="0">
          <Node pos="l" depth="2" NCoef="0" IVar="-1" Cut="0.0000000000000000e+00" cType="1" res="-4.4253733358345926e-04" rms="4.6578362584114075e-01" purity="4.5059207081794739e-01" nType="-99"/>
          <Node pos="r" depth="2" NCoef="0" IVar="-1" Cut="0.0000000000000000e+00" cType="1" res="9.0997549705207348e-04" rms="4.2095541954040527e-01" purity="7.4412226676940918e-01" nType="-99"/>
        </Node>
      </Node>
    </BinaryTree>
    <BinaryTree type="DecisionTree" boostWeight="1.0000000000000000e+00" itree="403">
      <Node pos="s" depth="0" NCoef="0" IVar="5" Cut="2.1390764713287354e+00" cType="1" res="4.7362344339489937e-03" rms="4.5839098095893860e-01" purity="5.0120061635971069e-01" nType="0">
        <Node pos="l" depth="1" NCoef="0" IVar="3" Cut="1.9032163918018341e-01" cType="1" res="2.7180921286344528e-02" rms="4.5937040448188782e-01" purity="5.7519924640655518e-01" nType="0">
          <Node pos="l" depth="2" NCoef="0" IVar="-1" Cut="0.0000000000000000e+00" cType="1" res="2.3075842764228582e-03" rms="4.7196364402770996e-01" purity="5.2079087495803833e-01" nType="-99"/>
          <Node pos="r" depth="2" NCoef="0" IVar="-1" Cut="0.0000000000000000e+00" cType="1" res="3.8536370266228914e-04" rms="4.5514428615570068e-01" purity="5.8922433853149414e-01" nType="-99"/>
        </Node>
        <Node pos="r" depth="1" NCoef="0" IVar="9" Cut="9.3793846130371094e+01" cType="1" res="-1.0461596772074699e-02" rms="4.5710125565528870e-01" purity="4.5109435915946960e-01" nType="0">
          <Node pos="l" depth="2" NCoef="0" IVar="-1" Cut="0.0000000000000000e+00" cType="1" res="-1.5798942185938358e-03" rms="4.5254069566726685e-01" purity="3.8986283540725708e-01" nType="-99"/>
          <Node pos="r" depth="2" NCoef="0" IVar="-1" Cut="0.0000000000000000e+00" cType="1" res="2.0141876302659512e-04" rms="4.5843902230262756e-01" purity="4.8176312446594238e-01" nType="-99"/>
        </Node>
      </Node>
    </BinaryTree>
    <BinaryTree type="DecisionTree" boostWeight="1.0000000000000000e+00" itree="404">
      <Node pos="s" depth="0" NCoef="0" IVar="0" Cut="9.4100344181060791e-01" cType="1" res="5.3035980090498924e-03" rms="4.5838302373886108e-01" purity="5.0077110528945923e-01" nType="0">
        <Node pos="l" depth="1" NCoef="0" IVar="7" Cut="-7.1113840676844120e-03" cType="1" res="3.1388651579618454e-02" rms="4.5759677886962891e-01" purity="5.5770230293273926e-01" nType="0">
          <Node pos="l" depth="2" NCoef="0" IVar="-1" Cut="0.0000000000000000e+00" cType="1" res="3.0473948572762311e-04" rms="4.5870479941368103e-01" purity="5.1090371608734131e-01" nType="-99"/>
          <Node pos="r" depth="2" NCoef="0" IVar="-1" Cut="0.0000000000000000e+00" cType="1" res="1.3491217978298664e-03" rms="4.5585986971855164e-01" purity="5.9780514240264893e-01" nType="-99"/>
        </Node>
        <Node pos="r" depth="1" NCoef="0" IVar="6" Cut="4.1242313385009766e+00" cType="1" res="-1.1644802987575531e-02" rms="4.5809778571128845e-01" purity="4.6378087997436523e-01" nType="0">
          <Node pos="l" depth="2" NCoef="0" IVar="-1" Cut="0.0000000000000000e+00" cType="1" res="-7.9474545782431960e-04" rms="4.6316647529602051e-01" purity="3.9866903424263000e-01" nType="-99"/>
          <Node pos="r" depth="2" NCoef="0" IVar="-1" Cut="0.0000000000000000e+00" cType="1" res="8.4703619359061122e-04" rms="4.3492084741592407e-01" purity="7.1758913993835449e-01" nType="-99"/>
        </Node>
      </Node>
    </BinaryTree>
    <BinaryTree type="DecisionTree" boostWeight="1.0000000000000000e+00" itree="405">
      <Node pos="s" depth="0" NCoef="0" IVar="4" Cut="1.0424610137939453e+02" cType="1" res="3.2790354453027248e-03" rms="4.5823460817337036e-01" purity="5.0000470876693726e-01" nType="0">
        <Node pos="l" depth="1" NCoef="0" IVar="0" Cut="8.9888846874237061e-01" cType="1" res="-6.8593388423323631e-03" rms="4.5707488059997559e-01" purity="4.7030815482139587e-01" nType="0">
          <Node pos="l" depth="2" NCoef="0" IVar="-1" Cut="0.0000000000000000e+00" cType="1" res="6.1640708008781075e-04" rms="4.6165472269058228e-01" purity="5.3171736001968384e-01" nType="-99"/>
          <Node pos="r" depth="2" NCoef="0" IVar="-1" Cut="0.0000000000000000e+00" cType="1" res="-7.3810719186440110e-04" rms="4.5385122299194336e-01" purity="4.3696865439414978e-01" nType="-99"/>
        </Node>
        <Node pos="r" depth="1" NCoef="0" IVar="5" Cut="2.2411429882049561e+00" cType="1" res="3.3413730561733246e-02" rms="4.6034818887710571e-01" purity="5.8827292919158936e-01" nType="0">
          <Node pos="l" depth="2" NCoef="0" IVar="-1" Cut="0.0000000000000000e+00" cType="1" res="1.2735386844724417e-03" rms="4.5912680029869080e-01" purity="6.4070701599121094e-01" nType="-99"/>
          <Node pos="r" depth="2" NCoef="0" IVar="-1" Cut="0.0000000000000000e+00" cType="1" res="2.9290528618730605e-04" rms="4.6121767163276672e-01" purity="5.0800991058349609e-01" nType="-99"/>
        </Node>
      </Node>
    </BinaryTree>
    <BinaryTree type="DecisionTree" boostWeight="1.0000000000000000e+00" itree="406">
      <Node pos="s" depth="0" NCoef="0" IVar="8" Cut="9.2840309143066406e+01" cType="1" res="3.5365179646760225e-03" rms="4.5796546339988708e-01" purity="4.9866783618927002e-01" nType="0">
        <Node pos="l" depth="1" NCoef="0" IVar="-1" Cut="0.0000000000000000e+00" cType="1" res="-1.6330338548868895e-03" rms="4.6117076277732849e-01" purity="4.1369181871414185e-01" nType="-99"/>
        <Node pos="r" depth="1" NCoef="0" IVar="5" Cut="1.7212722301483154e+00" cType="1" res="9.2505877837538719e-03" rms="4.5725086331367493e-01" purity="5.0815272331237793e-01" nType="0">
          <Node pos="l" depth="2" NCoef="0" IVar="-1" Cut="0.0000000000000000e+00" cType="1" res="1.4316629385575652e-03" rms="4.5135146379470825e-01" purity="6.2923139333724976e-01" nType="-99"/>
          <Node pos="r" depth="2" NCoef="0" IVar="-1" Cut="0.0000000000000000e+00" cType="1" res="7.8021686931606382e-05" rms="4.5773932337760925e-01" purity="4.9015951156616211e-01" nType="-99"/>
        </Node>
      </Node>
    </BinaryTree>
    <BinaryTree type="DecisionTree" boostWeight="1.0000000000000000e+00" itree="407">
      <Node pos="s" depth="0" NCoef="0" IVar="7" Cut="1.7293287813663483e-01" cType="1" res="2.4279574863612652e-03" rms="4.5795524120330811e-01" purity="4.9882817268371582e-01" nType="0">
        <Node pos="l" depth="1" NCoef="0" IVar="2" Cut="7.6512396335601807e-01" cType="1" res="-5.1343892700970173e-03" rms="4.5801618695259094e-01" purity="4.8196250200271606e-01" nType="0">
          <Node pos="l" depth="2" NCoef="0" IVar="-1" Cut="0.0000000000000000e+00" cType="1" res="3.4904305357486010e-04" rms="4.6006941795349121e-01" purity="5.3751319646835327e-01" nType="-99"/>
          <Node pos="r" depth="2" NCoef="0" IVar="-1" Cut="0.0000000000000000e+00" cType="1" res="-7.6906237518414855e-04" rms="4.5520579814910889e-01" purity="4.2438995838165283e-01" nType="-99"/>
        </Node>
        <Node pos="r" depth="1" NCoef="0" IVar="9" Cut="9.1665702819824219e+01" cType="1" res="4.6031899750232697e-02" rms="4.5515939593315125e-01" purity="5.9607440233230591e-01" nType="0">
          <Node pos="l" depth="2" NCoef="0" IVar="-1" Cut="0.0000000000000000e+00" cType="1" res="5.8149499818682671e-04" rms="4.6158087253570557e-01" purity="5.4908281564712524e-01" nType="-99"/>
          <Node pos="r" depth="2" NCoef="0" IVar="-1" Cut="0.0000000000000000e+00" cType="1" res="1.8689585849642754e-03" rms="4.4730979204177856e-01" purity="6.4241135120391846e-01" nType="-99"/>
        </Node>
      </Node>
    </BinaryTree>
    <BinaryTree type="DecisionTree" boostWeight="1.0000000000000000e+00" itree="408">
      <Node pos="s" depth="0" NCoef="0" IVar="1" Cut="4.1057211303710938e+02" cType="1" res="7.3626544326543808e-03" rms="4.5616438984870911e-01" purity="5.0563335418701172e-01" nType="0">
        <Node pos="l" depth="1" NCoef="0" IVar="7" Cut="-1.8314549233764410e-03" cType="1" res="-3.3716715872287750e-02" rms="4.3263652920722961e-01" purity="3.2182049751281738e-01" nType="0">
          <Node pos="l" depth="2" NCoef="0" IVar="-1" Cut="0.0000000000000000e+00" cType="1" res="-3.1232929322868586e-03" rms="4.1276794672012329e-01" purity="2.5865876674652100e-01" nType="-99"/>
          <Node pos="r" depth="2" NCoef="0" IVar="-1" Cut="0.0000000000000000e+00" cType="1" res="-1.1839810031233355e-04" rms="4.4885206222534180e-01" purity="3.8265967369079590e-01" nType="-99"/>
        </Node>
        <Node pos="r" depth="1" NCoef="0" IVar="6" Cut="3.4205920696258545e+00" cType="1" res="1.6201196238398552e-02" rms="4.6059098839759827e-01" purity="5.4518210887908936e-01" nType="0">
          <Node pos="l" depth="2" NCoef="0" IVar="-1" Cut="0.0000000000000000e+00" cType="1" res="7.1843562182039022e-05" rms="4.7454661130905151e-01" purity="4.4754099845886230e-01" nType="-99"/>
          <Node pos="r" depth="2" NCoef="0" IVar="-1" Cut="0.0000000000000000e+00" cType="1" res="1.0167092550545931e-03" rms="4.3435710668563843e-01" purity="7.1400797367095947e-01" nType="-99"/>
        </Node>
      </Node>
    </BinaryTree>
    <BinaryTree type="DecisionTree" boostWeight="1.0000000000000000e+00" itree="409">
      <Node pos="s" depth="0" NCoef="0" IVar="6" Cut="1.1498848199844360e+00" cType="1" res="3.3144494518637657e-03" rms="4.5670285820960999e-01" purity="4.9993908405303955e-01" nType="0">
        <Node pos="l" depth="1" NCoef="0" IVar="-1" Cut="0.0000000000000000e+00" cType="1" res="-2.7826437726616859e-03" rms="4.1970637440681458e-01" purity="2.5407662987709045e-01" nType="-99"/>
        <Node pos="r" depth="1" NCoef="0" IVar="3" Cut="1.9032652676105499e-01" cType="1" res="9.8958881571888924e-03" rms="4.6010631322860718e-01" purity="5.2692079544067383e-01" nType="0">
          <Node pos="l" depth="2" NCoef="0" IVar="-1" Cut="0.0000000000000000e+00" cType="1" res="2.2023420315235853e-03" rms="4.6866604685783386e-01" purity="5.1223349571228027e-01" nType="-99"/>
          <Node pos="r" depth="2" NCoef="0" IVar="-1" Cut="0.0000000000000000e+00" cType="1" res="-9.7080737759824842e-06" rms="4.5788118243217468e-01" purity="5.2931630611419678e-01" nType="-99"/>
        </Node>
      </Node>
    </BinaryTree>
    <BinaryTree type="DecisionTree" boostWeight="1.0000000000000000e+00" itree="410">
      <Node pos="s" depth="0" NCoef="0" IVar="3" Cut="1.9032096862792969e-01" cType="1" res="4.0008430369198322e-03" rms="4.5779350399971008e-01" purity="5.0070059299468994e-01" nType="0">
        <Node pos="l" depth="1" NCoef="0" IVar="6" Cut="1.0012024641036987e+00" cType="1" res="4.3736010789871216e-02" rms="4.6332356333732605e-01" purity="4.3801176548004150e-01" nType="0">
          <Node pos="l" depth="2" NCoef="0" IVar="-1" Cut="0.0000000000000000e+00" cType="1" res="-9.7427039872854948e-04" rms="4.3977007269859314e-01" purity="2.9268142580986023e-01" nType="-99"/>
          <Node pos="r" depth="2" NCoef="0" IVar="-1" Cut="0.0000000000000000e+00" cType="1" res="2.2098971530795097e-03" rms="4.7048920392990112e-01" purity="5.0145632028579712e-01" nType="-99"/>
        </Node>
        <Node pos="r" depth="1" NCoef="0" IVar="6" Cut="2.9338254928588867e+00" cType="1" res="-6.1191488057374954e-03" rms="4.5582127571105957e-01" purity="5.1666647195816040e-01" nType="0">
          <Node pos="l" depth="2" NCoef="0" IVar="-1" Cut="0.0000000000000000e+00" cType="1" res="-1.2886931654065847e-03" rms="4.5505893230438232e-01" purity="3.5538899898529053e-01" nType="-99"/>
          <Node pos="r" depth="2" NCoef="0" IVar="-1" Cut="0.0000000000000000e+00" cType="1" res="4.4393513235263526e-04" rms="4.5508208870887756e-01" purity="6.4323544502258301e-01" nType="-99"/>
        </Node>
      </Node>
    </BinaryTree>
    <BinaryTree type="DecisionTree" boostWeight="1.0000000000000000e+00" itree="411">
      <Node pos="s" depth="0" NCoef="0" IVar="8" Cut="9.2307037353515625e+01" cType="1" res="2.1270473953336477e-03" rms="4.5695498585700989e-01" purity="5.0073003768920898e-01" nType="0">
        <Node pos="l" depth="1" NCoef="0" IVar="-1" Cut="0.0000000000000000e+00" cType="1" res="-1.8375280778855085e-03" rms="4.5385825634002686e-01" purity="4.1324904561042786e-01" nType="-99"/>
        <Node pos="r" depth="1" NCoef="0" IVar="6" Cut="3.4133126735687256e+00" cType="1" res="8.2167489454150200e-03" rms="4.5687955617904663e-01" purity="5.1027917861938477e-01" nType="0">
          <Node pos="l" depth="2" NCoef="0" IVar="-1" Cut="0.0000000000000000e+00" cType="1" res="-1.7034434131346643e-04" rms="4.6587955951690674e-01" purity="4.0906673669815063e-01" nType="-99"/>
          <Node pos="r" depth="2" NCoef="0" IVar="-1" Cut="0.0000000000000000e+00" cType="1" res="8.2414434291422367e-04" rms="4.3902906775474548e-01" purity="6.9420921802520752e-01" nType="-99"/>
        </Node>
      </Node>
    </BinaryTree>
    <BinaryTree type="DecisionTree" boostWeight="1.0000000000000000e+00" itree="412">
      <Node pos="s" depth="0" NCoef="0" IVar="7" Cut="-7.3272772133350372e-02" cType="1" res="3.5946590360254049e-03" rms="4.5808732509613037e-01" purity="4.9947249889373779e-01" nType="0">
        <Node pos="l" depth="1" NCoef="0" IVar="9" Cut="9.0640457153320312e+01" cType="1" res="-3.2931569963693619e-02" rms="4.4837927818298340e-01" purity="4.1685941815376282e-01" nType="0">
          <Node pos="l" depth="2" NCoef="0" IVar="-1" Cut="0.0000000000000000e+00" cType="1" res="-2.7163336053490639e-03" rms="4.4228607416152954e-01" purity="3.6549609899520874e-01" nType="-99"/>
          <Node pos="r" depth="2" NCoef="0" IVar="-1" Cut="0.0000000000000000e+00" cType="1" res="-3.1110207783058286e-04" rms="4.5031222701072693e-01" purity="4.4747030735015869e-01" nType="-99"/>
        </Node>
        <Node pos="r" depth="1" NCoef="0" IVar="3" Cut="2.2903119027614594e-01" cType="1" res="1.4051827602088451e-02" rms="4.6029564738273621e-01" purity="5.2312397956848145e-01" nType="0">
          <Node pos="l" depth="2" NCoef="0" IVar="-1" Cut="0.0000000000000000e+00" cType="1" res="1.4288456877693534e-03" rms="4.6374621987342834e-01" purity="4.5138093829154968e-01" nType="-99"/>
          <Node pos="r" depth="2" NCoef="0" IVar="-1" Cut="0.0000000000000000e+00" cType="1" res="7.3644587246235460e-05" rms="4.5842340588569641e-01" purity="5.5134266614913940e-01" nType="-99"/>
        </Node>
      </Node>
    </BinaryTree>
    <BinaryTree type="DecisionTree" boostWeight="1.0000000000000000e+00" itree="413">
      <Node pos="s" depth="0" NCoef="0" IVar="5" Cut="2.7819211483001709e+00" cType="1" res="3.4278726670891047e-03" rms="4.5843726396560669e-01" purity="4.9998307228088379e-01" nType="0">
        <Node pos="l" depth="1" NCoef="0" IVar="9" Cut="9.1445404052734375e+01" cType="1" res="8.3541246131062508e-03" rms="4.6191143989562988e-01" purity="5.2054572105407715e-01" nType="0">
          <Node pos="l" depth="2" NCoef="0" IVar="-1" Cut="0.0000000000000000e+00" cType="1" res="-4.9307261360809207e-04" rms="4.6298265457153320e-01" purity="4.7312772274017334e-01" nType="-99"/>
          <Node pos="r" depth="2" NCoef="0" IVar="-1" Cut="0.0000000000000000e+00" cType="1" res="8.1991206388920546e-04" rms="4.5999944210052490e-01" purity="5.6098139286041260e-01" nType="-99"/>
        </Node>
        <Node pos="r" depth="1" NCoef="0" IVar="-1" Cut="0.0000000000000000e+00" cType="1" res="-2.7737847995012999e-03" rms="4.0872380137443542e-01" purity="2.4808260798454285e-01" nType="-99"/>
      </Node>
    </BinaryTree>
    <BinaryTree type="DecisionTree" boostWeight="1.0000000000000000e+00" itree="414">
      <Node pos="s" depth="0" NCoef="0" IVar="7" Cut="1.6796977818012238e-01" cType="1" res="2.2252548951655626e-03" rms="4.5620906352996826e-01" purity="4.9831351637840271e-01" nType="0">
        <Node pos="l" depth="1" NCoef="0" IVar="6" Cut="2.0700516700744629e+00" cType="1" res="-6.3032619655132294e-03" rms="4.5533886551856995e-01" purity="4.8023152351379395e-01" nType="0">
          <Node pos="l" depth="2" NCoef="0" IVar="-1" Cut="0.0000000000000000e+00" cType="1" res="-1.5922222519293427e-03" rms="4.3654325604438782e-01" purity="2.9403382539749146e-01" nType="-99"/>
          <Node pos="r" depth="2" NCoef="0" IVar="-1" Cut="0.0000000000000000e+00" cType="1" res="2.2220917162485421e-04" rms="4.6328899264335632e-01" purity="5.6841957569122314e-01" nType="-99"/>
        </Node>
        <Node pos="r" depth="1" NCoef="0" IVar="3" Cut="2.8710204362869263e-01" cType="1" res="4.8719730228185654e-02" rms="4.5814073085784912e-01" purity="5.9689003229141235e-01" nType="0">
          <Node pos="l" depth="2" NCoef="0" IVar="-1" Cut="0.0000000000000000e+00" cType="1" res="2.3792544379830360e-03" rms="4.6709558367729187e-01" purity="5.4000180959701538e-01" nType="-99"/>
          <Node pos="r" depth="2" NCoef="0" IVar="-1" Cut="0.0000000000000000e+00" cType="1" res="7.7367824269458652e-04" rms="4.5206156373023987e-01" purity="6.2733620405197144e-01" nType="-99"/>
        </Node>
      </Node>
    </BinaryTree>
    <BinaryTree type="DecisionTree" boostWeight="1.0000000000000000e+00" itree="415">
      <Node pos="s" depth="0" NCoef="0" IVar="6" Cut="3.3880743980407715e+00" cType="1" res="-2.1609424147754908e-03" rms="4.5395091176033020e-01" purity="4.9648758769035339e-01" nType="0">
        <Node pos="l" depth="1" NCoef="0" IVar="9" Cut="1.5717530822753906e+02" cType="1" res="-1.8017517402768135e-02" rms="4.5926690101623535e-01" purity="3.9218559861183167e-01" nType="0">
          <Node pos="l" depth="2" NCoef="0" IVar="-1" Cut="0.0000000000000000e+00" cType="1" res="-9.3551661120727658e-04" rms="4.5789507031440735e-01" purity="3.8250204920768738e-01" nType="-99"/>
          <Node pos="r" depth="2" NCoef="0" IVar="-1" Cut="0.0000000000000000e+00" cType="1" res="1.3649360043928027e-03" rms="4.6422573924064636e-01" purity="4.5918250083923340e-01" nType="-99"/>
        </Node>
        <Node pos="r" depth="1" NCoef="0" IVar="3" Cut="5.5670768022537231e-01" cType="1" res="2.6509240269660950e-02" rms="4.4273826479911804e-01" purity="6.8507546186447144e-01" nType="0">
          <Node pos="l" depth="2" NCoef="0" IVar="-1" Cut="0.0000000000000000e+00" cType="1" res="1.7609097994863987e-03" rms="4.3776550889015198e-01" purity="7.0519542694091797e-01" nType="-99"/>
          <Node pos="r" depth="2" NCoef="0" IVar="-1" Cut="0.0000000000000000e+00" cType="1" res="2.1114062110427767e-04" rms="4.4332152605056763e-01" purity="6.7712718248367310e-01" nType="-99"/>
        </Node>
      </Node>
    </BinaryTree>
    <BinaryTree type="DecisionTree" boostWeight="1.0000000000000000e+00" itree="416">
      <Node pos="s" depth="0" NCoef="0" IVar="7" Cut="9.1537639498710632e-02" cType="1" res="-9.8143762443214655e-04" rms="4.5565050840377808e-01" purity="4.9636769294738770e-01" nType="0">
        <Node pos="l" depth="1" NCoef="0" IVar="1" Cut="5.1910333251953125e+02" cType="1" res="-1.3514597900211811e-02" rms="4.5323732495307922e-01" purity="4.6779653429985046e-01" nType="0">
          <Node pos="l" depth="2" NCoef="0" IVar="-1" Cut="0.0000000000000000e+00" cType="1" res="-1.2597274035215378e-03" rms="4.4007176160812378e-01" purity="3.7239080667495728e-01" nType="-99"/>
          <Node pos="r" depth="2" NCoef="0" IVar="-1" Cut="0.0000000000000000e+00" cType="1" res="1.5175975568126887e-04" rms="4.6415001153945923e-01" purity="5.5503410100936890e-01" nType="-99"/>
        </Node>
        <Node pos="r" depth="1" NCoef="0" IVar="9" Cut="9.8439819335937500e+01" cType="1" res="2.8954962268471718e-02" rms="4.5998355746269226e-01" purity="5.6461203098297119e-01" nType="0">
          <Node pos="l" depth="2" NCoef="0" IVar="-1" Cut="0.0000000000000000e+00" cType="1" res="1.9228513701818883e-04" rms="4.6693804860115051e-01" purity="5.2276301383972168e-01" nType="-99"/>
          <Node pos="r" depth="2" NCoef="0" IVar="-1" Cut="0.0000000000000000e+00" cType="1" res="1.4856755733489990e-03" rms="4.5038297772407532e-01" purity="6.1324870586395264e-01" nType="-99"/>
        </Node>
      </Node>
    </BinaryTree>
    <BinaryTree type="DecisionTree" boostWeight="1.0000000000000000e+00" itree="417">
      <Node pos="s" depth="0" NCoef="0" IVar="4" Cut="6.8523376464843750e+01" cType="1" res="3.3908414188772440e-03" rms="4.5706385374069214e-01" purity="4.9933254718780518e-01" nType="0">
        <Node pos="l" depth="1" NCoef="0" IVar="0" Cut="1.3620864152908325e+00" cType="1" res="-1.5440055169165134e-02" rms="4.5285165309906006e-01" purity="4.4902300834655762e-01" nType="0">
          <Node pos="l" depth="2" NCoef="0" IVar="-1" Cut="0.0000000000000000e+00" cType="1" res="-1.2308878649491817e-04" rms="4.5644348859786987e-01" purity="4.7782695293426514e-01" nType="-99"/>
          <Node pos="r" depth="2" NCoef="0" IVar="-1" Cut="0.0000000000000000e+00" cType="1" res="-1.8518596189096570e-03" rms="4.4021421670913696e-01" purity="3.6330589652061462e-01" nType="-99"/>
        </Node>
        <Node pos="r" depth="1" NCoef="0" IVar="5" Cut="1.6811691522598267e+00" cType="1" res="2.2215442731976509e-02" rms="4.6046715974807739e-01" purity="5.4962521791458130e-01" nType="0">
          <Node pos="l" depth="2" NCoef="0" IVar="-1" Cut="0.0000000000000000e+00" cType="1" res="1.7948186723515391e-03" rms="4.4020864367485046e-01" purity="6.5944898128509521e-01" nType="-99"/>
          <Node pos="r" depth="2" NCoef="0" IVar="-1" Cut="0.0000000000000000e+00" cType="1" res="4.1627953760325909e-04" rms="4.6326422691345215e-01" purity="5.3134483098983765e-01" nType="-99"/>
        </Node>
      </Node>
    </BinaryTree>
    <BinaryTree type="DecisionTree" boostWeight="1.0000000000000000e+00" itree="418">
      <Node pos="s" depth="0" NCoef="0" IVar="6" Cut="4.9472408294677734e+00" cType="1" res="1.1977533577010036e-03" rms="4.5621263980865479e-01" purity="4.9817475676536560e-01" nType="0">
        <Node pos="l" depth="1" NCoef="0" IVar="4" Cut="7.0725860595703125e+01" cType="1" res="-5.1896581426262856e-03" rms="4.6230447292327881e-01" purity="4.6639600396156311e-01" nType="0">
          <Node pos="l" depth="2" NCoef="0" IVar="-1" Cut="0.0000000000000000e+00" cType="1" res="-7.9688610276207328e-04" rms="4.5562255382537842e-01" purity="4.1707527637481689e-01" nType="-99"/>
          <Node pos="r" depth="2" NCoef="0" IVar="-1" Cut="0.0000000000000000e+00" cType="1" res="4.4283157330937684e-04" rms="4.6874776482582092e-01" purity="5.2108329534530640e-01" nType="-99"/>
        </Node>
        <Node pos="r" depth="1" NCoef="0" IVar="-1" Cut="0.0000000000000000e+00" cType="1" res="1.6039868351072073e-03" rms="3.8942971825599670e-01" purity="7.9634219408035278e-01" nType="-99"/>
      </Node>
    </BinaryTree>
    <BinaryTree type="DecisionTree" boostWeight="1.0000000000000000e+00" itree="419">
      <Node pos="s" depth="0" NCoef="0" IVar="6" Cut="4.1329174041748047e+00" cType="1" res="-3.5536715295165777e-03" rms="4.5651555061340332e-01" purity="4.9187287688255310e-01" nType="0">
        <Node pos="l" depth="1" NCoef="0" IVar="7" Cut="1.9711939990520477e-01" cType="1" res="-1.2906361371278763e-02" rms="4.6322390437126160e-01" purity="4.2894381284713745e-01" nType="0">
          <Node pos="l" depth="2" NCoef="0" IVar="-1" Cut="0.0000000000000000e+00" cType="1" res="-6.5714790252968669e-04" rms="4.6109810471534729e-01" purity="4.1542848944664001e-01" nType="-99"/>
          <Node pos="r" depth="2" NCoef="0" IVar="-1" Cut="0.0000000000000000e+00" cType="1" res="1.1905063875019550e-03" rms="4.7665131092071533e-01" purity="5.3979408740997314e-01" nType="-99"/>
        </Node>
        <Node pos="r" depth="1" NCoef="0" IVar="4" Cut="8.4857849121093750e+01" cType="1" res="3.2125409692525864e-02" rms="4.2809158563613892e-01" purity="7.3193764686584473e-01" nType="0">
          <Node pos="l" depth="2" NCoef="0" IVar="-1" Cut="0.0000000000000000e+00" cType="1" res="3.7678613443858922e-04" rms="4.4082406163215637e-01" purity="7.0118850469589233e-01" nType="-99"/>
          <Node pos="r" depth="2" NCoef="0" IVar="-1" Cut="0.0000000000000000e+00" cType="1" res="1.4947783201932907e-03" rms="4.0696856379508972e-01" purity="7.7769017219543457e-01" nType="-99"/>
        </Node>
      </Node>
    </BinaryTree>
    <BinaryTree type="DecisionTree" boostWeight="1.0000000000000000e+00" itree="420">
      <Node pos="s" depth="0" NCoef="0" IVar="1" Cut="3.9062829589843750e+02" cType="1" res="6.1226636171340942e-03" rms="4.5692208409309387e-01" purity="5.0328177213668823e-01" nType="0">
        <Node pos="l" depth="1" NCoef="0" IVar="1" Cut="3.5185577392578125e+02" cType="1" res="-4.5538373291492462e-02" rms="4.2432099580764771e-01" purity="2.9322156310081482e-01" nType="0">
          <Node pos="l" depth="2" NCoef="0" IVar="-1" Cut="0.0000000000000000e+00" cType="1" res="-3.7823969032615423e-03" rms="4.0046611428260803e-01" purity="2.4622489511966705e-01" nType="-99"/>
          <Node pos="r" depth="2" NCoef="0" IVar="-1" Cut="0.0000000000000000e+00" cType="1" res="-9.8230806179344654e-04" rms="4.3830755352973938e-01" purity="3.2484787702560425e-01" nType="-99"/>
        </Node>
        <Node pos="r" depth="1" NCoef="0" IVar="2" Cut="8.1713211536407471e-01" cType="1" res="1.3488655909895897e-02" rms="4.6091142296791077e-01" purity="5.3323280811309814e-01" nType="0">
          <Node pos="l" depth="2" NCoef="0" IVar="-1" Cut="0.0000000000000000e+00" cType="1" res="8.2418066449463367e-04" rms="4.5925027132034302e-01" purity="5.7800507545471191e-01" nType="-99"/>
          <Node pos="r" depth="2" NCoef="0" IVar="-1" Cut="0.0000000000000000e+00" cType="1" res="-2.2833744878880680e-04" rms="4.6224668622016907e-01" purity="4.7475877404212952e-01" nType="-99"/>
        </Node>
      </Node>
    </BinaryTree>
    <BinaryTree type="DecisionTree" boostWeight="1.0000000000000000e+00" itree="421">
      <Node pos="s" depth="0" NCoef="0" IVar="6" Cut="5.0886235237121582e+00" cType="1" res="3.7774126976728439e-03" rms="4.5609775185585022e-01" purity="5.0140672922134399e-01" nType="0">
        <Node pos="l" depth="1" NCoef="0" IVar="3" Cut="5.3871494531631470e-01" cType="1" res="-2.4620380718261003e-03" rms="4.6225944161415100e-01" purity="4.7217908501625061e-01" nType="0">
          <Node pos="l" depth="2" NCoef="0" IVar="-1" Cut="0.0000000000000000e+00" cType="1" res="2.9749178793281317e-04" rms="4.5948886871337891e-01" purity="4.4260042905807495e-01" nType="-99"/>
          <Node pos="r" depth="2" NCoef="0" IVar="-1" Cut="0.0000000000000000e+00" cType="1" res="-9.6332974499091506e-04" rms="4.6839639544487000e-01" purity="5.5475157499313354e-01" nType="-99"/>
        </Node>
        <Node pos="r" depth="1" NCoef="0" IVar="-1" Cut="0.0000000000000000e+00" cType="1" res="1.8460345454514027e-03" rms="3.7825876474380493e-01" purity="8.1201374530792236e-01" nType="-99"/>
      </Node>
    </BinaryTree>
    <BinaryTree type="DecisionTree" boostWeight="1.0000000000000000e+00" itree="422">
      <Node pos="s" depth="0" NCoef="0" IVar="6" Cut="5.0909295082092285e+00" cType="1" res="6.3699879683554173e-03" rms="4.5785608887672424e-01" purity="5.0360018014907837e-01" nType="0">
        <Node pos="l" depth="1" NCoef="0" IVar="4" Cut="1.6409446716308594e+02" cType="1" res="7.9997751163318753e-04" rms="4.6384459733963013e-01" purity="4.7555440664291382e-01" nType="0">
          <Node pos="l" depth="2" NCoef="0" IVar="-1" Cut="0.0000000000000000e+00" cType="1" res="-1.5003007138147950e-04" rms="4.6376779675483704e-01" purity="4.6216893196105957e-01" nType="-99"/>
          <Node pos="r" depth="2" NCoef="0" IVar="-1" Cut="0.0000000000000000e+00" cType="1" res="1.6605404671281576e-03" rms="4.5985621213912964e-01" purity="6.3111603260040283e-01" nType="-99"/>
        </Node>
        <Node pos="r" depth="1" NCoef="0" IVar="-1" Cut="0.0000000000000000e+00" cType="1" res="1.7460347153246403e-03" rms="3.8169941306114197e-01" purity="8.0817174911499023e-01" nType="-99"/>
      </Node>
    </BinaryTree>
    <BinaryTree type="DecisionTree" boostWeight="1.0000000000000000e+00" itree="423">
      <Node pos="s" depth="0" NCoef="0" IVar="4" Cut="1.0945681762695312e+02" cType="1" res="3.0744201503694057e-03" rms="4.5883151888847351e-01" purity="5.0070369243621826e-01" nType="0">
        <Node pos="l" depth="1" NCoef="0" IVar="2" Cut="9.6588176488876343e-01" cType="1" res="-7.5661214068531990e-03" rms="4.5770654082298279e-01" purity="4.7180509567260742e-01" nType="0">
          <Node pos="l" depth="2" NCoef="0" IVar="-1" Cut="0.0000000000000000e+00" cType="1" res="1.3191945618018508e-04" rms="4.5930159091949463e-01" purity="5.0352537631988525e-01" nType="-99"/>
          <Node pos="r" depth="2" NCoef="0" IVar="-1" Cut="0.0000000000000000e+00" cType="1" res="-1.3807078357785940e-03" rms="4.5201835036277771e-01" purity="3.8867974281311035e-01" nType="-99"/>
        </Node>
        <Node pos="r" depth="1" NCoef="0" IVar="9" Cut="9.3011001586914062e+01" cType="1" res="3.8711424916982651e-02" rms="4.6079331636428833e-01" purity="5.9749042987823486e-01" nType="0">
          <Node pos="l" depth="2" NCoef="0" IVar="-1" Cut="0.0000000000000000e+00" cType="1" res="1.5591134433634579e-04" rms="4.6413370966911316e-01" purity="5.5788409709930420e-01" nType="-99"/>
          <Node pos="r" depth="2" NCoef="0" IVar="-1" Cut="0.0000000000000000e+00" cType="1" res="1.5779576497152448e-03" rms="4.5754644274711609e-01" purity="6.2179982662200928e-01" nType="-99"/>
        </Node>
      </Node>
    </BinaryTree>
    <BinaryTree type="DecisionTree" boostWeight="1.0000000000000000e+00" itree="424">
      <Node pos="s" depth="0" NCoef="0" IVar="2" Cut="8.0966341495513916e-01" cType="1" res="4.3056709691882133e-03" rms="4.5697370171546936e-01" purity="5.0112009048461914e-01" nType="0">
        <Node pos="l" depth="1" NCoef="0" IVar="6" Cut="1.5664229393005371e+00" cType="1" res="2.1102041006088257e-02" rms="4.5720949769020081e-01" purity="5.4972672462463379e-01" nType="0">
          <Node pos="l" depth="2" NCoef="0" IVar="-1" Cut="0.0000000000000000e+00" cType="1" res="-8.9937570737674832e-04" rms="4.5075374841690063e-01" purity="3.2804685831069946e-01" nType="-99"/>
          <Node pos="r" depth="2" NCoef="0" IVar="-1" Cut="0.0000000000000000e+00" cType="1" res="8.4787938976660371e-04" rms="4.5811465382575989e-01" purity="6.0153049230575562e-01" nType="-99"/>
        </Node>
        <Node pos="r" depth="1" NCoef="0" IVar="4" Cut="3.4756862640380859e+01" cType="1" res="-1.6186749562621117e-02" rms="4.5584845542907715e-01" purity="4.4181758165359497e-01" nType="0">
          <Node pos="l" depth="2" NCoef="0" IVar="-1" Cut="0.0000000000000000e+00" cType="1" res="-2.5848923251032829e-03" rms="4.3716347217559814e-01" purity="3.4364280104637146e-01" nType="-99"/>
          <Node pos="r" depth="2" NCoef="0" IVar="-1" Cut="0.0000000000000000e+00" cType="1" res="-1.6736774705350399e-04" rms="4.5903584361076355e-01" purity="4.6294379234313965e-01" nType="-99"/>
        </Node>
      </Node>
    </BinaryTree>
    <BinaryTree type="DecisionTree" boostWeight="1.0000000000000000e+00" itree="425">
      <Node pos="s" depth="0" NCoef="0" IVar="8" Cut="9.2612442016601562e+01" cType="1" res="4.3912590481340885e-03" rms="4.5826390385627747e-01" purity="5.0032413005828857e-01" nType="0">
        <Node pos="l" depth="1" NCoef="0" IVar="-1" Cut="0.0000000000000000e+00" cType="1" res="-1.7553174402564764e-03" rms="4.5588192343711853e-01" purity="4.0993273258209229e-01" nType="-99"/>
        <Node pos="r" depth="1" NCoef="0" IVar="9" Cut="1.6537631225585938e+02" cType="1" res="1.0475051589310169e-02" rms="4.5812070369720459e-01" purity="5.1031464338302612e-01" nType="0">
          <Node pos="l" depth="2" NCoef="0" IVar="-1" Cut="0.0000000000000000e+00" cType="1" res="1.4058487431611866e-04" rms="4.5848399400711060e-01" purity="5.0478911399841309e-01" nType="-99"/>
          <Node pos="r" depth="2" NCoef="0" IVar="-1" Cut="0.0000000000000000e+00" cType="1" res="1.5934291295707226e-03" rms="4.5306661725044250e-01" purity="5.5125308036804199e-01" nType="-99"/>
        </Node>
      </Node>
    </BinaryTree>
    <BinaryTree type="DecisionTree" boostWeight="1.0000000000000000e+00" itree="426">
      <Node pos="s" depth="0" NCoef="0" IVar="6" Cut="5.0519728660583496e+00" cType="1" res="-1.3992539606988430e-04" rms="4.5906805992126465e-01" purity="4.9399438500404358e-01" nType="0">
        <Node pos="l" depth="1" NCoef="0" IVar="3" Cut="5.9673315286636353e-01" cType="1" res="-5.2296365611255169e-03" rms="4.6431857347488403e-01" purity="4.6605321764945984e-01" nType="0">
          <Node pos="l" depth="2" NCoef="0" IVar="-1" Cut="0.0000000000000000e+00" cType="1" res="1.8907042976934463e-04" rms="4.6126967668533325e-01" purity="4.4428557157516479e-01" nType="-99"/>
          <Node pos="r" depth="2" NCoef="0" IVar="-1" Cut="0.0000000000000000e+00" cType="1" res="-1.3517892220988870e-03" rms="4.7365549206733704e-01" purity="5.5202347040176392e-01" nType="-99"/>
        </Node>
        <Node pos="r" depth="1" NCoef="0" IVar="-1" Cut="0.0000000000000000e+00" cType="1" res="1.4307043747976422e-03" rms="3.9446341991424561e-01" purity="7.9308146238327026e-01" nType="-99"/>
      </Node>
    </BinaryTree>
    <BinaryTree type="DecisionTree" boostWeight="1.0000000000000000e+00" itree="427">
      <Node pos="s" depth="0" NCoef="0" IVar="6" Cut="1.4595042467117310e+00" cType="1" res="-1.3553825556300581e-04" rms="4.5640915632247925e-01" purity="4.9632430076599121e-01" nType="0">
        <Node pos="l" depth="1" NCoef="0" IVar="3" Cut="1.4214767515659332e-01" cType="1" res="-4.5929525047540665e-02" rms="4.2641621828079224e-01" purity="2.7151641249656677e-01" nType="0">
          <Node pos="l" depth="2" NCoef="0" IVar="-1" Cut="0.0000000000000000e+00" cType="1" res="-7.1845191996544600e-05" rms="4.4961193203926086e-01" purity="3.3268341422080994e-01" nType="-99"/>
          <Node pos="r" depth="2" NCoef="0" IVar="-1" Cut="0.0000000000000000e+00" cType="1" res="-3.2432533334940672e-03" rms="4.1377535462379456e-01" purity="2.4348619580268860e-01" nType="-99"/>
        </Node>
        <Node pos="r" depth="1" NCoef="0" IVar="3" Cut="2.2903418540954590e-01" cType="1" res="8.8762240484356880e-03" rms="4.6154749393463135e-01" purity="5.4056406021118164e-01" nType="0">
          <Node pos="l" depth="2" NCoef="0" IVar="-1" Cut="0.0000000000000000e+00" cType="1" res="1.6662603011354804e-03" rms="4.6691724658012390e-01" purity="5.1872181892395020e-01" nType="-99"/>
          <Node pos="r" depth="2" NCoef="0" IVar="-1" Cut="0.0000000000000000e+00" cType="1" res="-4.2934330849675462e-05" rms="4.5971366763114929e-01" purity="5.4533994197845459e-01" nType="-99"/>
        </Node>
      </Node>
    </BinaryTree>
    <BinaryTree type="DecisionTree" boostWeight="1.0000000000000000e+00" itree="428">
      <Node pos="s" depth="0" NCoef="0" IVar="8" Cut="9.1315299987792969e+01" cType="1" res="7.2590238414704800e-04" rms="4.5826601982116699e-01" purity="4.9632641673088074e-01" nType="0">
        <Node pos="l" depth="1" NCoef="0" IVar="-1" Cut="0.0000000000000000e+00" cType="1" res="-1.8880057614296675e-03" rms="4.5723989605903625e-01" purity="4.0850713849067688e-01" nType="-99"/>
        <Node pos="r" depth="1" NCoef="0" IVar="5" Cut="1.8099641799926758e+00" cType="1" res="6.3817328773438931e-03" rms="4.5799455046653748e-01" purity="5.0530683994293213e-01" nType="0">
          <Node pos="l" depth="2" NCoef="0" IVar="-1" Cut="0.0000000000000000e+00" cType="1" res="1.1592927621677518e-03" rms="4.5398163795471191e-01" purity="6.1253392696380615e-01" nType="-99"/>
          <Node pos="r" depth="2" NCoef="0" IVar="-1" Cut="0.0000000000000000e+00" cType="1" res="-2.5222379917977378e-05" rms="4.5843043923377991e-01" purity="4.8434847593307495e-01" nType="-99"/>
        </Node>
      </Node>
    </BinaryTree>
    <BinaryTree type="DecisionTree" boostWeight="1.0000000000000000e+00" itree="429">
      <Node pos="s" depth="0" NCoef="0" IVar="5" Cut="1.5357916355133057e+00" cType="1" res="3.2887950073927641e-03" rms="4.5558428764343262e-01" purity="5.0232559442520142e-01" nType="0">
        <Node pos="l" depth="1" NCoef="0" IVar="-1" Cut="0.0000000000000000e+00" cType="1" res="1.8000263953581452e-03" rms="4.4487830996513367e-01" purity="6.3760465383529663e-01" nType="-99"/>
        <Node pos="r" depth="1" NCoef="0" IVar="6" Cut="3.7771174907684326e+00" cType="1" res="-2.8846822679042816e-03" rms="4.5609676837921143e-01" purity="4.8956486582756042e-01" nType="0">
          <Node pos="l" depth="2" NCoef="0" IVar="-1" Cut="0.0000000000000000e+00" cType="1" res="-5.0158571684733033e-04" rms="4.6246600151062012e-01" purity="4.0702542662620544e-01" nType="-99"/>
          <Node pos="r" depth="2" NCoef="0" IVar="-1" Cut="0.0000000000000000e+00" cType="1" res="7.2884390829131007e-04" rms="4.3748855590820312e-01" purity="7.0522439479827881e-01" nType="-99"/>
        </Node>
      </Node>
    </BinaryTree>
    <BinaryTree type="DecisionTree" boostWeight="1.0000000000000000e+00" itree="430">
      <Node pos="s" depth="0" NCoef="0" IVar="8" Cut="8.2938201904296875e+01" cType="1" res="6.6616144031286240e-03" rms="4.5760107040405273e-01" purity="5.0414669513702393e-01" nType="0">
        <Node pos="l" depth="1" NCoef="0" IVar="-1" Cut="0.0000000000000000e+00" cType="1" res="-2.3465261328965425e-03" rms="4.4969469308853149e-01" purity="3.9637327194213867e-01" nType="-99"/>
        <Node pos="r" depth="1" NCoef="0" IVar="0" Cut="7.1576792001724243e-01" cType="1" res="1.1058847419917583e-02" rms="4.5770615339279175e-01" purity="5.1067662239074707e-01" nType="0">
          <Node pos="l" depth="2" NCoef="0" IVar="-1" Cut="0.0000000000000000e+00" cType="1" res="1.3101944932714105e-03" rms="4.5286518335342407e-01" purity="5.8731526136398315e-01" nType="-99"/>
          <Node pos="r" depth="2" NCoef="0" IVar="-1" Cut="0.0000000000000000e+00" cType="1" res="8.4307233919389546e-05" rms="4.5841339230537415e-01" purity="4.9297422170639038e-01" nType="-99"/>
        </Node>
      </Node>
    </BinaryTree>
    <BinaryTree type="DecisionTree" boostWeight="1.0000000000000000e+00" itree="431">
      <Node pos="s" depth="0" NCoef="0" IVar="7" Cut="1.2738180160522461e-01" cType="1" res="6.0427892021834850e-03" rms="4.5904043316841125e-01" purity="5.0194031000137329e-01" nType="0">
        <Node pos="l" depth="1" NCoef="0" IVar="8" Cut="1.0173684692382812e+02" cType="1" res="-3.4367265179753304e-03" rms="4.5751774311065674e-01" purity="4.7949600219726562e-01" nType="0">
          <Node pos="l" depth="2" NCoef="0" IVar="-1" Cut="0.0000000000000000e+00" cType="1" res="-1.5435141976922750e-03" rms="4.5246186852455139e-01" purity="4.0987381339073181e-01" nType="-99"/>
          <Node pos="r" depth="2" NCoef="0" IVar="-1" Cut="0.0000000000000000e+00" cType="1" res="1.5853058721404523e-04" rms="4.5808887481689453e-01" purity="4.9387425184249878e-01" nType="-99"/>
        </Node>
        <Node pos="r" depth="1" NCoef="0" IVar="3" Cut="2.2901555895805359e-01" cType="1" res="3.8699954748153687e-02" rms="4.6276342868804932e-01" purity="5.7926177978515625e-01" nType="0">
          <Node pos="l" depth="2" NCoef="0" IVar="-1" Cut="0.0000000000000000e+00" cType="1" res="2.3623094893991947e-03" rms="4.7064885497093201e-01" purity="5.2116084098815918e-01" nType="-99"/>
          <Node pos="r" depth="2" NCoef="0" IVar="-1" Cut="0.0000000000000000e+00" cType="1" res="6.6571088973432779e-04" rms="4.5921766757965088e-01" purity="5.9865975379943848e-01" nType="-99"/>
        </Node>
      </Node>
    </BinaryTree>
    <BinaryTree type="DecisionTree" boostWeight="1.0000000000000000e+00" itree="432">
      <Node pos="s" depth="0" NCoef="0" IVar="8" Cut="1.0111430358886719e+02" cType="1" res="2.5271282065659761e-03" rms="4.5744407176971436e-01" purity="4.9871248006820679e-01" nType="0">
        <Node pos="l" depth="1" NCoef="0" IVar="6" Cut="2.8599059581756592e+00" cType="1" res="-3.4495115280151367e-02" rms="4.5714536309242249e-01" purity="4.3614435195922852e-01" nType="0">
          <Node pos="l" depth="2" NCoef="0" IVar="-1" Cut="0.0000000000000000e+00" cType="1" res="-2.4468295741826296e-03" rms="4.4234800338745117e-01" purity="2.9907673597335815e-01" nType="-99"/>
          <Node pos="r" depth="2" NCoef="0" IVar="-1" Cut="0.0000000000000000e+00" cType="1" res="-1.9755597168114036e-04" rms="4.7194239497184753e-01" purity="5.9195816516876221e-01" nType="-99"/>
        </Node>
        <Node pos="r" depth="1" NCoef="0" IVar="5" Cut="2.7116544246673584e+00" cType="1" res="9.8788803443312645e-03" rms="4.5714670419692993e-01" purity="5.1113700866699219e-01" nType="0">
          <Node pos="l" depth="2" NCoef="0" IVar="-1" Cut="0.0000000000000000e+00" cType="1" res="4.5236677397042513e-04" rms="4.5973202586174011e-01" purity="5.3667223453521729e-01" nType="-99"/>
          <Node pos="r" depth="2" NCoef="0" IVar="-1" Cut="0.0000000000000000e+00" cType="1" res="-1.9961099606007338e-03" rms="4.2849075794219971e-01" purity="2.7012082934379578e-01" nType="-99"/>
        </Node>
      </Node>
    </BinaryTree>
    <BinaryTree type="DecisionTree" boostWeight="1.0000000000000000e+00" itree="433">
      <Node pos="s" depth="0" NCoef="0" IVar="3" Cut="1.7096975445747375e-01" cType="1" res="3.5127999726682901e-03" rms="4.5714432001113892e-01" purity="4.9897918105125427e-01" nType="0">
        <Node pos="l" depth="1" NCoef="0" IVar="6" Cut="1.3071395158767700e+00" cType="1" res="4.3983828276395798e-02" rms="4.6228155493736267e-01" purity="4.3756473064422607e-01" nType="0">
          <Node pos="l" depth="2" NCoef="0" IVar="-1" Cut="0.0000000000000000e+00" cType="1" res="-8.9209715952165425e-05" rms="4.5020928978919983e-01" purity="3.1951776146888733e-01" nType="-99"/>
          <Node pos="r" depth="2" NCoef="0" IVar="-1" Cut="0.0000000000000000e+00" cType="1" res="2.4648711550980806e-03" rms="4.6894025802612305e-01" purity="5.4168033599853516e-01" nType="-99"/>
        </Node>
        <Node pos="r" depth="1" NCoef="0" IVar="6" Cut="2.4769353866577148e+00" cType="1" res="-4.3265889398753643e-03" rms="4.5572718977928162e-01" purity="5.1087540388107300e-01" nType="0">
          <Node pos="l" depth="2" NCoef="0" IVar="-1" Cut="0.0000000000000000e+00" cType="1" res="-1.1943379649892449e-03" rms="4.4891551136970520e-01" purity="3.2934325933456421e-01" nType="-99"/>
          <Node pos="r" depth="2" NCoef="0" IVar="-1" Cut="0.0000000000000000e+00" cType="1" res="2.6849770802073181e-04" rms="4.5870688557624817e-01" purity="6.0835778713226318e-01" nType="-99"/>
        </Node>
      </Node>
    </BinaryTree>
    <BinaryTree type="DecisionTree" boostWeight="1.0000000000000000e+00" itree="434">
      <Node pos="s" depth="0" NCoef="0" IVar="7" Cut="-1.1159882694482803e-01" cType="1" res="4.9005886539816856e-03" rms="4.5868366956710815e-01" purity="4.9997910857200623e-01" nType="0">
        <Node pos="l" depth="1" NCoef="0" IVar="-1" Cut="0.0000000000000000e+00" cType="1" res="-2.2918416652828455e-03" rms="4.4298368692398071e-01" purity="3.6707940697669983e-01" nType="-99"/>
        <Node pos="r" depth="1" NCoef="0" IVar="8" Cut="1.1111080932617188e+02" cType="1" res="9.5861218869686127e-03" rms="4.5941066741943359e-01" purity="5.0936865806579590e-01" nType="0">
          <Node pos="l" depth="2" NCoef="0" IVar="-1" Cut="0.0000000000000000e+00" cType="1" res="-5.8284745318815112e-04" rms="4.5810449123382568e-01" purity="4.6423950791358948e-01" nType="-99"/>
          <Node pos="r" depth="2" NCoef="0" IVar="-1" Cut="0.0000000000000000e+00" cType="1" res="6.0306274099275470e-04" rms="4.5946621894836426e-01" purity="5.2676659822463989e-01" nType="-99"/>
        </Node>
      </Node>
    </BinaryTree>
    <BinaryTree type="DecisionTree" boostWeight="1.0000000000000000e+00" itree="435">
      <Node pos="s" depth="0" NCoef="0" IVar="3" Cut="1.9032473862171173e-01" cType="1" res="6.4602624624967575e-03" rms="4.5661294460296631e-01" purity="5.0182902812957764e-01" nType="0">
        <Node pos="l" depth="1" NCoef="0" IVar="6" Cut="9.1216456890106201e-01" cType="1" res="4.1240759193897247e-02" rms="4.5840013027191162e-01" purity="4.3566739559173584e-01" nType="0">
          <Node pos="l" depth="2" NCoef="0" IVar="-1" Cut="0.0000000000000000e+00" cType="1" res="-1.6860379837453365e-03" rms="4.3182012438774109e-01" purity="2.7402681112289429e-01" nType="-99"/>
          <Node pos="r" depth="2" NCoef="0" IVar="-1" Cut="0.0000000000000000e+00" cType="1" res="2.1458719857037067e-03" rms="4.6442204713821411e-01" purity="4.9266326427459717e-01" nType="-99"/>
        </Node>
        <Node pos="r" depth="1" NCoef="0" IVar="6" Cut="2.2535521984100342e+00" cType="1" res="-2.5226441211998463e-03" rms="4.5571911334991455e-01" purity="5.1891684532165527e-01" nType="0">
          <Node pos="l" depth="2" NCoef="0" IVar="-1" Cut="0.0000000000000000e+00" cType="1" res="-1.5959681477397680e-03" rms="4.4015023112297058e-01" purity="3.0256426334381104e-01" nType="-99"/>
          <Node pos="r" depth="2" NCoef="0" IVar="-1" Cut="0.0000000000000000e+00" cType="1" res="2.7719049830920994e-04" rms="4.6033158898353577e-01" purity="5.9417212009429932e-01" nType="-99"/>
        </Node>
      </Node>
    </BinaryTree>
    <BinaryTree type="DecisionTree" boostWeight="1.0000000000000000e+00" itree="436">
      <Node pos="s" depth="0" NCoef="0" IVar="1" Cut="3.9062829589843750e+02" cType="1" res="1.6039970796555281e-04" rms="4.5778912305831909e-01" purity="4.9616181850433350e-01" nType="0">
        <Node pos="l" depth="1" NCoef="0" IVar="3" Cut="2.8677228093147278e-01" cType="1" res="-4.1826993227005005e-02" rms="4.2540156841278076e-01" purity="2.9781121015548706e-01" nType="0">
          <Node pos="l" depth="2" NCoef="0" IVar="-1" Cut="0.0000000000000000e+00" cType="1" res="-2.3655884433537722e-04" rms="4.1243970394134521e-01" purity="2.4866683781147003e-01" nType="-99"/>
          <Node pos="r" depth="2" NCoef="0" IVar="-1" Cut="0.0000000000000000e+00" cType="1" res="-2.6081241667270660e-03" rms="4.3208333849906921e-01" purity="3.3084610104560852e-01" nType="-99"/>
        </Node>
        <Node pos="r" depth="1" NCoef="0" IVar="7" Cut="-5.3954415023326874e-02" cType="1" res="6.2767597846686840e-03" rms="4.6199944615364075e-01" purity="5.2505582571029663e-01" nType="0">
          <Node pos="l" depth="2" NCoef="0" IVar="-1" Cut="0.0000000000000000e+00" cType="1" res="-7.0454756496474147e-04" rms="4.5712330937385559e-01" purity="4.5848238468170166e-01" nType="-99"/>
          <Node pos="r" depth="2" NCoef="0" IVar="-1" Cut="0.0000000000000000e+00" cType="1" res="5.2135204896330833e-04" rms="4.6355128288269043e-01" purity="5.5350756645202637e-01" nType="-99"/>
        </Node>
      </Node>
    </BinaryTree>
    <BinaryTree type="DecisionTree" boostWeight="1.0000000000000000e+00" itree="437">
      <Node pos="s" depth="0" NCoef="0" IVar="1" Cut="3.6067230224609375e+02" cType="1" res="3.8313616532832384e-03" rms="4.5592537522315979e-01" purity="5.0109171867370605e-01" nType="0">
        <Node pos="l" depth="1" NCoef="0" IVar="-1" Cut="0.0000000000000000e+00" cType="1" res="-2.9973126947879791e-03" rms="4.0993356704711914e-01" purity="2.6725804805755615e-01" nType="-99"/>
        <Node pos="r" depth="1" NCoef="0" IVar="2" Cut="8.1320947408676147e-01" cType="1" res="8.5639525204896927e-03" rms="4.5855501294136047e-01" purity="5.1724725961685181e-01" nType="0">
          <Node pos="l" depth="2" NCoef="0" IVar="-1" Cut="0.0000000000000000e+00" cType="1" res="6.7839806433767080e-04" rms="4.5802065730094910e-01" purity="5.6407576799392700e-01" nType="-99"/>
          <Node pos="r" depth="2" NCoef="0" IVar="-1" Cut="0.0000000000000000e+00" cType="1" res="-3.4345645690336823e-04" rms="4.5850893855094910e-01" purity="4.5789983868598938e-01" nType="-99"/>
        </Node>
      </Node>
    </BinaryTree>
    <BinaryTree type="DecisionTree" boostWeight="1.0000000000000000e+00" itree="438">
      <Node pos="s" depth="0" NCoef="0" IVar="6" Cut="3.9039132595062256e+00" cType="1" res="7.5166141614317894e-03" rms="4.5708188414573669e-01" purity="5.0472897291183472e-01" nType="0">
        <Node pos="l" depth="1" NCoef="0" IVar="3" Cut="4.0295913815498352e-01" cType="1" res="-2.8361817821860313e-03" rms="4.6578398346900940e-01" purity="4.2909702658653259e-01" nType="0">
          <Node pos="l" depth="2" NCoef="0" IVar="-1" Cut="0.0000000000000000e+00" cType="1" res="4.7863984946161509e-04" rms="4.6101513504981995e-01" purity="4.2044970393180847e-01" nType="-99"/>
          <Node pos="r" depth="2" NCoef="0" IVar="-1" Cut="0.0000000000000000e+00" cType="1" res="-1.2248435523360968e-03" rms="4.7406360507011414e-01" purity="4.4836416840553284e-01" nType="-99"/>
        </Node>
        <Node pos="r" depth="1" NCoef="0" IVar="3" Cut="6.3549387454986572e-01" cType="1" res="3.7900969386100769e-02" rms="4.2908769845962524e-01" purity="7.2670072317123413e-01" nType="0">
          <Node pos="l" depth="2" NCoef="0" IVar="-1" Cut="0.0000000000000000e+00" cType="1" res="1.7819138010963798e-03" rms="4.2271554470062256e-01" purity="7.4602502584457397e-01" nType="-99"/>
          <Node pos="r" depth="2" NCoef="0" IVar="-1" Cut="0.0000000000000000e+00" cType="1" res="6.1225605895742774e-04" rms="4.3079885840415955e-01" purity="7.1880656480789185e-01" nType="-99"/>
        </Node>
      </Node>
    </BinaryTree>
    <BinaryTree type="DecisionTree" boostWeight="1.0000000000000000e+00" itree="439">
      <Node pos="s" depth="0" NCoef="0" IVar="9" Cut="9.2468666076660156e+01" cType="1" res="4.2842156253755093e-03" rms="4.5740905404090881e-01" purity="5.0111848115921021e-01" nType="0">
        <Node pos="l" depth="1" NCoef="0" IVar="3" Cut="1.9029927253723145e-01" cType="1" res="-1.4266376383602619e-02" rms="4.5787358283996582e-01" purity="4.6928259730339050e-01" nType="0">
          <Node pos="l" depth="2" NCoef="0" IVar="-1" Cut="0.0000000000000000e+00" cType="1" res="1.0877313325181603e-03" rms="4.5820999145507812e-01" purity="4.1357523202896118e-01" nType="-99"/>
          <Node pos="r" depth="2" NCoef="0" IVar="-1" Cut="0.0000000000000000e+00" cType="1" res="-8.0888433149084449e-04" rms="4.5700034499168396e-01" purity="4.8438301682472229e-01" nType="-99"/>
        </Node>
        <Node pos="r" depth="1" NCoef="0" IVar="4" Cut="1.1741072082519531e+02" cType="1" res="1.9222479313611984e-02" rms="4.5648699998855591e-01" purity="5.2675497531890869e-01" nType="0">
          <Node pos="l" depth="2" NCoef="0" IVar="-1" Cut="0.0000000000000000e+00" cType="1" res="2.8716278029605746e-04" rms="4.5553269982337952e-01" purity="4.9856248497962952e-01" nType="-99"/>
          <Node pos="r" depth="2" NCoef="0" IVar="-1" Cut="0.0000000000000000e+00" cType="1" res="1.4732131967321038e-03" rms="4.5809617638587952e-01" purity="6.2713384628295898e-01" nType="-99"/>
        </Node>
      </Node>
    </BinaryTree>
    <BinaryTree type="DecisionTree" boostWeight="1.0000000000000000e+00" itree="440">
      <Node pos="s" depth="0" NCoef="0" IVar="7" Cut="-6.0016464442014694e-02" cType="1" res="4.6345574082806706e-04" rms="4.5652487874031067e-01" purity="4.9670964479446411e-01" nType="0">
        <Node pos="l" depth="1" NCoef="0" IVar="2" Cut="6.4640635251998901e-01" cType="1" res="-2.8970615938305855e-02" rms="4.4788065552711487e-01" purity="4.2675751447677612e-01" nType="0">
          <Node pos="l" depth="2" NCoef="0" IVar="-1" Cut="0.0000000000000000e+00" cType="1" res="1.5279740910045803e-04" rms="4.5873802900314331e-01" purity="5.3134411573410034e-01" nType="-99"/>
          <Node pos="r" depth="2" NCoef="0" IVar="-1" Cut="0.0000000000000000e+00" cType="1" res="-2.0198489073663950e-03" rms="4.3859165906906128e-01" purity="3.5389414429664612e-01" nType="-99"/>
        </Node>
        <Node pos="r" depth="1" NCoef="0" IVar="6" Cut="2.4874670505523682e+00" cType="1" res="1.1796569451689720e-02" rms="4.5930719375610352e-01" purity="5.2364355325698853e-01" nType="0">
          <Node pos="l" depth="2" NCoef="0" IVar="-1" Cut="0.0000000000000000e+00" cType="1" res="-2.3701353347860277e-04" rms="4.6320807933807373e-01" purity="3.6859920620918274e-01" nType="-99"/>
          <Node pos="r" depth="2" NCoef="0" IVar="-1" Cut="0.0000000000000000e+00" cType="1" res="6.6544284345582128e-04" rms="4.5589309930801392e-01" purity="6.3944256305694580e-01" nType="-99"/>
        </Node>
      </Node>
    </BinaryTree>
    <BinaryTree type="DecisionTree" boostWeight="1.0000000000000000e+00" itree="441">
      <Node pos="s" depth="0" NCoef="0" IVar="7" Cut="-9.2269904911518097e-02" cType="1" res="3.7289680913090706e-03" rms="4.5578968524932861e-01" purity="5.0249326229095459e-01" nType="0">
        <Node pos="l" depth="1" NCoef="0" IVar="0" Cut="8.6637020111083984e-01" cType="1" res="-4.6106100082397461e-02" rms="4.4456049799919128e-01" purity="3.9474502205848694e-01" nType="0">
          <Node pos="l" depth="2" NCoef="0" IVar="-1" Cut="0.0000000000000000e+00" cType="1" res="-3.2960055250441656e-05" rms="4.5650133490562439e-01" purity="4.7869628667831421e-01" nType="-99"/>
          <Node pos="r" depth="2" NCoef="0" IVar="-1" Cut="0.0000000000000000e+00" cType="1" res="-2.7314692270010710e-03" rms="4.3611755967140198e-01" purity="3.4976702928543091e-01" nType="-99"/>
        </Node>
        <Node pos="r" depth="1" NCoef="0" IVar="6" Cut="4.8053774833679199e+00" cType="1" res="1.2075695209205151e-02" rms="4.5711261034011841e-01" purity="5.2053964138031006e-01" nType="0">
          <Node pos="l" depth="2" NCoef="0" IVar="-1" Cut="0.0000000000000000e+00" cType="1" res="1.6228669846896082e-04" rms="4.6568328142166138e-01" purity="4.8151835799217224e-01" nType="-99"/>
          <Node pos="r" depth="2" NCoef="0" IVar="-1" Cut="0.0000000000000000e+00" cType="1" res="1.6271297354251146e-03" rms="3.8512736558914185e-01" purity="8.0586534738540649e-01" nType="-99"/>
        </Node>
      </Node>
    </BinaryTree>
    <BinaryTree type="DecisionTree" boostWeight="1.0000000000000000e+00" itree="442">
      <Node pos="s" depth="0" NCoef="0" IVar="3" Cut="1.7096933722496033e-01" cType="1" res="4.5612372923642397e-04" rms="4.5841231942176819e-01" purity="4.9696540832519531e-01" nType="0">
        <Node pos="l" depth="1" NCoef="0" IVar="6" Cut="1.0593107938766479e+00" cType="1" res="3.5224679857492447e-02" rms="4.5990779995918274e-01" purity="4.3093532323837280e-01" nType="0">
          <Node pos="l" depth="2" NCoef="0" IVar="-1" Cut="0.0000000000000000e+00" cType="1" res="-1.1214426485821605e-03" rms="4.3876820802688599e-01" purity="2.9351702332496643e-01" nType="-99"/>
          <Node pos="r" depth="2" NCoef="0" IVar="-1" Cut="0.0000000000000000e+00" cType="1" res="2.0967363379895687e-03" rms="4.6808850765228271e-01" purity="5.0815206766128540e-01" nType="-99"/>
        </Node>
        <Node pos="r" depth="1" NCoef="0" IVar="6" Cut="4.9958057403564453e+00" cType="1" res="-6.2121292576193810e-03" rms="4.5782327651977539e-01" purity="5.0962936878204346e-01" nType="0">
          <Node pos="l" depth="2" NCoef="0" IVar="-1" Cut="0.0000000000000000e+00" cType="1" res="-3.7401617737486959e-04" rms="4.6438363194465637e-01" purity="4.7594368457794189e-01" nType="-99"/>
          <Node pos="r" depth="2" NCoef="0" IVar="-1" Cut="0.0000000000000000e+00" cType="1" res="1.1594980023801327e-03" rms="3.9694696664810181e-01" purity="7.8444451093673706e-01" nType="-99"/>
        </Node>
      </Node>
    </BinaryTree>
    <BinaryTree type="DecisionTree" boostWeight="1.0000000000000000e+00" itree="443">
      <Node pos="s" depth="0" NCoef="0" IVar="7" Cut="1.6096577048301697e-01" cType="1" res="5.0746467895805836e-03" rms="4.5884734392166138e-01" purity="5.0118303298950195e-01" nType="0">
        <Node pos="l" depth="1" NCoef="0" IVar="2" Cut="6.0443317890167236e-01" cType="1" res="-2.7134069241583347e-03" rms="4.5817336440086365e-01" purity="4.8344993591308594e-01" nType="0">
          <Node pos="l" depth="2" NCoef="0" IVar="-1" Cut="0.0000000000000000e+00" cType="1" res="6.4008525805547833e-04" rms="4.5894953608512878e-01" purity="5.6716328859329224e-01" nType="-99"/>
          <Node pos="r" depth="2" NCoef="0" IVar="-1" Cut="0.0000000000000000e+00" cType="1" res="-4.6615017345175147e-04" rms="4.5736405253410339e-01" purity="4.4559502601623535e-01" nType="-99"/>
        </Node>
        <Node pos="r" depth="1" NCoef="0" IVar="6" Cut="2.2591466903686523e+00" cType="1" res="4.5021399855613708e-02" rms="4.6022182703018188e-01" purity="5.9214013814926147e-01" nType="0">
          <Node pos="l" depth="2" NCoef="0" IVar="-1" Cut="0.0000000000000000e+00" cType="1" res="4.9142073839902878e-04" rms="4.7377440333366394e-01" purity="4.1220298409461975e-01" nType="-99"/>
          <Node pos="r" depth="2" NCoef="0" IVar="-1" Cut="0.0000000000000000e+00" cType="1" res="1.5117737930268049e-03" rms="4.5250216126441956e-01" purity="6.8253618478775024e-01" nType="-99"/>
        </Node>
      </Node>
    </BinaryTree>
    <BinaryTree type="DecisionTree" boostWeight="1.0000000000000000e+00" itree="444">
      <Node pos="s" depth="0" NCoef="0" IVar="7" Cut="-1.0985758900642395e-01" cType="1" res="2.8589565772563219e-03" rms="4.5585727691650391e-01" purity="5.0017023086547852e-01" nType="0">
        <Node pos="l" depth="1" NCoef="0" IVar="-1" Cut="0.0000000000000000e+00" cType="1" res="-2.3343814536929131e-03" rms="4.3551209568977356e-01" purity="3.7112271785736084e-01" nType="-99"/>
        <Node pos="r" depth="1" NCoef="0" IVar="6" Cut="3.9914083480834961e+00" cType="1" res="7.7757290564477444e-03" rms="4.5695069432258606e-01" purity="5.0975948572158813e-01" nType="0">
          <Node pos="l" depth="2" NCoef="0" IVar="-1" Cut="0.0000000000000000e+00" cType="1" res="-6.7559187300503254e-05" rms="4.6675199270248413e-01" purity="4.3902361392974854e-01" nType="-99"/>
          <Node pos="r" depth="2" NCoef="0" IVar="-1" Cut="0.0000000000000000e+00" cType="1" res="1.0428575333207846e-03" rms="4.2159906029701233e-01" purity="7.4170976877212524e-01" nType="-99"/>
        </Node>
      </Node>
    </BinaryTree>
    <BinaryTree type="DecisionTree" boostWeight="1.0000000000000000e+00" itree="445">
      <Node pos="s" depth="0" NCoef="0" IVar="0" Cut="8.7936484813690186e-01" cType="1" res="-1.2057306012138724e-03" rms="4.5724013447761536e-01" purity="4.9436864256858826e-01" nType="0">
        <Node pos="l" depth="1" NCoef="0" IVar="3" Cut="5.3871345520019531e-01" cType="1" res="2.3476274684071541e-02" rms="4.5972785353660583e-01" purity="5.5153822898864746e-01" nType="0">
          <Node pos="l" depth="2" NCoef="0" IVar="-1" Cut="0.0000000000000000e+00" cType="1" res="1.1633805697783828e-03" rms="4.6496862173080444e-01" purity="5.0718766450881958e-01" nType="-99"/>
          <Node pos="r" depth="2" NCoef="0" IVar="-1" Cut="0.0000000000000000e+00" cType="1" res="-2.7223661891184747e-04" rms="4.4686484336853027e-01" purity="6.4319592714309692e-01" nType="-99"/>
        </Node>
        <Node pos="r" depth="1" NCoef="0" IVar="1" Cut="4.9534219360351562e+02" cType="1" res="-1.3585930690169334e-02" rms="4.5548382401466370e-01" purity="4.6569305658340454e-01" nType="0">
          <Node pos="l" depth="2" NCoef="0" IVar="-1" Cut="0.0000000000000000e+00" cType="1" res="-1.1624869657680392e-03" rms="4.4448620080947876e-01" purity="3.6991941928863525e-01" nType="-99"/>
          <Node pos="r" depth="2" NCoef="0" IVar="-1" Cut="0.0000000000000000e+00" cType="1" res="5.1432238251436502e-05" rms="4.6427714824676514e-01" purity="5.4887473583221436e-01" nType="-99"/>
        </Node>
      </Node>
    </BinaryTree>
    <BinaryTree type="DecisionTree" boostWeight="1.0000000000000000e+00" itree="446">
      <Node pos="s" depth="0" NCoef="0" IVar="9" Cut="1.6472865295410156e+02" cType="1" res="8.2431212067604065e-03" rms="4.5678031444549561e-01" purity="5.0638347864151001e-01" nType="0">
        <Node pos="l" depth="1" NCoef="0" IVar="7" Cut="-1.0625199228525162e-01" cType="1" res="2.2773817181587219e-03" rms="4.5619523525238037e-01" purity="5.0039601325988770e-01" nType="0">
          <Node pos="l" depth="2" NCoef="0" IVar="-1" Cut="0.0000000000000000e+00" cType="1" res="-2.1189213730394840e-03" rms="4.4175988435745239e-01" purity="3.7604123353958130e-01" nType="-99"/>
          <Node pos="r" depth="2" NCoef="0" IVar="-1" Cut="0.0000000000000000e+00" cType="1" res="2.1931697847321630e-04" rms="4.5703172683715820e-01" purity="5.1080250740051270e-01" nType="-99"/>
        </Node>
        <Node pos="r" depth="1" NCoef="0" IVar="5" Cut="2.5544016361236572e+00" cType="1" res="5.4566744714975357e-02" rms="4.5866522192955017e-01" purity="5.5287557840347290e-01" nType="0">
          <Node pos="l" depth="2" NCoef="0" IVar="-1" Cut="0.0000000000000000e+00" cType="1" res="2.0235178526490927e-03" rms="4.4782185554504395e-01" purity="6.6954523324966431e-01" nType="-99"/>
          <Node pos="r" depth="2" NCoef="0" IVar="-1" Cut="0.0000000000000000e+00" cType="1" res="9.4263814389705658e-04" rms="4.7004488110542297e-01" purity="4.1028925776481628e-01" nType="-99"/>
        </Node>
      </Node>
    </BinaryTree>
    <BinaryTree type="DecisionTree" boostWeight="1.0000000000000000e+00" itree="447">
      <Node pos="s" depth="0" NCoef="0" IVar="6" Cut="9.4554907083511353e-01" cType="1" res="1.6401202883571386e-03" rms="4.5627820491790771e-01" purity="4.9882543087005615e-01" nType="0">
        <Node pos="l" depth="1" NCoef="0" IVar="-1" Cut="0.0000000000000000e+00" cType="1" res="-2.9426014516502619e-03" rms="4.2134153842926025e-01" purity="2.4339331686496735e-01" nType="-99"/>
        <Node pos="r" depth="1" NCoef="0" IVar="3" Cut="1.5161229670047760e-01" cType="1" res="5.8382209390401840e-03" rms="4.5843505859375000e-01" purity="5.1742452383041382e-01" nType="0">
          <Node pos="l" depth="2" NCoef="0" IVar="-1" Cut="0.0000000000000000e+00" cType="1" res="2.4162793997675180e-03" rms="4.7605526447296143e-01" purity="5.0514149665832520e-01" nType="-99"/>
          <Node pos="r" depth="2" NCoef="0" IVar="-1" Cut="0.0000000000000000e+00" cType="1" res="-1.3527186638384592e-05" rms="4.5631876587867737e-01" purity="5.1850312948226929e-01" nType="-99"/>
        </Node>
      </Node>
    </BinaryTree>
    <BinaryTree type="DecisionTree" boostWeight="1.0000000000000000e+00" itree="448">
      <Node pos="s" depth="0" NCoef="0" IVar="5" Cut="2.8578858375549316e+00" cType="1" res="5.5013420060276985e-03" rms="4.5674011111259460e-01" purity="5.0225788354873657e-01" nType="0">
        <Node pos="l" depth="1" NCoef="0" IVar="9" Cut="8.8203300476074219e+01" cType="1" res="9.6583189442753792e-03" rms="4.5963293313980103e-01" purity="5.1917511224746704e-01" nType="0">
          <Node pos="l" depth="2" NCoef="0" IVar="-1" Cut="0.0000000000000000e+00" cType="1" res="-4.6192985610105097e-04" rms="4.6101251244544983e-01" purity="4.7172358632087708e-01" nType="-99"/>
          <Node pos="r" depth="2" NCoef="0" IVar="-1" Cut="0.0000000000000000e+00" cType="1" res="7.9020485281944275e-04" rms="4.5780202746391296e-01" purity="5.5391383171081543e-01" nType="-99"/>
        </Node>
        <Node pos="r" depth="1" NCoef="0" IVar="-1" Cut="0.0000000000000000e+00" cType="1" res="-3.3022982534021139e-03" rms="4.0011999011039734e-01" purity="2.2424136102199554e-01" nType="-99"/>
      </Node>
    </BinaryTree>
    <BinaryTree type="DecisionTree" boostWeight="1.0000000000000000e+00" itree="449">
      <Node pos="s" depth="0" NCoef="0" IVar="7" Cut="-7.7597990632057190e-02" cType="1" res="4.0306118316948414e-03" rms="4.5693928003311157e-01" purity="5.0113815069198608e-01" nType="0">
        <Node pos="l" depth="1" NCoef="0" IVar="2" Cut="5.4434299468994141e-01" cType="1" res="-3.0304132029414177e-02" rms="4.4711485505104065e-01" purity="4.1743123531341553e-01" nType="0">
          <Node pos="l" depth="2" NCoef="0" IVar="-1" Cut="0.0000000000000000e+00" cType="1" res="3.9199320599436760e-04" rms="4.6006816625595093e-01" purity="5.4726040363311768e-01" nType="-99"/>
          <Node pos="r" depth="2" NCoef="0" IVar="-1" Cut="0.0000000000000000e+00" cType="1" res="-1.7455543857067823e-03" rms="4.4105118513107300e-01" purity="3.6883416771888733e-01" nType="-99"/>
        </Node>
        <Node pos="r" depth="1" NCoef="0" IVar="2" Cut="1.2359743118286133e+00" cType="1" res="1.2972547672688961e-02" rms="4.5904210209846497e-01" purity="5.2293831110000610e-01" nType="0">
          <Node pos="l" depth="2" NCoef="0" IVar="-1" Cut="0.0000000000000000e+00" cType="1" res="5.2246073028072715e-04" rms="4.5896780490875244e-01" purity="5.3172218799591064e-01" nType="-99"/>
          <Node pos="r" depth="2" NCoef="0" IVar="-1" Cut="0.0000000000000000e+00" cType="1" res="-1.7335610464215279e-03" rms="4.5534634590148926e-01" purity="4.0591508150100708e-01" nType="-99"/>
        </Node>
      </Node>
    </BinaryTree>
    <BinaryTree type="DecisionTree" boostWeight="1.0000000000000000e+00" itree="450">
      <Node pos="s" depth="0" NCoef="0" IVar="7" Cut="2.0566168427467346e-01" cType="1" res="3.4119705669581890e-03" rms="4.5691397786140442e-01" purity="5.0056052207946777e-01" nType="0">
        <Node pos="l" depth="1" NCoef="0" IVar="4" Cut="8.5648597717285156e+01" cType="1" res="-2.9634723905473948e-03" rms="4.5716759562492371e-01" purity="4.8667782545089722e-01" nType="0">
          <Node pos="l" depth="2" NCoef="0" IVar="-1" Cut="0.0000000000000000e+00" cType="1" res="-5.4265587823465466e-04" rms="4.5412951707839966e-01" purity="4.4548356533050537e-01" nType="-99"/>
          <Node pos="r" depth="2" NCoef="0" IVar="-1" Cut="0.0000000000000000e+00" cType="1" res="5.8468215866014361e-04" rms="4.6153774857521057e-01" purity="5.5928593873977661e-01" nType="-99"/>
        </Node>
        <Node pos="r" depth="1" NCoef="0" IVar="-1" Cut="0.0000000000000000e+00" cType="1" res="1.5501357847824693e-03" rms="4.5088529586791992e-01" purity="6.2170565128326416e-01" nType="-99"/>
      </Node>
    </BinaryTree>
    <BinaryTree type="DecisionTree" boostWeight="1.0000000000000000e+00" itree="451">
      <Node pos="s" depth="0" NCoef="0" IVar="3" Cut="3.4516495466232300e-01" cType="1" res="6.6123763099312782e-03" rms="4.5848065614700317e-01" purity="5.0090515613555908e-01" nType="0">
        <Node pos="l" depth="1" NCoef="0" IVar="6" Cut="2.0785570144653320e+00" cType="1" res="2.3928342387080193e-02" rms="4.6021905541419983e-01" purity="4.3259218335151672e-01" nType="0">
          <Node pos="l" depth="2" NCoef="0" IVar="-1" Cut="0.0000000000000000e+00" cType="1" res="2.5134118914138526e-05" rms="4.5392495393753052e-01" purity="3.4161105751991272e-01" nType="-99"/>
          <Node pos="r" depth="2" NCoef="0" IVar="-1" Cut="0.0000000000000000e+00" cType="1" res="1.6406031791120768e-03" rms="4.6756839752197266e-01" purity="5.7477784156799316e-01" nType="-99"/>
        </Node>
        <Node pos="r" depth="1" NCoef="0" IVar="6" Cut="4.4706125259399414e+00" cType="1" res="-9.0409116819500923e-03" rms="4.5633840560913086e-01" purity="5.6265872716903687e-01" nType="0">
          <Node pos="l" depth="2" NCoef="0" IVar="-1" Cut="0.0000000000000000e+00" cType="1" res="-8.2810275489464402e-04" rms="4.7133862972259521e-01" purity="4.8352432250976562e-01" nType="-99"/>
          <Node pos="r" depth="2" NCoef="0" IVar="-1" Cut="0.0000000000000000e+00" cType="1" res="1.0322687448933721e-03" rms="4.1258794069290161e-01" purity="7.6066035032272339e-01" nType="-99"/>
        </Node>
      </Node>
    </BinaryTree>
    <BinaryTree type="DecisionTree" boostWeight="1.0000000000000000e+00" itree="452">
      <Node pos="s" depth="0" NCoef="0" IVar="2" Cut="6.5333569049835205e-01" cType="1" res="2.8775827377103269e-04" rms="4.5684361457824707e-01" purity="4.9669697880744934e-01" nType="0">
        <Node pos="l" depth="1" NCoef="0" IVar="5" Cut="2.3322205543518066e+00" cType="1" res="2.4196650832891464e-02" rms="4.5338821411132812e-01" purity="5.7193821668624878e-01" nType="0">
          <Node pos="l" depth="2" NCoef="0" IVar="-1" Cut="0.0000000000000000e+00" cType="1" res="1.0534828761592507e-03" rms="4.5463526248931885e-01" purity="6.0883796215057373e-01" nType="-99"/>
          <Node pos="r" depth="2" NCoef="0" IVar="-1" Cut="0.0000000000000000e+00" cType="1" res="-9.6103455871343613e-04" rms="4.4468212127685547e-01" purity="4.3282467126846313e-01" nType="-99"/>
        </Node>
        <Node pos="r" depth="1" NCoef="0" IVar="0" Cut="7.1753799915313721e-01" cType="1" res="-1.2479865923523903e-02" rms="4.5816740393638611e-01" purity="4.5651727914810181e-01" nType="0">
          <Node pos="l" depth="2" NCoef="0" IVar="-1" Cut="0.0000000000000000e+00" cType="1" res="8.6476246360689402e-04" rms="4.6278253197669983e-01" purity="5.3751528263092041e-01" nType="-99"/>
          <Node pos="r" depth="2" NCoef="0" IVar="-1" Cut="0.0000000000000000e+00" cType="1" res="-7.2217767592519522e-04" rms="4.5665413141250610e-01" purity="4.3911373615264893e-01" nType="-99"/>
        </Node>
      </Node>
    </BinaryTree>
    <BinaryTree type="DecisionTree" boostWeight="1.0000000000000000e+00" itree="453">
      <Node pos="s" depth="0" NCoef="0" IVar="4" Cut="7.4224441528320312e+01" cType="1" res="2.9390281997621059e-03" rms="4.5641887187957764e-01" purity="5.0005501508712769e-01" nType="0">
        <Node pos="l" depth="1" NCoef="0" IVar="7" Cut="6.5888956189155579e-02" cType="1" res="-1.4574637636542320e-02" rms="4.5185950398445129e-01" purity="4.5255854725837708e-01" nType="0">
          <Node pos="l" depth="2" NCoef="0" IVar="-1" Cut="0.0000000000000000e+00" cType="1" res="-1.0959281353279948e-03" rms="4.4737285375595093e-01" purity="4.1593238711357117e-01" nType="-99"/>
          <Node pos="r" depth="2" NCoef="0" IVar="-1" Cut="0.0000000000000000e+00" cType="1" res="5.9130875160917640e-04" rms="4.5894941687583923e-01" purity="5.2740424871444702e-01" nType="-99"/>
        </Node>
        <Node pos="r" depth="1" NCoef="0" IVar="0" Cut="8.3199638128280640e-01" cType="1" res="2.4450916796922684e-02" rms="4.6104794740676880e-01" purity="5.5839455127716064e-01" nType="0">
          <Node pos="l" depth="2" NCoef="0" IVar="-1" Cut="0.0000000000000000e+00" cType="1" res="1.3891027774661779e-03" rms="4.5606902241706848e-01" purity="6.1282730102539062e-01" nType="-99"/>
          <Node pos="r" depth="2" NCoef="0" IVar="-1" Cut="0.0000000000000000e+00" cType="1" res="3.5996071528643370e-04" rms="4.6270707249641418e-01" purity="5.3433448076248169e-01" nType="-99"/>
        </Node>
      </Node>
    </BinaryTree>
    <BinaryTree type="DecisionTree" boostWeight="1.0000000000000000e+00" itree="454">
      <Node pos="s" depth="0" NCoef="0" IVar="5" Cut="1.6858313083648682e+00" cType="1" res="4.6697314828634262e-03" rms="4.5728376507759094e-01" purity="5.0016677379608154e-01" nType="0">
        <Node pos="l" depth="1" NCoef="0" IVar="8" Cut="1.1371601867675781e+02" cType="1" res="4.7279857099056244e-02" rms="4.5151072740554810e-01" purity="6.0959601402282715e-01" nType="0">
          <Node pos="l" depth="2" NCoef="0" IVar="-1" Cut="0.0000000000000000e+00" cType="1" res="3.0413980130106211e-04" rms="4.5828196406364441e-01" purity="5.3895652294158936e-01" nType="-99"/>
          <Node pos="r" depth="2" NCoef="0" IVar="-1" Cut="0.0000000000000000e+00" cType="1" res="1.9819268491119146e-03" rms="4.4342684745788574e-01" purity="6.6863334178924561e-01" nType="-99"/>
        </Node>
        <Node pos="r" depth="1" NCoef="0" IVar="0" Cut="1.5872542858123779e+00" cType="1" res="-1.4539209660142660e-03" rms="4.5778161287307739e-01" purity="4.8444035649299622e-01" nType="0">
          <Node pos="l" depth="2" NCoef="0" IVar="-1" Cut="0.0000000000000000e+00" cType="1" res="1.3734387175645679e-04" rms="4.5928838849067688e-01" purity="4.9902731180191040e-01" nType="-99"/>
          <Node pos="r" depth="2" NCoef="0" IVar="-1" Cut="0.0000000000000000e+00" cType="1" res="-1.6406308859586716e-03" rms="4.4423800706863403e-01" purity="3.7783157825469971e-01" nType="-99"/>
        </Node>
      </Node>
    </BinaryTree>
    <BinaryTree type="DecisionTree" boostWeight="1.0000000000000000e+00" itree="455">
      <Node pos="s" depth="0" NCoef="0" IVar="5" Cut="1.6858313083648682e+00" cType="1" res="2.6122862473130226e-03" rms="4.5735722780227661e-01" purity="4.9991726875305176e-01" nType="0">
        <Node pos="l" depth="1" NCoef="0" IVar="8" Cut="1.1386479949951172e+02" cType="1" res="4.6694688498973846e-02" rms="4.4943022727966309e-01" purity="6.1544603109359741e-01" nType="0">
          <Node pos="l" depth="2" NCoef="0" IVar="-1" Cut="0.0000000000000000e+00" cType="1" res="2.2879597963765264e-04" rms="4.6148478984832764e-01" purity="5.3526628017425537e-01" nType="-99"/>
          <Node pos="r" depth="2" NCoef="0" IVar="-1" Cut="0.0000000000000000e+00" cType="1" res="1.9903236534446478e-03" rms="4.3683454394340515e-01" purity="6.8067181110382080e-01" nType="-99"/>
        </Node>
        <Node pos="r" depth="1" NCoef="0" IVar="9" Cut="9.1206092834472656e+01" cType="1" res="-3.8580638356506824e-03" rms="4.5815238356590271e-01" purity="4.8296016454696655e-01" nType="0">
          <Node pos="l" depth="2" NCoef="0" IVar="-1" Cut="0.0000000000000000e+00" cType="1" res="-9.3018461484462023e-04" rms="4.5786345005035400e-01" purity="4.3681123852729797e-01" nType="-99"/>
          <Node pos="r" depth="2" NCoef="0" IVar="-1" Cut="0.0000000000000000e+00" cType="1" res="3.4321780549362302e-04" rms="4.5768502354621887e-01" purity="5.1174724102020264e-01" nType="-99"/>
        </Node>
      </Node>
    </BinaryTree>
    <BinaryTree type="DecisionTree" boostWeight="1.0000000000000000e+00" itree="456">
      <Node pos="s" depth="0" NCoef="0" IVar="4" Cut="1.0946470642089844e+02" cType="1" res="5.4823034442961216e-03" rms="4.5637726783752441e-01" purity="5.0220131874084473e-01" nType="0">
        <Node pos="l" depth="1" NCoef="0" IVar="7" Cut="1.4802694320678711e-01" cType="1" res="-3.9909067563712597e-03" rms="4.5499879121780396e-01" purity="4.7385531663894653e-01" nType="0">
          <Node pos="l" depth="2" NCoef="0" IVar="-1" Cut="0.0000000000000000e+00" cType="1" res="-4.5120331924408674e-04" rms="4.5373460650444031e-01" purity="4.5292821526527405e-01" nType="-99"/>
          <Node pos="r" depth="2" NCoef="0" IVar="-1" Cut="0.0000000000000000e+00" cType="1" res="1.1465040734037757e-03" rms="4.5811539888381958e-01" purity="5.6978529691696167e-01" nType="-99"/>
        </Node>
        <Node pos="r" depth="1" NCoef="0" IVar="9" Cut="9.4113822937011719e+01" cType="1" res="3.7391092628240585e-02" rms="4.5955571532249451e-01" purity="5.9767961502075195e-01" nType="0">
          <Node pos="l" depth="2" NCoef="0" IVar="-1" Cut="0.0000000000000000e+00" cType="1" res="3.4763780422508717e-04" rms="4.6889856457710266e-01" purity="5.6272059679031372e-01" nType="-99"/>
          <Node pos="r" depth="2" NCoef="0" IVar="-1" Cut="0.0000000000000000e+00" cType="1" res="1.4704425120726228e-03" rms="4.5234537124633789e-01" purity="6.2137335538864136e-01" nType="-99"/>
        </Node>
      </Node>
    </BinaryTree>
    <BinaryTree type="DecisionTree" boostWeight="1.0000000000000000e+00" itree="457">
      <Node pos="s" depth="0" NCoef="0" IVar="7" Cut="2.2722499072551727e-01" cType="1" res="2.1135732531547546e-03" rms="4.5691791176795959e-01" purity="4.9788859486579895e-01" nType="0">
        <Node pos="l" depth="1" NCoef="0" IVar="2" Cut="9.8827791213989258e-01" cType="1" res="-2.0414390601217747e-03" rms="4.5655617117881775e-01" purity="4.8857423663139343e-01" nType="0">
          <Node pos="l" depth="2" NCoef="0" IVar="-1" Cut="0.0000000000000000e+00" cType="1" res="2.0841285004280508e-04" rms="4.5718920230865479e-01" purity="5.1537054777145386e-01" nType="-99"/>
          <Node pos="r" depth="2" NCoef="0" IVar="-1" Cut="0.0000000000000000e+00" cType="1" res="-9.8562112543731928e-04" rms="4.5363983511924744e-01" purity="4.0916937589645386e-01" nType="-99"/>
        </Node>
        <Node pos="r" depth="1" NCoef="0" IVar="-1" Cut="0.0000000000000000e+00" cType="1" res="1.4479968231171370e-03" rms="4.5822566747665405e-01" purity="6.1588090658187866e-01" nType="-99"/>
      </Node>
    </BinaryTree>
    <BinaryTree type="DecisionTree" boostWeight="1.0000000000000000e+00" itree="458">
      <Node pos="s" depth="0" NCoef="0" IVar="6" Cut="1.4370611906051636e+00" cType="1" res="3.5699657164514065e-03" rms="4.5753750205039978e-01" purity="4.9943515658378601e-01" nType="0">
        <Node pos="l" depth="1" NCoef="0" IVar="3" Cut="1.4214767515659332e-01" cType="1" res="-3.5295642912387848e-02" rms="4.2929279804229736e-01" purity="2.7678608894348145e-01" nType="0">
          <Node pos="l" depth="2" NCoef="0" IVar="-1" Cut="0.0000000000000000e+00" cType="1" res="2.6697537396103144e-04" rms="4.4782134890556335e-01" purity="3.4281110763549805e-01" nType="-99"/>
          <Node pos="r" depth="2" NCoef="0" IVar="-1" Cut="0.0000000000000000e+00" cType="1" res="-2.6915981434285641e-03" rms="4.1888627409934998e-01" purity="2.4581725895404816e-01" nType="-99"/>
        </Node>
        <Node pos="r" depth="1" NCoef="0" IVar="3" Cut="2.4839183688163757e-01" cType="1" res="1.0842156596481800e-02" rms="4.6226814389228821e-01" purity="5.4109531641006470e-01" nType="0">
          <Node pos="l" depth="2" NCoef="0" IVar="-1" Cut="0.0000000000000000e+00" cType="1" res="1.4225578634068370e-03" rms="4.7023379802703857e-01" purity="5.0449228286743164e-01" nType="-99"/>
          <Node pos="r" depth="2" NCoef="0" IVar="-1" Cut="0.0000000000000000e+00" cType="1" res="3.4735428926069289e-05" rms="4.5964214205741882e-01" purity="5.5085426568984985e-01" nType="-99"/>
        </Node>
      </Node>
    </BinaryTree>
    <BinaryTree type="DecisionTree" boostWeight="1.0000000000000000e+00" itree="459">
      <Node pos="s" depth="0" NCoef="0" IVar="9" Cut="9.8045318603515625e+01" cType="1" res="4.7592390328645706e-03" rms="4.5711973309516907e-01" purity="5.0071251392364502e-01" nType="0">
        <Node pos="l" depth="1" NCoef="0" IVar="3" Cut="1.9032652676105499e-01" cType="1" res="-1.3016777113080025e-02" rms="4.5993044972419739e-01" purity="4.6766784787178040e-01" nType="0">
          <Node pos="l" depth="2" NCoef="0" IVar="-1" Cut="0.0000000000000000e+00" cType="1" res="1.2575661530718207e-03" rms="4.5745059847831726e-01" purity="4.2068019509315491e-01" nType="-99"/>
          <Node pos="r" depth="2" NCoef="0" IVar="-1" Cut="0.0000000000000000e+00" cType="1" res="-8.0991181312128901e-04" rms="4.5971134305000305e-01" purity="4.8022717237472534e-01" nType="-99"/>
        </Node>
        <Node pos="r" depth="1" NCoef="0" IVar="1" Cut="5.4438256835937500e+02" cType="1" res="2.1908007562160492e-02" rms="4.5373222231864929e-01" purity="5.3259104490280151e-01" nType="0">
          <Node pos="l" depth="2" NCoef="0" IVar="-1" Cut="0.0000000000000000e+00" cType="1" res="-2.1070301590953022e-04" rms="4.5056352019309998e-01" purity="4.1727140545845032e-01" nType="-99"/>
          <Node pos="r" depth="2" NCoef="0" IVar="-1" Cut="0.0000000000000000e+00" cType="1" res="1.1346654500812292e-03" rms="4.5490756630897522e-01" purity="6.1279708147048950e-01" nType="-99"/>
        </Node>
      </Node>
    </BinaryTree>
    <BinaryTree type="DecisionTree" boostWeight="1.0000000000000000e+00" itree="460">
      <Node pos="s" depth="0" NCoef="0" IVar="6" Cut="4.9641370773315430e+00" cType="1" res="2.1950954105705023e-03" rms="4.5686221122741699e-01" purity="4.9915936589241028e-01" nType="0">
        <Node pos="l" depth="1" NCoef="0" IVar="3" Cut="4.2258775234222412e-01" cType="1" res="-3.0409505125135183e-03" rms="4.6266484260559082e-01" purity="4.6822801232337952e-01" nType="0">
          <Node pos="l" depth="2" NCoef="0" IVar="-1" Cut="0.0000000000000000e+00" cType="1" res="3.9702013600617647e-04" rms="4.5929539203643799e-01" purity="4.3026486039161682e-01" nType="-99"/>
          <Node pos="r" depth="2" NCoef="0" IVar="-1" Cut="0.0000000000000000e+00" cType="1" res="-7.6041358988732100e-04" rms="4.6700027585029602e-01" purity="5.2862298488616943e-01" nType="-99"/>
        </Node>
        <Node pos="r" depth="1" NCoef="0" IVar="-1" Cut="0.0000000000000000e+00" cType="1" res="1.3880574842914939e-03" rms="3.9433085918426514e-01" purity="7.9196935892105103e-01" nType="-99"/>
      </Node>
    </BinaryTree>
    <BinaryTree type="DecisionTree" boostWeight="1.0000000000000000e+00" itree="461">
      <Node pos="s" depth="0" NCoef="0" IVar="1" Cut="3.8231021118164062e+02" cType="1" res="1.2357723899185658e-03" rms="4.5556294918060303e-01" purity="4.9828508496284485e-01" nType="0">
        <Node pos="l" depth="1" NCoef="0" IVar="1" Cut="3.5210385131835938e+02" cType="1" res="-5.2838213741779327e-02" rms="4.1557651758193970e-01" purity="2.7748215198516846e-01" nType="0">
          <Node pos="l" depth="2" NCoef="0" IVar="-1" Cut="0.0000000000000000e+00" cType="1" res="-4.0381671860814095e-03" rms="3.9337605237960815e-01" purity="2.3869292438030243e-01" nType="-99"/>
          <Node pos="r" depth="2" NCoef="0" IVar="-1" Cut="0.0000000000000000e+00" cType="1" res="-1.1428131256252527e-03" rms="4.3361490964889526e-01" purity="3.1358742713928223e-01" nType="-99"/>
        </Node>
        <Node pos="r" depth="1" NCoef="0" IVar="2" Cut="5.7377630472183228e-01" cType="1" res="7.7121839858591557e-03" rms="4.5969280600547791e-01" purity="5.2473050355911255e-01" nType="0">
          <Node pos="l" depth="2" NCoef="0" IVar="-1" Cut="0.0000000000000000e+00" cType="1" res="9.9235167726874352e-04" rms="4.5336723327636719e-01" purity="6.0631895065307617e-01" nType="-99"/>
          <Node pos="r" depth="2" NCoef="0" IVar="-1" Cut="0.0000000000000000e+00" cType="1" res="-6.3138853874988854e-05" rms="4.6143749356269836e-01" purity="4.9674466252326965e-01" nType="-99"/>
        </Node>
      </Node>
    </BinaryTree>
    <BinaryTree type="DecisionTree" boostWeight="1.0000000000000000e+00" itree="462">
      <Node pos="s" depth="0" NCoef="0" IVar="0" Cut="1.4073818922042847e+00" cType="1" res="1.6883182106539607e-03" rms="4.5667770504951477e-01" purity="4.9731215834617615e-01" nType="0">
        <Node pos="l" depth="1" NCoef="0" IVar="6" Cut="9.8079091310501099e-01" cType="1" res="1.0652197524905205e-02" rms="4.5850616693496704e-01" purity="5.1893520355224609e-01" nType="0">
          <Node pos="l" depth="2" NCoef="0" IVar="-1" Cut="0.0000000000000000e+00" cType="1" res="-2.4858545511960983e-03" rms="4.2016330361366272e-01" purity="2.6366713643074036e-01" nType="-99"/>
          <Node pos="r" depth="2" NCoef="0" IVar="-1" Cut="0.0000000000000000e+00" cType="1" res="4.5531228533945978e-04" rms="4.6101936697959900e-01" purity="5.3893834352493286e-01" nType="-99"/>
        </Node>
        <Node pos="r" depth="1" NCoef="0" IVar="1" Cut="4.9876388549804688e+02" cType="1" res="-2.9491417109966278e-02" rms="4.4886761903762817e-01" purity="4.2209920287132263e-01" nType="0">
          <Node pos="l" depth="2" NCoef="0" IVar="-1" Cut="0.0000000000000000e+00" cType="1" res="-2.1585223730653524e-03" rms="4.3333426117897034e-01" purity="3.3164173364639282e-01" nType="-99"/>
          <Node pos="r" depth="2" NCoef="0" IVar="-1" Cut="0.0000000000000000e+00" cType="1" res="6.6954144131159410e-06" rms="4.6528068184852600e-01" purity="5.3178089857101440e-01" nType="-99"/>
        </Node>
      </Node>
    </BinaryTree>
    <BinaryTree type="DecisionTree" boostWeight="1.0000000000000000e+00" itree="463">
      <Node pos="s" depth="0" NCoef="0" IVar="6" Cut="5.0367631912231445e+00" cType="1" res="7.0339352823793888e-03" rms="4.5576262474060059e-01" purity="5.0512790679931641e-01" nType="0">
        <Node pos="l" depth="1" NCoef="0" IVar="3" Cut="5.5802571773529053e-01" cType="1" res="1.9015299621969461e-03" rms="4.6187043190002441e-01" purity="4.7540736198425293e-01" nType="0">
          <Node pos="l" depth="2" NCoef="0" IVar="-1" Cut="0.0000000000000000e+00" cType="1" res="3.5705752088688314e-04" rms="4.5891684293746948e-01" purity="4.4628113508224487e-01" nType="-99"/>
          <Node pos="r" depth="2" NCoef="0" IVar="-1" Cut="0.0000000000000000e+00" cType="1" res="-7.1737164398655295e-04" rms="4.6983128786087036e-01" purity="5.6613940000534058e-01" nType="-99"/>
        </Node>
        <Node pos="r" depth="1" NCoef="0" IVar="-1" Cut="0.0000000000000000e+00" cType="1" res="1.5661850338801742e-03" rms="3.8500517606735229e-01" purity="8.0496627092361450e-01" nType="-99"/>
      </Node>
    </BinaryTree>
    <BinaryTree type="DecisionTree" boostWeight="1.0000000000000000e+00" itree="464">
      <Node pos="s" depth="0" NCoef="0" IVar="6" Cut="2.1073932647705078e+00" cType="1" res="9.0493768220767379e-04" rms="4.5499715209007263e-01" purity="4.9821281433105469e-01" nType="0">
        <Node pos="l" depth="1" NCoef="0" IVar="3" Cut="1.7266166210174561e-01" cType="1" res="-2.4761589244008064e-02" rms="4.4373357295989990e-01" purity="3.1526198983192444e-01" nType="0">
          <Node pos="l" depth="2" NCoef="0" IVar="-1" Cut="0.0000000000000000e+00" cType="1" res="3.3765647094696760e-04" rms="4.5555374026298523e-01" purity="3.6161667108535767e-01" nType="-99"/>
          <Node pos="r" depth="2" NCoef="0" IVar="-1" Cut="0.0000000000000000e+00" cType="1" res="-1.9442511256784201e-03" rms="4.3497410416603088e-01" purity="2.8653937578201294e-01" nType="-99"/>
        </Node>
        <Node pos="r" depth="1" NCoef="0" IVar="3" Cut="2.2903673350811005e-01" cType="1" res="1.3282033614814281e-02" rms="4.5981854200363159e-01" purity="5.8643656969070435e-01" nType="0">
          <Node pos="l" depth="2" NCoef="0" IVar="-1" Cut="0.0000000000000000e+00" cType="1" res="2.1181392949074507e-03" rms="4.6728980541229248e-01" purity="6.0423588752746582e-01" nType="-99"/>
          <Node pos="r" depth="2" NCoef="0" IVar="-1" Cut="0.0000000000000000e+00" cType="1" res="1.3449828838929534e-04" rms="4.5816770195960999e-01" purity="5.8413755893707275e-01" nType="-99"/>
        </Node>
      </Node>
    </BinaryTree>
    <BinaryTree type="DecisionTree" boostWeight="1.0000000000000000e+00" itree="465">
      <Node pos="s" depth="0" NCoef="0" IVar="4" Cut="8.5706649780273438e+01" cType="1" res="4.5761750079691410e-03" rms="4.5656374096870422e-01" purity="5.0092303752899170e-01" nType="0">
        <Node pos="l" depth="1" NCoef="0" IVar="7" Cut="-9.7642391920089722e-03" cType="1" res="-8.7594082579016685e-03" rms="4.5361563563346863e-01" purity="4.6017348766326904e-01" nType="0">
          <Node pos="l" depth="2" NCoef="0" IVar="-1" Cut="0.0000000000000000e+00" cType="1" res="-9.8829204216599464e-04" rms="4.4842520356178284e-01" purity="4.1372662782669067e-01" nType="-99"/>
          <Node pos="r" depth="2" NCoef="0" IVar="-1" Cut="0.0000000000000000e+00" cType="1" res="3.0249491101130843e-04" rms="4.5775905251502991e-01" purity="5.0467056035995483e-01" nType="-99"/>
        </Node>
        <Node pos="r" depth="1" NCoef="0" IVar="0" Cut="6.9641578197479248e-01" cType="1" res="2.7594007551670074e-02" rms="4.6070072054862976e-01" purity="5.7125878334045410e-01" nType="0">
          <Node pos="l" depth="2" NCoef="0" IVar="-1" Cut="0.0000000000000000e+00" cType="1" res="1.8744793487712741e-03" rms="4.5625320076942444e-01" purity="6.3863623142242432e-01" nType="-99"/>
          <Node pos="r" depth="2" NCoef="0" IVar="-1" Cut="0.0000000000000000e+00" cType="1" res="5.0671806093305349e-04" rms="4.6108791232109070e-01" purity="5.5620276927947998e-01" nType="-99"/>
        </Node>
      </Node>
    </BinaryTree>
    <BinaryTree type="DecisionTree" boostWeight="1.0000000000000000e+00" itree="466">
      <Node pos="s" depth="0" NCoef="0" IVar="5" Cut="2.8929274082183838e+00" cType="1" res="2.6564346626400948e-03" rms="4.5770165324211121e-01" purity="4.9855935573577881e-01" nType="0">
        <Node pos="l" depth="1" NCoef="0" IVar="3" Cut="3.4516459703445435e-01" cType="1" res="6.9528855383396149e-03" rms="4.6107211709022522e-01" purity="5.1460421085357666e-01" nType="0">
          <Node pos="l" depth="2" NCoef="0" IVar="-1" Cut="0.0000000000000000e+00" cType="1" res="8.1604404840618372e-04" rms="4.6410369873046875e-01" purity="4.4711604714393616e-01" nType="-99"/>
          <Node pos="r" depth="2" NCoef="0" IVar="-1" Cut="0.0000000000000000e+00" cType="1" res="-2.5390920927748084e-04" rms="4.5774865150451660e-01" purity="5.7505595684051514e-01" nType="-99"/>
        </Node>
        <Node pos="r" depth="1" NCoef="0" IVar="-1" Cut="0.0000000000000000e+00" cType="1" res="-4.3216249905526638e-03" rms="3.8190189003944397e-01" purity="2.0302356779575348e-01" nType="-99"/>
      </Node>
    </BinaryTree>
    <BinaryTree type="DecisionTree" boostWeight="1.0000000000000000e+00" itree="467">
      <Node pos="s" depth="0" NCoef="0" IVar="7" Cut="-1.1176129430532455e-01" cType="1" res="4.5269541442394257e-03" rms="4.5666563510894775e-01" purity="5.0217849016189575e-01" nType="0">
        <Node pos="l" depth="1" NCoef="0" IVar="-1" Cut="0.0000000000000000e+00" cType="1" res="-2.4564117193222046e-03" rms="4.3655106425285339e-01" purity="3.6504751443862915e-01" nType="-99"/>
        <Node pos="r" depth="1" NCoef="0" IVar="4" Cut="3.4149551391601562e+01" cType="1" res="9.1921305283904076e-03" rms="4.5759773254394531e-01" purity="5.1133644580841064e-01" nType="0">
          <Node pos="l" depth="2" NCoef="0" IVar="-1" Cut="0.0000000000000000e+00" cType="1" res="-8.8926800526678562e-04" rms="4.5135360956192017e-01" purity="4.3262368440628052e-01" nType="-99"/>
          <Node pos="r" depth="2" NCoef="0" IVar="-1" Cut="0.0000000000000000e+00" cType="1" res="4.8689829418435693e-04" rms="4.5852488279342651e-01" purity="5.2735340595245361e-01" nType="-99"/>
        </Node>
      </Node>
    </BinaryTree>
    <BinaryTree type="DecisionTree" boostWeight="1.0000000000000000e+00" itree="468">
      <Node pos="s" depth="0" NCoef="0" IVar="7" Cut="1.6334404051303864e-01" cType="1" res="8.9137256145477295e-03" rms="4.5733454823493958e-01" purity="5.0658142566680908e-01" nType="0">
        <Node pos="l" depth="1" NCoef="0" IVar="6" Cut="4.9472408294677734e+00" cType="1" res="5.4717983584851027e-04" rms="4.5653772354125977e-01" purity="4.8751309514045715e-01" nType="0">
          <Node pos="l" depth="2" NCoef="0" IVar="-1" Cut="0.0000000000000000e+00" cType="1" res="-1.9347052148077637e-04" rms="4.6269285678863525e-01" purity="4.5341372489929199e-01" nType="-99"/>
          <Node pos="r" depth="2" NCoef="0" IVar="-1" Cut="0.0000000000000000e+00" cType="1" res="1.5713222092017531e-03" rms="3.9185705780982971e-01" purity="7.9473674297332764e-01" nType="-99"/>
        </Node>
        <Node pos="r" depth="1" NCoef="0" IVar="3" Cut="2.6769369840621948e-01" cType="1" res="5.1170166581869125e-02" rms="4.5901370048522949e-01" purity="6.0288852453231812e-01" nType="0">
          <Node pos="l" depth="2" NCoef="0" IVar="-1" Cut="0.0000000000000000e+00" cType="1" res="2.6998964603990316e-03" rms="4.6672517061233521e-01" purity="5.5907648801803589e-01" nType="-99"/>
          <Node pos="r" depth="2" NCoef="0" IVar="-1" Cut="0.0000000000000000e+00" cType="1" res="7.5451115844771266e-04" rms="4.5345693826675415e-01" purity="6.2396484613418579e-01" nType="-99"/>
        </Node>
      </Node>
    </BinaryTree>
    <BinaryTree type="DecisionTree" boostWeight="1.0000000000000000e+00" itree="469">
      <Node pos="s" depth="0" NCoef="0" IVar="3" Cut="2.2903673350811005e-01" cType="1" res="1.6537574119865894e-03" rms="4.5793664455413818e-01" purity="4.9798595905303955e-01" nType="0">
        <Node pos="l" depth="1" NCoef="0" IVar="6" Cut="2.0125265121459961e+00" cType="1" res="2.8650535270571709e-02" rms="4.5843824744224548e-01" purity="4.2493990063667297e-01" nType="0">
          <Node pos="l" depth="2" NCoef="0" IVar="-1" Cut="0.0000000000000000e+00" cType="1" res="1.4812606968916953e-04" rms="4.5455700159072876e-01" purity="3.4429985284805298e-01" nType="-99"/>
          <Node pos="r" depth="2" NCoef="0" IVar="-1" Cut="0.0000000000000000e+00" cType="1" res="2.2291569039225578e-03" rms="4.6214085817337036e-01" purity="6.0381305217742920e-01" nType="-99"/>
        </Node>
        <Node pos="r" depth="1" NCoef="0" IVar="6" Cut="2.7759892940521240e+00" cType="1" res="-9.0065877884626389e-03" rms="4.5729970932006836e-01" purity="5.2683007717132568e-01" nType="0">
          <Node pos="l" depth="2" NCoef="0" IVar="-1" Cut="0.0000000000000000e+00" cType="1" res="-1.2839407427236438e-03" rms="4.5682495832443237e-01" purity="3.4725037217140198e-01" nType="-99"/>
          <Node pos="r" depth="2" NCoef="0" IVar="-1" Cut="0.0000000000000000e+00" cType="1" res="1.3989525905344635e-04" rms="4.5692771673202515e-01" purity="6.2451058626174927e-01" nType="-99"/>
        </Node>
      </Node>
    </BinaryTree>
    <BinaryTree type="DecisionTree" boostWeight="1.0000000000000000e+00" itree="470">
      <Node pos="s" depth="0" NCoef="0" IVar="6" Cut="4.5363149642944336e+00" cType="1" res="3.5261772572994232e-03" rms="4.5643573999404907e-01" purity="5.0042557716369629e-01" nType="0">
        <Node pos="l" depth="1" NCoef="0" IVar="3" Cut="5.9671825170516968e-01" cType="1" res="-4.1116285137832165e-03" rms="4.6427878737449646e-01" purity="4.5316135883331299e-01" nType="0">
          <Node pos="l" depth="2" NCoef="0" IVar="-1" Cut="0.0000000000000000e+00" cType="1" res="1.8344793352298439e-04" rms="4.6067821979522705e-01" purity="4.4092544913291931e-01" nType="-99"/>
          <Node pos="r" depth="2" NCoef="0" IVar="-1" Cut="0.0000000000000000e+00" cType="1" res="-1.4886368298903108e-03" rms="4.7913491725921631e-01" purity="5.1552128791809082e-01" nType="-99"/>
        </Node>
        <Node pos="r" depth="1" NCoef="0" IVar="-1" Cut="0.0000000000000000e+00" cType="1" res="1.2605183292180300e-03" rms="4.0537300705909729e-01" purity="7.7350324392318726e-01" nType="-99"/>
      </Node>
    </BinaryTree>
    <BinaryTree type="DecisionTree" boostWeight="1.0000000000000000e+00" itree="471">
      <Node pos="s" depth="0" NCoef="0" IVar="5" Cut="1.7245489358901978e+00" cType="1" res="1.4763576909899712e-03" rms="4.5697319507598877e-01" purity="4.9769449234008789e-01" nType="0">
        <Node pos="l" depth="1" NCoef="0" IVar="8" Cut="1.1300651550292969e+02" cType="1" res="4.1991841048002243e-02" rms="4.5028275251388550e-01" purity="6.0847604274749756e-01" nType="0">
          <Node pos="l" depth="2" NCoef="0" IVar="-1" Cut="0.0000000000000000e+00" cType="1" res="9.0494257165119052e-05" rms="4.6321994066238403e-01" purity="5.2694243192672729e-01" nType="-99"/>
          <Node pos="r" depth="2" NCoef="0" IVar="-1" Cut="0.0000000000000000e+00" cType="1" res="1.7921905964612961e-03" rms="4.3855509161949158e-01" purity="6.6739112138748169e-01" nType="-99"/>
        </Node>
        <Node pos="r" depth="1" NCoef="0" IVar="9" Cut="8.7596199035644531e+01" cType="1" res="-5.2209119312465191e-03" rms="4.5772445201873779e-01" purity="4.7938209772109985e-01" nType="0">
          <Node pos="l" depth="2" NCoef="0" IVar="-1" Cut="0.0000000000000000e+00" cType="1" res="-1.0472100693732500e-03" rms="4.5634314417839050e-01" purity="4.2910245060920715e-01" nType="-99"/>
          <Node pos="r" depth="2" NCoef="0" IVar="-1" Cut="0.0000000000000000e+00" cType="1" res="2.7793162735179067e-04" rms="4.5784980058670044e-01" purity="5.0670874118804932e-01" nType="-99"/>
        </Node>
      </Node>
    </BinaryTree>
    <BinaryTree type="DecisionTree" boostWeight="1.0000000000000000e+00" itree="472">
      <Node pos="s" depth="0" NCoef="0" IVar="6" Cut="1.0723695755004883e+00" cType="1" res="3.3046544995158911e-03" rms="4.5572587847709656e-01" purity="5.0030553340911865e-01" nType="0">
        <Node pos="l" depth="1" NCoef="0" IVar="-1" Cut="0.0000000000000000e+00" cType="1" res="-3.0180076137185097e-03" rms="4.1227498650550842e-01" purity="2.4495252966880798e-01" nType="-99"/>
        <Node pos="r" depth="1" NCoef="0" IVar="6" Cut="5.0711236000061035e+00" cType="1" res="9.2785824090242386e-03" rms="4.5918887853622437e-01" purity="5.2454406023025513e-01" nType="0">
          <Node pos="l" depth="2" NCoef="0" IVar="-1" Cut="0.0000000000000000e+00" cType="1" res="1.1316682503093034e-04" rms="4.6576893329620361e-01" purity="4.9602204561233521e-01" nType="-99"/>
          <Node pos="r" depth="2" NCoef="0" IVar="-1" Cut="0.0000000000000000e+00" cType="1" res="1.6903204377740622e-03" rms="3.8403224945068359e-01" purity="8.0622112751007080e-01" nType="-99"/>
        </Node>
      </Node>
    </BinaryTree>
    <BinaryTree type="DecisionTree" boostWeight="1.0000000000000000e+00" itree="473">
      <Node pos="s" depth="0" NCoef="0" IVar="6" Cut="2.2312242984771729e+00" cType="1" res="3.9835984352976084e-04" rms="4.5642510056495667e-01" purity="4.9813610315322876e-01" nType="0">
        <Node pos="l" depth="1" NCoef="0" IVar="3" Cut="2.2022645175457001e-01" cType="1" res="-2.1192109212279320e-02" rms="4.4879287481307983e-01" purity="3.2656416296958923e-01" nType="0">
          <Node pos="l" depth="2" NCoef="0" IVar="-1" Cut="0.0000000000000000e+00" cType="1" res="-2.7694650270859711e-05" rms="4.5683971047401428e-01" purity="3.5140156745910645e-01" nType="-99"/>
          <Node pos="r" depth="2" NCoef="0" IVar="-1" Cut="0.0000000000000000e+00" cType="1" res="-1.9410267705097795e-03" rms="4.3677380681037903e-01" purity="2.9451939463615417e-01" nType="-99"/>
        </Node>
        <Node pos="r" depth="1" NCoef="0" IVar="3" Cut="2.2903418540954590e-01" cType="1" res="1.2737719342112541e-02" rms="4.6027567982673645e-01" purity="5.9619271755218506e-01" nType="0">
          <Node pos="l" depth="2" NCoef="0" IVar="-1" Cut="0.0000000000000000e+00" cType="1" res="1.9098100019618869e-03" rms="4.6412742137908936e-01" purity="6.1258488893508911e-01" nType="-99"/>
          <Node pos="r" depth="2" NCoef="0" IVar="-1" Cut="0.0000000000000000e+00" cType="1" res="1.5889362839516252e-04" rms="4.5932120084762573e-01" purity="5.9422791004180908e-01" nType="-99"/>
        </Node>
      </Node>
    </BinaryTree>
    <BinaryTree type="DecisionTree" boostWeight="1.0000000000000000e+00" itree="474">
      <Node pos="s" depth="0" NCoef="0" IVar="6" Cut="2.9996874332427979e+00" cType="1" res="5.6388089433312416e-03" rms="4.5558199286460876e-01" purity="5.0411701202392578e-01" nType="0">
        <Node pos="l" depth="1" NCoef="0" IVar="3" Cut="1.7399142682552338e-01" cType="1" res="-1.1539126746356487e-02" rms="4.5928925275802612e-01" purity="3.7830811738967896e-01" nType="0">
          <Node pos="l" depth="2" NCoef="0" IVar="-1" Cut="0.0000000000000000e+00" cType="1" res="1.0173954069614410e-03" rms="4.6218043565750122e-01" purity="4.0813767910003662e-01" nType="-99"/>
          <Node pos="r" depth="2" NCoef="0" IVar="-1" Cut="0.0000000000000000e+00" cType="1" res="-9.6529436996206641e-04" rms="4.5722860097885132e-01" purity="3.6660188436508179e-01" nType="-99"/>
        </Node>
        <Node pos="r" depth="1" NCoef="0" IVar="3" Cut="4.1180956363677979e-01" cType="1" res="2.6885138824582100e-02" rms="4.5004853606224060e-01" purity="6.5972226858139038e-01" nType="0">
          <Node pos="l" depth="2" NCoef="0" IVar="-1" Cut="0.0000000000000000e+00" cType="1" res="1.8437841208651662e-03" rms="4.4816079735755920e-01" purity="6.7445838451385498e-01" nType="-99"/>
          <Node pos="r" depth="2" NCoef="0" IVar="-1" Cut="0.0000000000000000e+00" cType="1" res="3.8221850991249084e-04" rms="4.4968423247337341e-01" purity="6.5597033500671387e-01" nType="-99"/>
        </Node>
      </Node>
    </BinaryTree>
    <BinaryTree type="DecisionTree" boostWeight="1.0000000000000000e+00" itree="475">
      <Node pos="s" depth="0" NCoef="0" IVar="6" Cut="2.9451241493225098e+00" cType="1" res="4.7774966806173325e-03" rms="4.5689767599105835e-01" purity="5.0233143568038940e-01" nType="0">
        <Node pos="l" depth="1" NCoef="0" IVar="9" Cut="1.5997573852539062e+02" cType="1" res="-9.6904113888740540e-03" rms="4.6030217409133911e-01" purity="3.7611752748489380e-01" nType="0">
          <Node pos="l" depth="2" NCoef="0" IVar="-1" Cut="0.0000000000000000e+00" cType="1" res="-6.5008574165403843e-04" rms="4.5895650982856750e-01" purity="3.6712348461151123e-01" nType="-99"/>
          <Node pos="r" depth="2" NCoef="0" IVar="-1" Cut="0.0000000000000000e+00" cType="1" res="1.7200905131176114e-03" rms="4.6592253446578979e-01" purity="4.4390830397605896e-01" nType="-99"/>
        </Node>
        <Node pos="r" depth="1" NCoef="0" IVar="3" Cut="4.4193416833877563e-01" cType="1" res="2.1851059049367905e-02" rms="4.5225208997726440e-01" purity="6.5127635002136230e-01" nType="0">
          <Node pos="l" depth="2" NCoef="0" IVar="-1" Cut="0.0000000000000000e+00" cType="1" res="1.7256975406780839e-03" rms="4.5384415984153748e-01" purity="6.6059732437133789e-01" nType="-99"/>
          <Node pos="r" depth="2" NCoef="0" IVar="-1" Cut="0.0000000000000000e+00" cType="1" res="1.8329051090404391e-04" rms="4.5070821046829224e-01" purity="6.4832854270935059e-01" nType="-99"/>
        </Node>
      </Node>
    </BinaryTree>
    <BinaryTree type="DecisionTree" boostWeight="1.0000000000000000e+00" itree="476">
      <Node pos="s" depth="0" NCoef="0" IVar="8" Cut="9.1770538330078125e+01" cType="1" res="8.0108642578125000e-03" rms="4.5571050047874451e-01" purity="5.0511944293975830e-01" nType="0">
        <Node pos="l" depth="1" NCoef="0" IVar="-1" Cut="0.0000000000000000e+00" cType="1" res="-1.4221831224858761e-03" rms="4.5273548364639282e-01" purity="4.1331276297569275e-01" nType="-99"/>
        <Node pos="r" depth="1" NCoef="0" IVar="5" Cut="1.6533396244049072e+00" cType="1" res="1.3272960670292377e-02" rms="4.5570456981658936e-01" purity="5.1479858160018921e-01" nType="0">
          <Node pos="l" depth="2" NCoef="0" IVar="-1" Cut="0.0000000000000000e+00" cType="1" res="1.7402864759787917e-03" rms="4.4663414359092712e-01" purity="6.5555810928344727e-01" nType="-99"/>
          <Node pos="r" depth="2" NCoef="0" IVar="-1" Cut="0.0000000000000000e+00" cType="1" res="2.0370834681671113e-04" rms="4.5638126134872437e-01" purity="4.9726939201354980e-01" nType="-99"/>
        </Node>
      </Node>
    </BinaryTree>
    <BinaryTree type="DecisionTree" boostWeight="1.0000000000000000e+00" itree="477">
      <Node pos="s" depth="0" NCoef="0" IVar="1" Cut="3.8148245239257812e+02" cType="1" res="2.0210237707942724e-03" rms="4.5605203509330750e-01" purity="5.0064730644226074e-01" nType="0">
        <Node pos="l" depth="1" NCoef="0" IVar="1" Cut="3.5477835083007812e+02" cType="1" res="-4.9760084599256516e-02" rms="4.1330435872077942e-01" purity="2.8342524170875549e-01" nType="0">
          <Node pos="l" depth="2" NCoef="0" IVar="-1" Cut="0.0000000000000000e+00" cType="1" res="-3.8931469898670912e-03" rms="3.8778197765350342e-01" purity="2.4219469726085663e-01" nType="-99"/>
          <Node pos="r" depth="2" NCoef="0" IVar="-1" Cut="0.0000000000000000e+00" cType="1" res="-7.6743989484384656e-04" rms="4.3681925535202026e-01" purity="3.2745346426963806e-01" nType="-99"/>
        </Node>
        <Node pos="r" depth="1" NCoef="0" IVar="0" Cut="7.0357185602188110e-01" cType="1" res="8.2973036915063858e-03" rms="4.6056869626045227e-01" purity="5.2697634696960449e-01" nType="0">
          <Node pos="l" depth="2" NCoef="0" IVar="-1" Cut="0.0000000000000000e+00" cType="1" res="1.2445744359865785e-03" rms="4.5567563176155090e-01" purity="5.9904569387435913e-01" nType="-99"/>
          <Node pos="r" depth="2" NCoef="0" IVar="-1" Cut="0.0000000000000000e+00" cType="1" res="6.8387807914405130e-06" rms="4.6121537685394287e-01" purity="5.1147705316543579e-01" nType="-99"/>
        </Node>
      </Node>
    </BinaryTree>
    <BinaryTree type="DecisionTree" boostWeight="1.0000000000000000e+00" itree="478">
      <Node pos="s" depth="0" NCoef="0" IVar="6" Cut="2.7619390487670898e+00" cType="1" res="1.1762921931222081e-03" rms="4.5575824379920959e-01" purity="4.9878084659576416e-01" nType="0">
        <Node pos="l" depth="1" NCoef="0" IVar="3" Cut="2.5371310114860535e-01" cType="1" res="-1.4661684632301331e-02" rms="4.5580911636352539e-01" purity="3.6103895306587219e-01" nType="0">
          <Node pos="l" depth="2" NCoef="0" IVar="-1" Cut="0.0000000000000000e+00" cType="1" res="3.2710839877836406e-04" rms="4.5593872666358948e-01" purity="3.7871754169464111e-01" nType="-99"/>
          <Node pos="r" depth="2" NCoef="0" IVar="-1" Cut="0.0000000000000000e+00" cType="1" res="-1.6868414822965860e-03" rms="4.5379805564880371e-01" purity="3.3768028020858765e-01" nType="-99"/>
        </Node>
        <Node pos="r" depth="1" NCoef="0" IVar="3" Cut="3.6452245712280273e-01" cType="1" res="1.6776680946350098e-02" rms="4.5516964793205261e-01" purity="6.3445645570755005e-01" nType="0">
          <Node pos="l" depth="2" NCoef="0" IVar="-1" Cut="0.0000000000000000e+00" cType="1" res="1.8050136277452111e-03" rms="4.5560526847839355e-01" purity="6.5069538354873657e-01" nType="-99"/>
          <Node pos="r" depth="2" NCoef="0" IVar="-1" Cut="0.0000000000000000e+00" cType="1" res="9.4449518655892462e-05" rms="4.5406171679496765e-01" purity="6.3057941198348999e-01" nType="-99"/>
        </Node>
      </Node>
    </BinaryTree>
    <BinaryTree type="DecisionTree" boostWeight="1.0000000000000000e+00" itree="479">
      <Node pos="s" depth="0" NCoef="0" IVar="2" Cut="5.8867311477661133e-01" cType="1" res="1.6377108404412866e-03" rms="4.5603680610656738e-01" purity="4.9961665272712708e-01" nType="0">
        <Node pos="l" depth="1" NCoef="0" IVar="9" Cut="1.2309848785400391e+02" cType="1" res="2.8251780197024345e-02" rms="4.5380988717079163e-01" purity="5.8114975690841675e-01" nType="0">
          <Node pos="l" depth="2" NCoef="0" IVar="-1" Cut="0.0000000000000000e+00" cType="1" res="4.4511447777040303e-04" rms="4.5746198296546936e-01" purity="5.5568301677703857e-01" nType="-99"/>
          <Node pos="r" depth="2" NCoef="0" IVar="-1" Cut="0.0000000000000000e+00" cType="1" res="1.6949938144534826e-03" rms="4.4179266691207886e-01" purity="6.5071511268615723e-01" nType="-99"/>
        </Node>
        <Node pos="r" depth="1" NCoef="0" IVar="7" Cut="1.2484618462622166e-02" cType="1" res="-7.8705539926886559e-03" rms="4.5645371079444885e-01" purity="4.7048777341842651e-01" nType="0">
          <Node pos="l" depth="2" NCoef="0" IVar="-1" Cut="0.0000000000000000e+00" cType="1" res="-9.4286800595000386e-04" rms="4.5317435264587402e-01" purity="4.0905296802520752e-01" nType="-99"/>
          <Node pos="r" depth="2" NCoef="0" IVar="-1" Cut="0.0000000000000000e+00" cType="1" res="2.6775489095598459e-04" rms="4.5872214436531067e-01" purity="5.2569085359573364e-01" nType="-99"/>
        </Node>
      </Node>
    </BinaryTree>
    <BinaryTree type="DecisionTree" boostWeight="1.0000000000000000e+00" itree="480">
      <Node pos="s" depth="0" NCoef="0" IVar="6" Cut="3.6348047256469727e+00" cType="1" res="-3.9616221329197288e-04" rms="4.5618870854377747e-01" purity="4.9497103691101074e-01" nType="0">
        <Node pos="l" depth="1" NCoef="0" IVar="3" Cut="3.8339725136756897e-01" cType="1" res="-1.1333538219332695e-02" rms="4.6246036887168884e-01" purity="4.0831005573272705e-01" nType="0">
          <Node pos="l" depth="2" NCoef="0" IVar="-1" Cut="0.0000000000000000e+00" cType="1" res="8.1215963291469961e-05" rms="4.6009144186973572e-01" purity="4.0258198976516724e-01" nType="-99"/>
          <Node pos="r" depth="2" NCoef="0" IVar="-1" Cut="0.0000000000000000e+00" cType="1" res="-1.3366523198783398e-03" rms="4.6634861826896667e-01" purity="4.2147752642631531e-01" nType="-99"/>
        </Node>
        <Node pos="r" depth="1" NCoef="0" IVar="1" Cut="4.6961270141601562e+02" cType="1" res="2.5147659704089165e-02" rms="4.4013702869415283e-01" purity="6.9736438989639282e-01" nType="0">
          <Node pos="l" depth="2" NCoef="0" IVar="-1" Cut="0.0000000000000000e+00" cType="1" res="-2.7457840042188764e-04" rms="4.6921280026435852e-01" purity="5.9512144327163696e-01" nType="-99"/>
          <Node pos="r" depth="2" NCoef="0" IVar="-1" Cut="0.0000000000000000e+00" cType="1" res="1.0252612410113215e-03" rms="4.2661124467849731e-01" purity="7.3983442783355713e-01" nType="-99"/>
        </Node>
      </Node>
    </BinaryTree>
    <BinaryTree type="DecisionTree" boostWeight="1.0000000000000000e+00" itree="481">
      <Node pos="s" depth="0" NCoef="0" IVar="7" Cut="-1.0643766820430756e-01" cType="1" res="6.6672735847532749e-03" rms="4.5687559247016907e-01" purity="5.0409609079360962e-01" nType="0">
        <Node pos="l" depth="1" NCoef="0" IVar="-1" Cut="0.0000000000000000e+00" cType="1" res="-1.7042300896719098e-03" rms="4.4571655988693237e-01" purity="3.7655264139175415e-01" nType="-99"/>
        <Node pos="r" depth="1" NCoef="0" IVar="6" Cut="1.3208891153335571e+00" cType="1" res="1.1249153874814510e-02" rms="4.5754328370094299e-01" purity="5.1515847444534302e-01" nType="0">
          <Node pos="l" depth="2" NCoef="0" IVar="-1" Cut="0.0000000000000000e+00" cType="1" res="-1.3987087877467275e-03" rms="4.3291988968849182e-01" purity="2.8480032086372375e-01" nType="-99"/>
          <Node pos="r" depth="2" NCoef="0" IVar="-1" Cut="0.0000000000000000e+00" cType="1" res="5.0851493142545223e-04" rms="4.6083804965019226e-01" purity="5.5017089843750000e-01" nType="-99"/>
        </Node>
      </Node>
    </BinaryTree>
    <BinaryTree type="DecisionTree" boostWeight="1.0000000000000000e+00" itree="482">
      <Node pos="s" depth="0" NCoef="0" IVar="6" Cut="4.8831772804260254e+00" cType="1" res="3.0830346513539553e-03" rms="4.5540335774421692e-01" purity="5.0065857172012329e-01" nType="0">
        <Node pos="l" depth="1" NCoef="0" IVar="3" Cut="4.4194284081459045e-01" cType="1" res="-2.8458305168896914e-03" rms="4.6200150251388550e-01" purity="4.6579477190971375e-01" nType="0">
          <Node pos="l" depth="2" NCoef="0" IVar="-1" Cut="0.0000000000000000e+00" cType="1" res="3.7269588210619986e-04" rms="4.5836052298545837e-01" purity="4.3370425701141357e-01" nType="-99"/>
          <Node pos="r" depth="2" NCoef="0" IVar="-1" Cut="0.0000000000000000e+00" cType="1" res="-8.1106676952913404e-04" rms="4.6750760078430176e-01" purity="5.2455896139144897e-01" nType="-99"/>
        </Node>
        <Node pos="r" depth="1" NCoef="0" IVar="-1" Cut="0.0000000000000000e+00" cType="1" res="1.4120044652372599e-03" rms="3.9212679862976074e-01" purity="7.9354900121688843e-01" nType="-99"/>
      </Node>
    </BinaryTree>
    <BinaryTree type="DecisionTree" boostWeight="1.0000000000000000e+00" itree="483">
      <Node pos="s" depth="0" NCoef="0" IVar="7" Cut="2.3006537556648254e-01" cType="1" res="5.3603826090693474e-03" rms="4.5562478899955750e-01" purity="5.0420236587524414e-01" nType="0">
        <Node pos="l" depth="1" NCoef="0" IVar="9" Cut="1.6471255493164062e+02" cType="1" res="9.7028841264545918e-04" rms="4.5596075057983398e-01" purity="4.9431017041206360e-01" nType="0">
          <Node pos="l" depth="2" NCoef="0" IVar="-1" Cut="0.0000000000000000e+00" cType="1" res="-1.5574236749671400e-04" rms="4.5575368404388428e-01" purity="4.8775190114974976e-01" nType="-99"/>
          <Node pos="r" depth="2" NCoef="0" IVar="-1" Cut="0.0000000000000000e+00" cType="1" res="1.3698772527277470e-03" rms="4.5504435896873474e-01" purity="5.4375779628753662e-01" nType="-99"/>
        </Node>
        <Node pos="r" depth="1" NCoef="0" IVar="-1" Cut="0.0000000000000000e+00" cType="1" res="1.6671703197062016e-03" rms="4.4706052541732788e-01" purity="6.3567709922790527e-01" nType="-99"/>
      </Node>
    </BinaryTree>
    <BinaryTree type="DecisionTree" boostWeight="1.0000000000000000e+00" itree="484">
      <Node pos="s" depth="0" NCoef="0" IVar="1" Cut="8.7545117187500000e+02" cType="1" res="3.9600357413291931e-03" rms="4.5578896999359131e-01" purity="5.0158625841140747e-01" nType="0">
        <Node pos="l" depth="1" NCoef="0" IVar="1" Cut="3.7895211791992188e+02" cType="1" res="-1.8650304991751909e-03" rms="4.5631185173988342e-01" purity="4.8582792282104492e-01" nType="0">
          <Node pos="l" depth="2" NCoef="0" IVar="-1" Cut="0.0000000000000000e+00" cType="1" res="-2.6765246875584126e-03" rms="4.0826997160911560e-01" purity="2.6803350448608398e-01" nType="-99"/>
          <Node pos="r" depth="2" NCoef="0" IVar="-1" Cut="0.0000000000000000e+00" cType="1" res="1.4687064685858786e-04" rms="4.6136048436164856e-01" purity="5.1231127977371216e-01" nType="-99"/>
        </Node>
        <Node pos="r" depth="1" NCoef="0" IVar="-1" Cut="0.0000000000000000e+00" cType="1" res="1.7346247332170606e-03" rms="4.4534903764724731e-01" purity="6.7092710733413696e-01" nType="-99"/>
      </Node>
    </BinaryTree>
    <BinaryTree type="DecisionTree" boostWeight="1.0000000000000000e+00" itree="485">
      <Node pos="s" depth="0" NCoef="0" IVar="7" Cut="-7.7276617288589478e-02" cType="1" res="3.7036696448922157e-04" rms="4.5443031191825867e-01" purity="4.9796360731124878e-01" nType="0">
        <Node pos="l" depth="1" NCoef="0" IVar="2" Cut="8.2141041755676270e-01" cType="1" res="-3.2443050295114517e-02" rms="4.4145384430885315e-01" purity="4.1517829895019531e-01" nType="0">
          <Node pos="l" depth="2" NCoef="0" IVar="-1" Cut="0.0000000000000000e+00" cType="1" res="-2.0094482169952244e-04" rms="4.5388376712799072e-01" purity="4.8863968253135681e-01" nType="-99"/>
          <Node pos="r" depth="2" NCoef="0" IVar="-1" Cut="0.0000000000000000e+00" cType="1" res="-3.0597681179642677e-03" rms="4.1901218891143799e-01" purity="3.0458268523216248e-01" nType="-99"/>
        </Node>
        <Node pos="r" depth="1" NCoef="0" IVar="8" Cut="9.2840309143066406e+01" cType="1" res="9.0731112286448479e-03" rms="4.5741546154022217e-01" purity="5.1991981267929077e-01" nType="0">
          <Node pos="l" depth="2" NCoef="0" IVar="-1" Cut="0.0000000000000000e+00" cType="1" res="-1.3699212577193975e-03" rms="4.5891222357749939e-01" purity="4.2855134606361389e-01" nType="-99"/>
          <Node pos="r" depth="2" NCoef="0" IVar="-1" Cut="0.0000000000000000e+00" cType="1" res="4.3365565943531692e-04" rms="4.5692098140716553e-01" purity="5.2997648715972900e-01" nType="-99"/>
        </Node>
      </Node>
    </BinaryTree>
    <BinaryTree type="DecisionTree" boostWeight="1.0000000000000000e+00" itree="486">
      <Node pos="s" depth="0" NCoef="0" IVar="2" Cut="5.7334572076797485e-01" cType="1" res="3.9488531183451414e-04" rms="4.5765966176986694e-01" purity="4.9664595723152161e-01" nType="0">
        <Node pos="l" depth="1" NCoef="0" IVar="3" Cut="2.0968163013458252e-01" cType="1" res="2.8311014175415039e-02" rms="4.5643824338912964e-01" purity="5.8075207471847534e-01" nType="0">
          <Node pos="l" depth="2" NCoef="0" IVar="-1" Cut="0.0000000000000000e+00" cType="1" res="1.7659165896475315e-03" rms="4.7147348523139954e-01" purity="5.0785440206527710e-01" nType="-99"/>
          <Node pos="r" depth="2" NCoef="0" IVar="-1" Cut="0.0000000000000000e+00" cType="1" res="4.8884650459513068e-04" rms="4.5035609602928162e-01" purity="6.0732263326644897e-01" nType="-99"/>
        </Node>
        <Node pos="r" depth="1" NCoef="0" IVar="7" Cut="3.3399000763893127e-02" cType="1" res="-9.0923458337783813e-03" rms="4.5768651366233826e-01" purity="4.6806269884109497e-01" nType="0">
          <Node pos="l" depth="2" NCoef="0" IVar="-1" Cut="0.0000000000000000e+00" cType="1" res="-8.2371110329404473e-04" rms="4.5428296923637390e-01" purity="4.1624191403388977e-01" nType="-99"/>
          <Node pos="r" depth="2" NCoef="0" IVar="-1" Cut="0.0000000000000000e+00" cType="1" res="2.3892511671874672e-04" rms="4.6102783083915710e-01" purity="5.2841204404830933e-01" nType="-99"/>
        </Node>
      </Node>
    </BinaryTree>
    <BinaryTree type="DecisionTree" boostWeight="1.0000000000000000e+00" itree="487">
      <Node pos="s" depth="0" NCoef="0" IVar="5" Cut="2.1110775470733643e+00" cType="1" res="-8.6829642532393336e-04" rms="4.5656183362007141e-01" purity="4.9660074710845947e-01" nType="0">
        <Node pos="l" depth="1" NCoef="0" IVar="9" Cut="1.0080248260498047e+02" cType="1" res="2.3296225816011429e-02" rms="4.5902776718139648e-01" purity="5.7306724786758423e-01" nType="0">
          <Node pos="l" depth="2" NCoef="0" IVar="-1" Cut="0.0000000000000000e+00" cType="1" res="3.4378800773993134e-04" rms="4.6449935436248779e-01" purity="5.3871345520019531e-01" nType="-99"/>
          <Node pos="r" depth="2" NCoef="0" IVar="-1" Cut="0.0000000000000000e+00" cType="1" res="1.4452368486672640e-03" rms="4.4174942374229431e-01" purity="6.6940784454345703e-01" nType="-99"/>
        </Node>
        <Node pos="r" depth="1" NCoef="0" IVar="6" Cut="3.1792182922363281e+00" cType="1" res="-1.4623694121837616e-02" rms="4.5457881689071655e-01" purity="4.5307302474975586e-01" nType="0">
          <Node pos="l" depth="2" NCoef="0" IVar="-1" Cut="0.0000000000000000e+00" cType="1" res="-1.1448051081970334e-03" rms="4.5030850172042847e-01" purity="3.4159207344055176e-01" nType="-99"/>
          <Node pos="r" depth="2" NCoef="0" IVar="-1" Cut="0.0000000000000000e+00" cType="1" res="2.3819414491299540e-04" rms="4.6022734045982361e-01" purity="6.2831747531890869e-01" nType="-99"/>
        </Node>
      </Node>
    </BinaryTree>
    <BinaryTree type="DecisionTree" boostWeight="1.0000000000000000e+00" itree="488">
      <Node pos="s" depth="0" NCoef="0" IVar="1" Cut="4.0518820190429688e+02" cType="1" res="5.3458134643733501e-03" rms="4.5561718940734863e-01" purity="5.0445514917373657e-01" nType="0">
        <Node pos="l" depth="1" NCoef="0" IVar="0" Cut="1.1377521753311157e+00" cType="1" res="-3.2157689332962036e-02" rms="4.2891651391983032e-01" purity="3.1355702877044678e-01" nType="0">
          <Node pos="l" depth="2" NCoef="0" IVar="-1" Cut="0.0000000000000000e+00" cType="1" res="-4.2596747516654432e-04" rms="4.4302558898925781e-01" purity="3.5641056299209595e-01" nType="-99"/>
          <Node pos="r" depth="2" NCoef="0" IVar="-1" Cut="0.0000000000000000e+00" cType="1" res="-2.3694883566349745e-03" rms="4.1445076465606689e-01" purity="2.7380421757698059e-01" nType="-99"/>
        </Node>
        <Node pos="r" depth="1" NCoef="0" IVar="7" Cut="-1.0709948837757111e-01" cType="1" res="1.2669603340327740e-02" rms="4.6029427647590637e-01" purity="5.4173427820205688e-01" nType="0">
          <Node pos="l" depth="2" NCoef="0" IVar="-1" Cut="0.0000000000000000e+00" cType="1" res="-1.4017799403518438e-03" rms="4.4514837861061096e-01" purity="4.1233879327774048e-01" nType="-99"/>
          <Node pos="r" depth="2" NCoef="0" IVar="-1" Cut="0.0000000000000000e+00" cType="1" res="5.1051343325525522e-04" rms="4.6136507391929626e-01" purity="5.5382418632507324e-01" nType="-99"/>
        </Node>
      </Node>
    </BinaryTree>
    <BinaryTree type="DecisionTree" boostWeight="1.0000000000000000e+00" itree="489">
      <Node pos="s" depth="0" NCoef="0" IVar="5" Cut="2.8733220100402832e+00" cType="1" res="3.3057280816137791e-03" rms="4.5513316988945007e-01" purity="5.0155228376388550e-01" nType="0">
        <Node pos="l" depth="1" NCoef="0" IVar="1" Cut="3.9558740234375000e+02" cType="1" res="7.5687756761908531e-03" rms="4.5836326479911804e-01" purity="5.1812076568603516e-01" nType="0">
          <Node pos="l" depth="2" NCoef="0" IVar="-1" Cut="0.0000000000000000e+00" cType="1" res="-1.4039926463738084e-03" rms="4.3128368258476257e-01" purity="3.1511491537094116e-01" nType="-99"/>
          <Node pos="r" depth="2" NCoef="0" IVar="-1" Cut="0.0000000000000000e+00" cType="1" res="3.9808754809200764e-04" rms="4.6202698349952698e-01" purity="5.4902303218841553e-01" nType="-99"/>
        </Node>
        <Node pos="r" depth="1" NCoef="0" IVar="-1" Cut="0.0000000000000000e+00" cType="1" res="-3.9611826650798321e-03" rms="3.8666152954101562e-01" purity="2.1105954051017761e-01" nType="-99"/>
      </Node>
    </BinaryTree>
    <BinaryTree type="DecisionTree" boostWeight="1.0000000000000000e+00" itree="490">
      <Node pos="s" depth="0" NCoef="0" IVar="5" Cut="1.9594960212707520e+00" cType="1" res="3.0701416544616222e-03" rms="4.5659062266349792e-01" purity="4.9949380755424500e-01" nType="0">
        <Node pos="l" depth="1" NCoef="0" IVar="8" Cut="1.0516806030273438e+02" cType="1" res="3.2380722463130951e-02" rms="4.5566627383232117e-01" purity="5.8508408069610596e-01" nType="0">
          <Node pos="l" depth="2" NCoef="0" IVar="-1" Cut="0.0000000000000000e+00" cType="1" res="-3.7177869671722874e-05" rms="4.6749126911163330e-01" purity="4.9831727147102356e-01" nType="-99"/>
          <Node pos="r" depth="2" NCoef="0" IVar="-1" Cut="0.0000000000000000e+00" cType="1" res="1.2044291943311691e-03" rms="4.5063501596450806e-01" purity="6.1683434247970581e-01" nType="-99"/>
        </Node>
        <Node pos="r" depth="1" NCoef="0" IVar="9" Cut="9.2546310424804688e+01" cType="1" res="-6.4331698231399059e-03" rms="4.5648607611656189e-01" purity="4.7174307703971863e-01" nType="0">
          <Node pos="l" depth="2" NCoef="0" IVar="-1" Cut="0.0000000000000000e+00" cType="1" res="-1.0423102648928761e-03" rms="4.5459681749343872e-01" purity="4.2056015133857727e-01" nType="-99"/>
          <Node pos="r" depth="2" NCoef="0" IVar="-1" Cut="0.0000000000000000e+00" cType="1" res="2.2246116714086384e-04" rms="4.5699042081832886e-01" purity="5.0062668323516846e-01" nType="-99"/>
        </Node>
      </Node>
    </BinaryTree>
    <BinaryTree type="DecisionTree" boostWeight="1.0000000000000000e+00" itree="491">
      <Node pos="s" depth="0" NCoef="0" IVar="0" Cut="1.6889847517013550e+00" cType="1" res="2.6604395825415850e-03" rms="4.5686373114585876e-01" purity="5.0024420022964478e-01" nType="0">
        <Node pos="l" depth="1" NCoef="0" IVar="7" Cut="-1.0643766820430756e-01" cType="1" res="7.6953014358878136e-03" rms="4.5829120278358459e-01" purity="5.1139694452285767e-01" nType="0">
          <Node pos="l" depth="2" NCoef="0" IVar="-1" Cut="0.0000000000000000e+00" cType="1" res="-1.5769924502819777e-03" rms="4.4693750143051147e-01" purity="3.8733303546905518e-01" nType="-99"/>
          <Node pos="r" depth="2" NCoef="0" IVar="-1" Cut="0.0000000000000000e+00" cType="1" res="3.7303048884496093e-04" rms="4.5903626084327698e-01" purity="5.2280551195144653e-01" nType="-99"/>
        </Node>
        <Node pos="r" depth="1" NCoef="0" IVar="-1" Cut="0.0000000000000000e+00" cType="1" res="-1.6278144903481007e-03" rms="4.3999707698822021e-01" purity="3.9313924312591553e-01" nType="-99"/>
      </Node>
    </BinaryTree>
    <BinaryTree type="DecisionTree" boostWeight="1.0000000000000000e+00" itree="492">
      <Node pos="s" depth="0" NCoef="0" IVar="2" Cut="1.0165065526962280e+00" cType="1" res="-2.7649773983284831e-04" rms="4.5591500401496887e-01" purity="4.9771180748939514e-01" nType="0">
        <Node pos="l" depth="1" NCoef="0" IVar="8" Cut="9.2840309143066406e+01" cType="1" res="8.6151622235774994e-03" rms="4.5610651373863220e-01" purity="5.2280932664871216e-01" nType="0">
          <Node pos="l" depth="2" NCoef="0" IVar="-1" Cut="0.0000000000000000e+00" cType="1" res="-1.4491809997707605e-03" rms="4.5098119974136353e-01" purity="4.2824995517730713e-01" nType="-99"/>
          <Node pos="r" depth="2" NCoef="0" IVar="-1" Cut="0.0000000000000000e+00" cType="1" res="4.3598303454928100e-04" rms="4.5632460713386536e-01" purity="5.3390860557556152e-01" nType="-99"/>
        </Node>
        <Node pos="r" depth="1" NCoef="0" IVar="8" Cut="1.3674543762207031e+02" cType="1" res="-3.1772192567586899e-02" rms="4.5383673906326294e-01" purity="4.0881225466728210e-01" nType="0">
          <Node pos="l" depth="2" NCoef="0" IVar="-1" Cut="0.0000000000000000e+00" cType="1" res="-6.3107878668233752e-04" rms="4.5705530047416687e-01" purity="4.2305767536163330e-01" nType="-99"/>
          <Node pos="r" depth="2" NCoef="0" IVar="-1" Cut="0.0000000000000000e+00" cType="1" res="-2.4149853270500898e-03" rms="4.4390720129013062e-01" purity="3.7293085455894470e-01" nType="-99"/>
        </Node>
      </Node>
    </BinaryTree>
    <BinaryTree type="DecisionTree" boostWeight="1.0000000000000000e+00" itree="493">
      <Node pos="s" depth="0" NCoef="0" IVar="3" Cut="1.9032473862171173e-01" cType="1" res="8.7850140407681465e-03" rms="4.5724928379058838e-01" purity="5.0719714164733887e-01" nType="0">
        <Node pos="l" depth="1" NCoef="0" IVar="6" Cut="1.1545960903167725e+00" cType="1" res="3.9882760494947433e-02" rms="4.6095961332321167e-01" purity="4.4308459758758545e-01" nType="0">
          <Node pos="l" depth="2" NCoef="0" IVar="-1" Cut="0.0000000000000000e+00" cType="1" res="-1.0496166069060564e-03" rms="4.3857395648956299e-01" purity="2.9293003678321838e-01" nType="-99"/>
          <Node pos="r" depth="2" NCoef="0" IVar="-1" Cut="0.0000000000000000e+00" cType="1" res="2.2472834680229425e-03" rms="4.6953028440475464e-01" purity="5.2871698141098022e-01" nType="-99"/>
        </Node>
        <Node pos="r" depth="1" NCoef="0" IVar="6" Cut="3.5378899574279785e+00" cType="1" res="9.0742739848792553e-04" rms="4.5596805214881897e-01" purity="5.2343797683715820e-01" nType="0">
          <Node pos="l" depth="2" NCoef="0" IVar="-1" Cut="0.0000000000000000e+00" cType="1" res="-4.3923972407355905e-04" rms="4.6545460820198059e-01" purity="4.1085487604141235e-01" nType="-99"/>
          <Node pos="r" depth="2" NCoef="0" IVar="-1" Cut="0.0000000000000000e+00" cType="1" res="5.8732216712087393e-04" rms="4.4038876891136169e-01" purity="6.9342434406280518e-01" nType="-99"/>
        </Node>
      </Node>
    </BinaryTree>
    <BinaryTree type="DecisionTree" boostWeight="1.0000000000000000e+00" itree="494">
      <Node pos="s" depth="0" NCoef="0" IVar="5" Cut="1.6858313083648682e+00" cType="1" res="5.3776719141751528e-04" rms="4.5695942640304565e-01" purity="4.9917596578598022e-01" nType="0">
        <Node pos="l" depth="1" NCoef="0" IVar="3" Cut="3.3141162991523743e-01" cType="1" res="3.8268472999334335e-02" rms="4.5472240447998047e-01" purity="6.0897105932235718e-01" nType="0">
          <Node pos="l" depth="2" NCoef="0" IVar="-1" Cut="0.0000000000000000e+00" cType="1" res="1.9070503767579794e-03" rms="4.7230637073516846e-01" purity="5.4020923376083374e-01" nType="-99"/>
          <Node pos="r" depth="2" NCoef="0" IVar="-1" Cut="0.0000000000000000e+00" cType="1" res="4.6718382509425282e-04" rms="4.4071817398071289e-01" purity="6.5749889612197876e-01" nType="-99"/>
        </Node>
        <Node pos="r" depth="1" NCoef="0" IVar="9" Cut="1.4895220947265625e+02" cType="1" res="-4.9892305396497250e-03" rms="4.5702472329139709e-01" purity="4.8309260606765747e-01" nType="0">
          <Node pos="l" depth="2" NCoef="0" IVar="-1" Cut="0.0000000000000000e+00" cType="1" res="-4.2520897113718092e-04" rms="4.5602944493293762e-01" purity="4.7114437818527222e-01" nType="-99"/>
          <Node pos="r" depth="2" NCoef="0" IVar="-1" Cut="0.0000000000000000e+00" cType="1" res="9.7498856484889984e-04" rms="4.5963507890701294e-01" purity="5.3688055276870728e-01" nType="-99"/>
        </Node>
      </Node>
    </BinaryTree>
    <BinaryTree type="DecisionTree" boostWeight="1.0000000000000000e+00" itree="495">
      <Node pos="s" depth="0" NCoef="0" IVar="5" Cut="1.6527141332626343e+00" cType="1" res="-2.1041007130406797e-04" rms="4.5552611351013184e-01" purity="4.9574378132820129e-01" nType="0">
        <Node pos="l" depth="1" NCoef="0" IVar="-1" Cut="0.0000000000000000e+00" cType="1" res="1.1721501359716058e-03" rms="4.5420363545417786e-01" purity="6.0717290639877319e-01" nType="-99"/>
        <Node pos="r" depth="1" NCoef="0" IVar="9" Cut="9.2004165649414062e+01" cType="1" res="-5.8978898450732231e-03" rms="4.5539119839668274e-01" purity="4.8119026422500610e-01" nType="0">
          <Node pos="l" depth="2" NCoef="0" IVar="-1" Cut="0.0000000000000000e+00" cType="1" res="-9.0869568521156907e-04" rms="4.5328536629676819e-01" purity="4.3743011355400085e-01" nType="-99"/>
          <Node pos="r" depth="2" NCoef="0" IVar="-1" Cut="0.0000000000000000e+00" cType="1" res="2.4580693570896983e-04" rms="4.5622098445892334e-01" purity="5.0970786809921265e-01" nType="-99"/>
        </Node>
      </Node>
    </BinaryTree>
    <BinaryTree type="DecisionTree" boostWeight="1.0000000000000000e+00" itree="496">
      <Node pos="s" depth="0" NCoef="0" IVar="5" Cut="1.5423537492752075e+00" cType="1" res="2.5873244740068913e-03" rms="4.5646622776985168e-01" purity="4.9944001436233521e-01" nType="0">
        <Node pos="l" depth="1" NCoef="0" IVar="-1" Cut="0.0000000000000000e+00" cType="1" res="1.3384467456489801e-03" rms="4.4830864667892456e-01" purity="6.2192696332931519e-01" nType="-99"/>
        <Node pos="r" depth="1" NCoef="0" IVar="6" Cut="3.9513447284698486e+00" cType="1" res="-1.9181432435289025e-03" rms="4.5698970556259155e-01" purity="4.8766392469406128e-01" nType="0">
          <Node pos="l" depth="2" NCoef="0" IVar="-1" Cut="0.0000000000000000e+00" cType="1" res="-3.5199016565456986e-04" rms="4.6387216448783875e-01" purity="4.1521513462066650e-01" nType="-99"/>
          <Node pos="r" depth="2" NCoef="0" IVar="-1" Cut="0.0000000000000000e+00" cType="1" res="6.5369746880605817e-04" rms="4.3355637788772583e-01" purity="7.1530175209045410e-01" nType="-99"/>
        </Node>
      </Node>
    </BinaryTree>
    <BinaryTree type="DecisionTree" boostWeight="1.0000000000000000e+00" itree="497">
      <Node pos="s" depth="0" NCoef="0" IVar="2" Cut="1.2689626216888428e+00" cType="1" res="3.7441146560013294e-03" rms="4.5541086792945862e-01" purity="5.0080180168151855e-01" nType="0">
        <Node pos="l" depth="1" NCoef="0" IVar="6" Cut="1.6011137962341309e+00" cType="1" res="7.6588401570916176e-03" rms="4.5570367574691772e-01" purity="5.0823861360549927e-01" nType="0">
          <Node pos="l" depth="2" NCoef="0" IVar="-1" Cut="0.0000000000000000e+00" cType="1" res="-1.0338303400203586e-03" rms="4.3861332535743713e-01" purity="3.0037379264831543e-01" nType="-99"/>
          <Node pos="r" depth="2" NCoef="0" IVar="-1" Cut="0.0000000000000000e+00" cType="1" res="4.3452574755065143e-04" rms="4.5951163768768311e-01" purity="5.5967640876770020e-01" nType="-99"/>
        </Node>
        <Node pos="r" depth="1" NCoef="0" IVar="-1" Cut="0.0000000000000000e+00" cType="1" res="-2.3270042147487402e-03" rms="4.4486862421035767e-01" purity="3.7192663550376892e-01" nType="-99"/>
      </Node>
    </BinaryTree>
    <BinaryTree type="DecisionTree" boostWeight="1.0000000000000000e+00" itree="498">
      <Node pos="s" depth="0" NCoef="0" IVar="5" Cut="2.8640897274017334e+00" cType="1" res="1.7293553100898862e-03" rms="4.5693442225456238e-01" purity="4.9921604990959167e-01" nType="0">
        <Node pos="l" depth="1" NCoef="0" IVar="6" Cut="1.0785294771194458e+00" cType="1" res="5.6549781002104282e-03" rms="4.5993411540985107e-01" purity="5.1586049795150757e-01" nType="0">
          <Node pos="l" depth="2" NCoef="0" IVar="-1" Cut="0.0000000000000000e+00" cType="1" res="-2.5484745856374502e-03" rms="4.2562019824981689e-01" purity="2.5981295108795166e-01" nType="-99"/>
          <Node pos="r" depth="2" NCoef="0" IVar="-1" Cut="0.0000000000000000e+00" cType="1" res="3.2163262949325144e-04" rms="4.6260082721710205e-01" purity="5.3942382335662842e-01" nType="-99"/>
        </Node>
        <Node pos="r" depth="1" NCoef="0" IVar="-1" Cut="0.0000000000000000e+00" cType="1" res="-3.4538023173809052e-03" rms="3.9764779806137085e-01" purity="2.2034171223640442e-01" nType="-99"/>
      </Node>
    </BinaryTree>
    <BinaryTree type="DecisionTree" boostWeight="1.0000000000000000e+00" itree="499">
      <Node pos="s" depth="0" NCoef="0" IVar="3" Cut="2.4839183688163757e-01" cType="1" res="6.5176148200407624e-04" rms="4.5713642239570618e-01" purity="4.9613672494888306e-01" nType="0">
        <Node pos="l" depth="1" NCoef="0" IVar="6" Cut="1.4663031101226807e+00" cType="1" res="2.2010512650012970e-02" rms="4.5811209082603455e-01" purity="4.1955089569091797e-01" nType="0">
          <Node pos="l" depth="2" NCoef="0" IVar="-1" Cut="0.0000000000000000e+00" cType="1" res="-5.3800112800672650e-04" rms="4.4090193510055542e-01" purity="3.0575308203697205e-01" nType="-99"/>
          <Node pos="r" depth="2" NCoef="0" IVar="-1" Cut="0.0000000000000000e+00" cType="1" res="1.5002270229160786e-03" rms="4.7001704573631287e-01" purity="5.1382976770401001e-01" nType="-99"/>
        </Node>
        <Node pos="r" depth="1" NCoef="0" IVar="6" Cut="3.9191782474517822e+00" cType="1" res="-9.3842186033725739e-03" rms="4.5633214712142944e-01" purity="5.3212267160415649e-01" nType="0">
          <Node pos="l" depth="2" NCoef="0" IVar="-1" Cut="0.0000000000000000e+00" cType="1" res="-7.8382348874583840e-04" rms="4.6711519360542297e-01" purity="4.3252179026603699e-01" nType="-99"/>
          <Node pos="r" depth="2" NCoef="0" IVar="-1" Cut="0.0000000000000000e+00" cType="1" res="4.9139489419758320e-04" rms="4.3486586213111877e-01" purity="7.1131014823913574e-01" nType="-99"/>
        </Node>
      </Node>
    </BinaryTree>
    <BinaryTree type="DecisionTree" boostWeight="1.0000000000000000e+00" itree="500">
      <Node pos="s" depth="0" NCoef="0" IVar="9" Cut="9.2004165649414062e+01" cType="1" res="2.5071278214454651e-03" rms="4.5530986785888672e-01" purity="4.9954476952552795e-01" nType="0">
        <Node pos="l" depth="1" NCoef="0" IVar="3" Cut="2.6765978336334229e-01" cType="1" res="-1.6523193567991257e-02" rms="4.5712590217590332e-01" purity="4.6556735038757324e-01" nType="0">
          <Node pos="l" depth="2" NCoef="0" IVar="-1" Cut="0.0000000000000000e+00" cType="1" res="4.6388813643716276e-04" rms="4.5502686500549316e-01" purity="3.9439967274665833e-01" nType="-99"/>
          <Node pos="r" depth="2" NCoef="0" IVar="-1" Cut="0.0000000000000000e+00" cType="1" res="-9.8173541482537985e-04" rms="4.5747169852256775e-01" purity="5.0438845157623291e-01" nType="-99"/>
        </Node>
        <Node pos="r" depth="1" NCoef="0" IVar="5" Cut="1.9716432094573975e+00" cType="1" res="1.7377350479364395e-02" rms="4.5333009958267212e-01" purity="5.2609461545944214e-01" nType="0">
          <Node pos="l" depth="2" NCoef="0" IVar="-1" Cut="0.0000000000000000e+00" cType="1" res="1.8924655159935355e-03" rms="4.3460083007812500e-01" purity="6.9458913803100586e-01" nType="-99"/>
          <Node pos="r" depth="2" NCoef="0" IVar="-1" Cut="0.0000000000000000e+00" cType="1" res="2.7990664239041507e-04" rms="4.5541036128997803e-01" purity="5.0139635801315308e-01" nType="-99"/>
        </Node>
      </Node>
    </BinaryTree>
    <BinaryTree type="DecisionTree" boostWeight="1.0000000000000000e+00" itree="501">
      <Node pos="s" depth="0" NCoef="0" IVar="5" Cut="1.6920183897018433e+00" cType="1" res="5.0291032530367374e-03" rms="4.5640668272972107e-01" purity="5.0345623493194580e-01" nType="0">
        <Node pos="l" depth="1" NCoef="0" IVar="1" Cut="5.2329351806640625e+02" cType="1" res="4.6816375106573105e-02" rms="4.4356656074523926e-01" purity="6.2274771928787231e-01" nType="0">
          <Node pos="l" depth="2" NCoef="0" IVar="-1" Cut="0.0000000000000000e+00" cType="1" res="3.3932624501176178e-04" rms="4.6035125851631165e-01" purity="5.0542712211608887e-01" nType="-99"/>
          <Node pos="r" depth="2" NCoef="0" IVar="-1" Cut="0.0000000000000000e+00" cType="1" res="1.8642436480149627e-03" rms="4.2806327342987061e-01" purity="7.1380126476287842e-01" nType="-99"/>
        </Node>
        <Node pos="r" depth="1" NCoef="0" IVar="8" Cut="1.3823445129394531e+02" cType="1" res="-1.1742395581677556e-03" rms="4.5795723795890808e-01" purity="4.8574736714363098e-01" nType="0">
          <Node pos="l" depth="2" NCoef="0" IVar="-1" Cut="0.0000000000000000e+00" cType="1" res="2.4991563986986876e-04" rms="4.5797303318977356e-01" purity="4.9006000161170959e-01" nType="-99"/>
          <Node pos="r" depth="2" NCoef="0" IVar="-1" Cut="0.0000000000000000e+00" cType="1" res="-8.4192608483135700e-04" rms="4.5698657631874084e-01" purity="4.7401553392410278e-01" nType="-99"/>
        </Node>
      </Node>
    </BinaryTree>
    <BinaryTree type="DecisionTree" boostWeight="1.0000000000000000e+00" itree="502">
      <Node pos="s" depth="0" NCoef="0" IVar="4" Cut="4.2762741088867188e+01" cType="1" res="5.8259890647605062e-04" rms="4.5556402206420898e-01" purity="4.9693429470062256e-01" nType="0">
        <Node pos="l" depth="1" NCoef="0" IVar="2" Cut="8.1256657838821411e-01" cType="1" res="-2.8888501226902008e-02" rms="4.4996273517608643e-01" purity="4.2421466112136841e-01" nType="0">
          <Node pos="l" depth="2" NCoef="0" IVar="-1" Cut="0.0000000000000000e+00" cType="1" res="-2.2167354472912848e-04" rms="4.5887115597724915e-01" purity="4.8013284802436829e-01" nType="-99"/>
          <Node pos="r" depth="2" NCoef="0" IVar="-1" Cut="0.0000000000000000e+00" cType="1" res="-2.1111718378961086e-03" rms="4.3762871623039246e-01" purity="3.5730013251304626e-01" nType="-99"/>
        </Node>
        <Node pos="r" depth="1" NCoef="0" IVar="9" Cut="8.8746665954589844e+01" cType="1" res="1.0457816533744335e-02" rms="4.5700064301490784e-01" purity="5.2130132913589478e-01" nType="0">
          <Node pos="l" depth="2" NCoef="0" IVar="-1" Cut="0.0000000000000000e+00" cType="1" res="-3.1583773670718074e-04" rms="4.5936205983161926e-01" purity="4.8519587516784668e-01" nType="-99"/>
          <Node pos="r" depth="2" NCoef="0" IVar="-1" Cut="0.0000000000000000e+00" cType="1" res="7.3073699604719877e-04" rms="4.5481696724891663e-01" purity="5.4624855518341064e-01" nType="-99"/>
        </Node>
      </Node>
    </BinaryTree>
    <BinaryTree type="DecisionTree" boostWeight="1.0000000000000000e+00" itree="503">
      <Node pos="s" depth="0" NCoef="0" IVar="1" Cut="8.1762268066406250e+02" cType="1" res="5.6675458326935768e-03" rms="4.5692890882492065e-01" purity="5.0306349992752075e-01" nType="0">
        <Node pos="l" depth="1" NCoef="0" IVar="8" Cut="9.2840309143066406e+01" cType="1" res="6.1890244251117110e-04" rms="4.5740151405334473e-01" purity="4.8420795798301697e-01" nType="0">
          <Node pos="l" depth="2" NCoef="0" IVar="-1" Cut="0.0000000000000000e+00" cType="1" res="-1.6368723008781672e-03" rms="4.5670604705810547e-01" purity="3.9742317795753479e-01" nType="-99"/>
          <Node pos="r" depth="2" NCoef="0" IVar="-1" Cut="0.0000000000000000e+00" cType="1" res="1.8382370762992650e-04" rms="4.5717647671699524e-01" purity="4.9387136101722717e-01" nType="-99"/>
        </Node>
        <Node pos="r" depth="1" NCoef="0" IVar="-1" Cut="0.0000000000000000e+00" cType="1" res="1.2226076796650887e-03" rms="4.5121943950653076e-01" purity="6.5156328678131104e-01" nType="-99"/>
      </Node>
    </BinaryTree>
    <BinaryTree type="DecisionTree" boostWeight="1.0000000000000000e+00" itree="504">
      <Node pos="s" depth="0" NCoef="0" IVar="0" Cut="1.3810455799102783e+00" cType="1" res="4.9507655203342438e-03" rms="4.5335885882377625e-01" purity="5.0322192907333374e-01" nType="0">
        <Node pos="l" depth="1" NCoef="0" IVar="2" Cut="1.0644453763961792e+00" cType="1" res="1.4295465312898159e-02" rms="4.5584180951118469e-01" purity="5.2716153860092163e-01" nType="0">
          <Node pos="l" depth="2" NCoef="0" IVar="-1" Cut="0.0000000000000000e+00" cType="1" res="6.5334176179021597e-04" rms="4.5464840531349182e-01" purity="5.4888945817947388e-01" nType="-99"/>
          <Node pos="r" depth="2" NCoef="0" IVar="-1" Cut="0.0000000000000000e+00" cType="1" res="-8.3591858856379986e-04" rms="4.5965915918350220e-01" purity="4.2093554139137268e-01" nType="-99"/>
        </Node>
        <Node pos="r" depth="1" NCoef="0" IVar="1" Cut="5.0253665161132812e+02" cType="1" res="-2.5380892679095268e-02" rms="4.4385054707527161e-01" purity="4.2551690340042114e-01" nType="0">
          <Node pos="l" depth="2" NCoef="0" IVar="-1" Cut="0.0000000000000000e+00" cType="1" res="-2.0867595449090004e-03" rms="4.2782005667686462e-01" purity="3.3234408497810364e-01" nType="-99"/>
          <Node pos="r" depth="2" NCoef="0" IVar="-1" Cut="0.0000000000000000e+00" cType="1" res="2.5222200201824307e-04" rms="4.6126371622085571e-01" purity="5.4439043998718262e-01" nType="-99"/>
        </Node>
      </Node>
    </BinaryTree>
    <BinaryTree type="DecisionTree" boostWeight="1.0000000000000000e+00" itree="505">
      <Node pos="s" depth="0" NCoef="0" IVar="2" Cut="9.9368536472320557e-01" cType="1" res="3.8080730009824038e-03" rms="4.5591410994529724e-01" purity="5.0092959403991699e-01" nType="0">
        <Node pos="l" depth="1" NCoef="0" IVar="6" Cut="4.4854998588562012e+00" cType="1" res="1.2714862823486328e-02" rms="4.5692950487136841e-01" purity="5.2832061052322388e-01" nType="0">
          <Node pos="l" depth="2" NCoef="0" IVar="-1" Cut="0.0000000000000000e+00" cType="1" res="1.7695949645712972e-04" rms="4.6703168749809265e-01" purity="4.7811594605445862e-01" nType="-99"/>
          <Node pos="r" depth="2" NCoef="0" IVar="-1" Cut="0.0000000000000000e+00" cType="1" res="1.2822052231058478e-03" rms="3.9945590496063232e-01" purity="7.8493463993072510e-01" nType="-99"/>
        </Node>
        <Node pos="r" depth="1" NCoef="0" IVar="6" Cut="2.7750377655029297e+00" cType="1" res="-2.3557672277092934e-02" rms="4.5168268680572510e-01" purity="4.1677168011665344e-01" nType="0">
          <Node pos="l" depth="2" NCoef="0" IVar="-1" Cut="0.0000000000000000e+00" cType="1" res="-2.0240347366780043e-03" rms="4.2719870805740356e-01" purity="2.7785858511924744e-01" nType="-99"/>
          <Node pos="r" depth="2" NCoef="0" IVar="-1" Cut="0.0000000000000000e+00" cType="1" res="-3.7924466596450657e-05" rms="4.7413244843482971e-01" purity="5.5726581811904907e-01" nType="-99"/>
        </Node>
      </Node>
    </BinaryTree>
    <BinaryTree type="DecisionTree" boostWeight="1.0000000000000000e+00" itree="506">
      <Node pos="s" depth="0" NCoef="0" IVar="5" Cut="2.3029260635375977e+00" cType="1" res="1.8282959936186671e-03" rms="4.5599272847175598e-01" purity="4.9918779730796814e-01" nType="0">
        <Node pos="l" depth="1" NCoef="0" IVar="0" Cut="1.1565157175064087e+00" cType="1" res="1.5505858696997166e-02" rms="4.5986670255661011e-01" purity="5.6039708852767944e-01" nType="0">
          <Node pos="l" depth="2" NCoef="0" IVar="-1" Cut="0.0000000000000000e+00" cType="1" res="8.4580056136474013e-04" rms="4.5785048604011536e-01" purity="5.9434813261032104e-01" nType="-99"/>
          <Node pos="r" depth="2" NCoef="0" IVar="-1" Cut="0.0000000000000000e+00" cType="1" res="-2.3432224406860769e-04" rms="4.6200481057167053e-01" purity="5.0791984796524048e-01" nType="-99"/>
        </Node>
        <Node pos="r" depth="1" NCoef="0" IVar="5" Cut="2.6822524070739746e+00" cType="1" res="-2.1134978160262108e-02" rms="4.4847649335861206e-01" purity="3.9642354846000671e-01" nType="0">
          <Node pos="l" depth="2" NCoef="0" IVar="-1" Cut="0.0000000000000000e+00" cType="1" res="-3.5461279912851751e-04" rms="4.5764684677124023e-01" purity="4.5136353373527527e-01" nType="-99"/>
          <Node pos="r" depth="2" NCoef="0" IVar="-1" Cut="0.0000000000000000e+00" cType="1" res="-2.2253443021327257e-03" rms="4.2429950833320618e-01" purity="2.6265734434127808e-01" nType="-99"/>
        </Node>
      </Node>
    </BinaryTree>
    <BinaryTree type="DecisionTree" boostWeight="1.0000000000000000e+00" itree="507">
      <Node pos="s" depth="0" NCoef="0" IVar="2" Cut="6.5333569049835205e-01" cType="1" res="6.1000711284577847e-03" rms="4.5552492141723633e-01" purity="5.0354552268981934e-01" nType="0">
        <Node pos="l" depth="1" NCoef="0" IVar="6" Cut="1.5029346942901611e+00" cType="1" res="2.7771437540650368e-02" rms="4.5617392659187317e-01" purity="5.7654297351837158e-01" nType="0">
          <Node pos="l" depth="2" NCoef="0" IVar="-1" Cut="0.0000000000000000e+00" cType="1" res="-4.3441826710477471e-04" rms="4.6196708083152771e-01" purity="3.4743866324424744e-01" nType="-99"/>
          <Node pos="r" depth="2" NCoef="0" IVar="-1" Cut="0.0000000000000000e+00" cType="1" res="9.7017490770667791e-04" rms="4.5452910661697388e-01" purity="6.2453377246856689e-01" nType="-99"/>
        </Node>
        <Node pos="r" depth="1" NCoef="0" IVar="7" Cut="2.7388671413064003e-02" cType="1" res="-5.5931513197720051e-03" rms="4.5474556088447571e-01" purity="4.6415829658508301e-01" nType="0">
          <Node pos="l" depth="2" NCoef="0" IVar="-1" Cut="0.0000000000000000e+00" cType="1" res="-8.5546460468322039e-04" rms="4.4723543524742126e-01" purity="4.0611845254898071e-01" nType="-99"/>
          <Node pos="r" depth="2" NCoef="0" IVar="-1" Cut="0.0000000000000000e+00" cType="1" res="4.1660235729068518e-04" rms="4.6169698238372803e-01" purity="5.2516925334930420e-01" nType="-99"/>
        </Node>
      </Node>
    </BinaryTree>
    <BinaryTree type="DecisionTree" boostWeight="1.0000000000000000e+00" itree="508">
      <Node pos="s" depth="0" NCoef="0" IVar="8" Cut="1.0131005096435547e+02" cType="1" res="2.1154026035219431e-03" rms="4.5475497841835022e-01" purity="5.0080513954162598e-01" nType="0">
        <Node pos="l" depth="1" NCoef="0" IVar="4" Cut="7.8909210205078125e+01" cType="1" res="-3.8342390209436417e-02" rms="4.5477321743965149e-01" purity="4.2667040228843689e-01" nType="0">
          <Node pos="l" depth="2" NCoef="0" IVar="-1" Cut="0.0000000000000000e+00" cType="1" res="-2.2964095696806908e-03" rms="4.4528877735137939e-01" purity="3.7302264571189880e-01" nType="-99"/>
          <Node pos="r" depth="2" NCoef="0" IVar="-1" Cut="0.0000000000000000e+00" cType="1" res="-1.5252869343385100e-04" rms="4.6578264236450195e-01" purity="5.0229656696319580e-01" nType="-99"/>
        </Node>
        <Node pos="r" depth="1" NCoef="0" IVar="0" Cut="1.0292989015579224e+00" cType="1" res="9.9957399070262909e-03" rms="4.5433241128921509e-01" purity="5.1524502038955688e-01" nType="0">
          <Node pos="l" depth="2" NCoef="0" IVar="-1" Cut="0.0000000000000000e+00" cType="1" res="8.1893871538341045e-04" rms="4.5240491628646851e-01" purity="5.6306970119476318e-01" nType="-99"/>
          <Node pos="r" depth="2" NCoef="0" IVar="-1" Cut="0.0000000000000000e+00" cType="1" res="-2.4064281024038792e-04" rms="4.5544666051864624e-01" purity="4.7041460871696472e-01" nType="-99"/>
        </Node>
      </Node>
    </BinaryTree>
    <BinaryTree type="DecisionTree" boostWeight="1.0000000000000000e+00" itree="509">
      <Node pos="s" depth="0" NCoef="0" IVar="5" Cut="2.1726989746093750e+00" cType="1" res="8.9069949463009834e-03" rms="4.5701760053634644e-01" purity="5.0709807872772217e-01" nType="0">
        <Node pos="l" depth="1" NCoef="0" IVar="9" Cut="9.7876747131347656e+01" cType="1" res="2.6355404406785965e-02" rms="4.5672091841697693e-01" purity="5.7856267690658569e-01" nType="0">
          <Node pos="l" depth="2" NCoef="0" IVar="-1" Cut="0.0000000000000000e+00" cType="1" res="3.9954765816219151e-04" rms="4.6205475926399231e-01" purity="5.3687387704849243e-01" nType="-99"/>
          <Node pos="r" depth="2" NCoef="0" IVar="-1" Cut="0.0000000000000000e+00" cType="1" res="1.3505072565749288e-03" rms="4.4511708617210388e-01" purity="6.5980434417724609e-01" nType="-99"/>
        </Node>
        <Node pos="r" depth="1" NCoef="0" IVar="5" Cut="2.8821904659271240e+00" cType="1" res="-5.7105212472379208e-03" rms="4.5675316452980042e-01" purity="4.4722825288772583e-01" nType="0">
          <Node pos="l" depth="2" NCoef="0" IVar="-1" Cut="0.0000000000000000e+00" cType="1" res="-9.0717285274877213e-06" rms="4.6211409568786621e-01" purity="4.7153034806251526e-01" nType="-99"/>
          <Node pos="r" depth="2" NCoef="0" IVar="-1" Cut="0.0000000000000000e+00" cType="1" res="-3.1134008895605803e-03" rms="3.9884439110755920e-01" purity="2.1719364821910858e-01" nType="-99"/>
        </Node>
      </Node>
    </BinaryTree>
    <BinaryTree type="DecisionTree" boostWeight="1.0000000000000000e+00" itree="510">
      <Node pos="s" depth="0" NCoef="0" IVar="5" Cut="1.9179462194442749e+00" cType="1" res="-5.1904871361330152e-04" rms="4.5451754331588745e-01" purity="4.9812296032905579e-01" nType="0">
        <Node pos="l" depth="1" NCoef="0" IVar="8" Cut="1.1485482788085938e+02" cType="1" res="2.8969386592507362e-02" rms="4.5219850540161133e-01" purity="5.9120094776153564e-01" nType="0">
          <Node pos="l" depth="2" NCoef="0" IVar="-1" Cut="0.0000000000000000e+00" cType="1" res="1.6791378584457561e-05" rms="4.5815342664718628e-01" purity="5.2887284755706787e-01" nType="-99"/>
          <Node pos="r" depth="2" NCoef="0" IVar="-1" Cut="0.0000000000000000e+00" cType="1" res="1.3224389404058456e-03" rms="4.4665521383285522e-01" purity="6.3675487041473389e-01" nType="-99"/>
        </Node>
        <Node pos="r" depth="1" NCoef="0" IVar="7" Cut="1.9537407159805298e-01" cType="1" res="-9.1857882216572762e-03" rms="4.5483347773551941e-01" purity="4.7076705098152161e-01" nType="0">
          <Node pos="l" depth="2" NCoef="0" IVar="-1" Cut="0.0000000000000000e+00" cType="1" res="-4.9230945296585560e-04" rms="4.5439690351486206e-01" purity="4.5708051323890686e-01" nType="-99"/>
          <Node pos="r" depth="2" NCoef="0" IVar="-1" Cut="0.0000000000000000e+00" cType="1" res="1.1514750076457858e-03" rms="4.5549204945564270e-01" purity="5.8941453695297241e-01" nType="-99"/>
        </Node>
      </Node>
    </BinaryTree>
    <BinaryTree type="DecisionTree" boostWeight="1.0000000000000000e+00" itree="511">
      <Node pos="s" depth="0" NCoef="0" IVar="0" Cut="1.1223915815353394e+00" cType="1" res="4.9788174219429493e-03" rms="4.5711356401443481e-01" purity="5.0232452154159546e-01" nType="0">
        <Node pos="l" depth="1" NCoef="0" IVar="2" Cut="8.7172150611877441e-01" cType="1" res="1.9073219969868660e-02" rms="4.5946216583251953e-01" purity="5.4120731353759766e-01" nType="0">
          <Node pos="l" depth="2" NCoef="0" IVar="-1" Cut="0.0000000000000000e+00" cType="1" res="9.2163862427696586e-04" rms="4.5847171545028687e-01" purity="5.8057051897048950e-01" nType="-99"/>
          <Node pos="r" depth="2" NCoef="0" IVar="-1" Cut="0.0000000000000000e+00" cType="1" res="-2.2064437507651746e-04" rms="4.6024978160858154e-01" purity="4.6560209989547729e-01" nType="-99"/>
        </Node>
        <Node pos="r" depth="1" NCoef="0" IVar="7" Cut="1.6943278908729553e-01" cType="1" res="-1.3316695578396320e-02" rms="4.5339375734329224e-01" purity="4.5185193419456482e-01" nType="0">
          <Node pos="l" depth="2" NCoef="0" IVar="-1" Cut="0.0000000000000000e+00" cType="1" res="-7.4056175071746111e-04" rms="4.5139843225479126e-01" purity="4.3310788273811340e-01" nType="-99"/>
          <Node pos="r" depth="2" NCoef="0" IVar="-1" Cut="0.0000000000000000e+00" cType="1" res="9.4615237321704626e-04" rms="4.6174991130828857e-01" purity="5.5801647901535034e-01" nType="-99"/>
        </Node>
      </Node>
    </BinaryTree>
    <BinaryTree type="DecisionTree" boostWeight="1.0000000000000000e+00" itree="512">
      <Node pos="s" depth="0" NCoef="0" IVar="9" Cut="4.3573879241943359e+01" cType="1" res="5.7973731309175491e-03" rms="4.5580258965492249e-01" purity="5.0248616933822632e-01" nType="0">
        <Node pos="l" depth="1" NCoef="0" IVar="-1" Cut="0.0000000000000000e+00" cType="1" res="-1.8943498143926263e-03" rms="4.5537102222442627e-01" purity="4.1227126121520996e-01" nType="-99"/>
        <Node pos="r" depth="1" NCoef="0" IVar="6" Cut="2.5041942596435547e+00" cType="1" res="1.0224550962448120e-02" rms="4.5551082491874695e-01" purity="5.0893032550811768e-01" nType="0">
          <Node pos="l" depth="2" NCoef="0" IVar="-1" Cut="0.0000000000000000e+00" cType="1" res="-2.2243632702156901e-04" rms="4.5433598756790161e-01" purity="3.5796317458152771e-01" nType="-99"/>
          <Node pos="r" depth="2" NCoef="0" IVar="-1" Cut="0.0000000000000000e+00" cType="1" res="6.0273363487794995e-04" rms="4.5602259039878845e-01" purity="6.2393349409103394e-01" nType="-99"/>
        </Node>
      </Node>
    </BinaryTree>
    <BinaryTree type="DecisionTree" boostWeight="1.0000000000000000e+00" itree="513">
      <Node pos="s" depth="0" NCoef="0" IVar="7" Cut="1.0167703777551651e-01" cType="1" res="7.7301827259361744e-03" rms="4.5452105998992920e-01" purity="5.0734984874725342e-01" nType="0">
        <Node pos="l" depth="1" NCoef="0" IVar="6" Cut="3.9756820201873779e+00" cType="1" res="-4.7947429120540619e-03" rms="4.5277008414268494e-01" purity="4.7848457098007202e-01" nType="0">
          <Node pos="l" depth="2" NCoef="0" IVar="-1" Cut="0.0000000000000000e+00" cType="1" res="-5.8840436395257711e-04" rms="4.5900174975395203e-01" purity="4.0154573321342468e-01" nType="-99"/>
          <Node pos="r" depth="2" NCoef="0" IVar="-1" Cut="0.0000000000000000e+00" cType="1" res="8.6851837113499641e-04" rms="4.3032875657081604e-01" purity="7.2052711248397827e-01" nType="-99"/>
        </Node>
        <Node pos="r" depth="1" NCoef="0" IVar="3" Cut="1.9030784070491791e-01" cType="1" res="4.0866617113351822e-02" rms="4.5747065544128418e-01" purity="5.8371675014495850e-01" nType="0">
          <Node pos="l" depth="2" NCoef="0" IVar="-1" Cut="0.0000000000000000e+00" cType="1" res="2.5355801917612553e-03" rms="4.6886584162712097e-01" purity="5.3004729747772217e-01" nType="-99"/>
          <Node pos="r" depth="2" NCoef="0" IVar="-1" Cut="0.0000000000000000e+00" cType="1" res="8.5105537436902523e-04" rms="4.5426231622695923e-01" purity="5.9583413600921631e-01" nType="-99"/>
        </Node>
      </Node>
    </BinaryTree>
    <BinaryTree type="DecisionTree" boostWeight="1.0000000000000000e+00" itree="514">
      <Node pos="s" depth="0" NCoef="0" IVar="6" Cut="1.8224284648895264e+00" cType="1" res="3.6718123592436314e-03" rms="4.5579665899276733e-01" purity="5.0161933898925781e-01" nType="0">
        <Node pos="l" depth="1" NCoef="0" IVar="3" Cut="1.4481863379478455e-01" cType="1" res="-2.6669178158044815e-02" rms="4.3987089395523071e-01" purity="2.9877549409866333e-01" nType="0">
          <Node pos="l" depth="2" NCoef="0" IVar="-1" Cut="0.0000000000000000e+00" cType="1" res="3.5771669354289770e-04" rms="4.6049204468727112e-01" purity="3.5173153877258301e-01" nType="-99"/>
          <Node pos="r" depth="2" NCoef="0" IVar="-1" Cut="0.0000000000000000e+00" cType="1" res="-1.7818191554397345e-03" rms="4.3140941858291626e-01" purity="2.7952283620834351e-01" nType="-99"/>
        </Node>
        <Node pos="r" depth="1" NCoef="0" IVar="3" Cut="3.2580962777137756e-01" cType="1" res="1.3623064383864403e-02" rms="4.6046501398086548e-01" purity="5.6814807653427124e-01" nType="0">
          <Node pos="l" depth="2" NCoef="0" IVar="-1" Cut="0.0000000000000000e+00" cType="1" res="1.2858179397881031e-03" rms="4.6845132112503052e-01" purity="5.3722912073135376e-01" nType="-99"/>
          <Node pos="r" depth="2" NCoef="0" IVar="-1" Cut="0.0000000000000000e+00" cType="1" res="4.2066691094078124e-05" rms="4.5671460032463074e-01" purity="5.8031553030014038e-01" nType="-99"/>
        </Node>
      </Node>
    </BinaryTree>
    <BinaryTree type="DecisionTree" boostWeight="1.0000000000000000e+00" itree="515">
      <Node pos="s" depth="0" NCoef="0" IVar="8" Cut="9.2612442016601562e+01" cType="1" res="1.9843047484755516e-03" rms="4.5484960079193115e-01" purity="5.0024342536926270e-01" nType="0">
        <Node pos="l" depth="1" NCoef="0" IVar="3" Cut="3.6652338504791260e-01" cType="1" res="-4.3823719024658203e-02" rms="4.5371028780937195e-01" purity="4.1226807236671448e-01" nType="0">
          <Node pos="l" depth="2" NCoef="0" IVar="-1" Cut="0.0000000000000000e+00" cType="1" res="-5.0396012375131249e-04" rms="4.4551068544387817e-01" purity="3.6053949594497681e-01" nType="-99"/>
          <Node pos="r" depth="2" NCoef="0" IVar="-1" Cut="0.0000000000000000e+00" cType="1" res="-2.4109662044793367e-03" rms="4.5975634455680847e-01" purity="4.6417918801307678e-01" nType="-99"/>
        </Node>
        <Node pos="r" depth="1" NCoef="0" IVar="8" Cut="1.3432449340820312e+02" cType="1" res="7.1055507287383080e-03" rms="4.5469006896018982e-01" purity="5.1007884740829468e-01" nType="0">
          <Node pos="l" depth="2" NCoef="0" IVar="-1" Cut="0.0000000000000000e+00" cType="1" res="5.9435924049466848e-04" rms="4.5316100120544434e-01" purity="5.2044188976287842e-01" nType="-99"/>
          <Node pos="r" depth="2" NCoef="0" IVar="-1" Cut="0.0000000000000000e+00" cType="1" res="-5.5865687318146229e-04" rms="4.5666241645812988e-01" purity="4.8973637819290161e-01" nType="-99"/>
        </Node>
      </Node>
    </BinaryTree>
    <BinaryTree type="DecisionTree" boostWeight="1.0000000000000000e+00" itree="516">
      <Node pos="s" depth="0" NCoef="0" IVar="4" Cut="8.4027877807617188e+01" cType="1" res="3.6652784328907728e-03" rms="4.5676845312118530e-01" purity="5.0212842226028442e-01" nType="0">
        <Node pos="l" depth="1" NCoef="0" IVar="2" Cut="6.6051030158996582e-01" cType="1" res="-9.0578766539692879e-03" rms="4.5401605963706970e-01" purity="4.6076074242591858e-01" nType="0">
          <Node pos="l" depth="2" NCoef="0" IVar="-1" Cut="0.0000000000000000e+00" cType="1" res="4.5451094047166407e-04" rms="4.5765674114227295e-01" purity="5.3750723600387573e-01" nType="-99"/>
          <Node pos="r" depth="2" NCoef="0" IVar="-1" Cut="0.0000000000000000e+00" cType="1" res="-7.7264400897547603e-04" rms="4.5146736502647400e-01" purity="4.1891691088676453e-01" nType="-99"/>
        </Node>
        <Node pos="r" depth="1" NCoef="0" IVar="0" Cut="7.3333573341369629e-01" cType="1" res="2.4711433798074722e-02" rms="4.6051424741744995e-01" purity="5.7055729627609253e-01" nType="0">
          <Node pos="l" depth="2" NCoef="0" IVar="-1" Cut="0.0000000000000000e+00" cType="1" res="1.5254884492605925e-03" rms="4.6123865246772766e-01" purity="6.2910932302474976e-01" nType="-99"/>
          <Node pos="r" depth="2" NCoef="0" IVar="-1" Cut="0.0000000000000000e+00" cType="1" res="4.5185742783360183e-04" rms="4.5989638566970825e-01" purity="5.5435353517532349e-01" nType="-99"/>
        </Node>
      </Node>
    </BinaryTree>
    <BinaryTree type="DecisionTree" boostWeight="1.0000000000000000e+00" itree="517">
      <Node pos="s" depth="0" NCoef="0" IVar="6" Cut="4.8670983314514160e+00" cType="1" res="1.5605494845658541e-03" rms="4.5576918125152588e-01" purity="4.9787834286689758e-01" nType="0">
        <Node pos="l" depth="1" NCoef="0" IVar="7" Cut="1.4949634671211243e-01" cType="1" res="-4.0440680459141731e-03" rms="4.6258759498596191e-01" purity="4.6270316839218140e-01" nType="0">
          <Node pos="l" depth="2" NCoef="0" IVar="-1" Cut="0.0000000000000000e+00" cType="1" res="-3.7869584048166871e-04" rms="4.6077692508697510e-01" purity="4.4238945841789246e-01" nType="-99"/>
          <Node pos="r" depth="2" NCoef="0" IVar="-1" Cut="0.0000000000000000e+00" cType="1" res="8.1606017192825675e-04" rms="4.6900266408920288e-01" purity="5.5157244205474854e-01" nType="-99"/>
        </Node>
        <Node pos="r" depth="1" NCoef="0" IVar="-1" Cut="0.0000000000000000e+00" cType="1" res="1.3244383735582232e-03" rms="3.9055746793746948e-01" purity="7.9392534494400024e-01" nType="-99"/>
      </Node>
    </BinaryTree>
    <BinaryTree type="DecisionTree" boostWeight="1.0000000000000000e+00" itree="518">
      <Node pos="s" depth="0" NCoef="0" IVar="8" Cut="1.0173684692382812e+02" cType="1" res="2.8059594333171844e-03" rms="4.5558992028236389e-01" purity="5.0031822919845581e-01" nType="0">
        <Node pos="l" depth="1" NCoef="0" IVar="2" Cut="8.9684236049652100e-01" cType="1" res="-3.3529043197631836e-02" rms="4.5385754108428955e-01" purity="4.3024897575378418e-01" nType="0">
          <Node pos="l" depth="2" NCoef="0" IVar="-1" Cut="0.0000000000000000e+00" cType="1" res="-7.1750744245946407e-04" rms="4.5878970623016357e-01" purity="4.6560069918632507e-01" nType="-99"/>
          <Node pos="r" depth="2" NCoef="0" IVar="-1" Cut="0.0000000000000000e+00" cType="1" res="-2.1492268424481153e-03" rms="4.4247075915336609e-01" purity="3.5629171133041382e-01" nType="-99"/>
        </Node>
        <Node pos="r" depth="1" NCoef="0" IVar="5" Cut="1.6461038589477539e+00" cType="1" res="1.0247952304780483e-02" rms="4.5558652281761169e-01" purity="5.1466953754425049e-01" nType="0">
          <Node pos="l" depth="2" NCoef="0" IVar="-1" Cut="0.0000000000000000e+00" cType="1" res="1.5282852109521627e-03" rms="4.4220149517059326e-01" purity="6.6197556257247925e-01" nType="-99"/>
          <Node pos="r" depth="2" NCoef="0" IVar="-1" Cut="0.0000000000000000e+00" cType="1" res="1.5716876077931374e-04" rms="4.5673093199729919e-01" purity="4.9851030111312866e-01" nType="-99"/>
        </Node>
      </Node>
    </BinaryTree>
    <BinaryTree type="DecisionTree" boostWeight="1.0000000000000000e+00" itree="519">
      <Node pos="s" depth="0" NCoef="0" IVar="6" Cut="2.6247403621673584e+00" cType="1" res="5.0993948243558407e-03" rms="4.5637729763984680e-01" purity="5.0271755456924438e-01" nType="0">
        <Node pos="l" depth="1" NCoef="0" IVar="3" Cut="2.8907802700996399e-01" cType="1" res="-1.0005165822803974e-02" rms="4.5578444004058838e-01" purity="3.5621762275695801e-01" nType="0">
          <Node pos="l" depth="2" NCoef="0" IVar="-1" Cut="0.0000000000000000e+00" cType="1" res="1.4254142297431827e-04" rms="4.5704859495162964e-01" purity="3.6644589900970459e-01" nType="-99"/>
          <Node pos="r" depth="2" NCoef="0" IVar="-1" Cut="0.0000000000000000e+00" cType="1" res="-1.4587237965315580e-03" rms="4.5174178481101990e-01" purity="3.3465722203254700e-01" nType="-99"/>
        </Node>
        <Node pos="r" depth="1" NCoef="0" IVar="3" Cut="4.0322995185852051e-01" cType="1" res="1.8064986914396286e-02" rms="4.5648714900016785e-01" purity="6.2847137451171875e-01" nType="0">
          <Node pos="l" depth="2" NCoef="0" IVar="-1" Cut="0.0000000000000000e+00" cType="1" res="1.4089898904785514e-03" rms="4.6151831746101379e-01" purity="6.2301391363143921e-01" nType="-99"/>
          <Node pos="r" depth="2" NCoef="0" IVar="-1" Cut="0.0000000000000000e+00" cType="1" res="1.5912354865577072e-04" rms="4.5413687825202942e-01" purity="6.3030391931533813e-01" nType="-99"/>
        </Node>
      </Node>
    </BinaryTree>
    <BinaryTree type="DecisionTree" boostWeight="1.0000000000000000e+00" itree="520">
      <Node pos="s" depth="0" NCoef="0" IVar="7" Cut="2.1646103262901306e-01" cType="1" res="1.7040164675563574e-03" rms="4.5786178112030029e-01" purity="4.9587348103523254e-01" nType="0">
        <Node pos="l" depth="1" NCoef="0" IVar="3" Cut="2.2903418540954590e-01" cType="1" res="-2.5274164509028196e-03" rms="4.5793795585632324e-01" purity="4.8561596870422363e-01" nType="0">
          <Node pos="l" depth="2" NCoef="0" IVar="-1" Cut="0.0000000000000000e+00" cType="1" res="7.3360500391572714e-04" rms="4.5541715621948242e-01" purity="4.1624116897583008e-01" nType="-99"/>
          <Node pos="r" depth="2" NCoef="0" IVar="-1" Cut="0.0000000000000000e+00" cType="1" res="-3.6576448474079370e-04" rms="4.5862680673599243e-01" purity="5.1406735181808472e-01" nType="-99"/>
        </Node>
        <Node pos="r" depth="1" NCoef="0" IVar="-1" Cut="0.0000000000000000e+00" cType="1" res="1.3203611597418785e-03" rms="4.5439940690994263e-01" purity="6.0929596424102783e-01" nType="-99"/>
      </Node>
    </BinaryTree>
    <BinaryTree type="DecisionTree" boostWeight="1.0000000000000000e+00" itree="521">
      <Node pos="s" depth="0" NCoef="0" IVar="5" Cut="1.7209099531173706e+00" cType="1" res="-3.9726775139570236e-03" rms="4.5521873235702515e-01" purity="4.9361923336982727e-01" nType="0">
        <Node pos="l" depth="1" NCoef="0" IVar="8" Cut="1.1082596588134766e+02" cType="1" res="3.3471580594778061e-02" rms="4.5000633597373962e-01" purity="6.0591048002243042e-01" nType="0">
          <Node pos="l" depth="2" NCoef="0" IVar="-1" Cut="0.0000000000000000e+00" cType="1" res="-5.7676723372424021e-05" rms="4.6095269918441772e-01" purity="5.2511066198348999e-01" nType="-99"/>
          <Node pos="r" depth="2" NCoef="0" IVar="-1" Cut="0.0000000000000000e+00" cType="1" res="1.4891913160681725e-03" rms="4.4125258922576904e-01" purity="6.5828192234039307e-01" nType="-99"/>
        </Node>
        <Node pos="r" depth="1" NCoef="0" IVar="6" Cut="1.6296075582504272e+00" cType="1" res="-1.0253570042550564e-02" rms="4.5578604936599731e-01" purity="4.7478356957435608e-01" nType="0">
          <Node pos="l" depth="2" NCoef="0" IVar="-1" Cut="0.0000000000000000e+00" cType="1" res="-1.8740460509434342e-03" rms="4.2498907446861267e-01" purity="2.6974892616271973e-01" nType="-99"/>
          <Node pos="r" depth="2" NCoef="0" IVar="-1" Cut="0.0000000000000000e+00" cType="1" res="-7.9039542470127344e-05" rms="4.6315565705299377e-01" purity="5.2807468175888062e-01" nType="-99"/>
        </Node>
      </Node>
    </BinaryTree>
    <BinaryTree type="DecisionTree" boostWeight="1.0000000000000000e+00" itree="522">
      <Node pos="s" depth="0" NCoef="0" IVar="9" Cut="9.1813987731933594e+01" cType="1" res="4.1757705621421337e-03" rms="4.5564165711402893e-01" purity="5.0162678956985474e-01" nType="0">
        <Node pos="l" depth="1" NCoef="0" IVar="3" Cut="1.9032652676105499e-01" cType="1" res="-1.3548722490668297e-02" rms="4.5686024427413940e-01" purity="4.6641042828559875e-01" nType="0">
          <Node pos="l" depth="2" NCoef="0" IVar="-1" Cut="0.0000000000000000e+00" cType="1" res="1.0999436490237713e-03" rms="4.6119293570518494e-01" purity="4.1302341222763062e-01" nType="-99"/>
          <Node pos="r" depth="2" NCoef="0" IVar="-1" Cut="0.0000000000000000e+00" cType="1" res="-7.9605355858802795e-04" rms="4.5495852828025818e-01" purity="4.8070546984672546e-01" nType="-99"/>
        </Node>
        <Node pos="r" depth="1" NCoef="0" IVar="5" Cut="1.9444417953491211e+00" cType="1" res="1.8150128424167633e-02" rms="4.5419120788574219e-01" purity="5.2939212322235107e-01" nType="0">
          <Node pos="l" depth="2" NCoef="0" IVar="-1" Cut="0.0000000000000000e+00" cType="1" res="2.0996008533984423e-03" rms="4.2821788787841797e-01" purity="7.0886093378067017e-01" nType="-99"/>
          <Node pos="r" depth="2" NCoef="0" IVar="-1" Cut="0.0000000000000000e+00" cType="1" res="2.8042652411386371e-04" rms="4.5700237154960632e-01" purity="5.0399327278137207e-01" nType="-99"/>
        </Node>
      </Node>
    </BinaryTree>
    <BinaryTree type="DecisionTree" boostWeight="1.0000000000000000e+00" itree="523">
      <Node pos="s" depth="0" NCoef="0" IVar="6" Cut="5.0585670471191406e+00" cType="1" res="1.5450506471097469e-03" rms="4.5680573582649231e-01" purity="4.9960237741470337e-01" nType="0">
        <Node pos="l" depth="1" NCoef="0" IVar="3" Cut="5.3871494531631470e-01" cType="1" res="-2.9571678023785353e-03" rms="4.6206507086753845e-01" purity="4.7186708450317383e-01" nType="0">
          <Node pos="l" depth="2" NCoef="0" IVar="-1" Cut="0.0000000000000000e+00" cType="1" res="2.7919339481741190e-04" rms="4.5920854806900024e-01" purity="4.4120019674301147e-01" nType="-99"/>
          <Node pos="r" depth="2" NCoef="0" IVar="-1" Cut="0.0000000000000000e+00" cType="1" res="-9.5041567692533135e-04" rms="4.6835353970527649e-01" purity="5.5541163682937622e-01" nType="-99"/>
        </Node>
        <Node pos="r" depth="1" NCoef="0" IVar="-1" Cut="0.0000000000000000e+00" cType="1" res="1.3609024463221431e-03" rms="3.9277082681655884e-01" purity="7.9718661308288574e-01" nType="-99"/>
      </Node>
    </BinaryTree>
    <BinaryTree type="DecisionTree" boostWeight="1.0000000000000000e+00" itree="524">
      <Node pos="s" depth="0" NCoef="0" IVar="4" Cut="1.0033612060546875e+02" cType="1" res="3.3806848805397749e-03" rms="4.5594930648803711e-01" purity="5.0042027235031128e-01" nType="0">
        <Node pos="l" depth="1" NCoef="0" IVar="7" Cut="1.9748170673847198e-01" cType="1" res="-5.3265341557562351e-03" rms="4.5471543073654175e-01" purity="4.6887251734733582e-01" nType="0">
          <Node pos="l" depth="2" NCoef="0" IVar="-1" Cut="0.0000000000000000e+00" cType="1" res="-3.6932638613507152e-04" rms="4.5396143198013306e-01" purity="4.5542204380035400e-01" nType="-99"/>
          <Node pos="r" depth="2" NCoef="0" IVar="-1" Cut="0.0000000000000000e+00" cType="1" res="1.2333700433373451e-03" rms="4.5808500051498413e-01" purity="5.8315491676330566e-01" nType="-99"/>
        </Node>
        <Node pos="r" depth="1" NCoef="0" IVar="8" Cut="1.2874647521972656e+02" cType="1" res="2.6725688949227333e-02" rms="4.5842573046684265e-01" purity="5.8500319719314575e-01" nType="0">
          <Node pos="l" depth="2" NCoef="0" IVar="-1" Cut="0.0000000000000000e+00" cType="1" res="1.1600182624533772e-03" rms="4.5812204480171204e-01" purity="5.9585696458816528e-01" nType="-99"/>
          <Node pos="r" depth="2" NCoef="0" IVar="-1" Cut="0.0000000000000000e+00" cType="1" res="1.4118106628302485e-04" rms="4.5796489715576172e-01" purity="5.6970870494842529e-01" nType="-99"/>
        </Node>
      </Node>
    </BinaryTree>
    <BinaryTree type="DecisionTree" boostWeight="1.0000000000000000e+00" itree="525">
      <Node pos="s" depth="0" NCoef="0" IVar="1" Cut="7.6791784667968750e+02" cType="1" res="-2.6360692572779953e-04" rms="4.5568534731864929e-01" purity="4.9748212099075317e-01" nType="0">
        <Node pos="l" depth="1" NCoef="0" IVar="8" Cut="9.2035110473632812e+01" cType="1" res="-6.6224453039467335e-03" rms="4.5561876893043518e-01" purity="4.7353756427764893e-01" nType="0">
          <Node pos="l" depth="2" NCoef="0" IVar="-1" Cut="0.0000000000000000e+00" cType="1" res="-2.2535843309015036e-03" rms="4.5169174671173096e-01" purity="3.7486347556114197e-01" nType="-99"/>
          <Node pos="r" depth="2" NCoef="0" IVar="-1" Cut="0.0000000000000000e+00" cType="1" res="-2.3435412003891543e-05" rms="4.5564359426498413e-01" purity="4.8408311605453491e-01" nType="-99"/>
        </Node>
        <Node pos="r" depth="1" NCoef="0" IVar="4" Cut="1.0365039062500000e+02" cType="1" res="3.7516213953495026e-02" rms="4.5424878597259521e-01" purity="6.3974386453628540e-01" nType="0">
          <Node pos="l" depth="2" NCoef="0" IVar="-1" Cut="0.0000000000000000e+00" cType="1" res="4.8798351781442761e-04" rms="4.6001797914505005e-01" purity="6.0442644357681274e-01" nType="-99"/>
          <Node pos="r" depth="2" NCoef="0" IVar="-1" Cut="0.0000000000000000e+00" cType="1" res="1.4325852971524000e-03" rms="4.4878271222114563e-01" purity="6.6862881183624268e-01" nType="-99"/>
        </Node>
      </Node>
    </BinaryTree>
    <BinaryTree type="DecisionTree" boostWeight="1.0000000000000000e+00" itree="526">
      <Node pos="s" depth="0" NCoef="0" IVar="9" Cut="8.7097915649414062e+01" cType="1" res="-3.3488771878182888e-03" rms="4.5555448532104492e-01" purity="4.9353137612342834e-01" nType="0">
        <Node pos="l" depth="1" NCoef="0" IVar="3" Cut="1.9032187759876251e-01" cType="1" res="-2.1170429885387421e-02" rms="4.5703458786010742e-01" purity="4.5945686101913452e-01" nType="0">
          <Node pos="l" depth="2" NCoef="0" IVar="-1" Cut="0.0000000000000000e+00" cType="1" res="6.4615567680448294e-04" rms="4.5686814188957214e-01" purity="3.9844128489494324e-01" nType="-99"/>
          <Node pos="r" depth="2" NCoef="0" IVar="-1" Cut="0.0000000000000000e+00" cType="1" res="-9.9005096126347780e-04" rms="4.5651531219482422e-01" purity="4.7594577074050903e-01" nType="-99"/>
        </Node>
        <Node pos="r" depth="1" NCoef="0" IVar="5" Cut="2.3049316406250000e+00" cType="1" res="8.4211640059947968e-03" rms="4.5419108867645264e-01" purity="5.1603549718856812e-01" nType="0">
          <Node pos="l" depth="2" NCoef="0" IVar="-1" Cut="0.0000000000000000e+00" cType="1" res="8.8069355115294456e-04" rms="4.5364531874656677e-01" purity="6.1720067262649536e-01" nType="-99"/>
          <Node pos="r" depth="2" NCoef="0" IVar="-1" Cut="0.0000000000000000e+00" cType="1" res="-5.8718241052702069e-04" rms="4.5340943336486816e-01" purity="4.0829464793205261e-01" nType="-99"/>
        </Node>
      </Node>
    </BinaryTree>
    <BinaryTree type="DecisionTree" boostWeight="1.0000000000000000e+00" itree="527">
      <Node pos="s" depth="0" NCoef="0" IVar="4" Cut="7.4224441528320312e+01" cType="1" res="3.2826894894242287e-03" rms="4.5494383573532104e-01" purity="5.0026774406433105e-01" nType="0">
        <Node pos="l" depth="1" NCoef="0" IVar="6" Cut="3.4762880802154541e+00" cType="1" res="-1.0534008033573627e-02" rms="4.5285373926162720e-01" purity="4.5102769136428833e-01" nType="0">
          <Node pos="l" depth="2" NCoef="0" IVar="-1" Cut="0.0000000000000000e+00" cType="1" res="-8.5242936620488763e-04" rms="4.5391634106636047e-01" purity="3.5243684053421021e-01" nType="-99"/>
          <Node pos="r" depth="2" NCoef="0" IVar="-1" Cut="0.0000000000000000e+00" cType="1" res="3.8821273483335972e-04" rms="4.4955939054489136e-01" purity="6.5907663106918335e-01" nType="-99"/>
        </Node>
        <Node pos="r" depth="1" NCoef="0" IVar="0" Cut="1.5961234569549561e+00" cType="1" res="2.0134644582867622e-02" rms="4.5691496133804321e-01" purity="5.6032490730285645e-01" nType="0">
          <Node pos="l" depth="2" NCoef="0" IVar="-1" Cut="0.0000000000000000e+00" cType="1" res="7.8532501356676221e-04" rms="4.5713987946510315e-01" purity="5.7471066713333130e-01" nType="-99"/>
          <Node pos="r" depth="2" NCoef="0" IVar="-1" Cut="0.0000000000000000e+00" cType="1" res="-9.1420335229486227e-04" rms="4.5241764187812805e-01" purity="4.6593141555786133e-01" nType="-99"/>
        </Node>
      </Node>
    </BinaryTree>
    <BinaryTree type="DecisionTree" boostWeight="1.0000000000000000e+00" itree="528">
      <Node pos="s" depth="0" NCoef="0" IVar="5" Cut="2.1659140586853027e+00" cType="1" res="3.7377551198005676e-03" rms="4.5678001642227173e-01" purity="5.0154602527618408e-01" nType="0">
        <Node pos="l" depth="1" NCoef="0" IVar="7" Cut="-5.4625388234853745e-02" cType="1" res="2.3999230936169624e-02" rms="4.5778432488441467e-01" purity="5.7574921846389771e-01" nType="0">
          <Node pos="l" depth="2" NCoef="0" IVar="-1" Cut="0.0000000000000000e+00" cType="1" res="-3.4720354597084224e-04" rms="4.5927175879478455e-01" purity="5.1001650094985962e-01" nType="-99"/>
          <Node pos="r" depth="2" NCoef="0" IVar="-1" Cut="0.0000000000000000e+00" cType="1" res="9.7069662297144532e-04" rms="4.5675334334373474e-01" purity="5.9638398885726929e-01" nType="-99"/>
        </Node>
        <Node pos="r" depth="1" NCoef="0" IVar="4" Cut="7.1436515808105469e+01" cType="1" res="-1.2719646096229553e-02" rms="4.5529949665069580e-01" purity="4.4127452373504639e-01" nType="0">
          <Node pos="l" depth="2" NCoef="0" IVar="-1" Cut="0.0000000000000000e+00" cType="1" res="-9.9003454670310020e-04" rms="4.4690707325935364e-01" purity="3.9674836397171021e-01" nType="-99"/>
          <Node pos="r" depth="2" NCoef="0" IVar="-1" Cut="0.0000000000000000e+00" cType="1" res="1.6992566816043109e-04" rms="4.6492990851402283e-01" purity="4.9690213799476624e-01" nType="-99"/>
        </Node>
      </Node>
    </BinaryTree>
    <BinaryTree type="DecisionTree" boostWeight="1.0000000000000000e+00" itree="529">
      <Node pos="s" depth="0" NCoef="0" IVar="3" Cut="2.4839183688163757e-01" cType="1" res="2.5790890504140407e-05" rms="4.5464235544204712e-01" purity="4.9885532259941101e-01" nType="0">
        <Node pos="l" depth="1" NCoef="0" IVar="6" Cut="2.1560499668121338e+00" cType="1" res="2.3058073595166206e-02" rms="4.5589703321456909e-01" purity="4.2480048537254333e-01" nType="0">
          <Node pos="l" depth="2" NCoef="0" IVar="-1" Cut="0.0000000000000000e+00" cType="1" res="2.2174437617650256e-05" rms="4.5492401719093323e-01" purity="3.4485605359077454e-01" nType="-99"/>
          <Node pos="r" depth="2" NCoef="0" IVar="-1" Cut="0.0000000000000000e+00" cType="1" res="2.0762686617672443e-03" rms="4.5353627204895020e-01" purity="6.2197715044021606e-01" nType="-99"/>
        </Node>
        <Node pos="r" depth="1" NCoef="0" IVar="6" Cut="5.0624618530273438e+00" cType="1" res="-1.0764595121145248e-02" rms="4.5365127921104431e-01" purity="5.3354918956756592e-01" nType="0">
          <Node pos="l" depth="2" NCoef="0" IVar="-1" Cut="0.0000000000000000e+00" cType="1" res="-6.0452253092080355e-04" rms="4.6197909116744995e-01" purity="4.9371346831321716e-01" nType="-99"/>
          <Node pos="r" depth="2" NCoef="0" IVar="-1" Cut="0.0000000000000000e+00" cType="1" res="1.4207395724952221e-03" rms="3.8727724552154541e-01" purity="8.0143094062805176e-01" nType="-99"/>
        </Node>
      </Node>
    </BinaryTree>
    <BinaryTree type="DecisionTree" boostWeight="1.0000000000000000e+00" itree="530">
      <Node pos="s" depth="0" NCoef="0" IVar="6" Cut="3.9198079109191895e+00" cType="1" res="-2.2852572146803141e-03" rms="4.5509335398674011e-01" purity="4.9588051438331604e-01" nType="0">
        <Node pos="l" depth="1" NCoef="0" IVar="3" Cut="4.0300786495208740e-01" cType="1" res="-1.1516525410115719e-02" rms="4.6227699518203735e-01" purity="4.2100819945335388e-01" nType="0">
          <Node pos="l" depth="2" NCoef="0" IVar="-1" Cut="0.0000000000000000e+00" cType="1" res="1.4148605987429619e-04" rms="4.5865464210510254e-01" purity="4.1337966918945312e-01" nType="-99"/>
          <Node pos="r" depth="2" NCoef="0" IVar="-1" Cut="0.0000000000000000e+00" cType="1" res="-1.4211543602868915e-03" rms="4.6837145090103149e-01" purity="4.3798455595970154e-01" nType="-99"/>
        </Node>
        <Node pos="r" depth="1" NCoef="0" IVar="7" Cut="-5.7132124900817871e-02" cType="1" res="2.5339027866721153e-02" rms="4.3170735239982605e-01" purity="7.1993350982666016e-01" nType="0">
          <Node pos="l" depth="2" NCoef="0" IVar="-1" Cut="0.0000000000000000e+00" cType="1" res="-2.2834319679532200e-04" rms="4.5401316881179810e-01" purity="6.4743942022323608e-01" nType="-99"/>
          <Node pos="r" depth="2" NCoef="0" IVar="-1" Cut="0.0000000000000000e+00" cType="1" res="9.8284182604402304e-04" rms="4.2265060544013977e-01" purity="7.4626147747039795e-01" nType="-99"/>
        </Node>
      </Node>
    </BinaryTree>
    <BinaryTree type="DecisionTree" boostWeight="1.0000000000000000e+00" itree="531">
      <Node pos="s" depth="0" NCoef="0" IVar="7" Cut="-1.1092101037502289e-01" cType="1" res="7.7966586686670780e-03" rms="4.5758977532386780e-01" purity="5.0349795818328857e-01" nType="0">
        <Node pos="l" depth="1" NCoef="0" IVar="-1" Cut="0.0000000000000000e+00" cType="1" res="-1.8683414673432708e-03" rms="4.4257137179374695e-01" purity="3.7042495608329773e-01" nType="-99"/>
        <Node pos="r" depth="1" NCoef="0" IVar="9" Cut="9.8398139953613281e+01" cType="1" res="1.1989021673798561e-02" rms="4.5838648080825806e-01" purity="5.1322185993194580e-01" nType="0">
          <Node pos="l" depth="2" NCoef="0" IVar="-1" Cut="0.0000000000000000e+00" cType="1" res="-4.9630783905740827e-05" rms="4.6262297034263611e-01" purity="4.8220670223236084e-01" nType="-99"/>
          <Node pos="r" depth="2" NCoef="0" IVar="-1" Cut="0.0000000000000000e+00" cType="1" res="7.5737095903605223e-04" rms="4.5375806093215942e-01" purity="5.4389882087707520e-01" nType="-99"/>
        </Node>
      </Node>
    </BinaryTree>
    <BinaryTree type="DecisionTree" boostWeight="1.0000000000000000e+00" itree="532">
      <Node pos="s" depth="0" NCoef="0" IVar="6" Cut="3.7820985317230225e+00" cType="1" res="4.4750963570550084e-04" rms="4.5328444242477417e-01" purity="5.0002932548522949e-01" nType="0">
        <Node pos="l" depth="1" NCoef="0" IVar="3" Cut="1.7070245742797852e-01" cType="1" res="-1.1764889582991600e-02" rms="4.6140184998512268e-01" purity="4.1610819101333618e-01" nType="0">
          <Node pos="l" depth="2" NCoef="0" IVar="-1" Cut="0.0000000000000000e+00" cType="1" res="1.0784090263769031e-03" rms="4.5985415577888489e-01" purity="4.3130233883857727e-01" nType="-99"/>
          <Node pos="r" depth="2" NCoef="0" IVar="-1" Cut="0.0000000000000000e+00" cType="1" res="-7.9080351861193776e-04" rms="4.6113544702529907e-01" purity="4.1177123785018921e-01" nType="-99"/>
        </Node>
        <Node pos="r" depth="1" NCoef="0" IVar="5" Cut="2.3912515640258789e+00" cType="1" res="3.2384507358074188e-02" rms="4.2969730496406555e-01" purity="7.1949374675750732e-01" nType="0">
          <Node pos="l" depth="2" NCoef="0" IVar="-1" Cut="0.0000000000000000e+00" cType="1" res="1.1462536640465260e-03" rms="4.1159737110137939e-01" purity="7.6618778705596924e-01" nType="-99"/>
          <Node pos="r" depth="2" NCoef="0" IVar="-1" Cut="0.0000000000000000e+00" cType="1" res="-4.5094686356605962e-05" rms="4.7685351967811584e-01" purity="5.8362030982971191e-01" nType="-99"/>
        </Node>
      </Node>
    </BinaryTree>
    <BinaryTree type="DecisionTree" boostWeight="1.0000000000000000e+00" itree="533">
      <Node pos="s" depth="0" NCoef="0" IVar="6" Cut="5.0691699981689453e+00" cType="1" res="1.5667738625779748e-03" rms="4.5601189136505127e-01" purity="4.9998214840888977e-01" nType="0">
        <Node pos="l" depth="1" NCoef="0" IVar="0" Cut="9.6892857551574707e-01" cType="1" res="-3.6909419577568769e-03" rms="4.6239426732063293e-01" purity="4.6952706575393677e-01" nType="0">
          <Node pos="l" depth="2" NCoef="0" IVar="-1" Cut="0.0000000000000000e+00" cType="1" res="3.6145778722129762e-04" rms="4.6622350811958313e-01" purity="5.1796144247055054e-01" nType="-99"/>
          <Node pos="r" depth="2" NCoef="0" IVar="-1" Cut="0.0000000000000000e+00" cType="1" res="-5.1273289136588573e-04" rms="4.5923423767089844e-01" purity="4.3423327803611755e-01" nType="-99"/>
        </Node>
        <Node pos="r" depth="1" NCoef="0" IVar="-1" Cut="0.0000000000000000e+00" cType="1" res="1.4939077664166689e-03" rms="3.8176909089088440e-01" purity="8.0709683895111084e-01" nType="-99"/>
      </Node>
    </BinaryTree>
    <BinaryTree type="DecisionTree" boostWeight="1.0000000000000000e+00" itree="534">
      <Node pos="s" depth="0" NCoef="0" IVar="6" Cut="3.2857525348663330e+00" cType="1" res="3.2497814390808344e-03" rms="4.5634183287620544e-01" purity="5.0182461738586426e-01" nType="0">
        <Node pos="l" depth="1" NCoef="0" IVar="3" Cut="4.0164071321487427e-01" cType="1" res="-8.7100453674793243e-03" rms="4.6225371956825256e-01" purity="3.9612048864364624e-01" nType="0">
          <Node pos="l" depth="2" NCoef="0" IVar="-1" Cut="0.0000000000000000e+00" cType="1" res="7.2953378548845649e-05" rms="4.6144884824752808e-01" purity="3.9596843719482422e-01" nType="-99"/>
          <Node pos="r" depth="2" NCoef="0" IVar="-1" Cut="0.0000000000000000e+00" cType="1" res="-1.4029495650902390e-03" rms="4.6314051747322083e-01" purity="3.9661175012588501e-01" nType="-99"/>
        </Node>
        <Node pos="r" depth="1" NCoef="0" IVar="3" Cut="5.3870815038681030e-01" cType="1" res="2.3280519992113113e-02" rms="4.4554647803306580e-01" purity="6.7886161804199219e-01" nType="0">
          <Node pos="l" depth="2" NCoef="0" IVar="-1" Cut="0.0000000000000000e+00" cType="1" res="1.3353890972211957e-03" rms="4.4875189661979675e-01" purity="6.7840027809143066e-01" nType="-99"/>
          <Node pos="r" depth="2" NCoef="0" IVar="-1" Cut="0.0000000000000000e+00" cType="1" res="3.3393694320693612e-04" rms="4.4389027357101440e-01" purity="6.7902809381484985e-01" nType="-99"/>
        </Node>
      </Node>
    </BinaryTree>
    <BinaryTree type="DecisionTree" boostWeight="1.0000000000000000e+00" itree="535">
      <Node pos="s" depth="0" NCoef="0" IVar="9" Cut="1.6537631225585938e+02" cType="1" res="3.7039909511804581e-03" rms="4.5671540498733521e-01" purity="5.0097823143005371e-01" nType="0">
        <Node pos="l" depth="1" NCoef="0" IVar="7" Cut="2.2935783863067627e-01" cType="1" res="-2.0031018648296595e-03" rms="4.5689246058464050e-01" purity="4.9451360106468201e-01" nType="0">
          <Node pos="l" depth="2" NCoef="0" IVar="-1" Cut="0.0000000000000000e+00" cType="1" res="-2.1167351223994046e-04" rms="4.5645242929458618e-01" purity="4.8431760072708130e-01" nType="-99"/>
          <Node pos="r" depth="2" NCoef="0" IVar="-1" Cut="0.0000000000000000e+00" cType="1" res="1.5127217629924417e-03" rms="4.5836567878723145e-01" purity="6.2164235115051270e-01" nType="-99"/>
        </Node>
        <Node pos="r" depth="1" NCoef="0" IVar="7" Cut="-2.4801731109619141e-02" cType="1" res="4.7950491309165955e-02" rms="4.5290693640708923e-01" purity="5.5109792947769165e-01" nType="0">
          <Node pos="l" depth="2" NCoef="0" IVar="-1" Cut="0.0000000000000000e+00" cType="1" res="7.2593661025166512e-04" rms="4.5216473937034607e-01" purity="4.8299777507781982e-01" nType="-99"/>
          <Node pos="r" depth="2" NCoef="0" IVar="-1" Cut="0.0000000000000000e+00" cType="1" res="2.0034883636981249e-03" rms="4.5227780938148499e-01" purity="6.1749762296676636e-01" nType="-99"/>
        </Node>
      </Node>
    </BinaryTree>
    <BinaryTree type="DecisionTree" boostWeight="1.0000000000000000e+00" itree="536">
      <Node pos="s" depth="0" NCoef="0" IVar="8" Cut="1.0131005096435547e+02" cType="1" res="2.9232229571789503e-03" rms="4.5558795332908630e-01" purity="5.0064069032669067e-01" nType="0">
        <Node pos="l" depth="1" NCoef="0" IVar="3" Cut="4.2257755994796753e-01" cType="1" res="-3.6568496376276016e-02" rms="4.5557582378387451e-01" purity="4.2300873994827271e-01" nType="0">
          <Node pos="l" depth="2" NCoef="0" IVar="-1" Cut="0.0000000000000000e+00" cType="1" res="-6.4508599461987615e-04" rms="4.4870808720588684e-01" purity="3.6921411752700806e-01" nType="-99"/>
          <Node pos="r" depth="2" NCoef="0" IVar="-1" Cut="0.0000000000000000e+00" cType="1" res="-1.9441221375018358e-03" rms="4.6364071965217590e-01" purity="4.9778634309768677e-01" nType="-99"/>
        </Node>
        <Node pos="r" depth="1" NCoef="0" IVar="5" Cut="2.3087425231933594e+00" cType="1" res="1.0695503093302250e-02" rms="4.5518699288368225e-01" purity="5.1591926813125610e-01" nType="0">
          <Node pos="l" depth="2" NCoef="0" IVar="-1" Cut="0.0000000000000000e+00" cType="1" res="6.3472153851762414e-04" rms="4.5685246586799622e-01" purity="5.7834756374359131e-01" nType="-99"/>
          <Node pos="r" depth="2" NCoef="0" IVar="-1" Cut="0.0000000000000000e+00" cType="1" res="-3.3010146580636501e-04" rms="4.5162117481231689e-01" purity="4.0932333469390869e-01" nType="-99"/>
        </Node>
      </Node>
    </BinaryTree>
    <BinaryTree type="DecisionTree" boostWeight="1.0000000000000000e+00" itree="537">
      <Node pos="s" depth="0" NCoef="0" IVar="1" Cut="7.6310516357421875e+02" cType="1" res="-1.9368529319763184e-03" rms="4.5466274023056030e-01" purity="4.9540132284164429e-01" nType="0">
        <Node pos="l" depth="1" NCoef="0" IVar="6" Cut="2.1781303882598877e+00" cType="1" res="-8.6816530674695969e-03" rms="4.5465037226676941e-01" purity="4.7069397568702698e-01" nType="0">
          <Node pos="l" depth="2" NCoef="0" IVar="-1" Cut="0.0000000000000000e+00" cType="1" res="-1.3151090824976563e-03" rms="4.3838983774185181e-01" purity="2.9420286417007446e-01" nType="-99"/>
          <Node pos="r" depth="2" NCoef="0" IVar="-1" Cut="0.0000000000000000e+00" cType="1" res="8.8645792857278138e-05" rms="4.6294820308685303e-01" purity="5.6803482770919800e-01" nType="-99"/>
        </Node>
        <Node pos="r" depth="1" NCoef="0" IVar="9" Cut="1.2027579498291016e+02" cType="1" res="3.7867534905672073e-02" rms="4.5269390940666199e-01" purity="6.4121162891387939e-01" nType="0">
          <Node pos="l" depth="2" NCoef="0" IVar="-1" Cut="0.0000000000000000e+00" cType="1" res="3.8959417724981904e-04" rms="4.5996552705764771e-01" purity="6.2345653772354126e-01" nType="-99"/>
          <Node pos="r" depth="2" NCoef="0" IVar="-1" Cut="0.0000000000000000e+00" cType="1" res="1.5281337546184659e-03" rms="4.4606703519821167e-01" purity="6.5506917238235474e-01" nType="-99"/>
        </Node>
      </Node>
    </BinaryTree>
    <BinaryTree type="DecisionTree" boostWeight="1.0000000000000000e+00" itree="538">
      <Node pos="s" depth="0" NCoef="0" IVar="5" Cut="1.6809892654418945e+00" cType="1" res="2.5804364122450352e-03" rms="4.5572102069854736e-01" purity="5.0093877315521240e-01" nType="0">
        <Node pos="l" depth="1" NCoef="0" IVar="8" Cut="1.1447142791748047e+02" cType="1" res="4.5072209089994431e-02" rms="4.4590675830841064e-01" purity="6.2504595518112183e-01" nType="0">
          <Node pos="l" depth="2" NCoef="0" IVar="-1" Cut="0.0000000000000000e+00" cType="1" res="6.1516877030953765e-04" rms="4.5014533400535583e-01" purity="5.6852596998214722e-01" nType="-99"/>
          <Node pos="r" depth="2" NCoef="0" IVar="-1" Cut="0.0000000000000000e+00" cType="1" res="1.7201426671817899e-03" rms="4.4110354781150818e-01" purity="6.7479425668716431e-01" nType="-99"/>
        </Node>
        <Node pos="r" depth="1" NCoef="0" IVar="9" Cut="1.5339912414550781e+02" cType="1" res="-3.6423124838620424e-03" rms="4.5680889487266541e-01" purity="4.8276382684707642e-01" nType="0">
          <Node pos="l" depth="2" NCoef="0" IVar="-1" Cut="0.0000000000000000e+00" cType="1" res="-3.3632223494350910e-04" rms="4.5594567060470581e-01" purity="4.7320070862770081e-01" nType="-99"/>
          <Node pos="r" depth="2" NCoef="0" IVar="-1" Cut="0.0000000000000000e+00" cType="1" res="9.7087823087349534e-04" rms="4.5966914296150208e-01" purity="5.3291118144989014e-01" nType="-99"/>
        </Node>
      </Node>
    </BinaryTree>
    <BinaryTree type="DecisionTree" boostWeight="1.0000000000000000e+00" itree="539">
      <Node pos="s" depth="0" NCoef="0" IVar="2" Cut="9.8827791213989258e-01" cType="1" res="1.5489844372496009e-03" rms="4.5367294549942017e-01" purity="5.0002366304397583e-01" nType="0">
        <Node pos="l" depth="1" NCoef="0" IVar="6" Cut="1.2085382938385010e+00" cType="1" res="1.0545048862695694e-02" rms="4.5561200380325317e-01" purity="5.2730113267898560e-01" nType="0">
          <Node pos="l" depth="2" NCoef="0" IVar="-1" Cut="0.0000000000000000e+00" cType="1" res="-1.5658638440072536e-03" rms="4.3204790353775024e-01" purity="2.8298580646514893e-01" nType="-99"/>
          <Node pos="r" depth="2" NCoef="0" IVar="-1" Cut="0.0000000000000000e+00" cType="1" res="4.6946291695348918e-04" rms="4.5818755030632019e-01" purity="5.5812132358551025e-01" nType="-99"/>
        </Node>
        <Node pos="r" depth="1" NCoef="0" IVar="8" Cut="1.3823445129394531e+02" cType="1" res="-2.4775583297014236e-02" rms="4.4691151380538940e-01" purity="4.2020347714424133e-01" nType="0">
          <Node pos="l" depth="2" NCoef="0" IVar="-1" Cut="0.0000000000000000e+00" cType="1" res="-3.4426373895257711e-04" rms="4.4835719466209412e-01" purity="4.3462267518043518e-01" nType="-99"/>
          <Node pos="r" depth="2" NCoef="0" IVar="-1" Cut="0.0000000000000000e+00" cType="1" res="-2.3494588676840067e-03" rms="4.4050157070159912e-01" purity="3.8070321083068848e-01" nType="-99"/>
        </Node>
      </Node>
    </BinaryTree>
    <BinaryTree type="DecisionTree" boostWeight="1.0000000000000000e+00" itree="540">
      <Node pos="s" depth="0" NCoef="0" IVar="0" Cut="1.1219048500061035e+00" cType="1" res="3.1097002793103456e-03" rms="4.5492318272590637e-01" purity="5.0079518556594849e-01" nType="0">
        <Node pos="l" depth="1" NCoef="0" IVar="6" Cut="2.1620209217071533e+00" cType="1" res="1.8532801419496536e-02" rms="4.5731759071350098e-01" purity="5.4242885112762451e-01" nType="0">
          <Node pos="l" depth="2" NCoef="0" IVar="-1" Cut="0.0000000000000000e+00" cType="1" res="-1.1710599937941879e-04" rms="4.6019670367240906e-01" purity="3.5991719365119934e-01" nType="-99"/>
          <Node pos="r" depth="2" NCoef="0" IVar="-1" Cut="0.0000000000000000e+00" cType="1" res="7.8100827522575855e-04" rms="4.5548698306083679e-01" purity="6.3363122940063477e-01" nType="-99"/>
        </Node>
        <Node pos="r" depth="1" NCoef="0" IVar="2" Cut="6.3287019729614258e-01" cType="1" res="-1.6669280827045441e-02" rms="4.5106279850006104e-01" purity="4.4740304350852966e-01" nType="0">
          <Node pos="l" depth="2" NCoef="0" IVar="-1" Cut="0.0000000000000000e+00" cType="1" res="4.5956138637848198e-04" rms="4.5514291524887085e-01" purity="5.3179585933685303e-01" nType="-99"/>
          <Node pos="r" depth="2" NCoef="0" IVar="-1" Cut="0.0000000000000000e+00" cType="1" res="-1.0447487002238631e-03" rms="4.4871467351913452e-01" purity="4.1278356313705444e-01" nType="-99"/>
        </Node>
      </Node>
    </BinaryTree>
    <BinaryTree type="DecisionTree" boostWeight="1.0000000000000000e+00" itree="541">
      <Node pos="s" depth="0" NCoef="0" IVar="0" Cut="9.5184099674224854e-01" cType="1" res="4.8116929247044027e-04" rms="4.5511656999588013e-01" purity="4.9906623363494873e-01" nType="0">
        <Node pos="l" depth="1" NCoef="0" IVar="5" Cut="1.9445525407791138e+00" cType="1" res="2.0887074992060661e-02" rms="4.5798426866531372e-01" purity="5.5189180374145508e-01" nType="0">
          <Node pos="l" depth="2" NCoef="0" IVar="-1" Cut="0.0000000000000000e+00" cType="1" res="1.3748657656833529e-03" rms="4.5388650894165039e-01" purity="6.3390541076660156e-01" nType="-99"/>
          <Node pos="r" depth="2" NCoef="0" IVar="-1" Cut="0.0000000000000000e+00" cType="1" res="3.7300738040357828e-04" rms="4.5876473188400269e-01" purity="5.2909189462661743e-01" nType="-99"/>
        </Node>
        <Node pos="r" depth="1" NCoef="0" IVar="7" Cut="-7.1830652654170990e-02" cType="1" res="-1.3669624924659729e-02" rms="4.5257732272148132e-01" purity="4.6243351697921753e-01" nType="0">
          <Node pos="l" depth="2" NCoef="0" IVar="-1" Cut="0.0000000000000000e+00" cType="1" res="-1.8855612725019455e-03" rms="4.3714132905006409e-01" purity="3.7023949623107910e-01" nType="-99"/>
          <Node pos="r" depth="2" NCoef="0" IVar="-1" Cut="0.0000000000000000e+00" cType="1" res="-1.0106382978847250e-04" rms="4.5639997720718384e-01" purity="4.8904329538345337e-01" nType="-99"/>
        </Node>
      </Node>
    </BinaryTree>
    <BinaryTree type="DecisionTree" boostWeight="1.0000000000000000e+00" itree="542">
      <Node pos="s" depth="0" NCoef="0" IVar="4" Cut="8.5706649780273438e+01" cType="1" res="-5.6445918744429946e-04" rms="4.5501521229743958e-01" purity="4.9710613489151001e-01" nType="0">
        <Node pos="l" depth="1" NCoef="0" IVar="6" Cut="1.5920654535293579e+00" cType="1" res="-1.3067292980849743e-02" rms="4.5186334848403931e-01" purity="4.5505782961845398e-01" nType="0">
          <Node pos="l" depth="2" NCoef="0" IVar="-1" Cut="0.0000000000000000e+00" cType="1" res="-2.3409470450133085e-03" rms="4.0829080343246460e-01" purity="2.4027349054813385e-01" nType="-99"/>
          <Node pos="r" depth="2" NCoef="0" IVar="-1" Cut="0.0000000000000000e+00" cType="1" res="-1.4611240476369858e-04" rms="4.6184659004211426e-01" purity="5.0926405191421509e-01" nType="-99"/>
        </Node>
        <Node pos="r" depth="1" NCoef="0" IVar="3" Cut="2.1325837075710297e-01" cType="1" res="2.1163953468203545e-02" rms="4.5963302254676819e-01" purity="5.7018101215362549e-01" nType="0">
          <Node pos="l" depth="2" NCoef="0" IVar="-1" Cut="0.0000000000000000e+00" cType="1" res="1.7076614312827587e-03" rms="4.7152492403984070e-01" purity="5.1235312223434448e-01" nType="-99"/>
          <Node pos="r" depth="2" NCoef="0" IVar="-1" Cut="0.0000000000000000e+00" cType="1" res="2.6350686675868928e-04" rms="4.5494028925895691e-01" purity="5.8976399898529053e-01" nType="-99"/>
        </Node>
      </Node>
    </BinaryTree>
    <BinaryTree type="DecisionTree" boostWeight="1.0000000000000000e+00" itree="543">
      <Node pos="s" depth="0" NCoef="0" IVar="6" Cut="2.3536987304687500e+00" cType="1" res="5.7448409497737885e-03" rms="4.5428317785263062e-01" purity="5.0346285104751587e-01" nType="0">
        <Node pos="l" depth="1" NCoef="0" IVar="9" Cut="1.5345260620117188e+02" cType="1" res="-1.3038676232099533e-02" rms="4.4900536537170410e-01" purity="3.3660569787025452e-01" nType="0">
          <Node pos="l" depth="2" NCoef="0" IVar="-1" Cut="0.0000000000000000e+00" cType="1" res="-8.1862101797014475e-04" rms="4.4704502820968628e-01" purity="3.2755023241043091e-01" nType="-99"/>
          <Node pos="r" depth="2" NCoef="0" IVar="-1" Cut="0.0000000000000000e+00" cType="1" res="1.2159541947767138e-03" rms="4.5855987071990967e-01" purity="3.9386257529258728e-01" nType="-99"/>
        </Node>
        <Node pos="r" depth="1" NCoef="0" IVar="3" Cut="2.2903673350811005e-01" cType="1" res="1.7838971689343452e-02" rms="4.5724099874496460e-01" purity="6.1089706420898438e-01" nType="0">
          <Node pos="l" depth="2" NCoef="0" IVar="-1" Cut="0.0000000000000000e+00" cType="1" res="2.2449395619332790e-03" rms="4.5212098956108093e-01" purity="6.5672910213470459e-01" nType="-99"/>
          <Node pos="r" depth="2" NCoef="0" IVar="-1" Cut="0.0000000000000000e+00" cType="1" res="2.7012568898499012e-04" rms="4.5714458823204041e-01" purity="6.0571205615997314e-01" nType="-99"/>
        </Node>
      </Node>
    </BinaryTree>
    <BinaryTree type="DecisionTree" boostWeight="1.0000000000000000e+00" itree="544">
      <Node pos="s" depth="0" NCoef="0" IVar="3" Cut="1.7096997797489166e-01" cType="1" res="5.4184634791454300e-05" rms="4.5612749457359314e-01" purity="4.9429702758789062e-01" nType="0">
        <Node pos="l" depth="1" NCoef="0" IVar="6" Cut="1.3578739166259766e+00" cType="1" res="3.8747079670429230e-02" rms="4.5936894416809082e-01" purity="4.3788778781890869e-01" nType="0">
          <Node pos="l" depth="2" NCoef="0" IVar="-1" Cut="0.0000000000000000e+00" cType="1" res="-1.5255667676683515e-04" rms="4.4493252038955688e-01" purity="3.1883427500724792e-01" nType="-99"/>
          <Node pos="r" depth="2" NCoef="0" IVar="-1" Cut="0.0000000000000000e+00" cType="1" res="2.3139982949942350e-03" rms="4.6926489472389221e-01" purity="5.5226624011993408e-01" nType="-99"/>
        </Node>
        <Node pos="r" depth="1" NCoef="0" IVar="6" Cut="2.8989689350128174e+00" cType="1" res="-7.5445324182510376e-03" rms="4.5510193705558777e-01" purity="5.0537496805191040e-01" nType="0">
          <Node pos="l" depth="2" NCoef="0" IVar="-1" Cut="0.0000000000000000e+00" cType="1" res="-1.0127089917659760e-03" rms="4.5526444911956787e-01" purity="3.5329478979110718e-01" nType="-99"/>
          <Node pos="r" depth="2" NCoef="0" IVar="-1" Cut="0.0000000000000000e+00" cType="1" res="2.5333173107355833e-04" rms="4.5427709817886353e-01" purity="6.3583570718765259e-01" nType="-99"/>
        </Node>
      </Node>
    </BinaryTree>
    <BinaryTree type="DecisionTree" boostWeight="1.0000000000000000e+00" itree="545">
      <Node pos="s" depth="0" NCoef="0" IVar="6" Cut="8.6270850896835327e-01" cType="1" res="-8.4536164649762213e-05" rms="4.5456120371818542e-01" purity="4.9573695659637451e-01" nType="0">
        <Node pos="l" depth="1" NCoef="0" IVar="-1" Cut="0.0000000000000000e+00" cType="1" res="-3.1932427082210779e-03" rms="4.0980899333953857e-01" purity="2.3655954003334045e-01" nType="-99"/>
        <Node pos="r" depth="1" NCoef="0" IVar="3" Cut="1.5161208808422089e-01" cType="1" res="3.4462865442037582e-03" rms="4.5679083466529846e-01" purity="5.1086592674255371e-01" nType="0">
          <Node pos="l" depth="2" NCoef="0" IVar="-1" Cut="0.0000000000000000e+00" cType="1" res="2.0517341326922178e-03" rms="4.6407204866409302e-01" purity="5.0611478090286255e-01" nType="-99"/>
          <Node pos="r" depth="2" NCoef="0" IVar="-1" Cut="0.0000000000000000e+00" cType="1" res="-7.1416528953704983e-05" rms="4.5567587018013000e-01" purity="5.1130712032318115e-01" nType="-99"/>
        </Node>
      </Node>
    </BinaryTree>
    <BinaryTree type="DecisionTree" boostWeight="1.0000000000000000e+00" itree="546">
      <Node pos="s" depth="0" NCoef="0" IVar="7" Cut="1.6112177073955536e-01" cType="1" res="-2.1525905467569828e-03" rms="4.5602536201477051e-01" purity="4.9430739879608154e-01" nType="0">
        <Node pos="l" depth="1" NCoef="0" IVar="9" Cut="1.5916366577148438e+02" cType="1" res="-1.1060008779168129e-02" rms="4.5541298389434814e-01" purity="4.7403591871261597e-01" nType="0">
          <Node pos="l" depth="2" NCoef="0" IVar="-1" Cut="0.0000000000000000e+00" cType="1" res="-5.9741100994870067e-04" rms="4.5396250486373901e-01" purity="4.6586310863494873e-01" nType="-99"/>
          <Node pos="r" depth="2" NCoef="0" IVar="-1" Cut="0.0000000000000000e+00" cType="1" res="1.0616480140015483e-03" rms="4.6174004673957825e-01" purity="5.2507299184799194e-01" nType="-99"/>
        </Node>
        <Node pos="r" depth="1" NCoef="0" IVar="7" Cut="2.1171890199184418e-01" cType="1" res="4.2738251388072968e-02" rms="4.5646125078201294e-01" purity="5.9646964073181152e-01" nType="0">
          <Node pos="l" depth="2" NCoef="0" IVar="-1" Cut="0.0000000000000000e+00" cType="1" res="6.8034918513149023e-04" rms="4.6046984195709229e-01" purity="5.5997234582901001e-01" nType="-99"/>
          <Node pos="r" depth="2" NCoef="0" IVar="-1" Cut="0.0000000000000000e+00" cType="1" res="1.5613377327099442e-03" rms="4.5269256830215454e-01" purity="6.2534767389297485e-01" nType="-99"/>
        </Node>
      </Node>
    </BinaryTree>
    <BinaryTree type="DecisionTree" boostWeight="1.0000000000000000e+00" itree="547">
      <Node pos="s" depth="0" NCoef="0" IVar="3" Cut="4.0322956442832947e-01" cType="1" res="7.7859470620751381e-03" rms="4.5624405145645142e-01" purity="5.0514614582061768e-01" nType="0">
        <Node pos="l" depth="1" NCoef="0" IVar="6" Cut="2.1526231765747070e+00" cType="1" res="2.2458745166659355e-02" rms="4.5681822299957275e-01" purity="4.4172203540802002e-01" nType="0">
          <Node pos="l" depth="2" NCoef="0" IVar="-1" Cut="0.0000000000000000e+00" cType="1" res="-7.3397866799496114e-05" rms="4.5060858130455017e-01" purity="3.3809193968772888e-01" nType="-99"/>
          <Node pos="r" depth="2" NCoef="0" IVar="-1" Cut="0.0000000000000000e+00" cType="1" res="1.5266763512045145e-03" rms="4.6330627799034119e-01" purity="5.8869421482086182e-01" nType="-99"/>
        </Node>
        <Node pos="r" depth="1" NCoef="0" IVar="6" Cut="4.4637813568115234e+00" cType="1" res="-9.3633551150560379e-03" rms="4.5497271418571472e-01" purity="5.7927489280700684e-01" nType="0">
          <Node pos="l" depth="2" NCoef="0" IVar="-1" Cut="0.0000000000000000e+00" cType="1" res="-9.0281304437667131e-04" rms="4.7362625598907471e-01" purity="4.8873561620712280e-01" nType="-99"/>
          <Node pos="r" depth="2" NCoef="0" IVar="-1" Cut="0.0000000000000000e+00" cType="1" res="9.2165963724255562e-04" rms="4.1149684786796570e-01" purity="7.6149505376815796e-01" nType="-99"/>
        </Node>
      </Node>
    </BinaryTree>
    <BinaryTree type="DecisionTree" boostWeight="1.0000000000000000e+00" itree="548">
      <Node pos="s" depth="0" NCoef="0" IVar="6" Cut="4.1523823738098145e+00" cType="1" res="8.6262315744534135e-04" rms="4.5356881618499756e-01" purity="5.0100582838058472e-01" nType="0">
        <Node pos="l" depth="1" NCoef="0" IVar="3" Cut="2.8696644306182861e-01" cType="1" res="-7.0639448240399361e-03" rms="4.6209773421287537e-01" purity="4.3674245476722717e-01" nType="0">
          <Node pos="l" depth="2" NCoef="0" IVar="-1" Cut="0.0000000000000000e+00" cType="1" res="5.5274076294153929e-04" rms="4.5655208826065063e-01" purity="4.2063680291175842e-01" nType="-99"/>
          <Node pos="r" depth="2" NCoef="0" IVar="-1" Cut="0.0000000000000000e+00" cType="1" res="-8.6573988664895296e-04" rms="4.6618002653121948e-01" purity="4.5165061950683594e-01" nType="-99"/>
        </Node>
        <Node pos="r" depth="1" NCoef="0" IVar="5" Cut="2.2491650581359863e+00" cType="1" res="3.0892433598637581e-02" rms="4.1832765936851501e-01" purity="7.4446749687194824e-01" nType="0">
          <Node pos="l" depth="2" NCoef="0" IVar="-1" Cut="0.0000000000000000e+00" cType="1" res="1.3104457175359130e-03" rms="3.9268988370895386e-01" purity="7.9787266254425049e-01" nType="-99"/>
          <Node pos="r" depth="2" NCoef="0" IVar="-1" Cut="0.0000000000000000e+00" cType="1" res="9.7493575594853610e-05" rms="4.5257869362831116e-01" purity="6.6467237472534180e-01" nType="-99"/>
        </Node>
      </Node>
    </BinaryTree>
    <BinaryTree type="DecisionTree" boostWeight="1.0000000000000000e+00" itree="549">
      <Node pos="s" depth="0" NCoef="0" IVar="6" Cut="1.3064638376235962e+00" cType="1" res="5.6781005114316940e-03" rms="4.5564988255500793e-01" purity="5.0271755456924438e-01" nType="0">
        <Node pos="l" depth="1" NCoef="0" IVar="2" Cut="8.4603357315063477e-01" cType="1" res="-3.7815801799297333e-02" rms="4.2410084605216980e-01" purity="2.6478227972984314e-01" nType="0">
          <Node pos="l" depth="2" NCoef="0" IVar="-1" Cut="0.0000000000000000e+00" cType="1" res="-9.8486384376883507e-04" rms="4.4411501288414001e-01" purity="3.0544057488441467e-01" nType="-99"/>
          <Node pos="r" depth="2" NCoef="0" IVar="-1" Cut="0.0000000000000000e+00" cType="1" res="-3.5982732661068439e-03" rms="3.9101573824882507e-01" purity="2.0372354984283447e-01" nType="-99"/>
        </Node>
        <Node pos="r" depth="1" NCoef="0" IVar="3" Cut="1.9032652676105499e-01" cType="1" res="1.2109071947634220e-02" rms="4.5978215336799622e-01" purity="5.3789842128753662e-01" nType="0">
          <Node pos="l" depth="2" NCoef="0" IVar="-1" Cut="0.0000000000000000e+00" cType="1" res="1.7805052921175957e-03" rms="4.6560278534889221e-01" purity="5.3074693679809570e-01" nType="-99"/>
          <Node pos="r" depth="2" NCoef="0" IVar="-1" Cut="0.0000000000000000e+00" cType="1" res="1.4782708603888750e-04" rms="4.5848625898361206e-01" purity="5.3896474838256836e-01" nType="-99"/>
        </Node>
      </Node>
    </BinaryTree>
    <BinaryTree type="DecisionTree" boostWeight="1.0000000000000000e+00" itree="550">
      <Node pos="s" depth="0" NCoef="0" IVar="2" Cut="1.0651459693908691e+00" cType="1" res="2.4497010745108128e-03" rms="4.5566552877426147e-01" purity="5.0152891874313354e-01" nType="0">
        <Node pos="l" depth="1" NCoef="0" IVar="8" Cut="1.0141689300537109e+02" cType="1" res="9.7899502143263817e-03" rms="4.5603951811790466e-01" purity="5.2183562517166138e-01" nType="0">
          <Node pos="l" depth="2" NCoef="0" IVar="-1" Cut="0.0000000000000000e+00" cType="1" res="-7.2886596899479628e-04" rms="4.5636823773384094e-01" purity="4.4978737831115723e-01" nType="-99"/>
          <Node pos="r" depth="2" NCoef="0" IVar="-1" Cut="0.0000000000000000e+00" cType="1" res="4.9157434841617942e-04" rms="4.5569586753845215e-01" purity="5.3659945726394653e-01" nType="-99"/>
        </Node>
        <Node pos="r" depth="1" NCoef="0" IVar="3" Cut="5.5797952413558960e-01" cType="1" res="-3.1281493604183197e-02" rms="4.5241436362266541e-01" purity="4.0821170806884766e-01" nType="0">
          <Node pos="l" depth="2" NCoef="0" IVar="-1" Cut="0.0000000000000000e+00" cType="1" res="-7.2263332549482584e-04" rms="4.4336766004562378e-01" purity="3.6483195424079895e-01" nType="-99"/>
          <Node pos="r" depth="2" NCoef="0" IVar="-1" Cut="0.0000000000000000e+00" cType="1" res="-1.7907742876559496e-03" rms="4.7210103273391724e-01" purity="5.1217108964920044e-01" nType="-99"/>
        </Node>
      </Node>
    </BinaryTree>
    <BinaryTree type="DecisionTree" boostWeight="1.0000000000000000e+00" itree="551">
      <Node pos="s" depth="0" NCoef="0" IVar="5" Cut="1.5357916355133057e+00" cType="1" res="2.3435277398675680e-03" rms="4.5600068569183350e-01" purity="4.9914231896400452e-01" nType="0">
        <Node pos="l" depth="1" NCoef="0" IVar="-1" Cut="0.0000000000000000e+00" cType="1" res="1.3699169503524899e-03" rms="4.4970697164535522e-01" purity="6.2787574529647827e-01" nType="-99"/>
        <Node pos="r" depth="1" NCoef="0" IVar="3" Cut="1.9032429158687592e-01" cType="1" res="-1.9982939120382071e-03" rms="4.5630106329917908e-01" purity="4.8772683739662170e-01" nType="0">
          <Node pos="l" depth="2" NCoef="0" IVar="-1" Cut="0.0000000000000000e+00" cType="1" res="8.1656011752784252e-04" rms="4.5729276537895203e-01" purity="4.2094171047210693e-01" nType="-99"/>
          <Node pos="r" depth="2" NCoef="0" IVar="-1" Cut="0.0000000000000000e+00" cType="1" res="-2.6205362519249320e-04" rms="4.5581379532814026e-01" purity="5.0533086061477661e-01" nType="-99"/>
        </Node>
      </Node>
    </BinaryTree>
    <BinaryTree type="DecisionTree" boostWeight="1.0000000000000000e+00" itree="552">
      <Node pos="s" depth="0" NCoef="0" IVar="8" Cut="1.0173684692382812e+02" cType="1" res="6.6943368874490261e-03" rms="4.5644894242286682e-01" purity="5.0296717882156372e-01" nType="0">
        <Node pos="l" depth="1" NCoef="0" IVar="0" Cut="1.2448275089263916e+00" cType="1" res="-2.3301448673009872e-02" rms="4.5831903815269470e-01" purity="4.3598785996437073e-01" nType="0">
          <Node pos="l" depth="2" NCoef="0" IVar="-1" Cut="0.0000000000000000e+00" cType="1" res="-3.5643466981127858e-04" rms="4.6416828036308289e-01" purity="4.7149845957756042e-01" nType="-99"/>
          <Node pos="r" depth="2" NCoef="0" IVar="-1" Cut="0.0000000000000000e+00" cType="1" res="-1.6839108429849148e-03" rms="4.4658148288726807e-01" purity="3.7101420760154724e-01" nType="-99"/>
        </Node>
        <Node pos="r" depth="1" NCoef="0" IVar="5" Cut="1.5937414169311523e+00" cType="1" res="1.2960173189640045e-02" rms="4.5580813288688660e-01" purity="5.1695853471755981e-01" nType="0">
          <Node pos="l" depth="2" NCoef="0" IVar="-1" Cut="0.0000000000000000e+00" cType="1" res="1.5951801324263215e-03" rms="4.4273659586906433e-01" purity="6.6251856088638306e-01" nType="-99"/>
          <Node pos="r" depth="2" NCoef="0" IVar="-1" Cut="0.0000000000000000e+00" cType="1" res="2.7179266908206046e-04" rms="4.5672965049743652e-01" purity="5.0384962558746338e-01" nType="-99"/>
        </Node>
      </Node>
    </BinaryTree>
    <BinaryTree type="DecisionTree" boostWeight="1.0000000000000000e+00" itree="553">
      <Node pos="s" depth="0" NCoef="0" IVar="3" Cut="2.2903673350811005e-01" cType="1" res="4.1540632955729961e-03" rms="4.5514300465583801e-01" purity="5.0364458560943604e-01" nType="0">
        <Node pos="l" depth="1" NCoef="0" IVar="6" Cut="2.0236415863037109e+00" cType="1" res="2.8556266799569130e-02" rms="4.5584484934806824e-01" purity="4.3348646163940430e-01" nType="0">
          <Node pos="l" depth="2" NCoef="0" IVar="-1" Cut="0.0000000000000000e+00" cType="1" res="-6.1729606386506930e-06" rms="4.5248222351074219e-01" purity="3.4209415316581726e-01" nType="-99"/>
          <Node pos="r" depth="2" NCoef="0" IVar="-1" Cut="0.0000000000000000e+00" cType="1" res="2.3241180460900068e-03" rms="4.5706352591514587e-01" purity="6.2052208185195923e-01" nType="-99"/>
        </Node>
        <Node pos="r" depth="1" NCoef="0" IVar="6" Cut="1.6181260347366333e+00" cType="1" res="-5.4120616987347603e-03" rms="4.5451024174690247e-01" purity="5.3114795684814453e-01" nType="0">
          <Node pos="l" depth="2" NCoef="0" IVar="-1" Cut="0.0000000000000000e+00" cType="1" res="-3.6519712302833796e-03" rms="3.9969772100448608e-01" purity="2.2311571240425110e-01" nType="-99"/>
          <Node pos="r" depth="2" NCoef="0" IVar="-1" Cut="0.0000000000000000e+00" cType="1" res="-7.8854363891878165e-06" rms="4.5800068974494934e-01" purity="5.5456221103668213e-01" nType="-99"/>
        </Node>
      </Node>
    </BinaryTree>
    <BinaryTree type="DecisionTree" boostWeight="1.0000000000000000e+00" itree="554">
      <Node pos="s" depth="0" NCoef="0" IVar="2" Cut="7.9860407114028931e-01" cType="1" res="2.9981164261698723e-03" rms="4.5560014247894287e-01" purity="5.0001293420791626e-01" nType="0">
        <Node pos="l" depth="1" NCoef="0" IVar="5" Cut="2.2256081104278564e+00" cType="1" res="1.6594065353274345e-02" rms="4.5562905073165894e-01" purity="5.5003619194030762e-01" nType="0">
          <Node pos="l" depth="2" NCoef="0" IVar="-1" Cut="0.0000000000000000e+00" cType="1" res="8.4435864118859172e-04" rms="4.5500123500823975e-01" purity="6.0192930698394775e-01" nType="-99"/>
          <Node pos="r" depth="2" NCoef="0" IVar="-1" Cut="0.0000000000000000e+00" cType="1" res="-1.6725173918530345e-04" rms="4.5579397678375244e-01" purity="4.6673867106437683e-01" nType="-99"/>
        </Node>
        <Node pos="r" depth="1" NCoef="0" IVar="8" Cut="1.3823445129394531e+02" cType="1" res="-1.2582982890307903e-02" rms="4.5506778359413147e-01" purity="4.4268578290939331e-01" nType="0">
          <Node pos="l" depth="2" NCoef="0" IVar="-1" Cut="0.0000000000000000e+00" cType="1" res="-7.8897472121752799e-05" rms="4.5656782388687134e-01" purity="4.5065420866012573e-01" nType="-99"/>
          <Node pos="r" depth="2" NCoef="0" IVar="-1" Cut="0.0000000000000000e+00" cType="1" res="-1.4320063637569547e-03" rms="4.4960820674896240e-01" purity="4.2035946249961853e-01" nType="-99"/>
        </Node>
      </Node>
    </BinaryTree>
    <BinaryTree type="DecisionTree" boostWeight="1.0000000000000000e+00" itree="555">
      <Node pos="s" depth="0" NCoef="0" IVar="7" Cut="1.5085361897945404e-01" cType="1" res="2.7975431294180453e-04" rms="4.5492509007453918e-01" purity="4.9678120017051697e-01" nType="0">
        <Node pos="l" depth="1" NCoef="0" IVar="9" Cut="8.9311553955078125e+01" cType="1" res="-6.4406725578010082e-03" rms="4.5470279455184937e-01" purity="4.7785043716430664e-01" nType="0">
          <Node pos="l" depth="2" NCoef="0" IVar="-1" Cut="0.0000000000000000e+00" cType="1" res="-7.9526542685925961e-04" rms="4.5540481805801392e-01" purity="4.4219818711280823e-01" nType="-99"/>
          <Node pos="r" depth="2" NCoef="0" IVar="-1" Cut="0.0000000000000000e+00" cType="1" res="1.7470208695158362e-04" rms="4.5383092761039734e-01" purity="5.0235295295715332e-01" nType="-99"/>
        </Node>
        <Node pos="r" depth="1" NCoef="0" IVar="6" Cut="2.5176043510437012e+00" cType="1" res="3.1003549695014954e-02" rms="4.5467665791511536e-01" purity="5.8332711458206177e-01" nType="0">
          <Node pos="l" depth="2" NCoef="0" IVar="-1" Cut="0.0000000000000000e+00" cType="1" res="2.0183454034850001e-04" rms="4.6903699636459351e-01" purity="4.2267066240310669e-01" nType="-99"/>
          <Node pos="r" depth="2" NCoef="0" IVar="-1" Cut="0.0000000000000000e+00" cType="1" res="1.2560270261019468e-03" rms="4.4320037961006165e-01" purity="6.9886487722396851e-01" nType="-99"/>
        </Node>
      </Node>
    </BinaryTree>
    <BinaryTree type="DecisionTree" boostWeight="1.0000000000000000e+00" itree="556">
      <Node pos="s" depth="0" NCoef="0" IVar="0" Cut="1.0931912660598755e+00" cType="1" res="1.5781569527462125e-03" rms="4.5532134175300598e-01" purity="4.9890062212944031e-01" nType="0">
        <Node pos="l" depth="1" NCoef="0" IVar="6" Cut="1.6548768281936646e+00" cType="1" res="1.4146894216537476e-02" rms="4.5777970552444458e-01" purity="5.3993046283721924e-01" nType="0">
          <Node pos="l" depth="2" NCoef="0" IVar="-1" Cut="0.0000000000000000e+00" cType="1" res="-7.9731032019481063e-04" rms="4.4832593202590942e-01" purity="3.2211551070213318e-01" nType="-99"/>
          <Node pos="r" depth="2" NCoef="0" IVar="-1" Cut="0.0000000000000000e+00" cType="1" res="6.2479189364239573e-04" rms="4.5974341034889221e-01" purity="5.9459590911865234e-01" nType="-99"/>
        </Node>
        <Node pos="r" depth="1" NCoef="0" IVar="3" Cut="2.4838504195213318e-01" cType="1" res="-1.3052429072558880e-02" rms="4.5200288295745850e-01" purity="4.5113998651504517e-01" nType="0">
          <Node pos="l" depth="2" NCoef="0" IVar="-1" Cut="0.0000000000000000e+00" cType="1" res="6.2675913795828819e-04" rms="4.4791030883789062e-01" purity="3.8927274942398071e-01" nType="-99"/>
          <Node pos="r" depth="2" NCoef="0" IVar="-1" Cut="0.0000000000000000e+00" cType="1" res="-8.6521747289225459e-04" rms="4.5328545570373535e-01" purity="4.8130553960800171e-01" nType="-99"/>
        </Node>
      </Node>
    </BinaryTree>
    <BinaryTree type="DecisionTree" boostWeight="1.0000000000000000e+00" itree="557">
      <Node pos="s" depth="0" NCoef="0" IVar="5" Cut="1.8847301006317139e+00" cType="1" res="-6.2772945966571569e-04" rms="4.5621535181999207e-01" purity="4.9748408794403076e-01" nType="0">
        <Node pos="l" depth="1" NCoef="0" IVar="3" Cut="4.6123799681663513e-01" cType="1" res="2.9941290616989136e-02" rms="4.5482590794563293e-01" purity="5.9215557575225830e-01" nType="0">
          <Node pos="l" depth="2" NCoef="0" IVar="-1" Cut="0.0000000000000000e+00" cType="1" res="1.4200824080035090e-03" rms="4.6694815158843994e-01" purity="5.3623968362808228e-01" nType="-99"/>
          <Node pos="r" depth="2" NCoef="0" IVar="-1" Cut="0.0000000000000000e+00" cType="1" res="6.4627231040503830e-05" rms="4.3622174859046936e-01" purity="6.6850554943084717e-01" nType="-99"/>
        </Node>
        <Node pos="r" depth="1" NCoef="0" IVar="7" Cut="2.1814738214015961e-01" cType="1" res="-8.6873611435294151e-03" rms="4.5623990893363953e-01" purity="4.7252359986305237e-01" nType="0">
          <Node pos="l" depth="2" NCoef="0" IVar="-1" Cut="0.0000000000000000e+00" cType="1" res="-4.3537814053706825e-04" rms="4.5589587092399597e-01" purity="4.6144938468933105e-01" nType="-99"/>
          <Node pos="r" depth="2" NCoef="0" IVar="-1" Cut="0.0000000000000000e+00" cType="1" res="1.2943587498739362e-03" rms="4.5673632621765137e-01" purity="6.0852390527725220e-01" nType="-99"/>
        </Node>
      </Node>
    </BinaryTree>
    <BinaryTree type="DecisionTree" boostWeight="1.0000000000000000e+00" itree="558">
      <Node pos="s" depth="0" NCoef="0" IVar="8" Cut="9.2612442016601562e+01" cType="1" res="-1.2275842018425465e-03" rms="4.5617654919624329e-01" purity="4.9446448683738708e-01" nType="0">
        <Node pos="l" depth="1" NCoef="0" IVar="-1" Cut="0.0000000000000000e+00" cType="1" res="-1.7368284752592444e-03" rms="4.4877797365188599e-01" purity="3.9905446767807007e-01" nType="-99"/>
        <Node pos="r" depth="1" NCoef="0" IVar="6" Cut="1.1216816902160645e+00" cType="1" res="4.1381577029824257e-03" rms="4.5668789744377136e-01" purity="5.0517946481704712e-01" nType="0">
          <Node pos="l" depth="2" NCoef="0" IVar="-1" Cut="0.0000000000000000e+00" cType="1" res="-2.1867277100682259e-03" rms="4.1896349191665649e-01" purity="2.5692695379257202e-01" nType="-99"/>
          <Node pos="r" depth="2" NCoef="0" IVar="-1" Cut="0.0000000000000000e+00" cType="1" res="2.7051160577684641e-04" rms="4.6012285351753235e-01" purity="5.3078794479370117e-01" nType="-99"/>
        </Node>
      </Node>
    </BinaryTree>
    <BinaryTree type="DecisionTree" boostWeight="1.0000000000000000e+00" itree="559">
      <Node pos="s" depth="0" NCoef="0" IVar="0" Cut="8.9188468456268311e-01" cType="1" res="4.8367446288466454e-03" rms="4.5591032505035400e-01" purity="5.0083559751510620e-01" nType="0">
        <Node pos="l" depth="1" NCoef="0" IVar="3" Cut="5.1935994625091553e-01" cType="1" res="2.5079829618334770e-02" rms="4.5695883035659790e-01" purity="5.5842536687850952e-01" nType="0">
          <Node pos="l" depth="2" NCoef="0" IVar="-1" Cut="0.0000000000000000e+00" cType="1" res="1.1467200238257647e-03" rms="4.6182715892791748e-01" purity="5.1310527324676514e-01" nType="-99"/>
          <Node pos="r" depth="2" NCoef="0" IVar="-1" Cut="0.0000000000000000e+00" cType="1" res="-3.7403449823614210e-05" rms="4.4623050093650818e-01" purity="6.4585685729980469e-01" nType="-99"/>
        </Node>
        <Node pos="r" depth="1" NCoef="0" IVar="1" Cut="6.6811145019531250e+02" cType="1" res="-6.0294056311249733e-03" rms="4.5497515797615051e-01" purity="4.6992233395576477e-01" nType="0">
          <Node pos="l" depth="2" NCoef="0" IVar="-1" Cut="0.0000000000000000e+00" cType="1" res="-5.0665537128224969e-04" rms="4.5269009470939636e-01" purity="4.3629291653633118e-01" nType="-99"/>
          <Node pos="r" depth="2" NCoef="0" IVar="-1" Cut="0.0000000000000000e+00" cType="1" res="8.8805047562345862e-04" rms="4.6260988712310791e-01" purity="6.1272442340850830e-01" nType="-99"/>
        </Node>
      </Node>
    </BinaryTree>
    <BinaryTree type="DecisionTree" boostWeight="1.0000000000000000e+00" itree="560">
      <Node pos="s" depth="0" NCoef="0" IVar="3" Cut="4.2258453369140625e-01" cType="1" res="8.1458466593176126e-04" rms="4.5754098892211914e-01" purity="4.9827915430068970e-01" nType="0">
        <Node pos="l" depth="1" NCoef="0" IVar="6" Cut="1.6209520101547241e+00" cType="1" res="1.5475020743906498e-02" rms="4.5994293689727783e-01" purity="4.3610140681266785e-01" nType="0">
          <Node pos="l" depth="2" NCoef="0" IVar="-1" Cut="0.0000000000000000e+00" cType="1" res="-5.2776932716369629e-04" rms="4.4067022204399109e-01" purity="3.0560418963432312e-01" nType="-99"/>
          <Node pos="r" depth="2" NCoef="0" IVar="-1" Cut="0.0000000000000000e+00" cType="1" res="9.0316816931590438e-04" rms="4.6958673000335693e-01" purity="5.0837343931198120e-01" nType="-99"/>
        </Node>
        <Node pos="r" depth="1" NCoef="0" IVar="6" Cut="5.0284395217895508e+00" cType="1" res="-1.7946258187294006e-02" rms="4.5375835895538330e-01" purity="5.7784759998321533e-01" nType="0">
          <Node pos="l" depth="2" NCoef="0" IVar="-1" Cut="0.0000000000000000e+00" cType="1" res="-9.1361434897407889e-04" rms="4.6568971872329712e-01" purity="5.2561837434768677e-01" nType="-99"/>
          <Node pos="r" depth="2" NCoef="0" IVar="-1" Cut="0.0000000000000000e+00" cType="1" res="1.0028338292613626e-03" rms="3.9784798026084900e-01" purity="7.8721469640731812e-01" nType="-99"/>
        </Node>
      </Node>
    </BinaryTree>
    <BinaryTree type="DecisionTree" boostWeight="1.0000000000000000e+00" itree="561">
      <Node pos="s" depth="0" NCoef="0" IVar="0" Cut="1.0292989015579224e+00" cType="1" res="3.8791005499660969e-03" rms="4.5525744557380676e-01" purity="5.0163352489471436e-01" nType="0">
        <Node pos="l" depth="1" NCoef="0" IVar="4" Cut="1.1912508392333984e+02" cType="1" res="1.9530059769749641e-02" rms="4.5782491564750671e-01" purity="5.4556834697723389e-01" nType="0">
          <Node pos="l" depth="2" NCoef="0" IVar="-1" Cut="0.0000000000000000e+00" cType="1" res="3.1176957418210804e-04" rms="4.5836496353149414e-01" purity="5.2018219232559204e-01" nType="-99"/>
          <Node pos="r" depth="2" NCoef="0" IVar="-1" Cut="0.0000000000000000e+00" cType="1" res="1.4809938147664070e-03" rms="4.5372849702835083e-01" purity="6.4772498607635498e-01" nType="-99"/>
        </Node>
        <Node pos="r" depth="1" NCoef="0" IVar="3" Cut="1.5161141753196716e-01" cType="1" res="-1.0425348766148090e-02" rms="4.5242485404014587e-01" purity="4.6147850155830383e-01" nType="0">
          <Node pos="l" depth="2" NCoef="0" IVar="-1" Cut="0.0000000000000000e+00" cType="1" res="1.4752601273357868e-03" rms="4.5919966697692871e-01" purity="4.2551639676094055e-01" nType="-99"/>
          <Node pos="r" depth="2" NCoef="0" IVar="-1" Cut="0.0000000000000000e+00" cType="1" res="-5.5795186199247837e-04" rms="4.5108282566070557e-01" purity="4.6623077988624573e-01" nType="-99"/>
        </Node>
      </Node>
    </BinaryTree>
    <BinaryTree type="DecisionTree" boostWeight="1.0000000000000000e+00" itree="562">
      <Node pos="s" depth="0" NCoef="0" IVar="0" Cut="6.4109152555465698e-01" cType="1" res="-1.9007530063390732e-03" rms="4.5349156856536865e-01" purity="4.9675926566123962e-01" nType="0">
        <Node pos="l" depth="1" NCoef="0" IVar="9" Cut="1.0118581390380859e+02" cType="1" res="3.9439603686332703e-02" rms="4.5045116543769836e-01" purity="5.8741331100463867e-01" nType="0">
          <Node pos="l" depth="2" NCoef="0" IVar="-1" Cut="0.0000000000000000e+00" cType="1" res="8.2416908117011189e-04" rms="4.5569512248039246e-01" purity="5.5380386114120483e-01" nType="-99"/>
          <Node pos="r" depth="2" NCoef="0" IVar="-1" Cut="0.0000000000000000e+00" cType="1" res="1.3777494896203279e-03" rms="4.4558021426200867e-01" purity="6.1684942245483398e-01" nType="-99"/>
        </Node>
        <Node pos="r" depth="1" NCoef="0" IVar="2" Cut="7.4112457036972046e-01" cType="1" res="-7.3050893843173981e-03" rms="4.5360913872718811e-01" purity="4.8490825295448303e-01" nType="0">
          <Node pos="l" depth="2" NCoef="0" IVar="-1" Cut="0.0000000000000000e+00" cType="1" res="2.9245886253193021e-04" rms="4.5664912462234497e-01" purity="5.4423087835311890e-01" nType="-99"/>
          <Node pos="r" depth="2" NCoef="0" IVar="-1" Cut="0.0000000000000000e+00" cType="1" res="-7.4298511026427150e-04" rms="4.5051759481430054e-01" purity="4.3483209609985352e-01" nType="-99"/>
        </Node>
      </Node>
    </BinaryTree>
    <BinaryTree type="DecisionTree" boostWeight="1.0000000000000000e+00" itree="563">
      <Node pos="s" depth="0" NCoef="0" IVar="9" Cut="8.7613044738769531e+01" cType="1" res="6.0137109830975533e-03" rms="4.5780020952224731e-01" purity="5.0249320268630981e-01" nType="0">
        <Node pos="l" depth="1" NCoef="0" IVar="3" Cut="5.7722836732864380e-01" cType="1" res="-1.2731695547699928e-02" rms="4.5952287316322327e-01" purity="4.6608024835586548e-01" nType="0">
          <Node pos="l" depth="2" NCoef="0" IVar="-1" Cut="0.0000000000000000e+00" cType="1" res="3.4941389458253980e-05" rms="4.5922514796257019e-01" purity="4.2011064291000366e-01" nType="-99"/>
          <Node pos="r" depth="2" NCoef="0" IVar="-1" Cut="0.0000000000000000e+00" cType="1" res="-1.3622947735711932e-03" rms="4.5838409662246704e-01" purity="5.8463889360427856e-01" nType="-99"/>
        </Node>
        <Node pos="r" depth="1" NCoef="0" IVar="6" Cut="1.2803009748458862e+00" cType="1" res="1.8755031749606133e-02" rms="4.5618608593940735e-01" purity="5.2724319696426392e-01" nType="0">
          <Node pos="l" depth="2" NCoef="0" IVar="-1" Cut="0.0000000000000000e+00" cType="1" res="-1.2731561437249184e-03" rms="4.3382278084754944e-01" purity="2.8010958433151245e-01" nType="-99"/>
          <Node pos="r" depth="2" NCoef="0" IVar="-1" Cut="0.0000000000000000e+00" cType="1" res="7.1374024264514446e-04" rms="4.5869725942611694e-01" purity="5.5952137708663940e-01" nType="-99"/>
        </Node>
      </Node>
    </BinaryTree>
    <BinaryTree type="DecisionTree" boostWeight="1.0000000000000000e+00" itree="564">
      <Node pos="s" depth="0" NCoef="0" IVar="0" Cut="8.4115707874298096e-01" cType="1" res="3.5941980313509703e-03" rms="4.5365726947784424e-01" purity="5.0171440839767456e-01" nType="0">
        <Node pos="l" depth="1" NCoef="0" IVar="5" Cut="1.9778032302856445e+00" cType="1" res="2.5335881859064102e-02" rms="4.5561721920967102e-01" purity="5.6430166959762573e-01" nType="0">
          <Node pos="l" depth="2" NCoef="0" IVar="-1" Cut="0.0000000000000000e+00" cType="1" res="1.4049806632101536e-03" rms="4.4893610477447510e-01" purity="6.4400923252105713e-01" nType="-99"/>
          <Node pos="r" depth="2" NCoef="0" IVar="-1" Cut="0.0000000000000000e+00" cType="1" res="4.9729720922186971e-04" rms="4.5732465386390686e-01" purity="5.3957647085189819e-01" nType="-99"/>
        </Node>
        <Node pos="r" depth="1" NCoef="0" IVar="2" Cut="6.2641304731369019e-01" cType="1" res="-5.8337990194559097e-03" rms="4.5248013734817505e-01" purity="4.7457432746887207e-01" nType="0">
          <Node pos="l" depth="2" NCoef="0" IVar="-1" Cut="0.0000000000000000e+00" cType="1" res="5.4410181473940611e-04" rms="4.5192301273345947e-01" purity="5.5867302417755127e-01" nType="-99"/>
          <Node pos="r" depth="2" NCoef="0" IVar="-1" Cut="0.0000000000000000e+00" cType="1" res="-5.5102625628933311e-04" rms="4.5231565833091736e-01" purity="4.3813183903694153e-01" nType="-99"/>
        </Node>
      </Node>
    </BinaryTree>
    <BinaryTree type="DecisionTree" boostWeight="1.0000000000000000e+00" itree="565">
      <Node pos="s" depth="0" NCoef="0" IVar="7" Cut="-1.0629225522279739e-01" cType="1" res="5.7545938761904836e-04" rms="4.5606195926666260e-01" purity="4.9913513660430908e-01" nType="0">
        <Node pos="l" depth="1" NCoef="0" IVar="-1" Cut="0.0000000000000000e+00" cType="1" res="-1.8392291385680437e-03" rms="4.3889239430427551e-01" purity="3.7064760923385620e-01" nType="-99"/>
        <Node pos="r" depth="1" NCoef="0" IVar="0" Cut="1.4928418397903442e+00" cType="1" res="4.8929946497082710e-03" rms="4.5728892087936401e-01" purity="5.1043426990509033e-01" nType="0">
          <Node pos="l" depth="2" NCoef="0" IVar="-1" Cut="0.0000000000000000e+00" cType="1" res="3.4460006281733513e-04" rms="4.5867553353309631e-01" purity="5.2803212404251099e-01" nType="-99"/>
          <Node pos="r" depth="2" NCoef="0" IVar="-1" Cut="0.0000000000000000e+00" cType="1" res="-8.6136418394744396e-04" rms="4.4958662986755371e-01" purity="4.2905545234680176e-01" nType="-99"/>
        </Node>
      </Node>
    </BinaryTree>
    <BinaryTree type="DecisionTree" boostWeight="1.0000000000000000e+00" itree="566">
      <Node pos="s" depth="0" NCoef="0" IVar="9" Cut="4.1648643493652344e+01" cType="1" res="1.8253285670652986e-03" rms="4.5482280850410461e-01" purity="5.0045251846313477e-01" nType="0">
        <Node pos="l" depth="1" NCoef="0" IVar="-1" Cut="0.0000000000000000e+00" cType="1" res="-1.9974536262452602e-03" rms="4.5446357131004333e-01" purity="4.1829672455787659e-01" nType="-99"/>
        <Node pos="r" depth="1" NCoef="0" IVar="5" Cut="1.5650554895401001e+00" cType="1" res="5.4311938583850861e-03" rms="4.5459386706352234e-01" purity="5.0542163848876953e-01" nType="0">
          <Node pos="l" depth="2" NCoef="0" IVar="-1" Cut="0.0000000000000000e+00" cType="1" res="1.7170411301776767e-03" rms="4.3777403235435486e-01" purity="6.6357982158660889e-01" nType="-99"/>
          <Node pos="r" depth="2" NCoef="0" IVar="-1" Cut="0.0000000000000000e+00" cType="1" res="1.0855729669856373e-05" rms="4.5563843846321106e-01" purity="4.9193373322486877e-01" nType="-99"/>
        </Node>
      </Node>
    </BinaryTree>
    <BinaryTree type="DecisionTree" boostWeight="1.0000000000000000e+00" itree="567">
      <Node pos="s" depth="0" NCoef="0" IVar="9" Cut="9.0891426086425781e+01" cType="1" res="-5.8002542937174439e-04" rms="4.5385169982910156e-01" purity="4.9737256765365601e-01" nType="0">
        <Node pos="l" depth="1" NCoef="0" IVar="3" Cut="1.9032187759876251e-01" cType="1" res="-1.8192356452345848e-02" rms="4.5462280511856079e-01" purity="4.6017003059387207e-01" nType="0">
          <Node pos="l" depth="2" NCoef="0" IVar="-1" Cut="0.0000000000000000e+00" cType="1" res="9.1855943901464343e-04" rms="4.5720505714416504e-01" purity="4.0684375166893005e-01" nType="-99"/>
          <Node pos="r" depth="2" NCoef="0" IVar="-1" Cut="0.0000000000000000e+00" cType="1" res="-9.4178371364250779e-04" rms="4.5323461294174194e-01" purity="4.7440171241760254e-01" nType="-99"/>
        </Node>
        <Node pos="r" depth="1" NCoef="0" IVar="5" Cut="2.3207032680511475e+00" cType="1" res="1.2701204977929592e-02" rms="4.5281651616096497e-01" purity="5.2542650699615479e-01" nType="0">
          <Node pos="l" depth="2" NCoef="0" IVar="-1" Cut="0.0000000000000000e+00" cType="1" res="8.4784399950876832e-04" rms="4.4997787475585938e-01" purity="6.2416714429855347e-01" nType="-99"/>
          <Node pos="r" depth="2" NCoef="0" IVar="-1" Cut="0.0000000000000000e+00" cType="1" res="-2.6623008307069540e-04" rms="4.5513072609901428e-01" purity="4.1430434584617615e-01" nType="-99"/>
        </Node>
      </Node>
    </BinaryTree>
    <BinaryTree type="DecisionTree" boostWeight="1.0000000000000000e+00" itree="568">
      <Node pos="s" depth="0" NCoef="0" IVar="4" Cut="1.6979240417480469e+02" cType="1" res="1.8571385880932212e-03" rms="4.5673453807830811e-01" purity="4.9963441491127014e-01" nType="0">
        <Node pos="l" depth="1" NCoef="0" IVar="6" Cut="9.9388498067855835e-01" cType="1" res="-1.6173279145732522e-03" rms="4.5670950412750244e-01" purity="4.8870614171028137e-01" nType="0">
          <Node pos="l" depth="2" NCoef="0" IVar="-1" Cut="0.0000000000000000e+00" cType="1" res="-2.2523126099258661e-03" rms="4.1357243061065674e-01" purity="2.4512404203414917e-01" nType="-99"/>
          <Node pos="r" depth="2" NCoef="0" IVar="-1" Cut="0.0000000000000000e+00" cType="1" res="5.5238258937606588e-05" rms="4.5993494987487793e-01" purity="5.0887894630432129e-01" nType="-99"/>
        </Node>
        <Node pos="r" depth="1" NCoef="0" IVar="-1" Cut="0.0000000000000000e+00" cType="1" res="1.2680093059316278e-03" rms="4.5448866486549377e-01" purity="6.4689165353775024e-01" nType="-99"/>
      </Node>
    </BinaryTree>
    <BinaryTree type="DecisionTree" boostWeight="1.0000000000000000e+00" itree="569">
      <Node pos="s" depth="0" NCoef="0" IVar="9" Cut="8.7613044738769531e+01" cType="1" res="4.8137838020920753e-03" rms="4.5585331320762634e-01" purity="5.0267499685287476e-01" nType="0">
        <Node pos="l" depth="1" NCoef="0" IVar="3" Cut="2.0965255796909332e-01" cType="1" res="-1.6354424878954887e-02" rms="4.5763641595840454e-01" purity="4.6227926015853882e-01" nType="0">
          <Node pos="l" depth="2" NCoef="0" IVar="-1" Cut="0.0000000000000000e+00" cType="1" res="7.5803726213052869e-04" rms="4.6035501360893250e-01" purity="4.0557017922401428e-01" nType="-99"/>
          <Node pos="r" depth="2" NCoef="0" IVar="-1" Cut="0.0000000000000000e+00" cType="1" res="-9.0455566532909870e-04" rms="4.5603939890861511e-01" purity="4.8129004240036011e-01" nType="-99"/>
        </Node>
        <Node pos="r" depth="1" NCoef="0" IVar="1" Cut="5.6030084228515625e+02" cType="1" res="1.9020995125174522e-02" rms="4.5409962534904480e-01" purity="5.2978688478469849e-01" nType="0">
          <Node pos="l" depth="2" NCoef="0" IVar="-1" Cut="0.0000000000000000e+00" cType="1" res="-1.3537669474317227e-06" rms="4.5042070746421814e-01" purity="4.3399640917778015e-01" nType="-99"/>
          <Node pos="r" depth="2" NCoef="0" IVar="-1" Cut="0.0000000000000000e+00" cType="1" res="1.0043288348242640e-03" rms="4.5674738287925720e-01" purity="6.1758059263229370e-01" nType="-99"/>
        </Node>
      </Node>
    </BinaryTree>
    <BinaryTree type="DecisionTree" boostWeight="1.0000000000000000e+00" itree="570">
      <Node pos="s" depth="0" NCoef="0" IVar="0" Cut="1.5956621170043945e+00" cType="1" res="2.9274565167725086e-03" rms="4.5351409912109375e-01" purity="5.0265383720397949e-01" nType="0">
        <Node pos="l" depth="1" NCoef="0" IVar="5" Cut="1.6537921428680420e+00" cType="1" res="8.9835515245795250e-03" rms="4.5534497499465942e-01" purity="5.1651138067245483e-01" nType="0">
          <Node pos="l" depth="2" NCoef="0" IVar="-1" Cut="0.0000000000000000e+00" cType="1" res="1.3461617054417729e-03" rms="4.4774344563484192e-01" purity="6.3438391685485840e-01" nType="-99"/>
          <Node pos="r" depth="2" NCoef="0" IVar="-1" Cut="0.0000000000000000e+00" cType="1" res="1.2053576210746542e-04" rms="4.5602062344551086e-01" purity="5.0188219547271729e-01" nType="-99"/>
        </Node>
        <Node pos="r" depth="1" NCoef="0" IVar="3" Cut="3.6440673470497131e-01" cType="1" res="-3.9067525416612625e-02" rms="4.3831315636634827e-01" purity="4.0656083822250366e-01" nType="0">
          <Node pos="l" depth="2" NCoef="0" IVar="-1" Cut="0.0000000000000000e+00" cType="1" res="-1.7445835692342371e-04" rms="4.3109914660453796e-01" purity="3.6753416061401367e-01" nType="-99"/>
          <Node pos="r" depth="2" NCoef="0" IVar="-1" Cut="0.0000000000000000e+00" cType="1" res="-2.5288066826760769e-03" rms="4.4301348924636841e-01" purity="4.4965973496437073e-01" nType="-99"/>
        </Node>
      </Node>
    </BinaryTree>
    <BinaryTree type="DecisionTree" boostWeight="1.0000000000000000e+00" itree="571">
      <Node pos="s" depth="0" NCoef="0" IVar="3" Cut="3.4513869881629944e-01" cType="1" res="3.4620866645127535e-03" rms="4.5701572299003601e-01" purity="5.0027924776077271e-01" nType="0">
        <Node pos="l" depth="1" NCoef="0" IVar="6" Cut="2.0588078498840332e+00" cType="1" res="1.9785994663834572e-02" rms="4.6076321601867676e-01" purity="4.2939069867134094e-01" nType="0">
          <Node pos="l" depth="2" NCoef="0" IVar="-1" Cut="0.0000000000000000e+00" cType="1" res="1.7560702690389007e-04" rms="4.5435327291488647e-01" purity="3.3973535895347595e-01" nType="-99"/>
          <Node pos="r" depth="2" NCoef="0" IVar="-1" Cut="0.0000000000000000e+00" cType="1" res="1.2085743946954608e-03" rms="4.6940046548843384e-01" purity="5.6631147861480713e-01" nType="-99"/>
        </Node>
        <Node pos="r" depth="1" NCoef="0" IVar="6" Cut="5.0519728660583496e+00" cType="1" res="-1.0834967717528343e-02" rms="4.5322540402412415e-01" purity="5.6236600875854492e-01" nType="0">
          <Node pos="l" depth="2" NCoef="0" IVar="-1" Cut="0.0000000000000000e+00" cType="1" res="-6.0322153149172664e-04" rms="4.6339720487594604e-01" purity="5.1816123723983765e-01" nType="-99"/>
          <Node pos="r" depth="2" NCoef="0" IVar="-1" Cut="0.0000000000000000e+00" cType="1" res="1.1193222599104047e-03" rms="3.9176931977272034e-01" purity="7.9379481077194214e-01" nType="-99"/>
        </Node>
      </Node>
    </BinaryTree>
    <BinaryTree type="DecisionTree" boostWeight="1.0000000000000000e+00" itree="572">
      <Node pos="s" depth="0" NCoef="0" IVar="8" Cut="1.3741743469238281e+02" cType="1" res="6.8172574974596500e-03" rms="4.5563668012619019e-01" purity="5.0612515211105347e-01" nType="0">
        <Node pos="l" depth="1" NCoef="0" IVar="8" Cut="8.9166145324707031e+01" cType="1" res="1.5793792903423309e-02" rms="4.5520022511482239e-01" purity="5.1208686828613281e-01" nType="0">
          <Node pos="l" depth="2" NCoef="0" IVar="-1" Cut="0.0000000000000000e+00" cType="1" res="-1.3740549329668283e-03" rms="4.5071703195571899e-01" purity="4.1641306877136230e-01" nType="-99"/>
          <Node pos="r" depth="2" NCoef="0" IVar="-1" Cut="0.0000000000000000e+00" cType="1" res="6.8758748238906264e-04" rms="4.5527583360671997e-01" purity="5.2408033609390259e-01" nType="-99"/>
        </Node>
        <Node pos="r" depth="1" NCoef="0" IVar="2" Cut="7.6228696107864380e-01" cType="1" res="-1.8614456057548523e-02" rms="4.5591235160827637e-01" purity="4.8923489451408386e-01" nType="0">
          <Node pos="l" depth="2" NCoef="0" IVar="-1" Cut="0.0000000000000000e+00" cType="1" res="2.0509220485109836e-04" rms="4.5955041050910950e-01" purity="5.6500852108001709e-01" nType="-99"/>
          <Node pos="r" depth="2" NCoef="0" IVar="-1" Cut="0.0000000000000000e+00" cType="1" res="-1.4310120604932308e-03" rms="4.5143541693687439e-01" purity="4.2180436849594116e-01" nType="-99"/>
        </Node>
      </Node>
    </BinaryTree>
    <BinaryTree type="DecisionTree" boostWeight="1.0000000000000000e+00" itree="573">
      <Node pos="s" depth="0" NCoef="0" IVar="5" Cut="1.6748020648956299e+00" cType="1" res="2.2187069989740849e-03" rms="4.5546698570251465e-01" purity="4.9867117404937744e-01" nType="0">
        <Node pos="l" depth="1" NCoef="0" IVar="8" Cut="1.1474523925781250e+02" cType="1" res="4.4237688183784485e-02" rms="4.5425024628639221e-01" purity="6.1690801382064819e-01" nType="0">
          <Node pos="l" depth="2" NCoef="0" IVar="-1" Cut="0.0000000000000000e+00" cType="1" res="6.4157356973737478e-04" rms="4.6193921566009521e-01" purity="5.5853897333145142e-01" nType="-99"/>
          <Node pos="r" depth="2" NCoef="0" IVar="-1" Cut="0.0000000000000000e+00" cType="1" res="1.6547726700082421e-03" rms="4.4638720154762268e-01" purity="6.6905599832534790e-01" nType="-99"/>
        </Node>
        <Node pos="r" depth="1" NCoef="0" IVar="7" Cut="1.9457492232322693e-01" cType="1" res="-3.8081468082964420e-03" rms="4.5532336831092834e-01" purity="4.8171225190162659e-01" nType="0">
          <Node pos="l" depth="2" NCoef="0" IVar="-1" Cut="0.0000000000000000e+00" cType="1" res="-2.8526913956739008e-04" rms="4.5495718717575073e-01" purity="4.6831193566322327e-01" nType="-99"/>
          <Node pos="r" depth="2" NCoef="0" IVar="-1" Cut="0.0000000000000000e+00" cType="1" res="1.0519818169996142e-03" rms="4.5623168349266052e-01" purity="5.9270882606506348e-01" nType="-99"/>
        </Node>
      </Node>
    </BinaryTree>
    <BinaryTree type="DecisionTree" boostWeight="1.0000000000000000e+00" itree="574">
      <Node pos="s" depth="0" NCoef="0" IVar="3" Cut="1.9032163918018341e-01" cType="1" res="1.5145368524827063e-04" rms="4.5628130435943604e-01" purity="4.9678039550781250e-01" nType="0">
        <Node pos="l" depth="1" NCoef="0" IVar="6" Cut="1.4791461229324341e+00" cType="1" res="2.7687031775712967e-02" rms="4.5823827385902405e-01" purity="4.3011078238487244e-01" nType="0">
          <Node pos="l" depth="2" NCoef="0" IVar="-1" Cut="0.0000000000000000e+00" cType="1" res="1.2185259402031079e-04" rms="4.5011547207832336e-01" purity="3.2229793071746826e-01" nType="-99"/>
          <Node pos="r" depth="2" NCoef="0" IVar="-1" Cut="0.0000000000000000e+00" cType="1" res="1.6073634615167975e-03" rms="4.6550583839416504e-01" purity="5.4931634664535522e-01" nType="-99"/>
        </Node>
        <Node pos="r" depth="1" NCoef="0" IVar="6" Cut="4.4594893455505371e+00" cType="1" res="-6.9981459528207779e-03" rms="4.5549967885017395e-01" purity="5.1409113407135010e-01" nType="0">
          <Node pos="l" depth="2" NCoef="0" IVar="-1" Cut="0.0000000000000000e+00" cType="1" res="-4.7303878818638623e-04" rms="4.6445041894912720e-01" purity="4.5489433407783508e-01" nType="-99"/>
          <Node pos="r" depth="2" NCoef="0" IVar="-1" Cut="0.0000000000000000e+00" cType="1" res="6.9697183789685369e-04" rms="4.1590121388435364e-01" purity="7.5264722108840942e-01" nType="-99"/>
        </Node>
      </Node>
    </BinaryTree>
    <BinaryTree type="DecisionTree" boostWeight="1.0000000000000000e+00" itree="575">
      <Node pos="s" depth="0" NCoef="0" IVar="7" Cut="1.9105769693851471e-01" cType="1" res="1.8618414178490639e-03" rms="4.5459854602813721e-01" purity="4.9810716509819031e-01" nType="0">
        <Node pos="l" depth="1" NCoef="0" IVar="6" Cut="3.7344717979431152e+00" cType="1" res="-4.4714305549860001e-03" rms="4.5457154512405396e-01" purity="4.8292368650436401e-01" nType="0">
          <Node pos="l" depth="2" NCoef="0" IVar="-1" Cut="0.0000000000000000e+00" cType="1" res="-4.4780058669857681e-04" rms="4.5974001288414001e-01" purity="4.0265062451362610e-01" nType="-99"/>
          <Node pos="r" depth="2" NCoef="0" IVar="-1" Cut="0.0000000000000000e+00" cType="1" res="4.7280846047215164e-04" rms="4.3990969657897949e-01" purity="6.9402527809143066e-01" nType="-99"/>
        </Node>
        <Node pos="r" depth="1" NCoef="0" IVar="0" Cut="1.0700981616973877e+00" cType="1" res="4.8136524856090546e-02" rms="4.5211151242256165e-01" purity="6.0904729366302490e-01" nType="0">
          <Node pos="l" depth="2" NCoef="0" IVar="-1" Cut="0.0000000000000000e+00" cType="1" res="1.4353898586705327e-03" rms="4.4897779822349548e-01" purity="6.3865679502487183e-01" nType="-99"/>
          <Node pos="r" depth="2" NCoef="0" IVar="-1" Cut="0.0000000000000000e+00" cType="1" res="1.1760584311559796e-03" rms="4.5530831813812256e-01" purity="5.7793498039245605e-01" nType="-99"/>
        </Node>
      </Node>
    </BinaryTree>
    <BinaryTree type="DecisionTree" boostWeight="1.0000000000000000e+00" itree="576">
      <Node pos="s" depth="0" NCoef="0" IVar="0" Cut="1.4077107906341553e+00" cType="1" res="8.2779387012124062e-03" rms="4.5517265796661377e-01" purity="5.0709581375122070e-01" nType="0">
        <Node pos="l" depth="1" NCoef="0" IVar="2" Cut="9.9454599618911743e-01" cType="1" res="1.4896664768457413e-02" rms="4.5667037367820740e-01" purity="5.2778339385986328e-01" nType="0">
          <Node pos="l" depth="2" NCoef="0" IVar="-1" Cut="0.0000000000000000e+00" cType="1" res="6.7859154660254717e-04" rms="4.5610037446022034e-01" purity="5.5382978916168213e-01" nType="-99"/>
          <Node pos="r" depth="2" NCoef="0" IVar="-1" Cut="0.0000000000000000e+00" cType="1" res="-3.8744852645322680e-04" rms="4.5751762390136719e-01" purity="4.4281315803527832e-01" nType="-99"/>
        </Node>
        <Node pos="r" depth="1" NCoef="0" IVar="3" Cut="2.0963303744792938e-01" cType="1" res="-1.4842870645225048e-02" rms="4.4913676381111145e-01" purity="4.3482905626296997e-01" nType="0">
          <Node pos="l" depth="2" NCoef="0" IVar="-1" Cut="0.0000000000000000e+00" cType="1" res="6.5595353953540325e-04" rms="4.4523403048515320e-01" purity="3.8174620270729065e-01" nType="-99"/>
          <Node pos="r" depth="2" NCoef="0" IVar="-1" Cut="0.0000000000000000e+00" cType="1" res="-8.2510733045637608e-04" rms="4.4993230700492859e-01" purity="4.5239827036857605e-01" nType="-99"/>
        </Node>
      </Node>
    </BinaryTree>
    <BinaryTree type="DecisionTree" boostWeight="1.0000000000000000e+00" itree="577">
      <Node pos="s" depth="0" NCoef="0" IVar="6" Cut="4.9977569580078125e+00" cType="1" res="3.2725147902965546e-03" rms="4.5507010817527771e-01" purity="4.9984383583068848e-01" nType="0">
        <Node pos="l" depth="1" NCoef="0" IVar="3" Cut="5.3850764036178589e-01" cType="1" res="-1.3524896930903196e-03" rms="4.6083357930183411e-01" purity="4.6909794211387634e-01" nType="0">
          <Node pos="l" depth="2" NCoef="0" IVar="-1" Cut="0.0000000000000000e+00" cType="1" res="2.5495194131508470e-04" rms="4.5708692073822021e-01" purity="4.3972855806350708e-01" nType="-99"/>
          <Node pos="r" depth="2" NCoef="0" IVar="-1" Cut="0.0000000000000000e+00" cType="1" res="-7.6028989860787988e-04" rms="4.7045719623565674e-01" purity="5.5335342884063721e-01" nType="-99"/>
        </Node>
        <Node pos="r" depth="1" NCoef="0" IVar="-1" Cut="0.0000000000000000e+00" cType="1" res="1.3289592461660504e-03" rms="3.9159688353538513e-01" purity="7.9978120326995850e-01" nType="-99"/>
      </Node>
    </BinaryTree>
    <BinaryTree type="DecisionTree" boostWeight="1.0000000000000000e+00" itree="578">
      <Node pos="s" depth="0" NCoef="0" IVar="2" Cut="9.9540895223617554e-01" cType="1" res="4.0598739869892597e-03" rms="4.5548948645591736e-01" purity="5.0248068571090698e-01" nType="0">
        <Node pos="l" depth="1" NCoef="0" IVar="9" Cut="1.5817189025878906e+02" cType="1" res="1.2689754366874695e-02" rms="4.5723280310630798e-01" purity="5.2976435422897339e-01" nType="0">
          <Node pos="l" depth="2" NCoef="0" IVar="-1" Cut="0.0000000000000000e+00" cType="1" res="2.1436087263282388e-04" rms="4.5704451203346252e-01" purity="5.2162885665893555e-01" nType="-99"/>
          <Node pos="r" depth="2" NCoef="0" IVar="-1" Cut="0.0000000000000000e+00" cType="1" res="1.5094657428562641e-03" rms="4.5660024881362915e-01" purity="5.8672183752059937e-01" nType="-99"/>
        </Node>
        <Node pos="r" depth="1" NCoef="0" IVar="4" Cut="7.0227508544921875e+01" cType="1" res="-2.2696213796734810e-02" rms="4.4898843765258789e-01" purity="4.1789010167121887e-01" nType="0">
          <Node pos="l" depth="2" NCoef="0" IVar="-1" Cut="0.0000000000000000e+00" cType="1" res="-1.5689814463257790e-03" rms="4.3868663907051086e-01" purity="3.6320891976356506e-01" nType="-99"/>
          <Node pos="r" depth="2" NCoef="0" IVar="-1" Cut="0.0000000000000000e+00" cType="1" res="-8.4021659858990461e-05" rms="4.5921614766120911e-01" purity="4.7800990939140320e-01" nType="-99"/>
        </Node>
      </Node>
    </BinaryTree>
    <BinaryTree type="DecisionTree" boostWeight="1.0000000000000000e+00" itree="579">
      <Node pos="s" depth="0" NCoef="0" IVar="6" Cut="3.9039132595062256e+00" cType="1" res="1.8421178683638573e-03" rms="4.5422822237014771e-01" purity="5.0118511915206909e-01" nType="0">
        <Node pos="l" depth="1" NCoef="0" IVar="3" Cut="2.4823622405529022e-01" cType="1" res="-6.8029332906007767e-03" rms="4.6171322464942932e-01" purity="4.2602357268333435e-01" nType="0">
          <Node pos="l" depth="2" NCoef="0" IVar="-1" Cut="0.0000000000000000e+00" cType="1" res="4.5797231723554432e-04" rms="4.5543175935745239e-01" purity="4.1185033321380615e-01" nType="-99"/>
          <Node pos="r" depth="2" NCoef="0" IVar="-1" Cut="0.0000000000000000e+00" cType="1" res="-6.4768659649416804e-04" rms="4.6560493111610413e-01" purity="4.3602612614631653e-01" nType="-99"/>
        </Node>
        <Node pos="r" depth="1" NCoef="0" IVar="8" Cut="1.3785633850097656e+02" cType="1" res="2.7319163084030151e-02" rms="4.3040654063224792e-01" purity="7.2268712520599365e-01" nType="0">
          <Node pos="l" depth="2" NCoef="0" IVar="-1" Cut="0.0000000000000000e+00" cType="1" res="9.8503835033625364e-04" rms="4.2511823773384094e-01" purity="7.3509305715560913e-01" nType="-99"/>
          <Node pos="r" depth="2" NCoef="0" IVar="-1" Cut="0.0000000000000000e+00" cType="1" res="-4.6166915126377717e-05" rms="4.4350647926330566e-01" purity="6.8815940618515015e-01" nType="-99"/>
        </Node>
      </Node>
    </BinaryTree>
    <BinaryTree type="DecisionTree" boostWeight="1.0000000000000000e+00" itree="580">
      <Node pos="s" depth="0" NCoef="0" IVar="2" Cut="6.4116883277893066e-01" cType="1" res="2.5652451440691948e-03" rms="4.5514219999313354e-01" purity="4.9999916553497314e-01" nType="0">
        <Node pos="l" depth="1" NCoef="0" IVar="8" Cut="1.0816616821289062e+02" cType="1" res="2.3625159636139870e-02" rms="4.5525103807449341e-01" purity="5.7695913314819336e-01" nType="0">
          <Node pos="l" depth="2" NCoef="0" IVar="-1" Cut="0.0000000000000000e+00" cType="1" res="-1.8424757581669837e-04" rms="4.6425423026084900e-01" purity="5.1495474576950073e-01" nType="-99"/>
          <Node pos="r" depth="2" NCoef="0" IVar="-1" Cut="0.0000000000000000e+00" cType="1" res="9.4423751579597592e-04" rms="4.5180851221084595e-01" purity="5.9745478630065918e-01" nType="-99"/>
        </Node>
        <Node pos="r" depth="1" NCoef="0" IVar="0" Cut="6.5172344446182251e-01" cType="1" res="-7.8881243243813515e-03" rms="4.5472609996795654e-01" purity="4.6179902553558350e-01" nType="0">
          <Node pos="l" depth="2" NCoef="0" IVar="-1" Cut="0.0000000000000000e+00" cType="1" res="1.1632537934929132e-03" rms="4.5686990022659302e-01" purity="5.5990040302276611e-01" nType="-99"/>
          <Node pos="r" depth="2" NCoef="0" IVar="-1" Cut="0.0000000000000000e+00" cType="1" res="-4.8575291293673217e-04" rms="4.5401951670646667e-01" purity="4.4813063740730286e-01" nType="-99"/>
        </Node>
      </Node>
    </BinaryTree>
    <BinaryTree type="DecisionTree" boostWeight="1.0000000000000000e+00" itree="581">
      <Node pos="s" depth="0" NCoef="0" IVar="6" Cut="2.3078415393829346e+00" cType="1" res="1.2092986144125462e-03" rms="4.5363625884056091e-01" purity="5.0094157457351685e-01" nType="0">
        <Node pos="l" depth="1" NCoef="0" IVar="9" Cut="1.2402607727050781e+02" cType="1" res="-2.3473277688026428e-02" rms="4.4683954119682312e-01" purity="3.2255980372428894e-01" nType="0">
          <Node pos="l" depth="2" NCoef="0" IVar="-1" Cut="0.0000000000000000e+00" cType="1" res="-1.4855755725875497e-03" rms="4.4237715005874634e-01" purity="3.0328488349914551e-01" nType="-99"/>
          <Node pos="r" depth="2" NCoef="0" IVar="-1" Cut="0.0000000000000000e+00" cType="1" res="2.5488479877822101e-04" rms="4.5661786198616028e-01" purity="3.7163084745407104e-01" nType="-99"/>
        </Node>
        <Node pos="r" depth="1" NCoef="0" IVar="3" Cut="4.6129450201988220e-01" cType="1" res="1.6017133370041847e-02" rms="4.5702606439590454e-01" purity="6.0795831680297852e-01" nType="0">
          <Node pos="l" depth="2" NCoef="0" IVar="-1" Cut="0.0000000000000000e+00" cType="1" res="1.0434141149744391e-03" rms="4.6583914756774902e-01" purity="5.8347618579864502e-01" nType="-99"/>
          <Node pos="r" depth="2" NCoef="0" IVar="-1" Cut="0.0000000000000000e+00" cType="1" res="5.8827474276768044e-05" rms="4.5093935728073120e-01" purity="6.2307584285736084e-01" nType="-99"/>
        </Node>
      </Node>
    </BinaryTree>
    <BinaryTree type="DecisionTree" boostWeight="1.0000000000000000e+00" itree="582">
      <Node pos="s" depth="0" NCoef="0" IVar="4" Cut="5.0460746765136719e+01" cType="1" res="6.8721069510502275e-06" rms="4.5519030094146729e-01" purity="4.9643847346305847e-01" nType="0">
        <Node pos="l" depth="1" NCoef="0" IVar="2" Cut="6.2470519542694092e-01" cType="1" res="-2.2419448941946030e-02" rms="4.4862738251686096e-01" purity="4.3029251694679260e-01" nType="0">
          <Node pos="l" depth="2" NCoef="0" IVar="-1" Cut="0.0000000000000000e+00" cType="1" res="3.0613463604822755e-04" rms="4.5963323116302490e-01" purity="5.1675117015838623e-01" nType="-99"/>
          <Node pos="r" depth="2" NCoef="0" IVar="-1" Cut="0.0000000000000000e+00" cType="1" res="-1.3443601783365011e-03" rms="4.4293579459190369e-01" purity="3.9216589927673340e-01" nType="-99"/>
        </Node>
        <Node pos="r" depth="1" NCoef="0" IVar="3" Cut="1.9027075171470642e-01" cType="1" res="1.1006745509803295e-02" rms="4.5797374844551086e-01" purity="5.2888244390487671e-01" nType="0">
          <Node pos="l" depth="2" NCoef="0" IVar="-1" Cut="0.0000000000000000e+00" cType="1" res="1.4268538216128945e-03" rms="4.6649682521820068e-01" purity="4.7002255916595459e-01" nType="-99"/>
          <Node pos="r" depth="2" NCoef="0" IVar="-1" Cut="0.0000000000000000e+00" cType="1" res="7.7912940469104797e-05" rms="4.5535251498222351e-01" purity="5.4424989223480225e-01" nType="-99"/>
        </Node>
      </Node>
    </BinaryTree>
    <BinaryTree type="DecisionTree" boostWeight="1.0000000000000000e+00" itree="583">
      <Node pos="s" depth="0" NCoef="0" IVar="3" Cut="1.5161229670047760e-01" cType="1" res="1.3293698430061340e-03" rms="4.5533695816993713e-01" purity="4.9900180101394653e-01" nType="0">
        <Node pos="l" depth="1" NCoef="0" IVar="6" Cut="1.2517533302307129e+00" cType="1" res="4.4865690171718597e-02" rms="4.5718351006507874e-01" purity="4.5430234074592590e-01" nType="0">
          <Node pos="l" depth="2" NCoef="0" IVar="-1" Cut="0.0000000000000000e+00" cType="1" res="-3.3311094739474356e-04" rms="4.4543364644050598e-01" purity="3.1780129671096802e-01" nType="-99"/>
          <Node pos="r" depth="2" NCoef="0" IVar="-1" Cut="0.0000000000000000e+00" cType="1" res="2.5540227070450783e-03" rms="4.6226701140403748e-01" purity="5.6954360008239746e-01" nType="-99"/>
        </Node>
        <Node pos="r" depth="1" NCoef="0" IVar="0" Cut="7.0658123493194580e-01" cType="1" res="-4.2752632871270180e-03" rms="4.5479601621627808e-01" purity="5.0475615262985229e-01" nType="0">
          <Node pos="l" depth="2" NCoef="0" IVar="-1" Cut="0.0000000000000000e+00" cType="1" res="8.5603765910491347e-04" rms="4.5534229278564453e-01" purity="5.8517289161682129e-01" nType="-99"/>
          <Node pos="r" depth="2" NCoef="0" IVar="-1" Cut="0.0000000000000000e+00" cType="1" res="-3.7490591057576239e-04" rms="4.5432287454605103e-01" purity="4.8714029788970947e-01" nType="-99"/>
        </Node>
      </Node>
    </BinaryTree>
    <BinaryTree type="DecisionTree" boostWeight="1.0000000000000000e+00" itree="584">
      <Node pos="s" depth="0" NCoef="0" IVar="8" Cut="9.2612442016601562e+01" cType="1" res="8.4455817705020308e-04" rms="4.5539215207099915e-01" purity="4.9797031283378601e-01" nType="0">
        <Node pos="l" depth="1" NCoef="0" IVar="-1" Cut="0.0000000000000000e+00" cType="1" res="-1.8102853791788220e-03" rms="4.5595684647560120e-01" purity="3.9516949653625488e-01" nType="-99"/>
        <Node pos="r" depth="1" NCoef="0" IVar="5" Cut="1.7671488523483276e+00" cType="1" res="6.4335321076214314e-03" rms="4.5498284697532654e-01" purity="5.0923866033554077e-01" nType="0">
          <Node pos="l" depth="2" NCoef="0" IVar="-1" Cut="0.0000000000000000e+00" cType="1" res="1.1714968131855130e-03" rms="4.4791710376739502e-01" purity="6.2968999147415161e-01" nType="-99"/>
          <Node pos="r" depth="2" NCoef="0" IVar="-1" Cut="0.0000000000000000e+00" cType="1" res="-2.0006179966003401e-06" rms="4.5590108633041382e-01" purity="4.8810687661170959e-01" nType="-99"/>
        </Node>
      </Node>
    </BinaryTree>
    <BinaryTree type="DecisionTree" boostWeight="1.0000000000000000e+00" itree="585">
      <Node pos="s" depth="0" NCoef="0" IVar="7" Cut="2.2876937687397003e-01" cType="1" res="-1.4491358306258917e-03" rms="4.5391458272933960e-01" purity="4.9690285325050354e-01" nType="0">
        <Node pos="l" depth="1" NCoef="0" IVar="2" Cut="5.7047867774963379e-01" cType="1" res="-5.6860931217670441e-03" rms="4.5396041870117188e-01" purity="4.8663368821144104e-01" nType="0">
          <Node pos="l" depth="2" NCoef="0" IVar="-1" Cut="0.0000000000000000e+00" cType="1" res="6.1185617232695222e-04" rms="4.5380669832229614e-01" purity="5.7555907964706421e-01" nType="-99"/>
          <Node pos="r" depth="2" NCoef="0" IVar="-1" Cut="0.0000000000000000e+00" cType="1" res="-4.8684381181374192e-04" rms="4.5364812016487122e-01" purity="4.5660811662673950e-01" nType="-99"/>
        </Node>
        <Node pos="r" depth="1" NCoef="0" IVar="-1" Cut="0.0000000000000000e+00" cType="1" res="1.4376940671354532e-03" rms="4.4977265596389771e-01" purity="6.2912505865097046e-01" nType="-99"/>
      </Node>
    </BinaryTree>
    <BinaryTree type="DecisionTree" boostWeight="1.0000000000000000e+00" itree="586">
      <Node pos="s" depth="0" NCoef="0" IVar="3" Cut="2.2903470695018768e-01" cType="1" res="8.1825040979310870e-04" rms="4.5737537741661072e-01" purity="4.9824330210685730e-01" nType="0">
        <Node pos="l" depth="1" NCoef="0" IVar="6" Cut="1.0722553730010986e+00" cType="1" res="2.1880565211176872e-02" rms="4.5749586820602417e-01" purity="4.2575913667678833e-01" nType="0">
          <Node pos="l" depth="2" NCoef="0" IVar="-1" Cut="0.0000000000000000e+00" cType="1" res="-9.7547390032559633e-04" rms="4.2915171384811401e-01" purity="2.8108111023902893e-01" nType="-99"/>
          <Node pos="r" depth="2" NCoef="0" IVar="-1" Cut="0.0000000000000000e+00" cType="1" res="1.2400529813021421e-03" rms="4.6737384796142578e-01" purity="4.8412916064262390e-01" nType="-99"/>
        </Node>
        <Node pos="r" depth="1" NCoef="0" IVar="6" Cut="2.8418307304382324e+00" cType="1" res="-7.5158313848078251e-03" rms="4.5705977082252502e-01" purity="5.2692431211471558e-01" nType="0">
          <Node pos="l" depth="2" NCoef="0" IVar="-1" Cut="0.0000000000000000e+00" cType="1" res="-1.0577710345387459e-03" rms="4.5604524016380310e-01" purity="3.5289251804351807e-01" nType="-99"/>
          <Node pos="r" depth="2" NCoef="0" IVar="-1" Cut="0.0000000000000000e+00" cType="1" res="1.3818249863106757e-04" rms="4.5718663930892944e-01" purity="6.2948453426361084e-01" nType="-99"/>
        </Node>
      </Node>
    </BinaryTree>
    <BinaryTree type="DecisionTree" boostWeight="1.0000000000000000e+00" itree="587">
      <Node pos="s" depth="0" NCoef="0" IVar="6" Cut="5.1087722778320312e+00" cType="1" res="2.8542084619402885e-03" rms="4.5442637801170349e-01" purity="5.0112110376358032e-01" nType="0">
        <Node pos="l" depth="1" NCoef="0" IVar="3" Cut="5.9678369760513306e-01" cType="1" res="-1.4167309273034334e-03" rms="4.5990639925003052e-01" purity="4.7308677434921265e-01" nType="0">
          <Node pos="l" depth="2" NCoef="0" IVar="-1" Cut="0.0000000000000000e+00" cType="1" res="2.1053670207038522e-04" rms="4.5784476399421692e-01" purity="4.4527244567871094e-01" nType="-99"/>
          <Node pos="r" depth="2" NCoef="0" IVar="-1" Cut="0.0000000000000000e+00" cType="1" res="-8.3008786896243691e-04" rms="4.6632528305053711e-01" purity="5.7608962059020996e-01" nType="-99"/>
        </Node>
        <Node pos="r" depth="1" NCoef="0" IVar="-1" Cut="0.0000000000000000e+00" cType="1" res="1.3629312161356211e-03" rms="3.8720023632049561e-01" purity="8.0461966991424561e-01" nType="-99"/>
      </Node>
    </BinaryTree>
    <BinaryTree type="DecisionTree" boostWeight="1.0000000000000000e+00" itree="588">
      <Node pos="s" depth="0" NCoef="0" IVar="5" Cut="1.6367272138595581e+00" cType="1" res="3.7003562320023775e-03" rms="4.5639115571975708e-01" purity="5.0195378065109253e-01" nType="0">
        <Node pos="l" depth="1" NCoef="0" IVar="-1" Cut="0.0000000000000000e+00" cType="1" res="1.1943161953240633e-03" rms="4.5127147436141968e-01" purity="6.1834293603897095e-01" nType="-99"/>
        <Node pos="r" depth="1" NCoef="0" IVar="9" Cut="1.0974864959716797e+02" cType="1" res="-1.2845840537920594e-03" rms="4.5677167177200317e-01" purity="4.8758637905120850e-01" nType="0">
          <Node pos="l" depth="2" NCoef="0" IVar="-1" Cut="0.0000000000000000e+00" cType="1" res="-4.5297064934857190e-04" rms="4.5741990208625793e-01" purity="4.5834442973136902e-01" nType="-99"/>
          <Node pos="r" depth="2" NCoef="0" IVar="-1" Cut="0.0000000000000000e+00" cType="1" res="4.6406258479692042e-04" rms="4.5541524887084961e-01" purity="5.2545905113220215e-01" nType="-99"/>
        </Node>
      </Node>
    </BinaryTree>
    <BinaryTree type="DecisionTree" boostWeight="1.0000000000000000e+00" itree="589">
      <Node pos="s" depth="0" NCoef="0" IVar="9" Cut="9.2334907531738281e+01" cType="1" res="8.5334316827356815e-04" rms="4.5708167552947998e-01" purity="4.9906513094902039e-01" nType="0">
        <Node pos="l" depth="1" NCoef="0" IVar="3" Cut="4.8065304756164551e-01" cType="1" res="-1.6639687120914459e-02" rms="4.5867326855659485e-01" purity="4.6435627341270447e-01" nType="0">
          <Node pos="l" depth="2" NCoef="0" IVar="-1" Cut="0.0000000000000000e+00" cType="1" res="-2.7286470867693424e-05" rms="4.5783725380897522e-01" purity="4.0664595365524292e-01" nType="-99"/>
          <Node pos="r" depth="2" NCoef="0" IVar="-1" Cut="0.0000000000000000e+00" cType="1" res="-1.2354070786386728e-03" rms="4.5886310935020447e-01" purity="5.5801147222518921e-01" nType="-99"/>
        </Node>
        <Node pos="r" depth="1" NCoef="0" IVar="2" Cut="1.1549382209777832e+00" cType="1" res="1.4766918495297432e-02" rms="4.5533221960067749e-01" purity="5.2667182683944702e-01" nType="0">
          <Node pos="l" depth="2" NCoef="0" IVar="-1" Cut="0.0000000000000000e+00" cType="1" res="6.4792047487571836e-04" rms="4.5582550764083862e-01" purity="5.4294466972351074e-01" nType="-99"/>
          <Node pos="r" depth="2" NCoef="0" IVar="-1" Cut="0.0000000000000000e+00" cType="1" res="-1.1883534025400877e-03" rms="4.4870230555534363e-01" purity="4.0775132179260254e-01" nType="-99"/>
        </Node>
      </Node>
    </BinaryTree>
    <BinaryTree type="DecisionTree" boostWeight="1.0000000000000000e+00" itree="590">
      <Node pos="s" depth="0" NCoef="0" IVar="9" Cut="1.1548698425292969e+02" cType="1" res="2.1610129624605179e-03" rms="4.5611542463302612e-01" purity="4.9986776709556580e-01" nType="0">
        <Node pos="l" depth="1" NCoef="0" IVar="5" Cut="1.9676234722137451e+00" cType="1" res="-9.9692996591329575e-03" rms="4.5750436186790466e-01" purity="4.7555723786354065e-01" nType="0">
          <Node pos="l" depth="2" NCoef="0" IVar="-1" Cut="0.0000000000000000e+00" cType="1" res="4.3514181743375957e-04" rms="4.6282911300659180e-01" purity="5.5667304992675781e-01" nType="-99"/>
          <Node pos="r" depth="2" NCoef="0" IVar="-1" Cut="0.0000000000000000e+00" cType="1" res="-7.6155061833560467e-04" rms="4.5432478189468384e-01" purity="4.3527874350547791e-01" nType="-99"/>
        </Node>
        <Node pos="r" depth="1" NCoef="0" IVar="1" Cut="6.8535339355468750e+02" cType="1" res="2.3272302001714706e-02" rms="4.5291396975517273e-01" purity="5.4217714071273804e-01" nType="0">
          <Node pos="l" depth="2" NCoef="0" IVar="-1" Cut="0.0000000000000000e+00" cType="1" res="2.7665411471389234e-04" rms="4.5396777987480164e-01" purity="4.8259496688842773e-01" nType="-99"/>
          <Node pos="r" depth="2" NCoef="0" IVar="-1" Cut="0.0000000000000000e+00" cType="1" res="1.3447310775518417e-03" rms="4.4988515973091125e-01" purity="6.4727973937988281e-01" nType="-99"/>
        </Node>
      </Node>
    </BinaryTree>
    <BinaryTree type="DecisionTree" boostWeight="1.0000000000000000e+00" itree="591">
      <Node pos="s" depth="0" NCoef="0" IVar="5" Cut="1.6858313083648682e+00" cType="1" res="2.6476581115275621e-03" rms="4.5661687850952148e-01" purity="4.9958959221839905e-01" nType="0">
        <Node pos="l" depth="1" NCoef="0" IVar="3" Cut="3.6437377333641052e-01" cType="1" res="4.0213424712419510e-02" rms="4.5026150345802307e-01" purity="6.1829936504364014e-01" nType="0">
          <Node pos="l" depth="2" NCoef="0" IVar="-1" Cut="0.0000000000000000e+00" cType="1" res="1.7921739490702748e-03" rms="4.5994272828102112e-01" purity="5.5743116140365601e-01" nType="-99"/>
          <Node pos="r" depth="2" NCoef="0" IVar="-1" Cut="0.0000000000000000e+00" cType="1" res="5.4594752145931125e-04" rms="4.4092360138893127e-01" purity="6.6970562934875488e-01" nType="-99"/>
        </Node>
        <Node pos="r" depth="1" NCoef="0" IVar="5" Cut="2.8984026908874512e+00" cType="1" res="-2.9487265273928642e-03" rms="4.5729207992553711e-01" purity="4.8190471529960632e-01" nType="0">
          <Node pos="l" depth="2" NCoef="0" IVar="-1" Cut="0.0000000000000000e+00" cType="1" res="1.1221391105209477e-05" rms="4.6076461672782898e-01" purity="4.9836477637290955e-01" nType="-99"/>
          <Node pos="r" depth="2" NCoef="0" IVar="-1" Cut="0.0000000000000000e+00" cType="1" res="-2.9655455145984888e-03" rms="3.9492201805114746e-01" purity="2.2240862250328064e-01" nType="-99"/>
        </Node>
      </Node>
    </BinaryTree>
    <BinaryTree type="DecisionTree" boostWeight="1.0000000000000000e+00" itree="592">
      <Node pos="s" depth="0" NCoef="0" IVar="5" Cut="1.8936365842819214e+00" cType="1" res="2.0149084739387035e-03" rms="4.5454972982406616e-01" purity="4.9925801157951355e-01" nType="0">
        <Node pos="l" depth="1" NCoef="0" IVar="9" Cut="8.1333999633789062e+01" cType="1" res="2.5556534528732300e-02" rms="4.5251044631004333e-01" purity="5.8813875913619995e-01" nType="0">
          <Node pos="l" depth="2" NCoef="0" IVar="-1" Cut="0.0000000000000000e+00" cType="1" res="2.5646761059761047e-04" rms="4.5890012383460999e-01" purity="5.3872013092041016e-01" nType="-99"/>
          <Node pos="r" depth="2" NCoef="0" IVar="-1" Cut="0.0000000000000000e+00" cType="1" res="1.4559077098965645e-03" rms="4.3937808275222778e-01" purity="6.7579847574234009e-01" nType="-99"/>
        </Node>
        <Node pos="r" depth="1" NCoef="0" IVar="9" Cut="1.4356431579589844e+02" cType="1" res="-4.4026323594152927e-03" rms="4.5489278435707092e-01" purity="4.7502875328063965e-01" nType="0">
          <Node pos="l" depth="2" NCoef="0" IVar="-1" Cut="0.0000000000000000e+00" cType="1" res="-3.8126832805573940e-04" rms="4.5401251316070557e-01" purity="4.6146887540817261e-01" nType="-99"/>
          <Node pos="r" depth="2" NCoef="0" IVar="-1" Cut="0.0000000000000000e+00" cType="1" res="6.5291434293612838e-04" rms="4.5707139372825623e-01" purity="5.2291065454483032e-01" nType="-99"/>
        </Node>
      </Node>
    </BinaryTree>
    <BinaryTree type="DecisionTree" boostWeight="1.0000000000000000e+00" itree="593">
      <Node pos="s" depth="0" NCoef="0" IVar="6" Cut="4.1392955780029297e+00" cType="1" res="2.3355749435722828e-03" rms="4.5352429151535034e-01" purity="5.0228202342987061e-01" nType="0">
        <Node pos="l" depth="1" NCoef="0" IVar="3" Cut="4.0289753675460815e-01" cType="1" res="-5.4324106313288212e-03" rms="4.6133247017860413e-01" purity="4.3769928812980652e-01" nType="0">
          <Node pos="l" depth="2" NCoef="0" IVar="-1" Cut="0.0000000000000000e+00" cType="1" res="2.7262128423899412e-04" rms="4.5665094256401062e-01" purity="4.2247900366783142e-01" nType="-99"/>
          <Node pos="r" depth="2" NCoef="0" IVar="-1" Cut="0.0000000000000000e+00" cType="1" res="-9.4783195527270436e-04" rms="4.6932169795036316e-01" purity="4.6775746345520020e-01" nType="-99"/>
        </Node>
        <Node pos="r" depth="1" NCoef="0" IVar="3" Cut="7.0500701665878296e-01" cType="1" res="3.1128225848078728e-02" rms="4.2208316922187805e-01" purity="7.4166280031204224e-01" nType="0">
          <Node pos="l" depth="2" NCoef="0" IVar="-1" Cut="0.0000000000000000e+00" cType="1" res="1.3553636381402612e-03" rms="4.1599652171134949e-01" purity="7.5355124473571777e-01" nType="-99"/>
          <Node pos="r" depth="2" NCoef="0" IVar="-1" Cut="0.0000000000000000e+00" cType="1" res="5.0403625937178731e-04" rms="4.2508772015571594e-01" purity="7.3472332954406738e-01" nType="-99"/>
        </Node>
      </Node>
    </BinaryTree>
    <BinaryTree type="DecisionTree" boostWeight="1.0000000000000000e+00" itree="594">
      <Node pos="s" depth="0" NCoef="0" IVar="7" Cut="-1.0981453210115433e-01" cType="1" res="7.6438058167695999e-03" rms="4.5529341697692871e-01" purity="5.0592565536499023e-01" nType="0">
        <Node pos="l" depth="1" NCoef="0" IVar="-1" Cut="0.0000000000000000e+00" cType="1" res="-1.4124448643997312e-03" rms="4.4290637969970703e-01" purity="3.8308221101760864e-01" nType="-99"/>
        <Node pos="r" depth="1" NCoef="0" IVar="6" Cut="1.1767230033874512e+00" cType="1" res="1.1104201897978783e-02" rms="4.5603814721107483e-01" purity="5.1528638601303101e-01" nType="0">
          <Node pos="l" depth="2" NCoef="0" IVar="-1" Cut="0.0000000000000000e+00" cType="1" res="-1.1196811683475971e-03" rms="4.2984634637832642e-01" purity="2.7998906373977661e-01" nType="-99"/>
          <Node pos="r" depth="2" NCoef="0" IVar="-1" Cut="0.0000000000000000e+00" cType="1" res="4.4447663822211325e-04" rms="4.5880636572837830e-01" purity="5.4253804683685303e-01" nType="-99"/>
        </Node>
      </Node>
    </BinaryTree>
    <BinaryTree type="DecisionTree" boostWeight="1.0000000000000000e+00" itree="595">
      <Node pos="s" depth="0" NCoef="0" IVar="6" Cut="2.7675840854644775e+00" cType="1" res="-8.9268927695229650e-05" rms="4.5363348722457886e-01" purity="4.9947685003280640e-01" nType="0">
        <Node pos="l" depth="1" NCoef="0" IVar="3" Cut="3.4214136004447937e-01" cType="1" res="-1.4757169410586357e-02" rms="4.5456060767173767e-01" purity="3.6033639311790466e-01" nType="0">
          <Node pos="l" depth="2" NCoef="0" IVar="-1" Cut="0.0000000000000000e+00" cType="1" res="-2.5550345890223980e-04" rms="4.5415693521499634e-01" purity="3.6543524265289307e-01" nType="-99"/>
          <Node pos="r" depth="2" NCoef="0" IVar="-1" Cut="0.0000000000000000e+00" cType="1" res="-1.4625637559220195e-03" rms="4.5489254593849182e-01" purity="3.4426370263099670e-01" nType="-99"/>
        </Node>
        <Node pos="r" depth="1" NCoef="0" IVar="3" Cut="5.3871345520019531e-01" cType="1" res="1.4314206317067146e-02" rms="4.5225852727890015e-01" purity="6.3610887527465820e-01" nType="0">
          <Node pos="l" depth="2" NCoef="0" IVar="-1" Cut="0.0000000000000000e+00" cType="1" res="1.0429443791508675e-03" rms="4.5642128586769104e-01" purity="6.2580877542495728e-01" nType="-99"/>
          <Node pos="r" depth="2" NCoef="0" IVar="-1" Cut="0.0000000000000000e+00" cType="1" res="-5.4045383876655251e-05" rms="4.4885566830635071e-01" purity="6.4259046316146851e-01" nType="-99"/>
        </Node>
      </Node>
    </BinaryTree>
    <BinaryTree type="DecisionTree" boostWeight="1.0000000000000000e+00" itree="596">
      <Node pos="s" depth="0" NCoef="0" IVar="7" Cut="2.2741864621639252e-01" cType="1" res="5.3969291038811207e-03" rms="4.5454078912734985e-01" purity="5.0300782918930054e-01" nType="0">
        <Node pos="l" depth="1" NCoef="0" IVar="2" Cut="6.5140056610107422e-01" cType="1" res="1.3911618152633309e-03" rms="4.5408561825752258e-01" purity="4.9402844905853271e-01" nType="0">
          <Node pos="l" depth="2" NCoef="0" IVar="-1" Cut="0.0000000000000000e+00" cType="1" res="6.7615794250741601e-04" rms="4.5203763246536255e-01" purity="5.7264786958694458e-01" nType="-99"/>
          <Node pos="r" depth="2" NCoef="0" IVar="-1" Cut="0.0000000000000000e+00" cType="1" res="-3.5173384821973741e-04" rms="4.5475360751152039e-01" purity="4.5113486051559448e-01" nType="-99"/>
        </Node>
        <Node pos="r" depth="1" NCoef="0" IVar="-1" Cut="0.0000000000000000e+00" cType="1" res="1.5917893033474684e-03" rms="4.5722079277038574e-01" purity="6.2392723560333252e-01" nType="-99"/>
      </Node>
    </BinaryTree>
    <BinaryTree type="DecisionTree" boostWeight="1.0000000000000000e+00" itree="597">
      <Node pos="s" depth="0" NCoef="0" IVar="7" Cut="1.6135491430759430e-01" cType="1" res="4.6053188852965832e-03" rms="4.5480108261108398e-01" purity="5.0457888841629028e-01" nType="0">
        <Node pos="l" depth="1" NCoef="0" IVar="6" Cut="4.5308294296264648e+00" cType="1" res="-2.0774090662598610e-03" rms="4.5392185449600220e-01" purity="4.8611858487129211e-01" nType="0">
          <Node pos="l" depth="2" NCoef="0" IVar="-1" Cut="0.0000000000000000e+00" cType="1" res="-2.7118326397612691e-04" rms="4.6036893129348755e-01" purity="4.3888410925865173e-01" nType="-99"/>
          <Node pos="r" depth="2" NCoef="0" IVar="-1" Cut="0.0000000000000000e+00" cType="1" res="9.1200054157525301e-04" rms="4.1293197870254517e-01" purity="7.5887751579284668e-01" nType="-99"/>
        </Node>
        <Node pos="r" depth="1" NCoef="0" IVar="4" Cut="8.9065528869628906e+01" cType="1" res="3.8199461996555328e-02" rms="4.5771986246109009e-01" purity="5.9737896919250488e-01" nType="0">
          <Node pos="l" depth="2" NCoef="0" IVar="-1" Cut="0.0000000000000000e+00" cType="1" res="1.4537733513861895e-03" rms="4.5628657937049866e-01" purity="5.8647114038467407e-01" nType="-99"/>
          <Node pos="r" depth="2" NCoef="0" IVar="-1" Cut="0.0000000000000000e+00" cType="1" res="3.9590778760612011e-04" rms="4.5925042033195496e-01" purity="6.1653542518615723e-01" nType="-99"/>
        </Node>
      </Node>
    </BinaryTree>
    <BinaryTree type="DecisionTree" boostWeight="1.0000000000000000e+00" itree="598">
      <Node pos="s" depth="0" NCoef="0" IVar="4" Cut="1.1953688049316406e+02" cType="1" res="6.0058869421482086e-03" rms="4.5617064833641052e-01" purity="5.0226897001266479e-01" nType="0">
        <Node pos="l" depth="1" NCoef="0" IVar="5" Cut="2.7189910411834717e+00" cType="1" res="-6.6237087594345212e-04" rms="4.5525068044662476e-01" purity="4.7748357057571411e-01" nType="0">
          <Node pos="l" depth="2" NCoef="0" IVar="-1" Cut="0.0000000000000000e+00" cType="1" res="1.2619511107914150e-04" rms="4.5982500910758972e-01" purity="5.0403302907943726e-01" nType="-99"/>
          <Node pos="r" depth="2" NCoef="0" IVar="-1" Cut="0.0000000000000000e+00" cType="1" res="-2.1746654529124498e-03" rms="4.1073030233383179e-01" purity="2.4516370892524719e-01" nType="-99"/>
        </Node>
        <Node pos="r" depth="1" NCoef="0" IVar="9" Cut="9.3789688110351562e+01" cType="1" res="3.4551445394754410e-02" rms="4.5899432897567749e-01" purity="6.0837095975875854e-01" nType="0">
          <Node pos="l" depth="2" NCoef="0" IVar="-1" Cut="0.0000000000000000e+00" cType="1" res="3.0671144486404955e-04" rms="4.5929583907127380e-01" purity="5.7735723257064819e-01" nType="-99"/>
          <Node pos="r" depth="2" NCoef="0" IVar="-1" Cut="0.0000000000000000e+00" cType="1" res="1.3411160325631499e-03" rms="4.5818692445755005e-01" purity="6.2789523601531982e-01" nType="-99"/>
        </Node>
      </Node>
    </BinaryTree>
    <BinaryTree type="DecisionTree" boostWeight="1.0000000000000000e+00" itree="599">
      <Node pos="s" depth="0" NCoef="0" IVar="8" Cut="9.2840309143066406e+01" cType="1" res="3.7191850133240223e-03" rms="4.5492705702781677e-01" purity="5.0245559215545654e-01" nType="0">
        <Node pos="l" depth="1" NCoef="0" IVar="0" Cut="1.0570619106292725e+00" cType="1" res="-3.7160325795412064e-02" rms="4.4944146275520325e-01" purity="4.1617077589035034e-01" nType="0">
          <Node pos="l" depth="2" NCoef="0" IVar="-1" Cut="0.0000000000000000e+00" cType="1" res="-2.9194139642640948e-04" rms="4.6273800730705261e-01" purity="4.7463211417198181e-01" nType="-99"/>
          <Node pos="r" depth="2" NCoef="0" IVar="-1" Cut="0.0000000000000000e+00" cType="1" res="-2.5201837997883558e-03" rms="4.3321463465690613e-01" purity="3.5513645410537720e-01" nType="-99"/>
        </Node>
        <Node pos="r" depth="1" NCoef="0" IVar="5" Cut="1.9498484134674072e+00" cType="1" res="8.4488019347190857e-03" rms="4.5532062649726868e-01" purity="5.1243847608566284e-01" nType="0">
          <Node pos="l" depth="2" NCoef="0" IVar="-1" Cut="0.0000000000000000e+00" cType="1" res="9.7635493148118258e-04" rms="4.5112201571464539e-01" purity="6.0876750946044922e-01" nType="-99"/>
          <Node pos="r" depth="2" NCoef="0" IVar="-1" Cut="0.0000000000000000e+00" cType="1" res="6.0609368119912688e-06" rms="4.5628830790519714e-01" purity="4.8277568817138672e-01" nType="-99"/>
        </Node>
      </Node>
    </BinaryTree>
    <BinaryTree type="DecisionTree" boostWeight="1.0000000000000000e+00" itree="600">
      <Node pos="s" depth="0" NCoef="0" IVar="3" Cut="1.3225997984409332e-01" cType="1" res="1.0815841378644109e-03" rms="4.5498281717300415e-01" purity="4.9863314628601074e-01" nType="0">
        <Node pos="l" depth="1" NCoef="0" IVar="-1" Cut="0.0000000000000000e+00" cType="1" res="1.8619074253365397e-03" rms="4.6128091216087341e-01" purity="4.6190217137336731e-01" nType="-99"/>
        <Node pos="r" depth="1" NCoef="0" IVar="6" Cut="3.7567570209503174e+00" cType="1" res="-2.9631750658154488e-03" rms="4.5424553751945496e-01" purity="5.0142657756805420e-01" nType="0">
          <Node pos="l" depth="2" NCoef="0" IVar="-1" Cut="0.0000000000000000e+00" cType="1" res="-4.2444470454938710e-04" rms="4.6219727396965027e-01" purity="4.1328844428062439e-01" nType="-99"/>
          <Node pos="r" depth="2" NCoef="0" IVar="-1" Cut="0.0000000000000000e+00" cType="1" res="5.1927502499893308e-04" rms="4.3427193164825439e-01" purity="7.0737779140472412e-01" nType="-99"/>
        </Node>
      </Node>
    </BinaryTree>
    <BinaryTree type="DecisionTree" boostWeight="1.0000000000000000e+00" itree="601">
      <Node pos="s" depth="0" NCoef="0" IVar="4" Cut="8.3627746582031250e+01" cType="1" res="2.6638034614734352e-04" rms="4.5392885804176331e-01" purity="4.9826440215110779e-01" nType="0">
        <Node pos="l" depth="1" NCoef="0" IVar="6" Cut="2.3642094135284424e+00" cType="1" res="-1.1780672706663609e-02" rms="4.5208653807640076e-01" purity="4.5404997467994690e-01" nType="0">
          <Node pos="l" depth="2" NCoef="0" IVar="-1" Cut="0.0000000000000000e+00" cType="1" res="-1.3499252963811159e-03" rms="4.3093389272689819e-01" purity="2.8703370690345764e-01" nType="-99"/>
          <Node pos="r" depth="2" NCoef="0" IVar="-1" Cut="0.0000000000000000e+00" cType="1" res="2.2744356101611629e-05" rms="4.6557226777076721e-01" purity="5.6819617748260498e-01" nType="-99"/>
        </Node>
        <Node pos="r" depth="1" NCoef="0" IVar="0" Cut="7.0970332622528076e-01" cType="1" res="1.9931105896830559e-02" rms="4.5623728632926941e-01" purity="5.7043671607971191e-01" nType="0">
          <Node pos="l" depth="2" NCoef="0" IVar="-1" Cut="0.0000000000000000e+00" cType="1" res="1.4985300367698073e-03" rms="4.5350420475006104e-01" purity="6.4600807428359985e-01" nType="-99"/>
          <Node pos="r" depth="2" NCoef="0" IVar="-1" Cut="0.0000000000000000e+00" cType="1" res="3.3152956166304648e-04" rms="4.5644694566726685e-01" purity="5.5268561840057373e-01" nType="-99"/>
        </Node>
      </Node>
    </BinaryTree>
    <BinaryTree type="DecisionTree" boostWeight="1.0000000000000000e+00" itree="602">
      <Node pos="s" depth="0" NCoef="0" IVar="2" Cut="1.0165065526962280e+00" cType="1" res="-2.5298772379755974e-03" rms="4.5580682158470154e-01" purity="4.9493849277496338e-01" nType="0">
        <Node pos="l" depth="1" NCoef="0" IVar="0" Cut="1.6267513036727905e+00" cType="1" res="4.8537324182689190e-03" rms="4.5713198184967041e-01" purity="5.2040362358093262e-01" nType="0">
          <Node pos="l" depth="2" NCoef="0" IVar="-1" Cut="0.0000000000000000e+00" cType="1" res="2.8583261882886291e-04" rms="4.5794892311096191e-01" purity="5.3312778472900391e-01" nType="-99"/>
          <Node pos="r" depth="2" NCoef="0" IVar="-1" Cut="0.0000000000000000e+00" cType="1" res="-1.1478420346975327e-03" rms="4.4862991571426392e-01" purity="4.1630360484123230e-01" nType="-99"/>
        </Node>
        <Node pos="r" depth="1" NCoef="0" IVar="4" Cut="1.0410167694091797e+02" cType="1" res="-2.8244797140359879e-02" rms="4.5021703839302063e-01" purity="4.0625092387199402e-01" nType="0">
          <Node pos="l" depth="2" NCoef="0" IVar="-1" Cut="0.0000000000000000e+00" cType="1" res="-1.4796614414080977e-03" rms="4.4531801342964172e-01" purity="3.7067836523056030e-01" nType="-99"/>
          <Node pos="r" depth="2" NCoef="0" IVar="-1" Cut="0.0000000000000000e+00" cType="1" res="1.7353394650854170e-04" rms="4.6327778697013855e-01" purity="5.1555043458938599e-01" nType="-99"/>
        </Node>
      </Node>
    </BinaryTree>
    <BinaryTree type="DecisionTree" boostWeight="1.0000000000000000e+00" itree="603">
      <Node pos="s" depth="0" NCoef="0" IVar="2" Cut="5.8402764797210693e-01" cType="1" res="-5.8398820692673326e-04" rms="4.5568564534187317e-01" purity="4.9611487984657288e-01" nType="0">
        <Node pos="l" depth="1" NCoef="0" IVar="5" Cut="2.2378139495849609e+00" cType="1" res="2.2318119183182716e-02" rms="4.5311808586120605e-01" purity="5.7810080051422119e-01" nType="0">
          <Node pos="l" depth="2" NCoef="0" IVar="-1" Cut="0.0000000000000000e+00" cType="1" res="9.4320456264540553e-04" rms="4.4982358813285828e-01" purity="6.1735111474990845e-01" nType="-99"/>
          <Node pos="r" depth="2" NCoef="0" IVar="-1" Cut="0.0000000000000000e+00" cType="1" res="-1.6412600234616548e-04" rms="4.5974424481391907e-01" purity="4.8417291045188904e-01" nType="-99"/>
        </Node>
        <Node pos="r" depth="1" NCoef="0" IVar="4" Cut="4.1005016326904297e+01" cType="1" res="-8.7078390643000603e-03" rms="4.5631685853004456e-01" purity="4.6703276038169861e-01" nType="0">
          <Node pos="l" depth="2" NCoef="0" IVar="-1" Cut="0.0000000000000000e+00" cType="1" res="-1.3563135871663690e-03" rms="4.4819015264511108e-01" purity="3.8960853219032288e-01" nType="-99"/>
          <Node pos="r" depth="2" NCoef="0" IVar="-1" Cut="0.0000000000000000e+00" cType="1" res="-1.8146744196201325e-06" rms="4.5842191576957703e-01" purity="4.9068325757980347e-01" nType="-99"/>
        </Node>
      </Node>
    </BinaryTree>
    <BinaryTree type="DecisionTree" boostWeight="1.0000000000000000e+00" itree="604">
      <Node pos="s" depth="0" NCoef="0" IVar="9" Cut="1.6576881408691406e+02" cType="1" res="6.0376836918294430e-03" rms="4.5709466934204102e-01" purity="5.0277066230773926e-01" nType="0">
        <Node pos="l" depth="1" NCoef="0" IVar="8" Cut="1.4167343139648438e+02" cType="1" res="8.7136402726173401e-05" rms="4.5742490887641907e-01" purity="4.9532496929168701e-01" nType="0">
          <Node pos="l" depth="2" NCoef="0" IVar="-1" Cut="0.0000000000000000e+00" cType="1" res="2.3775227600708604e-04" rms="4.5657920837402344e-01" purity="5.0126820802688599e-01" nType="-99"/>
          <Node pos="r" depth="2" NCoef="0" IVar="-1" Cut="0.0000000000000000e+00" cType="1" res="-1.3557422207668424e-03" rms="4.5983734726905823e-01" purity="4.6278998255729675e-01" nType="-99"/>
        </Node>
        <Node pos="r" depth="1" NCoef="0" IVar="1" Cut="6.6486193847656250e+02" cType="1" res="5.2920542657375336e-02" rms="4.5175123214721680e-01" purity="5.6143337488174438e-01" nType="0">
          <Node pos="l" depth="2" NCoef="0" IVar="-1" Cut="0.0000000000000000e+00" cType="1" res="8.1272830720990896e-04" rms="4.5253425836563110e-01" purity="4.6671658754348755e-01" nType="-99"/>
          <Node pos="r" depth="2" NCoef="0" IVar="-1" Cut="0.0000000000000000e+00" cType="1" res="2.1147828083485365e-03" rms="4.4958427548408508e-01" purity="6.4596772193908691e-01" nType="-99"/>
        </Node>
      </Node>
    </BinaryTree>
    <BinaryTree type="DecisionTree" boostWeight="1.0000000000000000e+00" itree="605">
      <Node pos="s" depth="0" NCoef="0" IVar="8" Cut="1.3785633850097656e+02" cType="1" res="6.0862698592245579e-03" rms="4.5484149456024170e-01" purity="5.0541108846664429e-01" nType="0">
        <Node pos="l" depth="1" NCoef="0" IVar="6" Cut="1.7265646457672119e+00" cType="1" res="1.4712113887071609e-02" rms="4.5337882637977600e-01" purity="5.1146841049194336e-01" nType="0">
          <Node pos="l" depth="2" NCoef="0" IVar="-1" Cut="0.0000000000000000e+00" cType="1" res="-8.3535758312791586e-04" rms="4.3907511234283447e-01" purity="2.9905840754508972e-01" nType="-99"/>
          <Node pos="r" depth="2" NCoef="0" IVar="-1" Cut="0.0000000000000000e+00" cType="1" res="6.9068302400410175e-04" rms="4.5700898766517639e-01" purity="5.7347738742828369e-01" nType="-99"/>
        </Node>
        <Node pos="r" depth="1" NCoef="0" IVar="9" Cut="8.5797927856445312e+01" cType="1" res="-1.8909571692347527e-02" rms="4.5813739299774170e-01" purity="4.8785817623138428e-01" nType="0">
          <Node pos="l" depth="2" NCoef="0" IVar="-1" Cut="0.0000000000000000e+00" cType="1" res="-1.9046682864427567e-03" rms="4.5609033107757568e-01" purity="4.3918934464454651e-01" nType="-99"/>
          <Node pos="r" depth="2" NCoef="0" IVar="-1" Cut="0.0000000000000000e+00" cType="1" res="-1.0791676686494611e-05" rms="4.5796656608581543e-01" purity="5.1133263111114502e-01" nType="-99"/>
        </Node>
      </Node>
    </BinaryTree>
    <BinaryTree type="DecisionTree" boostWeight="1.0000000000000000e+00" itree="606">
      <Node pos="s" depth="0" NCoef="0" IVar="6" Cut="3.2317957878112793e+00" cType="1" res="-7.2417920455336571e-04" rms="4.5439255237579346e-01" purity="4.9737611413002014e-01" nType="0">
        <Node pos="l" depth="1" NCoef="0" IVar="3" Cut="2.2871012985706329e-01" cType="1" res="-1.1834841221570969e-02" rms="4.5938536524772644e-01" purity="3.8655865192413330e-01" nType="0">
          <Node pos="l" depth="2" NCoef="0" IVar="-1" Cut="0.0000000000000000e+00" cType="1" res="3.4114829031750560e-04" rms="4.5726206898689270e-01" purity="3.9516699314117432e-01" nType="-99"/>
          <Node pos="r" depth="2" NCoef="0" IVar="-1" Cut="0.0000000000000000e+00" cType="1" res="-9.5937564037740231e-04" rms="4.6035394072532654e-01" purity="3.8000819087028503e-01" nType="-99"/>
        </Node>
        <Node pos="r" depth="1" NCoef="0" IVar="3" Cut="4.5947429537773132e-01" cType="1" res="1.6529412940144539e-02" rms="4.4598028063774109e-01" purity="6.6946297883987427e-01" nType="0">
          <Node pos="l" depth="2" NCoef="0" IVar="-1" Cut="0.0000000000000000e+00" cType="1" res="1.8304521217942238e-03" rms="4.4059711694717407e-01" purity="7.0097953081130981e-01" nType="-99"/>
          <Node pos="r" depth="2" NCoef="0" IVar="-1" Cut="0.0000000000000000e+00" cType="1" res="-2.7957848942605779e-06" rms="4.4607719779014587e-01" purity="6.6058278083801270e-01" nType="-99"/>
        </Node>
      </Node>
    </BinaryTree>
    <BinaryTree type="DecisionTree" boostWeight="1.0000000000000000e+00" itree="607">
      <Node pos="s" depth="0" NCoef="0" IVar="6" Cut="1.3438338041305542e+00" cType="1" res="2.0877567585557699e-03" rms="4.5378518104553223e-01" purity="5.0110441446304321e-01" nType="0">
        <Node pos="l" depth="1" NCoef="0" IVar="6" Cut="8.3523827791213989e-01" cType="1" res="-3.2426066696643829e-02" rms="4.2627978324890137e-01" purity="2.6994732022285461e-01" nType="0">
          <Node pos="l" depth="2" NCoef="0" IVar="-1" Cut="0.0000000000000000e+00" cType="1" res="-3.4380708821117878e-03" rms="4.0773460268974304e-01" purity="2.2872272133827209e-01" nType="-99"/>
          <Node pos="r" depth="2" NCoef="0" IVar="-1" Cut="0.0000000000000000e+00" cType="1" res="-6.4171361736953259e-04" rms="4.3587255477905273e-01" purity="2.9438105225563049e-01" nType="-99"/>
        </Node>
        <Node pos="r" depth="1" NCoef="0" IVar="3" Cut="2.0968163013458252e-01" cType="1" res="7.6026059687137604e-03" rms="4.5778611302375793e-01" purity="5.3804022073745728e-01" nType="0">
          <Node pos="l" depth="2" NCoef="0" IVar="-1" Cut="0.0000000000000000e+00" cType="1" res="1.6072208527475595e-03" rms="4.6852561831474304e-01" purity="5.2798449993133545e-01" nType="-99"/>
          <Node pos="r" depth="2" NCoef="0" IVar="-1" Cut="0.0000000000000000e+00" cType="1" res="-4.0908500523073599e-05" rms="4.5513424277305603e-01" purity="5.3998410701751709e-01" nType="-99"/>
        </Node>
      </Node>
    </BinaryTree>
    <BinaryTree type="DecisionTree" boostWeight="1.0000000000000000e+00" itree="608">
      <Node pos="s" depth="0" NCoef="0" IVar="4" Cut="7.1639289855957031e+01" cType="1" res="-1.0088173439726233e-03" rms="4.5580613613128662e-01" purity="4.9659711122512817e-01" nType="0">
        <Node pos="l" depth="1" NCoef="0" IVar="7" Cut="-4.0429186075925827e-02" cType="1" res="-1.4707911759614944e-02" rms="4.5120951533317566e-01" purity="4.4794040918350220e-01" nType="0">
          <Node pos="l" depth="2" NCoef="0" IVar="-1" Cut="0.0000000000000000e+00" cType="1" res="-1.2439639540389180e-03" rms="4.4031479954719543e-01" purity="3.9805212616920471e-01" nType="-99"/>
          <Node pos="r" depth="2" NCoef="0" IVar="-1" Cut="0.0000000000000000e+00" cType="1" res="-6.7395485530141741e-05" rms="4.5772308111190796e-01" purity="4.8042103648185730e-01" nType="-99"/>
        </Node>
        <Node pos="r" depth="1" NCoef="0" IVar="8" Cut="1.0197555541992188e+02" cType="1" res="1.4245196245610714e-02" rms="4.6039116382598877e-01" purity="5.5077654123306274e-01" nType="0">
          <Node pos="l" depth="2" NCoef="0" IVar="-1" Cut="0.0000000000000000e+00" cType="1" res="-6.9640431320294738e-04" rms="4.6205633878707886e-01" purity="4.7735625505447388e-01" nType="-99"/>
          <Node pos="r" depth="2" NCoef="0" IVar="-1" Cut="0.0000000000000000e+00" cType="1" res="6.2241480918601155e-04" rms="4.5972120761871338e-01" purity="5.6529211997985840e-01" nType="-99"/>
        </Node>
      </Node>
    </BinaryTree>
    <BinaryTree type="DecisionTree" boostWeight="1.0000000000000000e+00" itree="609">
      <Node pos="s" depth="0" NCoef="0" IVar="6" Cut="2.9377706050872803e+00" cType="1" res="5.3470092825591564e-03" rms="4.5388102531433105e-01" purity="5.0426435470581055e-01" nType="0">
        <Node pos="l" depth="1" NCoef="0" IVar="3" Cut="1.8084949254989624e-01" cType="1" res="-5.6344545446336269e-03" rms="4.5741206407546997e-01" purity="3.7994167208671570e-01" nType="0">
          <Node pos="l" depth="2" NCoef="0" IVar="-1" Cut="0.0000000000000000e+00" cType="1" res="8.4059801883995533e-04" rms="4.5606762170791626e-01" purity="4.1372537612915039e-01" nType="-99"/>
          <Node pos="r" depth="2" NCoef="0" IVar="-1" Cut="0.0000000000000000e+00" cType="1" res="-6.8418867886066437e-04" rms="4.5742064714431763e-01" purity="3.6455005407333374e-01" nType="-99"/>
        </Node>
        <Node pos="r" depth="1" NCoef="0" IVar="3" Cut="5.3871834278106689e-01" cType="1" res="1.8406776711344719e-02" rms="4.4929635524749756e-01" purity="6.5211582183837891e-01" nType="0">
          <Node pos="l" depth="2" NCoef="0" IVar="-1" Cut="0.0000000000000000e+00" cType="1" res="1.3337050331756473e-03" rms="4.5088827610015869e-01" purity="6.5530055761337280e-01" nType="-99"/>
          <Node pos="r" depth="2" NCoef="0" IVar="-1" Cut="0.0000000000000000e+00" cType="1" res="-1.9019969386135926e-06" rms="4.4734552502632141e-01" purity="6.5037447214126587e-01" nType="-99"/>
        </Node>
      </Node>
    </BinaryTree>
    <BinaryTree type="DecisionTree" boostWeight="1.0000000000000000e+00" itree="610">
      <Node pos="s" depth="0" NCoef="0" IVar="6" Cut="1.0258933305740356e+00" cType="1" res="3.7413237150758505e-03" rms="4.5374861359596252e-01" purity="5.0325345993041992e-01" nType="0">
        <Node pos="l" depth="1" NCoef="0" IVar="-1" Cut="0.0000000000000000e+00" cType="1" res="-2.5508669205009937e-03" rms="4.0794137120246887e-01" purity="2.4679820239543915e-01" nType="-99"/>
        <Node pos="r" depth="1" NCoef="0" IVar="7" Cut="-1.1163405328989029e-01" cType="1" res="8.3038089796900749e-03" rms="4.5714008808135986e-01" purity="5.2505129575729370e-01" nType="0">
          <Node pos="l" depth="2" NCoef="0" IVar="-1" Cut="0.0000000000000000e+00" cType="1" res="-1.7337250756099820e-03" rms="4.3765154480934143e-01" purity="3.9290639758110046e-01" nType="-99"/>
          <Node pos="r" depth="2" NCoef="0" IVar="-1" Cut="0.0000000000000000e+00" cType="1" res="3.6582048051059246e-04" rms="4.5820283889770508e-01" purity="5.3422039747238159e-01" nType="-99"/>
        </Node>
      </Node>
    </BinaryTree>
    <BinaryTree type="DecisionTree" boostWeight="1.0000000000000000e+00" itree="611">
      <Node pos="s" depth="0" NCoef="0" IVar="1" Cut="7.6791784667968750e+02" cType="1" res="1.5640337951481342e-03" rms="4.5549723505973816e-01" purity="4.9894610047340393e-01" nType="0">
        <Node pos="l" depth="1" NCoef="0" IVar="0" Cut="1.4428526163101196e+00" cType="1" res="-3.5795571748167276e-03" rms="4.5566824078559875e-01" purity="4.7602674365043640e-01" nType="0">
          <Node pos="l" depth="2" NCoef="0" IVar="-1" Cut="0.0000000000000000e+00" cType="1" res="1.3069584383629262e-04" rms="4.5828396081924438e-01" purity="4.9576795101165771e-01" nType="-99"/>
          <Node pos="r" depth="2" NCoef="0" IVar="-1" Cut="0.0000000000000000e+00" cType="1" res="-1.1416902998462319e-03" rms="4.4478723406791687e-01" purity="4.0364694595336914e-01" nType="-99"/>
        </Node>
        <Node pos="r" depth="1" NCoef="0" IVar="2" Cut="8.0418455600738525e-01" cType="1" res="3.2665252685546875e-02" rms="4.5322006940841675e-01" purity="6.3753008842468262e-01" nType="0">
          <Node pos="l" depth="2" NCoef="0" IVar="-1" Cut="0.0000000000000000e+00" cType="1" res="1.2302531395107508e-03" rms="4.4300699234008789e-01" purity="6.7873781919479370e-01" nType="-99"/>
          <Node pos="r" depth="2" NCoef="0" IVar="-1" Cut="0.0000000000000000e+00" cType="1" res="3.4734330256469548e-04" rms="4.6778702735900879e-01" purity="5.7398194074630737e-01" nType="-99"/>
        </Node>
      </Node>
    </BinaryTree>
    <BinaryTree type="DecisionTree" boostWeight="1.0000000000000000e+00" itree="612">
      <Node pos="s" depth="0" NCoef="0" IVar="5" Cut="2.8893353939056396e+00" cType="1" res="3.9139492437243462e-03" rms="4.5508024096488953e-01" purity="5.0155454874038696e-01" nType="0">
        <Node pos="l" depth="1" NCoef="0" IVar="3" Cut="3.0645495653152466e-01" cType="1" res="7.6413918286561966e-03" rms="4.5797374844551086e-01" purity="5.1753163337707520e-01" nType="0">
          <Node pos="l" depth="2" NCoef="0" IVar="-1" Cut="0.0000000000000000e+00" cType="1" res="8.8808208238333464e-04" rms="4.6147942543029785e-01" purity="4.4635874032974243e-01" nType="-99"/>
          <Node pos="r" depth="2" NCoef="0" IVar="-1" Cut="0.0000000000000000e+00" cType="1" res="-1.6300762945320457e-04" rms="4.5500770211219788e-01" purity="5.6786525249481201e-01" nType="-99"/>
        </Node>
        <Node pos="r" depth="1" NCoef="0" IVar="-1" Cut="0.0000000000000000e+00" cType="1" res="-3.6521377041935921e-03" rms="3.9191821217536926e-01" purity="2.0794391632080078e-01" nType="-99"/>
      </Node>
    </BinaryTree>
    <BinaryTree type="DecisionTree" boostWeight="1.0000000000000000e+00" itree="613">
      <Node pos="s" depth="0" NCoef="0" IVar="3" Cut="1.9032497704029083e-01" cType="1" res="5.2186888642609119e-03" rms="4.5502957701683044e-01" purity="5.0378274917602539e-01" nType="0">
        <Node pos="l" depth="1" NCoef="0" IVar="7" Cut="6.4378291368484497e-02" cType="1" res="3.6300633102655411e-02" rms="4.5937299728393555e-01" purity="4.4425967335700989e-01" nType="0">
          <Node pos="l" depth="2" NCoef="0" IVar="-1" Cut="0.0000000000000000e+00" cType="1" res="7.8646547626703978e-04" rms="4.5702221989631653e-01" purity="4.0750294923782349e-01" nType="-99"/>
          <Node pos="r" depth="2" NCoef="0" IVar="-1" Cut="0.0000000000000000e+00" cType="1" res="2.0789091940969229e-03" rms="4.6260949969291687e-01" purity="5.2106976509094238e-01" nType="-99"/>
        </Node>
        <Node pos="r" depth="1" NCoef="0" IVar="7" Cut="1.9649752974510193e-01" cType="1" res="-2.7203415520489216e-03" rms="4.5357212424278259e-01" purity="5.1898622512817383e-01" nType="0">
          <Node pos="l" depth="2" NCoef="0" IVar="-1" Cut="0.0000000000000000e+00" cType="1" res="-2.9013300081714988e-04" rms="4.5341321825981140e-01" purity="5.0377178192138672e-01" nType="-99"/>
          <Node pos="r" depth="2" NCoef="0" IVar="-1" Cut="0.0000000000000000e+00" cType="1" res="1.1841807281598449e-03" rms="4.5196965336799622e-01" purity="6.2598764896392822e-01" nType="-99"/>
        </Node>
      </Node>
    </BinaryTree>
    <BinaryTree type="DecisionTree" boostWeight="1.0000000000000000e+00" itree="614">
      <Node pos="s" depth="0" NCoef="0" IVar="7" Cut="-1.1426540464162827e-01" cType="1" res="-4.3223062530159950e-03" rms="4.5505103468894958e-01" purity="4.9365803599357605e-01" nType="0">
        <Node pos="l" depth="1" NCoef="0" IVar="-1" Cut="0.0000000000000000e+00" cType="1" res="-2.3906242568045855e-03" rms="4.3463385105133057e-01" purity="3.5665088891983032e-01" nType="-99"/>
        <Node pos="r" depth="1" NCoef="0" IVar="5" Cut="1.4522892236709595e+00" cType="1" res="-8.8415067875757813e-04" rms="4.5604509115219116e-01" purity="5.0203609466552734e-01" nType="0">
          <Node pos="l" depth="2" NCoef="0" IVar="-1" Cut="0.0000000000000000e+00" cType="1" res="1.3332384405657649e-03" rms="4.4166046380996704e-01" purity="6.4320832490921021e-01" nType="-99"/>
          <Node pos="r" depth="2" NCoef="0" IVar="-1" Cut="0.0000000000000000e+00" cType="1" res="-1.4616547559853643e-04" rms="4.5686498284339905e-01" purity="4.9162515997886658e-01" nType="-99"/>
        </Node>
      </Node>
    </BinaryTree>
    <BinaryTree type="DecisionTree" boostWeight="1.0000000000000000e+00" itree="615">
      <Node pos="s" depth="0" NCoef="0" IVar="6" Cut="4.9108719825744629e+00" cType="1" res="4.1799512691795826e-03" rms="4.5511361956596375e-01" purity="5.0260251760482788e-01" nType="0">
        <Node pos="l" depth="1" NCoef="0" IVar="3" Cut="5.9673190116882324e-01" cType="1" res="-4.3161425855942070e-04" rms="4.6199116110801697e-01" purity="4.6841800212860107e-01" nType="0">
          <Node pos="l" depth="2" NCoef="0" IVar="-1" Cut="0.0000000000000000e+00" cType="1" res="2.8464850038290024e-04" rms="4.5957666635513306e-01" purity="4.4688665866851807e-01" nType="-99"/>
          <Node pos="r" depth="2" NCoef="0" IVar="-1" Cut="0.0000000000000000e+00" cType="1" res="-1.0331607190892100e-03" rms="4.6987506747245789e-01" purity="5.5586832761764526e-01" nType="-99"/>
        </Node>
        <Node pos="r" depth="1" NCoef="0" IVar="-1" Cut="0.0000000000000000e+00" cType="1" res="1.2215779861435294e-03" rms="3.8834342360496521e-01" purity="7.9821342229843140e-01" nType="-99"/>
      </Node>
    </BinaryTree>
    <BinaryTree type="DecisionTree" boostWeight="1.0000000000000000e+00" itree="616">
      <Node pos="s" depth="0" NCoef="0" IVar="6" Cut="2.7610628604888916e+00" cType="1" res="7.4354433454573154e-03" rms="4.5384702086448669e-01" purity="5.0667828321456909e-01" nType="0">
        <Node pos="l" depth="1" NCoef="0" IVar="3" Cut="2.7006125450134277e-01" cType="1" res="-8.8437981903553009e-03" rms="4.5462250709533691e-01" purity="3.6711463332176208e-01" nType="0">
          <Node pos="l" depth="2" NCoef="0" IVar="-1" Cut="0.0000000000000000e+00" cType="1" res="3.4554526791907847e-04" rms="4.5600110292434692e-01" purity="3.8360792398452759e-01" nType="-99"/>
          <Node pos="r" depth="2" NCoef="0" IVar="-1" Cut="0.0000000000000000e+00" cType="1" res="-1.3784967595711350e-03" rms="4.5102381706237793e-01" purity="3.4144923090934753e-01" nType="-99"/>
        </Node>
        <Node pos="r" depth="1" NCoef="0" IVar="4" Cut="8.5648597717285156e+01" cType="1" res="2.3325089365243912e-02" rms="4.5252436399459839e-01" purity="6.4290189743041992e-01" nType="0">
          <Node pos="l" depth="2" NCoef="0" IVar="-1" Cut="0.0000000000000000e+00" cType="1" res="2.8863560874015093e-04" rms="4.6223887801170349e-01" purity="6.0644519329071045e-01" nType="-99"/>
          <Node pos="r" depth="2" NCoef="0" IVar="-1" Cut="0.0000000000000000e+00" cType="1" res="1.1475116480141878e-03" rms="4.3538865447044373e-01" purity="7.0244139432907104e-01" nType="-99"/>
        </Node>
      </Node>
    </BinaryTree>
    <BinaryTree type="DecisionTree" boostWeight="1.0000000000000000e+00" itree="617">
      <Node pos="s" depth="0" NCoef="0" IVar="8" Cut="1.3823445129394531e+02" cType="1" res="3.4758001565933228e-03" rms="4.5505622029304504e-01" purity="5.0050276517868042e-01" nType="0">
        <Node pos="l" depth="1" NCoef="0" IVar="1" Cut="5.6332672119140625e+02" cType="1" res="1.0649848729372025e-02" rms="4.5471677184104919e-01" purity="5.0460666418075562e-01" nType="0">
          <Node pos="l" depth="2" NCoef="0" IVar="-1" Cut="0.0000000000000000e+00" cType="1" res="1.7841975932242349e-05" rms="4.5388120412826538e-01" purity="4.3747574090957642e-01" nType="-99"/>
          <Node pos="r" depth="2" NCoef="0" IVar="-1" Cut="0.0000000000000000e+00" cType="1" res="7.5135257793590426e-04" rms="4.5560169219970703e-01" purity="6.1552363634109497e-01" nType="-99"/>
        </Node>
        <Node pos="r" depth="1" NCoef="0" IVar="9" Cut="1.7086474609375000e+02" cType="1" res="-1.7419517040252686e-02" rms="4.5539999008178711e-01" purity="4.8854953050613403e-01" nType="0">
          <Node pos="l" depth="2" NCoef="0" IVar="-1" Cut="0.0000000000000000e+00" cType="1" res="-1.0178241645917296e-03" rms="4.5494982600212097e-01" purity="4.7179371118545532e-01" nType="-99"/>
          <Node pos="r" depth="2" NCoef="0" IVar="-1" Cut="0.0000000000000000e+00" cType="1" res="4.8824539408087730e-04" rms="4.5476245880126953e-01" purity="5.2837675809860229e-01" nType="-99"/>
        </Node>
      </Node>
    </BinaryTree>
    <BinaryTree type="DecisionTree" boostWeight="1.0000000000000000e+00" itree="618">
      <Node pos="s" depth="0" NCoef="0" IVar="3" Cut="4.0322458744049072e-01" cType="1" res="4.6598850749433041e-03" rms="4.5643419027328491e-01" purity="5.0234264135360718e-01" nType="0">
        <Node pos="l" depth="1" NCoef="0" IVar="6" Cut="1.6044558286666870e+00" cType="1" res="1.5156823210418224e-02" rms="4.5710629224777222e-01" purity="4.3588528037071228e-01" nType="0">
          <Node pos="l" depth="2" NCoef="0" IVar="-1" Cut="0.0000000000000000e+00" cType="1" res="-8.8077993132174015e-04" rms="4.3640878796577454e-01" purity="2.9708805680274963e-01" nType="-99"/>
          <Node pos="r" depth="2" NCoef="0" IVar="-1" Cut="0.0000000000000000e+00" cType="1" res="1.0337213752791286e-03" rms="4.6725335717201233e-01" purity="5.1435923576354980e-01" nType="-99"/>
        </Node>
        <Node pos="r" depth="1" NCoef="0" IVar="6" Cut="3.9490318298339844e+00" cType="1" res="-7.6889032498002052e-03" rms="4.5533254742622375e-01" purity="5.8052420616149902e-01" nType="0">
          <Node pos="l" depth="2" NCoef="0" IVar="-1" Cut="0.0000000000000000e+00" cType="1" res="-9.5896306447684765e-04" rms="4.7307175397872925e-01" purity="4.5165804028511047e-01" nType="-99"/>
          <Node pos="r" depth="2" NCoef="0" IVar="-1" Cut="0.0000000000000000e+00" cType="1" res="4.6227683196775615e-04" rms="4.3463590741157532e-01" purity="7.1525609493255615e-01" nType="-99"/>
        </Node>
      </Node>
    </BinaryTree>
    <BinaryTree type="DecisionTree" boostWeight="1.0000000000000000e+00" itree="619">
      <Node pos="s" depth="0" NCoef="0" IVar="8" Cut="1.0104552459716797e+02" cType="1" res="1.2655395548790693e-03" rms="4.5533549785614014e-01" purity="4.9810823798179626e-01" nType="0">
        <Node pos="l" depth="1" NCoef="0" IVar="3" Cut="4.4193866848945618e-01" cType="1" res="-3.0534747987985611e-02" rms="4.5754829049110413e-01" purity="4.2848557233810425e-01" nType="0">
          <Node pos="l" depth="2" NCoef="0" IVar="-1" Cut="0.0000000000000000e+00" cType="1" res="-3.8674718234688044e-04" rms="4.4946011900901794e-01" purity="3.8075450062751770e-01" nType="-99"/>
          <Node pos="r" depth="2" NCoef="0" IVar="-1" Cut="0.0000000000000000e+00" cType="1" res="-1.7987724859267473e-03" rms="4.6729850769042969e-01" purity="4.9607521295547485e-01" nType="-99"/>
        </Node>
        <Node pos="r" depth="1" NCoef="0" IVar="0" Cut="1.6595072746276855e+00" cType="1" res="7.4966079555451870e-03" rms="4.5464012026786804e-01" purity="5.1175034046173096e-01" nType="0">
          <Node pos="l" depth="2" NCoef="0" IVar="-1" Cut="0.0000000000000000e+00" cType="1" res="3.6909137270413339e-04" rms="4.5559820532798767e-01" purity="5.2304714918136597e-01" nType="-99"/>
          <Node pos="r" depth="2" NCoef="0" IVar="-1" Cut="0.0000000000000000e+00" cType="1" res="-1.1456344509497285e-03" rms="4.4403305649757385e-01" purity="4.1191139817237854e-01" nType="-99"/>
        </Node>
      </Node>
    </BinaryTree>
    <BinaryTree type="DecisionTree" boostWeight="1.0000000000000000e+00" itree="620">
      <Node pos="s" depth="0" NCoef="0" IVar="6" Cut="2.7132918834686279e+00" cType="1" res="9.6406758530065417e-04" rms="4.5414656400680542e-01" purity="4.9977841973304749e-01" nType="0">
        <Node pos="l" depth="1" NCoef="0" IVar="9" Cut="1.5605192565917969e+02" cType="1" res="-1.3449860736727715e-02" rms="4.5445343852043152e-01" purity="3.5795328021049500e-01" nType="0">
          <Node pos="l" depth="2" NCoef="0" IVar="-1" Cut="0.0000000000000000e+00" cType="1" res="-8.1342423800379038e-04" rms="4.5263481140136719e-01" purity="3.4895744919776917e-01" nType="-99"/>
          <Node pos="r" depth="2" NCoef="0" IVar="-1" Cut="0.0000000000000000e+00" cType="1" res="1.4373118756338954e-03" rms="4.6335986256599426e-01" purity="4.2056569457054138e-01" nType="-99"/>
        </Node>
        <Node pos="r" depth="1" NCoef="0" IVar="3" Cut="5.9677940607070923e-01" cType="1" res="1.4476009644567966e-02" rms="4.5344278216362000e-01" purity="6.3272845745086670e-01" nType="0">
          <Node pos="l" depth="2" NCoef="0" IVar="-1" Cut="0.0000000000000000e+00" cType="1" res="1.0131199378520250e-03" rms="4.5730304718017578e-01" purity="6.2025713920593262e-01" nType="-99"/>
          <Node pos="r" depth="2" NCoef="0" IVar="-1" Cut="0.0000000000000000e+00" cType="1" res="-2.3054513440001756e-04" rms="4.4856733083724976e-01" purity="6.4451479911804199e-01" nType="-99"/>
        </Node>
      </Node>
    </BinaryTree>
    <BinaryTree type="DecisionTree" boostWeight="1.0000000000000000e+00" itree="621">
      <Node pos="s" depth="0" NCoef="0" IVar="6" Cut="1.5010296106338501e+00" cType="1" res="3.9321770891547203e-03" rms="4.5696058869361877e-01" purity="5.0017738342285156e-01" nType="0">
        <Node pos="l" depth="1" NCoef="0" IVar="9" Cut="7.9260147094726562e+01" cType="1" res="-2.3974929004907608e-02" rms="4.3365269899368286e-01" purity="2.8710591793060303e-01" nType="0">
          <Node pos="l" depth="2" NCoef="0" IVar="-1" Cut="0.0000000000000000e+00" cType="1" res="-2.1729655563831329e-03" rms="4.2307889461517334e-01" purity="2.5423619151115417e-01" nType="-99"/>
          <Node pos="r" depth="2" NCoef="0" IVar="-1" Cut="0.0000000000000000e+00" cType="1" res="-5.9249304467812181e-04" rms="4.3901151418685913e-01" purity="3.0524706840515137e-01" nType="-99"/>
        </Node>
        <Node pos="r" depth="1" NCoef="0" IVar="3" Cut="3.0645030736923218e-01" cType="1" res="9.8622618243098259e-03" rms="4.6154451370239258e-01" purity="5.4545366764068604e-01" nType="0">
          <Node pos="l" depth="2" NCoef="0" IVar="-1" Cut="0.0000000000000000e+00" cType="1" res="1.0698082624003291e-03" rms="4.6878865361213684e-01" purity="5.0394624471664429e-01" nType="-99"/>
          <Node pos="r" depth="2" NCoef="0" IVar="-1" Cut="0.0000000000000000e+00" cType="1" res="-2.6943029297399335e-05" rms="4.5798352360725403e-01" purity="5.6322598457336426e-01" nType="-99"/>
        </Node>
      </Node>
    </BinaryTree>
    <BinaryTree type="DecisionTree" boostWeight="1.0000000000000000e+00" itree="622">
      <Node pos="s" depth="0" NCoef="0" IVar="0" Cut="1.4820004701614380e+00" cType="1" res="9.3113497132435441e-04" rms="4.5592659711837769e-01" purity="4.9895146489143372e-01" nType="0">
        <Node pos="l" depth="1" NCoef="0" IVar="5" Cut="1.6837356090545654e+00" cType="1" res="7.3446170426905155e-03" rms="4.5685863494873047e-01" purity="5.1830989122390747e-01" nType="0">
          <Node pos="l" depth="2" NCoef="0" IVar="-1" Cut="0.0000000000000000e+00" cType="1" res="1.1209576623514295e-03" rms="4.4715362787246704e-01" purity="6.3163727521896362e-01" nType="-99"/>
          <Node pos="r" depth="2" NCoef="0" IVar="-1" Cut="0.0000000000000000e+00" cType="1" res="8.8653207058086991e-05" rms="4.5794567465782166e-01" purity="5.0323051214218140e-01" nType="-99"/>
        </Node>
        <Node pos="r" depth="1" NCoef="0" IVar="3" Cut="3.8384246826171875e-01" cType="1" res="-2.8010739013552666e-02" rms="4.5056253671646118e-01" purity="4.1159349679946899e-01" nType="0">
          <Node pos="l" depth="2" NCoef="0" IVar="-1" Cut="0.0000000000000000e+00" cType="1" res="-1.0361789463786408e-04" rms="4.4537770748138428e-01" purity="3.6274144053459167e-01" nType="-99"/>
          <Node pos="r" depth="2" NCoef="0" IVar="-1" Cut="0.0000000000000000e+00" cType="1" res="-1.8044012831524014e-03" rms="4.5462718605995178e-01" purity="4.6640688180923462e-01" nType="-99"/>
        </Node>
      </Node>
    </BinaryTree>
    <BinaryTree type="DecisionTree" boostWeight="1.0000000000000000e+00" itree="623">
      <Node pos="s" depth="0" NCoef="0" IVar="0" Cut="1.0928125381469727e+00" cType="1" res="5.0044781528413296e-03" rms="4.5739701390266418e-01" purity="5.0266021490097046e-01" nType="0">
        <Node pos="l" depth="1" NCoef="0" IVar="7" Cut="9.4667926430702209e-02" cType="1" res="1.6982154920697212e-02" rms="4.5940667390823364e-01" purity="5.4467368125915527e-01" nType="0">
          <Node pos="l" depth="2" NCoef="0" IVar="-1" Cut="0.0000000000000000e+00" cType="1" res="1.9856882863678038e-04" rms="4.5961236953735352e-01" purity="5.1672285795211792e-01" nType="-99"/>
          <Node pos="r" depth="2" NCoef="0" IVar="-1" Cut="0.0000000000000000e+00" cType="1" res="1.1740996269509196e-03" rms="4.5788940787315369e-01" purity="6.1279469728469849e-01" nType="-99"/>
        </Node>
        <Node pos="r" depth="1" NCoef="0" IVar="5" Cut="1.7363004684448242e+00" cType="1" res="-8.9353723451495171e-03" rms="4.5464983582496643e-01" purity="4.5376411080360413e-01" nType="0">
          <Node pos="l" depth="2" NCoef="0" IVar="-1" Cut="0.0000000000000000e+00" cType="1" res="7.4293965008109808e-04" rms="4.6135073900222778e-01" purity="5.6742930412292480e-01" nType="-99"/>
          <Node pos="r" depth="2" NCoef="0" IVar="-1" Cut="0.0000000000000000e+00" cType="1" res="-5.5151857668533921e-04" rms="4.5293939113616943e-01" purity="4.3058717250823975e-01" nType="-99"/>
        </Node>
      </Node>
    </BinaryTree>
    <BinaryTree type="DecisionTree" boostWeight="1.0000000000000000e+00" itree="624">
      <Node pos="s" depth="0" NCoef="0" IVar="1" Cut="8.8385144042968750e+02" cType="1" res="4.0336287929676473e-04" rms="4.5276278257369995e-01" purity="5.0094515085220337e-01" nType="0">
        <Node pos="l" depth="1" NCoef="0" IVar="6" Cut="1.2458413839340210e+00" cType="1" res="-4.2962227016687393e-03" rms="4.5315894484519958e-01" purity="4.8549190163612366e-01" nType="0">
          <Node pos="l" depth="2" NCoef="0" IVar="-1" Cut="0.0000000000000000e+00" cType="1" res="-2.0979470573365688e-03" rms="4.1805851459503174e-01" purity="2.4737942218780518e-01" nType="-99"/>
          <Node pos="r" depth="2" NCoef="0" IVar="-1" Cut="0.0000000000000000e+00" cType="1" res="1.6309986676787958e-05" rms="4.5743179321289062e-01" purity="5.1733064651489258e-01" nType="-99"/>
        </Node>
        <Node pos="r" depth="1" NCoef="0" IVar="-1" Cut="0.0000000000000000e+00" cType="1" res="1.4166082255542278e-03" rms="4.4508883357048035e-01" purity="6.7141139507293701e-01" nType="-99"/>
      </Node>
    </BinaryTree>
    <BinaryTree type="DecisionTree" boostWeight="1.0000000000000000e+00" itree="625">
      <Node pos="s" depth="0" NCoef="0" IVar="5" Cut="1.6510969400405884e+00" cType="1" res="2.4294392205774784e-03" rms="4.5411464571952820e-01" purity="5.0093168020248413e-01" nType="0">
        <Node pos="l" depth="1" NCoef="0" IVar="-1" Cut="0.0000000000000000e+00" cType="1" res="1.1873379116877913e-03" rms="4.5317140221595764e-01" purity="6.1744678020477295e-01" nType="-99"/>
        <Node pos="r" depth="1" NCoef="0" IVar="9" Cut="9.0891426086425781e+01" cType="1" res="-3.1448656227439642e-03" rms="4.5395246148109436e-01" purity="4.8527395725250244e-01" nType="0">
          <Node pos="l" depth="2" NCoef="0" IVar="-1" Cut="0.0000000000000000e+00" cType="1" res="-8.2488590851426125e-04" rms="4.5177209377288818e-01" purity="4.3455189466476440e-01" nType="-99"/>
          <Node pos="r" depth="2" NCoef="0" IVar="-1" Cut="0.0000000000000000e+00" cType="1" res="3.1702578417025506e-04" rms="4.5480325818061829e-01" purity="5.1702123880386353e-01" nType="-99"/>
        </Node>
      </Node>
    </BinaryTree>
    <BinaryTree type="DecisionTree" boostWeight="1.0000000000000000e+00" itree="626">
      <Node pos="s" depth="0" NCoef="0" IVar="6" Cut="5.0634036064147949e+00" cType="1" res="-1.6170736635103822e-03" rms="4.5374089479446411e-01" purity="4.9552348256111145e-01" nType="0">
        <Node pos="l" depth="1" NCoef="0" IVar="3" Cut="4.6125724911689758e-01" cType="1" res="-6.4227846451103687e-03" rms="4.5937904715538025e-01" purity="4.6681526303291321e-01" nType="0">
          <Node pos="l" depth="2" NCoef="0" IVar="-1" Cut="0.0000000000000000e+00" cType="1" res="2.3485964629799128e-04" rms="4.5678249001502991e-01" purity="4.3199014663696289e-01" nType="-99"/>
          <Node pos="r" depth="2" NCoef="0" IVar="-1" Cut="0.0000000000000000e+00" cType="1" res="-9.1402808902785182e-04" rms="4.6319526433944702e-01" purity="5.3257691860198975e-01" nType="-99"/>
        </Node>
        <Node pos="r" depth="1" NCoef="0" IVar="-1" Cut="0.0000000000000000e+00" cType="1" res="1.3954790774732828e-03" rms="3.8355642557144165e-01" purity="8.0668777227401733e-01" nType="-99"/>
      </Node>
    </BinaryTree>
    <BinaryTree type="DecisionTree" boostWeight="1.0000000000000000e+00" itree="627">
      <Node pos="s" depth="0" NCoef="0" IVar="3" Cut="1.5161632001399994e-01" cType="1" res="4.2947102338075638e-03" rms="4.5488202571868896e-01" purity="5.0409543514251709e-01" nType="0">
        <Node pos="l" depth="1" NCoef="0" IVar="6" Cut="1.3290711641311646e+00" cType="1" res="4.1337627917528152e-02" rms="4.5763283967971802e-01" purity="4.5390087366104126e-01" nType="0">
          <Node pos="l" depth="2" NCoef="0" IVar="-1" Cut="0.0000000000000000e+00" cType="1" res="5.3184828720986843e-04" rms="4.5349857211112976e-01" purity="3.3433866500854492e-01" nType="-99"/>
          <Node pos="r" depth="2" NCoef="0" IVar="-1" Cut="0.0000000000000000e+00" cType="1" res="1.9765498582273722e-03" rms="4.5981985330581665e-01" purity="5.6783187389373779e-01" nType="-99"/>
        </Node>
        <Node pos="r" depth="1" NCoef="0" IVar="6" Cut="1.8427237272262573e+00" cType="1" res="-4.5571726514026523e-04" rms="4.5430961251258850e-01" purity="5.1053243875503540e-01" nType="0">
          <Node pos="l" depth="2" NCoef="0" IVar="-1" Cut="0.0000000000000000e+00" cType="1" res="-1.2986658839508891e-03" rms="4.3469357490539551e-01" purity="2.8704944252967834e-01" nType="-99"/>
          <Node pos="r" depth="2" NCoef="0" IVar="-1" Cut="0.0000000000000000e+00" cType="1" res="1.9293077639304101e-04" rms="4.5881560444831848e-01" purity="5.6654876470565796e-01" nType="-99"/>
        </Node>
      </Node>
    </BinaryTree>
    <BinaryTree type="DecisionTree" boostWeight="1.0000000000000000e+00" itree="628">
      <Node pos="s" depth="0" NCoef="0" IVar="8" Cut="9.2840309143066406e+01" cType="1" res="1.6073915176093578e-03" rms="4.5476958155632019e-01" purity="5.0039261579513550e-01" nType="0">
        <Node pos="l" depth="1" NCoef="0" IVar="7" Cut="-8.2106580957770348e-03" cType="1" res="-3.3994436264038086e-02" rms="4.5581585168838501e-01" purity="4.1115680336952209e-01" nType="0">
          <Node pos="l" depth="2" NCoef="0" IVar="-1" Cut="0.0000000000000000e+00" cType="1" res="-8.4606546442955732e-04" rms="4.5208543539047241e-01" purity="3.8643559813499451e-01" nType="-99"/>
          <Node pos="r" depth="2" NCoef="0" IVar="-1" Cut="0.0000000000000000e+00" cType="1" res="-1.5154276043176651e-03" rms="4.5926234126091003e-01" purity="4.3579447269439697e-01" nType="-99"/>
        </Node>
        <Node pos="r" depth="1" NCoef="0" IVar="2" Cut="6.5140056610107422e-01" cType="1" res="5.6209270842373371e-03" rms="4.5447656512260437e-01" purity="5.1045256853103638e-01" nType="0">
          <Node pos="l" depth="2" NCoef="0" IVar="-1" Cut="0.0000000000000000e+00" cType="1" res="6.4438831759616733e-04" rms="4.5125204324722290e-01" purity="5.8385533094406128e-01" nType="-99"/>
          <Node pos="r" depth="2" NCoef="0" IVar="-1" Cut="0.0000000000000000e+00" cType="1" res="-1.0803133045556024e-04" rms="4.5593845844268799e-01" purity="4.7121644020080566e-01" nType="-99"/>
        </Node>
      </Node>
    </BinaryTree>
    <BinaryTree type="DecisionTree" boostWeight="1.0000000000000000e+00" itree="629">
      <Node pos="s" depth="0" NCoef="0" IVar="6" Cut="8.5271352529525757e-01" cType="1" res="7.4180071242153645e-03" rms="4.5563527941703796e-01" purity="5.0464075803756714e-01" nType="0">
        <Node pos="l" depth="1" NCoef="0" IVar="-1" Cut="0.0000000000000000e+00" cType="1" res="-2.6372417341917753e-03" rms="4.1018089652061462e-01" purity="2.4269045889377594e-01" nType="-99"/>
        <Node pos="r" depth="1" NCoef="0" IVar="3" Cut="2.4838913977146149e-01" cType="1" res="1.0781625285744667e-02" rms="4.5790779590606689e-01" purity="5.1983261108398438e-01" nType="0">
          <Node pos="l" depth="2" NCoef="0" IVar="-1" Cut="0.0000000000000000e+00" cType="1" res="1.2678197817876935e-03" rms="4.6295729279518127e-01" purity="4.6434229612350464e-01" nType="-99"/>
          <Node pos="r" depth="2" NCoef="0" IVar="-1" Cut="0.0000000000000000e+00" cType="1" res="3.0556952879123855e-07" rms="4.5546150207519531e-01" purity="5.4157930612564087e-01" nType="-99"/>
        </Node>
      </Node>
    </BinaryTree>
    <BinaryTree type="DecisionTree" boostWeight="1.0000000000000000e+00" itree="630">
      <Node pos="s" depth="0" NCoef="0" IVar="5" Cut="1.6570781469345093e+00" cType="1" res="2.3930324241518974e-03" rms="4.5397558808326721e-01" purity="5.0122761726379395e-01" nType="0">
        <Node pos="l" depth="1" NCoef="0" IVar="-1" Cut="0.0000000000000000e+00" cType="1" res="9.8271237220615149e-04" rms="4.4368883967399597e-01" purity="6.2332731485366821e-01" nType="-99"/>
        <Node pos="r" depth="1" NCoef="0" IVar="2" Cut="1.2306525707244873e+00" cType="1" res="-2.0087789744138718e-03" rms="4.5514568686485291e-01" purity="4.8498022556304932e-01" nType="0">
          <Node pos="l" depth="2" NCoef="0" IVar="-1" Cut="0.0000000000000000e+00" cType="1" res="3.6125704355072230e-05" rms="4.5600381493568420e-01" purity="4.9332982301712036e-01" nType="-99"/>
          <Node pos="r" depth="2" NCoef="0" IVar="-1" Cut="0.0000000000000000e+00" cType="1" res="-1.5200265916064382e-03" rms="4.4240394234657288e-01" purity="3.8074532151222229e-01" nType="-99"/>
        </Node>
      </Node>
    </BinaryTree>
    <BinaryTree type="DecisionTree" boostWeight="1.0000000000000000e+00" itree="631">
      <Node pos="s" depth="0" NCoef="0" IVar="6" Cut="4.9026212692260742e+00" cType="1" res="3.0379630625247955e-03" rms="4.5429188013076782e-01" purity="5.0356990098953247e-01" nType="0">
        <Node pos="l" depth="1" NCoef="0" IVar="3" Cut="6.3532984256744385e-01" cType="1" res="-1.6100029461085796e-03" rms="4.6135351061820984e-01" purity="4.6882835030555725e-01" nType="0">
          <Node pos="l" depth="2" NCoef="0" IVar="-1" Cut="0.0000000000000000e+00" cType="1" res="1.9314566452521831e-04" rms="4.5897096395492554e-01" purity="4.5212575793266296e-01" nType="-99"/>
          <Node pos="r" depth="2" NCoef="0" IVar="-1" Cut="0.0000000000000000e+00" cType="1" res="-1.1556382523849607e-03" rms="4.7185522317886353e-01" purity="5.5813664197921753e-01" nType="-99"/>
        </Node>
        <Node pos="r" depth="1" NCoef="0" IVar="-1" Cut="0.0000000000000000e+00" cType="1" res="1.1912704212591052e-03" rms="3.8660266995429993e-01" purity="7.9996001720428467e-01" nType="-99"/>
      </Node>
    </BinaryTree>
    <BinaryTree type="DecisionTree" boostWeight="1.0000000000000000e+00" itree="632">
      <Node pos="s" depth="0" NCoef="0" IVar="5" Cut="1.6882548332214355e+00" cType="1" res="2.5985315442085266e-03" rms="4.5398563146591187e-01" purity="5.0353586673736572e-01" nType="0">
        <Node pos="l" depth="1" NCoef="0" IVar="7" Cut="2.1773504093289375e-02" cType="1" res="4.0183719247579575e-02" rms="4.4493687152862549e-01" purity="6.2202686071395874e-01" nType="0">
          <Node pos="l" depth="2" NCoef="0" IVar="-1" Cut="0.0000000000000000e+00" cType="1" res="4.0036588325165212e-04" rms="4.5349502563476562e-01" purity="5.7587867975234985e-01" nType="-99"/>
          <Node pos="r" depth="2" NCoef="0" IVar="-1" Cut="0.0000000000000000e+00" cType="1" res="1.6284951707348228e-03" rms="4.3668910861015320e-01" purity="6.5953701734542847e-01" nType="-99"/>
        </Node>
        <Node pos="r" depth="1" NCoef="0" IVar="6" Cut="4.2981576919555664e+00" cType="1" res="-3.0659006442874670e-03" rms="4.5506465435028076e-01" purity="4.8567819595336914e-01" nType="0">
          <Node pos="l" depth="2" NCoef="0" IVar="-1" Cut="0.0000000000000000e+00" cType="1" res="-3.3633748535066843e-04" rms="4.6151807904243469e-01" purity="4.2859095335006714e-01" nType="-99"/>
          <Node pos="r" depth="2" NCoef="0" IVar="-1" Cut="0.0000000000000000e+00" cType="1" res="7.5740966713055968e-04" rms="4.2360788583755493e-01" purity="7.4068212509155273e-01" nType="-99"/>
        </Node>
      </Node>
    </BinaryTree>
    <BinaryTree type="DecisionTree" boostWeight="1.0000000000000000e+00" itree="633">
      <Node pos="s" depth="0" NCoef="0" IVar="9" Cut="8.8273963928222656e+01" cType="1" res="2.5411716196686029e-03" rms="4.5562157034873962e-01" purity="5.0064611434936523e-01" nType="0">
        <Node pos="l" depth="1" NCoef="0" IVar="7" Cut="-7.6518960297107697e-02" cType="1" res="-1.3060586526989937e-02" rms="4.5624202489852905e-01" purity="4.6388244628906250e-01" nType="0">
          <Node pos="l" depth="2" NCoef="0" IVar="-1" Cut="0.0000000000000000e+00" cType="1" res="-1.8492022063583136e-03" rms="4.4620168209075928e-01" purity="3.7010839581489563e-01" nType="-99"/>
          <Node pos="r" depth="2" NCoef="0" IVar="-1" Cut="0.0000000000000000e+00" cType="1" res="-1.5414453810080886e-04" rms="4.5806691050529480e-01" purity="4.8494550585746765e-01" nType="-99"/>
        </Node>
        <Node pos="r" depth="1" NCoef="0" IVar="1" Cut="6.9435614013671875e+02" cType="1" res="1.3448288664221764e-02" rms="4.5486959815025330e-01" purity="5.2634733915328979e-01" nType="0">
          <Node pos="l" depth="2" NCoef="0" IVar="-1" Cut="0.0000000000000000e+00" cType="1" res="1.5587550296913832e-04" rms="4.5467126369476318e-01" purity="4.8183932900428772e-01" nType="-99"/>
          <Node pos="r" depth="2" NCoef="0" IVar="-1" Cut="0.0000000000000000e+00" cType="1" res="9.7711826674640179e-04" rms="4.5464256405830383e-01" purity="6.3901907205581665e-01" nType="-99"/>
        </Node>
      </Node>
    </BinaryTree>
    <BinaryTree type="DecisionTree" boostWeight="1.0000000000000000e+00" itree="634">
      <Node pos="s" depth="0" NCoef="0" IVar="5" Cut="2.8953802585601807e+00" cType="1" res="1.0567641584202647e-03" rms="4.5502096414566040e-01" purity="4.9920508265495300e-01" nType="0">
        <Node pos="l" depth="1" NCoef="0" IVar="2" Cut="1.2707262039184570e+00" cType="1" res="3.9756754413247108e-03" rms="4.5778965950012207e-01" purity="5.1428925991058350e-01" nType="0">
          <Node pos="l" depth="2" NCoef="0" IVar="-1" Cut="0.0000000000000000e+00" cType="1" res="2.1689677669201046e-04" rms="4.5775943994522095e-01" purity="5.2103239297866821e-01" nType="-99"/>
          <Node pos="r" depth="2" NCoef="0" IVar="-1" Cut="0.0000000000000000e+00" cType="1" res="-1.8345484277233481e-03" rms="4.5476821064949036e-01" purity="3.9530843496322632e-01" nType="-99"/>
        </Node>
        <Node pos="r" depth="1" NCoef="0" IVar="-1" Cut="0.0000000000000000e+00" cType="1" res="-3.0033360235393047e-03" rms="3.9532157778739929e-01" purity="2.1519939601421356e-01" nType="-99"/>
      </Node>
    </BinaryTree>
    <BinaryTree type="DecisionTree" boostWeight="1.0000000000000000e+00" itree="635">
      <Node pos="s" depth="0" NCoef="0" IVar="4" Cut="5.7373767852783203e+01" cType="1" res="7.2152190841734409e-04" rms="4.5489192008972168e-01" purity="4.9869188666343689e-01" nType="0">
        <Node pos="l" depth="1" NCoef="0" IVar="5" Cut="2.0788934230804443e+00" cType="1" res="-1.6131276264786720e-02" rms="4.5069128274917603e-01" purity="4.3906241655349731e-01" nType="0">
          <Node pos="l" depth="2" NCoef="0" IVar="-1" Cut="0.0000000000000000e+00" cType="1" res="3.4263520501554012e-04" rms="4.5371440052986145e-01" purity="5.3427135944366455e-01" nType="-99"/>
          <Node pos="r" depth="2" NCoef="0" IVar="-1" Cut="0.0000000000000000e+00" cType="1" res="-9.9852378480136395e-04" rms="4.4896429777145386e-01" purity="4.0027907490730286e-01" nType="-99"/>
        </Node>
        <Node pos="r" depth="1" NCoef="0" IVar="8" Cut="9.2840309143066406e+01" cType="1" res="1.1718509718775749e-02" rms="4.5727744698524475e-01" purity="5.3760206699371338e-01" nType="0">
          <Node pos="l" depth="2" NCoef="0" IVar="-1" Cut="0.0000000000000000e+00" cType="1" res="-9.6383533673360944e-04" rms="4.5625418424606323e-01" purity="4.4271162152290344e-01" nType="-99"/>
          <Node pos="r" depth="2" NCoef="0" IVar="-1" Cut="0.0000000000000000e+00" cType="1" res="4.8215696006081998e-04" rms="4.5716264843940735e-01" purity="5.4805248975753784e-01" nType="-99"/>
        </Node>
      </Node>
    </BinaryTree>
    <BinaryTree type="DecisionTree" boostWeight="1.0000000000000000e+00" itree="636">
      <Node pos="s" depth="0" NCoef="0" IVar="0" Cut="7.0783674716949463e-01" cType="1" res="4.5625334605574608e-03" rms="4.5598179101943970e-01" purity="5.0309544801712036e-01" nType="0">
        <Node pos="l" depth="1" NCoef="0" IVar="2" Cut="6.8597131967544556e-01" cType="1" res="3.0765512958168983e-02" rms="4.5910212397575378e-01" purity="5.7189959287643433e-01" nType="0">
          <Node pos="l" depth="2" NCoef="0" IVar="-1" Cut="0.0000000000000000e+00" cType="1" res="3.8172476342879236e-04" rms="4.4933503866195679e-01" purity="5.9968471527099609e-01" nType="-99"/>
          <Node pos="r" depth="2" NCoef="0" IVar="-1" Cut="0.0000000000000000e+00" cType="1" res="1.2708858121186495e-03" rms="4.6549242734909058e-01" purity="5.5222886800765991e-01" nType="-99"/>
        </Node>
        <Node pos="r" depth="1" NCoef="0" IVar="6" Cut="1.7746524810791016e+00" cType="1" res="-9.5563876675441861e-04" rms="4.5512968301773071e-01" purity="4.8860576748847961e-01" nType="0">
          <Node pos="l" depth="2" NCoef="0" IVar="-1" Cut="0.0000000000000000e+00" cType="1" res="-1.0119129437953234e-03" rms="4.3353354930877686e-01" purity="2.9284891486167908e-01" nType="-99"/>
          <Node pos="r" depth="2" NCoef="0" IVar="-1" Cut="0.0000000000000000e+00" cType="1" res="1.6787885397206992e-04" rms="4.6147522330284119e-01" purity="5.4986011981964111e-01" nType="-99"/>
        </Node>
      </Node>
    </BinaryTree>
    <BinaryTree type="DecisionTree" boostWeight="1.0000000000000000e+00" itree="637">
      <Node pos="s" depth="0" NCoef="0" IVar="5" Cut="1.8416830301284790e+00" cType="1" res="7.5445824768394232e-04" rms="4.5553603768348694e-01" purity="4.9798735976219177e-01" nType="0">
        <Node pos="l" depth="1" NCoef="0" IVar="8" Cut="1.1161093902587891e+02" cType="1" res="3.2124072313308716e-02" rms="4.5190620422363281e-01" purity="6.0070741176605225e-01" nType="0">
          <Node pos="l" depth="2" NCoef="0" IVar="-1" Cut="0.0000000000000000e+00" cType="1" res="2.0228326320648193e-04" rms="4.5857730507850647e-01" purity="5.3093028068542480e-01" nType="-99"/>
          <Node pos="r" depth="2" NCoef="0" IVar="-1" Cut="0.0000000000000000e+00" cType="1" res="1.2728621950373054e-03" rms="4.4719770550727844e-01" purity="6.4229297637939453e-01" nType="-99"/>
        </Node>
        <Node pos="r" depth="1" NCoef="0" IVar="5" Cut="2.7412025928497314e+00" cType="1" res="-6.7463312298059464e-03" rms="4.5608016848564148e-01" purity="4.7342595458030701e-01" nType="0">
          <Node pos="l" depth="2" NCoef="0" IVar="-1" Cut="0.0000000000000000e+00" cType="1" res="-8.3277918747626245e-05" rms="4.6042764186859131e-01" purity="5.0047898292541504e-01" nType="-99"/>
          <Node pos="r" depth="2" NCoef="0" IVar="-1" Cut="0.0000000000000000e+00" cType="1" res="-2.1461872383952141e-03" rms="4.1582062840461731e-01" purity="2.4411301314830780e-01" nType="-99"/>
        </Node>
      </Node>
    </BinaryTree>
    <BinaryTree type="DecisionTree" boostWeight="1.0000000000000000e+00" itree="638">
      <Node pos="s" depth="0" NCoef="0" IVar="6" Cut="1.5651880502700806e+00" cType="1" res="2.9986056033521891e-03" rms="4.5420300960540771e-01" purity="5.0122696161270142e-01" nType="0">
        <Node pos="l" depth="1" NCoef="0" IVar="3" Cut="2.0941092073917389e-01" cType="1" res="-2.3155333474278450e-02" rms="4.3174162507057190e-01" purity="2.8627550601959229e-01" nType="0">
          <Node pos="l" depth="2" NCoef="0" IVar="-1" Cut="0.0000000000000000e+00" cType="1" res="-2.3807885008864105e-04" rms="4.4289728999137878e-01" purity="3.1468290090560913e-01" nType="-99"/>
          <Node pos="r" depth="2" NCoef="0" IVar="-1" Cut="0.0000000000000000e+00" cType="1" res="-3.4175438340753317e-03" rms="4.0093451738357544e-01" purity="2.1896417438983917e-01" nType="-99"/>
        </Node>
        <Node pos="r" depth="1" NCoef="0" IVar="3" Cut="4.0323266386985779e-01" cType="1" res="8.9649278670549393e-03" rms="4.5896437764167786e-01" purity="5.5026245117187500e-01" nType="0">
          <Node pos="l" depth="2" NCoef="0" IVar="-1" Cut="0.0000000000000000e+00" cType="1" res="8.3750137127935886e-04" rms="4.6294015645980835e-01" purity="5.0723493099212646e-01" nType="-99"/>
          <Node pos="r" depth="2" NCoef="0" IVar="-1" Cut="0.0000000000000000e+00" cType="1" res="-1.6098130436148494e-04" rms="4.5533686876296997e-01" purity="5.8344399929046631e-01" nType="-99"/>
        </Node>
      </Node>
    </BinaryTree>
    <BinaryTree type="DecisionTree" boostWeight="1.0000000000000000e+00" itree="639">
      <Node pos="s" depth="0" NCoef="0" IVar="4" Cut="5.1582500457763672e+01" cType="1" res="8.4095529746264219e-04" rms="4.5441868901252747e-01" purity="5.0037884712219238e-01" nType="0">
        <Node pos="l" depth="1" NCoef="0" IVar="8" Cut="1.0026277160644531e+02" cType="1" res="-1.9280385226011276e-02" rms="4.4968321919441223e-01" purity="4.3602791428565979e-01" nType="0">
          <Node pos="l" depth="2" NCoef="0" IVar="-1" Cut="0.0000000000000000e+00" cType="1" res="-2.0461932290345430e-03" rms="4.4533842802047729e-01" purity="3.5922604799270630e-01" nType="-99"/>
          <Node pos="r" depth="2" NCoef="0" IVar="-1" Cut="0.0000000000000000e+00" cType="1" res="-4.2768227285705507e-04" rms="4.5020499825477600e-01" purity="4.5065128803253174e-01" nType="-99"/>
        </Node>
        <Node pos="r" depth="1" NCoef="0" IVar="7" Cut="1.6096577048301697e-01" cType="1" res="1.1182146146893501e-02" rms="4.5648843050003052e-01" purity="5.3345137834548950e-01" nType="0">
          <Node pos="l" depth="2" NCoef="0" IVar="-1" Cut="0.0000000000000000e+00" cType="1" res="1.3079663040116429e-04" rms="4.5739296078681946e-01" purity="5.1395624876022339e-01" nType="-99"/>
          <Node pos="r" depth="2" NCoef="0" IVar="-1" Cut="0.0000000000000000e+00" cType="1" res="1.2104043271392584e-03" rms="4.5065236091613770e-01" purity="6.2682807445526123e-01" nType="-99"/>
        </Node>
      </Node>
    </BinaryTree>
    <BinaryTree type="DecisionTree" boostWeight="1.0000000000000000e+00" itree="640">
      <Node pos="s" depth="0" NCoef="0" IVar="5" Cut="1.6920183897018433e+00" cType="1" res="6.0971925267949700e-04" rms="4.5447576045989990e-01" purity="4.9859791994094849e-01" nType="0">
        <Node pos="l" depth="1" NCoef="0" IVar="3" Cut="3.6447280645370483e-01" cType="1" res="3.5403281450271606e-02" rms="4.5094433426856995e-01" purity="6.1266934871673584e-01" nType="0">
          <Node pos="l" depth="2" NCoef="0" IVar="-1" Cut="0.0000000000000000e+00" cType="1" res="1.6649082535877824e-03" rms="4.6237894892692566e-01" purity="5.5541926622390747e-01" nType="-99"/>
          <Node pos="r" depth="2" NCoef="0" IVar="-1" Cut="0.0000000000000000e+00" cType="1" res="3.9105239557102323e-04" rms="4.3959328532218933e-01" purity="6.6288441419601440e-01" nType="-99"/>
        </Node>
        <Node pos="r" depth="1" NCoef="0" IVar="6" Cut="4.5307979583740234e+00" cType="1" res="-4.5853746123611927e-03" rms="4.5477232336997986e-01" purity="4.8156571388244629e-01" nType="0">
          <Node pos="l" depth="2" NCoef="0" IVar="-1" Cut="0.0000000000000000e+00" cType="1" res="-3.4176633926108479e-04" rms="4.6141940355300903e-01" purity="4.3427017331123352e-01" nType="-99"/>
          <Node pos="r" depth="2" NCoef="0" IVar="-1" Cut="0.0000000000000000e+00" cType="1" res="7.8052532626315951e-04" rms="4.1236817836761475e-01" purity="7.5716006755828857e-01" nType="-99"/>
        </Node>
      </Node>
    </BinaryTree>
    <BinaryTree type="DecisionTree" boostWeight="1.0000000000000000e+00" itree="641">
      <Node pos="s" depth="0" NCoef="0" IVar="7" Cut="1.7367556691169739e-01" cType="1" res="3.0038461554795504e-03" rms="4.5589932799339294e-01" purity="5.0122648477554321e-01" nType="0">
        <Node pos="l" depth="1" NCoef="0" IVar="0" Cut="1.3617788553237915e+00" cType="1" res="-2.2666873410344124e-03" rms="4.5491600036621094e-01" purity="4.8521584272384644e-01" nType="0">
          <Node pos="l" depth="2" NCoef="0" IVar="-1" Cut="0.0000000000000000e+00" cType="1" res="1.8426745373290032e-04" rms="4.5772588253021240e-01" purity="5.1068770885467529e-01" nType="-99"/>
          <Node pos="r" depth="2" NCoef="0" IVar="-1" Cut="0.0000000000000000e+00" cType="1" res="-9.4950792845338583e-04" rms="4.4565576314926147e-01" purity="4.1022238135337830e-01" nType="-99"/>
        </Node>
        <Node pos="r" depth="1" NCoef="0" IVar="4" Cut="7.9863113403320312e+01" cType="1" res="3.3532816916704178e-02" rms="4.6036830544471741e-01" purity="5.9396636486053467e-01" nType="0">
          <Node pos="l" depth="2" NCoef="0" IVar="-1" Cut="0.0000000000000000e+00" cType="1" res="1.4743928331881762e-03" rms="4.5771622657775879e-01" purity="5.8477038145065308e-01" nType="-99"/>
          <Node pos="r" depth="2" NCoef="0" IVar="-1" Cut="0.0000000000000000e+00" cType="1" res="1.9522297952789813e-04" rms="4.6274113655090332e-01" purity="6.0681426525115967e-01" nType="-99"/>
        </Node>
      </Node>
    </BinaryTree>
    <BinaryTree type="DecisionTree" boostWeight="1.0000000000000000e+00" itree="642">
      <Node pos="s" depth="0" NCoef="0" IVar="3" Cut="1.9032087922096252e-01" cType="1" res="-3.8248740602284670e-03" rms="4.5468449592590332e-01" purity="4.9410793185234070e-01" nType="0">
        <Node pos="l" depth="1" NCoef="0" IVar="6" Cut="1.1132488250732422e+00" cType="1" res="2.0751360803842545e-02" rms="4.5838490128517151e-01" purity="4.2482471466064453e-01" nType="0">
          <Node pos="l" depth="2" NCoef="0" IVar="-1" Cut="0.0000000000000000e+00" cType="1" res="-3.3188433735631406e-04" rms="4.3842995166778564e-01" purity="2.9590174555778503e-01" nType="-99"/>
          <Node pos="r" depth="2" NCoef="0" IVar="-1" Cut="0.0000000000000000e+00" cType="1" res="1.1419350048527122e-03" rms="4.6843618154525757e-01" purity="4.9676686525344849e-01" nType="-99"/>
        </Node>
        <Node pos="r" depth="1" NCoef="0" IVar="6" Cut="3.6332988739013672e+00" cType="1" res="-1.0130073875188828e-02" rms="4.5351564884185791e-01" purity="5.1188302040100098e-01" nType="0">
          <Node pos="l" depth="2" NCoef="0" IVar="-1" Cut="0.0000000000000000e+00" cType="1" res="-8.0147618427872658e-04" rms="4.6104347705841064e-01" purity="4.0223348140716553e-01" nType="-99"/>
          <Node pos="r" depth="2" NCoef="0" IVar="-1" Cut="0.0000000000000000e+00" cType="1" res="3.3612965489737689e-04" rms="4.3981826305389404e-01" purity="6.9373512268066406e-01" nType="-99"/>
        </Node>
      </Node>
    </BinaryTree>
    <BinaryTree type="DecisionTree" boostWeight="1.0000000000000000e+00" itree="643">
      <Node pos="s" depth="0" NCoef="0" IVar="5" Cut="1.7469167709350586e+00" cType="1" res="7.9442033893428743e-05" rms="4.5428347587585449e-01" purity="4.9839380383491516e-01" nType="0">
        <Node pos="l" depth="1" NCoef="0" IVar="8" Cut="1.1765584564208984e+02" cType="1" res="3.5769566893577576e-02" rms="4.5105639100074768e-01" purity="6.1175143718719482e-01" nType="0">
          <Node pos="l" depth="2" NCoef="0" IVar="-1" Cut="0.0000000000000000e+00" cType="1" res="4.1075670742429793e-04" rms="4.6104037761688232e-01" purity="5.5387914180755615e-01" nType="-99"/>
          <Node pos="r" depth="2" NCoef="0" IVar="-1" Cut="0.0000000000000000e+00" cType="1" res="1.5665122773498297e-03" rms="4.3893060088157654e-01" purity="6.7368346452713013e-01" nType="-99"/>
        </Node>
        <Node pos="r" depth="1" NCoef="0" IVar="9" Cut="1.5817189025878906e+02" cType="1" res="-6.3222683966159821e-03" rms="4.5456361770629883e-01" purity="4.7806102037429810e-01" nType="0">
          <Node pos="l" depth="2" NCoef="0" IVar="-1" Cut="0.0000000000000000e+00" cType="1" res="-4.3115948210470378e-04" rms="4.5353704690933228e-01" purity="4.6826145052909851e-01" nType="-99"/>
          <Node pos="r" depth="2" NCoef="0" IVar="-1" Cut="0.0000000000000000e+00" cType="1" res="1.0380811290815473e-03" rms="4.5842397212982178e-01" purity="5.3466629981994629e-01" nType="-99"/>
        </Node>
      </Node>
    </BinaryTree>
    <BinaryTree type="DecisionTree" boostWeight="1.0000000000000000e+00" itree="644">
      <Node pos="s" depth="0" NCoef="0" IVar="3" Cut="1.5161477029323578e-01" cType="1" res="-7.0281710941344500e-04" rms="4.5550614595413208e-01" purity="4.9657464027404785e-01" nType="0">
        <Node pos="l" depth="1" NCoef="0" IVar="6" Cut="1.3615996837615967e+00" cType="1" res="3.3695872873067856e-02" rms="4.5923426747322083e-01" purity="4.3886610865592957e-01" nType="0">
          <Node pos="l" depth="2" NCoef="0" IVar="-1" Cut="0.0000000000000000e+00" cType="1" res="-1.4221199671737850e-04" rms="4.4570234417915344e-01" purity="3.2198002934455872e-01" nType="-99"/>
          <Node pos="r" depth="2" NCoef="0" IVar="-1" Cut="0.0000000000000000e+00" cType="1" res="2.1008865442126989e-03" rms="4.6989139914512634e-01" purity="5.6126350164413452e-01" nType="-99"/>
        </Node>
        <Node pos="r" depth="1" NCoef="0" IVar="6" Cut="2.4769353866577148e+00" cType="1" res="-5.1080780103802681e-03" rms="4.5483860373497009e-01" purity="5.0396507978439331e-01" nType="0">
          <Node pos="l" depth="2" NCoef="0" IVar="-1" Cut="0.0000000000000000e+00" cType="1" res="-8.8833714835345745e-04" rms="4.4677659869194031e-01" purity="3.2858499884605408e-01" nType="-99"/>
          <Node pos="r" depth="2" NCoef="0" IVar="-1" Cut="0.0000000000000000e+00" cType="1" res="1.3962486991658807e-04" rms="4.5919898152351379e-01" purity="6.0685658454895020e-01" nType="-99"/>
        </Node>
      </Node>
    </BinaryTree>
    <BinaryTree type="DecisionTree" boostWeight="1.0000000000000000e+00" itree="645">
      <Node pos="s" depth="0" NCoef="0" IVar="0" Cut="1.6595523357391357e+00" cType="1" res="8.4564043208956718e-04" rms="4.5429313182830811e-01" purity="4.9895054101943970e-01" nType="0">
        <Node pos="l" depth="1" NCoef="0" IVar="6" Cut="1.7214262485504150e+00" cType="1" res="5.7034869678318501e-03" rms="4.5564451813697815e-01" purity="5.1174771785736084e-01" nType="0">
          <Node pos="l" depth="2" NCoef="0" IVar="-1" Cut="0.0000000000000000e+00" cType="1" res="-9.5739768585190177e-04" rms="4.4023197889328003e-01" purity="3.0084988474845886e-01" nType="-99"/>
          <Node pos="r" depth="2" NCoef="0" IVar="-1" Cut="0.0000000000000000e+00" cType="1" res="3.8712943205609918e-04" rms="4.5964235067367554e-01" purity="5.7184678316116333e-01" nType="-99"/>
        </Node>
        <Node pos="r" depth="1" NCoef="0" IVar="7" Cut="7.3677124455571175e-03" cType="1" res="-4.1272684931755066e-02" rms="4.4016170501708984e-01" purity="3.8799718022346497e-01" nType="0">
          <Node pos="l" depth="2" NCoef="0" IVar="-1" Cut="0.0000000000000000e+00" cType="1" res="-2.8041703626513481e-03" rms="4.2130258679389954e-01" purity="3.1635728478431702e-01" nType="-99"/>
          <Node pos="r" depth="2" NCoef="0" IVar="-1" Cut="0.0000000000000000e+00" cType="1" res="-5.3532753372564912e-04" rms="4.5616853237152100e-01" purity="4.5691177248954773e-01" nType="-99"/>
        </Node>
      </Node>
    </BinaryTree>
    <BinaryTree type="DecisionTree" boostWeight="1.0000000000000000e+00" itree="646">
      <Node pos="s" depth="0" NCoef="0" IVar="7" Cut="2.3054425418376923e-01" cType="1" res="-1.8067491473630071e-03" rms="4.5416343212127686e-01" purity="4.9515846371650696e-01" nType="0">
        <Node pos="l" depth="1" NCoef="0" IVar="0" Cut="1.4682614803314209e+00" cType="1" res="-5.7612457312643528e-03" rms="4.5390683412551880e-01" purity="4.8556551337242126e-01" nType="0">
          <Node pos="l" depth="2" NCoef="0" IVar="-1" Cut="0.0000000000000000e+00" cType="1" res="2.8014614144922234e-05" rms="4.5696780085563660e-01" purity="5.0519543886184692e-01" nType="-99"/>
          <Node pos="r" depth="2" NCoef="0" IVar="-1" Cut="0.0000000000000000e+00" cType="1" res="-1.2533589033409953e-03" rms="4.3920463323593140e-01" purity="4.0035140514373779e-01" nType="-99"/>
        </Node>
        <Node pos="r" depth="1" NCoef="0" IVar="-1" Cut="0.0000000000000000e+00" cType="1" res="1.3972967863082886e-03" rms="4.5424810051918030e-01" purity="6.2501311302185059e-01" nType="-99"/>
      </Node>
    </BinaryTree>
    <BinaryTree type="DecisionTree" boostWeight="1.0000000000000000e+00" itree="647">
      <Node pos="s" depth="0" NCoef="0" IVar="1" Cut="8.9195001220703125e+02" cType="1" res="5.4586835904046893e-04" rms="4.5565193891525269e-01" purity="4.9674379825592041e-01" nType="0">
        <Node pos="l" depth="1" NCoef="0" IVar="6" Cut="4.0087962150573730e+00" cType="1" res="-3.7538015749305487e-03" rms="4.5586755871772766e-01" purity="4.8263934254646301e-01" nType="0">
          <Node pos="l" depth="2" NCoef="0" IVar="-1" Cut="0.0000000000000000e+00" cType="1" res="-3.4979835618287325e-04" rms="4.6161898970603943e-01" purity="4.1564628481864929e-01" nType="-99"/>
          <Node pos="r" depth="2" NCoef="0" IVar="-1" Cut="0.0000000000000000e+00" cType="1" res="5.0858384929597378e-04" rms="4.3442875146865845e-01" purity="7.1651583909988403e-01" nType="-99"/>
        </Node>
        <Node pos="r" depth="1" NCoef="0" IVar="-1" Cut="0.0000000000000000e+00" cType="1" res="1.3922459911555052e-03" rms="4.4994449615478516e-01" purity="6.6440576314926147e-01" nType="-99"/>
      </Node>
    </BinaryTree>
    <BinaryTree type="DecisionTree" boostWeight="1.0000000000000000e+00" itree="648">
      <Node pos="s" depth="0" NCoef="0" IVar="7" Cut="-1.0279093682765961e-01" cType="1" res="3.2196645624935627e-03" rms="4.5590665936470032e-01" purity="5.0236392021179199e-01" nType="0">
        <Node pos="l" depth="1" NCoef="0" IVar="-1" Cut="0.0000000000000000e+00" cType="1" res="-1.2528102379292250e-03" rms="4.4205084443092346e-01" purity="3.8812226057052612e-01" nType="-99"/>
        <Node pos="r" depth="1" NCoef="0" IVar="7" Cut="2.3324751853942871e-01" cType="1" res="7.1848994120955467e-03" rms="4.5718401670455933e-01" purity="5.1456904411315918e-01" nType="0">
          <Node pos="l" depth="2" NCoef="0" IVar="-1" Cut="0.0000000000000000e+00" cType="1" res="1.2207936379127204e-04" rms="4.5779120922088623e-01" purity="5.0526452064514160e-01" nType="-99"/>
          <Node pos="r" depth="2" NCoef="0" IVar="-1" Cut="0.0000000000000000e+00" cType="1" res="1.2936816783621907e-03" rms="4.4763001799583435e-01" purity="6.2940996885299683e-01" nType="-99"/>
        </Node>
      </Node>
    </BinaryTree>
    <BinaryTree type="DecisionTree" boostWeight="1.0000000000000000e+00" itree="649">
      <Node pos="s" depth="0" NCoef="0" IVar="2" Cut="1.0278072357177734e+00" cType="1" res="4.4822050258517265e-03" rms="4.5355755090713501e-01" purity="5.0296622514724731e-01" nType="0">
        <Node pos="l" depth="1" NCoef="0" IVar="0" Cut="9.0473538637161255e-01" cType="1" res="1.2002570554614067e-02" rms="4.5495501160621643e-01" purity="5.2783787250518799e-01" nType="0">
          <Node pos="l" depth="2" NCoef="0" IVar="-1" Cut="0.0000000000000000e+00" cType="1" res="8.2650367403402925e-04" rms="4.5646449923515320e-01" purity="5.8040869235992432e-01" nType="-99"/>
          <Node pos="r" depth="2" NCoef="0" IVar="-1" Cut="0.0000000000000000e+00" cType="1" res="6.7929213400930166e-05" rms="4.5377588272094727e-01" purity="4.9694690108299255e-01" nType="-99"/>
        </Node>
        <Node pos="r" depth="1" NCoef="0" IVar="6" Cut="2.2490625381469727e+00" cType="1" res="-2.3393146693706512e-02" rms="4.4723796844482422e-01" purity="4.1077584028244019e-01" nType="0">
          <Node pos="l" depth="2" NCoef="0" IVar="-1" Cut="0.0000000000000000e+00" cType="1" res="-2.4645123630762100e-03" rms="4.0236791968345642e-01" purity="2.3760910332202911e-01" nType="-99"/>
          <Node pos="r" depth="2" NCoef="0" IVar="-1" Cut="0.0000000000000000e+00" cType="1" res="-2.7646022499538958e-04" rms="4.7042399644851685e-01" purity="5.0987488031387329e-01" nType="-99"/>
        </Node>
      </Node>
    </BinaryTree>
    <BinaryTree type="DecisionTree" boostWeight="1.0000000000000000e+00" itree="650">
      <Node pos="s" depth="0" NCoef="0" IVar="8" Cut="9.2035110473632812e+01" cType="1" res="-1.0636218803483644e-06" rms="4.5489457249641418e-01" purity="4.9904486536979675e-01" nType="0">
        <Node pos="l" depth="1" NCoef="0" IVar="-1" Cut="0.0000000000000000e+00" cType="1" res="-1.4341726200655103e-03" rms="4.5192286372184753e-01" purity="4.0275248885154724e-01" nType="-99"/>
        <Node pos="r" depth="1" NCoef="0" IVar="7" Cut="-8.9805619791150093e-03" cType="1" res="4.2794113978743553e-03" rms="4.5500123500823975e-01" purity="5.0930982828140259e-01" nType="0">
          <Node pos="l" depth="2" NCoef="0" IVar="-1" Cut="0.0000000000000000e+00" cType="1" res="-3.5866961115971208e-04" rms="4.5210829377174377e-01" purity="4.6226492524147034e-01" nType="-99"/>
          <Node pos="r" depth="2" NCoef="0" IVar="-1" Cut="0.0000000000000000e+00" cType="1" res="5.0546682905405760e-04" rms="4.5703652501106262e-01" purity="5.4896783828735352e-01" nType="-99"/>
        </Node>
      </Node>
    </BinaryTree>
    <BinaryTree type="DecisionTree" boostWeight="1.0000000000000000e+00" itree="651">
      <Node pos="s" depth="0" NCoef="0" IVar="4" Cut="5.6597854614257812e+01" cType="1" res="2.0242264145053923e-04" rms="4.5393189787864685e-01" purity="4.9944075942039490e-01" nType="0">
        <Node pos="l" depth="1" NCoef="0" IVar="6" Cut="4.2135252952575684e+00" cType="1" res="-1.5990966930985451e-02" rms="4.5055595040321350e-01" purity="4.3748190999031067e-01" nType="0">
          <Node pos="l" depth="2" NCoef="0" IVar="-1" Cut="0.0000000000000000e+00" cType="1" res="-8.1308430526405573e-04" rms="4.5389223098754883e-01" purity="3.7562718987464905e-01" nType="-99"/>
          <Node pos="r" depth="2" NCoef="0" IVar="-1" Cut="0.0000000000000000e+00" cType="1" res="2.8689316241070628e-04" rms="4.3475079536437988e-01" purity="7.0650160312652588e-01" nType="-99"/>
        </Node>
        <Node pos="r" depth="1" NCoef="0" IVar="5" Cut="1.6123533248901367e+00" cType="1" res="1.0493955574929714e-02" rms="4.5576554536819458e-01" purity="5.3881806135177612e-01" nType="0">
          <Node pos="l" depth="2" NCoef="0" IVar="-1" Cut="0.0000000000000000e+00" cType="1" res="1.2115839635953307e-03" rms="4.4130867719650269e-01" purity="6.5486693382263184e-01" nType="-99"/>
          <Node pos="r" depth="2" NCoef="0" IVar="-1" Cut="0.0000000000000000e+00" cType="1" res="1.7569262126926333e-04" rms="4.5751738548278809e-01" purity="5.2285528182983398e-01" nType="-99"/>
        </Node>
      </Node>
    </BinaryTree>
    <BinaryTree type="DecisionTree" boostWeight="1.0000000000000000e+00" itree="652">
      <Node pos="s" depth="0" NCoef="0" IVar="6" Cut="1.1672995090484619e+00" cType="1" res="3.2563225831836462e-03" rms="4.5667892694473267e-01" purity="5.0091886520385742e-01" nType="0">
        <Node pos="l" depth="1" NCoef="0" IVar="0" Cut="1.0743942260742188e+00" cType="1" res="-2.5656173005700111e-02" rms="4.2382994294166565e-01" purity="2.6695102453231812e-01" nType="0">
          <Node pos="l" depth="2" NCoef="0" IVar="-1" Cut="0.0000000000000000e+00" cType="1" res="-7.4774498352780938e-04" rms="4.3926444649696350e-01" purity="2.9867288470268250e-01" nType="-99"/>
          <Node pos="r" depth="2" NCoef="0" IVar="-1" Cut="0.0000000000000000e+00" cType="1" res="-1.9264619331806898e-03" rms="4.0779030323028564e-01" purity="2.3559710383415222e-01" nType="-99"/>
        </Node>
        <Node pos="r" depth="1" NCoef="0" IVar="3" Cut="3.6451500654220581e-01" cType="1" res="6.5345638431608677e-03" rms="4.6014088392257690e-01" purity="5.2744728326797485e-01" nType="0">
          <Node pos="l" depth="2" NCoef="0" IVar="-1" Cut="0.0000000000000000e+00" cType="1" res="6.8825372727587819e-04" rms="4.6606582403182983e-01" purity="4.6663913130760193e-01" nType="-99"/>
          <Node pos="r" depth="2" NCoef="0" IVar="-1" Cut="0.0000000000000000e+00" cType="1" res="-1.4375544560607523e-04" rms="4.5516607165336609e-01" purity="5.7452356815338135e-01" nType="-99"/>
        </Node>
      </Node>
    </BinaryTree>
    <BinaryTree type="DecisionTree" boostWeight="1.0000000000000000e+00" itree="653">
      <Node pos="s" depth="0" NCoef="0" IVar="9" Cut="1.6472865295410156e+02" cType="1" res="4.5389002189040184e-03" rms="4.5602113008499146e-01" purity="5.0178372859954834e-01" nType="0">
        <Node pos="l" depth="1" NCoef="0" IVar="8" Cut="1.3790164184570312e+02" cType="1" res="-2.3251606762642041e-05" rms="4.5524832606315613e-01" purity="4.9685275554656982e-01" nType="0">
          <Node pos="l" depth="2" NCoef="0" IVar="-1" Cut="0.0000000000000000e+00" cType="1" res="2.1157490846235305e-04" rms="4.5441034436225891e-01" purity="5.0242835283279419e-01" nType="-99"/>
          <Node pos="r" depth="2" NCoef="0" IVar="-1" Cut="0.0000000000000000e+00" cType="1" res="-8.9037168072536588e-04" rms="4.5758002996444702e-01" purity="4.7434157133102417e-01" nType="-99"/>
        </Node>
        <Node pos="r" depth="1" NCoef="0" IVar="3" Cut="3.4689980745315552e-01" cType="1" res="4.1662342846393585e-02" rms="4.6058467030525208e-01" purity="5.4190814495086670e-01" nType="0">
          <Node pos="l" depth="2" NCoef="0" IVar="-1" Cut="0.0000000000000000e+00" cType="1" res="1.8875298555940390e-03" rms="4.6611914038658142e-01" purity="4.7820720076560974e-01" nType="-99"/>
          <Node pos="r" depth="2" NCoef="0" IVar="-1" Cut="0.0000000000000000e+00" cType="1" res="8.2981085870414972e-04" rms="4.5531105995178223e-01" purity="5.9742850065231323e-01" nType="-99"/>
        </Node>
      </Node>
    </BinaryTree>
    <BinaryTree type="DecisionTree" boostWeight="1.0000000000000000e+00" itree="654">
      <Node pos="s" depth="0" NCoef="0" IVar="6" Cut="3.1674852371215820e+00" cType="1" res="3.9104284951463342e-04" rms="4.5332074165344238e-01" purity="4.9965390563011169e-01" nType="0">
        <Node pos="l" depth="1" NCoef="0" IVar="3" Cut="3.6305296421051025e-01" cType="1" res="-1.0152165777981281e-02" rms="4.5843774080276489e-01" purity="3.8662460446357727e-01" nType="0">
          <Node pos="l" depth="2" NCoef="0" IVar="-1" Cut="0.0000000000000000e+00" cType="1" res="-3.3052638173103333e-05" rms="4.5727235078811646e-01" purity="3.8642540574073792e-01" nType="-99"/>
          <Node pos="r" depth="2" NCoef="0" IVar="-1" Cut="0.0000000000000000e+00" cType="1" res="-1.1807251721620560e-03" rms="4.6065303683280945e-01" purity="3.8716623187065125e-01" nType="-99"/>
        </Node>
        <Node pos="r" depth="1" NCoef="0" IVar="3" Cut="5.3870761394500732e-01" cType="1" res="1.6070155426859856e-02" rms="4.4514086842536926e-01" purity="6.6774308681488037e-01" nType="0">
          <Node pos="l" depth="2" NCoef="0" IVar="-1" Cut="0.0000000000000000e+00" cType="1" res="1.4561666175723076e-03" rms="4.4420966506004333e-01" purity="6.7996758222579956e-01" nType="-99"/>
          <Node pos="r" depth="2" NCoef="0" IVar="-1" Cut="0.0000000000000000e+00" cType="1" res="-3.7483569030882791e-05" rms="4.4439172744750977e-01" purity="6.6254478693008423e-01" nType="-99"/>
        </Node>
      </Node>
    </BinaryTree>
    <BinaryTree type="DecisionTree" boostWeight="1.0000000000000000e+00" itree="655">
      <Node pos="s" depth="0" NCoef="0" IVar="1" Cut="8.0484808349609375e+02" cType="1" res="1.6701103886589408e-03" rms="4.5533934235572815e-01" purity="5.0032979249954224e-01" nType="0">
        <Node pos="l" depth="1" NCoef="0" IVar="7" Cut="-1.0988306999206543e-01" cType="1" res="-3.3391865435987711e-03" rms="4.5570579171180725e-01" purity="4.8007583618164062e-01" nType="0">
          <Node pos="l" depth="2" NCoef="0" IVar="-1" Cut="0.0000000000000000e+00" cType="1" res="-2.1672064904123545e-03" rms="4.3078157305717468e-01" purity="3.3469659090042114e-01" nType="-99"/>
          <Node pos="r" depth="2" NCoef="0" IVar="-1" Cut="0.0000000000000000e+00" cType="1" res="-2.0877150745945983e-06" rms="4.5709952712059021e-01" purity="4.8959383368492126e-01" nType="-99"/>
        </Node>
        <Node pos="r" depth="1" NCoef="0" IVar="-1" Cut="0.0000000000000000e+00" cType="1" res="1.0641569970175624e-03" rms="4.5089223980903625e-01" purity="6.5020173788070679e-01" nType="-99"/>
      </Node>
    </BinaryTree>
    <BinaryTree type="DecisionTree" boostWeight="1.0000000000000000e+00" itree="656">
      <Node pos="s" depth="0" NCoef="0" IVar="3" Cut="3.8386940956115723e-01" cType="1" res="8.5203425260260701e-04" rms="4.5601886510848999e-01" purity="4.9656087160110474e-01" nType="0">
        <Node pos="l" depth="1" NCoef="0" IVar="6" Cut="3.0300233364105225e+00" cType="1" res="1.1431215330958366e-02" rms="4.5780548453330994e-01" purity="4.2718404531478882e-01" nType="0">
          <Node pos="l" depth="2" NCoef="0" IVar="-1" Cut="0.0000000000000000e+00" cType="1" res="1.8811150221154094e-04" rms="4.5926442742347717e-01" purity="3.8776180148124695e-01" nType="-99"/>
          <Node pos="r" depth="2" NCoef="0" IVar="-1" Cut="0.0000000000000000e+00" cType="1" res="1.2571567203849554e-03" rms="4.4702944159507751e-01" purity="6.6513770818710327e-01" nType="-99"/>
        </Node>
        <Node pos="r" depth="1" NCoef="0" IVar="6" Cut="4.9042463302612305e+00" cType="1" res="-1.0345531627535820e-02" rms="4.5385161042213440e-01" purity="5.6999295949935913e-01" nType="0">
          <Node pos="l" depth="2" NCoef="0" IVar="-1" Cut="0.0000000000000000e+00" cType="1" res="-6.0597329866141081e-04" rms="4.6695330739021301e-01" purity="5.1368463039398193e-01" nType="-99"/>
          <Node pos="r" depth="2" NCoef="0" IVar="-1" Cut="0.0000000000000000e+00" cType="1" res="8.2319270586594939e-04" rms="3.9787149429321289e-01" purity="7.8338408470153809e-01" nType="-99"/>
        </Node>
      </Node>
    </BinaryTree>
    <BinaryTree type="DecisionTree" boostWeight="1.0000000000000000e+00" itree="657">
      <Node pos="s" depth="0" NCoef="0" IVar="0" Cut="1.0292989015579224e+00" cType="1" res="3.0800205422565341e-04" rms="4.5530766248703003e-01" purity="4.9724227190017700e-01" nType="0">
        <Node pos="l" depth="1" NCoef="0" IVar="2" Cut="9.9930632114410400e-01" cType="1" res="1.5713658183813095e-02" rms="4.5613485574722290e-01" purity="5.4463160037994385e-01" nType="0">
          <Node pos="l" depth="2" NCoef="0" IVar="-1" Cut="0.0000000000000000e+00" cType="1" res="6.9494574563577771e-04" rms="4.5457765460014343e-01" purity="5.7101964950561523e-01" nType="-99"/>
          <Node pos="r" depth="2" NCoef="0" IVar="-1" Cut="0.0000000000000000e+00" cType="1" res="-4.3439088040031493e-04" rms="4.6032643318176270e-01" purity="4.5300450921058655e-01" nType="-99"/>
        </Node>
        <Node pos="r" depth="1" NCoef="0" IVar="3" Cut="5.3867727518081665e-01" cType="1" res="-1.3917234726250172e-02" rms="4.5407861471176147e-01" purity="4.5348402857780457e-01" nType="0">
          <Node pos="l" depth="2" NCoef="0" IVar="-1" Cut="0.0000000000000000e+00" cType="1" res="-1.1281896877335384e-04" rms="4.5346093177795410e-01" purity="4.0379485487937927e-01" nType="-99"/>
          <Node pos="r" depth="2" NCoef="0" IVar="-1" Cut="0.0000000000000000e+00" cType="1" res="-1.1066343868151307e-03" rms="4.5453801751136780e-01" purity="5.6277590990066528e-01" nType="-99"/>
        </Node>
      </Node>
    </BinaryTree>
    <BinaryTree type="DecisionTree" boostWeight="1.0000000000000000e+00" itree="658">
      <Node pos="s" depth="0" NCoef="0" IVar="4" Cut="1.6312397766113281e+02" cType="1" res="-1.2108704540878534e-03" rms="4.5386546850204468e-01" purity="4.9625167250633240e-01" nType="0">
        <Node pos="l" depth="1" NCoef="0" IVar="6" Cut="3.8506503105163574e+00" cType="1" res="-5.0424719229340553e-03" rms="4.5428285002708435e-01" purity="4.8276191949844360e-01" nType="0">
          <Node pos="l" depth="2" NCoef="0" IVar="-1" Cut="0.0000000000000000e+00" cType="1" res="-4.5507602044381201e-04" rms="4.6057376265525818e-01" purity="4.0584003925323486e-01" nType="-99"/>
          <Node pos="r" depth="2" NCoef="0" IVar="-1" Cut="0.0000000000000000e+00" cType="1" res="5.0334382103756070e-04" rms="4.3444743752479553e-01" purity="7.0823621749877930e-01" nType="-99"/>
        </Node>
        <Node pos="r" depth="1" NCoef="0" IVar="-1" Cut="0.0000000000000000e+00" cType="1" res="1.1478831293061376e-03" rms="4.4672375917434692e-01" purity="6.5068554878234863e-01" nType="-99"/>
      </Node>
    </BinaryTree>
    <BinaryTree type="DecisionTree" boostWeight="1.0000000000000000e+00" itree="659">
      <Node pos="s" depth="0" NCoef="0" IVar="7" Cut="-1.1197691410779953e-01" cType="1" res="1.2702989624813199e-03" rms="4.5448726415634155e-01" purity="4.9927765130996704e-01" nType="0">
        <Node pos="l" depth="1" NCoef="0" IVar="-1" Cut="0.0000000000000000e+00" cType="1" res="-2.2991548758000135e-03" rms="4.3944990634918213e-01" purity="3.5097971558570862e-01" nType="-99"/>
        <Node pos="r" depth="1" NCoef="0" IVar="9" Cut="6.7463020324707031e+01" cType="1" res="5.1649617962539196e-03" rms="4.5517724752426147e-01" purity="5.0893831253051758e-01" nType="0">
          <Node pos="l" depth="2" NCoef="0" IVar="-1" Cut="0.0000000000000000e+00" cType="1" res="-6.1358098173514009e-04" rms="4.5927807688713074e-01" purity="4.6501484513282776e-01" nType="-99"/>
          <Node pos="r" depth="2" NCoef="0" IVar="-1" Cut="0.0000000000000000e+00" cType="1" res="3.8793336716480553e-04" rms="4.5363625884056091e-01" purity="5.2257430553436279e-01" nType="-99"/>
        </Node>
      </Node>
    </BinaryTree>
    <BinaryTree type="DecisionTree" boostWeight="1.0000000000000000e+00" itree="660">
      <Node pos="s" depth="0" NCoef="0" IVar="6" Cut="8.1984472274780273e-01" cType="1" res="7.1640228852629662e-03" rms="4.5500928163528442e-01" purity="5.0507462024688721e-01" nType="0">
        <Node pos="l" depth="1" NCoef="0" IVar="-1" Cut="0.0000000000000000e+00" cType="1" res="-3.1209168955683708e-03" rms="4.0672469139099121e-01" purity="2.3108060657978058e-01" nType="-99"/>
        <Node pos="r" depth="1" NCoef="0" IVar="3" Cut="1.9032652676105499e-01" cType="1" res="1.0571919381618500e-02" rms="4.5718067884445190e-01" purity="5.1963359117507935e-01" nType="0">
          <Node pos="l" depth="2" NCoef="0" IVar="-1" Cut="0.0000000000000000e+00" cType="1" res="1.3213531346991658e-03" rms="4.6303975582122803e-01" purity="4.7928845882415771e-01" nType="-99"/>
          <Node pos="r" depth="2" NCoef="0" IVar="-1" Cut="0.0000000000000000e+00" cType="1" res="1.3580205268226564e-04" rms="4.5573997497558594e-01" purity="5.2784079313278198e-01" nType="-99"/>
        </Node>
      </Node>
    </BinaryTree>
    <BinaryTree type="DecisionTree" boostWeight="1.0000000000000000e+00" itree="661">
      <Node pos="s" depth="0" NCoef="0" IVar="2" Cut="8.6862003803253174e-01" cType="1" res="3.0623171478509903e-03" rms="4.5332273840904236e-01" purity="5.0259822607040405e-01" nType="0">
        <Node pos="l" depth="1" NCoef="0" IVar="8" Cut="9.1952545166015625e+01" cType="1" res="1.3158820569515228e-02" rms="4.5380896329879761e-01" purity="5.4433387517929077e-01" nType="0">
          <Node pos="l" depth="2" NCoef="0" IVar="-1" Cut="0.0000000000000000e+00" cType="1" res="-1.2232817243784666e-03" rms="4.5752617716789246e-01" purity="4.3609589338302612e-01" nType="-99"/>
          <Node pos="r" depth="2" NCoef="0" IVar="-1" Cut="0.0000000000000000e+00" cType="1" res="5.4345763055607677e-04" rms="4.5309510827064514e-01" purity="5.5595833063125610e-01" nType="-99"/>
        </Node>
        <Node pos="r" depth="1" NCoef="0" IVar="7" Cut="1.3437068462371826e-01" cType="1" res="-1.3453434221446514e-02" rms="4.5204040408134460e-01" purity="4.3432751297950745e-01" nType="0">
          <Node pos="l" depth="2" NCoef="0" IVar="-1" Cut="0.0000000000000000e+00" cType="1" res="-9.2323240824043751e-04" rms="4.4608980417251587e-01" purity="3.9628055691719055e-01" nType="-99"/>
          <Node pos="r" depth="2" NCoef="0" IVar="-1" Cut="0.0000000000000000e+00" cType="1" res="5.8547401567921042e-04" rms="4.6674504876136780e-01" purity="5.4151028394699097e-01" nType="-99"/>
        </Node>
      </Node>
    </BinaryTree>
    <BinaryTree type="DecisionTree" boostWeight="1.0000000000000000e+00" itree="662">
      <Node pos="s" depth="0" NCoef="0" IVar="7" Cut="-5.4014805704355240e-02" cType="1" res="3.8864847738295794e-03" rms="4.5467844605445862e-01" purity="5.0326871871948242e-01" nType="0">
        <Node pos="l" depth="1" NCoef="0" IVar="1" Cut="7.0691748046875000e+02" cType="1" res="-1.5048723667860031e-02" rms="4.4869223237037659e-01" purity="4.3817216157913208e-01" nType="0">
          <Node pos="l" depth="2" NCoef="0" IVar="-1" Cut="0.0000000000000000e+00" cType="1" res="-9.9358509760349989e-04" rms="4.4238141179084778e-01" purity="3.9631187915802002e-01" nType="-99"/>
          <Node pos="r" depth="2" NCoef="0" IVar="-1" Cut="0.0000000000000000e+00" cType="1" res="8.1943999975919724e-04" rms="4.6812838315963745e-01" purity="5.8916938304901123e-01" nType="-99"/>
        </Node>
        <Node pos="r" depth="1" NCoef="0" IVar="5" Cut="1.6636793613433838e+00" cType="1" res="1.2186154723167419e-02" rms="4.5703038573265076e-01" purity="5.3180181980133057e-01" nType="0">
          <Node pos="l" depth="2" NCoef="0" IVar="-1" Cut="0.0000000000000000e+00" cType="1" res="1.2848929036408663e-03" rms="4.4791567325592041e-01" purity="6.3449758291244507e-01" nType="-99"/>
          <Node pos="r" depth="2" NCoef="0" IVar="-1" Cut="0.0000000000000000e+00" cType="1" res="2.1105007908772677e-04" rms="4.5815891027450562e-01" purity="5.1627266407012939e-01" nType="-99"/>
        </Node>
      </Node>
    </BinaryTree>
    <BinaryTree type="DecisionTree" boostWeight="1.0000000000000000e+00" itree="663">
      <Node pos="s" depth="0" NCoef="0" IVar="0" Cut="9.4756555557250977e-01" cType="1" res="3.7131391000002623e-03" rms="4.5502412319183350e-01" purity="5.0222510099411011e-01" nType="0">
        <Node pos="l" depth="1" NCoef="0" IVar="3" Cut="4.2575690150260925e-01" cType="1" res="1.9754560664296150e-02" rms="4.5623540878295898e-01" purity="5.5593949556350708e-01" nType="0">
          <Node pos="l" depth="2" NCoef="0" IVar="-1" Cut="0.0000000000000000e+00" cType="1" res="1.0643858695402741e-03" rms="4.6048253774642944e-01" purity="4.9864959716796875e-01" nType="-99"/>
          <Node pos="r" depth="2" NCoef="0" IVar="-1" Cut="0.0000000000000000e+00" cType="1" res="2.2241189071792178e-05" rms="4.5016184449195862e-01" purity="6.2741762399673462e-01" nType="-99"/>
        </Node>
        <Node pos="r" depth="1" NCoef="0" IVar="9" Cut="1.0190763854980469e+02" cType="1" res="-7.1121882647275925e-03" rms="4.5388460159301758e-01" purity="4.6597659587860107e-01" nType="0">
          <Node pos="l" depth="2" NCoef="0" IVar="-1" Cut="0.0000000000000000e+00" cType="1" res="-7.5374322477728128e-04" rms="4.5418298244476318e-01" purity="4.4018679857254028e-01" nType="-99"/>
          <Node pos="r" depth="2" NCoef="0" IVar="-1" Cut="0.0000000000000000e+00" cType="1" res="3.8670081994496286e-04" rms="4.5277658104896545e-01" purity="4.9839690327644348e-01" nType="-99"/>
        </Node>
      </Node>
    </BinaryTree>
    <BinaryTree type="DecisionTree" boostWeight="1.0000000000000000e+00" itree="664">
      <Node pos="s" depth="0" NCoef="0" IVar="3" Cut="3.6452245712280273e-01" cType="1" res="2.0257986616343260e-03" rms="4.5524013042449951e-01" purity="4.9925374984741211e-01" nType="0">
        <Node pos="l" depth="1" NCoef="0" IVar="6" Cut="2.1958212852478027e+00" cType="1" res="1.3924373313784599e-02" rms="4.5752736926078796e-01" purity="4.2711552977561951e-01" nType="0">
          <Node pos="l" depth="2" NCoef="0" IVar="-1" Cut="0.0000000000000000e+00" cType="1" res="-6.6095788497477770e-05" rms="4.5107394456863403e-01" purity="3.4015080332756042e-01" nType="-99"/>
          <Node pos="r" depth="2" NCoef="0" IVar="-1" Cut="0.0000000000000000e+00" cType="1" res="1.1440237285569310e-03" rms="4.6749022603034973e-01" purity="5.8144348859786987e-01" nType="-99"/>
        </Node>
        <Node pos="r" depth="1" NCoef="0" IVar="6" Cut="3.9544596672058105e+00" cType="1" res="-9.4280177727341652e-03" rms="4.5273217558860779e-01" purity="5.6869554519653320e-01" nType="0">
          <Node pos="l" depth="2" NCoef="0" IVar="-1" Cut="0.0000000000000000e+00" cType="1" res="-9.1251404955983162e-04" rms="4.6956500411033630e-01" purity="4.4570142030715942e-01" nType="-99"/>
          <Node pos="r" depth="2" NCoef="0" IVar="-1" Cut="0.0000000000000000e+00" cType="1" res="4.1068458813242614e-04" rms="4.3025127053260803e-01" purity="7.1725594997406006e-01" nType="-99"/>
        </Node>
      </Node>
    </BinaryTree>
    <BinaryTree type="DecisionTree" boostWeight="1.0000000000000000e+00" itree="665">
      <Node pos="s" depth="0" NCoef="0" IVar="8" Cut="1.3785633850097656e+02" cType="1" res="-2.0651125814765692e-03" rms="4.5482003688812256e-01" purity="4.9635306000709534e-01" nType="0">
        <Node pos="l" depth="1" NCoef="0" IVar="8" Cut="1.0885329437255859e+02" cType="1" res="4.3373224325478077e-03" rms="4.5415410399436951e-01" purity="5.0093835592269897e-01" nType="0">
          <Node pos="l" depth="2" NCoef="0" IVar="-1" Cut="0.0000000000000000e+00" cType="1" res="-5.3073262097314000e-04" rms="4.5698639750480652e-01" purity="4.5430850982666016e-01" nType="-99"/>
          <Node pos="r" depth="2" NCoef="0" IVar="-1" Cut="0.0000000000000000e+00" cType="1" res="4.4795696157962084e-04" rms="4.5235013961791992e-01" purity="5.2474129199981689e-01" nType="-99"/>
        </Node>
        <Node pos="r" depth="1" NCoef="0" IVar="9" Cut="1.5261172485351562e+02" cType="1" res="-2.0493017509579659e-02" rms="4.5623013377189636e-01" purity="4.8315557837486267e-01" nType="0">
          <Node pos="l" depth="2" NCoef="0" IVar="-1" Cut="0.0000000000000000e+00" cType="1" res="-1.1877407087013125e-03" rms="4.5417204499244690e-01" purity="4.6390959620475769e-01" nType="-99"/>
          <Node pos="r" depth="2" NCoef="0" IVar="-1" Cut="0.0000000000000000e+00" cType="1" res="7.7231707109604031e-05" rms="4.5822745561599731e-01" purity="5.1102733612060547e-01" nType="-99"/>
        </Node>
      </Node>
    </BinaryTree>
    <BinaryTree type="DecisionTree" boostWeight="1.0000000000000000e+00" itree="666">
      <Node pos="s" depth="0" NCoef="0" IVar="6" Cut="1.1755084991455078e+00" cType="1" res="2.3919611703604460e-03" rms="4.5595771074295044e-01" purity="5.0102978944778442e-01" nType="0">
        <Node pos="l" depth="1" NCoef="0" IVar="0" Cut="1.0956168174743652e+00" cType="1" res="-3.7775777280330658e-02" rms="4.1729196906089783e-01" purity="2.5618079304695129e-01" nType="0">
          <Node pos="l" depth="2" NCoef="0" IVar="-1" Cut="0.0000000000000000e+00" cType="1" res="-2.1861207205802202e-03" rms="4.2638468742370605e-01" purity="2.7250340580940247e-01" nType="-99"/>
          <Node pos="r" depth="2" NCoef="0" IVar="-1" Cut="0.0000000000000000e+00" cType="1" res="-1.5668579144403338e-03" rms="4.0795680880546570e-01" purity="2.4012096226215363e-01" nType="-99"/>
        </Node>
        <Node pos="r" depth="1" NCoef="0" IVar="3" Cut="5.9678369760513306e-01" cType="1" res="6.9581489078700542e-03" rms="4.5992550253868103e-01" purity="5.2886372804641724e-01" nType="0">
          <Node pos="l" depth="2" NCoef="0" IVar="-1" Cut="0.0000000000000000e+00" cType="1" res="4.7746096970513463e-04" rms="4.6437594294548035e-01" purity="4.8254999518394470e-01" nType="-99"/>
          <Node pos="r" depth="2" NCoef="0" IVar="-1" Cut="0.0000000000000000e+00" cType="1" res="-3.4439860610291362e-04" rms="4.4886523485183716e-01" purity="6.3603144884109497e-01" nType="-99"/>
        </Node>
      </Node>
    </BinaryTree>
    <BinaryTree type="DecisionTree" boostWeight="1.0000000000000000e+00" itree="667">
      <Node pos="s" depth="0" NCoef="0" IVar="7" Cut="-1.1159882694482803e-01" cType="1" res="-4.1657313704490662e-03" rms="4.5542281866073608e-01" purity="4.9320554733276367e-01" nType="0">
        <Node pos="l" depth="1" NCoef="0" IVar="-1" Cut="0.0000000000000000e+00" cType="1" res="-2.6121826376765966e-03" rms="4.2962381243705750e-01" purity="3.4326660633087158e-01" nType="-99"/>
        <Node pos="r" depth="1" NCoef="0" IVar="1" Cut="3.9638223266601562e+02" cType="1" res="1.2586952834681142e-05" rms="4.5685660839080811e-01" purity="5.0356835126876831e-01" nType="0">
          <Node pos="l" depth="2" NCoef="0" IVar="-1" Cut="0.0000000000000000e+00" cType="1" res="-1.5095403650775552e-03" rms="4.2800760269165039e-01" purity="2.9652976989746094e-01" nType="-99"/>
          <Node pos="r" depth="2" NCoef="0" IVar="-1" Cut="0.0000000000000000e+00" cType="1" res="1.6779321595095098e-04" rms="4.6119832992553711e-01" purity="5.3769308328628540e-01" nType="-99"/>
        </Node>
      </Node>
    </BinaryTree>
    <BinaryTree type="DecisionTree" boostWeight="1.0000000000000000e+00" itree="668">
      <Node pos="s" depth="0" NCoef="0" IVar="8" Cut="9.2018203735351562e+01" cType="1" res="5.1879133097827435e-03" rms="4.5614671707153320e-01" purity="5.0233626365661621e-01" nType="0">
        <Node pos="l" depth="1" NCoef="0" IVar="-1" Cut="0.0000000000000000e+00" cType="1" res="-1.3311530929058790e-03" rms="4.5538336038589478e-01" purity="4.0314960479736328e-01" nType="-99"/>
        <Node pos="r" depth="1" NCoef="0" IVar="9" Cut="1.6665850830078125e+02" cType="1" res="9.6299778670072556e-03" rms="4.5599907636642456e-01" purity="5.1274794340133667e-01" nType="0">
          <Node pos="l" depth="2" NCoef="0" IVar="-1" Cut="0.0000000000000000e+00" cType="1" res="1.6069036792032421e-04" rms="4.5542499423027039e-01" purity="5.0756925344467163e-01" nType="-99"/>
          <Node pos="r" depth="2" NCoef="0" IVar="-1" Cut="0.0000000000000000e+00" cType="1" res="1.3614620547741652e-03" rms="4.5897057652473450e-01" purity="5.5357772111892700e-01" nType="-99"/>
        </Node>
      </Node>
    </BinaryTree>
    <BinaryTree type="DecisionTree" boostWeight="1.0000000000000000e+00" itree="669">
      <Node pos="s" depth="0" NCoef="0" IVar="7" Cut="1.6183559596538544e-01" cType="1" res="1.6123586101457477e-03" rms="4.5382618904113770e-01" purity="5.0067353248596191e-01" nType="0">
        <Node pos="l" depth="1" NCoef="0" IVar="0" Cut="1.3627204895019531e+00" cType="1" res="-4.4102724641561508e-03" rms="4.5417353510856628e-01" purity="4.8101934790611267e-01" nType="0">
          <Node pos="l" depth="2" NCoef="0" IVar="-1" Cut="0.0000000000000000e+00" cType="1" res="9.3911934527568519e-05" rms="4.5654946565628052e-01" purity="5.0652253627777100e-01" nType="-99"/>
          <Node pos="r" depth="2" NCoef="0" IVar="-1" Cut="0.0000000000000000e+00" cType="1" res="-9.4161753077059984e-04" rms="4.4640320539474487e-01" purity="4.0608015656471252e-01" nType="-99"/>
        </Node>
        <Node pos="r" depth="1" NCoef="0" IVar="8" Cut="1.1435668945312500e+02" cType="1" res="3.1832836568355560e-02" rms="4.5086622238159180e-01" purity="5.9929460287094116e-01" nType="0">
          <Node pos="l" depth="2" NCoef="0" IVar="-1" Cut="0.0000000000000000e+00" cType="1" res="2.6547024026513100e-04" rms="4.5457440614700317e-01" purity="5.5594980716705322e-01" nType="-99"/>
          <Node pos="r" depth="2" NCoef="0" IVar="-1" Cut="0.0000000000000000e+00" cType="1" res="1.2152170529589057e-03" rms="4.4837343692779541e-01" purity="6.2267535924911499e-01" nType="-99"/>
        </Node>
      </Node>
    </BinaryTree>
    <BinaryTree type="DecisionTree" boostWeight="1.0000000000000000e+00" itree="670">
      <Node pos="s" depth="0" NCoef="0" IVar="3" Cut="4.0322875976562500e-01" cType="1" res="5.5973865091800690e-03" rms="4.5528578758239746e-01" purity="5.0330704450607300e-01" nType="0">
        <Node pos="l" depth="1" NCoef="0" IVar="6" Cut="3.1074593067169189e+00" cType="1" res="1.8125772476196289e-02" rms="4.5811262726783752e-01" purity="4.3850722908973694e-01" nType="0">
          <Node pos="l" depth="2" NCoef="0" IVar="-1" Cut="0.0000000000000000e+00" cType="1" res="3.7012848770245910e-04" rms="4.5992502570152283e-01" purity="3.9767897129058838e-01" nType="-99"/>
          <Node pos="r" depth="2" NCoef="0" IVar="-1" Cut="0.0000000000000000e+00" cType="1" res="1.6735836397856474e-03" rms="4.4351333379745483e-01" purity="6.9300585985183716e-01" nType="-99"/>
        </Node>
        <Node pos="r" depth="1" NCoef="0" IVar="6" Cut="2.7842619419097900e+00" cType="1" res="-9.0476032346487045e-03" rms="4.5151847600936890e-01" purity="5.7905441522598267e-01" nType="0">
          <Node pos="l" depth="2" NCoef="0" IVar="-1" Cut="0.0000000000000000e+00" cType="1" res="-2.2706310264766216e-03" rms="4.4772288203239441e-01" purity="3.1792685389518738e-01" nType="-99"/>
          <Node pos="r" depth="2" NCoef="0" IVar="-1" Cut="0.0000000000000000e+00" cType="1" res="3.4497621527407318e-05" rms="4.5162168145179749e-01" purity="6.3339978456497192e-01" nType="-99"/>
        </Node>
      </Node>
    </BinaryTree>
    <BinaryTree type="DecisionTree" boostWeight="1.0000000000000000e+00" itree="671">
      <Node pos="s" depth="0" NCoef="0" IVar="7" Cut="-1.1095623672008514e-01" cType="1" res="6.5865344367921352e-04" rms="4.5550799369812012e-01" purity="4.9958798289299011e-01" nType="0">
        <Node pos="l" depth="1" NCoef="0" IVar="-1" Cut="0.0000000000000000e+00" cType="1" res="-1.5335504431277514e-03" rms="4.3635684251785278e-01" purity="3.7495094537734985e-01" nType="-99"/>
        <Node pos="r" depth="1" NCoef="0" IVar="8" Cut="1.3823445129394531e+02" cType="1" res="3.7899480666965246e-03" rms="4.5674625039100647e-01" purity="5.0886398553848267e-01" nType="0">
          <Node pos="l" depth="2" NCoef="0" IVar="-1" Cut="0.0000000000000000e+00" cType="1" res="3.2446498516947031e-04" rms="4.5427703857421875e-01" purity="5.1458591222763062e-01" nType="-99"/>
          <Node pos="r" depth="2" NCoef="0" IVar="-1" Cut="0.0000000000000000e+00" cType="1" res="-5.3345062769949436e-04" rms="4.6351340413093567e-01" purity="4.9162167310714722e-01" nType="-99"/>
        </Node>
      </Node>
    </BinaryTree>
    <BinaryTree type="DecisionTree" boostWeight="1.0000000000000000e+00" itree="672">
      <Node pos="s" depth="0" NCoef="0" IVar="3" Cut="1.5161497890949249e-01" cType="1" res="4.1688210330903530e-03" rms="4.5481169223785400e-01" purity="5.0234246253967285e-01" nType="0">
        <Node pos="l" depth="1" NCoef="0" IVar="6" Cut="1.3419752120971680e+00" cType="1" res="3.5527065396308899e-02" rms="4.5875254273414612e-01" purity="4.4206920266151428e-01" nType="0">
          <Node pos="l" depth="2" NCoef="0" IVar="-1" Cut="0.0000000000000000e+00" cType="1" res="7.5154710793867707e-04" rms="4.5183855295181274e-01" purity="3.4204474091529846e-01" nType="-99"/>
          <Node pos="r" depth="2" NCoef="0" IVar="-1" Cut="0.0000000000000000e+00" cType="1" res="1.6080060740932822e-03" rms="4.6532994508743286e-01" purity="5.4991132020950317e-01" nType="-99"/>
        </Node>
        <Node pos="r" depth="1" NCoef="0" IVar="6" Cut="1.9991863965988159e+00" cType="1" res="2.1670582646038383e-04" rms="4.5415899157524109e-01" purity="5.0993871688842773e-01" nType="0">
          <Node pos="l" depth="2" NCoef="0" IVar="-1" Cut="0.0000000000000000e+00" cType="1" res="-8.6367514450103045e-04" rms="4.3908494710922241e-01" purity="3.0050733685493469e-01" nType="-99"/>
          <Node pos="r" depth="2" NCoef="0" IVar="-1" Cut="0.0000000000000000e+00" cType="1" res="1.9024530774913728e-04" rms="4.5870783925056458e-01" purity="5.7720738649368286e-01" nType="-99"/>
        </Node>
      </Node>
    </BinaryTree>
    <BinaryTree type="DecisionTree" boostWeight="1.0000000000000000e+00" itree="673">
      <Node pos="s" depth="0" NCoef="0" IVar="6" Cut="5.0832147598266602e+00" cType="1" res="5.6335874833166599e-03" rms="4.5582470297813416e-01" purity="5.0504231452941895e-01" nType="0">
        <Node pos="l" depth="1" NCoef="0" IVar="3" Cut="5.5797612667083740e-01" cType="1" res="1.6091236611828208e-03" rms="4.6194171905517578e-01" purity="4.7601079940795898e-01" nType="0">
          <Node pos="l" depth="2" NCoef="0" IVar="-1" Cut="0.0000000000000000e+00" cType="1" res="4.2482541175559163e-04" rms="4.5908391475677490e-01" purity="4.4970116019248962e-01" nType="-99"/>
          <Node pos="r" depth="2" NCoef="0" IVar="-1" Cut="0.0000000000000000e+00" cType="1" res="-9.5450133085250854e-04" rms="4.6914178133010864e-01" purity="5.5977255105972290e-01" nType="-99"/>
        </Node>
        <Node pos="r" depth="1" NCoef="0" IVar="-1" Cut="0.0000000000000000e+00" cType="1" res="1.3260897248983383e-03" rms="3.8402438163757324e-01" purity="8.0694925785064697e-01" nType="-99"/>
      </Node>
    </BinaryTree>
    <BinaryTree type="DecisionTree" boostWeight="1.0000000000000000e+00" itree="674">
      <Node pos="s" depth="0" NCoef="0" IVar="3" Cut="1.5161632001399994e-01" cType="1" res="-1.3782269088551402e-03" rms="4.5512661337852478e-01" purity="4.9596893787384033e-01" nType="0">
        <Node pos="l" depth="1" NCoef="0" IVar="1" Cut="5.6030084228515625e+02" cType="1" res="3.2789066433906555e-02" rms="4.5672327280044556e-01" purity="4.4003650546073914e-01" nType="0">
          <Node pos="l" depth="2" NCoef="0" IVar="-1" Cut="0.0000000000000000e+00" cType="1" res="4.6873348765075207e-04" rms="4.4612097740173340e-01" purity="3.5463178157806396e-01" nType="-99"/>
          <Node pos="r" depth="2" NCoef="0" IVar="-1" Cut="0.0000000000000000e+00" cType="1" res="1.7596022225916386e-03" rms="4.6818917989730835e-01" purity="5.4628336429595947e-01" nType="-99"/>
        </Node>
        <Node pos="r" depth="1" NCoef="0" IVar="6" Cut="4.6385188102722168e+00" cType="1" res="-5.7594859972596169e-03" rms="4.5473578572273254e-01" purity="5.0314116477966309e-01" nType="0">
          <Node pos="l" depth="2" NCoef="0" IVar="-1" Cut="0.0000000000000000e+00" cType="1" res="-3.4826956107281148e-04" rms="4.6259817481040955e-01" purity="4.5724999904632568e-01" nType="-99"/>
          <Node pos="r" depth="2" NCoef="0" IVar="-1" Cut="0.0000000000000000e+00" cType="1" res="6.7292776657268405e-04" rms="4.0523651242256165e-01" purity="7.6743376255035400e-01" nType="-99"/>
        </Node>
      </Node>
    </BinaryTree>
    <BinaryTree type="DecisionTree" boostWeight="1.0000000000000000e+00" itree="675">
      <Node pos="s" depth="0" NCoef="0" IVar="8" Cut="1.3823445129394531e+02" cType="1" res="-2.6734373532235622e-03" rms="4.5381265878677368e-01" purity="4.9566215276718140e-01" nType="0">
        <Node pos="l" depth="1" NCoef="0" IVar="6" Cut="1.4261970520019531e+00" cType="1" res="5.5365380831062794e-03" rms="4.5336166024208069e-01" purity="5.0132453441619873e-01" nType="0">
          <Node pos="l" depth="2" NCoef="0" IVar="-1" Cut="0.0000000000000000e+00" cType="1" res="-1.2972059193998575e-03" rms="4.2694982886314392e-01" purity="2.7387699484825134e-01" nType="-99"/>
          <Node pos="r" depth="2" NCoef="0" IVar="-1" Cut="0.0000000000000000e+00" cType="1" res="3.4415407571941614e-04" rms="4.5791122317314148e-01" purity="5.4417490959167480e-01" nType="-99"/>
        </Node>
        <Node pos="r" depth="1" NCoef="0" IVar="9" Cut="1.4895220947265625e+02" cType="1" res="-2.6419287547469139e-02" rms="4.5428007841110229e-01" purity="4.7928488254547119e-01" nType="0">
          <Node pos="l" depth="2" NCoef="0" IVar="-1" Cut="0.0000000000000000e+00" cType="1" res="-1.7854325706139207e-03" rms="4.4910123944282532e-01" purity="4.4399780035018921e-01" nType="-99"/>
          <Node pos="r" depth="2" NCoef="0" IVar="-1" Cut="0.0000000000000000e+00" cType="1" res="1.3497847248800099e-04" rms="4.5832982659339905e-01" purity="5.2035015821456909e-01" nType="-99"/>
        </Node>
      </Node>
    </BinaryTree>
    <BinaryTree type="DecisionTree" boostWeight="1.0000000000000000e+00" itree="676">
      <Node pos="s" depth="0" NCoef="0" IVar="8" Cut="1.0197555541992188e+02" cType="1" res="-2.1709938300773501e-04" rms="4.5415940880775452e-01" purity="4.9714255332946777e-01" nType="0">
        <Node pos="l" depth="1" NCoef="0" IVar="0" Cut="1.3033398389816284e+00" cType="1" res="-3.3600330352783203e-02" rms="4.5243784785270691e-01" purity="4.2798817157745361e-01" nType="0">
          <Node pos="l" depth="2" NCoef="0" IVar="-1" Cut="0.0000000000000000e+00" cType="1" res="-4.6404651948250830e-04" rms="4.6015119552612305e-01" purity="4.7032725811004639e-01" nType="-99"/>
          <Node pos="r" depth="2" NCoef="0" IVar="-1" Cut="0.0000000000000000e+00" cType="1" res="-3.2157455570995808e-03" rms="4.3036600947380066e-01" purity="3.2839822769165039e-01" nType="-99"/>
        </Node>
        <Node pos="r" depth="1" NCoef="0" IVar="5" Cut="1.9154360294342041e+00" cType="1" res="6.8510756827890873e-03" rms="4.5420846343040466e-01" purity="5.1178455352783203e-01" nType="0">
          <Node pos="l" depth="2" NCoef="0" IVar="-1" Cut="0.0000000000000000e+00" cType="1" res="1.0538800852373242e-03" rms="4.4804885983467102e-01" purity="6.2341123819351196e-01" nType="-99"/>
          <Node pos="r" depth="2" NCoef="0" IVar="-1" Cut="0.0000000000000000e+00" cType="1" res="-4.5705899538006634e-05" rms="4.5546579360961914e-01" purity="4.8224660754203796e-01" nType="-99"/>
        </Node>
      </Node>
    </BinaryTree>
    <BinaryTree type="DecisionTree" boostWeight="1.0000000000000000e+00" itree="677">
      <Node pos="s" depth="0" NCoef="0" IVar="3" Cut="5.3871834278106689e-01" cType="1" res="2.2517319303005934e-03" rms="4.5581540465354919e-01" purity="4.9980577826499939e-01" nType="0">
        <Node pos="l" depth="1" NCoef="0" IVar="6" Cut="2.1128113269805908e+00" cType="1" res="1.1569986119866371e-02" rms="4.5805969834327698e-01" purity="4.4711771607398987e-01" nType="0">
          <Node pos="l" depth="2" NCoef="0" IVar="-1" Cut="0.0000000000000000e+00" cType="1" res="-2.7086125919595361e-04" rms="4.4686201214790344e-01" purity="3.3015042543411255e-01" nType="-99"/>
          <Node pos="r" depth="2" NCoef="0" IVar="-1" Cut="0.0000000000000000e+00" cType="1" res="8.1059889635071158e-04" rms="4.6779647469520569e-01" purity="5.5820208787918091e-01" nType="-99"/>
        </Node>
        <Node pos="r" depth="1" NCoef="0" IVar="6" Cut="4.4891605377197266e+00" cType="1" res="-1.7374398186802864e-02" rms="4.5042175054550171e-01" purity="6.1077755689620972e-01" nType="0">
          <Node pos="l" depth="2" NCoef="0" IVar="-1" Cut="0.0000000000000000e+00" cType="1" res="-1.3542550150305033e-03" rms="4.7405821084976196e-01" purity="4.9968573451042175e-01" nType="-99"/>
          <Node pos="r" depth="2" NCoef="0" IVar="-1" Cut="0.0000000000000000e+00" cType="1" res="5.7750131236389279e-04" rms="4.1477006673812866e-01" purity="7.5467675924301147e-01" nType="-99"/>
        </Node>
      </Node>
    </BinaryTree>
    <BinaryTree type="DecisionTree" boostWeight="1.0000000000000000e+00" itree="678">
      <Node pos="s" depth="0" NCoef="0" IVar="3" Cut="1.9032497704029083e-01" cType="1" res="3.6556348204612732e-03" rms="4.5641168951988220e-01" purity="5.0205200910568237e-01" nType="0">
        <Node pos="l" depth="1" NCoef="0" IVar="6" Cut="1.8571621179580688e+00" cType="1" res="3.2998796552419662e-02" rms="4.5949921011924744e-01" purity="4.4087508320808411e-01" nType="0">
          <Node pos="l" depth="2" NCoef="0" IVar="-1" Cut="0.0000000000000000e+00" cType="1" res="7.3414220241829753e-04" rms="4.5481595396995544e-01" purity="3.6151665449142456e-01" nType="-99"/>
          <Node pos="r" depth="2" NCoef="0" IVar="-1" Cut="0.0000000000000000e+00" cType="1" res="1.6920813359320164e-03" rms="4.6721857786178589e-01" purity="5.9617143869400024e-01" nType="-99"/>
        </Node>
        <Node pos="r" depth="1" NCoef="0" IVar="6" Cut="3.4493815898895264e+00" cType="1" res="-3.9424775168299675e-03" rms="4.5530065894126892e-01" purity="5.1789319515228271e-01" nType="0">
          <Node pos="l" depth="2" NCoef="0" IVar="-1" Cut="0.0000000000000000e+00" cType="1" res="-5.0442526116967201e-04" rms="4.6337804198265076e-01" purity="3.9803853631019592e-01" nType="-99"/>
          <Node pos="r" depth="2" NCoef="0" IVar="-1" Cut="0.0000000000000000e+00" cType="1" res="2.9578836984001100e-04" rms="4.4350573420524597e-01" purity="6.8291664123535156e-01" nType="-99"/>
        </Node>
      </Node>
    </BinaryTree>
    <BinaryTree type="DecisionTree" boostWeight="1.0000000000000000e+00" itree="679">
      <Node pos="s" depth="0" NCoef="0" IVar="7" Cut="-1.1426540464162827e-01" cType="1" res="3.4696646034717560e-03" rms="4.5327663421630859e-01" purity="5.0275456905364990e-01" nType="0">
        <Node pos="l" depth="1" NCoef="0" IVar="-1" Cut="0.0000000000000000e+00" cType="1" res="-2.1555507555603981e-03" rms="4.3476974964141846e-01" purity="3.5968154668807983e-01" nType="-99"/>
        <Node pos="r" depth="1" NCoef="0" IVar="1" Cut="4.0610369873046875e+02" cType="1" res="6.9862222298979759e-03" rms="4.5410659909248352e-01" purity="5.1123452186584473e-01" nType="0">
          <Node pos="l" depth="2" NCoef="0" IVar="-1" Cut="0.0000000000000000e+00" cType="1" res="-1.0892763966694474e-03" rms="4.2799937725067139e-01" purity="3.1359112262725830e-01" nType="-99"/>
          <Node pos="r" depth="2" NCoef="0" IVar="-1" Cut="0.0000000000000000e+00" cType="1" res="3.9690651465207338e-04" rms="4.5892417430877686e-01" purity="5.5117535591125488e-01" nType="-99"/>
        </Node>
      </Node>
    </BinaryTree>
    <BinaryTree type="DecisionTree" boostWeight="1.0000000000000000e+00" itree="680">
      <Node pos="s" depth="0" NCoef="0" IVar="3" Cut="1.9032497704029083e-01" cType="1" res="2.5473372079432011e-03" rms="4.5511195063591003e-01" purity="4.9936404824256897e-01" nType="0">
        <Node pos="l" depth="1" NCoef="0" IVar="6" Cut="1.9800679683685303e+00" cType="1" res="2.7444144710898399e-02" rms="4.5543411374092102e-01" purity="4.3595096468925476e-01" nType="0">
          <Node pos="l" depth="2" NCoef="0" IVar="-1" Cut="0.0000000000000000e+00" cType="1" res="5.6556554045528173e-04" rms="4.5434960722923279e-01" purity="3.5928508639335632e-01" nType="-99"/>
          <Node pos="r" depth="2" NCoef="0" IVar="-1" Cut="0.0000000000000000e+00" cType="1" res="1.6275970265269279e-03" rms="4.5637911558151245e-01" purity="6.2218141555786133e-01" nType="-99"/>
        </Node>
        <Node pos="r" depth="1" NCoef="0" IVar="2" Cut="5.9038060903549194e-01" cType="1" res="-3.9319870993494987e-03" rms="4.5480462908744812e-01" purity="5.1586711406707764e-01" nType="0">
          <Node pos="l" depth="2" NCoef="0" IVar="-1" Cut="0.0000000000000000e+00" cType="1" res="4.6268544974736869e-04" rms="4.4809418916702271e-01" purity="6.0512131452560425e-01" nType="-99"/>
          <Node pos="r" depth="2" NCoef="0" IVar="-1" Cut="0.0000000000000000e+00" cType="1" res="-3.5044967080466449e-04" rms="4.5692875981330872e-01" purity="4.8447558283805847e-01" nType="-99"/>
        </Node>
      </Node>
    </BinaryTree>
    <BinaryTree type="DecisionTree" boostWeight="1.0000000000000000e+00" itree="681">
      <Node pos="s" depth="0" NCoef="0" IVar="7" Cut="2.1536099910736084e-01" cType="1" res="-1.8026975449174643e-03" rms="4.5336905121803284e-01" purity="4.9741938710212708e-01" nType="0">
        <Node pos="l" depth="1" NCoef="0" IVar="2" Cut="4.1758590936660767e-01" cType="1" res="-5.6774900294840336e-03" rms="4.5319819450378418e-01" purity="4.8627504706382751e-01" nType="0">
          <Node pos="l" depth="2" NCoef="0" IVar="-1" Cut="0.0000000000000000e+00" cType="1" res="8.6303637363016605e-04" rms="4.4645369052886963e-01" purity="5.9663569927215576e-01" nType="-99"/>
          <Node pos="r" depth="2" NCoef="0" IVar="-1" Cut="0.0000000000000000e+00" cType="1" res="-3.2355132861994207e-04" rms="4.5379620790481567e-01" purity="4.7330138087272644e-01" nType="-99"/>
        </Node>
        <Node pos="r" depth="1" NCoef="0" IVar="-1" Cut="0.0000000000000000e+00" cType="1" res="1.0525098768994212e-03" rms="4.5319992303848267e-01" purity="6.1228454113006592e-01" nType="-99"/>
      </Node>
    </BinaryTree>
    <BinaryTree type="DecisionTree" boostWeight="1.0000000000000000e+00" itree="682">
      <Node pos="s" depth="0" NCoef="0" IVar="8" Cut="9.2307037353515625e+01" cType="1" res="4.8233810812234879e-03" rms="4.5440739393234253e-01" purity="5.0282740592956543e-01" nType="0">
        <Node pos="l" depth="1" NCoef="0" IVar="-1" Cut="0.0000000000000000e+00" cType="1" res="-1.6052755527198315e-03" rms="4.5106509327888489e-01" purity="3.9812308549880981e-01" nType="-99"/>
        <Node pos="r" depth="1" NCoef="0" IVar="5" Cut="1.6965470314025879e+00" cType="1" res="1.0162264108657837e-02" rms="4.5444855093955994e-01" purity="5.1419311761856079e-01" nType="0">
          <Node pos="l" depth="2" NCoef="0" IVar="-1" Cut="0.0000000000000000e+00" cType="1" res="1.3592677423730493e-03" rms="4.4746556878089905e-01" purity="6.4809292554855347e-01" nType="-99"/>
          <Node pos="r" depth="2" NCoef="0" IVar="-1" Cut="0.0000000000000000e+00" cType="1" res="1.3950357970315963e-04" rms="4.5514285564422607e-01" purity="4.9512878060340881e-01" nType="-99"/>
        </Node>
      </Node>
    </BinaryTree>
    <BinaryTree type="DecisionTree" boostWeight="1.0000000000000000e+00" itree="683">
      <Node pos="s" depth="0" NCoef="0" IVar="2" Cut="1.0165065526962280e+00" cType="1" res="-2.4914904497563839e-03" rms="4.5484682917594910e-01" purity="4.9527847766876221e-01" nType="0">
        <Node pos="l" depth="1" NCoef="0" IVar="9" Cut="1.5782455444335938e+02" cType="1" res="3.4773901570588350e-03" rms="4.5574244856834412e-01" purity="5.2002710103988647e-01" nType="0">
          <Node pos="l" depth="2" NCoef="0" IVar="-1" Cut="0.0000000000000000e+00" cType="1" res="-4.8759793571662158e-05" rms="4.5457312464714050e-01" purity="5.1193237304687500e-01" nType="-99"/>
          <Node pos="r" depth="2" NCoef="0" IVar="-1" Cut="0.0000000000000000e+00" cType="1" res="1.1568170739337802e-03" rms="4.6238809823989868e-01" purity="5.7762002944946289e-01" nType="-99"/>
        </Node>
        <Node pos="r" depth="1" NCoef="0" IVar="3" Cut="2.0967972278594971e-01" cType="1" res="-2.3179441690444946e-02" rms="4.5111811161041260e-01" purity="4.0950039029121399e-01" nType="0">
          <Node pos="l" depth="2" NCoef="0" IVar="-1" Cut="0.0000000000000000e+00" cType="1" res="5.8431056095287204e-04" rms="4.3971034884452820e-01" purity="3.6271786689758301e-01" nType="-99"/>
          <Node pos="r" depth="2" NCoef="0" IVar="-1" Cut="0.0000000000000000e+00" cType="1" res="-1.1741867056116462e-03" rms="4.5384168624877930e-01" purity="4.2332819104194641e-01" nType="-99"/>
        </Node>
      </Node>
    </BinaryTree>
    <BinaryTree type="DecisionTree" boostWeight="1.0000000000000000e+00" itree="684">
      <Node pos="s" depth="0" NCoef="0" IVar="7" Cut="-1.1092963069677353e-01" cType="1" res="4.7612115740776062e-03" rms="4.5542553067207336e-01" purity="5.0211322307586670e-01" nType="0">
        <Node pos="l" depth="1" NCoef="0" IVar="-1" Cut="0.0000000000000000e+00" cType="1" res="-1.1428334983065724e-03" rms="4.4520467519760132e-01" purity="3.7737876176834106e-01" nType="-99"/>
        <Node pos="r" depth="1" NCoef="0" IVar="5" Cut="1.6632652282714844e+00" cType="1" res="7.3534166440367699e-03" rms="4.5605322718620300e-01" purity="5.1120573282241821e-01" nType="0">
          <Node pos="l" depth="2" NCoef="0" IVar="-1" Cut="0.0000000000000000e+00" cType="1" res="1.0086785769090056e-03" rms="4.4531404972076416e-01" purity="6.2633657455444336e-01" nType="-99"/>
          <Node pos="r" depth="2" NCoef="0" IVar="-1" Cut="0.0000000000000000e+00" cType="1" res="1.0447371460031718e-04" rms="4.5736765861511230e-01" purity="4.9531796574592590e-01" nType="-99"/>
        </Node>
      </Node>
    </BinaryTree>
    <BinaryTree type="DecisionTree" boostWeight="1.0000000000000000e+00" itree="685">
      <Node pos="s" depth="0" NCoef="0" IVar="2" Cut="1.2721935510635376e+00" cType="1" res="4.1660439455881715e-04" rms="4.5551988482475281e-01" purity="4.9879753589630127e-01" nType="0">
        <Node pos="l" depth="1" NCoef="0" IVar="1" Cut="3.7399658203125000e+02" cType="1" res="3.4785117022693157e-03" rms="4.5586487650871277e-01" purity="5.0581985712051392e-01" nType="0">
          <Node pos="l" depth="2" NCoef="0" IVar="-1" Cut="0.0000000000000000e+00" cType="1" res="-1.8752102041617036e-03" rms="4.2052331566810608e-01" purity="2.7663540840148926e-01" nType="-99"/>
          <Node pos="r" depth="2" NCoef="0" IVar="-1" Cut="0.0000000000000000e+00" cType="1" res="2.3555284133180976e-04" rms="4.5902955532073975e-01" purity="5.2875417470932007e-01" nType="-99"/>
        </Node>
        <Node pos="r" depth="1" NCoef="0" IVar="-1" Cut="0.0000000000000000e+00" cType="1" res="-1.9605499692261219e-03" rms="4.4603031873703003e-01" purity="3.7571793794631958e-01" nType="-99"/>
      </Node>
    </BinaryTree>
    <BinaryTree type="DecisionTree" boostWeight="1.0000000000000000e+00" itree="686">
      <Node pos="s" depth="0" NCoef="0" IVar="8" Cut="1.3785633850097656e+02" cType="1" res="3.5916091292165220e-04" rms="4.5330464839935303e-01" purity="4.9855223298072815e-01" nType="0">
        <Node pos="l" depth="1" NCoef="0" IVar="4" Cut="4.0530593872070312e+01" cType="1" res="8.2639437168836594e-03" rms="4.5155590772628784e-01" purity="5.0369262695312500e-01" nType="0">
          <Node pos="l" depth="2" NCoef="0" IVar="-1" Cut="0.0000000000000000e+00" cType="1" res="-8.2403916167095304e-04" rms="4.4545933604240417e-01" purity="4.1768121719360352e-01" nType="-99"/>
          <Node pos="r" depth="2" NCoef="0" IVar="-1" Cut="0.0000000000000000e+00" cType="1" res="5.3577334620058537e-04" rms="4.5293197035789490e-01" purity="5.2942907810211182e-01" nType="-99"/>
        </Node>
        <Node pos="r" depth="1" NCoef="0" IVar="9" Cut="1.6553750610351562e+02" cType="1" res="-2.2039933130145073e-02" rms="4.5748245716094971e-01" purity="4.8398643732070923e-01" nType="0">
          <Node pos="l" depth="2" NCoef="0" IVar="-1" Cut="0.0000000000000000e+00" cType="1" res="-1.1738132452592254e-03" rms="4.5526382327079773e-01" purity="4.6718326210975647e-01" nType="-99"/>
          <Node pos="r" depth="2" NCoef="0" IVar="-1" Cut="0.0000000000000000e+00" cType="1" res="2.3479730589315295e-04" rms="4.6075540781021118e-01" purity="5.1943176984786987e-01" nType="-99"/>
        </Node>
      </Node>
    </BinaryTree>
    <BinaryTree type="DecisionTree" boostWeight="1.0000000000000000e+00" itree="687">
      <Node pos="s" depth="0" NCoef="0" IVar="6" Cut="2.5103840827941895e+00" cType="1" res="4.2007388547062874e-03" rms="4.5363575220108032e-01" purity="5.0185191631317139e-01" nType="0">
        <Node pos="l" depth="1" NCoef="0" IVar="3" Cut="3.7191268801689148e-01" cType="1" res="-8.1415604799985886e-03" rms="4.5112994313240051e-01" purity="3.5209465026855469e-01" nType="0">
          <Node pos="l" depth="2" NCoef="0" IVar="-1" Cut="0.0000000000000000e+00" cType="1" res="3.7048561353003606e-05" rms="4.5384526252746582e-01" purity="3.6204490065574646e-01" nType="-99"/>
          <Node pos="r" depth="2" NCoef="0" IVar="-1" Cut="0.0000000000000000e+00" cType="1" res="-2.2652135230600834e-03" rms="4.3294143676757812e-01" purity="2.9851973056793213e-01" nType="-99"/>
        </Node>
        <Node pos="r" depth="1" NCoef="0" IVar="3" Cut="5.3871834278106689e-01" cType="1" res="1.3862136751413345e-02" rms="4.5535430312156677e-01" purity="6.1908006668090820e-01" nType="0">
          <Node pos="l" depth="2" NCoef="0" IVar="-1" Cut="0.0000000000000000e+00" cType="1" res="1.0053515434265137e-03" rms="4.6070936322212219e-01" purity="6.0540819168090820e-01" nType="-99"/>
          <Node pos="r" depth="2" NCoef="0" IVar="-1" Cut="0.0000000000000000e+00" cType="1" res="-1.3333506649360061e-04" rms="4.5016735792160034e-01" purity="6.2998467683792114e-01" nType="-99"/>
        </Node>
      </Node>
    </BinaryTree>
    <BinaryTree type="DecisionTree" boostWeight="1.0000000000000000e+00" itree="688">
      <Node pos="s" depth="0" NCoef="0" IVar="8" Cut="9.2018203735351562e+01" cType="1" res="-8.6633587488904595e-04" rms="4.5518597960472107e-01" purity="4.9660944938659668e-01" nType="0">
        <Node pos="l" depth="1" NCoef="0" IVar="-1" Cut="0.0000000000000000e+00" cType="1" res="-1.3774388935416937e-03" rms="4.5787677168846130e-01" purity="3.9664560556411743e-01" nType="-99"/>
        <Node pos="r" depth="1" NCoef="0" IVar="6" Cut="3.6766474246978760e+00" cType="1" res="3.0641858465969563e-03" rms="4.5472306013107300e-01" purity="5.0716698169708252e-01" nType="0">
          <Node pos="l" depth="2" NCoef="0" IVar="-1" Cut="0.0000000000000000e+00" cType="1" res="-1.9685301231220365e-04" rms="4.6331694722175598e-01" purity="4.2041248083114624e-01" nType="-99"/>
          <Node pos="r" depth="2" NCoef="0" IVar="-1" Cut="0.0000000000000000e+00" cType="1" res="6.4618897158652544e-04" rms="4.3294018507003784e-01" purity="7.1283459663391113e-01" nType="-99"/>
        </Node>
      </Node>
    </BinaryTree>
    <BinaryTree type="DecisionTree" boostWeight="1.0000000000000000e+00" itree="689">
      <Node pos="s" depth="0" NCoef="0" IVar="4" Cut="5.0612075805664062e+01" cType="1" res="5.4744663648307323e-03" rms="4.5511081814765930e-01" purity="5.0262099504470825e-01" nType="0">
        <Node pos="l" depth="1" NCoef="0" IVar="7" Cut="1.4829853177070618e-01" cType="1" res="-1.6748571768403053e-02" rms="4.5054072141647339e-01" purity="4.3229636549949646e-01" nType="0">
          <Node pos="l" depth="2" NCoef="0" IVar="-1" Cut="0.0000000000000000e+00" cType="1" res="-8.8508968474343419e-04" rms="4.4747313857078552e-01" purity="4.1162997484207153e-01" nType="-99"/>
          <Node pos="r" depth="2" NCoef="0" IVar="-1" Cut="0.0000000000000000e+00" cType="1" res="6.2013586284592748e-04" rms="4.6355998516082764e-01" purity="5.3439301252365112e-01" nType="-99"/>
        </Node>
        <Node pos="r" depth="1" NCoef="0" IVar="0" Cut="6.4355081319808960e-01" cType="1" res="1.6257677227258682e-02" rms="4.5692259073257446e-01" purity="5.3674447536468506e-01" nType="0">
          <Node pos="l" depth="2" NCoef="0" IVar="-1" Cut="0.0000000000000000e+00" cType="1" res="1.4176260447129607e-03" rms="4.4469562172889709e-01" purity="6.1982220411300659e-01" nType="-99"/>
          <Node pos="r" depth="2" NCoef="0" IVar="-1" Cut="0.0000000000000000e+00" cType="1" res="3.4209806472063065e-04" rms="4.5844176411628723e-01" purity="5.2475923299789429e-01" nType="-99"/>
        </Node>
      </Node>
    </BinaryTree>
    <BinaryTree type="DecisionTree" boostWeight="1.0000000000000000e+00" itree="690">
      <Node pos="s" depth="0" NCoef="0" IVar="1" Cut="8.5497595214843750e+02" cType="1" res="2.6891990564763546e-03" rms="4.5491236448287964e-01" purity="5.0021934509277344e-01" nType="0">
        <Node pos="l" depth="1" NCoef="0" IVar="7" Cut="-3.2647449523210526e-02" cType="1" res="-1.6321496805176139e-03" rms="4.5526367425918579e-01" purity="4.8302742838859558e-01" nType="0">
          <Node pos="l" depth="2" NCoef="0" IVar="-1" Cut="0.0000000000000000e+00" cType="1" res="-6.5603991970419884e-04" rms="4.4661653041839600e-01" purity="4.2467713356018066e-01" nType="-99"/>
          <Node pos="r" depth="2" NCoef="0" IVar="-1" Cut="0.0000000000000000e+00" cType="1" res="2.6712220278568566e-04" rms="4.6014356613159180e-01" purity="5.1858431100845337e-01" nType="-99"/>
        </Node>
        <Node pos="r" depth="1" NCoef="0" IVar="-1" Cut="0.0000000000000000e+00" cType="1" res="1.1933448258787394e-03" rms="4.4950306415557861e-01" purity="6.6334593296051025e-01" nType="-99"/>
      </Node>
    </BinaryTree>
    <BinaryTree type="DecisionTree" boostWeight="1.0000000000000000e+00" itree="691">
      <Node pos="s" depth="0" NCoef="0" IVar="6" Cut="3.5437667369842529e+00" cType="1" res="-9.8525919020175934e-04" rms="4.5289006829261780e-01" purity="4.9735373258590698e-01" nType="0">
        <Node pos="l" depth="1" NCoef="0" IVar="3" Cut="4.2206901311874390e-01" cType="1" res="-1.0889140889048576e-02" rms="4.5847097039222717e-01" purity="4.0273466706275940e-01" nType="0">
          <Node pos="l" depth="2" NCoef="0" IVar="-1" Cut="0.0000000000000000e+00" cType="1" res="-5.0694801757344976e-05" rms="4.5631560683250427e-01" purity="4.0166020393371582e-01" nType="-99"/>
          <Node pos="r" depth="2" NCoef="0" IVar="-1" Cut="0.0000000000000000e+00" cType="1" res="-1.3261615531519055e-03" rms="4.6399968862533569e-01" purity="4.0616738796234131e-01" nType="-99"/>
        </Node>
        <Node pos="r" depth="1" NCoef="0" IVar="3" Cut="5.5806940793991089e-01" cType="1" res="1.9549086689949036e-02" rms="4.4038486480712891e-01" purity="6.9353342056274414e-01" nType="0">
          <Node pos="l" depth="2" NCoef="0" IVar="-1" Cut="0.0000000000000000e+00" cType="1" res="1.2556562433019280e-03" rms="4.4231721758842468e-01" purity="7.0705372095108032e-01" nType="-99"/>
          <Node pos="r" depth="2" NCoef="0" IVar="-1" Cut="0.0000000000000000e+00" cType="1" res="2.6383853401057422e-04" rms="4.3930229544639587e-01" purity="6.8910861015319824e-01" nType="-99"/>
        </Node>
      </Node>
    </BinaryTree>
    <BinaryTree type="DecisionTree" boostWeight="1.0000000000000000e+00" itree="692">
      <Node pos="s" depth="0" NCoef="0" IVar="8" Cut="1.3751966857910156e+02" cType="1" res="5.1188603974878788e-03" rms="4.5477646589279175e-01" purity="5.0316041707992554e-01" nType="0">
        <Node pos="l" depth="1" NCoef="0" IVar="6" Cut="1.3421865701675415e+00" cType="1" res="1.4237255789339542e-02" rms="4.5393234491348267e-01" purity="5.0916725397109985e-01" nType="0">
          <Node pos="l" depth="2" NCoef="0" IVar="-1" Cut="0.0000000000000000e+00" cType="1" res="-1.2182999635115266e-03" rms="4.2484244704246521e-01" purity="2.7127185463905334e-01" nType="-99"/>
          <Node pos="r" depth="2" NCoef="0" IVar="-1" Cut="0.0000000000000000e+00" cType="1" res="6.0483347624540329e-04" rms="4.5817142724990845e-01" purity="5.4787045717239380e-01" nType="-99"/>
        </Node>
        <Node pos="r" depth="1" NCoef="0" IVar="9" Cut="1.5301742553710938e+02" cType="1" res="-2.0783238112926483e-02" rms="4.5617264509201050e-01" purity="4.8609706759452820e-01" nType="0">
          <Node pos="l" depth="2" NCoef="0" IVar="-1" Cut="0.0000000000000000e+00" cType="1" res="-1.5053550014272332e-03" rms="4.5696476101875305e-01" purity="4.5010313391685486e-01" nType="-99"/>
          <Node pos="r" depth="2" NCoef="0" IVar="-1" Cut="0.0000000000000000e+00" cType="1" res="4.2752234730869532e-04" rms="4.5279854536056519e-01" purity="5.3784805536270142e-01" nType="-99"/>
        </Node>
      </Node>
    </BinaryTree>
    <BinaryTree type="DecisionTree" boostWeight="1.0000000000000000e+00" itree="693">
      <Node pos="s" depth="0" NCoef="0" IVar="6" Cut="1.1672995090484619e+00" cType="1" res="-2.3667578352615237e-04" rms="4.5310109853744507e-01" purity="4.9754378199577332e-01" nType="0">
        <Node pos="l" depth="1" NCoef="0" IVar="7" Cut="-1.7737977032084018e-04" cType="1" res="-3.9782769978046417e-02" rms="4.1358834505081177e-01" purity="2.5251162052154541e-01" nType="0">
          <Node pos="l" depth="2" NCoef="0" IVar="-1" Cut="0.0000000000000000e+00" cType="1" res="-3.2384495716542006e-03" rms="3.8683766126632690e-01" purity="2.0969377458095551e-01" nType="-99"/>
          <Node pos="r" depth="2" NCoef="0" IVar="-1" Cut="0.0000000000000000e+00" cType="1" res="-1.0865387739613652e-03" rms="4.3833065032958984e-01" purity="2.9559555649757385e-01" nType="-99"/>
        </Node>
        <Node pos="r" depth="1" NCoef="0" IVar="2" Cut="6.0806709527969360e-01" cType="1" res="4.3520671315491199e-03" rms="4.5724365115165710e-01" purity="5.2597612142562866e-01" nType="0">
          <Node pos="l" depth="2" NCoef="0" IVar="-1" Cut="0.0000000000000000e+00" cType="1" res="6.7464116727933288e-04" rms="4.5132917165756226e-01" purity="6.1023819446563721e-01" nType="-99"/>
          <Node pos="r" depth="2" NCoef="0" IVar="-1" Cut="0.0000000000000000e+00" cType="1" res="-1.2238424096722156e-04" rms="4.5942732691764832e-01" purity="4.9095058441162109e-01" nType="-99"/>
        </Node>
      </Node>
    </BinaryTree>
    <BinaryTree type="DecisionTree" boostWeight="1.0000000000000000e+00" itree="694">
      <Node pos="s" depth="0" NCoef="0" IVar="0" Cut="9.4226682186126709e-01" cType="1" res="2.2688801400363445e-03" rms="4.5433825254440308e-01" purity="5.0000494718551636e-01" nType="0">
        <Node pos="l" depth="1" NCoef="0" IVar="5" Cut="1.8738545179367065e+00" cType="1" res="1.7380518838763237e-02" rms="4.5407110452651978e-01" purity="5.5483120679855347e-01" nType="0">
          <Node pos="l" depth="2" NCoef="0" IVar="-1" Cut="0.0000000000000000e+00" cType="1" res="1.2551998952403665e-03" rms="4.4842395186424255e-01" purity="6.5009635686874390e-01" nType="-99"/>
          <Node pos="r" depth="2" NCoef="0" IVar="-1" Cut="0.0000000000000000e+00" cType="1" res="3.3362433896400034e-04" rms="4.5504385232925415e-01" purity="5.3414273262023926e-01" nType="-99"/>
        </Node>
        <Node pos="r" depth="1" NCoef="0" IVar="2" Cut="6.4313918352127075e-01" cType="1" res="-7.7056186273694038e-03" rms="4.5423918962478638e-01" purity="4.6381667256355286e-01" nType="0">
          <Node pos="l" depth="2" NCoef="0" IVar="-1" Cut="0.0000000000000000e+00" cType="1" res="3.5130718606524169e-04" rms="4.5566058158874512e-01" purity="5.4197466373443604e-01" nType="-99"/>
          <Node pos="r" depth="2" NCoef="0" IVar="-1" Cut="0.0000000000000000e+00" cType="1" res="-5.7877646759152412e-04" rms="4.5329859852790833e-01" purity="4.2764788866043091e-01" nType="-99"/>
        </Node>
      </Node>
    </BinaryTree>
    <BinaryTree type="DecisionTree" boostWeight="1.0000000000000000e+00" itree="695">
      <Node pos="s" depth="0" NCoef="0" IVar="0" Cut="1.0612250566482544e+00" cType="1" res="4.0458543226122856e-03" rms="4.5556122064590454e-01" purity="5.0082868337631226e-01" nType="0">
        <Node pos="l" depth="1" NCoef="0" IVar="3" Cut="5.5807346105575562e-01" cType="1" res="1.7186375334858894e-02" rms="4.5882883667945862e-01" purity="5.4617714881896973e-01" nType="0">
          <Node pos="l" depth="2" NCoef="0" IVar="-1" Cut="0.0000000000000000e+00" cType="1" res="8.1988523015752435e-04" rms="4.6418675780296326e-01" purity="4.9575659632682800e-01" nType="-99"/>
          <Node pos="r" depth="2" NCoef="0" IVar="-1" Cut="0.0000000000000000e+00" cType="1" res="-1.0959205974359065e-04" rms="4.4594469666481018e-01" purity="6.5845108032226562e-01" nType="-99"/>
        </Node>
        <Node pos="r" depth="1" NCoef="0" IVar="3" Cut="2.8709146380424500e-01" cType="1" res="-9.6589811146259308e-03" rms="4.5172110199928284e-01" purity="4.5353266596794128e-01" nType="0">
          <Node pos="l" depth="2" NCoef="0" IVar="-1" Cut="0.0000000000000000e+00" cType="1" res="5.0146324792876840e-04" rms="4.4657707214355469e-01" purity="3.9165782928466797e-01" nType="-99"/>
          <Node pos="r" depth="2" NCoef="0" IVar="-1" Cut="0.0000000000000000e+00" cType="1" res="-7.6128536602482200e-04" rms="4.5441636443138123e-01" purity="4.9366071820259094e-01" nType="-99"/>
        </Node>
      </Node>
    </BinaryTree>
    <BinaryTree type="DecisionTree" boostWeight="1.0000000000000000e+00" itree="696">
      <Node pos="s" depth="0" NCoef="0" IVar="6" Cut="4.9108719825744629e+00" cType="1" res="2.7312231250107288e-03" rms="4.5536541938781738e-01" purity="4.9955329298973083e-01" nType="0">
        <Node pos="l" depth="1" NCoef="0" IVar="3" Cut="6.7419993877410889e-01" cType="1" res="-8.3907047519460320e-04" rms="4.6163552999496460e-01" purity="4.6645385026931763e-01" nType="0">
          <Node pos="l" depth="2" NCoef="0" IVar="-1" Cut="0.0000000000000000e+00" cType="1" res="1.4378142077475786e-04" rms="4.6036276221275330e-01" purity="4.5086815953254700e-01" nType="-99"/>
          <Node pos="r" depth="2" NCoef="0" IVar="-1" Cut="0.0000000000000000e+00" cType="1" res="-1.0004185605794191e-03" rms="4.6864423155784607e-01" purity="5.7210570573806763e-01" nType="-99"/>
        </Node>
        <Node pos="r" depth="1" NCoef="0" IVar="-1" Cut="0.0000000000000000e+00" cType="1" res="9.7336852923035622e-04" rms="3.9456826448440552e-01" purity="7.9069972038269043e-01" nType="-99"/>
      </Node>
    </BinaryTree>
    <BinaryTree type="DecisionTree" boostWeight="1.0000000000000000e+00" itree="697">
      <Node pos="s" depth="0" NCoef="0" IVar="1" Cut="4.0392922973632812e+02" cType="1" res="-1.0498672054382041e-04" rms="4.5251214504241943e-01" purity="4.9849075078964233e-01" nType="0">
        <Node pos="l" depth="1" NCoef="0" IVar="3" Cut="4.4186270236968994e-01" cType="1" res="-2.7551215142011642e-02" rms="4.2518764734268188e-01" purity="3.0482563376426697e-01" nType="0">
          <Node pos="l" depth="2" NCoef="0" IVar="-1" Cut="0.0000000000000000e+00" cType="1" res="-6.8990798899903893e-04" rms="4.0409883856773376e-01" purity="2.5265729427337646e-01" nType="-99"/>
          <Node pos="r" depth="2" NCoef="0" IVar="-1" Cut="0.0000000000000000e+00" cType="1" res="-1.7907078145071864e-03" rms="4.5633828639984131e-01" purity="3.8928660750389099e-01" nType="-99"/>
        </Node>
        <Node pos="r" depth="1" NCoef="0" IVar="5" Cut="2.7256810665130615e+00" cType="1" res="5.0943242385983467e-03" rms="4.5731905102729797e-01" purity="5.3517794609069824e-01" nType="0">
          <Node pos="l" depth="2" NCoef="0" IVar="-1" Cut="0.0000000000000000e+00" cType="1" res="2.6434470782987773e-04" rms="4.5982858538627625e-01" purity="5.5831128358840942e-01" nType="-99"/>
          <Node pos="r" depth="2" NCoef="0" IVar="-1" Cut="0.0000000000000000e+00" cType="1" res="-1.6948633128777146e-03" rms="4.2712286114692688e-01" purity="2.8695887327194214e-01" nType="-99"/>
        </Node>
      </Node>
    </BinaryTree>
    <BinaryTree type="DecisionTree" boostWeight="1.0000000000000000e+00" itree="698">
      <Node pos="s" depth="0" NCoef="0" IVar="7" Cut="2.2797012329101562e-01" cType="1" res="-1.8417177489027381e-03" rms="4.5434159040451050e-01" purity="4.9596154689788818e-01" nType="0">
        <Node pos="l" depth="1" NCoef="0" IVar="6" Cut="4.8550086021423340e+00" cType="1" res="-5.0046872347593307e-03" rms="4.5377409458160400e-01" purity="4.8631271719932556e-01" nType="0">
          <Node pos="l" depth="2" NCoef="0" IVar="-1" Cut="0.0000000000000000e+00" cType="1" res="-2.9808070394210517e-04" rms="4.5983675122261047e-01" purity="4.5077729225158691e-01" nType="-99"/>
          <Node pos="r" depth="2" NCoef="0" IVar="-1" Cut="0.0000000000000000e+00" cType="1" res="8.2743214443325996e-04" rms="3.9826047420501709e-01" purity="7.8132718801498413e-01" nType="-99"/>
        </Node>
        <Node pos="r" depth="1" NCoef="0" IVar="-1" Cut="0.0000000000000000e+00" cType="1" res="1.0683202417567372e-03" rms="4.5957842469215393e-01" purity="6.1781048774719238e-01" nType="-99"/>
      </Node>
    </BinaryTree>
    <BinaryTree type="DecisionTree" boostWeight="1.0000000000000000e+00" itree="699">
      <Node pos="s" depth="0" NCoef="0" IVar="4" Cut="1.0945681762695312e+02" cType="1" res="5.8629335835576057e-03" rms="4.5259368419647217e-01" purity="5.0491708517074585e-01" nType="0">
        <Node pos="l" depth="1" NCoef="0" IVar="2" Cut="5.3190910816192627e-01" cType="1" res="-1.9111577421426773e-03" rms="4.5097509026527405e-01" purity="4.7590729594230652e-01" nType="0">
          <Node pos="l" depth="2" NCoef="0" IVar="-1" Cut="0.0000000000000000e+00" cType="1" res="7.6004047878086567e-04" rms="4.5277771353721619e-01" purity="5.7049739360809326e-01" nType="-99"/>
          <Node pos="r" depth="2" NCoef="0" IVar="-1" Cut="0.0000000000000000e+00" cType="1" res="-3.0806555878371000e-04" rms="4.5022433996200562e-01" purity="4.5138821005821228e-01" nType="-99"/>
        </Node>
        <Node pos="r" depth="1" NCoef="0" IVar="8" Cut="1.1013850402832031e+02" cType="1" res="3.1835231930017471e-02" rms="4.5700174570083618e-01" purity="6.0183548927307129e-01" nType="0">
          <Node pos="l" depth="2" NCoef="0" IVar="-1" Cut="0.0000000000000000e+00" cType="1" res="2.3071700707077980e-04" rms="4.6193456649780273e-01" purity="5.5079174041748047e-01" nType="-99"/>
          <Node pos="r" depth="2" NCoef="0" IVar="-1" Cut="0.0000000000000000e+00" cType="1" res="1.0918029583990574e-03" rms="4.5513692498207092e-01" purity="6.1825877428054810e-01" nType="-99"/>
        </Node>
      </Node>
    </BinaryTree>
    <BinaryTree type="DecisionTree" boostWeight="1.0000000000000000e+00" itree="700">
      <Node pos="s" depth="0" NCoef="0" IVar="5" Cut="2.1274940967559814e+00" cType="1" res="8.2287713885307312e-03" rms="4.5470127463340759e-01" purity="5.0627303123474121e-01" nType="0">
        <Node pos="l" depth="1" NCoef="0" IVar="2" Cut="9.6397131681442261e-01" cType="1" res="2.2272245958447456e-02" rms="4.5497298240661621e-01" purity="5.7990890741348267e-01" nType="0">
          <Node pos="l" depth="2" NCoef="0" IVar="-1" Cut="0.0000000000000000e+00" cType="1" res="8.5857114754617214e-04" rms="4.5474117994308472e-01" purity="5.9944826364517212e-01" nType="-99"/>
          <Node pos="r" depth="2" NCoef="0" IVar="-1" Cut="0.0000000000000000e+00" cType="1" res="-1.7563243454787880e-04" rms="4.5464056730270386e-01" purity="5.1307123899459839e-01" nType="-99"/>
        </Node>
        <Node pos="r" depth="1" NCoef="0" IVar="0" Cut="1.6606428623199463e+00" cType="1" res="-3.7708310992456973e-04" rms="4.5432022213935852e-01" purity="4.6114894747734070e-01" nType="0">
          <Node pos="l" depth="2" NCoef="0" IVar="-1" Cut="0.0000000000000000e+00" cType="1" res="1.1656322749331594e-04" rms="4.5634138584136963e-01" purity="4.7396889328956604e-01" nType="-99"/>
          <Node pos="r" depth="2" NCoef="0" IVar="-1" Cut="0.0000000000000000e+00" cType="1" res="-1.5669865533709526e-03" rms="4.3233096599578857e-01" purity="3.3664512634277344e-01" nType="-99"/>
        </Node>
      </Node>
    </BinaryTree>
    <BinaryTree type="DecisionTree" boostWeight="1.0000000000000000e+00" itree="701">
      <Node pos="s" depth="0" NCoef="0" IVar="3" Cut="2.6774466037750244e-01" cType="1" res="1.7017005011439323e-03" rms="4.5658990740776062e-01" purity="4.9756118655204773e-01" nType="0">
        <Node pos="l" depth="1" NCoef="0" IVar="6" Cut="9.0302824974060059e-01" cType="1" res="1.5682751312851906e-02" rms="4.5606523752212524e-01" purity="4.2083138227462769e-01" nType="0">
          <Node pos="l" depth="2" NCoef="0" IVar="-1" Cut="0.0000000000000000e+00" cType="1" res="-2.1237139590084553e-03" rms="4.1655328869819641e-01" purity="2.4603226780891418e-01" nType="-99"/>
          <Node pos="r" depth="2" NCoef="0" IVar="-1" Cut="0.0000000000000000e+00" cType="1" res="9.1782520757988095e-04" rms="4.6306666731834412e-01" purity="4.5750004053115845e-01" nType="-99"/>
        </Node>
        <Node pos="r" depth="1" NCoef="0" IVar="6" Cut="2.6201829910278320e+00" cType="1" res="-6.0695069842040539e-03" rms="4.5669627189636230e-01" purity="5.4021060466766357e-01" nType="0">
          <Node pos="l" depth="2" NCoef="0" IVar="-1" Cut="0.0000000000000000e+00" cType="1" res="-1.1964519508183002e-03" rms="4.5216050744056702e-01" purity="3.2804960012435913e-01" nType="-99"/>
          <Node pos="r" depth="2" NCoef="0" IVar="-1" Cut="0.0000000000000000e+00" cType="1" res="8.4065548435319215e-05" rms="4.5801216363906860e-01" purity="6.1810976266860962e-01" nType="-99"/>
        </Node>
      </Node>
    </BinaryTree>
    <BinaryTree type="DecisionTree" boostWeight="1.0000000000000000e+00" itree="702">
      <Node pos="s" depth="0" NCoef="0" IVar="3" Cut="1.7096997797489166e-01" cType="1" res="-1.1798450723290443e-03" rms="4.5535957813262939e-01" purity="4.9716088175773621e-01" nType="0">
        <Node pos="l" depth="1" NCoef="0" IVar="6" Cut="1.3181467056274414e+00" cType="1" res="3.0646707862615585e-02" rms="4.6137896180152893e-01" purity="4.3353396654129028e-01" nType="0">
          <Node pos="l" depth="2" NCoef="0" IVar="-1" Cut="0.0000000000000000e+00" cType="1" res="4.3978117901133373e-05" rms="4.4463193416595459e-01" purity="3.1238156557083130e-01" nType="-99"/>
          <Node pos="r" depth="2" NCoef="0" IVar="-1" Cut="0.0000000000000000e+00" cType="1" res="1.7360047204419971e-03" rms="4.7426539659500122e-01" purity="5.4170250892639160e-01" nType="-99"/>
        </Node>
        <Node pos="r" depth="1" NCoef="0" IVar="6" Cut="5.0519728660583496e+00" cType="1" res="-7.3590450920164585e-03" rms="4.5392304658889771e-01" purity="5.0951421260833740e-01" nType="0">
          <Node pos="l" depth="2" NCoef="0" IVar="-1" Cut="0.0000000000000000e+00" cType="1" res="-3.9067005855031312e-04" rms="4.6076685190200806e-01" purity="4.7502833604812622e-01" nType="-99"/>
          <Node pos="r" depth="2" NCoef="0" IVar="-1" Cut="0.0000000000000000e+00" cType="1" res="9.9812971893697977e-04" rms="3.8923734426498413e-01" purity="7.9902964830398560e-01" nType="-99"/>
        </Node>
      </Node>
    </BinaryTree>
    <BinaryTree type="DecisionTree" boostWeight="1.0000000000000000e+00" itree="703">
      <Node pos="s" depth="0" NCoef="0" IVar="0" Cut="6.3995099067687988e-01" cType="1" res="3.9446344599127769e-03" rms="4.5602080225944519e-01" purity="5.0235968828201294e-01" nType="0">
        <Node pos="l" depth="1" NCoef="0" IVar="1" Cut="5.6901074218750000e+02" cType="1" res="3.5065636038780212e-02" rms="4.5857751369476318e-01" purity="5.8298242092132568e-01" nType="0">
          <Node pos="l" depth="2" NCoef="0" IVar="-1" Cut="0.0000000000000000e+00" cType="1" res="1.2762431288138032e-03" rms="4.6415281295776367e-01" purity="5.1703685522079468e-01" nType="-99"/>
          <Node pos="r" depth="2" NCoef="0" IVar="-1" Cut="0.0000000000000000e+00" cType="1" res="8.0637447535991669e-04" rms="4.5386394858360291e-01" purity="6.3708436489105225e-01" nType="-99"/>
        </Node>
        <Node pos="r" depth="1" NCoef="0" IVar="2" Cut="7.7749431133270264e-01" cType="1" res="-2.5384125183336437e-04" rms="4.5551204681396484e-01" purity="4.9148303270339966e-01" nType="0">
          <Node pos="l" depth="2" NCoef="0" IVar="-1" Cut="0.0000000000000000e+00" cType="1" res="3.2989296596497297e-04" rms="4.5516711473464966e-01" purity="5.4655009508132935e-01" nType="-99"/>
          <Node pos="r" depth="2" NCoef="0" IVar="-1" Cut="0.0000000000000000e+00" cType="1" res="-3.8423071964643896e-04" rms="4.5558059215545654e-01" purity="4.3721702694892883e-01" nType="-99"/>
        </Node>
      </Node>
    </BinaryTree>
    <BinaryTree type="DecisionTree" boostWeight="1.0000000000000000e+00" itree="704">
      <Node pos="s" depth="0" NCoef="0" IVar="0" Cut="7.6202923059463501e-01" cType="1" res="5.3291963413357735e-03" rms="4.5378607511520386e-01" purity="5.0675779581069946e-01" nType="0">
        <Node pos="l" depth="1" NCoef="0" IVar="8" Cut="1.2832446289062500e+02" cType="1" res="2.7810312807559967e-02" rms="4.5452696084976196e-01" purity="5.7213628292083740e-01" nType="0">
          <Node pos="l" depth="2" NCoef="0" IVar="-1" Cut="0.0000000000000000e+00" cType="1" res="1.2719450751319528e-03" rms="4.5208647847175598e-01" purity="5.8305585384368896e-01" nType="-99"/>
          <Node pos="r" depth="2" NCoef="0" IVar="-1" Cut="0.0000000000000000e+00" cType="1" res="9.7588752396404743e-05" rms="4.5687904953956604e-01" purity="5.5650192499160767e-01" nType="-99"/>
        </Node>
        <Node pos="r" depth="1" NCoef="0" IVar="7" Cut="1.2836626172065735e-01" cType="1" res="-1.1245316127315164e-03" rms="4.5336726307868958e-01" purity="4.8798939585685730e-01" nType="0">
          <Node pos="l" depth="2" NCoef="0" IVar="-1" Cut="0.0000000000000000e+00" cType="1" res="-2.4637021124362946e-04" rms="4.5214709639549255e-01" purity="4.6547105908393860e-01" nType="-99"/>
          <Node pos="r" depth="2" NCoef="0" IVar="-1" Cut="0.0000000000000000e+00" cType="1" res="6.1945430934429169e-04" rms="4.5694673061370850e-01" purity="5.6762993335723877e-01" nType="-99"/>
        </Node>
      </Node>
    </BinaryTree>
    <BinaryTree type="DecisionTree" boostWeight="1.0000000000000000e+00" itree="705">
      <Node pos="s" depth="0" NCoef="0" IVar="6" Cut="5.0591955184936523e+00" cType="1" res="-2.5600462686270475e-03" rms="4.5509305596351624e-01" purity="4.9470734596252441e-01" nType="0">
        <Node pos="l" depth="1" NCoef="0" IVar="3" Cut="6.1607152223587036e-01" cType="1" res="-6.1010150238871574e-03" rms="4.6054396033287048e-01" purity="4.6663245558738708e-01" nType="0">
          <Node pos="l" depth="2" NCoef="0" IVar="-1" Cut="0.0000000000000000e+00" cType="1" res="2.6079287636093795e-05" rms="4.5852085947990417e-01" purity="4.4249251484870911e-01" nType="-99"/>
          <Node pos="r" depth="2" NCoef="0" IVar="-1" Cut="0.0000000000000000e+00" cType="1" res="-9.8282913677394390e-04" rms="4.6795076131820679e-01" purity="5.6975287199020386e-01" nType="-99"/>
        </Node>
        <Node pos="r" depth="1" NCoef="0" IVar="-1" Cut="0.0000000000000000e+00" cType="1" res="1.0058607440441847e-03" rms="3.8969841599464417e-01" purity="7.9655092954635620e-01" nType="-99"/>
      </Node>
    </BinaryTree>
    <BinaryTree type="DecisionTree" boostWeight="1.0000000000000000e+00" itree="706">
      <Node pos="s" depth="0" NCoef="0" IVar="3" Cut="1.5161150693893433e-01" cType="1" res="2.3686720523983240e-03" rms="4.5506668090820312e-01" purity="4.9956157803535461e-01" nType="0">
        <Node pos="l" depth="1" NCoef="0" IVar="6" Cut="1.2618626356124878e+00" cType="1" res="3.4368015825748444e-02" rms="4.5474287867546082e-01" purity="4.4593045115470886e-01" nType="0">
          <Node pos="l" depth="2" NCoef="0" IVar="-1" Cut="0.0000000000000000e+00" cType="1" res="1.5396007802337408e-04" rms="4.4716069102287292e-01" purity="3.2006782293319702e-01" nType="-99"/>
          <Node pos="r" depth="2" NCoef="0" IVar="-1" Cut="0.0000000000000000e+00" cType="1" res="1.7795782769098878e-03" rms="4.5963135361671448e-01" purity="5.5777275562286377e-01" nType="-99"/>
        </Node>
        <Node pos="r" depth="1" NCoef="0" IVar="6" Cut="2.6795675754547119e+00" cType="1" res="-1.7168431077152491e-03" rms="4.5494601130485535e-01" purity="5.0640898942947388e-01" nType="0">
          <Node pos="l" depth="2" NCoef="0" IVar="-1" Cut="0.0000000000000000e+00" cType="1" res="-6.7863281583413482e-04" rms="4.5378446578979492e-01" purity="3.4554487466812134e-01" nType="-99"/>
          <Node pos="r" depth="2" NCoef="0" IVar="-1" Cut="0.0000000000000000e+00" cType="1" res="2.7453558868728578e-04" rms="4.5544889569282532e-01" purity="6.2547165155410767e-01" nType="-99"/>
        </Node>
      </Node>
    </BinaryTree>
    <BinaryTree type="DecisionTree" boostWeight="1.0000000000000000e+00" itree="707">
      <Node pos="s" depth="0" NCoef="0" IVar="3" Cut="2.2903673350811005e-01" cType="1" res="4.3772649951279163e-03" rms="4.5479026436805725e-01" purity="5.0344276428222656e-01" nType="0">
        <Node pos="l" depth="1" NCoef="0" IVar="6" Cut="2.0455176830291748e+00" cType="1" res="2.6658792048692703e-02" rms="4.5307075977325439e-01" purity="4.3638479709625244e-01" nType="0">
          <Node pos="l" depth="2" NCoef="0" IVar="-1" Cut="0.0000000000000000e+00" cType="1" res="2.3828716075513512e-04" rms="4.5079442858695984e-01" purity="3.4853166341781616e-01" nType="-99"/>
          <Node pos="r" depth="2" NCoef="0" IVar="-1" Cut="0.0000000000000000e+00" cType="1" res="1.9319503335282207e-03" rms="4.5470324158668518e-01" purity="6.2936007976531982e-01" nType="-99"/>
        </Node>
        <Node pos="r" depth="1" NCoef="0" IVar="8" Cut="1.3851657104492188e+02" cType="1" res="-4.4808899983763695e-03" rms="4.5516917109489441e-01" purity="5.3010207414627075e-01" nType="0">
          <Node pos="l" depth="2" NCoef="0" IVar="-1" Cut="0.0000000000000000e+00" cType="1" res="1.1773476580856368e-04" rms="4.5533993840217590e-01" purity="5.3537696599960327e-01" nType="-99"/>
          <Node pos="r" depth="2" NCoef="0" IVar="-1" Cut="0.0000000000000000e+00" cType="1" res="-8.9888437651097775e-04" rms="4.5379117131233215e-01" purity="5.1479548215866089e-01" nType="-99"/>
        </Node>
      </Node>
    </BinaryTree>
    <BinaryTree type="DecisionTree" boostWeight="1.0000000000000000e+00" itree="708">
      <Node pos="s" depth="0" NCoef="0" IVar="0" Cut="8.9156520366668701e-01" cType="1" res="2.9817356262356043e-03" rms="4.5451459288597107e-01" purity="5.0080579519271851e-01" nType="0">
        <Node pos="l" depth="1" NCoef="0" IVar="7" Cut="8.2670450210571289e-02" cType="1" res="2.1453935652971268e-02" rms="4.5520415902137756e-01" purity="5.6204587221145630e-01" nType="0">
          <Node pos="l" depth="2" NCoef="0" IVar="-1" Cut="0.0000000000000000e+00" cType="1" res="1.8816938973031938e-04" rms="4.5452928543090820e-01" purity="5.2775537967681885e-01" nType="-99"/>
          <Node pos="r" depth="2" NCoef="0" IVar="-1" Cut="0.0000000000000000e+00" cType="1" res="1.4823122182860970e-03" rms="4.5489284396171570e-01" purity="6.3712358474731445e-01" nType="-99"/>
        </Node>
        <Node pos="r" depth="1" NCoef="0" IVar="6" Cut="4.3943715095520020e+00" cType="1" res="-6.9541609846055508e-03" rms="4.5383235812187195e-01" purity="4.6786576509475708e-01" nType="0">
          <Node pos="l" depth="2" NCoef="0" IVar="-1" Cut="0.0000000000000000e+00" cType="1" res="-3.9910516352392733e-04" rms="4.5911496877670288e-01" purity="4.1792154312133789e-01" nType="-99"/>
          <Node pos="r" depth="2" NCoef="0" IVar="-1" Cut="0.0000000000000000e+00" cType="1" res="5.0721829757094383e-04" rms="4.2327311635017395e-01" purity="7.3745083808898926e-01" nType="-99"/>
        </Node>
      </Node>
    </BinaryTree>
    <BinaryTree type="DecisionTree" boostWeight="1.0000000000000000e+00" itree="709">
      <Node pos="s" depth="0" NCoef="0" IVar="7" Cut="-7.6736494898796082e-02" cType="1" res="-1.1979111004620790e-03" rms="4.5368140935897827e-01" purity="4.9904295802116394e-01" nType="0">
        <Node pos="l" depth="1" NCoef="0" IVar="1" Cut="6.6704742431640625e+02" cType="1" res="-3.0338224023580551e-02" rms="4.4145849347114563e-01" purity="4.0916717052459717e-01" nType="0">
          <Node pos="l" depth="2" NCoef="0" IVar="-1" Cut="0.0000000000000000e+00" cType="1" res="-1.8020279239863157e-03" rms="4.3189024925231934e-01" purity="3.4976381063461304e-01" nType="-99"/>
          <Node pos="r" depth="2" NCoef="0" IVar="-1" Cut="0.0000000000000000e+00" cType="1" res="2.3232301464304328e-04" rms="4.6338149905204773e-01" purity="5.6468600034713745e-01" nType="-99"/>
        </Node>
        <Node pos="r" depth="1" NCoef="0" IVar="2" Cut="4.9346107244491577e-01" cType="1" res="6.5564345568418503e-03" rms="4.5656570792198181e-01" purity="5.2295917272567749e-01" nType="0">
          <Node pos="l" depth="2" NCoef="0" IVar="-1" Cut="0.0000000000000000e+00" cType="1" res="1.0399202583357692e-03" rms="4.4506379961967468e-01" purity="6.1933672428131104e-01" nType="-99"/>
          <Node pos="r" depth="2" NCoef="0" IVar="-1" Cut="0.0000000000000000e+00" cType="1" res="3.4992091968888417e-05" rms="4.5841461420059204e-01" purity="5.0544875860214233e-01" nType="-99"/>
        </Node>
      </Node>
    </BinaryTree>
    <BinaryTree type="DecisionTree" boostWeight="1.0000000000000000e+00" itree="710">
      <Node pos="s" depth="0" NCoef="0" IVar="9" Cut="1.5698692321777344e+02" cType="1" res="2.4677198380231857e-03" rms="4.5517468452453613e-01" purity="5.0050133466720581e-01" nType="0">
        <Node pos="l" depth="1" NCoef="0" IVar="5" Cut="2.0053119659423828e+00" cType="1" res="-2.7679337654262781e-03" rms="4.5415973663330078e-01" purity="4.9310809373855591e-01" nType="0">
          <Node pos="l" depth="2" NCoef="0" IVar="-1" Cut="0.0000000000000000e+00" cType="1" res="4.5666826190426946e-04" rms="4.5350313186645508e-01" purity="5.7615399360656738e-01" nType="-99"/>
          <Node pos="r" depth="2" NCoef="0" IVar="-1" Cut="0.0000000000000000e+00" cType="1" res="-3.7251735921017826e-04" rms="4.5420235395431519e-01" purity="4.5598936080932617e-01" nType="-99"/>
        </Node>
        <Node pos="r" depth="1" NCoef="0" IVar="3" Cut="3.8380521535873413e-01" cType="1" res="3.6386288702487946e-02" rms="4.6025538444519043e-01" purity="5.4839795827865601e-01" nType="0">
          <Node pos="l" depth="2" NCoef="0" IVar="-1" Cut="0.0000000000000000e+00" cType="1" res="1.8410199554637074e-03" rms="4.6624335646629333e-01" purity="4.9405664205551147e-01" nType="-99"/>
          <Node pos="r" depth="2" NCoef="0" IVar="-1" Cut="0.0000000000000000e+00" cType="1" res="4.9775617662817240e-04" rms="4.5340442657470703e-01" purity="6.0258102416992188e-01" nType="-99"/>
        </Node>
      </Node>
    </BinaryTree>
    <BinaryTree type="DecisionTree" boostWeight="1.0000000000000000e+00" itree="711">
      <Node pos="s" depth="0" NCoef="0" IVar="2" Cut="7.5211596488952637e-01" cType="1" res="9.4916275702416897e-04" rms="4.5298498868942261e-01" purity="5.0070631504058838e-01" nType="0">
        <Node pos="l" depth="1" NCoef="0" IVar="6" Cut="2.0639464855194092e+00" cType="1" res="1.3774701394140720e-02" rms="4.5326328277587891e-01" purity="5.5928659439086914e-01" nType="0">
          <Node pos="l" depth="2" NCoef="0" IVar="-1" Cut="0.0000000000000000e+00" cType="1" res="-1.9804105977527797e-04" rms="4.6231254935264587e-01" purity="3.6789089441299438e-01" nType="-99"/>
          <Node pos="r" depth="2" NCoef="0" IVar="-1" Cut="0.0000000000000000e+00" cType="1" res="6.0548709006980062e-04" rms="4.4892191886901855e-01" purity="6.4438784122467041e-01" nType="-99"/>
        </Node>
        <Node pos="r" depth="1" NCoef="0" IVar="0" Cut="6.5286403894424438e-01" cType="1" res="-1.0685745626688004e-02" rms="4.5241796970367432e-01" purity="4.4756427407264709e-01" nType="0">
          <Node pos="l" depth="2" NCoef="0" IVar="-1" Cut="0.0000000000000000e+00" cType="1" res="8.1062782555818558e-04" rms="4.5161315798759460e-01" purity="5.4185855388641357e-01" nType="-99"/>
          <Node pos="r" depth="2" NCoef="0" IVar="-1" Cut="0.0000000000000000e+00" cType="1" res="-5.3927773842588067e-04" rms="4.5228493213653564e-01" purity="4.3476375937461853e-01" nType="-99"/>
        </Node>
      </Node>
    </BinaryTree>
    <BinaryTree type="DecisionTree" boostWeight="1.0000000000000000e+00" itree="712">
      <Node pos="s" depth="0" NCoef="0" IVar="2" Cut="9.8243951797485352e-01" cType="1" res="2.1626630332320929e-03" rms="4.5309036970138550e-01" purity="5.0270986557006836e-01" nType="0">
        <Node pos="l" depth="1" NCoef="0" IVar="0" Cut="9.9273288249969482e-01" cType="1" res="9.2046111822128296e-03" rms="4.5344227552413940e-01" purity="5.3185439109802246e-01" nType="0">
          <Node pos="l" depth="2" NCoef="0" IVar="-1" Cut="0.0000000000000000e+00" cType="1" res="6.7949196090921760e-04" rms="4.5068928599357605e-01" purity="5.8127284049987793e-01" nType="-99"/>
          <Node pos="r" depth="2" NCoef="0" IVar="-1" Cut="0.0000000000000000e+00" cType="1" res="-9.3271606601774693e-05" rms="4.5540481805801392e-01" purity="4.9008449912071228e-01" nType="-99"/>
        </Node>
        <Node pos="r" depth="1" NCoef="0" IVar="6" Cut="3.1816570758819580e+00" cType="1" res="-1.8213830888271332e-02" rms="4.5145216584205627e-01" purity="4.1837745904922485e-01" nType="0">
          <Node pos="l" depth="2" NCoef="0" IVar="-1" Cut="0.0000000000000000e+00" cType="1" res="-1.3937485637143254e-03" rms="4.3756365776062012e-01" purity="3.0457139015197754e-01" nType="-99"/>
          <Node pos="r" depth="2" NCoef="0" IVar="-1" Cut="0.0000000000000000e+00" cType="1" res="1.0452260175952688e-04" rms="4.7116604447364807e-01" purity="5.9341412782669067e-01" nType="-99"/>
        </Node>
      </Node>
    </BinaryTree>
    <BinaryTree type="DecisionTree" boostWeight="1.0000000000000000e+00" itree="713">
      <Node pos="s" depth="0" NCoef="0" IVar="9" Cut="1.7677919006347656e+02" cType="1" res="1.1458506196504459e-04" rms="4.5459535717964172e-01" purity="4.9727639555931091e-01" nType="0">
        <Node pos="l" depth="1" NCoef="0" IVar="8" Cut="1.3689427185058594e+02" cType="1" res="-3.2076782081276178e-03" rms="4.5451733469963074e-01" purity="4.9268659949302673e-01" nType="0">
          <Node pos="l" depth="2" NCoef="0" IVar="-1" Cut="0.0000000000000000e+00" cType="1" res="9.4064431323204190e-05" rms="4.5265385508537292e-01" purity="4.9722716212272644e-01" nType="-99"/>
          <Node pos="r" depth="2" NCoef="0" IVar="-1" Cut="0.0000000000000000e+00" cType="1" res="-8.0371700460091233e-04" rms="4.6025696396827698e-01" purity="4.7700157761573792e-01" nType="-99"/>
        </Node>
        <Node pos="r" depth="1" NCoef="0" IVar="-1" Cut="0.0000000000000000e+00" cType="1" res="1.0422697523608804e-03" rms="4.5400884747505188e-01" purity="5.4397076368331909e-01" nType="-99"/>
      </Node>
    </BinaryTree>
    <BinaryTree type="DecisionTree" boostWeight="1.0000000000000000e+00" itree="714">
      <Node pos="s" depth="0" NCoef="0" IVar="1" Cut="3.5179049682617188e+02" cType="1" res="4.6735876239836216e-03" rms="4.5467147231101990e-01" purity="5.0215929746627808e-01" nType="0">
        <Node pos="l" depth="1" NCoef="0" IVar="-1" Cut="0.0000000000000000e+00" cType="1" res="-2.9221489094197750e-03" rms="4.0182504057884216e-01" purity="2.4636875092983246e-01" nType="-99"/>
        <Node pos="r" depth="1" NCoef="0" IVar="6" Cut="1.1365562677383423e+00" cType="1" res="7.9945502802729607e-03" rms="4.5709818601608276e-01" purity="5.1588696241378784e-01" nType="0">
          <Node pos="l" depth="2" NCoef="0" IVar="-1" Cut="0.0000000000000000e+00" cType="1" res="-1.2541392352432013e-03" rms="4.2640075087547302e-01" purity="2.7436009049415588e-01" nType="-99"/>
          <Node pos="r" depth="2" NCoef="0" IVar="-1" Cut="0.0000000000000000e+00" cType="1" res="3.4246486029587686e-04" rms="4.6004158258438110e-01" purity="5.4111772775650024e-01" nType="-99"/>
        </Node>
      </Node>
    </BinaryTree>
    <BinaryTree type="DecisionTree" boostWeight="1.0000000000000000e+00" itree="715">
      <Node pos="s" depth="0" NCoef="0" IVar="7" Cut="1.3817285001277924e-01" cType="1" res="3.1077321618795395e-03" rms="4.5351481437683105e-01" purity="5.0301760435104370e-01" nType="0">
        <Node pos="l" depth="1" NCoef="0" IVar="6" Cut="1.1492689847946167e+00" cType="1" res="-2.5950318668037653e-03" rms="4.5255810022354126e-01" purity="4.8254853487014771e-01" nType="0">
          <Node pos="l" depth="2" NCoef="0" IVar="-1" Cut="0.0000000000000000e+00" cType="1" res="-2.6311713736504316e-03" rms="3.9906361699104309e-01" purity="2.3089717328548431e-01" nType="-99"/>
          <Node pos="r" depth="2" NCoef="0" IVar="-1" Cut="0.0000000000000000e+00" cType="1" res="7.7510158007498831e-05" rms="4.5787832140922546e-01" purity="5.1073426008224487e-01" nType="-99"/>
        </Node>
        <Node pos="r" depth="1" NCoef="0" IVar="3" Cut="2.3408333957195282e-01" cType="1" res="2.5458743795752525e-02" rms="4.5655900239944458e-01" purity="5.8324265480041504e-01" nType="0">
          <Node pos="l" depth="2" NCoef="0" IVar="-1" Cut="0.0000000000000000e+00" cType="1" res="1.6577946953475475e-03" rms="4.6500363945960999e-01" purity="5.2218222618103027e-01" nType="-99"/>
          <Node pos="r" depth="2" NCoef="0" IVar="-1" Cut="0.0000000000000000e+00" cType="1" res="4.1549291927367449e-04" rms="4.5305162668228149e-01" purity="6.0488146543502808e-01" nType="-99"/>
        </Node>
      </Node>
    </BinaryTree>
    <BinaryTree type="DecisionTree" boostWeight="1.0000000000000000e+00" itree="716">
      <Node pos="s" depth="0" NCoef="0" IVar="3" Cut="2.2903119027614594e-01" cType="1" res="3.2669224310666323e-03" rms="4.5597183704376221e-01" purity="5.0084131956100464e-01" nType="0">
        <Node pos="l" depth="1" NCoef="0" IVar="6" Cut="8.7686580419540405e-01" cType="1" res="2.5866333395242691e-02" rms="4.5511761307716370e-01" purity="4.3337765336036682e-01" nType="0">
          <Node pos="l" depth="2" NCoef="0" IVar="-1" Cut="0.0000000000000000e+00" cType="1" res="-8.4227602928876877e-04" rms="4.2794787883758545e-01" purity="2.7200564742088318e-01" nType="-99"/>
          <Node pos="r" depth="2" NCoef="0" IVar="-1" Cut="0.0000000000000000e+00" cType="1" res="1.1866099666804075e-03" rms="4.6101099252700806e-01" purity="4.7346797585487366e-01" nType="-99"/>
        </Node>
        <Node pos="r" depth="1" NCoef="0" IVar="6" Cut="5.0897083282470703e+00" cType="1" res="-5.6665772572159767e-03" rms="4.5600029826164246e-01" purity="5.2750951051712036e-01" nType="0">
          <Node pos="l" depth="2" NCoef="0" IVar="-1" Cut="0.0000000000000000e+00" cType="1" res="-3.2131950138136744e-04" rms="4.6308517456054688e-01" purity="4.9378541111946106e-01" nType="-99"/>
          <Node pos="r" depth="2" NCoef="0" IVar="-1" Cut="0.0000000000000000e+00" cType="1" res="9.2771998606622219e-04" rms="3.9355942606925964e-01" purity="7.9378592967987061e-01" nType="-99"/>
        </Node>
      </Node>
    </BinaryTree>
    <BinaryTree type="DecisionTree" boostWeight="1.0000000000000000e+00" itree="717">
      <Node pos="s" depth="0" NCoef="0" IVar="9" Cut="4.2827728271484375e+01" cType="1" res="2.6737975422292948e-03" rms="4.5412600040435791e-01" purity="5.0132095813751221e-01" nType="0">
        <Node pos="l" depth="1" NCoef="0" IVar="-1" Cut="0.0000000000000000e+00" cType="1" res="-1.7578919650986791e-03" rms="4.5384594798088074e-01" purity="4.1861262917518616e-01" nType="-99"/>
        <Node pos="r" depth="1" NCoef="0" IVar="5" Cut="1.9357841014862061e+00" cType="1" res="6.1536943539977074e-03" rms="4.5392349362373352e-01" purity="5.0664454698562622e-01" nType="0">
          <Node pos="l" depth="2" NCoef="0" IVar="-1" Cut="0.0000000000000000e+00" cType="1" res="8.8746327674016356e-04" rms="4.4833153486251831e-01" purity="6.1294686794281006e-01" nType="-99"/>
          <Node pos="r" depth="2" NCoef="0" IVar="-1" Cut="0.0000000000000000e+00" cType="1" res="-1.8512952010496520e-05" rms="4.5513391494750977e-01" purity="4.7886252403259277e-01" nType="-99"/>
        </Node>
      </Node>
    </BinaryTree>
    <BinaryTree type="DecisionTree" boostWeight="1.0000000000000000e+00" itree="718">
      <Node pos="s" depth="0" NCoef="0" IVar="3" Cut="2.4838997423648834e-01" cType="1" res="-3.8742247852496803e-04" rms="4.5457622408866882e-01" purity="4.9822732806205750e-01" nType="0">
        <Node pos="l" depth="1" NCoef="0" IVar="6" Cut="9.6437460184097290e-01" cType="1" res="1.8853789195418358e-02" rms="4.5357799530029297e-01" purity="4.3017289042472839e-01" nType="0">
          <Node pos="l" depth="2" NCoef="0" IVar="-1" Cut="0.0000000000000000e+00" cType="1" res="-1.9371709786355495e-03" rms="4.1563200950622559e-01" purity="2.5318795442581177e-01" nType="-99"/>
          <Node pos="r" depth="2" NCoef="0" IVar="-1" Cut="0.0000000000000000e+00" cType="1" res="1.1008807923644781e-03" rms="4.6193790435791016e-01" purity="4.7698232531547546e-01" nType="-99"/>
        </Node>
        <Node pos="r" depth="1" NCoef="0" IVar="7" Cut="-7.9802297055721283e-02" cType="1" res="-9.6022132784128189e-03" rms="4.5476531982421875e-01" purity="5.3081923723220825e-01" nType="0">
          <Node pos="l" depth="2" NCoef="0" IVar="-1" Cut="0.0000000000000000e+00" cType="1" res="-1.3516388135030866e-03" rms="4.5002609491348267e-01" purity="4.3861135840415955e-01" nType="-99"/>
          <Node pos="r" depth="2" NCoef="0" IVar="-1" Cut="0.0000000000000000e+00" cType="1" res="-6.7163695348426700e-05" rms="4.5560625195503235e-01" purity="5.5319470167160034e-01" nType="-99"/>
        </Node>
      </Node>
    </BinaryTree>
    <BinaryTree type="DecisionTree" boostWeight="1.0000000000000000e+00" itree="719">
      <Node pos="s" depth="0" NCoef="0" IVar="5" Cut="2.1987679004669189e+00" cType="1" res="4.5826626010239124e-03" rms="4.5353299379348755e-01" purity="5.0432533025741577e-01" nType="0">
        <Node pos="l" depth="1" NCoef="0" IVar="3" Cut="4.8056718707084656e-01" cType="1" res="1.8769960850477219e-02" rms="4.5772504806518555e-01" purity="5.7376384735107422e-01" nType="0">
          <Node pos="l" depth="2" NCoef="0" IVar="-1" Cut="0.0000000000000000e+00" cType="1" res="9.2292582849040627e-04" rms="4.6786105632781982e-01" purity="5.1953816413879395e-01" nType="-99"/>
          <Node pos="r" depth="2" NCoef="0" IVar="-1" Cut="0.0000000000000000e+00" cType="1" res="-2.0967921955161728e-05" rms="4.4042262434959412e-01" purity="6.5999585390090942e-01" nType="-99"/>
        </Node>
        <Node pos="r" depth="1" NCoef="0" IVar="0" Cut="1.4827861785888672e+00" cType="1" res="-9.4619318842887878e-03" rms="4.4890314340591431e-01" purity="4.3558534979820251e-01" nType="0">
          <Node pos="l" depth="2" NCoef="0" IVar="-1" Cut="0.0000000000000000e+00" cType="1" res="-1.1123790318379179e-04" rms="4.5219993591308594e-01" purity="4.5811921358108521e-01" nType="-99"/>
          <Node pos="r" depth="2" NCoef="0" IVar="-1" Cut="0.0000000000000000e+00" cType="1" res="-1.5392629429697990e-03" rms="4.3242657184600830e-01" purity="3.3264142274856567e-01" nType="-99"/>
        </Node>
      </Node>
    </BinaryTree>
    <BinaryTree type="DecisionTree" boostWeight="1.0000000000000000e+00" itree="720">
      <Node pos="s" depth="0" NCoef="0" IVar="2" Cut="6.0256636142730713e-01" cType="1" res="1.8912517698481679e-03" rms="4.5356589555740356e-01" purity="4.9942356348037720e-01" nType="0">
        <Node pos="l" depth="1" NCoef="0" IVar="5" Cut="1.9460779428482056e+00" cType="1" res="2.3841110989451408e-02" rms="4.5132789015769958e-01" purity="5.8189344406127930e-01" nType="0">
          <Node pos="l" depth="2" NCoef="0" IVar="-1" Cut="0.0000000000000000e+00" cType="1" res="1.2099794112145901e-03" rms="4.4509890675544739e-01" purity="6.4238888025283813e-01" nType="-99"/>
          <Node pos="r" depth="2" NCoef="0" IVar="-1" Cut="0.0000000000000000e+00" cType="1" res="4.4204120058566332e-04" rms="4.5365163683891296e-01" purity="5.5628424882888794e-01" nType="-99"/>
        </Node>
        <Node pos="r" depth="1" NCoef="0" IVar="7" Cut="-8.9892499148845673e-02" cType="1" res="-7.1080173365771770e-03" rms="4.5417374372482300e-01" purity="4.6561151742935181e-01" nType="0">
          <Node pos="l" depth="2" NCoef="0" IVar="-1" Cut="0.0000000000000000e+00" cType="1" res="-1.5655870083719492e-03" rms="4.2959251999855042e-01" purity="3.4087648987770081e-01" nType="-99"/>
          <Node pos="r" depth="2" NCoef="0" IVar="-1" Cut="0.0000000000000000e+00" cType="1" res="-5.6021293858066201e-05" rms="4.5799106359481812e-01" purity="4.8673817515373230e-01" nType="-99"/>
        </Node>
      </Node>
    </BinaryTree>
    <BinaryTree type="DecisionTree" boostWeight="1.0000000000000000e+00" itree="721">
      <Node pos="s" depth="0" NCoef="0" IVar="3" Cut="1.7096614837646484e-01" cType="1" res="3.8255436811596155e-03" rms="4.5451295375823975e-01" purity="5.0359213352203369e-01" nType="0">
        <Node pos="l" depth="1" NCoef="0" IVar="8" Cut="1.1861117553710938e+02" cType="1" res="3.2135371118783951e-02" rms="4.5948326587677002e-01" purity="4.4097995758056641e-01" nType="0">
          <Node pos="l" depth="2" NCoef="0" IVar="-1" Cut="0.0000000000000000e+00" cType="1" res="2.0564282312989235e-03" rms="4.5965212583541870e-01" purity="4.5353111624717712e-01" nType="-99"/>
          <Node pos="r" depth="2" NCoef="0" IVar="-1" Cut="0.0000000000000000e+00" cType="1" res="4.8599322326481342e-04" rms="4.5846223831176758e-01" purity="4.3220573663711548e-01" nType="-99"/>
        </Node>
        <Node pos="r" depth="1" NCoef="0" IVar="6" Cut="3.8815011978149414e+00" cType="1" res="-1.6769190551713109e-03" rms="4.5333540439605713e-01" purity="5.1576185226440430e-01" nType="0">
          <Node pos="l" depth="2" NCoef="0" IVar="-1" Cut="0.0000000000000000e+00" cType="1" res="-3.5410132841207087e-04" rms="4.6273022890090942e-01" purity="4.2606076598167419e-01" nType="-99"/>
          <Node pos="r" depth="2" NCoef="0" IVar="-1" Cut="0.0000000000000000e+00" cType="1" res="5.1249348325654864e-04" rms="4.3074393272399902e-01" purity="7.1759444475173950e-01" nType="-99"/>
        </Node>
      </Node>
    </BinaryTree>
    <BinaryTree type="DecisionTree" boostWeight="1.0000000000000000e+00" itree="722">
      <Node pos="s" depth="0" NCoef="0" IVar="6" Cut="1.7214262485504150e+00" cType="1" res="5.2684298716485500e-03" rms="4.5414826273918152e-01" purity="5.0388640165328979e-01" nType="0">
        <Node pos="l" depth="1" NCoef="0" IVar="3" Cut="1.8297047913074493e-01" cType="1" res="-1.8060637637972832e-02" rms="4.3773379921913147e-01" purity="3.0034089088439941e-01" nType="0">
          <Node pos="l" depth="2" NCoef="0" IVar="-1" Cut="0.0000000000000000e+00" cType="1" res="-3.6656063457485288e-05" rms="4.4795569777488708e-01" purity="3.3480146527290344e-01" nType="-99"/>
          <Node pos="r" depth="2" NCoef="0" IVar="-1" Cut="0.0000000000000000e+00" cType="1" res="-1.7189151840284467e-03" rms="4.2588663101196289e-01" purity="2.6385021209716797e-01" nType="-99"/>
        </Node>
        <Node pos="r" depth="1" NCoef="0" IVar="3" Cut="2.8710204362869263e-01" cType="1" res="1.2008447200059891e-02" rms="4.5856028795242310e-01" purity="5.6269288063049316e-01" nType="0">
          <Node pos="l" depth="2" NCoef="0" IVar="-1" Cut="0.0000000000000000e+00" cType="1" res="1.2691268930211663e-03" rms="4.6841055154800415e-01" purity="5.4406982660293579e-01" nType="-99"/>
          <Node pos="r" depth="2" NCoef="0" IVar="-1" Cut="0.0000000000000000e+00" cType="1" res="6.2584302213508636e-05" rms="4.5494860410690308e-01" purity="5.6860280036926270e-01" nType="-99"/>
        </Node>
      </Node>
    </BinaryTree>
    <BinaryTree type="DecisionTree" boostWeight="1.0000000000000000e+00" itree="723">
      <Node pos="s" depth="0" NCoef="0" IVar="5" Cut="1.5582455396652222e+00" cType="1" res="1.2486032210290432e-03" rms="4.5427057147026062e-01" purity="4.9962148070335388e-01" nType="0">
        <Node pos="l" depth="1" NCoef="0" IVar="-1" Cut="0.0000000000000000e+00" cType="1" res="1.1411743471398950e-03" rms="4.5092469453811646e-01" purity="6.2565791606903076e-01" nType="-99"/>
        <Node pos="r" depth="1" NCoef="0" IVar="7" Cut="2.1913830935955048e-01" cType="1" res="-2.5344488676637411e-03" rms="4.5440420508384705e-01" purity="4.8768416047096252e-01" nType="0">
          <Node pos="l" depth="2" NCoef="0" IVar="-1" Cut="0.0000000000000000e+00" cType="1" res="-1.8732588796410710e-04" rms="4.5389217138290405e-01" purity="4.7709614038467407e-01" nType="-99"/>
          <Node pos="r" depth="2" NCoef="0" IVar="-1" Cut="0.0000000000000000e+00" cType="1" res="9.6469663549214602e-04" rms="4.5862013101577759e-01" purity="6.0881048440933228e-01" nType="-99"/>
        </Node>
      </Node>
    </BinaryTree>
    <BinaryTree type="DecisionTree" boostWeight="1.0000000000000000e+00" itree="724">
      <Node pos="s" depth="0" NCoef="0" IVar="2" Cut="6.5140056610107422e-01" cType="1" res="3.0481063295155764e-03" rms="4.5680856704711914e-01" purity="4.9849712848663330e-01" nType="0">
        <Node pos="l" depth="1" NCoef="0" IVar="3" Cut="1.9032652676105499e-01" cType="1" res="1.8656317144632339e-02" rms="4.5545655488967896e-01" purity="5.7148313522338867e-01" nType="0">
          <Node pos="l" depth="2" NCoef="0" IVar="-1" Cut="0.0000000000000000e+00" cType="1" res="1.5495761763304472e-03" rms="4.6977710723876953e-01" purity="5.0533455610275269e-01" nType="-99"/>
          <Node pos="r" depth="2" NCoef="0" IVar="-1" Cut="0.0000000000000000e+00" cType="1" res="2.7023893198929727e-04" rms="4.5062753558158875e-01" purity="5.9145343303680420e-01" nType="-99"/>
        </Node>
        <Node pos="r" depth="1" NCoef="0" IVar="3" Cut="7.1290796995162964e-01" cType="1" res="-5.2460962906479836e-03" rms="4.5730870962142944e-01" purity="4.5971235632896423e-01" nType="0">
          <Node pos="l" depth="2" NCoef="0" IVar="-1" Cut="0.0000000000000000e+00" cType="1" res="1.0691243005567230e-05" rms="4.5667496323585510e-01" purity="4.3117314577102661e-01" nType="-99"/>
          <Node pos="r" depth="2" NCoef="0" IVar="-1" Cut="0.0000000000000000e+00" cType="1" res="-9.9274457897990942e-04" rms="4.5955991744995117e-01" purity="6.1438882350921631e-01" nType="-99"/>
        </Node>
      </Node>
    </BinaryTree>
    <BinaryTree type="DecisionTree" boostWeight="1.0000000000000000e+00" itree="725">
      <Node pos="s" depth="0" NCoef="0" IVar="2" Cut="6.4116883277893066e-01" cType="1" res="1.5581811021547765e-04" rms="4.5447874069213867e-01" purity="4.9834236502647400e-01" nType="0">
        <Node pos="l" depth="1" NCoef="0" IVar="3" Cut="2.0968163013458252e-01" cType="1" res="1.8612856045365334e-02" rms="4.5588499307632446e-01" purity="5.7272124290466309e-01" nType="0">
          <Node pos="l" depth="2" NCoef="0" IVar="-1" Cut="0.0000000000000000e+00" cType="1" res="1.3975128531455994e-03" rms="4.6896895766258240e-01" purity="5.0492793321609497e-01" nType="-99"/>
          <Node pos="r" depth="2" NCoef="0" IVar="-1" Cut="0.0000000000000000e+00" cType="1" res="2.6126610464416444e-04" rms="4.5066902041435242e-01" purity="5.9735172986984253e-01" nType="-99"/>
        </Node>
        <Node pos="r" depth="1" NCoef="0" IVar="6" Cut="2.2518222332000732e+00" cType="1" res="-9.0317139402031898e-03" rms="4.5349717140197754e-01" purity="4.6131810545921326e-01" nType="0">
          <Node pos="l" depth="2" NCoef="0" IVar="-1" Cut="0.0000000000000000e+00" cType="1" res="-1.2558696325868368e-03" rms="4.3230625987052917e-01" purity="2.8821313381195068e-01" nType="-99"/>
          <Node pos="r" depth="2" NCoef="0" IVar="-1" Cut="0.0000000000000000e+00" cType="1" res="4.7864810767350718e-05" rms="4.6486809849739075e-01" purity="5.6052249670028687e-01" nType="-99"/>
        </Node>
      </Node>
    </BinaryTree>
    <BinaryTree type="DecisionTree" boostWeight="1.0000000000000000e+00" itree="726">
      <Node pos="s" depth="0" NCoef="0" IVar="3" Cut="2.2903673350811005e-01" cType="1" res="5.3222686983644962e-03" rms="4.5647582411766052e-01" purity="5.0175756216049194e-01" nType="0">
        <Node pos="l" depth="1" NCoef="0" IVar="6" Cut="1.2996171712875366e+00" cType="1" res="2.6742296293377876e-02" rms="4.5893558859825134e-01" purity="4.3131747841835022e-01" nType="0">
          <Node pos="l" depth="2" NCoef="0" IVar="-1" Cut="0.0000000000000000e+00" cType="1" res="8.2264385127928108e-05" rms="4.4468250870704651e-01" purity="3.0523777008056641e-01" nType="-99"/>
          <Node pos="r" depth="2" NCoef="0" IVar="-1" Cut="0.0000000000000000e+00" cType="1" res="1.3356865383684635e-03" rms="4.6754682064056396e-01" purity="5.1630240678787231e-01" nType="-99"/>
        </Node>
        <Node pos="r" depth="1" NCoef="0" IVar="6" Cut="4.9042463302612305e+00" cType="1" res="-3.1313507352024317e-03" rms="4.5522412657737732e-01" purity="5.2955740690231323e-01" nType="0">
          <Node pos="l" depth="2" NCoef="0" IVar="-1" Cut="0.0000000000000000e+00" cType="1" res="-2.4989744997583330e-04" rms="4.6335700154304504e-01" purity="4.8764747381210327e-01" nType="-99"/>
          <Node pos="r" depth="2" NCoef="0" IVar="-1" Cut="0.0000000000000000e+00" cType="1" res="7.6882797293365002e-04" rms="4.0133824944496155e-01" purity="7.8255653381347656e-01" nType="-99"/>
        </Node>
      </Node>
    </BinaryTree>
    <BinaryTree type="DecisionTree" boostWeight="1.0000000000000000e+00" itree="727">
      <Node pos="s" depth="0" NCoef="0" IVar="4" Cut="5.5037117004394531e+01" cType="1" res="-1.6090762801468372e-04" rms="4.5381793379783630e-01" purity="4.9933323264122009e-01" nType="0">
        <Node pos="l" depth="1" NCoef="0" IVar="9" Cut="1.4871900939941406e+02" cType="1" res="-1.4928844757378101e-02" rms="4.4868221879005432e-01" purity="4.3932163715362549e-01" nType="0">
          <Node pos="l" depth="2" NCoef="0" IVar="-1" Cut="0.0000000000000000e+00" cType="1" res="-8.2973105600103736e-04" rms="4.4770747423171997e-01" purity="4.2859357595443726e-01" nType="-99"/>
          <Node pos="r" depth="2" NCoef="0" IVar="-1" Cut="0.0000000000000000e+00" cType="1" res="1.1391189182177186e-03" rms="4.5102992653846741e-01" purity="5.0179922580718994e-01" nType="-99"/>
        </Node>
        <Node pos="r" depth="1" NCoef="0" IVar="7" Cut="1.9554516673088074e-01" cType="1" res="8.8063068687915802e-03" rms="4.5667523145675659e-01" purity="5.3577280044555664e-01" nType="0">
          <Node pos="l" depth="2" NCoef="0" IVar="-1" Cut="0.0000000000000000e+00" cType="1" res="1.5893082309048623e-04" rms="4.5726728439331055e-01" purity="5.2243238687515259e-01" nType="-99"/>
          <Node pos="r" depth="2" NCoef="0" IVar="-1" Cut="0.0000000000000000e+00" cType="1" res="9.8628911655396223e-04" rms="4.5134282112121582e-01" purity="6.3491845130920410e-01" nType="-99"/>
        </Node>
      </Node>
    </BinaryTree>
    <BinaryTree type="DecisionTree" boostWeight="1.0000000000000000e+00" itree="728">
      <Node pos="s" depth="0" NCoef="0" IVar="9" Cut="1.6664353942871094e+02" cType="1" res="-1.9488706020638347e-03" rms="4.5384085178375244e-01" purity="4.9566128849983215e-01" nType="0">
        <Node pos="l" depth="1" NCoef="0" IVar="7" Cut="1.9537407159805298e-01" cType="1" res="-7.1143046952784061e-03" rms="4.5281273126602173e-01" purity="4.8900172114372253e-01" nType="0">
          <Node pos="l" depth="2" NCoef="0" IVar="-1" Cut="0.0000000000000000e+00" cType="1" res="-3.8608189788646996e-04" rms="4.5237538218498230e-01" purity="4.7407364845275879e-01" nType="-99"/>
          <Node pos="r" depth="2" NCoef="0" IVar="-1" Cut="0.0000000000000000e+00" cType="1" res="7.7209342271089554e-04" rms="4.5452538132667542e-01" purity="5.9777188301086426e-01" nType="-99"/>
        </Node>
        <Node pos="r" depth="1" NCoef="0" IVar="9" Cut="2.0736561584472656e+02" cType="1" res="3.9511121809482574e-02" rms="4.5991340279579163e-01" purity="5.4911392927169800e-01" nType="0">
          <Node pos="l" depth="2" NCoef="0" IVar="-1" Cut="0.0000000000000000e+00" cType="1" res="1.4544269070029259e-03" rms="4.5902299880981445e-01" purity="5.6909769773483276e-01" nType="-99"/>
          <Node pos="r" depth="2" NCoef="0" IVar="-1" Cut="0.0000000000000000e+00" cType="1" res="9.1284402878955007e-04" rms="4.6068295836448669e-01" purity="5.2722960710525513e-01" nType="-99"/>
        </Node>
      </Node>
    </BinaryTree>
    <BinaryTree type="DecisionTree" boostWeight="1.0000000000000000e+00" itree="729">
      <Node pos="s" depth="0" NCoef="0" IVar="6" Cut="3.4333894252777100e+00" cType="1" res="3.9167720824480057e-03" rms="4.5331108570098877e-01" purity="5.0383043289184570e-01" nType="0">
        <Node pos="l" depth="1" NCoef="0" IVar="9" Cut="1.7169743347167969e+02" cType="1" res="-4.4215428642928600e-03" rms="4.6059629321098328e-01" purity="4.0577441453933716e-01" nType="0">
          <Node pos="l" depth="2" NCoef="0" IVar="-1" Cut="0.0000000000000000e+00" cType="1" res="-3.1317624961957335e-04" rms="4.6061143279075623e-01" purity="3.9994105696678162e-01" nType="-99"/>
          <Node pos="r" depth="2" NCoef="0" IVar="-1" Cut="0.0000000000000000e+00" cType="1" res="1.2782327830791473e-03" rms="4.5823436975479126e-01" purity="4.6111655235290527e-01" nType="-99"/>
        </Node>
        <Node pos="r" depth="1" NCoef="0" IVar="3" Cut="6.0728436708450317e-01" cType="1" res="1.9827444106340408e-02" rms="4.3863505125045776e-01" purity="6.9093507528305054e-01" nType="0">
          <Node pos="l" depth="2" NCoef="0" IVar="-1" Cut="0.0000000000000000e+00" cType="1" res="1.2377635575830936e-03" rms="4.3994992971420288e-01" purity="6.9900816679000854e-01" nType="-99"/>
          <Node pos="r" depth="2" NCoef="0" IVar="-1" Cut="0.0000000000000000e+00" cType="1" res="1.4699620078317821e-04" rms="4.3725606799125671e-01" purity="6.8681967258453369e-01" nType="-99"/>
        </Node>
      </Node>
    </BinaryTree>
    <BinaryTree type="DecisionTree" boostWeight="1.0000000000000000e+00" itree="730">
      <Node pos="s" depth="0" NCoef="0" IVar="5" Cut="1.5246602296829224e+00" cType="1" res="2.9652169905602932e-04" rms="4.5558163523674011e-01" purity="4.9815288186073303e-01" nType="0">
        <Node pos="l" depth="1" NCoef="0" IVar="-1" Cut="0.0000000000000000e+00" cType="1" res="1.1192631209269166e-03" rms="4.5248121023178101e-01" purity="6.2287533283233643e-01" nType="-99"/>
        <Node pos="r" depth="1" NCoef="0" IVar="9" Cut="1.8932533264160156e+02" cType="1" res="-3.1774286180734634e-03" rms="4.5567771792411804e-01" purity="4.8748788237571716e-01" nType="0">
          <Node pos="l" depth="2" NCoef="0" IVar="-1" Cut="0.0000000000000000e+00" cType="1" res="-2.1314340119715780e-04" rms="4.5531287789344788e-01" purity="4.8340454697608948e-01" nType="-99"/>
          <Node pos="r" depth="2" NCoef="0" IVar="-1" Cut="0.0000000000000000e+00" cType="1" res="1.2191004352644086e-03" rms="4.5805537700653076e-01" purity="5.3805059194564819e-01" nType="-99"/>
        </Node>
      </Node>
    </BinaryTree>
    <BinaryTree type="DecisionTree" boostWeight="1.0000000000000000e+00" itree="731">
      <Node pos="s" depth="0" NCoef="0" IVar="9" Cut="9.0891426086425781e+01" cType="1" res="-3.2560259569436312e-04" rms="4.5277369022369385e-01" purity="4.9942371249198914e-01" nType="0">
        <Node pos="l" depth="1" NCoef="0" IVar="2" Cut="5.1442778110504150e-01" cType="1" res="-1.4652439393103123e-02" rms="4.5494827628135681e-01" purity="4.6116355061531067e-01" nType="0">
          <Node pos="l" depth="2" NCoef="0" IVar="-1" Cut="0.0000000000000000e+00" cType="1" res="7.1908778045326471e-04" rms="4.5556253194808960e-01" purity="5.6080579757690430e-01" nType="-99"/>
          <Node pos="r" depth="2" NCoef="0" IVar="-1" Cut="0.0000000000000000e+00" cType="1" res="-8.5112603846937418e-04" rms="4.5421233773231506e-01" purity="4.3455964326858521e-01" nType="-99"/>
        </Node>
        <Node pos="r" depth="1" NCoef="0" IVar="6" Cut="3.4493815898895264e+00" cType="1" res="1.0298286564648151e-02" rms="4.5086053013801575e-01" purity="5.2779507637023926e-01" nType="0">
          <Node pos="l" depth="2" NCoef="0" IVar="-1" Cut="0.0000000000000000e+00" cType="1" res="-1.5661278666811995e-05" rms="4.6307694911956787e-01" purity="4.2437660694122314e-01" nType="-99"/>
          <Node pos="r" depth="2" NCoef="0" IVar="-1" Cut="0.0000000000000000e+00" cType="1" res="7.8627018956467509e-04" rms="4.2757132649421692e-01" purity="7.1198207139968872e-01" nType="-99"/>
        </Node>
      </Node>
    </BinaryTree>
    <BinaryTree type="DecisionTree" boostWeight="1.0000000000000000e+00" itree="732">
      <Node pos="s" depth="0" NCoef="0" IVar="2" Cut="6.4738053083419800e-01" cType="1" res="4.5196831342764199e-04" rms="4.5350772142410278e-01" purity="4.9883684515953064e-01" nType="0">
        <Node pos="l" depth="1" NCoef="0" IVar="5" Cut="2.0661799907684326e+00" cType="1" res="1.9960992038249969e-02" rms="4.5414739847183228e-01" purity="5.7672697305679321e-01" nType="0">
          <Node pos="l" depth="2" NCoef="0" IVar="-1" Cut="0.0000000000000000e+00" cType="1" res="1.1260707397013903e-03" rms="4.5399385690689087e-01" purity="6.2907069921493530e-01" nType="-99"/>
          <Node pos="r" depth="2" NCoef="0" IVar="-1" Cut="0.0000000000000000e+00" cType="1" res="2.2313928639050573e-04" rms="4.5377188920974731e-01" purity="5.4581409692764282e-01" nType="-99"/>
        </Node>
        <Node pos="r" depth="1" NCoef="0" IVar="2" Cut="1.2751801013946533e+00" cType="1" res="-9.7992727532982826e-03" rms="4.5283451676368713e-01" purity="4.5790857076644897e-01" nType="0">
          <Node pos="l" depth="2" NCoef="0" IVar="-1" Cut="0.0000000000000000e+00" cType="1" res="-1.9252083438914269e-04" rms="4.5346164703369141e-01" purity="4.6560886502265930e-01" nType="-99"/>
          <Node pos="r" depth="2" NCoef="0" IVar="-1" Cut="0.0000000000000000e+00" cType="1" res="-2.0617824047803879e-03" rms="4.4303804636001587e-01" purity="3.6959147453308105e-01" nType="-99"/>
        </Node>
      </Node>
    </BinaryTree>
    <BinaryTree type="DecisionTree" boostWeight="1.0000000000000000e+00" itree="733">
      <Node pos="s" depth="0" NCoef="0" IVar="5" Cut="2.8733220100402832e+00" cType="1" res="7.2544957511126995e-03" rms="4.5655557513237000e-01" purity="5.0574868917465210e-01" nType="0">
        <Node pos="l" depth="1" NCoef="0" IVar="9" Cut="1.7216416931152344e+02" cType="1" res="9.8859844729304314e-03" rms="4.5920804142951965e-01" purity="5.2186572551727295e-01" nType="0">
          <Node pos="l" depth="2" NCoef="0" IVar="-1" Cut="0.0000000000000000e+00" cType="1" res="1.8454612290952355e-04" rms="4.5876625180244446e-01" purity="5.1336365938186646e-01" nType="-99"/>
          <Node pos="r" depth="2" NCoef="0" IVar="-1" Cut="0.0000000000000000e+00" cType="1" res="1.4875038759782910e-03" rms="4.6188476681709290e-01" purity="6.1731737852096558e-01" nType="-99"/>
        </Node>
        <Node pos="r" depth="1" NCoef="0" IVar="-1" Cut="0.0000000000000000e+00" cType="1" res="-2.2063748911023140e-03" rms="4.0439385175704956e-01" purity="2.2274610400199890e-01" nType="-99"/>
      </Node>
    </BinaryTree>
    <BinaryTree type="DecisionTree" boostWeight="1.0000000000000000e+00" itree="734">
      <Node pos="s" depth="0" NCoef="0" IVar="7" Cut="-1.0625199228525162e-01" cType="1" res="4.3745306320488453e-03" rms="4.5578098297119141e-01" purity="5.0100010633468628e-01" nType="0">
        <Node pos="l" depth="1" NCoef="0" IVar="-1" Cut="0.0000000000000000e+00" cType="1" res="-1.8109591910615563e-03" rms="4.3708726763725281e-01" purity="3.6397281289100647e-01" nType="-99"/>
        <Node pos="r" depth="1" NCoef="0" IVar="3" Cut="3.4515985846519470e-01" cType="1" res="8.8456878438591957e-03" rms="4.5711830258369446e-01" purity="5.1305276155471802e-01" nType="0">
          <Node pos="l" depth="2" NCoef="0" IVar="-1" Cut="0.0000000000000000e+00" cType="1" res="7.7694648643955588e-04" rms="4.6201884746551514e-01" purity="4.4150978326797485e-01" nType="-99"/>
          <Node pos="r" depth="2" NCoef="0" IVar="-1" Cut="0.0000000000000000e+00" cType="1" res="-9.6121955721173435e-05" rms="4.5246872305870056e-01" purity="5.7517790794372559e-01" nType="-99"/>
        </Node>
      </Node>
    </BinaryTree>
    <BinaryTree type="DecisionTree" boostWeight="1.0000000000000000e+00" itree="735">
      <Node pos="s" depth="0" NCoef="0" IVar="3" Cut="5.5807346105575562e-01" cType="1" res="-1.3733487576246262e-03" rms="4.5578777790069580e-01" purity="4.9607664346694946e-01" nType="0">
        <Node pos="l" depth="1" NCoef="0" IVar="6" Cut="3.3150949478149414e+00" cType="1" res="6.4519881270825863e-03" rms="4.5713514089584351e-01" purity="4.4469466805458069e-01" nType="0">
          <Node pos="l" depth="2" NCoef="0" IVar="-1" Cut="0.0000000000000000e+00" cType="1" res="-5.1517126848921180e-05" rms="4.5965945720672607e-01" purity="3.9878562092781067e-01" nType="-99"/>
          <Node pos="r" depth="2" NCoef="0" IVar="-1" Cut="0.0000000000000000e+00" cType="1" res="1.2562844203785062e-03" rms="4.4088727235794067e-01" purity="6.9168341159820557e-01" nType="-99"/>
        </Node>
        <Node pos="r" depth="1" NCoef="0" IVar="8" Cut="1.3851657104492188e+02" cType="1" res="-1.9536506384611130e-02" rms="4.5212334394454956e-01" purity="6.1533790826797485e-01" nType="0">
          <Node pos="l" depth="2" NCoef="0" IVar="-1" Cut="0.0000000000000000e+00" cType="1" res="-2.2472204000223428e-04" rms="4.4951519370079041e-01" purity="6.2667167186737061e-01" nType="-99"/>
          <Node pos="r" depth="2" NCoef="0" IVar="-1" Cut="0.0000000000000000e+00" cType="1" res="-1.6390475211665034e-03" rms="4.5817843079566956e-01" purity="5.8087170124053955e-01" nType="-99"/>
        </Node>
      </Node>
    </BinaryTree>
    <BinaryTree type="DecisionTree" boostWeight="1.0000000000000000e+00" itree="736">
      <Node pos="s" depth="0" NCoef="0" IVar="4" Cut="5.5086082458496094e+01" cType="1" res="6.9644483737647533e-03" rms="4.5478773117065430e-01" purity="5.0558358430862427e-01" nType="0">
        <Node pos="l" depth="1" NCoef="0" IVar="7" Cut="-3.1833588145673275e-03" cType="1" res="-1.1193920858204365e-02" rms="4.4947928190231323e-01" purity="4.4165450334548950e-01" nType="0">
          <Node pos="l" depth="2" NCoef="0" IVar="-1" Cut="0.0000000000000000e+00" cType="1" res="-1.0658974060788751e-03" rms="4.4321060180664062e-01" purity="3.9596325159072876e-01" nType="-99"/>
          <Node pos="r" depth="2" NCoef="0" IVar="-1" Cut="0.0000000000000000e+00" cType="1" res="2.5368263595737517e-04" rms="4.5540887117385864e-01" purity="4.9124103784561157e-01" nType="-99"/>
        </Node>
        <Node pos="r" depth="1" NCoef="0" IVar="0" Cut="1.0684347152709961e+00" cType="1" res="1.7719551920890808e-02" rms="4.5756319165229797e-01" purity="5.4344844818115234e-01" nType="0">
          <Node pos="l" depth="2" NCoef="0" IVar="-1" Cut="0.0000000000000000e+00" cType="1" res="8.0636813072487712e-04" rms="4.5726314187049866e-01" purity="5.8225786685943604e-01" nType="-99"/>
          <Node pos="r" depth="2" NCoef="0" IVar="-1" Cut="0.0000000000000000e+00" cType="1" res="2.0585588936228305e-04" rms="4.5763581991195679e-01" purity="5.0064200162887573e-01" nType="-99"/>
        </Node>
      </Node>
    </BinaryTree>
    <BinaryTree type="DecisionTree" boostWeight="1.0000000000000000e+00" itree="737">
      <Node pos="s" depth="0" NCoef="0" IVar="2" Cut="3.9093166589736938e-01" cType="1" res="8.6028985679149628e-03" rms="4.5513468980789185e-01" purity="5.0578302145004272e-01" nType="0">
        <Node pos="l" depth="1" NCoef="0" IVar="-1" Cut="0.0000000000000000e+00" cType="1" res="1.3437932357192039e-03" rms="4.4938755035400391e-01" purity="6.1295485496520996e-01" nType="-99"/>
        <Node pos="r" depth="1" NCoef="0" IVar="7" Cut="1.9196738302707672e-01" cType="1" res="5.2862167358398438e-03" rms="4.5545470714569092e-01" purity="4.9683302640914917e-01" nType="0">
          <Node pos="l" depth="2" NCoef="0" IVar="-1" Cut="0.0000000000000000e+00" cType="1" res="3.0292874726001173e-05" rms="4.5515957474708557e-01" purity="4.8126810789108276e-01" nType="-99"/>
          <Node pos="r" depth="2" NCoef="0" IVar="-1" Cut="0.0000000000000000e+00" cType="1" res="9.8734325729310513e-04" rms="4.5635631680488586e-01" purity="6.0456734895706177e-01" nType="-99"/>
        </Node>
      </Node>
    </BinaryTree>
    <BinaryTree type="DecisionTree" boostWeight="1.0000000000000000e+00" itree="738">
      <Node pos="s" depth="0" NCoef="0" IVar="7" Cut="1.9633027911186218e-01" cType="1" res="-1.7573677469044924e-03" rms="4.5465657114982605e-01" purity="4.9693286418914795e-01" nType="0">
        <Node pos="l" depth="1" NCoef="0" IVar="9" Cut="1.0699268341064453e+02" cType="1" res="-6.3824173994362354e-03" rms="4.5362788438796997e-01" purity="4.8327052593231201e-01" nType="0">
          <Node pos="l" depth="2" NCoef="0" IVar="-1" Cut="0.0000000000000000e+00" cType="1" res="-5.3757196292281151e-04" rms="4.5481640100479126e-01" purity="4.5517525076866150e-01" nType="-99"/>
          <Node pos="r" depth="2" NCoef="0" IVar="-1" Cut="0.0000000000000000e+00" cType="1" res="1.9859796157106757e-04" rms="4.5178771018981934e-01" purity="5.1912844181060791e-01" nType="-99"/>
        </Node>
        <Node pos="r" depth="1" NCoef="0" IVar="-1" Cut="0.0000000000000000e+00" cType="1" res="9.6919952193275094e-04" rms="4.6105134487152100e-01" purity="6.0435259342193604e-01" nType="-99"/>
      </Node>
    </BinaryTree>
    <BinaryTree type="DecisionTree" boostWeight="1.0000000000000000e+00" itree="739">
      <Node pos="s" depth="0" NCoef="0" IVar="7" Cut="2.2996857762336731e-01" cType="1" res="-4.0740370750427246e-03" rms="4.5500966906547546e-01" purity="4.9459758400917053e-01" nType="0">
        <Node pos="l" depth="1" NCoef="0" IVar="9" Cut="1.9219097900390625e+02" cType="1" res="-7.0389863103628159e-03" rms="4.5482650399208069e-01" purity="4.8578980565071106e-01" nType="0">
          <Node pos="l" depth="2" NCoef="0" IVar="-1" Cut="0.0000000000000000e+00" cType="1" res="-3.2414874294772744e-04" rms="4.5449542999267578e-01" purity="4.8270618915557861e-01" nType="-99"/>
          <Node pos="r" depth="2" NCoef="0" IVar="-1" Cut="0.0000000000000000e+00" cType="1" res="1.0433864081278443e-03" rms="4.5738828182220459e-01" purity="5.2757096290588379e-01" nType="-99"/>
        </Node>
        <Node pos="r" depth="1" NCoef="0" IVar="-1" Cut="0.0000000000000000e+00" cType="1" res="1.0231285123154521e-03" rms="4.5555591583251953e-01" purity="6.1683773994445801e-01" nType="-99"/>
      </Node>
    </BinaryTree>
    <BinaryTree type="DecisionTree" boostWeight="1.0000000000000000e+00" itree="740">
      <Node pos="s" depth="0" NCoef="0" IVar="7" Cut="-1.1442787200212479e-01" cType="1" res="-1.5424200100824237e-03" rms="4.5509418845176697e-01" purity="4.9728083610534668e-01" nType="0">
        <Node pos="l" depth="1" NCoef="0" IVar="-1" Cut="0.0000000000000000e+00" cType="1" res="-2.1351226605474949e-03" rms="4.3552297353744507e-01" purity="3.5462278127670288e-01" nType="-99"/>
        <Node pos="r" depth="1" NCoef="0" IVar="3" Cut="6.3548147678375244e-01" cType="1" res="1.6182388644665480e-03" rms="4.5605099201202393e-01" purity="5.0585764646530151e-01" nType="0">
          <Node pos="l" depth="2" NCoef="0" IVar="-1" Cut="0.0000000000000000e+00" cType="1" res="2.4041057622525841e-04" rms="4.5829436182975769e-01" purity="4.6479675173759460e-01" nType="-99"/>
          <Node pos="r" depth="2" NCoef="0" IVar="-1" Cut="0.0000000000000000e+00" cType="1" res="-5.1127834012731910e-04" rms="4.4780024886131287e-01" purity="6.4512443542480469e-01" nType="-99"/>
        </Node>
      </Node>
    </BinaryTree>
    <BinaryTree type="DecisionTree" boostWeight="1.0000000000000000e+00" itree="741">
      <Node pos="s" depth="0" NCoef="0" IVar="1" Cut="3.9558740234375000e+02" cType="1" res="6.3489456661045551e-03" rms="4.5535394549369812e-01" purity="5.0487077236175537e-01" nType="0">
        <Node pos="l" depth="1" NCoef="0" IVar="0" Cut="1.1953177452087402e+00" cType="1" res="-2.6599735021591187e-02" rms="4.2326045036315918e-01" purity="2.9983589053153992e-01" nType="0">
          <Node pos="l" depth="2" NCoef="0" IVar="-1" Cut="0.0000000000000000e+00" cType="1" res="-2.0445657428354025e-03" rms="4.2599028348922729e-01" purity="2.9998818039894104e-01" nType="-99"/>
          <Node pos="r" depth="2" NCoef="0" IVar="-1" Cut="0.0000000000000000e+00" cType="1" res="-2.3142910504247993e-04" rms="4.1931527853012085e-01" purity="2.9967749118804932e-01" nType="-99"/>
        </Node>
        <Node pos="r" depth="1" NCoef="0" IVar="0" Cut="6.3187050819396973e-01" cType="1" res="1.1602725833654404e-02" rms="4.6004644036293030e-01" purity="5.3756427764892578e-01" nType="0">
          <Node pos="l" depth="2" NCoef="0" IVar="-1" Cut="0.0000000000000000e+00" cType="1" res="1.2200556229799986e-03" rms="4.5632627606391907e-01" purity="6.1417216062545776e-01" nType="-99"/>
          <Node pos="r" depth="2" NCoef="0" IVar="-1" Cut="0.0000000000000000e+00" cType="1" res="2.1906461915932596e-04" rms="4.6036913990974426e-01" purity="5.2726954221725464e-01" nType="-99"/>
        </Node>
      </Node>
    </BinaryTree>
    <BinaryTree type="DecisionTree" boostWeight="1.0000000000000000e+00" itree="742">
      <Node pos="s" depth="0" NCoef="0" IVar="5" Cut="2.1583156585693359e+00" cType="1" res="4.0910919778980315e-04" rms="4.5504358410835266e-01" purity="4.9813103675842285e-01" nType="0">
        <Node pos="l" depth="1" NCoef="0" IVar="3" Cut="5.3870761394500732e-01" cType="1" res="1.7101002857089043e-02" rms="4.5536366105079651e-01" purity="5.7467150688171387e-01" nType="0">
          <Node pos="l" depth="2" NCoef="0" IVar="-1" Cut="0.0000000000000000e+00" cType="1" res="9.0174545766785741e-04" rms="4.6340411901473999e-01" purity="5.2758634090423584e-01" nType="-99"/>
          <Node pos="r" depth="2" NCoef="0" IVar="-1" Cut="0.0000000000000000e+00" cType="1" res="-3.0617581796832383e-04" rms="4.3699839711189270e-01" purity="6.7172795534133911e-01" nType="-99"/>
        </Node>
        <Node pos="r" depth="1" NCoef="0" IVar="3" Cut="4.0322956442832947e-01" cType="1" res="-1.2305365875363350e-02" rms="4.5438840985298157e-01" purity="4.3982893228530884e-01" nType="0">
          <Node pos="l" depth="2" NCoef="0" IVar="-1" Cut="0.0000000000000000e+00" cType="1" res="-5.3142821343499236e-06" rms="4.5107200741767883e-01" purity="3.7812405824661255e-01" nType="-99"/>
          <Node pos="r" depth="2" NCoef="0" IVar="-1" Cut="0.0000000000000000e+00" cType="1" res="-8.2436221418902278e-04" rms="4.5792740583419800e-01" purity="5.1426959037780762e-01" nType="-99"/>
        </Node>
      </Node>
    </BinaryTree>
    <BinaryTree type="DecisionTree" boostWeight="1.0000000000000000e+00" itree="743">
      <Node pos="s" depth="0" NCoef="0" IVar="7" Cut="-1.1092101037502289e-01" cType="1" res="6.5319816349074244e-04" rms="4.5540699362754822e-01" purity="4.9799746274948120e-01" nType="0">
        <Node pos="l" depth="1" NCoef="0" IVar="-1" Cut="0.0000000000000000e+00" cType="1" res="-1.7849846044555306e-03" rms="4.3374505639076233e-01" purity="3.5290786623954773e-01" nType="-99"/>
        <Node pos="r" depth="1" NCoef="0" IVar="8" Cut="1.3719209289550781e+02" cType="1" res="3.9216913282871246e-03" rms="4.5670515298843384e-01" purity="5.0814759731292725e-01" nType="0">
          <Node pos="l" depth="2" NCoef="0" IVar="-1" Cut="0.0000000000000000e+00" cType="1" res="3.2090497552417219e-04" rms="4.5478984713554382e-01" purity="5.1134610176086426e-01" nType="-99"/>
          <Node pos="r" depth="2" NCoef="0" IVar="-1" Cut="0.0000000000000000e+00" cType="1" res="-4.3788412585854530e-04" rms="4.6150973439216614e-01" purity="4.9928247928619385e-01" nType="-99"/>
        </Node>
      </Node>
    </BinaryTree>
    <BinaryTree type="DecisionTree" boostWeight="1.0000000000000000e+00" itree="744">
      <Node pos="s" depth="0" NCoef="0" IVar="6" Cut="3.9855461120605469e+00" cType="1" res="2.1946439519524574e-03" rms="4.5292788743972778e-01" purity="5.0313353538513184e-01" nType="0">
        <Node pos="l" depth="1" NCoef="0" IVar="9" Cut="1.4099868774414062e+02" cType="1" res="-6.1957580037415028e-03" rms="4.6313786506652832e-01" purity="4.2809015512466431e-01" nType="0">
          <Node pos="l" depth="2" NCoef="0" IVar="-1" Cut="0.0000000000000000e+00" cType="1" res="-4.3526245281100273e-04" rms="4.6171608567237854e-01" purity="4.1762611269950867e-01" nType="-99"/>
          <Node pos="r" depth="2" NCoef="0" IVar="-1" Cut="0.0000000000000000e+00" cType="1" res="7.4696860974654555e-04" rms="4.6825394034385681e-01" purity="4.7442066669464111e-01" nType="-99"/>
        </Node>
        <Node pos="r" depth="1" NCoef="0" IVar="4" Cut="5.0924407958984375e+01" cType="1" res="2.8453836217522621e-02" rms="4.1828450560569763e-01" purity="7.3799455165863037e-01" nType="0">
          <Node pos="l" depth="2" NCoef="0" IVar="-1" Cut="0.0000000000000000e+00" cType="1" res="-2.1591042241198011e-05" rms="4.3591734766960144e-01" purity="6.8511265516281128e-01" nType="-99"/>
          <Node pos="r" depth="2" NCoef="0" IVar="-1" Cut="0.0000000000000000e+00" cType="1" res="1.1116294190287590e-03" rms="4.0957710146903992e-01" purity="7.6138943433761597e-01" nType="-99"/>
        </Node>
      </Node>
    </BinaryTree>
    <BinaryTree type="DecisionTree" boostWeight="1.0000000000000000e+00" itree="745">
      <Node pos="s" depth="0" NCoef="0" IVar="6" Cut="1.5586695671081543e+00" cType="1" res="-9.3858962645754218e-04" rms="4.5374265313148499e-01" purity="4.9779701232910156e-01" nType="0">
        <Node pos="l" depth="1" NCoef="0" IVar="3" Cut="1.4230450987815857e-01" cType="1" res="-2.6834132149815559e-02" rms="4.2892840504646301e-01" purity="2.7832460403442383e-01" nType="0">
          <Node pos="l" depth="2" NCoef="0" IVar="-1" Cut="0.0000000000000000e+00" cType="1" res="-1.7896707868203521e-04" rms="4.4966557621955872e-01" purity="3.2725772261619568e-01" nType="-99"/>
          <Node pos="r" depth="2" NCoef="0" IVar="-1" Cut="0.0000000000000000e+00" cType="1" res="-1.7825681716203690e-03" rms="4.1979688405990601e-01" purity="2.5831478834152222e-01" nType="-99"/>
        </Node>
        <Node pos="r" depth="1" NCoef="0" IVar="3" Cut="5.3871494531631470e-01" cType="1" res="4.9168523401021957e-03" rms="4.5896527171134949e-01" purity="5.4742360115051270e-01" nType="0">
          <Node pos="l" depth="2" NCoef="0" IVar="-1" Cut="0.0000000000000000e+00" cType="1" res="5.4097489919513464e-04" rms="4.6447062492370605e-01" purity="5.0568854808807373e-01" nType="-99"/>
          <Node pos="r" depth="2" NCoef="0" IVar="-1" Cut="0.0000000000000000e+00" cType="1" res="-4.3196391197852790e-04" rms="4.4958013296127319e-01" purity="6.1198544502258301e-01" nType="-99"/>
        </Node>
      </Node>
    </BinaryTree>
    <BinaryTree type="DecisionTree" boostWeight="1.0000000000000000e+00" itree="746">
      <Node pos="s" depth="0" NCoef="0" IVar="2" Cut="1.2711260318756104e+00" cType="1" res="-1.1395468609407544e-03" rms="4.5396542549133301e-01" purity="4.9707311391830444e-01" nType="0">
        <Node pos="l" depth="1" NCoef="0" IVar="3" Cut="1.5161438286304474e-01" cType="1" res="2.0679882727563381e-03" rms="4.5437052845954895e-01" purity="5.0445717573165894e-01" nType="0">
          <Node pos="l" depth="2" NCoef="0" IVar="-1" Cut="0.0000000000000000e+00" cType="1" res="1.1487054871395230e-03" rms="4.5783925056457520e-01" purity="4.5237800478935242e-01" nType="-99"/>
          <Node pos="r" depth="2" NCoef="0" IVar="-1" Cut="0.0000000000000000e+00" cType="1" res="-6.5489432017784566e-05" rms="4.5374199748039246e-01" purity="5.1142966747283936e-01" nType="-99"/>
        </Node>
        <Node pos="r" depth="1" NCoef="0" IVar="-1" Cut="0.0000000000000000e+00" cType="1" res="-2.2511051502078772e-03" rms="4.4233715534210205e-01" purity="3.6140760779380798e-01" nType="-99"/>
      </Node>
    </BinaryTree>
    <BinaryTree type="DecisionTree" boostWeight="1.0000000000000000e+00" itree="747">
      <Node pos="s" depth="0" NCoef="0" IVar="3" Cut="5.5807346105575562e-01" cType="1" res="1.2203872902318835e-03" rms="4.5404922962188721e-01" purity="4.9775251746177673e-01" nType="0">
        <Node pos="l" depth="1" NCoef="0" IVar="6" Cut="3.6048312187194824e+00" cType="1" res="8.6370464414358139e-03" rms="4.5533481240272522e-01" purity="4.4627031683921814e-01" nType="0">
          <Node pos="l" depth="2" NCoef="0" IVar="-1" Cut="0.0000000000000000e+00" cType="1" res="9.1917529061902314e-05" rms="4.5784661173820496e-01" purity="4.1327545046806335e-01" nType="-99"/>
          <Node pos="r" depth="2" NCoef="0" IVar="-1" Cut="0.0000000000000000e+00" cType="1" res="1.5046570915728807e-03" rms="4.3031311035156250e-01" purity="7.2409027814865112e-01" nType="-99"/>
        </Node>
        <Node pos="r" depth="1" NCoef="0" IVar="6" Cut="4.9984245300292969e+00" cType="1" res="-1.6283264383673668e-02" rms="4.5051679015159607e-01" purity="6.1925297975540161e-01" nType="0">
          <Node pos="l" depth="2" NCoef="0" IVar="-1" Cut="0.0000000000000000e+00" cType="1" res="-1.0401231702417135e-03" rms="4.7068738937377930e-01" purity="5.4816395044326782e-01" nType="-99"/>
          <Node pos="r" depth="2" NCoef="0" IVar="-1" Cut="0.0000000000000000e+00" cType="1" res="9.5037079881876707e-04" rms="3.9290761947631836e-01" purity="7.9184043407440186e-01" nType="-99"/>
        </Node>
      </Node>
    </BinaryTree>
    <BinaryTree type="DecisionTree" boostWeight="1.0000000000000000e+00" itree="748">
      <Node pos="s" depth="0" NCoef="0" IVar="7" Cut="-8.3184555172920227e-02" cType="1" res="-2.0746827067341655e-04" rms="4.5412087440490723e-01" purity="4.9868094921112061e-01" nType="0">
        <Node pos="l" depth="1" NCoef="0" IVar="2" Cut="6.5091776847839355e-01" cType="1" res="-2.8194377198815346e-02" rms="4.3796500563621521e-01" purity="4.1050475835800171e-01" nType="0">
          <Node pos="l" depth="2" NCoef="0" IVar="-1" Cut="0.0000000000000000e+00" cType="1" res="-2.6366931706434116e-05" rms="4.5335003733634949e-01" purity="5.2188485860824585e-01" nType="-99"/>
          <Node pos="r" depth="2" NCoef="0" IVar="-1" Cut="0.0000000000000000e+00" cType="1" res="-1.8457585247233510e-03" rms="4.2687201499938965e-01" purity="3.3898547291755676e-01" nType="-99"/>
        </Node>
        <Node pos="r" depth="1" NCoef="0" IVar="9" Cut="4.3393447875976562e+01" cType="1" res="6.1281640082597733e-03" rms="4.5746141672134399e-01" purity="5.1864212751388550e-01" nType="0">
          <Node pos="l" depth="2" NCoef="0" IVar="-1" Cut="0.0000000000000000e+00" cType="1" res="-1.0210478212684393e-03" rms="4.5777067542076111e-01" purity="4.5124018192291260e-01" nType="-99"/>
          <Node pos="r" depth="2" NCoef="0" IVar="-1" Cut="0.0000000000000000e+00" cType="1" res="2.7668161783367395e-04" rms="4.5731186866760254e-01" purity="5.2372992038726807e-01" nType="-99"/>
        </Node>
      </Node>
    </BinaryTree>
    <BinaryTree type="DecisionTree" boostWeight="1.0000000000000000e+00" itree="749">
      <Node pos="s" depth="0" NCoef="0" IVar="7" Cut="6.9210305809974670e-02" cType="1" res="2.4815988726913929e-03" rms="4.5302429795265198e-01" purity="5.0196766853332520e-01" nType="0">
        <Node pos="l" depth="1" NCoef="0" IVar="4" Cut="1.0711639404296875e+02" cType="1" res="-5.9111267328262329e-03" rms="4.4992911815643311e-01" purity="4.7178718447685242e-01" nType="0">
          <Node pos="l" depth="2" NCoef="0" IVar="-1" Cut="0.0000000000000000e+00" cType="1" res="-4.8617468564771116e-04" rms="4.4705072045326233e-01" purity="4.4455111026763916e-01" nType="-99"/>
          <Node pos="r" depth="2" NCoef="0" IVar="-1" Cut="0.0000000000000000e+00" cType="1" res="6.9608096964657307e-04" rms="4.5890894532203674e-01" purity="5.6996947526931763e-01" nType="-99"/>
        </Node>
        <Node pos="r" depth="1" NCoef="0" IVar="3" Cut="2.2903673350811005e-01" cType="1" res="1.8818370997905731e-02" rms="4.5854902267456055e-01" purity="5.6071519851684570e-01" nType="0">
          <Node pos="l" depth="2" NCoef="0" IVar="-1" Cut="0.0000000000000000e+00" cType="1" res="1.4530823100358248e-03" rms="4.6550694108009338e-01" purity="5.0223559141159058e-01" nType="-99"/>
          <Node pos="r" depth="2" NCoef="0" IVar="-1" Cut="0.0000000000000000e+00" cType="1" res="2.5504210498183966e-04" rms="4.5557340979576111e-01" purity="5.8208739757537842e-01" nType="-99"/>
        </Node>
      </Node>
    </BinaryTree>
    <BinaryTree type="DecisionTree" boostWeight="1.0000000000000000e+00" itree="750">
      <Node pos="s" depth="0" NCoef="0" IVar="8" Cut="1.0111430358886719e+02" cType="1" res="-3.9093908853828907e-03" rms="4.5405551791191101e-01" purity="4.9267885088920593e-01" nType="0">
        <Node pos="l" depth="1" NCoef="0" IVar="1" Cut="5.6896960449218750e+02" cType="1" res="-3.0852746218442917e-02" rms="4.5283034443855286e-01" purity="4.2053815722465515e-01" nType="0">
          <Node pos="l" depth="2" NCoef="0" IVar="-1" Cut="0.0000000000000000e+00" cType="1" res="-6.4320763340219855e-04" rms="4.4268262386322021e-01" purity="3.8124105334281921e-01" nType="-99"/>
          <Node pos="r" depth="2" NCoef="0" IVar="-1" Cut="0.0000000000000000e+00" cType="1" res="-1.6477381577715278e-03" rms="4.6830898523330688e-01" purity="4.8568230867385864e-01" nType="-99"/>
        </Node>
        <Node pos="r" depth="1" NCoef="0" IVar="8" Cut="1.3118963623046875e+02" cType="1" res="1.3952688314020634e-03" rms="4.5410802960395813e-01" purity="5.0688207149505615e-01" nType="0">
          <Node pos="l" depth="2" NCoef="0" IVar="-1" Cut="0.0000000000000000e+00" cType="1" res="3.6800533416680992e-04" rms="4.5131105184555054e-01" purity="5.1932322978973389e-01" nType="-99"/>
          <Node pos="r" depth="2" NCoef="0" IVar="-1" Cut="0.0000000000000000e+00" cType="1" res="-4.2324163950979710e-04" rms="4.5751416683197021e-01" purity="4.8985823988914490e-01" nType="-99"/>
        </Node>
      </Node>
    </BinaryTree>
    <BinaryTree type="DecisionTree" boostWeight="1.0000000000000000e+00" itree="751">
      <Node pos="s" depth="0" NCoef="0" IVar="6" Cut="2.5467653274536133e+00" cType="1" res="3.9852019399404526e-03" rms="4.5156806707382202e-01" purity="5.0263524055480957e-01" nType="0">
        <Node pos="l" depth="1" NCoef="0" IVar="3" Cut="1.9723838567733765e-01" cType="1" res="-1.0477066040039062e-02" rms="4.4851332902908325e-01" purity="3.5292640328407288e-01" nType="0">
          <Node pos="l" depth="2" NCoef="0" IVar="-1" Cut="0.0000000000000000e+00" cType="1" res="4.7107430873438716e-04" rms="4.5341426134109497e-01" purity="3.9191076159477234e-01" nType="-99"/>
          <Node pos="r" depth="2" NCoef="0" IVar="-1" Cut="0.0000000000000000e+00" cType="1" res="-1.0906538227573037e-03" rms="4.4409862160682678e-01" purity="3.2417169213294983e-01" nType="-99"/>
        </Node>
        <Node pos="r" depth="1" NCoef="0" IVar="3" Cut="4.0322995185852051e-01" cType="1" res="1.5692222863435745e-02" rms="4.5368826389312744e-01" purity="6.2382256984710693e-01" nType="0">
          <Node pos="l" depth="2" NCoef="0" IVar="-1" Cut="0.0000000000000000e+00" cType="1" res="1.2597012100741267e-03" rms="4.5846807956695557e-01" purity="6.2475419044494629e-01" nType="-99"/>
          <Node pos="r" depth="2" NCoef="0" IVar="-1" Cut="0.0000000000000000e+00" cType="1" res="1.0777889110613614e-04" rms="4.5133593678474426e-01" purity="6.2347781658172607e-01" nType="-99"/>
        </Node>
      </Node>
    </BinaryTree>
    <BinaryTree type="DecisionTree" boostWeight="1.0000000000000000e+00" itree="752">
      <Node pos="s" depth="0" NCoef="0" IVar="7" Cut="-1.1430063098669052e-01" cType="1" res="-1.4026698190718889e-03" rms="4.5442903041839600e-01" purity="4.9618560075759888e-01" nType="0">
        <Node pos="l" depth="1" NCoef="0" IVar="-1" Cut="0.0000000000000000e+00" cType="1" res="-2.6771519333124161e-03" rms="4.2564007639884949e-01" purity="3.4191617369651794e-01" nType="-99"/>
        <Node pos="r" depth="1" NCoef="0" IVar="4" Cut="3.4580539703369141e+01" cType="1" res="2.4471573997288942e-03" rms="4.5576956868171692e-01" purity="5.0524240732192993e-01" nType="0">
          <Node pos="l" depth="2" NCoef="0" IVar="-1" Cut="0.0000000000000000e+00" cType="1" res="-8.3892850670963526e-04" rms="4.4338768720626831e-01" purity="4.3294358253479004e-01" nType="-99"/>
          <Node pos="r" depth="2" NCoef="0" IVar="-1" Cut="0.0000000000000000e+00" cType="1" res="2.4835532531142235e-04" rms="4.5816105604171753e-01" purity="5.2061009407043457e-01" nType="-99"/>
        </Node>
      </Node>
    </BinaryTree>
    <BinaryTree type="DecisionTree" boostWeight="1.0000000000000000e+00" itree="753">
      <Node pos="s" depth="0" NCoef="0" IVar="6" Cut="3.3512094020843506e+00" cType="1" res="-6.8047264358028769e-04" rms="4.5270460844039917e-01" purity="4.9924010038375854e-01" nType="0">
        <Node pos="l" depth="1" NCoef="0" IVar="3" Cut="1.8700493872165680e-01" cType="1" res="-1.1058003641664982e-02" rms="4.5791471004486084e-01" purity="3.9583274722099304e-01" nType="0">
          <Node pos="l" depth="2" NCoef="0" IVar="-1" Cut="0.0000000000000000e+00" cType="1" res="5.9937650803476572e-04" rms="4.5698738098144531e-01" purity="4.1890427470207214e-01" nType="-99"/>
          <Node pos="r" depth="2" NCoef="0" IVar="-1" Cut="0.0000000000000000e+00" cType="1" res="-8.0179102951660752e-04" rms="4.5780164003372192e-01" purity="3.8596105575561523e-01" nType="-99"/>
        </Node>
        <Node pos="r" depth="1" NCoef="0" IVar="9" Cut="7.6319320678710938e+01" cType="1" res="1.7638409510254860e-02" rms="4.4276484847068787e-01" purity="6.8177932500839233e-01" nType="0">
          <Node pos="l" depth="2" NCoef="0" IVar="-1" Cut="0.0000000000000000e+00" cType="1" res="-3.2479013316333294e-04" rms="4.5191779732704163e-01" purity="6.4664751291275024e-01" nType="-99"/>
          <Node pos="r" depth="2" NCoef="0" IVar="-1" Cut="0.0000000000000000e+00" cType="1" res="7.9257431207224727e-04" rms="4.3845412135124207e-01" purity="6.9594991207122803e-01" nType="-99"/>
        </Node>
      </Node>
    </BinaryTree>
    <BinaryTree type="DecisionTree" boostWeight="1.0000000000000000e+00" itree="754">
      <Node pos="s" depth="0" NCoef="0" IVar="0" Cut="1.8089243173599243e+00" cType="1" res="4.3864650651812553e-03" rms="4.5458292961120605e-01" purity="5.0018912553787231e-01" nType="0">
        <Node pos="l" depth="1" NCoef="0" IVar="2" Cut="1.2664139270782471e+00" cType="1" res="7.4720648117363453e-03" rms="4.5555981993675232e-01" purity="5.0831937789916992e-01" nType="0">
          <Node pos="l" depth="2" NCoef="0" IVar="-1" Cut="0.0000000000000000e+00" cType="1" res="3.1305084121413529e-04" rms="4.5572692155838013e-01" purity="5.1504141092300415e-01" nType="-99"/>
          <Node pos="r" depth="2" NCoef="0" IVar="-1" Cut="0.0000000000000000e+00" cType="1" res="-1.3269798364490271e-03" rms="4.5048674941062927e-01" purity="3.9517244696617126e-01" nType="-99"/>
        </Node>
        <Node pos="r" depth="1" NCoef="0" IVar="-1" Cut="0.0000000000000000e+00" cType="1" res="-1.6271467320621014e-03" rms="4.3658241629600525e-01" purity="3.7536120414733887e-01" nType="-99"/>
      </Node>
    </BinaryTree>
    <BinaryTree type="DecisionTree" boostWeight="1.0000000000000000e+00" itree="755">
      <Node pos="s" depth="0" NCoef="0" IVar="7" Cut="1.3749977946281433e-01" cType="1" res="-6.6235838457942009e-03" rms="4.5355355739593506e-01" purity="4.9105787277221680e-01" nType="0">
        <Node pos="l" depth="1" NCoef="0" IVar="4" Cut="1.3397550964355469e+02" cType="1" res="-1.3044024817645550e-02" rms="4.5266458392143250e-01" purity="4.6934685111045837e-01" nType="0">
          <Node pos="l" depth="2" NCoef="0" IVar="-1" Cut="0.0000000000000000e+00" cType="1" res="-6.1094242846593261e-04" rms="4.5241853594779968e-01" purity="4.4910454750061035e-01" nType="-99"/>
          <Node pos="r" depth="2" NCoef="0" IVar="-1" Cut="0.0000000000000000e+00" cType="1" res="5.5711262393742800e-04" rms="4.5289254188537598e-01" purity="5.9987264871597290e-01" nType="-99"/>
        </Node>
        <Node pos="r" depth="1" NCoef="0" IVar="9" Cut="6.8195716857910156e+01" cType="1" res="1.8322799354791641e-02" rms="4.5613434910774231e-01" purity="5.7541507482528687e-01" nType="0">
          <Node pos="l" depth="2" NCoef="0" IVar="-1" Cut="0.0000000000000000e+00" cType="1" res="-3.5692245000973344e-04" rms="4.6630445122718811e-01" purity="5.1392096281051636e-01" nType="-99"/>
          <Node pos="r" depth="2" NCoef="0" IVar="-1" Cut="0.0000000000000000e+00" cType="1" res="8.7134086061269045e-04" rms="4.5137196779251099e-01" purity="6.0039395093917847e-01" nType="-99"/>
        </Node>
      </Node>
    </BinaryTree>
    <BinaryTree type="DecisionTree" boostWeight="1.0000000000000000e+00" itree="756">
      <Node pos="s" depth="0" NCoef="0" IVar="5" Cut="1.4298635721206665e+00" cType="1" res="7.2779785841703415e-03" rms="4.5517852902412415e-01" purity="5.0454801321029663e-01" nType="0">
        <Node pos="l" depth="1" NCoef="0" IVar="-1" Cut="0.0000000000000000e+00" cType="1" res="1.4630197547376156e-03" rms="4.3702784180641174e-01" purity="6.4439058303833008e-01" nType="-99"/>
        <Node pos="r" depth="1" NCoef="0" IVar="0" Cut="1.6467757225036621e+00" cType="1" res="4.2159999720752239e-03" rms="4.5619696378707886e-01" purity="4.9523597955703735e-01" nType="0">
          <Node pos="l" depth="2" NCoef="0" IVar="-1" Cut="0.0000000000000000e+00" cType="1" res="2.4211371783167124e-04" rms="4.5823171734809875e-01" purity="5.0733196735382080e-01" nType="-99"/>
          <Node pos="r" depth="2" NCoef="0" IVar="-1" Cut="0.0000000000000000e+00" cType="1" res="-9.4189099036157131e-04" rms="4.3761065602302551e-01" purity="3.9362025260925293e-01" nType="-99"/>
        </Node>
      </Node>
    </BinaryTree>
    <BinaryTree type="DecisionTree" boostWeight="1.0000000000000000e+00" itree="757">
      <Node pos="s" depth="0" NCoef="0" IVar="6" Cut="5.1058516502380371e+00" cType="1" res="5.3601134568452835e-03" rms="4.5298501849174500e-01" purity="5.0646221637725830e-01" nType="0">
        <Node pos="l" depth="1" NCoef="0" IVar="3" Cut="5.3871834278106689e-01" cType="1" res="1.9001669716089964e-03" rms="4.5885315537452698e-01" purity="4.7842186689376831e-01" nType="0">
          <Node pos="l" depth="2" NCoef="0" IVar="-1" Cut="0.0000000000000000e+00" cType="1" res="4.2464339639991522e-04" rms="4.5640662312507629e-01" purity="4.5033222436904907e-01" nType="-99"/>
          <Node pos="r" depth="2" NCoef="0" IVar="-1" Cut="0.0000000000000000e+00" cType="1" res="-8.0848508514463902e-04" rms="4.6426370739936829e-01" purity="5.5686521530151367e-01" nType="-99"/>
        </Node>
        <Node pos="r" depth="1" NCoef="0" IVar="-1" Cut="0.0000000000000000e+00" cType="1" res="1.2212730944156647e-03" rms="3.8195794820785522e-01" purity="8.0924630165100098e-01" nType="-99"/>
      </Node>
    </BinaryTree>
    <BinaryTree type="DecisionTree" boostWeight="1.0000000000000000e+00" itree="758">
      <Node pos="s" depth="0" NCoef="0" IVar="3" Cut="7.1290993690490723e-01" cType="1" res="5.5028643691912293e-04" rms="4.5450732111930847e-01" purity="4.9959474802017212e-01" nType="0">
        <Node pos="l" depth="1" NCoef="0" IVar="5" Cut="2.1996481418609619e+00" cType="1" res="6.3940538093447685e-03" rms="4.5666944980621338e-01" purity="4.6943327784538269e-01" nType="0">
          <Node pos="l" depth="2" NCoef="0" IVar="-1" Cut="0.0000000000000000e+00" cType="1" res="5.7248608209192753e-04" rms="4.6181857585906982e-01" purity="5.4298299551010132e-01" nType="-99"/>
          <Node pos="r" depth="2" NCoef="0" IVar="-1" Cut="0.0000000000000000e+00" cType="1" res="-2.3992224305402488e-04" rms="4.5118916034698486e-01" purity="3.9733770489692688e-01" nType="-99"/>
        </Node>
        <Node pos="r" depth="1" NCoef="0" IVar="6" Cut="4.5801439285278320e+00" cType="1" res="-2.9541218653321266e-02" rms="4.4198516011238098e-01" purity="6.5490591526031494e-01" nType="0">
          <Node pos="l" depth="2" NCoef="0" IVar="-1" Cut="0.0000000000000000e+00" cType="1" res="-2.3560991976410151e-03" rms="4.7611016035079956e-01" purity="5.0235408544540405e-01" nType="-99"/>
          <Node pos="r" depth="2" NCoef="0" IVar="-1" Cut="0.0000000000000000e+00" cType="1" res="1.0195823415415362e-04" rms="4.1586881875991821e-01" purity="7.5015544891357422e-01" nType="-99"/>
        </Node>
      </Node>
    </BinaryTree>
    <BinaryTree type="DecisionTree" boostWeight="1.0000000000000000e+00" itree="759">
      <Node pos="s" depth="0" NCoef="0" IVar="6" Cut="4.4056510925292969e+00" cType="1" res="-9.3696173280477524e-04" rms="4.5420491695404053e-01" purity="4.9723294377326965e-01" nType="0">
        <Node pos="l" depth="1" NCoef="0" IVar="3" Cut="4.6112382411956787e-01" cType="1" res="-6.1727701686322689e-03" rms="4.6158307790756226e-01" purity="4.4551634788513184e-01" nType="0">
          <Node pos="l" depth="2" NCoef="0" IVar="-1" Cut="0.0000000000000000e+00" cType="1" res="1.7082467093132436e-04" rms="4.5743775367736816e-01" purity="4.2967334389686584e-01" nType="-99"/>
          <Node pos="r" depth="2" NCoef="0" IVar="-1" Cut="0.0000000000000000e+00" cType="1" res="-1.0072513250634074e-03" rms="4.7058096528053284e-01" purity="4.8486250638961792e-01" nType="-99"/>
        </Node>
        <Node pos="r" depth="1" NCoef="0" IVar="6" Cut="5.0649747848510742e+00" cType="1" res="2.5217385962605476e-02" rms="4.1440162062644958e-01" purity="7.5557208061218262e-01" nType="0">
          <Node pos="l" depth="2" NCoef="0" IVar="-1" Cut="0.0000000000000000e+00" cType="1" res="2.9810241539962590e-04" rms="4.4100642204284668e-01" purity="7.0752632617950439e-01" nType="-99"/>
          <Node pos="r" depth="2" NCoef="0" IVar="-1" Cut="0.0000000000000000e+00" cType="1" res="1.0981357190757990e-03" rms="3.8717111945152283e-01" purity="8.0089092254638672e-01" nType="-99"/>
        </Node>
      </Node>
    </BinaryTree>
    <BinaryTree type="DecisionTree" boostWeight="1.0000000000000000e+00" itree="760">
      <Node pos="s" depth="0" NCoef="0" IVar="9" Cut="9.1206092834472656e+01" cType="1" res="1.9870884716510773e-03" rms="4.5363563299179077e-01" purity="5.0100499391555786e-01" nType="0">
        <Node pos="l" depth="1" NCoef="0" IVar="7" Cut="-8.3184555172920227e-02" cType="1" res="-1.3715622946619987e-02" rms="4.5513451099395752e-01" purity="4.6378597617149353e-01" nType="0">
          <Node pos="l" depth="2" NCoef="0" IVar="-1" Cut="0.0000000000000000e+00" cType="1" res="-2.2474427241832018e-03" rms="4.3213000893592834e-01" purity="3.5335803031921387e-01" nType="-99"/>
          <Node pos="r" depth="2" NCoef="0" IVar="-1" Cut="0.0000000000000000e+00" cType="1" res="-1.7589272465556860e-04" rms="4.5881772041320801e-01" purity="4.8429805040359497e-01" nType="-99"/>
        </Node>
        <Node pos="r" depth="1" NCoef="0" IVar="2" Cut="1.0528236627578735e+00" cType="1" res="1.3756930828094482e-02" rms="4.5215147733688354e-01" purity="5.2890217304229736e-01" nType="0">
          <Node pos="l" depth="2" NCoef="0" IVar="-1" Cut="0.0000000000000000e+00" cType="1" res="6.0925824800506234e-04" rms="4.5148187875747681e-01" purity="5.5463558435440063e-01" nType="-99"/>
          <Node pos="r" depth="2" NCoef="0" IVar="-1" Cut="0.0000000000000000e+00" cType="1" res="-4.2048451723530889e-04" rms="4.5395049452781677e-01" purity="4.2395913600921631e-01" nType="-99"/>
        </Node>
      </Node>
    </BinaryTree>
    <BinaryTree type="DecisionTree" boostWeight="1.0000000000000000e+00" itree="761">
      <Node pos="s" depth="0" NCoef="0" IVar="2" Cut="4.3635272979736328e-01" cType="1" res="1.9698886899277568e-04" rms="4.5218157768249512e-01" purity="5.0077277421951294e-01" nType="0">
        <Node pos="l" depth="1" NCoef="0" IVar="2" Cut="3.5745605826377869e-01" cType="1" res="3.6052145063877106e-02" rms="4.4876754283905029e-01" purity="6.0506272315979004e-01" nType="0">
          <Node pos="l" depth="2" NCoef="0" IVar="-1" Cut="0.0000000000000000e+00" cType="1" res="9.5159013289958239e-04" rms="4.4784575700759888e-01" purity="6.0277044773101807e-01" nType="-99"/>
          <Node pos="r" depth="2" NCoef="0" IVar="-1" Cut="0.0000000000000000e+00" cType="1" res="1.0860805632546544e-03" rms="4.4965764880180359e-01" purity="6.0731863975524902e-01" nType="-99"/>
        </Node>
        <Node pos="r" depth="1" NCoef="0" IVar="6" Cut="2.5857665538787842e+00" cType="1" res="-4.4806599617004395e-03" rms="4.5241558551788330e-01" purity="4.8716714978218079e-01" nType="0">
          <Node pos="l" depth="2" NCoef="0" IVar="-1" Cut="0.0000000000000000e+00" cType="1" res="-7.1510247653350234e-04" rms="4.4711968302726746e-01" purity="3.3839973807334900e-01" nType="-99"/>
          <Node pos="r" depth="2" NCoef="0" IVar="-1" Cut="0.0000000000000000e+00" cType="1" res="1.8608021491672844e-04" rms="4.5647108554840088e-01" purity="6.1091929674148560e-01" nType="-99"/>
        </Node>
      </Node>
    </BinaryTree>
    <BinaryTree type="DecisionTree" boostWeight="1.0000000000000000e+00" itree="762">
      <Node pos="s" depth="0" NCoef="0" IVar="9" Cut="1.5782455444335938e+02" cType="1" res="-1.3985910918563604e-03" rms="4.5417356491088867e-01" purity="4.9863669276237488e-01" nType="0">
        <Node pos="l" depth="1" NCoef="0" IVar="7" Cut="7.9504221677780151e-02" cType="1" res="-7.0478580892086029e-03" rms="4.5360180735588074e-01" purity="4.9069029092788696e-01" nType="0">
          <Node pos="l" depth="2" NCoef="0" IVar="-1" Cut="0.0000000000000000e+00" cType="1" res="-5.3868250688537955e-04" rms="4.5183658599853516e-01" purity="4.5997080206871033e-01" nType="-99"/>
          <Node pos="r" depth="2" NCoef="0" IVar="-1" Cut="0.0000000000000000e+00" cType="1" res="3.4499910543672740e-04" rms="4.5662799477577209e-01" purity="5.5359536409378052e-01" nType="-99"/>
        </Node>
        <Node pos="r" depth="1" NCoef="0" IVar="2" Cut="8.7990480661392212e-01" cType="1" res="3.4793406724929810e-02" rms="4.5616278052330017e-01" purity="5.4954516887664795e-01" nType="0">
          <Node pos="l" depth="2" NCoef="0" IVar="-1" Cut="0.0000000000000000e+00" cType="1" res="1.6967790434136987e-03" rms="4.5564940571784973e-01" purity="6.1601340770721436e-01" nType="-99"/>
          <Node pos="r" depth="2" NCoef="0" IVar="-1" Cut="0.0000000000000000e+00" cType="1" res="-3.6896031815558672e-05" rms="4.5452445745468140e-01" purity="4.5274153351783752e-01" nType="-99"/>
        </Node>
      </Node>
    </BinaryTree>
    <BinaryTree type="DecisionTree" boostWeight="1.0000000000000000e+00" itree="763">
      <Node pos="s" depth="0" NCoef="0" IVar="1" Cut="7.5829528808593750e+02" cType="1" res="3.4864654298871756e-03" rms="4.5224985480308533e-01" purity="5.0332331657409668e-01" nType="0">
        <Node pos="l" depth="1" NCoef="0" IVar="6" Cut="4.4918203353881836e+00" cType="1" res="-1.6036027809605002e-03" rms="4.5214846730232239e-01" purity="4.7719120979309082e-01" nType="0">
          <Node pos="l" depth="2" NCoef="0" IVar="-1" Cut="0.0000000000000000e+00" cType="1" res="-2.1339327213354409e-04" rms="4.5853504538536072e-01" purity="4.3031892180442810e-01" nType="-99"/>
          <Node pos="r" depth="2" NCoef="0" IVar="-1" Cut="0.0000000000000000e+00" cType="1" res="7.3029811028391123e-04" rms="4.1113606095314026e-01" purity="7.5498598814010620e-01" nType="-99"/>
        </Node>
        <Node pos="r" depth="1" NCoef="0" IVar="3" Cut="3.6451885104179382e-01" cType="1" res="3.1223459169268608e-02" rms="4.5179533958435059e-01" purity="6.4572304487228394e-01" nType="0">
          <Node pos="l" depth="2" NCoef="0" IVar="-1" Cut="0.0000000000000000e+00" cType="1" res="1.4868165599182248e-03" rms="4.6730291843414307e-01" purity="5.9098696708679199e-01" nType="-99"/>
          <Node pos="r" depth="2" NCoef="0" IVar="-1" Cut="0.0000000000000000e+00" cType="1" res="3.3696930040605366e-04" rms="4.3724295496940613e-01" purity="6.9236958026885986e-01" nType="-99"/>
        </Node>
      </Node>
    </BinaryTree>
    <BinaryTree type="DecisionTree" boostWeight="1.0000000000000000e+00" itree="764">
      <Node pos="s" depth="0" NCoef="0" IVar="7" Cut="-1.1159882694482803e-01" cType="1" res="1.0272136423736811e-03" rms="4.5448261499404907e-01" purity="4.9940717220306396e-01" nType="0">
        <Node pos="l" depth="1" NCoef="0" IVar="-1" Cut="0.0000000000000000e+00" cType="1" res="-1.8833987414836884e-03" rms="4.3279176950454712e-01" purity="3.5574266314506531e-01" nType="-99"/>
        <Node pos="r" depth="1" NCoef="0" IVar="2" Cut="5.6699275970458984e-01" cType="1" res="4.4135488569736481e-03" rms="4.5575281977653503e-01" purity="5.0935912132263184e-01" nType="0">
          <Node pos="l" depth="2" NCoef="0" IVar="-1" Cut="0.0000000000000000e+00" cType="1" res="6.7557662259787321e-04" rms="4.5429068803787231e-01" purity="5.9078747034072876e-01" nType="-99"/>
          <Node pos="r" depth="2" NCoef="0" IVar="-1" Cut="0.0000000000000000e+00" cType="1" res="-5.8545392676023766e-05" rms="4.5605808496475220e-01" purity="4.8271161317825317e-01" nType="-99"/>
        </Node>
      </Node>
    </BinaryTree>
    <BinaryTree type="DecisionTree" boostWeight="1.0000000000000000e+00" itree="765">
      <Node pos="s" depth="0" NCoef="0" IVar="7" Cut="-1.0643766820430756e-01" cType="1" res="2.3513399064540863e-03" rms="4.5364111661911011e-01" purity="5.0160360336303711e-01" nType="0">
        <Node pos="l" depth="1" NCoef="0" IVar="-1" Cut="0.0000000000000000e+00" cType="1" res="-1.7151985084638000e-03" rms="4.3603643774986267e-01" purity="3.6696615815162659e-01" nType="-99"/>
        <Node pos="r" depth="1" NCoef="0" IVar="2" Cut="9.9539703130722046e-01" cType="1" res="6.4074727706611156e-03" rms="4.5493358373641968e-01" purity="5.1344716548919678e-01" nType="0">
          <Node pos="l" depth="2" NCoef="0" IVar="-1" Cut="0.0000000000000000e+00" cType="1" res="3.8955616764724255e-04" rms="4.5384556055068970e-01" purity="5.3827637434005737e-01" nType="-99"/>
          <Node pos="r" depth="2" NCoef="0" IVar="-1" Cut="0.0000000000000000e+00" cType="1" res="-4.7702973824925721e-04" rms="4.5774179697036743e-01" purity="4.3535774946212769e-01" nType="-99"/>
        </Node>
      </Node>
    </BinaryTree>
    <BinaryTree type="DecisionTree" boostWeight="1.0000000000000000e+00" itree="766">
      <Node pos="s" depth="0" NCoef="0" IVar="8" Cut="1.3785633850097656e+02" cType="1" res="-3.8480155635625124e-03" rms="4.5522347092628479e-01" purity="4.9396124482154846e-01" nType="0">
        <Node pos="l" depth="1" NCoef="0" IVar="8" Cut="1.0885329437255859e+02" cType="1" res="2.3601786233484745e-03" rms="4.5434629917144775e-01" purity="4.9879574775695801e-01" nType="0">
          <Node pos="l" depth="2" NCoef="0" IVar="-1" Cut="0.0000000000000000e+00" cType="1" res="-5.4155261022970080e-04" rms="4.5874321460723877e-01" purity="4.4919094443321228e-01" nType="-99"/>
          <Node pos="r" depth="2" NCoef="0" IVar="-1" Cut="0.0000000000000000e+00" cType="1" res="3.6797841312363744e-04" rms="4.5178839564323425e-01" purity="5.2414357662200928e-01" nType="-99"/>
        </Node>
        <Node pos="r" depth="1" NCoef="0" IVar="9" Cut="7.4983741760253906e+01" cType="1" res="-2.1376317366957664e-02" rms="4.5723628997802734e-01" purity="4.8031148314476013e-01" nType="0">
          <Node pos="l" depth="2" NCoef="0" IVar="-1" Cut="0.0000000000000000e+00" cType="1" res="-1.8023764714598656e-03" rms="4.5317360758781433e-01" purity="4.3574678897857666e-01" nType="-99"/>
          <Node pos="r" depth="2" NCoef="0" IVar="-1" Cut="0.0000000000000000e+00" cType="1" res="-3.4745156881399453e-04" rms="4.5813459157943726e-01" purity="4.9563729763031006e-01" nType="-99"/>
        </Node>
      </Node>
    </BinaryTree>
    <BinaryTree type="DecisionTree" boostWeight="1.0000000000000000e+00" itree="767">
      <Node pos="s" depth="0" NCoef="0" IVar="9" Cut="4.2995391845703125e+01" cType="1" res="-1.8060476286336780e-03" rms="4.5298603177070618e-01" purity="4.9630782008171082e-01" nType="0">
        <Node pos="l" depth="1" NCoef="0" IVar="-1" Cut="0.0000000000000000e+00" cType="1" res="-1.6940818168222904e-03" rms="4.5387580990791321e-01" purity="4.2069590091705322e-01" nType="-99"/>
        <Node pos="r" depth="1" NCoef="0" IVar="7" Cut="1.9673959910869598e-01" cType="1" res="1.3637536903843284e-03" rms="4.5274826884269714e-01" purity="5.0130742788314819e-01" nType="0">
          <Node pos="l" depth="2" NCoef="0" IVar="-1" Cut="0.0000000000000000e+00" cType="1" res="-9.6680087153799832e-05" rms="4.5244750380516052e-01" purity="4.8774290084838867e-01" nType="-99"/>
          <Node pos="r" depth="2" NCoef="0" IVar="-1" Cut="0.0000000000000000e+00" cType="1" res="1.0413841810077429e-03" rms="4.5362669229507446e-01" purity="6.1211907863616943e-01" nType="-99"/>
        </Node>
      </Node>
    </BinaryTree>
    <BinaryTree type="DecisionTree" boostWeight="1.0000000000000000e+00" itree="768">
      <Node pos="s" depth="0" NCoef="0" IVar="5" Cut="2.1837570667266846e+00" cType="1" res="-5.8076951972907409e-05" rms="4.5257666707038879e-01" purity="5.0007218122482300e-01" nType="0">
        <Node pos="l" depth="1" NCoef="0" IVar="6" Cut="2.0439150333404541e+00" cType="1" res="1.4148100279271603e-02" rms="4.5516204833984375e-01" purity="5.7162570953369141e-01" nType="0">
          <Node pos="l" depth="2" NCoef="0" IVar="-1" Cut="0.0000000000000000e+00" cType="1" res="-3.8530738675035536e-04" rms="4.6609586477279663e-01" purity="3.7157201766967773e-01" nType="-99"/>
          <Node pos="r" depth="2" NCoef="0" IVar="-1" Cut="0.0000000000000000e+00" cType="1" res="6.5333716338500381e-04" rms="4.5021590590476990e-01" purity="6.5359294414520264e-01" nType="-99"/>
        </Node>
        <Node pos="r" depth="1" NCoef="0" IVar="7" Cut="1.6096577048301697e-01" cType="1" res="-1.3031261973083019e-02" rms="4.4981095194816589e-01" purity="4.3472898006439209e-01" nType="0">
          <Node pos="l" depth="2" NCoef="0" IVar="-1" Cut="0.0000000000000000e+00" cType="1" res="-6.4547668443992734e-04" rms="4.4852492213249207e-01" purity="4.1715067625045776e-01" nType="-99"/>
          <Node pos="r" depth="2" NCoef="0" IVar="-1" Cut="0.0000000000000000e+00" cType="1" res="6.2076328322291374e-04" rms="4.5675462484359741e-01" purity="5.5099087953567505e-01" nType="-99"/>
        </Node>
      </Node>
    </BinaryTree>
    <BinaryTree type="DecisionTree" boostWeight="1.0000000000000000e+00" itree="769">
      <Node pos="s" depth="0" NCoef="0" IVar="8" Cut="1.3741743469238281e+02" cType="1" res="2.1749834995716810e-03" rms="4.5354190468788147e-01" purity="5.0145590305328369e-01" nType="0">
        <Node pos="l" depth="1" NCoef="0" IVar="1" Cut="3.8231021118164062e+02" cType="1" res="9.1601861640810966e-03" rms="4.5264765620231628e-01" purity="5.0560730695724487e-01" nType="0">
          <Node pos="l" depth="2" NCoef="0" IVar="-1" Cut="0.0000000000000000e+00" cType="1" res="-9.4369723228737712e-04" rms="4.2717447876930237e-01" purity="2.9699546098709106e-01" nType="-99"/>
          <Node pos="r" depth="2" NCoef="0" IVar="-1" Cut="0.0000000000000000e+00" cType="1" res="4.1018665069714189e-04" rms="4.5611000061035156e-01" purity="5.3631132841110229e-01" nType="-99"/>
        </Node>
        <Node pos="r" depth="1" NCoef="0" IVar="0" Cut="8.1294208765029907e-01" cType="1" res="-1.7146848142147064e-02" rms="4.5544862747192383e-01" purity="4.8997268080711365e-01" nType="0">
          <Node pos="l" depth="2" NCoef="0" IVar="-1" Cut="0.0000000000000000e+00" cType="1" res="6.1697664204984903e-04" rms="4.5369112491607666e-01" purity="5.7734048366546631e-01" nType="-99"/>
          <Node pos="r" depth="2" NCoef="0" IVar="-1" Cut="0.0000000000000000e+00" cType="1" res="-1.1521361302584410e-03" rms="4.5520067214965820e-01" purity="4.5148018002510071e-01" nType="-99"/>
        </Node>
      </Node>
    </BinaryTree>
    <BinaryTree type="DecisionTree" boostWeight="1.0000000000000000e+00" itree="770">
      <Node pos="s" depth="0" NCoef="0" IVar="2" Cut="4.3543317914009094e-01" cType="1" res="5.5179637856781483e-03" rms="4.5278561115264893e-01" purity="5.0446814298629761e-01" nType="0">
        <Node pos="l" depth="1" NCoef="0" IVar="-1" Cut="0.0000000000000000e+00" cType="1" res="1.1777410982176661e-03" rms="4.4717630743980408e-01" purity="6.0866618156433105e-01" nType="-99"/>
        <Node pos="r" depth="1" NCoef="0" IVar="7" Cut="1.6334404051303864e-01" cType="1" res="9.0163783170282841e-04" rms="4.5328742265701294e-01" purity="4.9119159579277039e-01" nType="0">
          <Node pos="l" depth="2" NCoef="0" IVar="-1" Cut="0.0000000000000000e+00" cType="1" res="-1.4918153465259820e-04" rms="4.5128819346427917e-01" purity="4.7101166844367981e-01" nType="-99"/>
          <Node pos="r" depth="2" NCoef="0" IVar="-1" Cut="0.0000000000000000e+00" cType="1" res="7.6238374458625913e-04" rms="4.6178594231605530e-01" purity="5.8701378107070923e-01" nType="-99"/>
        </Node>
      </Node>
    </BinaryTree>
    <BinaryTree type="DecisionTree" boostWeight="1.0000000000000000e+00" itree="771">
      <Node pos="s" depth="0" NCoef="0" IVar="6" Cut="5.1048355102539062e+00" cType="1" res="1.8781794933602214e-03" rms="4.5545217394828796e-01" purity="4.9881693720817566e-01" nType="0">
        <Node pos="l" depth="1" NCoef="0" IVar="3" Cut="7.1290993690490723e-01" cType="1" res="-1.3583614490926266e-03" rms="4.6072274446487427e-01" purity="4.7207450866699219e-01" nType="0">
          <Node pos="l" depth="2" NCoef="0" IVar="-1" Cut="0.0000000000000000e+00" cType="1" res="1.0325872426619753e-04" rms="4.5947462320327759e-01" purity="4.5801427960395813e-01" nType="-99"/>
          <Node pos="r" depth="2" NCoef="0" IVar="-1" Cut="0.0000000000000000e+00" cType="1" res="-1.0593420593068004e-03" rms="4.6909832954406738e-01" purity="5.8597415685653687e-01" nType="-99"/>
        </Node>
        <Node pos="r" depth="1" NCoef="0" IVar="-1" Cut="0.0000000000000000e+00" cType="1" res="1.1010839371010661e-03" rms="3.8900697231292725e-01" purity="8.0147558450698853e-01" nType="-99"/>
      </Node>
    </BinaryTree>
    <BinaryTree type="DecisionTree" boostWeight="1.0000000000000000e+00" itree="772">
      <Node pos="s" depth="0" NCoef="0" IVar="7" Cut="-1.1055608838796616e-01" cType="1" res="3.8853830192238092e-03" rms="4.5382550358772278e-01" purity="5.0221645832061768e-01" nType="0">
        <Node pos="l" depth="1" NCoef="0" IVar="-1" Cut="0.0000000000000000e+00" cType="1" res="-1.6047930112108588e-03" rms="4.3173244595527649e-01" purity="3.6830353736877441e-01" nType="-99"/>
        <Node pos="r" depth="1" NCoef="0" IVar="3" Cut="5.9677195549011230e-01" cType="1" res="7.0970351807773113e-03" rms="4.5517697930335999e-01" purity="5.1169317960739136e-01" nType="0">
          <Node pos="l" depth="2" NCoef="0" IVar="-1" Cut="0.0000000000000000e+00" cType="1" res="4.4792832341045141e-04" rms="4.5945927500724792e-01" purity="4.6399194002151489e-01" nType="-99"/>
          <Node pos="r" depth="2" NCoef="0" IVar="-1" Cut="0.0000000000000000e+00" cType="1" res="-3.1245755963027477e-04" rms="4.4279441237449646e-01" purity="6.4161300659179688e-01" nType="-99"/>
        </Node>
      </Node>
    </BinaryTree>
    <BinaryTree type="DecisionTree" boostWeight="1.0000000000000000e+00" itree="773">
      <Node pos="s" depth="0" NCoef="0" IVar="9" Cut="1.6471255493164062e+02" cType="1" res="1.0220425901934505e-03" rms="4.5407700538635254e-01" purity="4.9921461939811707e-01" nType="0">
        <Node pos="l" depth="1" NCoef="0" IVar="3" Cut="2.0967641472816467e-01" cType="1" res="-3.3592211548238993e-03" rms="4.5379701256752014e-01" purity="4.9231433868408203e-01" nType="0">
          <Node pos="l" depth="2" NCoef="0" IVar="-1" Cut="0.0000000000000000e+00" cType="1" res="7.1273982757702470e-04" rms="4.5430716872215271e-01" purity="4.2716538906097412e-01" nType="-99"/>
          <Node pos="r" depth="2" NCoef="0" IVar="-1" Cut="0.0000000000000000e+00" cType="1" res="-3.3876291126944125e-04" rms="4.5336985588073730e-01" purity="5.1378619670867920e-01" nType="-99"/>
        </Node>
        <Node pos="r" depth="1" NCoef="0" IVar="5" Cut="2.5493359565734863e+00" cType="1" res="3.4601379185914993e-02" rms="4.5481806993484497e-01" purity="5.5210053920745850e-01" nType="0">
          <Node pos="l" depth="2" NCoef="0" IVar="-1" Cut="0.0000000000000000e+00" cType="1" res="1.3705365126952529e-03" rms="4.4303861260414124e-01" purity="6.7651426792144775e-01" nType="-99"/>
          <Node pos="r" depth="2" NCoef="0" IVar="-1" Cut="0.0000000000000000e+00" cType="1" res="5.3784460760653019e-04" rms="4.6820279955863953e-01" purity="3.9832821488380432e-01" nType="-99"/>
        </Node>
      </Node>
    </BinaryTree>
    <BinaryTree type="DecisionTree" boostWeight="1.0000000000000000e+00" itree="774">
      <Node pos="s" depth="0" NCoef="0" IVar="7" Cut="-6.1153370887041092e-02" cType="1" res="-4.9393728841096163e-04" rms="4.5339697599411011e-01" purity="4.9886056780815125e-01" nType="0">
        <Node pos="l" depth="1" NCoef="0" IVar="6" Cut="2.0266377925872803e+00" cType="1" res="-1.9273268058896065e-02" rms="4.4313400983810425e-01" purity="4.2711624503135681e-01" nType="0">
          <Node pos="l" depth="2" NCoef="0" IVar="-1" Cut="0.0000000000000000e+00" cType="1" res="-2.3744718637317419e-03" rms="4.0809094905853271e-01" purity="2.3638539016246796e-01" nType="-99"/>
          <Node pos="r" depth="2" NCoef="0" IVar="-1" Cut="0.0000000000000000e+00" cType="1" res="-2.4597640731371939e-04" rms="4.5779162645339966e-01" purity="5.1409327983856201e-01" nType="-99"/>
        </Node>
        <Node pos="r" depth="1" NCoef="0" IVar="9" Cut="1.5443197631835938e+02" cType="1" res="6.5224324353039265e-03" rms="4.5697435736656189e-01" purity="5.2566581964492798e-01" nType="0">
          <Node pos="l" depth="2" NCoef="0" IVar="-1" Cut="0.0000000000000000e+00" cType="1" res="6.3118583057075739e-05" rms="4.5670866966247559e-01" purity="5.1789450645446777e-01" nType="-99"/>
          <Node pos="r" depth="2" NCoef="0" IVar="-1" Cut="0.0000000000000000e+00" cType="1" res="1.1294957948848605e-03" rms="4.5760485529899597e-01" purity="5.7991069555282593e-01" nType="-99"/>
        </Node>
      </Node>
    </BinaryTree>
    <BinaryTree type="DecisionTree" boostWeight="1.0000000000000000e+00" itree="775">
      <Node pos="s" depth="0" NCoef="0" IVar="9" Cut="1.5422140502929688e+02" cType="1" res="6.8849455565214157e-03" rms="4.5502126216888428e-01" purity="5.0542753934860229e-01" nType="0">
        <Node pos="l" depth="1" NCoef="0" IVar="8" Cut="1.3377067565917969e+02" cType="1" res="2.1811262704432011e-03" rms="4.5430448651313782e-01" purity="4.9829998612403870e-01" nType="0">
          <Node pos="l" depth="2" NCoef="0" IVar="-1" Cut="0.0000000000000000e+00" cType="1" res="2.8781057335436344e-04" rms="4.5328336954116821e-01" purity="5.0459271669387817e-01" nType="-99"/>
          <Node pos="r" depth="2" NCoef="0" IVar="-1" Cut="0.0000000000000000e+00" cType="1" res="-6.6674238769337535e-04" rms="4.5686507225036621e-01" purity="4.7793385386466980e-01" nType="-99"/>
        </Node>
        <Node pos="r" depth="1" NCoef="0" IVar="8" Cut="1.6478703308105469e+02" cType="1" res="3.5536661744117737e-02" rms="4.5832177996635437e-01" purity="5.4884248971939087e-01" nType="0">
          <Node pos="l" depth="2" NCoef="0" IVar="-1" Cut="0.0000000000000000e+00" cType="1" res="1.4909249730408192e-03" rms="4.6099528670310974e-01" purity="5.5390286445617676e-01" nType="-99"/>
          <Node pos="r" depth="2" NCoef="0" IVar="-1" Cut="0.0000000000000000e+00" cType="1" res="6.2479218468070030e-04" rms="4.5501685142517090e-01" purity="5.4358553886413574e-01" nType="-99"/>
        </Node>
      </Node>
    </BinaryTree>
    <BinaryTree type="DecisionTree" boostWeight="1.0000000000000000e+00" itree="776">
      <Node pos="s" depth="0" NCoef="0" IVar="2" Cut="8.1504929065704346e-01" cType="1" res="-1.6197860531974584e-04" rms="4.5428919792175293e-01" purity="5.0005346536636353e-01" nType="0">
        <Node pos="l" depth="1" NCoef="0" IVar="9" Cut="1.6003726196289062e+02" cType="1" res="1.0246701538562775e-02" rms="4.5408919453620911e-01" purity="5.5097746849060059e-01" nType="0">
          <Node pos="l" depth="2" NCoef="0" IVar="-1" Cut="0.0000000000000000e+00" cType="1" res="1.7895583005156368e-04" rms="4.5455616712570190e-01" purity="5.4138588905334473e-01" nType="-99"/>
          <Node pos="r" depth="2" NCoef="0" IVar="-1" Cut="0.0000000000000000e+00" cType="1" res="1.2587088858708739e-03" rms="4.4914609193801880e-01" purity="6.2396073341369629e-01" nType="-99"/>
        </Node>
        <Node pos="r" depth="1" NCoef="0" IVar="4" Cut="4.1718444824218750e+01" cType="1" res="-1.3385443016886711e-02" rms="4.5419928431510925e-01" purity="4.3535831570625305e-01" nType="0">
          <Node pos="l" depth="2" NCoef="0" IVar="-1" Cut="0.0000000000000000e+00" cType="1" res="-1.4104427536949515e-03" rms="4.4222119450569153e-01" purity="3.6174023151397705e-01" nType="-99"/>
          <Node pos="r" depth="2" NCoef="0" IVar="-1" Cut="0.0000000000000000e+00" cType="1" res="-1.9566662376746535e-04" rms="4.5776611566543579e-01" purity="4.5922473073005676e-01" nType="-99"/>
        </Node>
      </Node>
    </BinaryTree>
    <BinaryTree type="DecisionTree" boostWeight="1.0000000000000000e+00" itree="777">
      <Node pos="s" depth="0" NCoef="0" IVar="3" Cut="5.5807346105575562e-01" cType="1" res="3.9580990560352802e-03" rms="4.5609363913536072e-01" purity="5.0318771600723267e-01" nType="0">
        <Node pos="l" depth="1" NCoef="0" IVar="6" Cut="1.0596389770507812e+00" cType="1" res="1.1782679706811905e-02" rms="4.5750710368156433e-01" purity="4.5218965411186218e-01" nType="0">
          <Node pos="l" depth="2" NCoef="0" IVar="-1" Cut="0.0000000000000000e+00" cType="1" res="-1.6754915704950690e-03" rms="4.1943323612213135e-01" purity="2.5767013430595398e-01" nType="-99"/>
          <Node pos="r" depth="2" NCoef="0" IVar="-1" Cut="0.0000000000000000e+00" cType="1" res="5.6495924945920706e-04" rms="4.6206152439117432e-01" purity="4.7835615277290344e-01" nType="-99"/>
        </Node>
        <Node pos="r" depth="1" NCoef="0" IVar="6" Cut="4.2503509521484375e+00" cType="1" res="-1.3986299745738506e-02" rms="4.5232453942298889e-01" purity="6.2014353275299072e-01" nType="0">
          <Node pos="l" depth="2" NCoef="0" IVar="-1" Cut="0.0000000000000000e+00" cType="1" res="-1.0350692318752408e-03" rms="4.7829696536064148e-01" purity="4.9484908580780029e-01" nType="-99"/>
          <Node pos="r" depth="2" NCoef="0" IVar="-1" Cut="0.0000000000000000e+00" cType="1" res="1.5749745944049209e-04" rms="4.2780217528343201e-01" purity="7.2771292924880981e-01" nType="-99"/>
        </Node>
      </Node>
    </BinaryTree>
    <BinaryTree type="DecisionTree" boostWeight="1.0000000000000000e+00" itree="778">
      <Node pos="s" depth="0" NCoef="0" IVar="2" Cut="4.0885138511657715e-01" cType="1" res="7.5215409742668271e-04" rms="4.5356106758117676e-01" purity="4.9970147013664246e-01" nType="0">
        <Node pos="l" depth="1" NCoef="0" IVar="-1" Cut="0.0000000000000000e+00" cType="1" res="9.9589652381837368e-04" rms="4.4892328977584839e-01" purity="6.0742503404617310e-01" nType="-99"/>
        <Node pos="r" depth="1" NCoef="0" IVar="7" Cut="1.1953720822930336e-02" cType="1" res="-2.7555353008210659e-03" rms="4.5388484001159668e-01" purity="4.8871749639511108e-01" nType="0">
          <Node pos="l" depth="2" NCoef="0" IVar="-1" Cut="0.0000000000000000e+00" cType="1" res="-5.4927088785916567e-04" rms="4.5100784301757812e-01" purity="4.3537351489067078e-01" nType="-99"/>
          <Node pos="r" depth="2" NCoef="0" IVar="-1" Cut="0.0000000000000000e+00" cType="1" res="3.0810106545686722e-04" rms="4.5635795593261719e-01" purity="5.4181367158889771e-01" nType="-99"/>
        </Node>
      </Node>
    </BinaryTree>
    <BinaryTree type="DecisionTree" boostWeight="1.0000000000000000e+00" itree="779">
      <Node pos="s" depth="0" NCoef="0" IVar="1" Cut="8.9416339111328125e+02" cType="1" res="-2.7514197863638401e-03" rms="4.5440763235092163e-01" purity="4.9736246466636658e-01" nType="0">
        <Node pos="l" depth="1" NCoef="0" IVar="8" Cut="1.2842276000976562e+02" cType="1" res="-6.0184677131474018e-03" rms="4.5458111166954041e-01" purity="4.8433604836463928e-01" nType="0">
          <Node pos="l" depth="2" NCoef="0" IVar="-1" Cut="0.0000000000000000e+00" cType="1" res="6.9315887230914086e-05" rms="4.5209708809852600e-01" purity="4.9121311306953430e-01" nType="-99"/>
          <Node pos="r" depth="2" NCoef="0" IVar="-1" Cut="0.0000000000000000e+00" cType="1" res="-6.2794593395665288e-04" rms="4.5822086930274963e-01" purity="4.7334197163581848e-01" nType="-99"/>
        </Node>
        <Node pos="r" depth="1" NCoef="0" IVar="-1" Cut="0.0000000000000000e+00" cType="1" res="1.0190674802288413e-03" rms="4.5038264989852905e-01" purity="6.5625947713851929e-01" nType="-99"/>
      </Node>
    </BinaryTree>
    <BinaryTree type="DecisionTree" boostWeight="1.0000000000000000e+00" itree="780">
      <Node pos="s" depth="0" NCoef="0" IVar="9" Cut="8.8515548706054688e+01" cType="1" res="-4.1543920524418354e-03" rms="4.5410063862800598e-01" purity="4.9344560503959656e-01" nType="0">
        <Node pos="l" depth="1" NCoef="0" IVar="0" Cut="1.5997289419174194e+00" cType="1" res="-1.8331903964281082e-02" rms="4.5450690388679504e-01" purity="4.5797777175903320e-01" nType="0">
          <Node pos="l" depth="2" NCoef="0" IVar="-1" Cut="0.0000000000000000e+00" cType="1" res="-3.6216925946064293e-04" rms="4.5835104584693909e-01" purity="4.7445482015609741e-01" nType="-99"/>
          <Node pos="r" depth="2" NCoef="0" IVar="-1" Cut="0.0000000000000000e+00" cType="1" res="-2.2035280708223581e-03" rms="4.3033760786056519e-01" purity="3.6609184741973877e-01" nType="-99"/>
        </Node>
        <Node pos="r" depth="1" NCoef="0" IVar="1" Cut="7.8068255615234375e+02" cType="1" res="5.7026403956115246e-03" rms="4.5355686545372009e-01" purity="5.1810497045516968e-01" nType="0">
          <Node pos="l" depth="2" NCoef="0" IVar="-1" Cut="0.0000000000000000e+00" cType="1" res="-2.7651125492411666e-05" rms="4.5402678847312927e-01" purity="4.8700720071792603e-01" nType="-99"/>
          <Node pos="r" depth="2" NCoef="0" IVar="-1" Cut="0.0000000000000000e+00" cType="1" res="9.5118512399494648e-04" rms="4.5040753483772278e-01" purity="6.5306001901626587e-01" nType="-99"/>
        </Node>
      </Node>
    </BinaryTree>
    <BinaryTree type="DecisionTree" boostWeight="1.0000000000000000e+00" itree="781">
      <Node pos="s" depth="0" NCoef="0" IVar="6" Cut="1.1322466135025024e+00" cType="1" res="1.0044034570455551e-02" rms="4.5600265264511108e-01" purity="5.0839751958847046e-01" nType="0">
        <Node pos="l" depth="1" NCoef="0" IVar="-1" Cut="0.0000000000000000e+00" cType="1" res="-7.9943414311856031e-04" rms="4.2637345194816589e-01" purity="2.7425649762153625e-01" nType="-99"/>
        <Node pos="r" depth="1" NCoef="0" IVar="3" Cut="4.4193994998931885e-01" cType="1" res="1.2930382974445820e-02" rms="4.5904621481895447e-01" purity="5.3409391641616821e-01" nType="0">
          <Node pos="l" depth="2" NCoef="0" IVar="-1" Cut="0.0000000000000000e+00" cType="1" res="7.0510938530787826e-04" rms="4.6464884281158447e-01" purity="4.7690257430076599e-01" nType="-99"/>
          <Node pos="r" depth="2" NCoef="0" IVar="-1" Cut="0.0000000000000000e+00" cType="1" res="6.9445180997718126e-05" rms="4.5236063003540039e-01" purity="5.9914308786392212e-01" nType="-99"/>
        </Node>
      </Node>
    </BinaryTree>
    <BinaryTree type="DecisionTree" boostWeight="1.0000000000000000e+00" itree="782">
      <Node pos="s" depth="0" NCoef="0" IVar="3" Cut="6.1612731218338013e-01" cType="1" res="4.3032257817685604e-03" rms="4.5450165867805481e-01" purity="5.0319743156433105e-01" nType="0">
        <Node pos="l" depth="1" NCoef="0" IVar="6" Cut="3.7668972015380859e+00" cType="1" res="1.0032194666564465e-02" rms="4.5684316754341125e-01" purity="4.5888563990592957e-01" nType="0">
          <Node pos="l" depth="2" NCoef="0" IVar="-1" Cut="0.0000000000000000e+00" cType="1" res="1.6714505909476429e-04" rms="4.6036502718925476e-01" purity="4.2599090933799744e-01" nType="-99"/>
          <Node pos="r" depth="2" NCoef="0" IVar="-1" Cut="0.0000000000000000e+00" cType="1" res="1.3693044893443584e-03" rms="4.2370343208312988e-01" purity="7.3500198125839233e-01" nType="-99"/>
        </Node>
        <Node pos="r" depth="1" NCoef="0" IVar="6" Cut="4.4237003326416016e+00" cType="1" res="-1.3274854049086571e-02" rms="4.4678255915641785e-01" purity="6.3915848731994629e-01" nType="0">
          <Node pos="l" depth="2" NCoef="0" IVar="-1" Cut="0.0000000000000000e+00" cType="1" res="-1.1001367820426822e-03" rms="4.7343879938125610e-01" purity="5.1549851894378662e-01" nType="-99"/>
          <Node pos="r" depth="2" NCoef="0" IVar="-1" Cut="0.0000000000000000e+00" cType="1" res="2.3695627169217914e-04" rms="4.2228159308433533e-01" purity="7.4132692813873291e-01" nType="-99"/>
        </Node>
      </Node>
    </BinaryTree>
    <BinaryTree type="DecisionTree" boostWeight="1.0000000000000000e+00" itree="783">
      <Node pos="s" depth="0" NCoef="0" IVar="5" Cut="1.8223719596862793e+00" cType="1" res="1.4583109878003597e-03" rms="4.5434448122978210e-01" purity="4.9999490380287170e-01" nType="0">
        <Node pos="l" depth="1" NCoef="0" IVar="8" Cut="1.1575991058349609e+02" cType="1" res="2.7554247528314590e-02" rms="4.5307546854019165e-01" purity="5.9856665134429932e-01" nType="0">
          <Node pos="l" depth="2" NCoef="0" IVar="-1" Cut="0.0000000000000000e+00" cType="1" res="6.9695022830273956e-05" rms="4.6664062142372131e-01" purity="5.3108608722686768e-01" nType="-99"/>
          <Node pos="r" depth="2" NCoef="0" IVar="-1" Cut="0.0000000000000000e+00" cType="1" res="1.3202192494645715e-03" rms="4.4008165597915649e-01" purity="6.5591317415237427e-01" nType="-99"/>
        </Node>
        <Node pos="r" depth="1" NCoef="0" IVar="6" Cut="4.5141201019287109e+00" cType="1" res="-4.1749104857444763e-03" rms="4.5442134141921997e-01" purity="4.7871661186218262e-01" nType="0">
          <Node pos="l" depth="2" NCoef="0" IVar="-1" Cut="0.0000000000000000e+00" cType="1" res="-3.2546522561460733e-04" rms="4.6086293458938599e-01" purity="4.3082398176193237e-01" nType="-99"/>
          <Node pos="r" depth="2" NCoef="0" IVar="-1" Cut="0.0000000000000000e+00" cType="1" res="7.5361964991316199e-04" rms="4.1402137279510498e-01" purity="7.5430607795715332e-01" nType="-99"/>
        </Node>
      </Node>
    </BinaryTree>
    <BinaryTree type="DecisionTree" boostWeight="1.0000000000000000e+00" itree="784">
      <Node pos="s" depth="0" NCoef="0" IVar="5" Cut="2.2741332054138184e+00" cType="1" res="2.0863136742264032e-03" rms="4.5140865445137024e-01" purity="5.0283169746398926e-01" nType="0">
        <Node pos="l" depth="1" NCoef="0" IVar="9" Cut="1.0461342620849609e+02" cType="1" res="1.1972708627581596e-02" rms="4.5321342349052429e-01" purity="5.6549412012100220e-01" nType="0">
          <Node pos="l" depth="2" NCoef="0" IVar="-1" Cut="0.0000000000000000e+00" cType="1" res="4.1130442696157843e-05" rms="4.5747756958007812e-01" purity="5.2247303724288940e-01" nType="-99"/>
          <Node pos="r" depth="2" NCoef="0" IVar="-1" Cut="0.0000000000000000e+00" cType="1" res="9.1696699382737279e-04" rms="4.4382181763648987e-01" purity="6.5138214826583862e-01" nType="-99"/>
        </Node>
        <Node pos="r" depth="1" NCoef="0" IVar="3" Cut="1.7096614837646484e-01" cType="1" res="-1.2902751564979553e-02" rms="4.4824287295341492e-01" purity="4.0782719850540161e-01" nType="0">
          <Node pos="l" depth="2" NCoef="0" IVar="-1" Cut="0.0000000000000000e+00" cType="1" res="8.1440107896924019e-04" rms="4.4244948029518127e-01" purity="3.5861518979072571e-01" nType="-99"/>
          <Node pos="r" depth="2" NCoef="0" IVar="-1" Cut="0.0000000000000000e+00" cType="1" res="-6.7937583662569523e-04" rms="4.4913199543952942e-01" purity="4.1789659857749939e-01" nType="-99"/>
        </Node>
      </Node>
    </BinaryTree>
    <BinaryTree type="DecisionTree" boostWeight="1.0000000000000000e+00" itree="785">
      <Node pos="s" depth="0" NCoef="0" IVar="7" Cut="2.3092411458492279e-01" cType="1" res="1.5352552291005850e-03" rms="4.5403838157653809e-01" purity="5.0100880861282349e-01" nType="0">
        <Node pos="l" depth="1" NCoef="0" IVar="8" Cut="9.2612442016601562e+01" cType="1" res="-1.2536698486655951e-03" rms="4.5421978831291199e-01" purity="4.9164438247680664e-01" nType="0">
          <Node pos="l" depth="2" NCoef="0" IVar="-1" Cut="0.0000000000000000e+00" cType="1" res="-1.0810359381139278e-03" rms="4.5418196916580200e-01" purity="4.0286293625831604e-01" nType="-99"/>
          <Node pos="r" depth="2" NCoef="0" IVar="-1" Cut="0.0000000000000000e+00" cType="1" res="5.6748936913209036e-05" rms="4.5411849021911621e-01" purity="5.0118124485015869e-01" nType="-99"/>
        </Node>
        <Node pos="r" depth="1" NCoef="0" IVar="-1" Cut="0.0000000000000000e+00" cType="1" res="1.0974450269713998e-03" rms="4.4982489943504333e-01" purity="6.2892782688140869e-01" nType="-99"/>
      </Node>
    </BinaryTree>
    <BinaryTree type="DecisionTree" boostWeight="1.0000000000000000e+00" itree="786">
      <Node pos="s" depth="0" NCoef="0" IVar="7" Cut="3.7975873798131943e-02" cType="1" res="7.9761515371501446e-04" rms="4.5473814010620117e-01" purity="4.9952340126037598e-01" nType="0">
        <Node pos="l" depth="1" NCoef="0" IVar="1" Cut="3.7347518920898438e+02" cType="1" res="-8.6900843307375908e-03" rms="4.5128402113914490e-01" purity="4.6227607131004333e-01" nType="0">
          <Node pos="l" depth="2" NCoef="0" IVar="-1" Cut="0.0000000000000000e+00" cType="1" res="-3.0609788373112679e-03" rms="3.9192456007003784e-01" purity="2.2344084084033966e-01" nType="-99"/>
          <Node pos="r" depth="2" NCoef="0" IVar="-1" Cut="0.0000000000000000e+00" cType="1" res="-1.3568486610893160e-04" rms="4.5641380548477173e-01" purity="4.8556864261627197e-01" nType="-99"/>
        </Node>
        <Node pos="r" depth="1" NCoef="0" IVar="3" Cut="5.5807346105575562e-01" cType="1" res="1.4599782414734364e-02" rms="4.5936691761016846e-01" purity="5.5370873212814331e-01" nType="0">
          <Node pos="l" depth="2" NCoef="0" IVar="-1" Cut="0.0000000000000000e+00" cType="1" res="7.0378527743741870e-04" rms="4.6450221538543701e-01" purity="5.0275295972824097e-01" nType="-99"/>
          <Node pos="r" depth="2" NCoef="0" IVar="-1" Cut="0.0000000000000000e+00" cType="1" res="-9.2266731371637434e-05" rms="4.4758433103561401e-01" purity="6.6341924667358398e-01" nType="-99"/>
        </Node>
      </Node>
    </BinaryTree>
    <BinaryTree type="DecisionTree" boostWeight="1.0000000000000000e+00" itree="787">
      <Node pos="s" depth="0" NCoef="0" IVar="6" Cut="4.0216484069824219e+00" cType="1" res="3.0451260972768068e-03" rms="4.5272853970527649e-01" purity="5.0356990098953247e-01" nType="0">
        <Node pos="l" depth="1" NCoef="0" IVar="3" Cut="5.9653961658477783e-01" cType="1" res="-3.1632417812943459e-03" rms="4.6082267165184021e-01" purity="4.3440681695938110e-01" nType="0">
          <Node pos="l" depth="2" NCoef="0" IVar="-1" Cut="0.0000000000000000e+00" cType="1" res="8.1667167250998318e-05" rms="4.5862433314323425e-01" purity="4.2941161990165710e-01" nType="-99"/>
          <Node pos="r" depth="2" NCoef="0" IVar="-1" Cut="0.0000000000000000e+00" cType="1" res="-1.3504065573215485e-03" rms="4.7534397244453430e-01" purity="4.7322258353233337e-01" nType="-99"/>
        </Node>
        <Node pos="r" depth="1" NCoef="0" IVar="7" Cut="-5.2997037768363953e-02" cType="1" res="2.3565530776977539e-02" rms="4.2423349618911743e-01" purity="7.3217356204986572e-01" nType="0">
          <Node pos="l" depth="2" NCoef="0" IVar="-1" Cut="0.0000000000000000e+00" cType="1" res="-1.0628388736222405e-05" rms="4.4515392184257507e-01" purity="6.6711676120758057e-01" nType="-99"/>
          <Node pos="r" depth="2" NCoef="0" IVar="-1" Cut="0.0000000000000000e+00" cType="1" res="9.0107979485765100e-04" rms="4.1511604189872742e-01" purity="7.5838714838027954e-01" nType="-99"/>
        </Node>
      </Node>
    </BinaryTree>
    <BinaryTree type="DecisionTree" boostWeight="1.0000000000000000e+00" itree="788">
      <Node pos="s" depth="0" NCoef="0" IVar="6" Cut="2.0700516700744629e+00" cType="1" res="-1.6321751754730940e-03" rms="4.5143228769302368e-01" purity="4.9801009893417358e-01" nType="0">
        <Node pos="l" depth="1" NCoef="0" IVar="1" Cut="7.1107086181640625e+02" cType="1" res="-1.9341042265295982e-02" rms="4.4039666652679443e-01" purity="3.1442591547966003e-01" nType="0">
          <Node pos="l" depth="2" NCoef="0" IVar="-1" Cut="0.0000000000000000e+00" cType="1" res="-1.2069590156897902e-03" rms="4.3116196990013123e-01" purity="2.8162696957588196e-01" nType="-99"/>
          <Node pos="r" depth="2" NCoef="0" IVar="-1" Cut="0.0000000000000000e+00" cType="1" res="4.5895448420196772e-04" rms="4.8200362920761108e-01" purity="4.7655534744262695e-01" nType="-99"/>
        </Node>
        <Node pos="r" depth="1" NCoef="0" IVar="3" Cut="2.2903673350811005e-01" cType="1" res="6.6961343400180340e-03" rms="4.5629245042800903e-01" purity="5.8434796333312988e-01" nType="0">
          <Node pos="l" depth="2" NCoef="0" IVar="-1" Cut="0.0000000000000000e+00" cType="1" res="1.3034541625529528e-03" rms="4.5955291390419006e-01" purity="6.1177325248718262e-01" nType="-99"/>
          <Node pos="r" depth="2" NCoef="0" IVar="-1" Cut="0.0000000000000000e+00" cType="1" res="2.7686355679179542e-05" rms="4.5553794503211975e-01" purity="5.8045172691345215e-01" nType="-99"/>
        </Node>
      </Node>
    </BinaryTree>
    <BinaryTree type="DecisionTree" boostWeight="1.0000000000000000e+00" itree="789">
      <Node pos="s" depth="0" NCoef="0" IVar="5" Cut="2.2839117050170898e+00" cType="1" res="7.3120446177199483e-04" rms="4.5198401808738708e-01" purity="4.9859583377838135e-01" nType="0">
        <Node pos="l" depth="1" NCoef="0" IVar="6" Cut="1.6927319765090942e+00" cType="1" res="1.0860241949558258e-02" rms="4.5463353395462036e-01" purity="5.6252968311309814e-01" nType="0">
          <Node pos="l" depth="2" NCoef="0" IVar="-1" Cut="0.0000000000000000e+00" cType="1" res="-6.4648530678823590e-04" rms="4.5470386743545532e-01" purity="3.4791803359985352e-01" nType="-99"/>
          <Node pos="r" depth="2" NCoef="0" IVar="-1" Cut="0.0000000000000000e+00" cType="1" res="5.0087715499103069e-04" rms="4.5433816313743591e-01" purity="6.1830377578735352e-01" nType="-99"/>
        </Node>
        <Node pos="r" depth="1" NCoef="0" IVar="8" Cut="1.0111430358886719e+02" cType="1" res="-1.4979912899434566e-02" rms="4.4738987088203430e-01" purity="3.9942815899848938e-01" nType="0">
          <Node pos="l" depth="2" NCoef="0" IVar="-1" Cut="0.0000000000000000e+00" cType="1" res="-1.9344438333064318e-03" rms="4.2848083376884460e-01" purity="3.2584553956985474e-01" nType="-99"/>
          <Node pos="r" depth="2" NCoef="0" IVar="-1" Cut="0.0000000000000000e+00" cType="1" res="-3.2895273761823773e-04" rms="4.5047575235366821e-01" purity="4.1271406412124634e-01" nType="-99"/>
        </Node>
      </Node>
    </BinaryTree>
    <BinaryTree type="DecisionTree" boostWeight="1.0000000000000000e+00" itree="790">
      <Node pos="s" depth="0" NCoef="0" IVar="5" Cut="2.8815140724182129e+00" cType="1" res="7.2224447503685951e-03" rms="4.5529520511627197e-01" purity="5.0594258308410645e-01" nType="0">
        <Node pos="l" depth="1" NCoef="0" IVar="9" Cut="1.5803512573242188e+02" cType="1" res="9.7753955051302910e-03" rms="4.5818778872489929e-01" purity="5.2166831493377686e-01" nType="0">
          <Node pos="l" depth="2" NCoef="0" IVar="-1" Cut="0.0000000000000000e+00" cType="1" res="1.9122876983601600e-04" rms="4.5817840099334717e-01" purity="5.1201623678207397e-01" nType="-99"/>
          <Node pos="r" depth="2" NCoef="0" IVar="-1" Cut="0.0000000000000000e+00" cType="1" res="1.1183937313035131e-03" rms="4.5722809433937073e-01" purity="6.0003447532653809e-01" nType="-99"/>
        </Node>
        <Node pos="r" depth="1" NCoef="0" IVar="-1" Cut="0.0000000000000000e+00" cType="1" res="-2.1157478913664818e-03" rms="3.9762005209922791e-01" purity="2.2614686191082001e-01" nType="-99"/>
      </Node>
    </BinaryTree>
    <BinaryTree type="DecisionTree" boostWeight="1.0000000000000000e+00" itree="791">
      <Node pos="s" depth="0" NCoef="0" IVar="1" Cut="8.9781097412109375e+02" cType="1" res="-6.7146186484023929e-04" rms="4.5223501324653625e-01" purity="5.0126433372497559e-01" nType="0">
        <Node pos="l" depth="1" NCoef="0" IVar="6" Cut="4.5839467048645020e+00" cType="1" res="-4.1500758379697800e-03" rms="4.5238268375396729e-01" purity="4.8750737309455872e-01" nType="0">
          <Node pos="l" depth="2" NCoef="0" IVar="-1" Cut="0.0000000000000000e+00" cType="1" res="-3.0492694349959493e-04" rms="4.5931628346443176e-01" purity="4.4145309925079346e-01" nType="-99"/>
          <Node pos="r" depth="2" NCoef="0" IVar="-1" Cut="0.0000000000000000e+00" cType="1" res="7.3074892861768603e-04" rms="4.0669307112693787e-01" purity="7.6561170816421509e-01" nType="-99"/>
        </Node>
        <Node pos="r" depth="1" NCoef="0" IVar="-1" Cut="0.0000000000000000e+00" cType="1" res="1.1202376335859299e-03" rms="4.4836691021919250e-01" purity="6.6612720489501953e-01" nType="-99"/>
      </Node>
    </BinaryTree>
    <BinaryTree type="DecisionTree" boostWeight="1.0000000000000000e+00" itree="792">
      <Node pos="s" depth="0" NCoef="0" IVar="5" Cut="1.7303007841110229e+00" cType="1" res="8.9025860652327538e-03" rms="4.5453950762748718e-01" purity="5.0578087568283081e-01" nType="0">
        <Node pos="l" depth="1" NCoef="0" IVar="6" Cut="2.6964392662048340e+00" cType="1" res="4.0719714015722275e-02" rms="4.5203080773353577e-01" purity="6.1844742298126221e-01" nType="0">
          <Node pos="l" depth="2" NCoef="0" IVar="-1" Cut="0.0000000000000000e+00" cType="1" res="1.7066516447812319e-03" rms="4.7588047385215759e-01" purity="5.1283162832260132e-01" nType="-99"/>
          <Node pos="r" depth="2" NCoef="0" IVar="-1" Cut="0.0000000000000000e+00" cType="1" res="6.4568809466436505e-04" rms="4.2841607332229614e-01" purity="7.1481984853744507e-01" nType="-99"/>
        </Node>
        <Node pos="r" depth="1" NCoef="0" IVar="6" Cut="1.4261970520019531e+00" cType="1" res="3.5626031458377838e-03" rms="4.5474109053611755e-01" purity="4.8687165975570679e-01" nType="0">
          <Node pos="l" depth="2" NCoef="0" IVar="-1" Cut="0.0000000000000000e+00" cType="1" res="-1.2175723677501082e-03" rms="4.2687815427780151e-01" purity="2.6217040419578552e-01" nType="-99"/>
          <Node pos="r" depth="2" NCoef="0" IVar="-1" Cut="0.0000000000000000e+00" cType="1" res="2.6276006246916950e-04" rms="4.5963233709335327e-01" purity="5.2931237220764160e-01" nType="-99"/>
        </Node>
      </Node>
    </BinaryTree>
    <BinaryTree type="DecisionTree" boostWeight="1.0000000000000000e+00" itree="793">
      <Node pos="s" depth="0" NCoef="0" IVar="9" Cut="1.5846189880371094e+02" cType="1" res="-2.1451204083859921e-03" rms="4.5323058962821960e-01" purity="4.9711838364601135e-01" nType="0">
        <Node pos="l" depth="1" NCoef="0" IVar="6" Cut="4.3134403228759766e+00" cType="1" res="-6.3301878981292248e-03" rms="4.5295789837837219e-01" purity="4.8961505293846130e-01" nType="0">
          <Node pos="l" depth="2" NCoef="0" IVar="-1" Cut="0.0000000000000000e+00" cType="1" res="-3.9203077903948724e-04" rms="4.6001577377319336e-01" purity="4.3373861908912659e-01" nType="-99"/>
          <Node pos="r" depth="2" NCoef="0" IVar="-1" Cut="0.0000000000000000e+00" cType="1" res="5.3690478671342134e-04" rms="4.1738823056221008e-01" purity="7.5113362073898315e-01" nType="-99"/>
        </Node>
        <Node pos="r" depth="1" NCoef="0" IVar="3" Cut="3.0623805522918701e-01" cType="1" res="2.5364546105265617e-02" rms="4.5405995845794678e-01" purity="5.4643994569778442e-01" nType="0">
          <Node pos="l" depth="2" NCoef="0" IVar="-1" Cut="0.0000000000000000e+00" cType="1" res="1.4442179817706347e-03" rms="4.6006122231483459e-01" purity="4.8311266303062439e-01" nType="-99"/>
          <Node pos="r" depth="2" NCoef="0" IVar="-1" Cut="0.0000000000000000e+00" cType="1" res="4.1736094863153994e-04" rms="4.4974774122238159e-01" purity="5.8756983280181885e-01" nType="-99"/>
        </Node>
      </Node>
    </BinaryTree>
    <BinaryTree type="DecisionTree" boostWeight="1.0000000000000000e+00" itree="794">
      <Node pos="s" depth="0" NCoef="0" IVar="6" Cut="4.1104788780212402e+00" cType="1" res="-3.3077273983508348e-03" rms="4.5292961597442627e-01" purity="4.9521848559379578e-01" nType="0">
        <Node pos="l" depth="1" NCoef="0" IVar="3" Cut="3.4501141309738159e-01" cType="1" res="-1.0121628642082214e-02" rms="4.6054431796073914e-01" purity="4.3005058169364929e-01" nType="0">
          <Node pos="l" depth="2" NCoef="0" IVar="-1" Cut="0.0000000000000000e+00" cType="1" res="1.0278381523676217e-04" rms="4.5627203583717346e-01" purity="4.1430130600929260e-01" nType="-99"/>
          <Node pos="r" depth="2" NCoef="0" IVar="-1" Cut="0.0000000000000000e+00" cType="1" res="-8.8866002624854445e-04" rms="4.6593114733695984e-01" purity="4.5246344804763794e-01" nType="-99"/>
        </Node>
        <Node pos="r" depth="1" NCoef="0" IVar="3" Cut="7.5278502702713013e-01" cType="1" res="2.1879538893699646e-02" rms="4.2264321446418762e-01" purity="7.3610836267471313e-01" nType="0">
          <Node pos="l" depth="2" NCoef="0" IVar="-1" Cut="0.0000000000000000e+00" cType="1" res="1.0019958717748523e-03" rms="4.1665977239608765e-01" purity="7.4695932865142822e-01" nType="-99"/>
          <Node pos="r" depth="2" NCoef="0" IVar="-1" Cut="0.0000000000000000e+00" cType="1" res="1.4990527415648103e-04" rms="4.2831918597221375e-01" purity="7.2451901435852051e-01" nType="-99"/>
        </Node>
      </Node>
    </BinaryTree>
    <BinaryTree type="DecisionTree" boostWeight="1.0000000000000000e+00" itree="795">
      <Node pos="s" depth="0" NCoef="0" IVar="0" Cut="5.8113074302673340e-01" cType="1" res="2.2555743635166436e-04" rms="4.5396789908409119e-01" purity="4.9808460474014282e-01" nType="0">
        <Node pos="l" depth="1" NCoef="0" IVar="-1" Cut="0.0000000000000000e+00" cType="1" res="1.2540534371510148e-03" rms="4.6268320083618164e-01" purity="5.9124857187271118e-01" nType="-99"/>
        <Node pos="r" depth="1" NCoef="0" IVar="6" Cut="2.0481998920440674e+00" cType="1" res="-3.1244612764567137e-03" rms="4.5310732722282410e-01" purity="4.9078193306922913e-01" nType="0">
          <Node pos="l" depth="2" NCoef="0" IVar="-1" Cut="0.0000000000000000e+00" cType="1" res="-9.3036046018823981e-04" rms="4.3837574124336243e-01" purity="3.0692023038864136e-01" nType="-99"/>
          <Node pos="r" depth="2" NCoef="0" IVar="-1" Cut="0.0000000000000000e+00" cType="1" res="1.4902226394042373e-04" rms="4.5947876572608948e-01" purity="5.7525807619094849e-01" nType="-99"/>
        </Node>
      </Node>
    </BinaryTree>
    <BinaryTree type="DecisionTree" boostWeight="1.0000000000000000e+00" itree="796">
      <Node pos="s" depth="0" NCoef="0" IVar="0" Cut="1.4197705984115601e+00" cType="1" res="5.3196605294942856e-03" rms="4.5371636748313904e-01" purity="5.0479108095169067e-01" nType="0">
        <Node pos="l" depth="1" NCoef="0" IVar="9" Cut="1.9065901184082031e+02" cType="1" res="1.2617355212569237e-02" rms="4.5556041598320007e-01" purity="5.2837491035461426e-01" nType="0">
          <Node pos="l" depth="2" NCoef="0" IVar="-1" Cut="0.0000000000000000e+00" cType="1" res="2.9208042542450130e-04" rms="4.5526820421218872e-01" purity="5.2489948272705078e-01" nType="-99"/>
          <Node pos="r" depth="2" NCoef="0" IVar="-1" Cut="0.0000000000000000e+00" cType="1" res="1.5137383015826344e-03" rms="4.5738840103149414e-01" purity="5.7060837745666504e-01" nType="-99"/>
        </Node>
        <Node pos="r" depth="1" NCoef="0" IVar="7" Cut="5.3115509450435638e-02" cType="1" res="-2.1187586709856987e-02" rms="4.4595068693161011e-01" purity="4.1912829875946045e-01" nType="0">
          <Node pos="l" depth="2" NCoef="0" IVar="-1" Cut="0.0000000000000000e+00" cType="1" res="-1.3864751672372222e-03" rms="4.3806019425392151e-01" purity="3.7245368957519531e-01" nType="-99"/>
          <Node pos="r" depth="2" NCoef="0" IVar="-1" Cut="0.0000000000000000e+00" cType="1" res="8.8674401922617108e-05" rms="4.5741868019104004e-01" purity="4.9470040202140808e-01" nType="-99"/>
        </Node>
      </Node>
    </BinaryTree>
    <BinaryTree type="DecisionTree" boostWeight="1.0000000000000000e+00" itree="797">
      <Node pos="s" depth="0" NCoef="0" IVar="3" Cut="5.5806994438171387e-01" cType="1" res="2.7469841297715902e-03" rms="4.5502811670303345e-01" purity="5.0216048955917358e-01" nType="0">
        <Node pos="l" depth="1" NCoef="0" IVar="6" Cut="2.7915899753570557e+00" cType="1" res="9.4974488019943237e-03" rms="4.5749777555465698e-01" purity="4.4866144657135010e-01" nType="0">
          <Node pos="l" depth="2" NCoef="0" IVar="-1" Cut="0.0000000000000000e+00" cType="1" res="-4.7917283154674806e-06" rms="4.5729753375053406e-01" purity="3.7512516975402832e-01" nType="-99"/>
          <Node pos="r" depth="2" NCoef="0" IVar="-1" Cut="0.0000000000000000e+00" cType="1" res="8.8895414955914021e-04" rms="4.5712876319885254e-01" purity="6.2943130731582642e-01" nType="-99"/>
        </Node>
        <Node pos="r" depth="1" NCoef="0" IVar="6" Cut="4.2501726150512695e+00" cType="1" res="-1.2680354528129101e-02" rms="4.4895222783088684e-01" purity="6.2442588806152344e-01" nType="0">
          <Node pos="l" depth="2" NCoef="0" IVar="-1" Cut="0.0000000000000000e+00" cType="1" res="-1.2390671763569117e-03" rms="4.7570496797561646e-01" purity="4.8750704526901245e-01" nType="-99"/>
          <Node pos="r" depth="2" NCoef="0" IVar="-1" Cut="0.0000000000000000e+00" cType="1" res="3.5788674722425640e-04" rms="4.2371252179145813e-01" purity="7.3844611644744873e-01" nType="-99"/>
        </Node>
      </Node>
    </BinaryTree>
    <BinaryTree type="DecisionTree" boostWeight="1.0000000000000000e+00" itree="798">
      <Node pos="s" depth="0" NCoef="0" IVar="8" Cut="9.2840309143066406e+01" cType="1" res="-2.6132615748792887e-03" rms="4.5477834343910217e-01" purity="4.9295490980148315e-01" nType="0">
        <Node pos="l" depth="1" NCoef="0" IVar="-1" Cut="0.0000000000000000e+00" cType="1" res="-1.3286535395309329e-03" rms="4.5039764046669006e-01" purity="4.0171399712562561e-01" nType="-99"/>
        <Node pos="r" depth="1" NCoef="0" IVar="8" Cut="1.3982705688476562e+02" cType="1" res="1.2032053200528026e-03" rms="4.5510694384574890e-01" purity="5.0316500663757324e-01" nType="0">
          <Node pos="l" depth="2" NCoef="0" IVar="-1" Cut="0.0000000000000000e+00" cType="1" res="2.2986685507930815e-04" rms="4.5335510373115540e-01" purity="5.0862407684326172e-01" nType="-99"/>
          <Node pos="r" depth="2" NCoef="0" IVar="-1" Cut="0.0000000000000000e+00" cType="1" res="-5.0226412713527679e-04" rms="4.5944404602050781e-01" purity="4.8826304078102112e-01" nType="-99"/>
        </Node>
      </Node>
    </BinaryTree>
    <BinaryTree type="DecisionTree" boostWeight="1.0000000000000000e+00" itree="799">
      <Node pos="s" depth="0" NCoef="0" IVar="6" Cut="3.6132261753082275e+00" cType="1" res="2.0428374409675598e-03" rms="4.5225304365158081e-01" purity="5.0075614452362061e-01" nType="0">
        <Node pos="l" depth="1" NCoef="0" IVar="3" Cut="4.5683914422988892e-01" cType="1" res="-6.3686664216220379e-03" rms="4.5978316664695740e-01" purity="4.1024693846702576e-01" nType="0">
          <Node pos="l" depth="2" NCoef="0" IVar="-1" Cut="0.0000000000000000e+00" cType="1" res="3.6332516174297780e-05" rms="4.5794320106506348e-01" purity="4.0860456228256226e-01" nType="-99"/>
          <Node pos="r" depth="2" NCoef="0" IVar="-1" Cut="0.0000000000000000e+00" cType="1" res="-1.0878663742914796e-03" rms="4.6558421850204468e-01" purity="4.1641747951507568e-01" nType="-99"/>
        </Node>
        <Node pos="r" depth="1" NCoef="0" IVar="3" Cut="5.5891346931457520e-01" cType="1" res="2.0874463021755219e-02" rms="4.3433204293251038e-01" purity="7.0338749885559082e-01" nType="0">
          <Node pos="l" depth="2" NCoef="0" IVar="-1" Cut="0.0000000000000000e+00" cType="1" res="1.4478908851742744e-03" rms="4.2190885543823242e-01" purity="7.3210185766220093e-01" nType="-99"/>
          <Node pos="r" depth="2" NCoef="0" IVar="-1" Cut="0.0000000000000000e+00" cType="1" res="2.8183008544147015e-04" rms="4.3746224045753479e-01" purity="6.9471293687820435e-01" nType="-99"/>
        </Node>
      </Node>
    </BinaryTree>
    <BinaryTree type="DecisionTree" boostWeight="1.0000000000000000e+00" itree="800">
      <Node pos="s" depth="0" NCoef="0" IVar="8" Cut="1.0111430358886719e+02" cType="1" res="2.4617766030132771e-03" rms="4.5416939258575439e-01" purity="5.0042349100112915e-01" nType="0">
        <Node pos="l" depth="1" NCoef="0" IVar="3" Cut="4.2253193259239197e-01" cType="1" res="-2.5354346260428429e-02" rms="4.5252183079719543e-01" purity="4.3258497118949890e-01" nType="0">
          <Node pos="l" depth="2" NCoef="0" IVar="-1" Cut="0.0000000000000000e+00" cType="1" res="-2.7962608146481216e-04" rms="4.4802576303482056e-01" purity="3.7837746739387512e-01" nType="-99"/>
          <Node pos="r" depth="2" NCoef="0" IVar="-1" Cut="0.0000000000000000e+00" cType="1" res="-1.5064184553921223e-03" rms="4.5740404725074768e-01" purity="5.0542223453521729e-01" nType="-99"/>
        </Node>
        <Node pos="r" depth="1" NCoef="0" IVar="5" Cut="1.6713242530822754e+00" cType="1" res="8.0400267615914345e-03" rms="4.5429411530494690e-01" purity="5.1402777433395386e-01" nType="0">
          <Node pos="l" depth="2" NCoef="0" IVar="-1" Cut="0.0000000000000000e+00" cType="1" res="9.3167257728055120e-04" rms="4.4315949082374573e-01" purity="6.4900761842727661e-01" nType="-99"/>
          <Node pos="r" depth="2" NCoef="0" IVar="-1" Cut="0.0000000000000000e+00" cType="1" res="1.5950227680150419e-04" rms="4.5547491312026978e-01" purity="4.9830868840217590e-01" nType="-99"/>
        </Node>
      </Node>
    </BinaryTree>
    <BinaryTree type="DecisionTree" boostWeight="1.0000000000000000e+00" itree="801">
      <Node pos="s" depth="0" NCoef="0" IVar="9" Cut="1.5930688476562500e+02" cType="1" res="2.4226279929280281e-03" rms="4.5543244481086731e-01" purity="4.9936890602111816e-01" nType="0">
        <Node pos="l" depth="1" NCoef="0" IVar="8" Cut="1.4206892395019531e+02" cType="1" res="-2.3745072539895773e-03" rms="4.5487388968467712e-01" purity="4.9213516712188721e-01" nType="0">
          <Node pos="l" depth="2" NCoef="0" IVar="-1" Cut="0.0000000000000000e+00" cType="1" res="1.1165577598148957e-04" rms="4.5452547073364258e-01" purity="4.9870839715003967e-01" nType="-99"/>
          <Node pos="r" depth="2" NCoef="0" IVar="-1" Cut="0.0000000000000000e+00" cType="1" res="-1.2854026863351464e-03" rms="4.5534452795982361e-01" purity="4.5209312438964844e-01" nType="-99"/>
        </Node>
        <Node pos="r" depth="1" NCoef="0" IVar="8" Cut="1.6481039428710938e+02" cType="1" res="3.5191539674997330e-02" rms="4.5788747072219849e-01" purity="5.4878211021423340e-01" nType="0">
          <Node pos="l" depth="2" NCoef="0" IVar="-1" Cut="0.0000000000000000e+00" cType="1" res="1.9351914525032043e-03" rms="4.5340499281883240e-01" purity="5.7361692190170288e-01" nType="-99"/>
          <Node pos="r" depth="2" NCoef="0" IVar="-1" Cut="0.0000000000000000e+00" cType="1" res="3.0640390468761325e-04" rms="4.6019896864891052e-01" purity="5.2735352516174316e-01" nType="-99"/>
        </Node>
      </Node>
    </BinaryTree>
    <BinaryTree type="DecisionTree" boostWeight="1.0000000000000000e+00" itree="802">
      <Node pos="s" depth="0" NCoef="0" IVar="3" Cut="7.7097958326339722e-01" cType="1" res="3.4832118544727564e-03" rms="4.5456877350807190e-01" purity="5.0179433822631836e-01" nType="0">
        <Node pos="l" depth="1" NCoef="0" IVar="9" Cut="4.1666614532470703e+01" cType="1" res="7.4339136481285095e-03" rms="4.5583456754684448e-01" purity="4.8322996497154236e-01" nType="0">
          <Node pos="l" depth="2" NCoef="0" IVar="-1" Cut="0.0000000000000000e+00" cType="1" res="-1.3600841630250216e-03" rms="4.4200494885444641e-01" purity="4.0485170483589172e-01" nType="-99"/>
          <Node pos="r" depth="2" NCoef="0" IVar="-1" Cut="0.0000000000000000e+00" cType="1" res="3.2248848583549261e-04" rms="4.5648676156997681e-01" purity="4.8782625794410706e-01" nType="-99"/>
        </Node>
        <Node pos="r" depth="1" NCoef="0" IVar="-1" Cut="0.0000000000000000e+00" cType="1" res="-9.4964954769238830e-04" rms="4.4140428304672241e-01" purity="6.6911423206329346e-01" nType="-99"/>
      </Node>
    </BinaryTree>
    <BinaryTree type="DecisionTree" boostWeight="1.0000000000000000e+00" itree="803">
      <Node pos="s" depth="0" NCoef="0" IVar="5" Cut="2.8957192897796631e+00" cType="1" res="-6.0373934684321284e-04" rms="4.5343041419982910e-01" purity="4.9795189499855042e-01" nType="0">
        <Node pos="l" depth="1" NCoef="0" IVar="9" Cut="8.8161857604980469e+01" cType="1" res="2.0501734688878059e-03" rms="4.5618081092834473e-01" purity="5.1341563463211060e-01" nType="0">
          <Node pos="l" depth="2" NCoef="0" IVar="-1" Cut="0.0000000000000000e+00" cType="1" res="-4.5482386485673487e-04" rms="4.5469558238983154e-01" purity="4.6844914555549622e-01" nType="-99"/>
          <Node pos="r" depth="2" NCoef="0" IVar="-1" Cut="0.0000000000000000e+00" cType="1" res="4.2132040834985673e-04" rms="4.5691704750061035e-01" purity="5.4680424928665161e-01" nType="-99"/>
        </Node>
        <Node pos="r" depth="1" NCoef="0" IVar="-1" Cut="0.0000000000000000e+00" cType="1" res="-2.9275263659656048e-03" rms="3.9497268199920654e-01" purity="2.0756882429122925e-01" nType="-99"/>
      </Node>
    </BinaryTree>
    <BinaryTree type="DecisionTree" boostWeight="1.0000000000000000e+00" itree="804">
      <Node pos="s" depth="0" NCoef="0" IVar="7" Cut="1.5960228443145752e-01" cType="1" res="3.8775964640080929e-04" rms="4.5379480719566345e-01" purity="4.9742278456687927e-01" nType="0">
        <Node pos="l" depth="1" NCoef="0" IVar="0" Cut="9.4100344181060791e-01" cType="1" res="-4.8992196097970009e-03" rms="4.5262917876243591e-01" purity="4.7851002216339111e-01" nType="0">
          <Node pos="l" depth="2" NCoef="0" IVar="-1" Cut="0.0000000000000000e+00" cType="1" res="3.0432338826358318e-04" rms="4.5623174309730530e-01" purity="5.3426313400268555e-01" nType="-99"/>
          <Node pos="r" depth="2" NCoef="0" IVar="-1" Cut="0.0000000000000000e+00" cType="1" res="-5.0623348215594888e-04" rms="4.4998860359191895e-01" purity="4.4203057885169983e-01" nType="-99"/>
        </Node>
        <Node pos="r" depth="1" NCoef="0" IVar="0" Cut="1.1807384490966797e+00" cType="1" res="2.6711300015449524e-02" rms="4.5864808559417725e-01" purity="5.9158831834793091e-01" nType="0">
          <Node pos="l" depth="2" NCoef="0" IVar="-1" Cut="0.0000000000000000e+00" cType="1" res="3.8988265441730618e-04" rms="4.5487245917320251e-01" purity="6.0725033283233643e-01" nType="-99"/>
          <Node pos="r" depth="2" NCoef="0" IVar="-1" Cut="0.0000000000000000e+00" cType="1" res="1.3188729062676430e-03" rms="4.6366259455680847e-01" purity="5.6757986545562744e-01" nType="-99"/>
        </Node>
      </Node>
    </BinaryTree>
    <BinaryTree type="DecisionTree" boostWeight="1.0000000000000000e+00" itree="805">
      <Node pos="s" depth="0" NCoef="0" IVar="7" Cut="-1.1132545769214630e-01" cType="1" res="3.2558070961385965e-04" rms="4.5452421903610229e-01" purity="5.0027018785476685e-01" nType="0">
        <Node pos="l" depth="1" NCoef="0" IVar="-1" Cut="0.0000000000000000e+00" cType="1" res="-1.6159916995093226e-03" rms="4.3123731017112732e-01" purity="3.6696147918701172e-01" nType="-99"/>
        <Node pos="r" depth="1" NCoef="0" IVar="9" Cut="1.4801216125488281e+02" cType="1" res="3.2584674190729856e-03" rms="4.5595428347587585e-01" purity="5.0954014062881470e-01" nType="0">
          <Node pos="l" depth="2" NCoef="0" IVar="-1" Cut="0.0000000000000000e+00" cType="1" res="-3.8476700865430757e-05" rms="4.5652928948402405e-01" purity="4.9944576621055603e-01" nType="-99"/>
          <Node pos="r" depth="2" NCoef="0" IVar="-1" Cut="0.0000000000000000e+00" cType="1" res="8.1543577834963799e-04" rms="4.5216310024261475e-01" purity="5.6297522783279419e-01" nType="-99"/>
        </Node>
      </Node>
    </BinaryTree>
    <BinaryTree type="DecisionTree" boostWeight="1.0000000000000000e+00" itree="806">
      <Node pos="s" depth="0" NCoef="0" IVar="1" Cut="3.6067230224609375e+02" cType="1" res="3.8415635935962200e-03" rms="4.5496082305908203e-01" purity="5.0269508361816406e-01" nType="0">
        <Node pos="l" depth="1" NCoef="0" IVar="-1" Cut="0.0000000000000000e+00" cType="1" res="-1.8349476158618927e-03" rms="4.0995031595230103e-01" purity="2.6759538054466248e-01" nType="-99"/>
        <Node pos="r" depth="1" NCoef="0" IVar="7" Cut="1.5792791545391083e-01" cType="1" res="6.7127640359103680e-03" rms="4.5774346590042114e-01" purity="5.1880878210067749e-01" nType="0">
          <Node pos="l" depth="2" NCoef="0" IVar="-1" Cut="0.0000000000000000e+00" cType="1" res="5.9731504734372720e-05" rms="4.5792254805564880e-01" purity="5.0083875656127930e-01" nType="-99"/>
          <Node pos="r" depth="2" NCoef="0" IVar="-1" Cut="0.0000000000000000e+00" cType="1" res="8.4877904737368226e-04" rms="4.5613759756088257e-01" purity="6.0650020837783813e-01" nType="-99"/>
        </Node>
      </Node>
    </BinaryTree>
    <BinaryTree type="DecisionTree" boostWeight="1.0000000000000000e+00" itree="807">
      <Node pos="s" depth="0" NCoef="0" IVar="5" Cut="2.6523797512054443e+00" cType="1" res="1.5944471815600991e-03" rms="4.5470902323722839e-01" purity="5.0116819143295288e-01" nType="0">
        <Node pos="l" depth="1" NCoef="0" IVar="3" Cut="2.4838997423648834e-01" cType="1" res="6.1232917942106724e-03" rms="4.5902267098426819e-01" purity="5.3092068433761597e-01" nType="0">
          <Node pos="l" depth="2" NCoef="0" IVar="-1" Cut="0.0000000000000000e+00" cType="1" res="8.1707816570997238e-04" rms="4.6299386024475098e-01" purity="4.5969116687774658e-01" nType="-99"/>
          <Node pos="r" depth="2" NCoef="0" IVar="-1" Cut="0.0000000000000000e+00" cType="1" res="-7.3478149715811014e-05" rms="4.5687916874885559e-01" purity="5.6456959247589111e-01" nType="-99"/>
        </Node>
        <Node pos="r" depth="1" NCoef="0" IVar="5" Cut="2.8679993152618408e+00" cType="1" res="-3.2211188226938248e-02" rms="4.1957455873489380e-01" purity="2.7908042073249817e-01" nType="0">
          <Node pos="l" depth="2" NCoef="0" IVar="-1" Cut="0.0000000000000000e+00" cType="1" res="-7.3447322938591242e-04" rms="4.4355207681655884e-01" purity="3.3746200799942017e-01" nType="-99"/>
          <Node pos="r" depth="2" NCoef="0" IVar="-1" Cut="0.0000000000000000e+00" cType="1" res="-2.7562223840504885e-03" rms="3.9008471369743347e-01" purity="2.1312974393367767e-01" nType="-99"/>
        </Node>
      </Node>
    </BinaryTree>
    <BinaryTree type="DecisionTree" boostWeight="1.0000000000000000e+00" itree="808">
      <Node pos="s" depth="0" NCoef="0" IVar="5" Cut="2.8948972225189209e+00" cType="1" res="1.4303788775578141e-03" rms="4.5085063576698303e-01" purity="5.0349891185760498e-01" nType="0">
        <Node pos="l" depth="1" NCoef="0" IVar="9" Cut="1.7783813476562500e+02" cType="1" res="4.3737865053117275e-03" rms="4.5364436507225037e-01" purity="5.1940321922302246e-01" nType="0">
          <Node pos="l" depth="2" NCoef="0" IVar="-1" Cut="0.0000000000000000e+00" cType="1" res="3.1528677936876193e-05" rms="4.5399248600006104e-01" purity="5.1114302873611450e-01" nType="-99"/>
          <Node pos="r" depth="2" NCoef="0" IVar="-1" Cut="0.0000000000000000e+00" cType="1" res="1.3406015932559967e-03" rms="4.4696769118309021e-01" purity="6.2476760149002075e-01" nType="-99"/>
        </Node>
        <Node pos="r" depth="1" NCoef="0" IVar="-1" Cut="0.0000000000000000e+00" cType="1" res="-3.3595517743378878e-03" rms="3.8958224654197693e-01" purity="2.0027251541614532e-01" nType="-99"/>
      </Node>
    </BinaryTree>
    <BinaryTree type="DecisionTree" boostWeight="1.0000000000000000e+00" itree="809">
      <Node pos="s" depth="0" NCoef="0" IVar="4" Cut="4.1475971221923828e+01" cType="1" res="-4.6259426744654775e-04" rms="4.5385557413101196e-01" purity="4.9868035316467285e-01" nType="0">
        <Node pos="l" depth="1" NCoef="0" IVar="2" Cut="8.2483428716659546e-01" cType="1" res="-2.5123102590441704e-02" rms="4.4670718908309937e-01" purity="4.1984501481056213e-01" nType="0">
          <Node pos="l" depth="2" NCoef="0" IVar="-1" Cut="0.0000000000000000e+00" cType="1" res="-3.9787660352885723e-04" rms="4.5704022049903870e-01" purity="4.6974122524261475e-01" nType="-99"/>
          <Node pos="r" depth="2" NCoef="0" IVar="-1" Cut="0.0000000000000000e+00" cType="1" res="-1.6771701630204916e-03" rms="4.3237265944480896e-01" purity="3.5524550080299377e-01" nType="-99"/>
        </Node>
        <Node pos="r" depth="1" NCoef="0" IVar="8" Cut="1.0111430358886719e+02" cType="1" res="7.3305792175233364e-03" rms="4.5581394433975220e-01" purity="5.2359372377395630e-01" nType="0">
          <Node pos="l" depth="2" NCoef="0" IVar="-1" Cut="0.0000000000000000e+00" cType="1" res="-8.4291573148220778e-04" rms="4.5666846632957458e-01" purity="4.4814354181289673e-01" nType="-99"/>
          <Node pos="r" depth="2" NCoef="0" IVar="-1" Cut="0.0000000000000000e+00" cType="1" res="4.1815778240561485e-04" rms="4.5537298917770386e-01" purity="5.3849619626998901e-01" nType="-99"/>
        </Node>
      </Node>
    </BinaryTree>
    <BinaryTree type="DecisionTree" boostWeight="1.0000000000000000e+00" itree="810">
      <Node pos="s" depth="0" NCoef="0" IVar="6" Cut="5.0909295082092285e+00" cType="1" res="1.5828409232199192e-03" rms="4.5251971483230591e-01" purity="5.0181698799133301e-01" nType="0">
        <Node pos="l" depth="1" NCoef="0" IVar="0" Cut="1.1575837135314941e+00" cType="1" res="-2.9774627182632685e-03" rms="4.5890793204307556e-01" purity="4.7159776091575623e-01" nType="0">
          <Node pos="l" depth="2" NCoef="0" IVar="-1" Cut="0.0000000000000000e+00" cType="1" res="1.8615716544445604e-04" rms="4.6303489804267883e-01" purity="5.0906527042388916e-01" nType="-99"/>
          <Node pos="r" depth="2" NCoef="0" IVar="-1" Cut="0.0000000000000000e+00" cType="1" res="-5.6943378876894712e-04" rms="4.5249810814857483e-01" purity="4.1698175668716431e-01" nType="-99"/>
        </Node>
        <Node pos="r" depth="1" NCoef="0" IVar="-1" Cut="0.0000000000000000e+00" cType="1" res="1.4027993893250823e-03" rms="3.7661594152450562e-01" purity="8.1569093465805054e-01" nType="-99"/>
      </Node>
    </BinaryTree>
    <BinaryTree type="DecisionTree" boostWeight="1.0000000000000000e+00" itree="811">
      <Node pos="s" depth="0" NCoef="0" IVar="9" Cut="1.7661381530761719e+02" cType="1" res="2.5931887794286013e-03" rms="4.5459419488906860e-01" purity="5.0081378221511841e-01" nType="0">
        <Node pos="l" depth="1" NCoef="0" IVar="8" Cut="1.4326155090332031e+02" cType="1" res="-1.2139034224674106e-03" rms="4.5465707778930664e-01" purity="4.9518778920173645e-01" nType="0">
          <Node pos="l" depth="2" NCoef="0" IVar="-1" Cut="0.0000000000000000e+00" cType="1" res="1.2864128802902997e-04" rms="4.5442858338356018e-01" purity="4.9806740880012512e-01" nType="-99"/>
          <Node pos="r" depth="2" NCoef="0" IVar="-1" Cut="0.0000000000000000e+00" cType="1" res="-9.7298354376107454e-04" rms="4.5484411716461182e-01" purity="4.7968634963035583e-01" nType="-99"/>
        </Node>
        <Node pos="r" depth="1" NCoef="0" IVar="-1" Cut="0.0000000000000000e+00" cType="1" res="1.2542629847303033e-03" rms="4.5218509435653687e-01" purity="5.5736172199249268e-01" nType="-99"/>
      </Node>
    </BinaryTree>
    <BinaryTree type="DecisionTree" boostWeight="1.0000000000000000e+00" itree="812">
      <Node pos="s" depth="0" NCoef="0" IVar="6" Cut="8.6372303962707520e-01" cType="1" res="5.7379375211894512e-03" rms="4.5401445031166077e-01" purity="5.0505560636520386e-01" nType="0">
        <Node pos="l" depth="1" NCoef="0" IVar="-1" Cut="0.0000000000000000e+00" cType="1" res="-2.4358555674552917e-03" rms="4.1430979967117310e-01" purity="2.4043563008308411e-01" nType="-99"/>
        <Node pos="r" depth="1" NCoef="0" IVar="3" Cut="2.8709995746612549e-01" cType="1" res="8.7400665506720543e-03" rms="4.5606273412704468e-01" purity="5.2060931921005249e-01" nType="0">
          <Node pos="l" depth="2" NCoef="0" IVar="-1" Cut="0.0000000000000000e+00" cType="1" res="9.4318226911127567e-04" rms="4.6317628026008606e-01" purity="4.5978537201881409e-01" nType="-99"/>
          <Node pos="r" depth="2" NCoef="0" IVar="-1" Cut="0.0000000000000000e+00" cType="1" res="-4.0887327486416325e-05" rms="4.5198044180870056e-01" purity="5.5231446027755737e-01" nType="-99"/>
        </Node>
      </Node>
    </BinaryTree>
    <BinaryTree type="DecisionTree" boostWeight="1.0000000000000000e+00" itree="813">
      <Node pos="s" depth="0" NCoef="0" IVar="0" Cut="1.0744708776473999e+00" cType="1" res="2.0705370698124170e-03" rms="4.5302742719650269e-01" purity="5.0174695253372192e-01" nType="0">
        <Node pos="l" depth="1" NCoef="0" IVar="1" Cut="4.7558242797851562e+02" cType="1" res="1.3098993338644505e-02" rms="4.5644879341125488e-01" purity="5.4582357406616211e-01" nType="0">
          <Node pos="l" depth="2" NCoef="0" IVar="-1" Cut="0.0000000000000000e+00" cType="1" res="1.0807159123942256e-03" rms="4.5908901095390320e-01" purity="4.5378085970878601e-01" nType="-99"/>
          <Node pos="r" depth="2" NCoef="0" IVar="-1" Cut="0.0000000000000000e+00" cType="1" res="1.2062364839948714e-04" rms="4.5496842265129089e-01" purity="5.8739507198333740e-01" nType="-99"/>
        </Node>
        <Node pos="r" depth="1" NCoef="0" IVar="7" Cut="-3.1402634922415018e-03" cType="1" res="-9.9882185459136963e-03" rms="4.4894668459892273e-01" purity="4.5355260372161865e-01" nType="0">
          <Node pos="l" depth="2" NCoef="0" IVar="-1" Cut="0.0000000000000000e+00" cType="1" res="-8.8873784989118576e-04" rms="4.4004222750663757e-01" purity="4.0264955163002014e-01" nType="-99"/>
          <Node pos="r" depth="2" NCoef="0" IVar="-1" Cut="0.0000000000000000e+00" cType="1" res="8.2652848504949361e-05" rms="4.5633208751678467e-01" purity="4.9872106313705444e-01" nType="-99"/>
        </Node>
      </Node>
    </BinaryTree>
    <BinaryTree type="DecisionTree" boostWeight="1.0000000000000000e+00" itree="814">
      <Node pos="s" depth="0" NCoef="0" IVar="1" Cut="3.7563525390625000e+02" cType="1" res="3.3281208015978336e-04" rms="4.5318862795829773e-01" purity="5.0029152631759644e-01" nType="0">
        <Node pos="l" depth="1" NCoef="0" IVar="-1" Cut="0.0000000000000000e+00" cType="1" res="-1.5943322796374559e-03" rms="4.1904935240745544e-01" purity="2.7238431572914124e-01" nType="-99"/>
        <Node pos="r" depth="1" NCoef="0" IVar="6" Cut="3.8815011978149414e+00" cType="1" res="3.7239594385027885e-03" rms="4.5640200376510620e-01" purity="5.2361035346984863e-01" nType="0">
          <Node pos="l" depth="2" NCoef="0" IVar="-1" Cut="0.0000000000000000e+00" cType="1" res="-7.4163479439448565e-05" rms="4.6656543016433716e-01" purity="4.4891971349716187e-01" nType="-99"/>
          <Node pos="r" depth="2" NCoef="0" IVar="-1" Cut="0.0000000000000000e+00" cType="1" res="5.5188615806400776e-04" rms="4.2670401930809021e-01" purity="7.2945743799209595e-01" nType="-99"/>
        </Node>
      </Node>
    </BinaryTree>
    <BinaryTree type="DecisionTree" boostWeight="1.0000000000000000e+00" itree="815">
      <Node pos="s" depth="0" NCoef="0" IVar="8" Cut="9.2035110473632812e+01" cType="1" res="1.7829971620813012e-03" rms="4.5385098457336426e-01" purity="4.9883392453193665e-01" nType="0">
        <Node pos="l" depth="1" NCoef="0" IVar="-1" Cut="0.0000000000000000e+00" cType="1" res="-1.1226757196709514e-03" rms="4.5315101742744446e-01" purity="4.0309455990791321e-01" nType="-99"/>
        <Node pos="r" depth="1" NCoef="0" IVar="6" Cut="3.3012087345123291e+00" cType="1" res="5.4172249510884285e-03" rms="4.5377996563911438e-01" purity="5.0930964946746826e-01" nType="0">
          <Node pos="l" depth="2" NCoef="0" IVar="-1" Cut="0.0000000000000000e+00" cType="1" res="-9.5971379778347909e-05" rms="4.6205136179924011e-01" purity="4.0517947077751160e-01" nType="-99"/>
          <Node pos="r" depth="2" NCoef="0" IVar="-1" Cut="0.0000000000000000e+00" cType="1" res="5.1908829482272267e-04" rms="4.3903872370719910e-01" purity="6.8605017662048340e-01" nType="-99"/>
        </Node>
      </Node>
    </BinaryTree>
    <BinaryTree type="DecisionTree" boostWeight="1.0000000000000000e+00" itree="816">
      <Node pos="s" depth="0" NCoef="0" IVar="2" Cut="9.9221080541610718e-01" cType="1" res="-1.0012090206146240e-03" rms="4.5284658670425415e-01" purity="4.9933764338493347e-01" nType="0">
        <Node pos="l" depth="1" NCoef="0" IVar="9" Cut="4.2827728271484375e+01" cType="1" res="7.1459794417023659e-03" rms="4.5410200953483582e-01" purity="5.2954143285751343e-01" nType="0">
          <Node pos="l" depth="2" NCoef="0" IVar="-1" Cut="0.0000000000000000e+00" cType="1" res="-1.1126288445666432e-03" rms="4.5470619201660156e-01" purity="4.4567814469337463e-01" nType="-99"/>
          <Node pos="r" depth="2" NCoef="0" IVar="-1" Cut="0.0000000000000000e+00" cType="1" res="3.0831529875285923e-04" rms="4.5391520857810974e-01" purity="5.3556966781616211e-01" nType="-99"/>
        </Node>
        <Node pos="r" depth="1" NCoef="0" IVar="4" Cut="6.6267425537109375e+01" cType="1" res="-2.6183329522609711e-02" rms="4.4800820946693420e-01" purity="4.0598088502883911e-01" nType="0">
          <Node pos="l" depth="2" NCoef="0" IVar="-1" Cut="0.0000000000000000e+00" cType="1" res="-2.2765102330595255e-03" rms="4.3070724606513977e-01" purity="3.3255741000175476e-01" nType="-99"/>
          <Node pos="r" depth="2" NCoef="0" IVar="-1" Cut="0.0000000000000000e+00" cType="1" res="3.0224720831029117e-05" rms="4.6158355474472046e-01" purity="4.7306573390960693e-01" nType="-99"/>
        </Node>
      </Node>
    </BinaryTree>
    <BinaryTree type="DecisionTree" boostWeight="1.0000000000000000e+00" itree="817">
      <Node pos="s" depth="0" NCoef="0" IVar="3" Cut="1.9032652676105499e-01" cType="1" res="-2.5282911956310272e-03" rms="4.5481306314468384e-01" purity="4.9541994929313660e-01" nType="0">
        <Node pos="l" depth="1" NCoef="0" IVar="8" Cut="1.3710292053222656e+02" cType="1" res="2.4157425388693810e-02" rms="4.5606985688209534e-01" purity="4.3615350127220154e-01" nType="0">
          <Node pos="l" depth="2" NCoef="0" IVar="-1" Cut="0.0000000000000000e+00" cType="1" res="1.3336215633898973e-03" rms="4.5532321929931641e-01" purity="4.4761756062507629e-01" nType="-99"/>
          <Node pos="r" depth="2" NCoef="0" IVar="-1" Cut="0.0000000000000000e+00" cType="1" res="-5.8974424609914422e-04" rms="4.5579156279563904e-01" purity="4.0408051013946533e-01" nType="-99"/>
        </Node>
        <Node pos="r" depth="1" NCoef="0" IVar="9" Cut="1.0225330352783203e+02" cType="1" res="-9.5215775072574615e-03" rms="4.5422396063804626e-01" purity="5.1095139980316162e-01" nType="0">
          <Node pos="l" depth="2" NCoef="0" IVar="-1" Cut="0.0000000000000000e+00" cType="1" res="-7.3894119122996926e-04" rms="4.5379003882408142e-01" purity="4.7741395235061646e-01" nType="-99"/>
          <Node pos="r" depth="2" NCoef="0" IVar="-1" Cut="0.0000000000000000e+00" cType="1" res="1.6811816021800041e-04" rms="4.5423379540443420e-01" purity="5.4834860563278198e-01" nType="-99"/>
        </Node>
      </Node>
    </BinaryTree>
    <BinaryTree type="DecisionTree" boostWeight="1.0000000000000000e+00" itree="818">
      <Node pos="s" depth="0" NCoef="0" IVar="1" Cut="8.3162585449218750e+02" cType="1" res="4.0227915160357952e-03" rms="4.5328229665756226e-01" purity="5.0301712751388550e-01" nType="0">
        <Node pos="l" depth="1" NCoef="0" IVar="6" Cut="3.8327383995056152e+00" cType="1" res="5.9680803678929806e-04" rms="4.5369705557823181e-01" purity="4.8510035872459412e-01" nType="0">
          <Node pos="l" depth="2" NCoef="0" IVar="-1" Cut="0.0000000000000000e+00" cType="1" res="-2.0242211758159101e-04" rms="4.5990774035453796e-01" purity="4.0801438689231873e-01" nType="-99"/>
          <Node pos="r" depth="2" NCoef="0" IVar="-1" Cut="0.0000000000000000e+00" cType="1" res="5.1264150533825159e-04" rms="4.3496751785278320e-01" purity="7.0499181747436523e-01" nType="-99"/>
        </Node>
        <Node pos="r" depth="1" NCoef="0" IVar="-1" Cut="0.0000000000000000e+00" cType="1" res="9.3969109002500772e-04" rms="4.4861948490142822e-01" purity="6.5713441371917725e-01" nType="-99"/>
      </Node>
    </BinaryTree>
    <BinaryTree type="DecisionTree" boostWeight="1.0000000000000000e+00" itree="819">
      <Node pos="s" depth="0" NCoef="0" IVar="5" Cut="1.6714614629745483e+00" cType="1" res="-1.1739063484128565e-04" rms="4.5225051045417786e-01" purity="4.9863430857658386e-01" nType="0">
        <Node pos="l" depth="1" NCoef="0" IVar="8" Cut="1.1363376617431641e+02" cType="1" res="3.6677427589893341e-02" rms="4.4813832640647888e-01" purity="6.2120252847671509e-01" nType="0">
          <Node pos="l" depth="2" NCoef="0" IVar="-1" Cut="0.0000000000000000e+00" cType="1" res="3.7844385951757431e-04" rms="4.5874026417732239e-01" purity="5.5346775054931641e-01" nType="-99"/>
          <Node pos="r" depth="2" NCoef="0" IVar="-1" Cut="0.0000000000000000e+00" cType="1" res="1.5458060661330819e-03" rms="4.3755412101745605e-01" purity="6.8069982528686523e-01" nType="-99"/>
        </Node>
        <Node pos="r" depth="1" NCoef="0" IVar="6" Cut="2.7646303176879883e+00" cType="1" res="-5.3353467956185341e-03" rms="4.5258852839469910e-01" purity="4.8125261068344116e-01" nType="0">
          <Node pos="l" depth="2" NCoef="0" IVar="-1" Cut="0.0000000000000000e+00" cType="1" res="-7.0021045394241810e-04" rms="4.4981840252876282e-01" purity="3.4485712647438049e-01" nType="-99"/>
          <Node pos="r" depth="2" NCoef="0" IVar="-1" Cut="0.0000000000000000e+00" cType="1" res="1.9937887554988265e-04" rms="4.5504277944564819e-01" purity="6.1988645792007446e-01" nType="-99"/>
        </Node>
      </Node>
    </BinaryTree>
    <BinaryTree type="DecisionTree" boostWeight="1.0000000000000000e+00" itree="820">
      <Node pos="s" depth="0" NCoef="0" IVar="3" Cut="1.9032187759876251e-01" cType="1" res="-1.6525713726878166e-03" rms="4.5243397355079651e-01" purity="5.0015175342559814e-01" nType="0">
        <Node pos="l" depth="1" NCoef="0" IVar="6" Cut="8.8233911991119385e-01" cType="1" res="1.8851725384593010e-02" rms="4.5283505320549011e-01" purity="4.3484020233154297e-01" nType="0">
          <Node pos="l" depth="2" NCoef="0" IVar="-1" Cut="0.0000000000000000e+00" cType="1" res="-9.6699385903775692e-04" rms="4.2835327982902527e-01" purity="2.7590629458427429e-01" nType="-99"/>
          <Node pos="r" depth="2" NCoef="0" IVar="-1" Cut="0.0000000000000000e+00" cType="1" res="1.0311702499166131e-03" rms="4.5988994836807251e-01" purity="4.8697891831398010e-01" nType="-99"/>
        </Node>
        <Node pos="r" depth="1" NCoef="0" IVar="6" Cut="3.6766474246978760e+00" cType="1" res="-6.9313049316406250e-03" rms="4.5218017697334290e-01" purity="5.1696592569351196e-01" nType="0">
          <Node pos="l" depth="2" NCoef="0" IVar="-1" Cut="0.0000000000000000e+00" cType="1" res="-6.0389592545107007e-04" rms="4.6112954616546631e-01" purity="4.1023495793342590e-01" nType="-99"/>
          <Node pos="r" depth="2" NCoef="0" IVar="-1" Cut="0.0000000000000000e+00" cType="1" res="3.1951974960975349e-04" rms="4.3585115671157837e-01" purity="6.9914126396179199e-01" nType="-99"/>
        </Node>
      </Node>
    </BinaryTree>
    <BinaryTree type="DecisionTree" boostWeight="1.0000000000000000e+00" itree="821">
      <Node pos="s" depth="0" NCoef="0" IVar="2" Cut="1.2137868404388428e+00" cType="1" res="-5.0497706979513168e-04" rms="4.5418196916580200e-01" purity="4.9789315462112427e-01" nType="0">
        <Node pos="l" depth="1" NCoef="0" IVar="7" Cut="-1.1226202547550201e-01" cType="1" res="2.8090395499020815e-03" rms="4.5426690578460693e-01" purity="5.0782132148742676e-01" nType="0">
          <Node pos="l" depth="2" NCoef="0" IVar="-1" Cut="0.0000000000000000e+00" cType="1" res="-1.6311026411131024e-03" rms="4.3405017256736755e-01" purity="3.7530118227005005e-01" nType="-99"/>
          <Node pos="r" depth="2" NCoef="0" IVar="-1" Cut="0.0000000000000000e+00" cType="1" res="1.8095085397362709e-04" rms="4.5539644360542297e-01" purity="5.1647543907165527e-01" nType="-99"/>
        </Node>
        <Node pos="r" depth="1" NCoef="0" IVar="-1" Cut="0.0000000000000000e+00" cType="1" res="-1.4394212048500776e-03" rms="4.5139521360397339e-01" purity="3.8205754756927490e-01" nType="-99"/>
      </Node>
    </BinaryTree>
    <BinaryTree type="DecisionTree" boostWeight="1.0000000000000000e+00" itree="822">
      <Node pos="s" depth="0" NCoef="0" IVar="4" Cut="2.9957885742187500e+01" cType="1" res="2.1042663138359785e-04" rms="4.5454472303390503e-01" purity="4.9859136343002319e-01" nType="0">
        <Node pos="l" depth="1" NCoef="0" IVar="8" Cut="1.1803321075439453e+02" cType="1" res="-3.4842349588871002e-02" rms="4.4968307018280029e-01" purity="4.0690320730209351e-01" nType="0">
          <Node pos="l" depth="2" NCoef="0" IVar="-1" Cut="0.0000000000000000e+00" cType="1" res="-2.8178360662423074e-04" rms="4.5015740394592285e-01" purity="4.2237886786460876e-01" nType="-99"/>
          <Node pos="r" depth="2" NCoef="0" IVar="-1" Cut="0.0000000000000000e+00" cType="1" res="-2.0421552471816540e-03" rms="4.4830337166786194e-01" purity="3.9554372429847717e-01" nType="-99"/>
        </Node>
        <Node pos="r" depth="1" NCoef="0" IVar="8" Cut="9.2612442016601562e+01" cType="1" res="5.5899396538734436e-03" rms="4.5504733920097351e-01" purity="5.1266270875930786e-01" nType="0">
          <Node pos="l" depth="2" NCoef="0" IVar="-1" Cut="0.0000000000000000e+00" cType="1" res="-1.2052750680595636e-03" rms="4.4976630806922913e-01" purity="4.1427466273307800e-01" nType="-99"/>
          <Node pos="r" depth="2" NCoef="0" IVar="-1" Cut="0.0000000000000000e+00" cType="1" res="3.0757789500057697e-04" rms="4.5541688799858093e-01" purity="5.2350997924804688e-01" nType="-99"/>
        </Node>
      </Node>
    </BinaryTree>
    <BinaryTree type="DecisionTree" boostWeight="1.0000000000000000e+00" itree="823">
      <Node pos="s" depth="0" NCoef="0" IVar="8" Cut="1.3674543762207031e+02" cType="1" res="-1.5053310198709369e-03" rms="4.5397451519966125e-01" purity="4.9720385670661926e-01" nType="0">
        <Node pos="l" depth="1" NCoef="0" IVar="6" Cut="2.2864224910736084e+00" cType="1" res="5.0655798986554146e-03" rms="4.5423293113708496e-01" purity="5.0061941146850586e-01" nType="0">
          <Node pos="l" depth="2" NCoef="0" IVar="-1" Cut="0.0000000000000000e+00" cType="1" res="-4.6304130228236318e-04" rms="4.4578847289085388e-01" purity="3.3041989803314209e-01" nType="-99"/>
          <Node pos="r" depth="2" NCoef="0" IVar="-1" Cut="0.0000000000000000e+00" cType="1" res="4.2219529859721661e-04" rms="4.5900672674179077e-01" purity="6.0415375232696533e-01" nType="-99"/>
        </Node>
        <Node pos="r" depth="1" NCoef="0" IVar="2" Cut="6.8295687437057495e-01" cType="1" res="-1.8906129524111748e-02" rms="4.5282912254333496e-01" purity="4.8815894126892090e-01" nType="0">
          <Node pos="l" depth="2" NCoef="0" IVar="-1" Cut="0.0000000000000000e+00" cType="1" res="2.7028593467548490e-04" rms="4.5473617315292358e-01" purity="5.8537423610687256e-01" nType="-99"/>
          <Node pos="r" depth="2" NCoef="0" IVar="-1" Cut="0.0000000000000000e+00" cType="1" res="-1.2432133080437779e-03" rms="4.5086723566055298e-01" purity="4.3063008785247803e-01" nType="-99"/>
        </Node>
      </Node>
    </BinaryTree>
    <BinaryTree type="DecisionTree" boostWeight="1.0000000000000000e+00" itree="824">
      <Node pos="s" depth="0" NCoef="0" IVar="6" Cut="4.1488633155822754e+00" cType="1" res="9.9490443244576454e-04" rms="4.5404642820358276e-01" purity="4.9948576092720032e-01" nType="0">
        <Node pos="l" depth="1" NCoef="0" IVar="3" Cut="5.3849464654922485e-01" cType="1" res="-6.3173682428896427e-03" rms="4.6297135949134827e-01" purity="4.3263667821884155e-01" nType="0">
          <Node pos="l" depth="2" NCoef="0" IVar="-1" Cut="0.0000000000000000e+00" cType="1" res="1.4937916421331465e-04" rms="4.5982685685157776e-01" purity="4.2755419015884399e-01" nType="-99"/>
          <Node pos="r" depth="2" NCoef="0" IVar="-1" Cut="0.0000000000000000e+00" cType="1" res="-1.6489876434206963e-03" rms="4.7400671243667603e-01" purity="4.5576909184455872e-01" nType="-99"/>
        </Node>
        <Node pos="r" depth="1" NCoef="0" IVar="3" Cut="7.3685520887374878e-01" cType="1" res="2.7903161942958832e-02" rms="4.1847357153892517e-01" purity="7.4548202753067017e-01" nType="0">
          <Node pos="l" depth="2" NCoef="0" IVar="-1" Cut="0.0000000000000000e+00" cType="1" res="1.2094047851860523e-03" rms="4.1196957230567932e-01" purity="7.5714755058288574e-01" nType="-99"/>
          <Node pos="r" depth="2" NCoef="0" IVar="-1" Cut="0.0000000000000000e+00" cType="1" res="3.5638018744066358e-04" rms="4.2328128218650818e-01" purity="7.3565298318862915e-01" nType="-99"/>
        </Node>
      </Node>
    </BinaryTree>
    <BinaryTree type="DecisionTree" boostWeight="1.0000000000000000e+00" itree="825">
      <Node pos="s" depth="0" NCoef="0" IVar="3" Cut="5.9677994251251221e-01" cType="1" res="2.6073332410305738e-03" rms="4.5492190122604370e-01" purity="5.0110256671905518e-01" nType="0">
        <Node pos="l" depth="1" NCoef="0" IVar="2" Cut="1.0261592864990234e+00" cType="1" res="8.4391450509428978e-03" rms="4.5732367038726807e-01" purity="4.5336449146270752e-01" nType="0">
          <Node pos="l" depth="2" NCoef="0" IVar="-1" Cut="0.0000000000000000e+00" cType="1" res="4.6570916310884058e-04" rms="4.6012732386589050e-01" purity="4.7783961892127991e-01" nType="-99"/>
          <Node pos="r" depth="2" NCoef="0" IVar="-1" Cut="0.0000000000000000e+00" cType="1" res="-5.0668447511270642e-04" rms="4.4655296206474304e-01" purity="3.6642229557037354e-01" nType="-99"/>
        </Node>
        <Node pos="r" depth="1" NCoef="0" IVar="6" Cut="4.5643658638000488e+00" cType="1" res="-1.3322340324521065e-02" rms="4.4790905714035034e-01" purity="6.3149982690811157e-01" nType="0">
          <Node pos="l" depth="2" NCoef="0" IVar="-1" Cut="0.0000000000000000e+00" cType="1" res="-9.4222853658720851e-04" rms="4.7490233182907104e-01" purity="5.2517223358154297e-01" nType="-99"/>
          <Node pos="r" depth="2" NCoef="0" IVar="-1" Cut="0.0000000000000000e+00" cType="1" res="2.8366362676024437e-04" rms="4.1366773843765259e-01" purity="7.5313538312911987e-01" nType="-99"/>
        </Node>
      </Node>
    </BinaryTree>
    <BinaryTree type="DecisionTree" boostWeight="1.0000000000000000e+00" itree="826">
      <Node pos="s" depth="0" NCoef="0" IVar="5" Cut="2.2585597038269043e+00" cType="1" res="3.6848365562036633e-04" rms="4.5495006442070007e-01" purity="4.9785399436950684e-01" nType="0">
        <Node pos="l" depth="1" NCoef="0" IVar="9" Cut="1.2383911132812500e+02" cType="1" res="8.3704469725489616e-03" rms="4.5794895291328430e-01" purity="5.6155961751937866e-01" nType="0">
          <Node pos="l" depth="2" NCoef="0" IVar="-1" Cut="0.0000000000000000e+00" cType="1" res="9.1883004643023014e-05" rms="4.6054658293724060e-01" purity="5.3657138347625732e-01" nType="-99"/>
          <Node pos="r" depth="2" NCoef="0" IVar="-1" Cut="0.0000000000000000e+00" cType="1" res="8.4368552779778838e-04" rms="4.4618737697601318e-01" purity="6.6649383306503296e-01" nType="-99"/>
        </Node>
        <Node pos="r" depth="1" NCoef="0" IVar="7" Cut="-6.4669422805309296e-02" cType="1" res="-1.0406410321593285e-02" rms="4.5065605640411377e-01" purity="4.1207230091094971e-01" nType="0">
          <Node pos="l" depth="2" NCoef="0" IVar="-1" Cut="0.0000000000000000e+00" cType="1" res="3.0433031497523189e-04" rms="4.4396558403968811e-01" purity="3.8359218835830688e-01" nType="-99"/>
          <Node pos="r" depth="2" NCoef="0" IVar="-1" Cut="0.0000000000000000e+00" cType="1" res="-6.7704386310651898e-04" rms="4.5369127392768860e-01" purity="4.2633122205734253e-01" nType="-99"/>
        </Node>
      </Node>
    </BinaryTree>
    <BinaryTree type="DecisionTree" boostWeight="1.0000000000000000e+00" itree="827">
      <Node pos="s" depth="0" NCoef="0" IVar="0" Cut="1.5965181589126587e+00" cType="1" res="-3.5354578867554665e-03" rms="4.5128500461578369e-01" purity="4.9423894286155701e-01" nType="0">
        <Node pos="l" depth="1" NCoef="0" IVar="6" Cut="2.7455816268920898e+00" cType="1" res="1.6907503595575690e-03" rms="4.5287752151489258e-01" purity="5.0937330722808838e-01" nType="0">
          <Node pos="l" depth="2" NCoef="0" IVar="-1" Cut="0.0000000000000000e+00" cType="1" res="-4.2287571704946458e-04" rms="4.5621684193611145e-01" purity="3.6777552962303162e-01" nType="-99"/>
          <Node pos="r" depth="2" NCoef="0" IVar="-1" Cut="0.0000000000000000e+00" cType="1" res="3.9012168417684734e-04" rms="4.4927957653999329e-01" purity="6.4582693576812744e-01" nType="-99"/>
        </Node>
        <Node pos="r" depth="1" NCoef="0" IVar="5" Cut="2.1628966331481934e+00" cType="1" res="-3.9833482354879379e-02" rms="4.3834936618804932e-01" purity="3.8912549614906311e-01" nType="0">
          <Node pos="l" depth="2" NCoef="0" IVar="-1" Cut="0.0000000000000000e+00" cType="1" res="-5.2934105042368174e-04" rms="4.5651048421859741e-01" purity="4.8020872473716736e-01" nType="-99"/>
          <Node pos="r" depth="2" NCoef="0" IVar="-1" Cut="0.0000000000000000e+00" cType="1" res="-2.6876931078732014e-03" rms="4.1934779286384583e-01" purity="3.0346840620040894e-01" nType="-99"/>
        </Node>
      </Node>
    </BinaryTree>
    <BinaryTree type="DecisionTree" boostWeight="1.0000000000000000e+00" itree="828">
      <Node pos="s" depth="0" NCoef="0" IVar="5" Cut="1.5960062742233276e+00" cType="1" res="2.4646038655191660e-03" rms="4.5465740561485291e-01" purity="5.0234389305114746e-01" nType="0">
        <Node pos="l" depth="1" NCoef="0" IVar="-1" Cut="0.0000000000000000e+00" cType="1" res="1.1083242716267705e-03" rms="4.5309305191040039e-01" purity="6.2424260377883911e-01" nType="-99"/>
        <Node pos="r" depth="1" NCoef="0" IVar="9" Cut="1.9219097900390625e+02" cType="1" res="-1.5101741300895810e-03" rms="4.5464509725570679e-01" purity="4.8928752541542053e-01" nType="0">
          <Node pos="l" depth="2" NCoef="0" IVar="-1" Cut="0.0000000000000000e+00" cType="1" res="-1.3211903569754213e-04" rms="4.5434609055519104e-01" purity="4.8586940765380859e-01" nType="-99"/>
          <Node pos="r" depth="2" NCoef="0" IVar="-1" Cut="0.0000000000000000e+00" cType="1" res="9.9423900246620178e-04" rms="4.5717692375183105e-01" purity="5.3318828344345093e-01" nType="-99"/>
        </Node>
      </Node>
    </BinaryTree>
    <BinaryTree type="DecisionTree" boostWeight="1.0000000000000000e+00" itree="829">
      <Node pos="s" depth="0" NCoef="0" IVar="5" Cut="1.9732824563980103e+00" cType="1" res="9.1615214478224516e-04" rms="4.5321476459503174e-01" purity="5.0198811292648315e-01" nType="0">
        <Node pos="l" depth="1" NCoef="0" IVar="2" Cut="6.6410970687866211e-01" cType="1" res="1.8789328634738922e-02" rms="4.5040422677993774e-01" purity="5.9044402837753296e-01" nType="0">
          <Node pos="l" depth="2" NCoef="0" IVar="-1" Cut="0.0000000000000000e+00" cType="1" res="1.0962204542011023e-03" rms="4.4291087985038757e-01" purity="6.4259898662567139e-01" nType="-99"/>
          <Node pos="r" depth="2" NCoef="0" IVar="-1" Cut="0.0000000000000000e+00" cType="1" res="9.3404793005902320e-05" rms="4.5537567138671875e-01" purity="5.5093204975128174e-01" nType="-99"/>
        </Node>
        <Node pos="r" depth="1" NCoef="0" IVar="9" Cut="1.5865031433105469e+02" cType="1" res="-5.2767535671591759e-03" rms="4.5402044057846069e-01" purity="4.7133892774581909e-01" nType="0">
          <Node pos="l" depth="2" NCoef="0" IVar="-1" Cut="0.0000000000000000e+00" cType="1" res="-3.6956463009119034e-04" rms="4.5318770408630371e-01" purity="4.5884054899215698e-01" nType="-99"/>
          <Node pos="r" depth="2" NCoef="0" IVar="-1" Cut="0.0000000000000000e+00" cType="1" res="7.5767230009660125e-04" rms="4.5712426304817200e-01" purity="5.3534573316574097e-01" nType="-99"/>
        </Node>
      </Node>
    </BinaryTree>
    <BinaryTree type="DecisionTree" boostWeight="1.0000000000000000e+00" itree="830">
      <Node pos="s" depth="0" NCoef="0" IVar="6" Cut="4.1609301567077637e+00" cType="1" res="2.8173227328807116e-03" rms="4.5300123095512390e-01" purity="5.0263506174087524e-01" nType="0">
        <Node pos="l" depth="1" NCoef="0" IVar="3" Cut="3.6426997184753418e-01" cType="1" res="-3.3477256074547768e-03" rms="4.6188771724700928e-01" purity="4.3781086802482605e-01" nType="0">
          <Node pos="l" depth="2" NCoef="0" IVar="-1" Cut="0.0000000000000000e+00" cType="1" res="1.9958027405664325e-04" rms="4.5664849877357483e-01" purity="4.1694411635398865e-01" nType="-99"/>
          <Node pos="r" depth="2" NCoef="0" IVar="-1" Cut="0.0000000000000000e+00" cType="1" res="-5.2617239998653531e-04" rms="4.6964046359062195e-01" purity="4.7053080797195435e-01" nType="-99"/>
        </Node>
        <Node pos="r" depth="1" NCoef="0" IVar="8" Cut="1.2874647521972656e+02" cType="1" res="2.6122566312551498e-02" rms="4.1688075661659241e-01" purity="7.4768483638763428e-01" nType="0">
          <Node pos="l" depth="2" NCoef="0" IVar="-1" Cut="0.0000000000000000e+00" cType="1" res="1.0637076338753104e-03" rms="4.0995901823043823e-01" purity="7.6008325815200806e-01" nType="-99"/>
          <Node pos="r" depth="2" NCoef="0" IVar="-1" Cut="0.0000000000000000e+00" cType="1" res="1.5985719801392406e-04" rms="4.2675054073333740e-01" purity="7.2816157341003418e-01" nType="-99"/>
        </Node>
      </Node>
    </BinaryTree>
    <BinaryTree type="DecisionTree" boostWeight="1.0000000000000000e+00" itree="831">
      <Node pos="s" depth="0" NCoef="0" IVar="2" Cut="1.2668558359146118e+00" cType="1" res="2.3762281052768230e-03" rms="4.5288902521133423e-01" purity="5.0013792514801025e-01" nType="0">
        <Node pos="l" depth="1" NCoef="0" IVar="7" Cut="1.5100538730621338e-01" cType="1" res="4.7816024161875248e-03" rms="4.5322698354721069e-01" purity="5.0707632303237915e-01" nType="0">
          <Node pos="l" depth="2" NCoef="0" IVar="-1" Cut="0.0000000000000000e+00" cType="1" res="1.7268186638830230e-05" rms="4.5242267847061157e-01" purity="4.8761704564094543e-01" nType="-99"/>
          <Node pos="r" depth="2" NCoef="0" IVar="-1" Cut="0.0000000000000000e+00" cType="1" res="6.8225088762119412e-04" rms="4.5630857348442078e-01" purity="5.9364229440689087e-01" nType="-99"/>
        </Node>
        <Node pos="r" depth="1" NCoef="0" IVar="-1" Cut="0.0000000000000000e+00" cType="1" res="-1.4023733092471957e-03" rms="4.4516927003860474e-01" purity="3.8278037309646606e-01" nType="-99"/>
      </Node>
    </BinaryTree>
    <BinaryTree type="DecisionTree" boostWeight="1.0000000000000000e+00" itree="832">
      <Node pos="s" depth="0" NCoef="0" IVar="6" Cut="3.1792182922363281e+00" cType="1" res="-1.5102761099115014e-03" rms="4.5553192496299744e-01" purity="4.9621003866195679e-01" nType="0">
        <Node pos="l" depth="1" NCoef="0" IVar="3" Cut="3.6406135559082031e-01" cType="1" res="-8.4592644125223160e-03" rms="4.5971062779426575e-01" purity="3.8720411062240601e-01" nType="0">
          <Node pos="l" depth="2" NCoef="0" IVar="-1" Cut="0.0000000000000000e+00" cType="1" res="1.0967791604343802e-04" rms="4.5921137928962708e-01" purity="3.9190593361854553e-01" nType="-99"/>
          <Node pos="r" depth="2" NCoef="0" IVar="-1" Cut="0.0000000000000000e+00" cType="1" res="-1.3527241535484791e-03" rms="4.5963934063911438e-01" purity="3.7450504302978516e-01" nType="-99"/>
        </Node>
        <Node pos="r" depth="1" NCoef="0" IVar="3" Cut="5.3871834278106689e-01" cType="1" res="8.9997649192810059e-03" rms="4.4893357157707214e-01" purity="6.6107672452926636e-01" nType="0">
          <Node pos="l" depth="2" NCoef="0" IVar="-1" Cut="0.0000000000000000e+00" cType="1" res="1.0110774310305715e-03" rms="4.4888207316398621e-01" purity="6.7179030179977417e-01" nType="-99"/>
          <Node pos="r" depth="2" NCoef="0" IVar="-1" Cut="0.0000000000000000e+00" cType="1" res="-1.0144773841602728e-04" rms="4.4836279749870300e-01" purity="6.5647476911544800e-01" nType="-99"/>
        </Node>
      </Node>
    </BinaryTree>
    <BinaryTree type="DecisionTree" boostWeight="1.0000000000000000e+00" itree="833">
      <Node pos="s" depth="0" NCoef="0" IVar="7" Cut="1.9739706814289093e-01" cType="1" res="1.1437261709943414e-03" rms="4.5360669493675232e-01" purity="4.9938410520553589e-01" nType="0">
        <Node pos="l" depth="1" NCoef="0" IVar="0" Cut="1.2898217439651489e+00" cType="1" res="-2.4765194393694401e-03" rms="4.5327946543693542e-01" purity="4.8574173450469971e-01" nType="0">
          <Node pos="l" depth="2" NCoef="0" IVar="-1" Cut="0.0000000000000000e+00" cType="1" res="1.1134619126096368e-04" rms="4.5653992891311646e-01" purity="5.1390278339385986e-01" nType="-99"/>
          <Node pos="r" depth="2" NCoef="0" IVar="-1" Cut="0.0000000000000000e+00" cType="1" res="-5.7653931435197592e-04" rms="4.4542032480239868e-01" purity="4.2129692435264587e-01" nType="-99"/>
        </Node>
        <Node pos="r" depth="1" NCoef="0" IVar="-1" Cut="0.0000000000000000e+00" cType="1" res="8.3326752064749599e-04" rms="4.5517122745513916e-01" purity="6.0698020458221436e-01" nType="-99"/>
      </Node>
    </BinaryTree>
    <BinaryTree type="DecisionTree" boostWeight="1.0000000000000000e+00" itree="834">
      <Node pos="s" depth="0" NCoef="0" IVar="0" Cut="1.7493504285812378e+00" cType="1" res="-6.1864900635555387e-04" rms="4.5319321751594543e-01" purity="4.9660801887512207e-01" nType="0">
        <Node pos="l" depth="1" NCoef="0" IVar="1" Cut="3.6231094360351562e+02" cType="1" res="2.7107878122478724e-03" rms="4.5468282699584961e-01" purity="5.0583982467651367e-01" nType="0">
          <Node pos="l" depth="2" NCoef="0" IVar="-1" Cut="0.0000000000000000e+00" cType="1" res="-1.6549780266359448e-03" rms="4.1185864806175232e-01" purity="2.6689490675926208e-01" nType="-99"/>
          <Node pos="r" depth="2" NCoef="0" IVar="-1" Cut="0.0000000000000000e+00" cType="1" res="1.6063354269135743e-04" rms="4.5727762579917908e-01" purity="5.2170836925506592e-01" nType="-99"/>
        </Node>
        <Node pos="r" depth="1" NCoef="0" IVar="-1" Cut="0.0000000000000000e+00" cType="1" res="-1.5295979101210833e-03" rms="4.3284547328948975e-01" purity="3.8542580604553223e-01" nType="-99"/>
      </Node>
    </BinaryTree>
    <BinaryTree type="DecisionTree" boostWeight="1.0000000000000000e+00" itree="835">
      <Node pos="s" depth="0" NCoef="0" IVar="2" Cut="1.2740612030029297e+00" cType="1" res="2.0324420183897018e-03" rms="4.5477816462516785e-01" purity="4.9920290708541870e-01" nType="0">
        <Node pos="l" depth="1" NCoef="0" IVar="3" Cut="6.7419928312301636e-01" cType="1" res="4.3036905117332935e-03" rms="4.5515218377113342e-01" purity="5.0611025094985962e-01" nType="0">
          <Node pos="l" depth="2" NCoef="0" IVar="-1" Cut="0.0000000000000000e+00" cType="1" res="2.9320348403416574e-04" rms="4.5803311467170715e-01" purity="4.6749949455261230e-01" nType="-99"/>
          <Node pos="r" depth="2" NCoef="0" IVar="-1" Cut="0.0000000000000000e+00" cType="1" res="-4.0479397284798324e-04" rms="4.4300588965415955e-01" purity="6.5987896919250488e-01" nType="-99"/>
        </Node>
        <Node pos="r" depth="1" NCoef="0" IVar="-1" Cut="0.0000000000000000e+00" cType="1" res="-1.4614588581025600e-03" rms="4.4607466459274292e-01" purity="3.7551656365394592e-01" nType="-99"/>
      </Node>
    </BinaryTree>
    <BinaryTree type="DecisionTree" boostWeight="1.0000000000000000e+00" itree="836">
      <Node pos="s" depth="0" NCoef="0" IVar="9" Cut="4.2995391845703125e+01" cType="1" res="6.5280762501060963e-03" rms="4.5280426740646362e-01" purity="5.0636100769042969e-01" nType="0">
        <Node pos="l" depth="1" NCoef="0" IVar="-1" Cut="0.0000000000000000e+00" cType="1" res="-1.5977829461917281e-03" rms="4.5102167129516602e-01" purity="4.1870886087417603e-01" nType="-99"/>
        <Node pos="r" depth="1" NCoef="0" IVar="2" Cut="6.2623769044876099e-01" cType="1" res="9.9991979077458382e-03" rms="4.5270276069641113e-01" purity="5.1207363605499268e-01" nType="0">
          <Node pos="l" depth="2" NCoef="0" IVar="-1" Cut="0.0000000000000000e+00" cType="1" res="9.0331456158310175e-04" rms="4.5220774412155151e-01" purity="5.9600681066513062e-01" nType="-99"/>
          <Node pos="r" depth="2" NCoef="0" IVar="-1" Cut="0.0000000000000000e+00" cType="1" res="1.0915147868217900e-05" rms="4.5259851217269897e-01" purity="4.7382500767707825e-01" nType="-99"/>
        </Node>
      </Node>
    </BinaryTree>
    <BinaryTree type="DecisionTree" boostWeight="1.0000000000000000e+00" itree="837">
      <Node pos="s" depth="0" NCoef="0" IVar="3" Cut="1.5161632001399994e-01" cType="1" res="2.9700822196900845e-03" rms="4.5312806963920593e-01" purity="5.0405561923980713e-01" nType="0">
        <Node pos="l" depth="1" NCoef="0" IVar="6" Cut="1.2789648771286011e+00" cType="1" res="3.5187922418117523e-02" rms="4.5423540472984314e-01" purity="4.5701989531517029e-01" nType="0">
          <Node pos="l" depth="2" NCoef="0" IVar="-1" Cut="0.0000000000000000e+00" cType="1" res="6.1886204639449716e-04" rms="4.5082178711891174e-01" purity="3.3352467417716980e-01" nType="-99"/>
          <Node pos="r" depth="2" NCoef="0" IVar="-1" Cut="0.0000000000000000e+00" cType="1" res="1.5908842906355858e-03" rms="4.5646402239799500e-01" purity="5.6894361972808838e-01" nType="-99"/>
        </Node>
        <Node pos="r" depth="1" NCoef="0" IVar="6" Cut="2.9338254928588867e+00" cType="1" res="-1.2358757667243481e-03" rms="4.5281419157981873e-01" purity="5.1019603013992310e-01" nType="0">
          <Node pos="l" depth="2" NCoef="0" IVar="-1" Cut="0.0000000000000000e+00" cType="1" res="-4.6705993008799851e-04" rms="4.5468991994857788e-01" purity="3.6889293789863586e-01" nType="-99"/>
          <Node pos="r" depth="2" NCoef="0" IVar="-1" Cut="0.0000000000000000e+00" cType="1" res="2.6546919252723455e-04" rms="4.5074725151062012e-01" purity="6.4488625526428223e-01" nType="-99"/>
        </Node>
      </Node>
    </BinaryTree>
    <BinaryTree type="DecisionTree" boostWeight="1.0000000000000000e+00" itree="838">
      <Node pos="s" depth="0" NCoef="0" IVar="6" Cut="8.5483431816101074e-01" cType="1" res="-4.5607614447362721e-04" rms="4.5266491174697876e-01" purity="4.9984019994735718e-01" nType="0">
        <Node pos="l" depth="1" NCoef="0" IVar="-1" Cut="0.0000000000000000e+00" cType="1" res="-2.4464474990963936e-03" rms="4.1206222772598267e-01" purity="2.3783279955387115e-01" nType="-99"/>
        <Node pos="r" depth="1" NCoef="0" IVar="8" Cut="1.3823445129394531e+02" cType="1" res="2.2187151480466127e-03" rms="4.5482391119003296e-01" purity="5.1541280746459961e-01" nType="0">
          <Node pos="l" depth="2" NCoef="0" IVar="-1" Cut="0.0000000000000000e+00" cType="1" res="2.6070498279295862e-04" rms="4.5395869016647339e-01" purity="5.1940590143203735e-01" nType="-99"/>
          <Node pos="r" depth="2" NCoef="0" IVar="-1" Cut="0.0000000000000000e+00" cType="1" res="-5.0566758727654815e-04" rms="4.5685347914695740e-01" purity="5.0380545854568481e-01" nType="-99"/>
        </Node>
      </Node>
    </BinaryTree>
    <BinaryTree type="DecisionTree" boostWeight="1.0000000000000000e+00" itree="839">
      <Node pos="s" depth="0" NCoef="0" IVar="5" Cut="1.5547991991043091e+00" cType="1" res="1.1307466775178909e-04" rms="4.5318913459777832e-01" purity="4.9866351485252380e-01" nType="0">
        <Node pos="l" depth="1" NCoef="0" IVar="-1" Cut="0.0000000000000000e+00" cType="1" res="9.4175618141889572e-04" rms="4.5020100474357605e-01" purity="6.1612457036972046e-01" nType="-99"/>
        <Node pos="r" depth="1" NCoef="0" IVar="0" Cut="1.7862203121185303e+00" cType="1" res="-3.0972403474152088e-03" rms="4.5334249734878540e-01" purity="4.8746228218078613e-01" nType="0">
          <Node pos="l" depth="2" NCoef="0" IVar="-1" Cut="0.0000000000000000e+00" cType="1" res="-1.4015952729096171e-05" rms="4.5426687598228455e-01" purity="4.9628859758377075e-01" nType="-99"/>
          <Node pos="r" depth="2" NCoef="0" IVar="-1" Cut="0.0000000000000000e+00" cType="1" res="-1.7412543529644608e-03" rms="4.3700954318046570e-01" purity="3.5289594531059265e-01" nType="-99"/>
        </Node>
      </Node>
    </BinaryTree>
    <BinaryTree type="DecisionTree" boostWeight="1.0000000000000000e+00" itree="840">
      <Node pos="s" depth="0" NCoef="0" IVar="3" Cut="4.6129360795021057e-01" cType="1" res="-1.3421718031167984e-03" rms="4.5307564735412598e-01" purity="4.9629712104797363e-01" nType="0">
        <Node pos="l" depth="1" NCoef="0" IVar="6" Cut="3.2336506843566895e+00" cType="1" res="9.1022513806819916e-03" rms="4.5418056845664978e-01" purity="4.4087848067283630e-01" nType="0">
          <Node pos="l" depth="2" NCoef="0" IVar="-1" Cut="0.0000000000000000e+00" cType="1" res="5.3824755013920367e-05" rms="4.5697447657585144e-01" purity="3.9822819828987122e-01" nType="-99"/>
          <Node pos="r" depth="2" NCoef="0" IVar="-1" Cut="0.0000000000000000e+00" cType="1" res="1.4210318913683295e-03" rms="4.3352305889129639e-01" purity="7.0494180917739868e-01" nType="-99"/>
        </Node>
        <Node pos="r" depth="1" NCoef="0" IVar="6" Cut="4.5078754425048828e+00" cType="1" res="-1.7419654875993729e-02" rms="4.5089694857597351e-01" purity="5.8160495758056641e-01" nType="0">
          <Node pos="l" depth="2" NCoef="0" IVar="-1" Cut="0.0000000000000000e+00" cType="1" res="-9.1502896975725889e-04" rms="4.6714988350868225e-01" purity="4.9208632111549377e-01" nType="-99"/>
          <Node pos="r" depth="2" NCoef="0" IVar="-1" Cut="0.0000000000000000e+00" cType="1" res="2.1987773652654141e-04" rms="4.1785046458244324e-01" purity="7.4807542562484741e-01" nType="-99"/>
        </Node>
      </Node>
    </BinaryTree>
    <BinaryTree type="DecisionTree" boostWeight="1.0000000000000000e+00" itree="841">
      <Node pos="s" depth="0" NCoef="0" IVar="6" Cut="5.1129612922668457e+00" cType="1" res="-2.8134933672845364e-03" rms="4.5307728648185730e-01" purity="4.9576830863952637e-01" nType="0">
        <Node pos="l" depth="1" NCoef="0" IVar="7" Cut="1.7243520915508270e-01" cType="1" res="-6.0426355339586735e-03" rms="4.5849177241325378e-01" purity="4.6819448471069336e-01" nType="0">
          <Node pos="l" depth="2" NCoef="0" IVar="-1" Cut="0.0000000000000000e+00" cType="1" res="-3.4778611734509468e-04" rms="4.5779621601104736e-01" purity="4.5093339681625366e-01" nType="-99"/>
          <Node pos="r" depth="2" NCoef="0" IVar="-1" Cut="0.0000000000000000e+00" cType="1" res="5.5205950047820807e-04" rms="4.6163910627365112e-01" purity="5.6696718931198120e-01" nType="-99"/>
        </Node>
        <Node pos="r" depth="1" NCoef="0" IVar="-1" Cut="0.0000000000000000e+00" cType="1" res="9.5689995214343071e-04" rms="3.8653925061225891e-01" purity="8.0013322830200195e-01" nType="-99"/>
      </Node>
    </BinaryTree>
    <BinaryTree type="DecisionTree" boostWeight="1.0000000000000000e+00" itree="842">
      <Node pos="s" depth="0" NCoef="0" IVar="6" Cut="5.0519728660583496e+00" cType="1" res="-5.6737713748589158e-04" rms="4.5250695943832397e-01" purity="4.9846926331520081e-01" nType="0">
        <Node pos="l" depth="1" NCoef="0" IVar="3" Cut="7.1275812387466431e-01" cType="1" res="-3.7775104865431786e-03" rms="4.5826086401939392e-01" purity="4.6848419308662415e-01" nType="0">
          <Node pos="l" depth="2" NCoef="0" IVar="-1" Cut="0.0000000000000000e+00" cType="1" res="6.4364983700215816e-05" rms="4.5712918043136597e-01" purity="4.5695820450782776e-01" nType="-99"/>
          <Node pos="r" depth="2" NCoef="0" IVar="-1" Cut="0.0000000000000000e+00" cType="1" res="-1.5434779925271869e-03" rms="4.6506273746490479e-01" purity="5.6994301080703735e-01" nType="-99"/>
        </Node>
        <Node pos="r" depth="1" NCoef="0" IVar="-1" Cut="0.0000000000000000e+00" cType="1" res="9.2333892825990915e-04" rms="3.8861656188964844e-01" purity="7.9942733049392700e-01" nType="-99"/>
      </Node>
    </BinaryTree>
    <BinaryTree type="DecisionTree" boostWeight="1.0000000000000000e+00" itree="843">
      <Node pos="s" depth="0" NCoef="0" IVar="6" Cut="1.2302258014678955e+00" cType="1" res="7.7436940046027303e-04" rms="4.5398855209350586e-01" purity="5.0046020746231079e-01" nType="0">
        <Node pos="l" depth="1" NCoef="0" IVar="0" Cut="1.0464248657226562e+00" cType="1" res="-3.9368532598018646e-02" rms="4.1584426164627075e-01" purity="2.4905088543891907e-01" nType="0">
          <Node pos="l" depth="2" NCoef="0" IVar="-1" Cut="0.0000000000000000e+00" cType="1" res="-2.4819665122777224e-03" rms="4.2195740342140198e-01" purity="2.6236975193023682e-01" nType="-99"/>
          <Node pos="r" depth="2" NCoef="0" IVar="-1" Cut="0.0000000000000000e+00" cType="1" res="-1.5855324454605579e-03" rms="4.0997698903083801e-01" purity="2.3712807893753052e-01" nType="-99"/>
        </Node>
        <Node pos="r" depth="1" NCoef="0" IVar="3" Cut="5.9677994251251221e-01" cType="1" res="5.8365170843899250e-03" rms="4.5832386612892151e-01" purity="5.3216367959976196e-01" nType="0">
          <Node pos="l" depth="2" NCoef="0" IVar="-1" Cut="0.0000000000000000e+00" cType="1" res="4.8611706006340683e-04" rms="4.6286195516586304e-01" purity="4.8978561162948608e-01" nType="-99"/>
          <Node pos="r" depth="2" NCoef="0" IVar="-1" Cut="0.0000000000000000e+00" cType="1" res="-4.6821619616821408e-04" rms="4.4695356488227844e-01" purity="6.2930464744567871e-01" nType="-99"/>
        </Node>
      </Node>
    </BinaryTree>
    <BinaryTree type="DecisionTree" boostWeight="1.0000000000000000e+00" itree="844">
      <Node pos="s" depth="0" NCoef="0" IVar="6" Cut="8.5983783006668091e-01" cType="1" res="8.0827726051211357e-03" rms="4.5378777384757996e-01" purity="5.0774919986724854e-01" nType="0">
        <Node pos="l" depth="1" NCoef="0" IVar="-1" Cut="0.0000000000000000e+00" cType="1" res="-1.4927310403436422e-03" rms="4.1516423225402832e-01" purity="2.5442743301391602e-01" nType="-99"/>
        <Node pos="r" depth="1" NCoef="0" IVar="3" Cut="3.0645462870597839e-01" cType="1" res="1.0245785117149353e-02" rms="4.5585882663726807e-01" purity="5.2260619401931763e-01" nType="0">
          <Node pos="l" depth="2" NCoef="0" IVar="-1" Cut="0.0000000000000000e+00" cType="1" res="7.7931542182341218e-04" rms="4.6079480648040771e-01" purity="4.5713049173355103e-01" nType="-99"/>
          <Node pos="r" depth="2" NCoef="0" IVar="-1" Cut="0.0000000000000000e+00" cType="1" res="7.5613614171743393e-05" rms="4.5272076129913330e-01" purity="5.6158590316772461e-01" nType="-99"/>
        </Node>
      </Node>
    </BinaryTree>
    <BinaryTree type="DecisionTree" boostWeight="1.0000000000000000e+00" itree="845">
      <Node pos="s" depth="0" NCoef="0" IVar="3" Cut="1.5161632001399994e-01" cType="1" res="-8.7556464131921530e-04" rms="4.5465672016143799e-01" purity="4.9636813998222351e-01" nType="0">
        <Node pos="l" depth="1" NCoef="0" IVar="0" Cut="1.1083413362503052e+00" cType="1" res="3.3539649099111557e-02" rms="4.6231746673583984e-01" purity="4.4485124945640564e-01" nType="0">
          <Node pos="l" depth="2" NCoef="0" IVar="-1" Cut="0.0000000000000000e+00" cType="1" res="5.6533509632572532e-04" rms="4.6083360910415649e-01" purity="4.5283845067024231e-01" nType="-99"/>
          <Node pos="r" depth="2" NCoef="0" IVar="-1" Cut="0.0000000000000000e+00" cType="1" res="1.9606419373303652e-03" rms="4.6325269341468811e-01" purity="4.3558543920516968e-01" nType="-99"/>
        </Node>
        <Node pos="r" depth="1" NCoef="0" IVar="6" Cut="4.3170866966247559e+00" cType="1" res="-5.3213876672089100e-03" rms="4.5346719026565552e-01" purity="5.0302320718765259e-01" nType="0">
          <Node pos="l" depth="2" NCoef="0" IVar="-1" Cut="0.0000000000000000e+00" cType="1" res="-3.6784273106604815e-04" rms="4.6192857623100281e-01" purity="4.3959891796112061e-01" nType="-99"/>
          <Node pos="r" depth="2" NCoef="0" IVar="-1" Cut="0.0000000000000000e+00" cType="1" res="4.8771625733934343e-04" rms="4.1840705275535583e-01" purity="7.4805760383605957e-01" nType="-99"/>
        </Node>
      </Node>
    </BinaryTree>
    <BinaryTree type="DecisionTree" boostWeight="1.0000000000000000e+00" itree="846">
      <Node pos="s" depth="0" NCoef="0" IVar="6" Cut="9.6624141931533813e-01" cType="1" res="9.6538418438285589e-04" rms="4.5333135128021240e-01" purity="4.9848049879074097e-01" nType="0">
        <Node pos="l" depth="1" NCoef="0" IVar="-1" Cut="0.0000000000000000e+00" cType="1" res="-2.1027121692895889e-03" rms="4.0921267867088318e-01" purity="2.4405947327613831e-01" nType="-99"/>
        <Node pos="r" depth="1" NCoef="0" IVar="3" Cut="3.8387754559516907e-01" cType="1" res="4.0759663097560406e-03" rms="4.5636978745460510e-01" purity="5.1787358522415161e-01" nType="0">
          <Node pos="l" depth="2" NCoef="0" IVar="-1" Cut="0.0000000000000000e+00" cType="1" res="5.0347310025244951e-04" rms="4.6027505397796631e-01" purity="4.5639273524284363e-01" nType="-99"/>
          <Node pos="r" depth="2" NCoef="0" IVar="-1" Cut="0.0000000000000000e+00" cType="1" res="-1.7971619672607630e-04" rms="4.5251128077507019e-01" purity="5.7434982061386108e-01" nType="-99"/>
        </Node>
      </Node>
    </BinaryTree>
    <BinaryTree type="DecisionTree" boostWeight="1.0000000000000000e+00" itree="847">
      <Node pos="s" depth="0" NCoef="0" IVar="6" Cut="1.7153422832489014e+00" cType="1" res="-2.1595351863652468e-03" rms="4.5253470540046692e-01" purity="4.9745190143585205e-01" nType="0">
        <Node pos="l" depth="1" NCoef="0" IVar="4" Cut="7.0725860595703125e+01" cType="1" res="-2.4325093254446983e-02" rms="4.3061557412147522e-01" purity="2.9041135311126709e-01" nType="0">
          <Node pos="l" depth="2" NCoef="0" IVar="-1" Cut="0.0000000000000000e+00" cType="1" res="-2.0614438690245152e-03" rms="4.0402418375015259e-01" purity="2.3729923367500305e-01" nType="-99"/>
          <Node pos="r" depth="2" NCoef="0" IVar="-1" Cut="0.0000000000000000e+00" cType="1" res="-3.1011528335511684e-04" rms="4.5897215604782104e-01" purity="3.5197693109512329e-01" nType="-99"/>
        </Node>
        <Node pos="r" depth="1" NCoef="0" IVar="3" Cut="4.8065304756164551e-01" cType="1" res="4.2228382080793381e-03" rms="4.5845326781272888e-01" purity="5.5706739425659180e-01" nType="0">
          <Node pos="l" depth="2" NCoef="0" IVar="-1" Cut="0.0000000000000000e+00" cType="1" res="5.3611234761774540e-04" rms="4.6536138653755188e-01" purity="5.1531881093978882e-01" nType="-99"/>
          <Node pos="r" depth="2" NCoef="0" IVar="-1" Cut="0.0000000000000000e+00" cType="1" res="-2.9872727463953197e-04" rms="4.5051020383834839e-01" purity="6.0162234306335449e-01" nType="-99"/>
        </Node>
      </Node>
    </BinaryTree>
    <BinaryTree type="DecisionTree" boostWeight="1.0000000000000000e+00" itree="848">
      <Node pos="s" depth="0" NCoef="0" IVar="3" Cut="4.0321889519691467e-01" cType="1" res="2.9638442210853100e-03" rms="4.5431634783744812e-01" purity="5.0170856714248657e-01" nType="0">
        <Node pos="l" depth="1" NCoef="0" IVar="5" Cut="2.1898527145385742e+00" cType="1" res="1.0929906740784645e-02" rms="4.5650738477706909e-01" purity="4.3623748421669006e-01" nType="0">
          <Node pos="l" depth="2" NCoef="0" IVar="-1" Cut="0.0000000000000000e+00" cType="1" res="7.7996705658733845e-04" rms="4.6284651756286621e-01" purity="5.1201611757278442e-01" nType="-99"/>
          <Node pos="r" depth="2" NCoef="0" IVar="-1" Cut="0.0000000000000000e+00" cType="1" res="-1.0674045915948227e-04" rms="4.5015281438827515e-01" purity="3.6636185646057129e-01" nType="-99"/>
        </Node>
        <Node pos="r" depth="1" NCoef="0" IVar="6" Cut="4.1197924613952637e+00" cType="1" res="-6.5983417443931103e-03" rms="4.5148670673370361e-01" purity="5.8029770851135254e-01" nType="0">
          <Node pos="l" depth="2" NCoef="0" IVar="-1" Cut="0.0000000000000000e+00" cType="1" res="-7.1530713466927409e-04" rms="4.7110110521316528e-01" purity="4.6132498979568481e-01" nType="-99"/>
          <Node pos="r" depth="2" NCoef="0" IVar="-1" Cut="0.0000000000000000e+00" cType="1" res="4.1154166683554649e-04" rms="4.2426517605781555e-01" purity="7.3168963193893433e-01" nType="-99"/>
        </Node>
      </Node>
    </BinaryTree>
    <BinaryTree type="DecisionTree" boostWeight="1.0000000000000000e+00" itree="849">
      <Node pos="s" depth="0" NCoef="0" IVar="8" Cut="1.2874647521972656e+02" cType="1" res="2.2058119066059589e-03" rms="4.5393455028533936e-01" purity="5.0046753883361816e-01" nType="0">
        <Node pos="l" depth="1" NCoef="0" IVar="8" Cut="8.6915412902832031e+01" cType="1" res="1.1436102911829948e-02" rms="4.5140168070793152e-01" purity="5.0565540790557861e-01" nType="0">
          <Node pos="l" depth="2" NCoef="0" IVar="-1" Cut="0.0000000000000000e+00" cType="1" res="-1.1339692864567041e-03" rms="4.5487824082374573e-01" purity="4.0404555201530457e-01" nType="-99"/>
          <Node pos="r" depth="2" NCoef="0" IVar="-1" Cut="0.0000000000000000e+00" cType="1" res="5.3882389329373837e-04" rms="4.5060721039772034e-01" purity="5.1938539743423462e-01" nType="-99"/>
        </Node>
        <Node pos="r" depth="1" NCoef="0" IVar="1" Cut="4.1609939575195312e+02" cType="1" res="-1.2588614597916603e-02" rms="4.5757681131362915e-01" purity="4.9215245246887207e-01" nType="0">
          <Node pos="l" depth="2" NCoef="0" IVar="-1" Cut="0.0000000000000000e+00" cType="1" res="6.8541901418939233e-04" rms="4.4003579020500183e-01" purity="3.4188631176948547e-01" nType="-99"/>
          <Node pos="r" depth="2" NCoef="0" IVar="-1" Cut="0.0000000000000000e+00" cType="1" res="-5.4786237888038158e-04" rms="4.6035221219062805e-01" purity="5.1806569099426270e-01" nType="-99"/>
        </Node>
      </Node>
    </BinaryTree>
    <BinaryTree type="DecisionTree" boostWeight="1.0000000000000000e+00" itree="850">
      <Node pos="s" depth="0" NCoef="0" IVar="4" Cut="7.4504600524902344e+01" cType="1" res="1.1422720272094011e-03" rms="4.5171767473220825e-01" purity="5.0140243768692017e-01" nType="0">
        <Node pos="l" depth="1" NCoef="0" IVar="7" Cut="8.5736043751239777e-02" cType="1" res="-1.0821766220033169e-02" rms="4.4643551111221313e-01" purity="4.5237967371940613e-01" nType="0">
          <Node pos="l" depth="2" NCoef="0" IVar="-1" Cut="0.0000000000000000e+00" cType="1" res="-9.3772105174139142e-04" rms="4.4184786081314087e-01" purity="4.1487932205200195e-01" nType="-99"/>
          <Node pos="r" depth="2" NCoef="0" IVar="-1" Cut="0.0000000000000000e+00" cType="1" res="7.5377116445451975e-04" rms="4.5526954531669617e-01" purity="5.4278123378753662e-01" nType="-99"/>
        </Node>
        <Node pos="r" depth="1" NCoef="0" IVar="8" Cut="1.4765182495117188e+02" cType="1" res="1.5865217894315720e-02" rms="4.5770531892776489e-01" purity="5.6172990798950195e-01" nType="0">
          <Node pos="l" depth="2" NCoef="0" IVar="-1" Cut="0.0000000000000000e+00" cType="1" res="6.7080074222758412e-04" rms="4.5768621563911438e-01" purity="5.6857097148895264e-01" nType="-99"/>
          <Node pos="r" depth="2" NCoef="0" IVar="-1" Cut="0.0000000000000000e+00" cType="1" res="-5.3576519712805748e-04" rms="4.5634922385215759e-01" purity="5.3018772602081299e-01" nType="-99"/>
        </Node>
      </Node>
    </BinaryTree>
    <BinaryTree type="DecisionTree" boostWeight="1.0000000000000000e+00" itree="851">
      <Node pos="s" depth="0" NCoef="0" IVar="1" Cut="9.1526324462890625e+02" cType="1" res="1.8183770589530468e-04" rms="4.5190057158470154e-01" purity="4.9871039390563965e-01" nType="0">
        <Node pos="l" depth="1" NCoef="0" IVar="6" Cut="1.7153422832489014e+00" cType="1" res="-3.1101838685572147e-03" rms="4.5213007926940918e-01" purity="4.8570626974105835e-01" nType="0">
          <Node pos="l" depth="2" NCoef="0" IVar="-1" Cut="0.0000000000000000e+00" cType="1" res="-1.2426904868334532e-03" rms="4.2828336358070374e-01" purity="2.7885982394218445e-01" nType="-99"/>
          <Node pos="r" depth="2" NCoef="0" IVar="-1" Cut="0.0000000000000000e+00" cType="1" res="1.1132485815323889e-04" rms="4.5869386196136475e-01" purity="5.4665112495422363e-01" nType="-99"/>
        </Node>
        <Node pos="r" depth="1" NCoef="0" IVar="-1" Cut="0.0000000000000000e+00" cType="1" res="1.2195904273539782e-03" rms="4.4645622372627258e-01" purity="6.7345887422561646e-01" nType="-99"/>
      </Node>
    </BinaryTree>
    <BinaryTree type="DecisionTree" boostWeight="1.0000000000000000e+00" itree="852">
      <Node pos="s" depth="0" NCoef="0" IVar="6" Cut="8.3827525377273560e-01" cType="1" res="1.0713133960962296e-03" rms="4.5282864570617676e-01" purity="4.9872857332229614e-01" nType="0">
        <Node pos="l" depth="1" NCoef="0" IVar="-1" Cut="0.0000000000000000e+00" cType="1" res="-2.2336526308208704e-03" rms="4.1242757439613342e-01" purity="2.3749448359012604e-01" nType="-99"/>
        <Node pos="r" depth="1" NCoef="0" IVar="7" Cut="1.7116117477416992e-01" cType="1" res="3.3779672812670469e-03" rms="4.5483133196830750e-01" purity="5.1307636499404907e-01" nType="0">
          <Node pos="l" depth="2" NCoef="0" IVar="-1" Cut="0.0000000000000000e+00" cType="1" res="-7.5048865255666897e-06" rms="4.5570999383926392e-01" purity="4.9618485569953918e-01" nType="-99"/>
          <Node pos="r" depth="2" NCoef="0" IVar="-1" Cut="0.0000000000000000e+00" cType="1" res="6.7884626332670450e-04" rms="4.4931486248970032e-01" purity="6.0810148715972900e-01" nType="-99"/>
        </Node>
      </Node>
    </BinaryTree>
    <BinaryTree type="DecisionTree" boostWeight="1.0000000000000000e+00" itree="853">
      <Node pos="s" depth="0" NCoef="0" IVar="6" Cut="1.2232518196105957e+00" cType="1" res="8.5726607358083129e-04" rms="4.5401632785797119e-01" purity="4.9973908066749573e-01" nType="0">
        <Node pos="l" depth="1" NCoef="0" IVar="0" Cut="1.0940798521041870e+00" cType="1" res="-2.8699198737740517e-02" rms="4.1845995187759399e-01" purity="2.5660023093223572e-01" nType="0">
          <Node pos="l" depth="2" NCoef="0" IVar="-1" Cut="0.0000000000000000e+00" cType="1" res="-2.3716350551694632e-03" rms="4.1960138082504272e-01" purity="2.6300415396690369e-01" nType="-99"/>
          <Node pos="r" depth="2" NCoef="0" IVar="-1" Cut="0.0000000000000000e+00" cType="1" res="-5.3450959967449307e-04" rms="4.1645106673240662e-01" purity="2.5017103552818298e-01" nType="-99"/>
        </Node>
        <Node pos="r" depth="1" NCoef="0" IVar="3" Cut="2.6774692535400391e-01" cType="1" res="4.5969490893185139e-03" rms="4.5818275213241577e-01" purity="5.3050267696380615e-01" nType="0">
          <Node pos="l" depth="2" NCoef="0" IVar="-1" Cut="0.0000000000000000e+00" cType="1" res="8.5919542470946908e-04" rms="4.6525233983993530e-01" purity="4.8914077877998352e-01" nType="-99"/>
          <Node pos="r" depth="2" NCoef="0" IVar="-1" Cut="0.0000000000000000e+00" cType="1" res="-1.1742256174329668e-04" rms="4.5517337322235107e-01" purity="5.4625499248504639e-01" nType="-99"/>
        </Node>
      </Node>
    </BinaryTree>
    <BinaryTree type="DecisionTree" boostWeight="1.0000000000000000e+00" itree="854">
      <Node pos="s" depth="0" NCoef="0" IVar="3" Cut="2.2903673350811005e-01" cType="1" res="2.4311107117682695e-03" rms="4.5601221919059753e-01" purity="4.9725148081779480e-01" nType="0">
        <Node pos="l" depth="1" NCoef="0" IVar="6" Cut="1.4036922454833984e+00" cType="1" res="2.1569900214672089e-02" rms="4.5697128772735596e-01" purity="4.2933300137519836e-01" nType="0">
          <Node pos="l" depth="2" NCoef="0" IVar="-1" Cut="0.0000000000000000e+00" cType="1" res="1.9925202650483698e-04" rms="4.4486209750175476e-01" purity="3.0743449926376343e-01" nType="-99"/>
          <Node pos="r" depth="2" NCoef="0" IVar="-1" Cut="0.0000000000000000e+00" cType="1" res="1.0763461468741298e-03" rms="4.6596950292587280e-01" purity="5.2681523561477661e-01" nType="-99"/>
        </Node>
        <Node pos="r" depth="1" NCoef="0" IVar="6" Cut="2.8911468982696533e+00" cType="1" res="-5.2575105801224709e-03" rms="4.5539996027946472e-01" purity="5.2453637123107910e-01" nType="0">
          <Node pos="l" depth="2" NCoef="0" IVar="-1" Cut="0.0000000000000000e+00" cType="1" res="-9.4307959079742432e-04" rms="4.5426237583160400e-01" purity="3.5151696205139160e-01" nType="-99"/>
          <Node pos="r" depth="2" NCoef="0" IVar="-1" Cut="0.0000000000000000e+00" cType="1" res="2.0853134628850967e-04" rms="4.5566469430923462e-01" purity="6.3562774658203125e-01" nType="-99"/>
        </Node>
      </Node>
    </BinaryTree>
    <BinaryTree type="DecisionTree" boostWeight="1.0000000000000000e+00" itree="855">
      <Node pos="s" depth="0" NCoef="0" IVar="2" Cut="9.9436300992965698e-01" cType="1" res="2.1186515223234892e-03" rms="4.5415517687797546e-01" purity="5.0075858831405640e-01" nType="0">
        <Node pos="l" depth="1" NCoef="0" IVar="3" Cut="5.3867089748382568e-01" cType="1" res="8.8110966607928276e-03" rms="4.5688995718955994e-01" purity="5.2911651134490967e-01" nType="0">
          <Node pos="l" depth="2" NCoef="0" IVar="-1" Cut="0.0000000000000000e+00" cType="1" res="5.8864697348326445e-04" rms="4.6112024784088135e-01" purity="4.7845438122749329e-01" nType="-99"/>
          <Node pos="r" depth="2" NCoef="0" IVar="-1" Cut="0.0000000000000000e+00" cType="1" res="-3.1377517734654248e-04" rms="4.4724258780479431e-01" purity="6.3539111614227295e-01" nType="-99"/>
        </Node>
        <Node pos="r" depth="1" NCoef="0" IVar="1" Cut="6.0092602539062500e+02" cType="1" res="-1.8805626779794693e-02" rms="4.4484743475914001e-01" purity="4.1209587454795837e-01" nType="0">
          <Node pos="l" depth="2" NCoef="0" IVar="-1" Cut="0.0000000000000000e+00" cType="1" res="-1.1196879204362631e-03" rms="4.3520963191986084e-01" purity="3.5718470811843872e-01" nType="-99"/>
          <Node pos="r" depth="2" NCoef="0" IVar="-1" Cut="0.0000000000000000e+00" cType="1" res="9.3169153842609376e-05" rms="4.6458786725997925e-01" purity="5.3284144401550293e-01" nType="-99"/>
        </Node>
      </Node>
    </BinaryTree>
    <BinaryTree type="DecisionTree" boostWeight="1.0000000000000000e+00" itree="856">
      <Node pos="s" depth="0" NCoef="0" IVar="6" Cut="2.2328460216522217e+00" cType="1" res="5.3016361780464649e-03" rms="4.5132637023925781e-01" purity="5.0502556562423706e-01" nType="0">
        <Node pos="l" depth="1" NCoef="0" IVar="0" Cut="7.6912313699722290e-01" cType="1" res="-1.0792716406285763e-02" rms="4.4492414593696594e-01" purity="3.2890820503234863e-01" nType="0">
          <Node pos="l" depth="2" NCoef="0" IVar="-1" Cut="0.0000000000000000e+00" cType="1" res="3.6490507773123682e-04" rms="4.6402791142463684e-01" purity="3.9348149299621582e-01" nType="-99"/>
          <Node pos="r" depth="2" NCoef="0" IVar="-1" Cut="0.0000000000000000e+00" cType="1" res="-7.2786380769684911e-04" rms="4.3911853432655334e-01" purity="3.1042551994323730e-01" nType="-99"/>
        </Node>
        <Node pos="r" depth="1" NCoef="0" IVar="7" Cut="-7.7416226267814636e-02" cType="1" res="1.4409271068871021e-02" rms="4.5465704798698425e-01" purity="6.0468858480453491e-01" nType="0">
          <Node pos="l" depth="2" NCoef="0" IVar="-1" Cut="0.0000000000000000e+00" cType="1" res="-3.7797351251356304e-04" rms="4.6033039689064026e-01" purity="5.0805908441543579e-01" nType="-99"/>
          <Node pos="r" depth="2" NCoef="0" IVar="-1" Cut="0.0000000000000000e+00" cType="1" res="5.8131723199039698e-04" rms="4.5297285914421082e-01" purity="6.2896990776062012e-01" nType="-99"/>
        </Node>
      </Node>
    </BinaryTree>
    <BinaryTree type="DecisionTree" boostWeight="1.0000000000000000e+00" itree="857">
      <Node pos="s" depth="0" NCoef="0" IVar="0" Cut="7.1611076593399048e-01" cType="1" res="8.2049155607819557e-03" rms="4.5381128787994385e-01" purity="5.0620746612548828e-01" nType="0">
        <Node pos="l" depth="1" NCoef="0" IVar="4" Cut="5.3299957275390625e+01" cType="1" res="3.3030178397893906e-02" rms="4.5463421940803528e-01" purity="5.8196598291397095e-01" nType="0">
          <Node pos="l" depth="2" NCoef="0" IVar="-1" Cut="0.0000000000000000e+00" cType="1" res="1.0658873361535370e-04" rms="4.6490648388862610e-01" purity="4.9907118082046509e-01" nType="-99"/>
          <Node pos="r" depth="2" NCoef="0" IVar="-1" Cut="0.0000000000000000e+00" cType="1" res="1.3057910837233067e-03" rms="4.4889867305755615e-01" purity="6.2191301584243774e-01" nType="-99"/>
        </Node>
        <Node pos="r" depth="1" NCoef="0" IVar="9" Cut="1.5815653991699219e+02" cType="1" res="2.6041686069220304e-03" rms="4.5343756675720215e-01" purity="4.8911589384078979e-01" nType="0">
          <Node pos="l" depth="2" NCoef="0" IVar="-1" Cut="0.0000000000000000e+00" cType="1" res="-4.6040408051339909e-05" rms="4.5271956920623779e-01" purity="4.8284345865249634e-01" nType="-99"/>
          <Node pos="r" depth="2" NCoef="0" IVar="-1" Cut="0.0000000000000000e+00" cType="1" res="9.7749661654233932e-04" rms="4.5751067996025085e-01" purity="5.3395229578018188e-01" nType="-99"/>
        </Node>
      </Node>
    </BinaryTree>
    <BinaryTree type="DecisionTree" boostWeight="1.0000000000000000e+00" itree="858">
      <Node pos="s" depth="0" NCoef="0" IVar="6" Cut="3.4472954273223877e+00" cType="1" res="3.1740907579660416e-03" rms="4.5266923308372498e-01" purity="5.0175738334655762e-01" nType="0">
        <Node pos="l" depth="1" NCoef="0" IVar="3" Cut="5.3000313043594360e-01" cType="1" res="-4.4070067815482616e-03" rms="4.5947599411010742e-01" purity="4.0453967452049255e-01" nType="0">
          <Node pos="l" depth="2" NCoef="0" IVar="-1" Cut="0.0000000000000000e+00" cType="1" res="4.0295184589922428e-05" rms="4.5862734317779541e-01" purity="4.0636542439460754e-01" nType="-99"/>
          <Node pos="r" depth="2" NCoef="0" IVar="-1" Cut="0.0000000000000000e+00" cType="1" res="-1.5932131791487336e-03" rms="4.6382999420166016e-01" purity="3.8993954658508301e-01" nType="-99"/>
        </Node>
        <Node pos="r" depth="1" NCoef="0" IVar="3" Cut="5.9677994251251221e-01" cType="1" res="1.7814019694924355e-02" rms="4.3885573744773865e-01" purity="6.8949538469314575e-01" nType="0">
          <Node pos="l" depth="2" NCoef="0" IVar="-1" Cut="0.0000000000000000e+00" cType="1" res="1.3228015741333365e-03" rms="4.3828448653221130e-01" purity="7.0928007364273071e-01" nType="-99"/>
          <Node pos="r" depth="2" NCoef="0" IVar="-1" Cut="0.0000000000000000e+00" cType="1" res="6.3074956415221095e-05" rms="4.3825501203536987e-01" purity="6.8027162551879883e-01" nType="-99"/>
        </Node>
      </Node>
    </BinaryTree>
    <BinaryTree type="DecisionTree" boostWeight="1.0000000000000000e+00" itree="859">
      <Node pos="s" depth="0" NCoef="0" IVar="3" Cut="2.2903673350811005e-01" cType="1" res="3.6323739914223552e-04" rms="4.5303127169609070e-01" purity="5.0020247697830200e-01" nType="0">
        <Node pos="l" depth="1" NCoef="0" IVar="6" Cut="1.6571459770202637e+00" cType="1" res="1.7121916636824608e-02" rms="4.5395457744598389e-01" purity="4.2757669091224670e-01" nType="0">
          <Node pos="l" depth="2" NCoef="0" IVar="-1" Cut="0.0000000000000000e+00" cType="1" res="-7.8981702245073393e-06" rms="4.4513219594955444e-01" purity="3.2230812311172485e-01" nType="-99"/>
          <Node pos="r" depth="2" NCoef="0" IVar="-1" Cut="0.0000000000000000e+00" cType="1" res="1.1262543266639113e-03" rms="4.6369758248329163e-01" purity="5.5713838338851929e-01" nType="-99"/>
        </Node>
        <Node pos="r" depth="1" NCoef="0" IVar="6" Cut="3.0839214324951172e+00" cType="1" res="-6.2665212899446487e-03" rms="4.5249417424201965e-01" purity="5.2893334627151489e-01" nType="0">
          <Node pos="l" depth="2" NCoef="0" IVar="-1" Cut="0.0000000000000000e+00" cType="1" res="-7.7479094034060836e-04" rms="4.5893567800521851e-01" purity="3.7038117647171021e-01" nType="-99"/>
          <Node pos="r" depth="2" NCoef="0" IVar="-1" Cut="0.0000000000000000e+00" cType="1" res="1.5624100342392921e-04" rms="4.4704172015190125e-01" purity="6.5258765220642090e-01" nType="-99"/>
        </Node>
      </Node>
    </BinaryTree>
    <BinaryTree type="DecisionTree" boostWeight="1.0000000000000000e+00" itree="860">
      <Node pos="s" depth="0" NCoef="0" IVar="8" Cut="1.3719209289550781e+02" cType="1" res="8.9682865655049682e-04" rms="4.5401445031166077e-01" purity="4.9937331676483154e-01" nType="0">
        <Node pos="l" depth="1" NCoef="0" IVar="0" Cut="1.3138898611068726e+00" cType="1" res="7.7658109366893768e-03" rms="4.5256537199020386e-01" purity="5.0401020050048828e-01" nType="0">
          <Node pos="l" depth="2" NCoef="0" IVar="-1" Cut="0.0000000000000000e+00" cType="1" res="4.7260706196539104e-04" rms="4.5554605126380920e-01" purity="5.3151166439056396e-01" nType="-99"/>
          <Node pos="r" depth="2" NCoef="0" IVar="-1" Cut="0.0000000000000000e+00" cType="1" res="-3.4474648418836296e-04" rms="4.4504421949386597e-01" purity="4.4000262022018433e-01" nType="-99"/>
        </Node>
        <Node pos="r" depth="1" NCoef="0" IVar="7" Cut="-1.0062462650239468e-02" cType="1" res="-1.7720526084303856e-02" rms="4.5740053057670593e-01" purity="4.8680567741394043e-01" nType="0">
          <Node pos="l" depth="2" NCoef="0" IVar="-1" Cut="0.0000000000000000e+00" cType="1" res="-1.2908711796626449e-03" rms="4.5297497510910034e-01" purity="4.2880502343177795e-01" nType="-99"/>
          <Node pos="r" depth="2" NCoef="0" IVar="-1" Cut="0.0000000000000000e+00" cType="1" res="-4.7064140744623728e-06" rms="4.6090862154960632e-01" purity="5.4227048158645630e-01" nType="-99"/>
        </Node>
      </Node>
    </BinaryTree>
    <BinaryTree type="DecisionTree" boostWeight="1.0000000000000000e+00" itree="861">
      <Node pos="s" depth="0" NCoef="0" IVar="9" Cut="1.9092633056640625e+02" cType="1" res="-2.3202255833894014e-03" rms="4.5443886518478394e-01" purity="4.9640867114067078e-01" nType="0">
        <Node pos="l" depth="1" NCoef="0" IVar="6" Cut="4.9306001663208008e+00" cType="1" res="-4.8710997216403484e-03" rms="4.5396941900253296e-01" purity="4.9294069409370422e-01" nType="0">
          <Node pos="l" depth="2" NCoef="0" IVar="-1" Cut="0.0000000000000000e+00" cType="1" res="-2.5784212630242109e-04" rms="4.5990350842475891e-01" purity="4.6042692661285400e-01" nType="-99"/>
          <Node pos="r" depth="2" NCoef="0" IVar="-1" Cut="0.0000000000000000e+00" cType="1" res="6.5638025989755988e-04" rms="3.9498665928840637e-01" purity="7.8816807270050049e-01" nType="-99"/>
        </Node>
        <Node pos="r" depth="1" NCoef="0" IVar="-1" Cut="0.0000000000000000e+00" cType="1" res="1.0036809835582972e-03" rms="4.5938384532928467e-01" purity="5.4372936487197876e-01" nType="-99"/>
      </Node>
    </BinaryTree>
    <BinaryTree type="DecisionTree" boostWeight="1.0000000000000000e+00" itree="862">
      <Node pos="s" depth="0" NCoef="0" IVar="3" Cut="5.5803209543228149e-01" cType="1" res="4.2482330463826656e-03" rms="4.5565414428710938e-01" purity="5.0128626823425293e-01" nType="0">
        <Node pos="l" depth="1" NCoef="0" IVar="6" Cut="2.2781054973602295e+00" cType="1" res="1.1542396619915962e-02" rms="4.5704248547554016e-01" purity="4.5036882162094116e-01" nType="0">
          <Node pos="l" depth="2" NCoef="0" IVar="-1" Cut="0.0000000000000000e+00" cType="1" res="-2.4071997904684395e-04" rms="4.4915401935577393e-01" purity="3.3658266067504883e-01" nType="-99"/>
          <Node pos="r" depth="2" NCoef="0" IVar="-1" Cut="0.0000000000000000e+00" cType="1" res="8.8018155656754971e-04" rms="4.6509125828742981e-01" purity="5.8034098148345947e-01" nType="-99"/>
        </Node>
        <Node pos="r" depth="1" NCoef="0" IVar="6" Cut="4.9652733802795410e+00" cType="1" res="-1.2830581516027451e-02" rms="4.5192646980285645e-01" purity="6.2050628662109375e-01" nType="0">
          <Node pos="l" depth="2" NCoef="0" IVar="-1" Cut="0.0000000000000000e+00" cType="1" res="-6.6284305648878217e-04" rms="4.7061139345169067e-01" purity="5.5361986160278320e-01" nType="-99"/>
          <Node pos="r" depth="2" NCoef="0" IVar="-1" Cut="0.0000000000000000e+00" cType="1" res="3.7812517257407308e-04" rms="4.0295615792274475e-01" purity="7.7933037281036377e-01" nType="-99"/>
        </Node>
      </Node>
    </BinaryTree>
    <BinaryTree type="DecisionTree" boostWeight="1.0000000000000000e+00" itree="863">
      <Node pos="s" depth="0" NCoef="0" IVar="3" Cut="2.2903497517108917e-01" cType="1" res="-2.9477714560925961e-03" rms="4.5435604453086853e-01" purity="4.9512127041816711e-01" nType="0">
        <Node pos="l" depth="1" NCoef="0" IVar="6" Cut="1.1567045450210571e+00" cType="1" res="1.8775116652250290e-02" rms="4.5692783594131470e-01" purity="4.2772626876831055e-01" nType="0">
          <Node pos="l" depth="2" NCoef="0" IVar="-1" Cut="0.0000000000000000e+00" cType="1" res="-4.0883416659198701e-04" rms="4.3078392744064331e-01" purity="2.8041502833366394e-01" nType="-99"/>
          <Node pos="r" depth="2" NCoef="0" IVar="-1" Cut="0.0000000000000000e+00" cType="1" res="1.0152832837775350e-03" rms="4.6845760941505432e-01" purity="4.9877065420150757e-01" nType="-99"/>
        </Node>
        <Node pos="r" depth="1" NCoef="0" IVar="6" Cut="1.7233366966247559e+00" cType="1" res="-1.1593092232942581e-02" rms="4.5303878188133240e-01" purity="5.2194327116012573e-01" nType="0">
          <Node pos="l" depth="2" NCoef="0" IVar="-1" Cut="0.0000000000000000e+00" cType="1" res="-2.5977857876569033e-03" rms="4.0572604537010193e-01" purity="2.3463594913482666e-01" nType="-99"/>
          <Node pos="r" depth="2" NCoef="0" IVar="-1" Cut="0.0000000000000000e+00" cType="1" res="-2.2837218421045691e-04" rms="4.5721542835235596e-01" purity="5.5005377531051636e-01" nType="-99"/>
        </Node>
      </Node>
    </BinaryTree>
    <BinaryTree type="DecisionTree" boostWeight="1.0000000000000000e+00" itree="864">
      <Node pos="s" depth="0" NCoef="0" IVar="8" Cut="1.1013850402832031e+02" cType="1" res="-6.6719052847474813e-04" rms="4.5197072625160217e-01" purity="4.9743595719337463e-01" nType="0">
        <Node pos="l" depth="1" NCoef="0" IVar="7" Cut="-3.9742592722177505e-02" cType="1" res="-2.0185759291052818e-02" rms="4.5266297459602356e-01" purity="4.4708558917045593e-01" nType="0">
          <Node pos="l" depth="2" NCoef="0" IVar="-1" Cut="0.0000000000000000e+00" cType="1" res="-1.4456475619226694e-03" rms="4.3999183177947998e-01" purity="3.8412398099899292e-01" nType="-99"/>
          <Node pos="r" depth="2" NCoef="0" IVar="-1" Cut="0.0000000000000000e+00" cType="1" res="-3.2780726905912161e-04" rms="4.5919650793075562e-01" purity="4.8183679580688477e-01" nType="-99"/>
        </Node>
        <Node pos="r" depth="1" NCoef="0" IVar="1" Cut="4.0518820190429688e+02" cType="1" res="6.4439615234732628e-03" rms="4.5150858163833618e-01" purity="5.1577991247177124e-01" nType="0">
          <Node pos="l" depth="2" NCoef="0" IVar="-1" Cut="0.0000000000000000e+00" cType="1" res="-1.1983292642980814e-03" rms="4.2043507099151611e-01" purity="3.0419209599494934e-01" nType="-99"/>
          <Node pos="r" depth="2" NCoef="0" IVar="-1" Cut="0.0000000000000000e+00" cType="1" res="3.6188869853504002e-04" rms="4.5626068115234375e-01" purity="5.5117225646972656e-01" nType="-99"/>
        </Node>
      </Node>
    </BinaryTree>
    <BinaryTree type="DecisionTree" boostWeight="1.0000000000000000e+00" itree="865">
      <Node pos="s" depth="0" NCoef="0" IVar="2" Cut="4.3418100476264954e-01" cType="1" res="3.1107333488762379e-03" rms="4.5348039269447327e-01" purity="5.0160825252532959e-01" nType="0">
        <Node pos="l" depth="1" NCoef="0" IVar="-1" Cut="0.0000000000000000e+00" cType="1" res="1.0033317375928164e-03" rms="4.5238438248634338e-01" purity="6.0639142990112305e-01" nType="-99"/>
        <Node pos="r" depth="1" NCoef="0" IVar="4" Cut="4.5116897583007812e+01" cType="1" res="-9.6431729616597295e-04" rms="4.5345667004585266e-01" purity="4.8831239342689514e-01" nType="0">
          <Node pos="l" depth="2" NCoef="0" IVar="-1" Cut="0.0000000000000000e+00" cType="1" res="-6.8489863770082593e-04" rms="4.4788265228271484e-01" purity="4.1467532515525818e-01" nType="-99"/>
          <Node pos="r" depth="2" NCoef="0" IVar="-1" Cut="0.0000000000000000e+00" cType="1" res="1.8483794701751322e-04" rms="4.5536488294601440e-01" purity="5.1625555753707886e-01" nType="-99"/>
        </Node>
      </Node>
    </BinaryTree>
    <BinaryTree type="DecisionTree" boostWeight="1.0000000000000000e+00" itree="866">
      <Node pos="s" depth="0" NCoef="0" IVar="5" Cut="1.6527448892593384e+00" cType="1" res="9.6497527556493878e-04" rms="4.5266103744506836e-01" purity="4.9987727403640747e-01" nType="0">
        <Node pos="l" depth="1" NCoef="0" IVar="8" Cut="1.1283862304687500e+02" cType="1" res="4.2128883302211761e-02" rms="4.4628778100013733e-01" purity="6.2809306383132935e-01" nType="0">
          <Node pos="l" depth="2" NCoef="0" IVar="-1" Cut="0.0000000000000000e+00" cType="1" res="6.5153994364663959e-04" rms="4.5963296294212341e-01" purity="5.5483269691467285e-01" nType="-99"/>
          <Node pos="r" depth="2" NCoef="0" IVar="-1" Cut="0.0000000000000000e+00" cType="1" res="1.5527489595115185e-03" rms="4.3421715497970581e-01" purity="6.8902808427810669e-01" nType="-99"/>
        </Node>
        <Node pos="r" depth="1" NCoef="0" IVar="1" Cut="7.7440185546875000e+02" cType="1" res="-4.7862385399639606e-03" rms="4.5324677228927612e-01" purity="4.8196357488632202e-01" nType="0">
          <Node pos="l" depth="2" NCoef="0" IVar="-1" Cut="0.0000000000000000e+00" cType="1" res="-2.9594145598821342e-04" rms="4.5263546705245972e-01" purity="4.5930990576744080e-01" nType="-99"/>
          <Node pos="r" depth="2" NCoef="0" IVar="-1" Cut="0.0000000000000000e+00" cType="1" res="6.1168096726760268e-04" rms="4.5628729462623596e-01" purity="6.2835818529129028e-01" nType="-99"/>
        </Node>
      </Node>
    </BinaryTree>
    <BinaryTree type="DecisionTree" boostWeight="1.0000000000000000e+00" itree="867">
      <Node pos="s" depth="0" NCoef="0" IVar="4" Cut="4.3189132690429688e+01" cType="1" res="5.0680744461715221e-03" rms="4.5425716042518616e-01" purity="5.0256520509719849e-01" nType="0">
        <Node pos="l" depth="1" NCoef="0" IVar="1" Cut="5.6216528320312500e+02" cType="1" res="-1.3385775499045849e-02" rms="4.4958662986755371e-01" purity="4.2923411726951599e-01" nType="0">
          <Node pos="l" depth="2" NCoef="0" IVar="-1" Cut="0.0000000000000000e+00" cType="1" res="-1.2038988643325865e-05" rms="4.4317594170570374e-01" purity="4.0111070871353149e-01" nType="-99"/>
          <Node pos="r" depth="2" NCoef="0" IVar="-1" Cut="0.0000000000000000e+00" cType="1" res="-1.5471877995878458e-03" rms="4.6457606554031372e-01" purity="5.0488471984863281e-01" nType="-99"/>
        </Node>
        <Node pos="r" depth="1" NCoef="0" IVar="5" Cut="2.5100286006927490e+00" cType="1" res="1.1379316449165344e-02" rms="4.5567205548286438e-01" purity="5.2764457464218140e-01" nType="0">
          <Node pos="l" depth="2" NCoef="0" IVar="-1" Cut="0.0000000000000000e+00" cType="1" res="4.9880368169397116e-04" rms="4.5800647139549255e-01" purity="5.6785982847213745e-01" nType="-99"/>
          <Node pos="r" depth="2" NCoef="0" IVar="-1" Cut="0.0000000000000000e+00" cType="1" res="-4.9447541823610663e-04" rms="4.4483458995819092e-01" purity="3.5691067576408386e-01" nType="-99"/>
        </Node>
      </Node>
    </BinaryTree>
    <BinaryTree type="DecisionTree" boostWeight="1.0000000000000000e+00" itree="868">
      <Node pos="s" depth="0" NCoef="0" IVar="5" Cut="2.8787455558776855e+00" cType="1" res="4.2226654477417469e-03" rms="4.5329713821411133e-01" purity="5.0388622283935547e-01" nType="0">
        <Node pos="l" depth="1" NCoef="0" IVar="9" Cut="4.2890583038330078e+01" cType="1" res="6.8790409713983536e-03" rms="4.5634987950325012e-01" purity="5.2023571729660034e-01" nType="0">
          <Node pos="l" depth="2" NCoef="0" IVar="-1" Cut="0.0000000000000000e+00" cType="1" res="-8.6447125067934394e-04" rms="4.5141324400901794e-01" purity="4.4214761257171631e-01" nType="-99"/>
          <Node pos="r" depth="2" NCoef="0" IVar="-1" Cut="0.0000000000000000e+00" cType="1" res="2.8446206124499440e-04" rms="4.5662108063697815e-01" purity="5.2601051330566406e-01" nType="-99"/>
        </Node>
        <Node pos="r" depth="1" NCoef="0" IVar="-1" Cut="0.0000000000000000e+00" cType="1" res="-2.4709806311875582e-03" rms="3.9232727885246277e-01" purity="2.1411918103694916e-01" nType="-99"/>
      </Node>
    </BinaryTree>
    <BinaryTree type="DecisionTree" boostWeight="1.0000000000000000e+00" itree="869">
      <Node pos="s" depth="0" NCoef="0" IVar="7" Cut="-1.1426540464162827e-01" cType="1" res="-1.3595990603789687e-03" rms="4.5260941982269287e-01" purity="4.9735391139984131e-01" nType="0">
        <Node pos="l" depth="1" NCoef="0" IVar="-1" Cut="0.0000000000000000e+00" cType="1" res="-1.7385487444698811e-03" rms="4.2513614892959595e-01" purity="3.5913845896720886e-01" nType="-99"/>
        <Node pos="r" depth="1" NCoef="0" IVar="5" Cut="1.6171860694885254e+00" cType="1" res="1.1463442351669073e-03" rms="4.5403429865837097e-01" purity="5.0541162490844727e-01" nType="0">
          <Node pos="l" depth="2" NCoef="0" IVar="-1" Cut="0.0000000000000000e+00" cType="1" res="7.1847531944513321e-04" rms="4.4548985362052917e-01" purity="6.2431156635284424e-01" nType="-99"/>
          <Node pos="r" depth="2" NCoef="0" IVar="-1" Cut="0.0000000000000000e+00" cType="1" res="-5.6998378568096086e-05" rms="4.5495012402534485e-01" purity="4.9129778146743774e-01" nType="-99"/>
        </Node>
      </Node>
    </BinaryTree>
    <BinaryTree type="DecisionTree" boostWeight="1.0000000000000000e+00" itree="870">
      <Node pos="s" depth="0" NCoef="0" IVar="2" Cut="1.2686647176742554e+00" cType="1" res="1.4057833468541503e-03" rms="4.5314672589302063e-01" purity="5.0214266777038574e-01" nType="0">
        <Node pos="l" depth="1" NCoef="0" IVar="5" Cut="1.9165153503417969e+00" cType="1" res="3.7251121830195189e-03" rms="4.5363876223564148e-01" purity="5.0956583023071289e-01" nType="0">
          <Node pos="l" depth="2" NCoef="0" IVar="-1" Cut="0.0000000000000000e+00" cType="1" res="6.2695628730580211e-04" rms="4.4751229882240295e-01" purity="6.0117840766906738e-01" nType="-99"/>
          <Node pos="r" depth="2" NCoef="0" IVar="-1" Cut="0.0000000000000000e+00" cType="1" res="-5.2475308621069416e-05" rms="4.5528724789619446e-01" purity="4.8262646794319153e-01" nType="-99"/>
        </Node>
        <Node pos="r" depth="1" NCoef="0" IVar="-1" Cut="0.0000000000000000e+00" cType="1" res="-1.4018213842064142e-03" rms="4.4282829761505127e-01" purity="3.7578409910202026e-01" nType="-99"/>
      </Node>
    </BinaryTree>
    <BinaryTree type="DecisionTree" boostWeight="1.0000000000000000e+00" itree="871">
      <Node pos="s" depth="0" NCoef="0" IVar="7" Cut="-1.1158420145511627e-01" cType="1" res="1.5860493294894695e-03" rms="4.5415002107620239e-01" purity="4.9860939383506775e-01" nType="0">
        <Node pos="l" depth="1" NCoef="0" IVar="-1" Cut="0.0000000000000000e+00" cType="1" res="-1.7949306638911366e-03" rms="4.3138575553894043e-01" purity="3.5290780663490295e-01" nType="-99"/>
        <Node pos="r" depth="1" NCoef="0" IVar="9" Cut="1.4665098571777344e+02" cType="1" res="4.7149020247161388e-03" rms="4.5547023415565491e-01" purity="5.0841170549392700e-01" nType="0">
          <Node pos="l" depth="2" NCoef="0" IVar="-1" Cut="0.0000000000000000e+00" cType="1" res="1.0194614333158825e-05" rms="4.5485618710517883e-01" purity="4.9918335676193237e-01" nType="-99"/>
          <Node pos="r" depth="2" NCoef="0" IVar="-1" Cut="0.0000000000000000e+00" cType="1" res="8.3605380496010184e-04" rms="4.5794281363487244e-01" purity="5.5570900440216064e-01" nType="-99"/>
        </Node>
      </Node>
    </BinaryTree>
    <BinaryTree type="DecisionTree" boostWeight="1.0000000000000000e+00" itree="872">
      <Node pos="s" depth="0" NCoef="0" IVar="5" Cut="2.0542876720428467e+00" cType="1" res="-8.7890942813828588e-04" rms="4.5382699370384216e-01" purity="4.9904569983482361e-01" nType="0">
        <Node pos="l" depth="1" NCoef="0" IVar="9" Cut="4.7599018096923828e+01" cType="1" res="1.8130263313651085e-02" rms="4.5336189866065979e-01" purity="5.8260416984558105e-01" nType="0">
          <Node pos="l" depth="2" NCoef="0" IVar="-1" Cut="0.0000000000000000e+00" cType="1" res="-4.5386009151116014e-04" rms="4.6805039048194885e-01" purity="4.8743054270744324e-01" nType="-99"/>
          <Node pos="r" depth="2" NCoef="0" IVar="-1" Cut="0.0000000000000000e+00" cType="1" res="7.5211247894912958e-04" rms="4.4915500283241272e-01" purity="6.0691291093826294e-01" nType="-99"/>
        </Node>
        <Node pos="r" depth="1" NCoef="0" IVar="0" Cut="6.2190401554107666e-01" cType="1" res="-9.3394862487912178e-03" rms="4.5377781987190247e-01" purity="4.6185564994812012e-01" nType="0">
          <Node pos="l" depth="2" NCoef="0" IVar="-1" Cut="0.0000000000000000e+00" cType="1" res="7.6449674088507891e-04" rms="4.6545889973640442e-01" purity="5.5125457048416138e-01" nType="-99"/>
          <Node pos="r" depth="2" NCoef="0" IVar="-1" Cut="0.0000000000000000e+00" cType="1" res="-4.5896111987531185e-04" rms="4.5220491290092468e-01" purity="4.5129898190498352e-01" nType="-99"/>
        </Node>
      </Node>
    </BinaryTree>
    <BinaryTree type="DecisionTree" boostWeight="1.0000000000000000e+00" itree="873">
      <Node pos="s" depth="0" NCoef="0" IVar="7" Cut="1.9410783052444458e-01" cType="1" res="3.7320205010473728e-03" rms="4.5388644933700562e-01" purity="5.0288683176040649e-01" nType="0">
        <Node pos="l" depth="1" NCoef="0" IVar="9" Cut="6.7221641540527344e+01" cType="1" res="2.5634208213887177e-05" rms="4.5358964800834656e-01" purity="4.8907235264778137e-01" nType="0">
          <Node pos="l" depth="2" NCoef="0" IVar="-1" Cut="0.0000000000000000e+00" cType="1" res="-5.5172509746626019e-04" rms="4.5407882332801819e-01" purity="4.5643261075019836e-01" nType="-99"/>
          <Node pos="r" depth="2" NCoef="0" IVar="-1" Cut="0.0000000000000000e+00" cType="1" res="1.5846376481931657e-04" rms="4.5332857966423035e-01" purity="4.9864894151687622e-01" nType="-99"/>
        </Node>
        <Node pos="r" depth="1" NCoef="0" IVar="1" Cut="4.9831219482421875e+02" cType="1" res="3.1710077077150345e-02" rms="4.5514786243438721e-01" purity="6.0716748237609863e-01" nType="0">
          <Node pos="l" depth="2" NCoef="0" IVar="-1" Cut="0.0000000000000000e+00" cType="1" res="1.4980777632445097e-03" rms="4.6143829822540283e-01" purity="5.4741585254669189e-01" nType="-99"/>
          <Node pos="r" depth="2" NCoef="0" IVar="-1" Cut="0.0000000000000000e+00" cType="1" res="3.6599396844394505e-04" rms="4.4868540763854980e-01" purity="6.6001784801483154e-01" nType="-99"/>
        </Node>
      </Node>
    </BinaryTree>
    <BinaryTree type="DecisionTree" boostWeight="1.0000000000000000e+00" itree="874">
      <Node pos="s" depth="0" NCoef="0" IVar="8" Cut="1.3749871826171875e+02" cType="1" res="-2.0638811402022839e-03" rms="4.5352351665496826e-01" purity="4.9726578593254089e-01" nType="0">
        <Node pos="l" depth="1" NCoef="0" IVar="6" Cut="1.2232518196105957e+00" cType="1" res="4.7021578066051006e-03" rms="4.5319083333015442e-01" purity="5.0215303897857666e-01" nType="0">
          <Node pos="l" depth="2" NCoef="0" IVar="-1" Cut="0.0000000000000000e+00" cType="1" res="-1.7788939876481891e-03" rms="4.1473388671875000e-01" purity="2.4941729009151459e-01" nType="-99"/>
          <Node pos="r" depth="2" NCoef="0" IVar="-1" Cut="0.0000000000000000e+00" cType="1" res="2.9415945755317807e-04" rms="4.5764651894569397e-01" purity="5.3455895185470581e-01" nType="-99"/>
        </Node>
        <Node pos="r" depth="1" NCoef="0" IVar="9" Cut="1.5144499206542969e+02" cType="1" res="-2.0977817475795746e-02" rms="4.5391744375228882e-01" purity="4.8360401391983032e-01" nType="0">
          <Node pos="l" depth="2" NCoef="0" IVar="-1" Cut="0.0000000000000000e+00" cType="1" res="-1.2140347389504313e-03" rms="4.5405897498130798e-01" purity="4.5334646105766296e-01" nType="-99"/>
          <Node pos="r" depth="2" NCoef="0" IVar="-1" Cut="0.0000000000000000e+00" cType="1" res="-1.3045446394244209e-05" rms="4.5291474461555481e-01" purity="5.2475357055664062e-01" nType="-99"/>
        </Node>
      </Node>
    </BinaryTree>
    <BinaryTree type="DecisionTree" boostWeight="1.0000000000000000e+00" itree="875">
      <Node pos="s" depth="0" NCoef="0" IVar="9" Cut="4.1648643493652344e+01" cType="1" res="1.9204786440241151e-05" rms="4.5272874832153320e-01" purity="4.9987676739692688e-01" nType="0">
        <Node pos="l" depth="1" NCoef="0" IVar="-1" Cut="0.0000000000000000e+00" cType="1" res="-1.4328223187476397e-03" rms="4.5538190007209778e-01" purity="4.2501166462898254e-01" nType="-99"/>
        <Node pos="r" depth="1" NCoef="0" IVar="6" Cut="3.9513447284698486e+00" cType="1" res="2.5387411005795002e-03" rms="4.5244467258453369e-01" purity="5.0441890954971313e-01" nType="0">
          <Node pos="l" depth="2" NCoef="0" IVar="-1" Cut="0.0000000000000000e+00" cType="1" res="-1.1427843855926767e-04" rms="4.6179836988449097e-01" purity="4.3062195181846619e-01" nType="-99"/>
          <Node pos="r" depth="2" NCoef="0" IVar="-1" Cut="0.0000000000000000e+00" cType="1" res="5.6490622228011489e-04" rms="4.2219933867454529e-01" purity="7.2897398471832275e-01" nType="-99"/>
        </Node>
      </Node>
    </BinaryTree>
    <BinaryTree type="DecisionTree" boostWeight="1.0000000000000000e+00" itree="876">
      <Node pos="s" depth="0" NCoef="0" IVar="9" Cut="4.1648643493652344e+01" cType="1" res="3.7643613759428263e-03" rms="4.5385938882827759e-01" purity="5.0185739994049072e-01" nType="0">
        <Node pos="l" depth="1" NCoef="0" IVar="-1" Cut="0.0000000000000000e+00" cType="1" res="-1.8317818176001310e-03" rms="4.5188015699386597e-01" purity="4.1185528039932251e-01" nType="-99"/>
        <Node pos="r" depth="1" NCoef="0" IVar="0" Cut="9.0479904413223267e-01" cType="1" res="7.2054192423820496e-03" rms="4.5375153422355652e-01" purity="5.0732392072677612e-01" nType="0">
          <Node pos="l" depth="2" NCoef="0" IVar="-1" Cut="0.0000000000000000e+00" cType="1" res="6.0719979228451848e-04" rms="4.5570352673530579e-01" purity="5.6313627958297729e-01" nType="-99"/>
          <Node pos="r" depth="2" NCoef="0" IVar="-1" Cut="0.0000000000000000e+00" cType="1" res="-1.5348441593232565e-05" rms="4.5243763923645020e-01" purity="4.7492820024490356e-01" nType="-99"/>
        </Node>
      </Node>
    </BinaryTree>
    <BinaryTree type="DecisionTree" boostWeight="1.0000000000000000e+00" itree="877">
      <Node pos="s" depth="0" NCoef="0" IVar="3" Cut="5.5806291103363037e-01" cType="1" res="1.5621348284184933e-03" rms="4.5464918017387390e-01" purity="4.9766579270362854e-01" nType="0">
        <Node pos="l" depth="1" NCoef="0" IVar="6" Cut="3.5431466102600098e+00" cType="1" res="8.5885385051369667e-03" rms="4.5591536164283752e-01" purity="4.4547572731971741e-01" nType="0">
          <Node pos="l" depth="2" NCoef="0" IVar="-1" Cut="0.0000000000000000e+00" cType="1" res="1.2977601727470756e-04" rms="4.5867365598678589e-01" purity="4.1086935997009277e-01" nType="-99"/>
          <Node pos="r" depth="2" NCoef="0" IVar="-1" Cut="0.0000000000000000e+00" cType="1" res="1.2153261341154575e-03" rms="4.3192800879478455e-01" purity="7.1488708257675171e-01" nType="-99"/>
        </Node>
        <Node pos="r" depth="1" NCoef="0" IVar="6" Cut="5.0860676765441895e+00" cType="1" res="-1.4675201848149300e-02" rms="4.5129126310348511e-01" purity="6.1827200651168823e-01" nType="0">
          <Node pos="l" depth="2" NCoef="0" IVar="-1" Cut="0.0000000000000000e+00" cType="1" res="-7.0907932240515947e-04" rms="4.6885418891906738e-01" purity="5.5857604742050171e-01" nType="-99"/>
          <Node pos="r" depth="2" NCoef="0" IVar="-1" Cut="0.0000000000000000e+00" cType="1" res="4.1737349238246679e-04" rms="3.9745074510574341e-01" purity="7.8295207023620605e-01" nType="-99"/>
        </Node>
      </Node>
    </BinaryTree>
    <BinaryTree type="DecisionTree" boostWeight="1.0000000000000000e+00" itree="878">
      <Node pos="s" depth="0" NCoef="0" IVar="6" Cut="2.7001657485961914e+00" cType="1" res="4.2714923620223999e-03" rms="4.5197373628616333e-01" purity="5.0731950998306274e-01" nType="0">
        <Node pos="l" depth="1" NCoef="0" IVar="3" Cut="2.7139875292778015e-01" cType="1" res="-5.8454577811062336e-03" rms="4.5198538899421692e-01" purity="3.6472436785697937e-01" nType="0">
          <Node pos="l" depth="2" NCoef="0" IVar="-1" Cut="0.0000000000000000e+00" cType="1" res="2.5870691752061248e-04" rms="4.5284464955329895e-01" purity="3.8154110312461853e-01" nType="-99"/>
          <Node pos="r" depth="2" NCoef="0" IVar="-1" Cut="0.0000000000000000e+00" cType="1" res="-1.0230490006506443e-03" rms="4.4976663589477539e-01" purity="3.3669167757034302e-01" nType="-99"/>
        </Node>
        <Node pos="r" depth="1" NCoef="0" IVar="3" Cut="5.9677249193191528e-01" cType="1" res="1.3407143764197826e-02" rms="4.5176860690116882e-01" purity="6.3608348369598389e-01" nType="0">
          <Node pos="l" depth="2" NCoef="0" IVar="-1" Cut="0.0000000000000000e+00" cType="1" res="7.6366635039448738e-04" rms="4.5625054836273193e-01" purity="6.2179833650588989e-01" nType="-99"/>
          <Node pos="r" depth="2" NCoef="0" IVar="-1" Cut="0.0000000000000000e+00" cType="1" res="-1.7402948287781328e-05" rms="4.4705387949943542e-01" purity="6.4953368902206421e-01" nType="-99"/>
        </Node>
      </Node>
    </BinaryTree>
    <BinaryTree type="DecisionTree" boostWeight="1.0000000000000000e+00" itree="879">
      <Node pos="s" depth="0" NCoef="0" IVar="1" Cut="3.8231021118164062e+02" cType="1" res="3.7119004409760237e-03" rms="4.5174324512481689e-01" purity="5.0399911403656006e-01" nType="0">
        <Node pos="l" depth="1" NCoef="0" IVar="3" Cut="3.4513869881629944e-01" cType="1" res="-2.5916213169693947e-02" rms="4.2130953073501587e-01" purity="2.8447890281677246e-01" nType="0">
          <Node pos="l" depth="2" NCoef="0" IVar="-1" Cut="0.0000000000000000e+00" cType="1" res="4.5686767407460138e-05" rms="4.0328821539878845e-01" purity="2.4262955784797668e-01" nType="-99"/>
          <Node pos="r" depth="2" NCoef="0" IVar="-1" Cut="0.0000000000000000e+00" cType="1" res="-2.0754986908286810e-03" rms="4.3663334846496582e-01" purity="3.2538715004920959e-01" nType="-99"/>
        </Node>
        <Node pos="r" depth="1" NCoef="0" IVar="6" Cut="2.0669345855712891e+00" cType="1" res="7.2283581830561161e-03" rms="4.5509222149848938e-01" purity="5.3005325794219971e-01" nType="0">
          <Node pos="l" depth="2" NCoef="0" IVar="-1" Cut="0.0000000000000000e+00" cType="1" res="-3.4560554195195436e-04" rms="4.5466873049736023e-01" purity="3.4516134858131409e-01" nType="-99"/>
          <Node pos="r" depth="2" NCoef="0" IVar="-1" Cut="0.0000000000000000e+00" cType="1" res="3.9815506897866726e-04" rms="4.5510119199752808e-01" purity="6.1229151487350464e-01" nType="-99"/>
        </Node>
      </Node>
    </BinaryTree>
    <BinaryTree type="DecisionTree" boostWeight="1.0000000000000000e+00" itree="880">
      <Node pos="s" depth="0" NCoef="0" IVar="3" Cut="1.5161497890949249e-01" cType="1" res="1.3731721555814147e-03" rms="4.5438966155052185e-01" purity="5.0144439935684204e-01" nType="0">
        <Node pos="l" depth="1" NCoef="0" IVar="6" Cut="1.2789648771286011e+00" cType="1" res="3.0530957505106926e-02" rms="4.5937514305114746e-01" purity="4.4531521201133728e-01" nType="0">
          <Node pos="l" depth="2" NCoef="0" IVar="-1" Cut="0.0000000000000000e+00" cType="1" res="3.4122067154385149e-04" rms="4.4634422659873962e-01" purity="3.1972664594650269e-01" nType="-99"/>
          <Node pos="r" depth="2" NCoef="0" IVar="-1" Cut="0.0000000000000000e+00" cType="1" res="1.5151726547628641e-03" rms="4.7010490298271179e-01" purity="5.6152975559234619e-01" nType="-99"/>
        </Node>
        <Node pos="r" depth="1" NCoef="0" IVar="6" Cut="2.7237973213195801e+00" cType="1" res="-2.3049858864396811e-03" rms="4.5362377166748047e-01" purity="5.0852489471435547e-01" nType="0">
          <Node pos="l" depth="2" NCoef="0" IVar="-1" Cut="0.0000000000000000e+00" cType="1" res="-5.6869420222938061e-04" rms="4.5068565011024475e-01" purity="3.5208547115325928e-01" nType="-99"/>
          <Node pos="r" depth="2" NCoef="0" IVar="-1" Cut="0.0000000000000000e+00" cType="1" res="2.0077302178833634e-04" rms="4.5562618970870972e-01" purity="6.2810915708541870e-01" nType="-99"/>
        </Node>
      </Node>
    </BinaryTree>
    <BinaryTree type="DecisionTree" boostWeight="1.0000000000000000e+00" itree="881">
      <Node pos="s" depth="0" NCoef="0" IVar="5" Cut="1.6604323387145996e+00" cType="1" res="2.9190601781010628e-03" rms="4.5449766516685486e-01" purity="5.0127089023590088e-01" nType="0">
        <Node pos="l" depth="1" NCoef="0" IVar="-1" Cut="0.0000000000000000e+00" cType="1" res="1.1243638582527637e-03" rms="4.5124539732933044e-01" purity="6.2271058559417725e-01" nType="-99"/>
        <Node pos="r" depth="1" NCoef="0" IVar="8" Cut="1.3823445129394531e+02" cType="1" res="-2.1459530107676983e-03" rms="4.5470550656318665e-01" purity="4.8468086123466492e-01" nType="0">
          <Node pos="l" depth="2" NCoef="0" IVar="-1" Cut="0.0000000000000000e+00" cType="1" res="1.1685120989568532e-04" rms="4.5399594306945801e-01" purity="4.8582699894905090e-01" nType="-99"/>
          <Node pos="r" depth="2" NCoef="0" IVar="-1" Cut="0.0000000000000000e+00" cType="1" res="-5.7536998065188527e-04" rms="4.5622971653938293e-01" purity="4.8164501786231995e-01" nType="-99"/>
        </Node>
      </Node>
    </BinaryTree>
    <BinaryTree type="DecisionTree" boostWeight="1.0000000000000000e+00" itree="882">
      <Node pos="s" depth="0" NCoef="0" IVar="3" Cut="4.0323266386985779e-01" cType="1" res="2.8485869988799095e-03" rms="4.5459428429603577e-01" purity="5.0245624780654907e-01" nType="0">
        <Node pos="l" depth="1" NCoef="0" IVar="6" Cut="2.8553137779235840e+00" cType="1" res="1.2692476622760296e-02" rms="4.5436084270477295e-01" purity="4.3869510293006897e-01" nType="0">
          <Node pos="l" depth="2" NCoef="0" IVar="-1" Cut="0.0000000000000000e+00" cType="1" res="1.4162631123326719e-04" rms="4.5590892434120178e-01" purity="3.8281923532485962e-01" nType="-99"/>
          <Node pos="r" depth="2" NCoef="0" IVar="-1" Cut="0.0000000000000000e+00" cType="1" res="1.2745442800223827e-03" rms="4.4613671302795410e-01" purity="6.6700953245162964e-01" nType="-99"/>
        </Node>
        <Node pos="r" depth="1" NCoef="0" IVar="9" Cut="5.5829433441162109e+01" cType="1" res="-8.5814185440540314e-03" rms="4.5459780097007751e-01" purity="5.7649093866348267e-01" nType="0">
          <Node pos="l" depth="2" NCoef="0" IVar="-1" Cut="0.0000000000000000e+00" cType="1" res="-1.3857950689271092e-03" rms="4.6494722366333008e-01" purity="5.2135163545608521e-01" nType="-99"/>
          <Node pos="r" depth="2" NCoef="0" IVar="-1" Cut="0.0000000000000000e+00" cType="1" res="-6.7746819695457816e-05" rms="4.5249649882316589e-01" purity="5.8598977327346802e-01" nType="-99"/>
        </Node>
      </Node>
    </BinaryTree>
    <BinaryTree type="DecisionTree" boostWeight="1.0000000000000000e+00" itree="883">
      <Node pos="s" depth="0" NCoef="0" IVar="7" Cut="2.4784650653600693e-02" cType="1" res="1.6675047809258103e-03" rms="4.5426362752914429e-01" purity="5.0205737352371216e-01" nType="0">
        <Node pos="l" depth="1" NCoef="0" IVar="2" Cut="6.0584944486618042e-01" cType="1" res="-6.4667784608900547e-03" rms="4.4948285818099976e-01" purity="4.6470731496810913e-01" nType="0">
          <Node pos="l" depth="2" NCoef="0" IVar="-1" Cut="0.0000000000000000e+00" cType="1" res="3.2705257763154805e-04" rms="4.5335504412651062e-01" purity="5.5878412723541260e-01" nType="-99"/>
          <Node pos="r" depth="2" NCoef="0" IVar="-1" Cut="0.0000000000000000e+00" cType="1" res="-5.7278212625533342e-04" rms="4.4706538319587708e-01" purity="4.1324105858802795e-01" nType="-99"/>
        </Node>
        <Node pos="r" depth="1" NCoef="0" IVar="8" Cut="1.0111430358886719e+02" cType="1" res="1.1729048565030098e-02" rms="4.5990937948226929e-01" purity="5.4825681447982788e-01" nType="0">
          <Node pos="l" depth="2" NCoef="0" IVar="-1" Cut="0.0000000000000000e+00" cType="1" res="-5.4254673887044191e-04" rms="4.5747062563896179e-01" purity="4.8737555742263794e-01" nType="-99"/>
          <Node pos="r" depth="2" NCoef="0" IVar="-1" Cut="0.0000000000000000e+00" cType="1" res="5.2052823593840003e-04" rms="4.6018120646476746e-01" purity="5.6041151285171509e-01" nType="-99"/>
        </Node>
      </Node>
    </BinaryTree>
    <BinaryTree type="DecisionTree" boostWeight="1.0000000000000000e+00" itree="884">
      <Node pos="s" depth="0" NCoef="0" IVar="6" Cut="4.5933370590209961e+00" cType="1" res="5.3829356329515576e-04" rms="4.5229181647300720e-01" purity="4.9995693564414978e-01" nType="0">
        <Node pos="l" depth="1" NCoef="0" IVar="3" Cut="6.1607152223587036e-01" cType="1" res="-3.2986428122967482e-03" rms="4.5910781621932983e-01" purity="4.5674112439155579e-01" nType="0">
          <Node pos="l" depth="2" NCoef="0" IVar="-1" Cut="0.0000000000000000e+00" cType="1" res="8.5320803918875754e-05" rms="4.5568612217903137e-01" purity="4.4375994801521301e-01" nType="-99"/>
          <Node pos="r" depth="2" NCoef="0" IVar="-1" Cut="0.0000000000000000e+00" cType="1" res="-9.8892743699252605e-04" rms="4.7614672780036926e-01" purity="5.2784627676010132e-01" nType="-99"/>
        </Node>
        <Node pos="r" depth="1" NCoef="0" IVar="-1" Cut="0.0000000000000000e+00" cType="1" res="7.0457311812788248e-04" rms="4.0602007508277893e-01" purity="7.7155840396881104e-01" nType="-99"/>
      </Node>
    </BinaryTree>
    <BinaryTree type="DecisionTree" boostWeight="1.0000000000000000e+00" itree="885">
      <Node pos="s" depth="0" NCoef="0" IVar="6" Cut="3.1601192951202393e+00" cType="1" res="4.2392858304083347e-03" rms="4.5349317789077759e-01" purity="5.0368696451187134e-01" nType="0">
        <Node pos="l" depth="1" NCoef="0" IVar="1" Cut="4.9818945312500000e+02" cType="1" res="-3.6275412421673536e-03" rms="4.5976129174232483e-01" purity="3.8995143771171570e-01" nType="0">
          <Node pos="l" depth="2" NCoef="0" IVar="-1" Cut="0.0000000000000000e+00" cType="1" res="3.9803882827982306e-04" rms="4.4312706589698792e-01" purity="3.1354001164436340e-01" nType="-99"/>
          <Node pos="r" depth="2" NCoef="0" IVar="-1" Cut="0.0000000000000000e+00" cType="1" res="-4.7282114974223077e-04" rms="4.7376888990402222e-01" purity="4.5786723494529724e-01" nType="-99"/>
        </Node>
        <Node pos="r" depth="1" NCoef="0" IVar="3" Cut="6.1613494157791138e-01" cType="1" res="1.5755455940961838e-02" rms="4.4390645623207092e-01" purity="6.7018324136734009e-01" nType="0">
          <Node pos="l" depth="2" NCoef="0" IVar="-1" Cut="0.0000000000000000e+00" cType="1" res="1.1050888570025563e-03" rms="4.4517174363136292e-01" purity="6.7491519451141357e-01" nType="-99"/>
          <Node pos="r" depth="2" NCoef="0" IVar="-1" Cut="0.0000000000000000e+00" cType="1" res="-8.4524908743333071e-05" rms="4.4204586744308472e-01" purity="6.6681319475173950e-01" nType="-99"/>
        </Node>
      </Node>
    </BinaryTree>
    <BinaryTree type="DecisionTree" boostWeight="1.0000000000000000e+00" itree="886">
      <Node pos="s" depth="0" NCoef="0" IVar="6" Cut="1.9660152196884155e+00" cType="1" res="1.2197673786431551e-03" rms="4.5229935646057129e-01" purity="5.0123685598373413e-01" nType="0">
        <Node pos="l" depth="1" NCoef="0" IVar="3" Cut="2.1352684497833252e-01" cType="1" res="-1.9369937479496002e-02" rms="4.3811622262001038e-01" purity="3.0452439188957214e-01" nType="0">
          <Node pos="l" depth="2" NCoef="0" IVar="-1" Cut="0.0000000000000000e+00" cType="1" res="-3.2562809064984322e-04" rms="4.4778636097908020e-01" purity="3.3050873875617981e-01" nType="-99"/>
          <Node pos="r" depth="2" NCoef="0" IVar="-1" Cut="0.0000000000000000e+00" cType="1" res="-1.6764893662184477e-03" rms="4.2319396138191223e-01" purity="2.6700890064239502e-01" nType="-99"/>
        </Node>
        <Node pos="r" depth="1" NCoef="0" IVar="3" Cut="7.3226493597030640e-01" cType="1" res="9.3675032258033752e-03" rms="4.5753473043441772e-01" purity="5.7907968759536743e-01" nType="0">
          <Node pos="l" depth="2" NCoef="0" IVar="-1" Cut="0.0000000000000000e+00" cType="1" res="4.1221670107915998e-04" rms="4.6177476644515991e-01" purity="5.5444586277008057e-01" nType="-99"/>
          <Node pos="r" depth="2" NCoef="0" IVar="-1" Cut="0.0000000000000000e+00" cType="1" res="-2.8382311575114727e-04" rms="4.3988618254661560e-01" purity="6.7622739076614380e-01" nType="-99"/>
        </Node>
      </Node>
    </BinaryTree>
    <BinaryTree type="DecisionTree" boostWeight="1.0000000000000000e+00" itree="887">
      <Node pos="s" depth="0" NCoef="0" IVar="1" Cut="8.3268548583984375e+02" cType="1" res="5.0044144472849439e-07" rms="4.5338809490203857e-01" purity="4.9806731939315796e-01" nType="0">
        <Node pos="l" depth="1" NCoef="0" IVar="0" Cut="1.4333034753799438e+00" cType="1" res="-3.3348253928124905e-03" rms="4.5376077294349670e-01" purity="4.8071530461311340e-01" nType="0">
          <Node pos="l" depth="2" NCoef="0" IVar="-1" Cut="0.0000000000000000e+00" cType="1" res="4.4471438741311431e-05" rms="4.5657342672348022e-01" purity="5.0061690807342529e-01" nType="-99"/>
          <Node pos="r" depth="2" NCoef="0" IVar="-1" Cut="0.0000000000000000e+00" cType="1" res="-7.3215528391301632e-04" rms="4.4328972697257996e-01" purity="4.1049808263778687e-01" nType="-99"/>
        </Node>
        <Node pos="r" depth="1" NCoef="0" IVar="-1" Cut="0.0000000000000000e+00" cType="1" res="8.1479630898684263e-04" rms="4.4905555248260498e-01" purity="6.4998477697372437e-01" nType="-99"/>
      </Node>
    </BinaryTree>
    <BinaryTree type="DecisionTree" boostWeight="1.0000000000000000e+00" itree="888">
      <Node pos="s" depth="0" NCoef="0" IVar="4" Cut="6.8457595825195312e+01" cType="1" res="6.0048042796552181e-03" rms="4.5430526137351990e-01" purity="5.0499039888381958e-01" nType="0">
        <Node pos="l" depth="1" NCoef="0" IVar="7" Cut="1.2738995254039764e-01" cType="1" res="-3.4917797893285751e-03" rms="4.5186302065849304e-01" purity="4.5377635955810547e-01" nType="0">
          <Node pos="l" depth="2" NCoef="0" IVar="-1" Cut="0.0000000000000000e+00" cType="1" res="-4.2305813985876739e-04" rms="4.5101037621498108e-01" purity="4.2760425806045532e-01" nType="-99"/>
          <Node pos="r" depth="2" NCoef="0" IVar="-1" Cut="0.0000000000000000e+00" cType="1" res="8.1202323781326413e-04" rms="4.5364516973495483e-01" purity="5.5007153749465942e-01" nType="-99"/>
        </Node>
        <Node pos="r" depth="1" NCoef="0" IVar="8" Cut="1.1111080932617188e+02" cType="1" res="1.5452733263373375e-02" rms="4.5652604103088379e-01" purity="5.5594199895858765e-01" nType="0">
          <Node pos="l" depth="2" NCoef="0" IVar="-1" Cut="0.0000000000000000e+00" cType="1" res="-2.2107713448349386e-04" rms="4.6068099141120911e-01" purity="5.0556439161300659e-01" nType="-99"/>
          <Node pos="r" depth="2" NCoef="0" IVar="-1" Cut="0.0000000000000000e+00" cType="1" res="7.0663960650563240e-04" rms="4.5464241504669189e-01" purity="5.7509571313858032e-01" nType="-99"/>
        </Node>
      </Node>
    </BinaryTree>
    <BinaryTree type="DecisionTree" boostWeight="1.0000000000000000e+00" itree="889">
      <Node pos="s" depth="0" NCoef="0" IVar="0" Cut="5.8526390790939331e-01" cType="1" res="3.7550998385995626e-03" rms="4.5087981224060059e-01" purity="5.0432258844375610e-01" nType="0">
        <Node pos="l" depth="1" NCoef="0" IVar="-1" Cut="0.0000000000000000e+00" cType="1" res="1.1713510612025857e-03" rms="4.4880294799804688e-01" purity="5.9936124086380005e-01" nType="-99"/>
        <Node pos="r" depth="1" NCoef="0" IVar="6" Cut="3.9513447284698486e+00" cType="1" res="6.4464687602594495e-04" rms="4.5091724395751953e-01" purity="4.9629068374633789e-01" nType="0">
          <Node pos="l" depth="2" NCoef="0" IVar="-1" Cut="0.0000000000000000e+00" cType="1" res="-1.9047623209189624e-04" rms="4.5793715119361877e-01" purity="4.2351788282394409e-01" nType="-99"/>
          <Node pos="r" depth="2" NCoef="0" IVar="-1" Cut="0.0000000000000000e+00" cType="1" res="5.4786138935014606e-04" rms="4.2762893438339233e-01" purity="7.2393316030502319e-01" nType="-99"/>
        </Node>
      </Node>
    </BinaryTree>
    <BinaryTree type="DecisionTree" boostWeight="1.0000000000000000e+00" itree="890">
      <Node pos="s" depth="0" NCoef="0" IVar="1" Cut="3.9563449096679688e+02" cType="1" res="1.1013485491275787e-03" rms="4.5335260033607483e-01" purity="4.9879494309425354e-01" nType="0">
        <Node pos="l" depth="1" NCoef="0" IVar="1" Cut="3.5892443847656250e+02" cType="1" res="-2.5162935256958008e-02" rms="4.1561999917030334e-01" purity="2.9877743124961853e-01" nType="0">
          <Node pos="l" depth="2" NCoef="0" IVar="-1" Cut="0.0000000000000000e+00" cType="1" res="-2.5217868387699127e-03" rms="3.9286679029464722e-01" purity="2.5235787034034729e-01" nType="-99"/>
          <Node pos="r" depth="2" NCoef="0" IVar="-1" Cut="0.0000000000000000e+00" cType="1" res="-2.0773477444890887e-04" rms="4.3147119879722595e-01" purity="3.3500325679779053e-01" nType="-99"/>
        </Node>
        <Node pos="r" depth="1" NCoef="0" IVar="8" Cut="1.3773005676269531e+02" cType="1" res="5.3553138859570026e-03" rms="4.5903098583221436e-01" purity="5.3119134902954102e-01" nType="0">
          <Node pos="l" depth="2" NCoef="0" IVar="-1" Cut="0.0000000000000000e+00" cType="1" res="3.7415797123685479e-04" rms="4.5775476098060608e-01" purity="5.4030746221542358e-01" nType="-99"/>
          <Node pos="r" depth="2" NCoef="0" IVar="-1" Cut="0.0000000000000000e+00" cType="1" res="-4.1330500971525908e-04" rms="4.6182262897491455e-01" purity="5.0753116607666016e-01" nType="-99"/>
        </Node>
      </Node>
    </BinaryTree>
    <BinaryTree type="DecisionTree" boostWeight="1.0000000000000000e+00" itree="891">
      <Node pos="s" depth="0" NCoef="0" IVar="3" Cut="5.7742494344711304e-01" cType="1" res="4.6568698053306434e-06" rms="4.5567896962165833e-01" purity="4.9605697393417358e-01" nType="0">
        <Node pos="l" depth="1" NCoef="0" IVar="6" Cut="3.2885966300964355e+00" cType="1" res="7.5221206061542034e-03" rms="4.5621937513351440e-01" purity="4.4943159818649292e-01" nType="0">
          <Node pos="l" depth="2" NCoef="0" IVar="-1" Cut="0.0000000000000000e+00" cType="1" res="2.0558294636430219e-05" rms="4.5951831340789795e-01" purity="3.9860796928405762e-01" nType="-99"/>
          <Node pos="r" depth="2" NCoef="0" IVar="-1" Cut="0.0000000000000000e+00" cType="1" res="1.0435575386509299e-03" rms="4.3890061974525452e-01" purity="6.8843305110931396e-01" nType="-99"/>
        </Node>
        <Node pos="r" depth="1" NCoef="0" IVar="6" Cut="4.9807476997375488e+00" cType="1" res="-1.9382389262318611e-02" rms="4.5370793342590332e-01" purity="6.1630070209503174e-01" nType="0">
          <Node pos="l" depth="2" NCoef="0" IVar="-1" Cut="0.0000000000000000e+00" cType="1" res="-1.0099929058924317e-03" rms="4.7467741370201111e-01" purity="5.4255664348602295e-01" nType="-99"/>
          <Node pos="r" depth="2" NCoef="0" IVar="-1" Cut="0.0000000000000000e+00" cType="1" res="4.9686129204928875e-04" rms="4.0005809068679810e-01" purity="7.8267592191696167e-01" nType="-99"/>
        </Node>
      </Node>
    </BinaryTree>
    <BinaryTree type="DecisionTree" boostWeight="1.0000000000000000e+00" itree="892">
      <Node pos="s" depth="0" NCoef="0" IVar="5" Cut="1.7782293558120728e+00" cType="1" res="-1.4105858281254768e-04" rms="4.5286113023757935e-01" purity="4.9944654107093811e-01" nType="0">
        <Node pos="l" depth="1" NCoef="0" IVar="3" Cut="4.2246389389038086e-01" cType="1" res="2.2211251780390739e-02" rms="4.5054879784584045e-01" purity="6.0240584611892700e-01" nType="0">
          <Node pos="l" depth="2" NCoef="0" IVar="-1" Cut="0.0000000000000000e+00" cType="1" res="1.0295583633705974e-03" rms="4.6504643559455872e-01" purity="5.4550004005432129e-01" nType="-99"/>
          <Node pos="r" depth="2" NCoef="0" IVar="-1" Cut="0.0000000000000000e+00" cType="1" res="2.0287721417844296e-04" rms="4.3247857689857483e-01" purity="6.6898769140243530e-01" nType="-99"/>
        </Node>
        <Node pos="r" depth="1" NCoef="0" IVar="6" Cut="3.4472954273223877e+00" cType="1" res="-4.4305338524281979e-03" rms="4.5317748188972473e-01" purity="4.7968834638595581e-01" nType="0">
          <Node pos="l" depth="2" NCoef="0" IVar="-1" Cut="0.0000000000000000e+00" cType="1" res="-4.2460003169253469e-04" rms="4.5621883869171143e-01" purity="3.8315075635910034e-01" nType="-99"/>
          <Node pos="r" depth="2" NCoef="0" IVar="-1" Cut="0.0000000000000000e+00" cType="1" res="2.7043247246183455e-04" rms="4.4671756029129028e-01" purity="6.7176383733749390e-01" nType="-99"/>
        </Node>
      </Node>
    </BinaryTree>
    <BinaryTree type="DecisionTree" boostWeight="1.0000000000000000e+00" itree="893">
      <Node pos="s" depth="0" NCoef="0" IVar="0" Cut="7.0056039094924927e-01" cType="1" res="7.5847201514989138e-04" rms="4.5412936806678772e-01" purity="4.9914094805717468e-01" nType="0">
        <Node pos="l" depth="1" NCoef="0" IVar="8" Cut="1.2832446289062500e+02" cType="1" res="2.3296091705560684e-02" rms="4.5283249020576477e-01" purity="5.7419413328170776e-01" nType="0">
          <Node pos="l" depth="2" NCoef="0" IVar="-1" Cut="0.0000000000000000e+00" cType="1" res="1.2213527224957943e-03" rms="4.4974094629287720e-01" purity="5.8845585584640503e-01" nType="-99"/>
          <Node pos="r" depth="2" NCoef="0" IVar="-1" Cut="0.0000000000000000e+00" cType="1" res="-1.4840978838037699e-04" rms="4.5591467618942261e-01" purity="5.5309617519378662e-01" nType="-99"/>
        </Node>
        <Node pos="r" depth="1" NCoef="0" IVar="7" Cut="-1.1019261926412582e-01" cType="1" res="-3.9449697360396385e-03" rms="4.5425853133201599e-01" purity="4.8347792029380798e-01" nType="0">
          <Node pos="l" depth="2" NCoef="0" IVar="-1" Cut="0.0000000000000000e+00" cType="1" res="-1.8879763083532453e-03" rms="4.2804065346717834e-01" purity="3.3586272597312927e-01" nType="-99"/>
          <Node pos="r" depth="2" NCoef="0" IVar="-1" Cut="0.0000000000000000e+00" cType="1" res="-3.1519110052613541e-05" rms="4.5588144659996033e-01" purity="4.9376353621482849e-01" nType="-99"/>
        </Node>
      </Node>
    </BinaryTree>
    <BinaryTree type="DecisionTree" boostWeight="1.0000000000000000e+00" itree="894">
      <Node pos="s" depth="0" NCoef="0" IVar="2" Cut="8.6862003803253174e-01" cType="1" res="-3.8481194060295820e-03" rms="4.5231083035469055e-01" purity="4.9444192647933960e-01" nType="0">
        <Node pos="l" depth="1" NCoef="0" IVar="8" Cut="1.0141689300537109e+02" cType="1" res="3.7998193874955177e-03" rms="4.5328977704048157e-01" purity="5.3615152835845947e-01" nType="0">
          <Node pos="l" depth="2" NCoef="0" IVar="-1" Cut="0.0000000000000000e+00" cType="1" res="-6.1733921756967902e-04" rms="4.6058663725852966e-01" purity="4.6325275301933289e-01" nType="-99"/>
          <Node pos="r" depth="2" NCoef="0" IVar="-1" Cut="0.0000000000000000e+00" cType="1" res="2.5719322729855776e-04" rms="4.5162013173103333e-01" purity="5.5128687620162964e-01" nType="-99"/>
        </Node>
        <Node pos="r" depth="1" NCoef="0" IVar="8" Cut="1.3773005676269531e+02" cType="1" res="-1.6403481364250183e-02" rms="4.5041757822036743e-01" purity="4.2596879601478577e-01" nType="0">
          <Node pos="l" depth="2" NCoef="0" IVar="-1" Cut="0.0000000000000000e+00" cType="1" res="-2.2437110601458699e-04" rms="4.5329073071479797e-01" purity="4.3647554516792297e-01" nType="-99"/>
          <Node pos="r" depth="2" NCoef="0" IVar="-1" Cut="0.0000000000000000e+00" cType="1" res="-1.5485223848372698e-03" rms="4.4169786572456360e-01" purity="3.9828574657440186e-01" nType="-99"/>
        </Node>
      </Node>
    </BinaryTree>
    <BinaryTree type="DecisionTree" boostWeight="1.0000000000000000e+00" itree="895">
      <Node pos="s" depth="0" NCoef="0" IVar="0" Cut="5.8285313844680786e-01" cType="1" res="2.6069844607263803e-03" rms="4.5253819227218628e-01" purity="5.0314408540725708e-01" nType="0">
        <Node pos="l" depth="1" NCoef="0" IVar="-1" Cut="0.0000000000000000e+00" cType="1" res="1.0612882906571031e-03" rms="4.5013719797134399e-01" purity="5.9886628389358521e-01" nType="-99"/>
        <Node pos="r" depth="1" NCoef="0" IVar="6" Cut="5.0072126388549805e+00" cType="1" res="-2.1115173876751214e-04" rms="4.5262086391448975e-01" purity="4.9523964524269104e-01" nType="0">
          <Node pos="l" depth="2" NCoef="0" IVar="-1" Cut="0.0000000000000000e+00" cType="1" res="-9.7667012596502900e-05" rms="4.5810884237289429e-01" purity="4.6467199921607971e-01" nType="-99"/>
          <Node pos="r" depth="2" NCoef="0" IVar="-1" Cut="0.0000000000000000e+00" cType="1" res="7.8268873039633036e-04" rms="3.9421287178993225e-01" purity="7.9275119304656982e-01" nType="-99"/>
        </Node>
      </Node>
    </BinaryTree>
    <BinaryTree type="DecisionTree" boostWeight="1.0000000000000000e+00" itree="896">
      <Node pos="s" depth="0" NCoef="0" IVar="7" Cut="-1.0908010601997375e-01" cType="1" res="-9.6566835418343544e-04" rms="4.5195448398590088e-01" purity="4.9758949875831604e-01" nType="0">
        <Node pos="l" depth="1" NCoef="0" IVar="-1" Cut="0.0000000000000000e+00" cType="1" res="-1.4958042884245515e-03" rms="4.3562084436416626e-01" purity="3.6336976289749146e-01" nType="-99"/>
        <Node pos="r" depth="1" NCoef="0" IVar="6" Cut="1.9630765914916992e+00" cType="1" res="1.9114246824756265e-03" rms="4.5307934284210205e-01" purity="5.0807261466979980e-01" nType="0">
          <Node pos="l" depth="2" NCoef="0" IVar="-1" Cut="0.0000000000000000e+00" cType="1" res="-6.8294862285256386e-04" rms="4.4194594025611877e-01" purity="3.1514421105384827e-01" nType="-99"/>
          <Node pos="r" depth="2" NCoef="0" IVar="-1" Cut="0.0000000000000000e+00" cType="1" res="2.6193927624262869e-04" rms="4.5730537176132202e-01" purity="5.8608287572860718e-01" nType="-99"/>
        </Node>
      </Node>
    </BinaryTree>
    <BinaryTree type="DecisionTree" boostWeight="1.0000000000000000e+00" itree="897">
      <Node pos="s" depth="0" NCoef="0" IVar="8" Cut="1.3724435424804688e+02" cType="1" res="2.1824240684509277e-03" rms="4.5271125435829163e-01" purity="5.0151818990707397e-01" nType="0">
        <Node pos="l" depth="1" NCoef="0" IVar="1" Cut="3.8148245239257812e+02" cType="1" res="8.8428491726517677e-03" rms="4.5123445987701416e-01" purity="5.0589358806610107e-01" nType="0">
          <Node pos="l" depth="2" NCoef="0" IVar="-1" Cut="0.0000000000000000e+00" cType="1" res="-1.0183575795963407e-03" rms="4.1778510808944702e-01" purity="2.9325309395790100e-01" nType="-99"/>
          <Node pos="r" depth="2" NCoef="0" IVar="-1" Cut="0.0000000000000000e+00" cType="1" res="4.0039664600044489e-04" rms="4.5559674501419067e-01" purity="5.3596222400665283e-01" nType="-99"/>
        </Node>
        <Node pos="r" depth="1" NCoef="0" IVar="2" Cut="1.0393030643463135e+00" cType="1" res="-1.5821358188986778e-02" rms="4.5619282126426697e-01" purity="4.8969116806983948e-01" nType="0">
          <Node pos="l" depth="2" NCoef="0" IVar="-1" Cut="0.0000000000000000e+00" cType="1" res="-2.2448043455369771e-04" rms="4.6062311530113220e-01" purity="5.1881653070449829e-01" nType="-99"/>
          <Node pos="r" depth="2" NCoef="0" IVar="-1" Cut="0.0000000000000000e+00" cType="1" res="-1.8418302061036229e-03" rms="4.3766337633132935e-01" purity="3.8070604205131531e-01" nType="-99"/>
        </Node>
      </Node>
    </BinaryTree>
    <BinaryTree type="DecisionTree" boostWeight="1.0000000000000000e+00" itree="898">
      <Node pos="s" depth="0" NCoef="0" IVar="3" Cut="1.9032473862171173e-01" cType="1" res="4.4344626367092133e-03" rms="4.5563769340515137e-01" purity="5.0358450412750244e-01" nType="0">
        <Node pos="l" depth="1" NCoef="0" IVar="8" Cut="1.0986027526855469e+02" cType="1" res="2.3011157289147377e-02" rms="4.5984923839569092e-01" purity="4.3642181158065796e-01" nType="0">
          <Node pos="l" depth="2" NCoef="0" IVar="-1" Cut="0.0000000000000000e+00" cType="1" res="-1.0759723372757435e-03" rms="4.4585347175598145e-01" purity="3.5165613889694214e-01" nType="-99"/>
          <Node pos="r" depth="2" NCoef="0" IVar="-1" Cut="0.0000000000000000e+00" cType="1" res="1.3762962771579623e-03" rms="4.6336081624031067e-01" purity="4.6558699011802673e-01" nType="-99"/>
        </Node>
        <Node pos="r" depth="1" NCoef="0" IVar="6" Cut="3.2694127559661865e+00" cType="1" res="-2.3766978119965643e-04" rms="4.5445284247398376e-01" purity="5.2047622203826904e-01" nType="0">
          <Node pos="l" depth="2" NCoef="0" IVar="-1" Cut="0.0000000000000000e+00" cType="1" res="-3.5845738602802157e-04" rms="4.6145996451377869e-01" purity="3.9012897014617920e-01" nType="-99"/>
          <Node pos="r" depth="2" NCoef="0" IVar="-1" Cut="0.0000000000000000e+00" cType="1" res="3.0968055943958461e-04" rms="4.4596925377845764e-01" purity="6.7057621479034424e-01" nType="-99"/>
        </Node>
      </Node>
    </BinaryTree>
    <BinaryTree type="DecisionTree" boostWeight="1.0000000000000000e+00" itree="899">
      <Node pos="s" depth="0" NCoef="0" IVar="5" Cut="1.9034181833267212e+00" cType="1" res="-3.2542165718041360e-04" rms="4.5308429002761841e-01" purity="4.9905633926391602e-01" nType="0">
        <Node pos="l" depth="1" NCoef="0" IVar="3" Cut="4.6119421720504761e-01" cType="1" res="1.8944850191473961e-02" rms="4.4937554001808167e-01" purity="5.9216123819351196e-01" nType="0">
          <Node pos="l" depth="2" NCoef="0" IVar="-1" Cut="0.0000000000000000e+00" cType="1" res="1.1249686358496547e-03" rms="4.5751747488975525e-01" purity="5.4197758436203003e-01" nType="-99"/>
          <Node pos="r" depth="2" NCoef="0" IVar="-1" Cut="0.0000000000000000e+00" cType="1" res="-2.4705342366360128e-04" rms="4.3631058931350708e-01" purity="6.6189545392990112e-01" nType="-99"/>
        </Node>
        <Node pos="r" depth="1" NCoef="0" IVar="0" Cut="1.6606428623199463e+00" cType="1" res="-5.6776027195155621e-03" rms="4.5396384596824646e-01" purity="4.7319716215133667e-01" nType="0">
          <Node pos="l" depth="2" NCoef="0" IVar="-1" Cut="0.0000000000000000e+00" cType="1" res="-5.8756089856615290e-05" rms="4.5613723993301392e-01" purity="4.8647034168243408e-01" nType="-99"/>
          <Node pos="r" depth="2" NCoef="0" IVar="-1" Cut="0.0000000000000000e+00" cType="1" res="-1.7992830835282803e-03" rms="4.3005225062370300e-01" purity="3.4215524792671204e-01" nType="-99"/>
        </Node>
      </Node>
    </BinaryTree>
    <BinaryTree type="DecisionTree" boostWeight="1.0000000000000000e+00" itree="900">
      <Node pos="s" depth="0" NCoef="0" IVar="3" Cut="5.5806064605712891e-01" cType="1" res="3.0763952527195215e-03" rms="4.5586818456649780e-01" purity="4.9960461258888245e-01" nType="0">
        <Node pos="l" depth="1" NCoef="0" IVar="6" Cut="3.3150949478149414e+00" cType="1" res="1.0569969192147255e-02" rms="4.5734357833862305e-01" purity="4.4852662086486816e-01" nType="0">
          <Node pos="l" depth="2" NCoef="0" IVar="-1" Cut="0.0000000000000000e+00" cType="1" res="1.4041822578292340e-04" rms="4.6030500531196594e-01" purity="4.0179347991943359e-01" nType="-99"/>
          <Node pos="r" depth="2" NCoef="0" IVar="-1" Cut="0.0000000000000000e+00" cType="1" res="1.1916646035388112e-03" rms="4.3955010175704956e-01" purity="6.9723129272460938e-01" nType="-99"/>
        </Node>
        <Node pos="r" depth="1" NCoef="0" IVar="6" Cut="4.9956717491149902e+00" cType="1" res="-1.4291288331151009e-02" rms="4.5195278525352478e-01" purity="6.1798697710037231e-01" nType="0">
          <Node pos="l" depth="2" NCoef="0" IVar="-1" Cut="0.0000000000000000e+00" cType="1" res="-7.4029527604579926e-04" rms="4.7068077325820923e-01" purity="5.5084502696990967e-01" nType="-99"/>
          <Node pos="r" depth="2" NCoef="0" IVar="-1" Cut="0.0000000000000000e+00" cType="1" res="4.3080933392047882e-04" rms="4.0209606289863586e-01" purity="7.7885234355926514e-01" nType="-99"/>
        </Node>
      </Node>
    </BinaryTree>
    <BinaryTree type="DecisionTree" boostWeight="1.0000000000000000e+00" itree="901">
      <Node pos="s" depth="0" NCoef="0" IVar="3" Cut="1.7096975445747375e-01" cType="1" res="3.6454718792811036e-04" rms="4.5334222912788391e-01" purity="4.9979192018508911e-01" nType="0">
        <Node pos="l" depth="1" NCoef="0" IVar="6" Cut="1.3148525953292847e+00" cType="1" res="2.0149691030383110e-02" rms="4.5839208364486694e-01" purity="4.3140718340873718e-01" nType="0">
          <Node pos="l" depth="2" NCoef="0" IVar="-1" Cut="0.0000000000000000e+00" cType="1" res="-3.7384786992333829e-04" rms="4.4006463885307312e-01" purity="3.0105900764465332e-01" nType="-99"/>
          <Node pos="r" depth="2" NCoef="0" IVar="-1" Cut="0.0000000000000000e+00" cType="1" res="1.3575191842392087e-03" rms="4.7228357195854187e-01" purity="5.4373359680175781e-01" nType="-99"/>
        </Node>
        <Node pos="r" depth="1" NCoef="0" IVar="6" Cut="2.3734538555145264e+00" cType="1" res="-3.4207347780466080e-03" rms="4.5227104425430298e-01" purity="5.1287519931793213e-01" nType="0">
          <Node pos="l" depth="2" NCoef="0" IVar="-1" Cut="0.0000000000000000e+00" cType="1" res="-7.4490875704213977e-04" rms="4.4428086280822754e-01" purity="3.1893745064735413e-01" nType="-99"/>
          <Node pos="r" depth="2" NCoef="0" IVar="-1" Cut="0.0000000000000000e+00" cType="1" res="9.3369926617015153e-05" rms="4.5576244592666626e-01" purity="6.0256415605545044e-01" nType="-99"/>
        </Node>
      </Node>
    </BinaryTree>
    <BinaryTree type="DecisionTree" boostWeight="1.0000000000000000e+00" itree="902">
      <Node pos="s" depth="0" NCoef="0" IVar="9" Cut="1.8934104919433594e+02" cType="1" res="4.3023270554840565e-03" rms="4.5418480038642883e-01" purity="5.0285989046096802e-01" nType="0">
        <Node pos="l" depth="1" NCoef="0" IVar="6" Cut="3.7681508064270020e+00" cType="1" res="1.6083312220871449e-03" rms="4.5414113998413086e-01" purity="4.9951511621475220e-01" nType="0">
          <Node pos="l" depth="2" NCoef="0" IVar="-1" Cut="0.0000000000000000e+00" cType="1" res="-1.9773159874603152e-04" rms="4.6207213401794434e-01" purity="4.1713467240333557e-01" nType="-99"/>
          <Node pos="r" depth="2" NCoef="0" IVar="-1" Cut="0.0000000000000000e+00" cType="1" res="5.7035993086174130e-04" rms="4.3200132250785828e-01" purity="7.1608889102935791e-01" nType="-99"/>
        </Node>
        <Node pos="r" depth="1" NCoef="0" IVar="-1" Cut="0.0000000000000000e+00" cType="1" res="1.2657920597121119e-03" rms="4.5319852232933044e-01" purity="5.4820948839187622e-01" nType="-99"/>
      </Node>
    </BinaryTree>
    <BinaryTree type="DecisionTree" boostWeight="1.0000000000000000e+00" itree="903">
      <Node pos="s" depth="0" NCoef="0" IVar="0" Cut="6.4006245136260986e-01" cType="1" res="8.7985645222943276e-05" rms="4.5202410221099854e-01" purity="4.9917915463447571e-01" nType="0">
        <Node pos="l" depth="1" NCoef="0" IVar="7" Cut="-1.1258565820753574e-02" cType="1" res="2.8859904035925865e-02" rms="4.5353266596794128e-01" purity="5.8381330966949463e-01" nType="0">
          <Node pos="l" depth="2" NCoef="0" IVar="-1" Cut="0.0000000000000000e+00" cType="1" res="2.6103691197931767e-04" rms="4.5385396480560303e-01" purity="5.3500545024871826e-01" nType="-99"/>
          <Node pos="r" depth="2" NCoef="0" IVar="-1" Cut="0.0000000000000000e+00" cType="1" res="1.3021598570048809e-03" rms="4.5251917839050293e-01" purity="6.2594890594482422e-01" nType="-99"/>
        </Node>
        <Node pos="r" depth="1" NCoef="0" IVar="7" Cut="-1.1176129430532455e-01" cType="1" res="-3.7476494908332825e-03" rms="4.5168417692184448e-01" purity="4.8789641261100769e-01" nType="0">
          <Node pos="l" depth="2" NCoef="0" IVar="-1" Cut="0.0000000000000000e+00" cType="1" res="-1.8599035684019327e-03" rms="4.2443981766700745e-01" purity="3.3877971768379211e-01" nType="-99"/>
          <Node pos="r" depth="2" NCoef="0" IVar="-1" Cut="0.0000000000000000e+00" cType="1" res="-2.9013250241405331e-05" rms="4.5332294702529907e-01" purity="4.9796018004417419e-01" nType="-99"/>
        </Node>
      </Node>
    </BinaryTree>
    <BinaryTree type="DecisionTree" boostWeight="1.0000000000000000e+00" itree="904">
      <Node pos="s" depth="0" NCoef="0" IVar="6" Cut="1.2982071638107300e+00" cType="1" res="-2.1223457588348538e-04" rms="4.5374122262001038e-01" purity="4.9917078018188477e-01" nType="0">
        <Node pos="l" depth="1" NCoef="0" IVar="4" Cut="7.8085601806640625e+01" cType="1" res="-2.8349621221423149e-02" rms="4.2065107822418213e-01" purity="2.6138731837272644e-01" nType="0">
          <Node pos="l" depth="2" NCoef="0" IVar="-1" Cut="0.0000000000000000e+00" cType="1" res="-2.3641483858227730e-03" rms="3.9451336860656738e-01" purity="2.1127194166183472e-01" nType="-99"/>
          <Node pos="r" depth="2" NCoef="0" IVar="-1" Cut="0.0000000000000000e+00" cType="1" res="-5.5226439144462347e-04" rms="4.5512667298316956e-01" purity="3.3329728245735168e-01" nType="-99"/>
        </Node>
        <Node pos="r" depth="1" NCoef="0" IVar="3" Cut="4.0322995185852051e-01" cType="1" res="3.9307400584220886e-03" rms="4.5826584100723267e-01" purity="5.3418225049972534e-01" nType="0">
          <Node pos="l" depth="2" NCoef="0" IVar="-1" Cut="0.0000000000000000e+00" cType="1" res="5.5237079504877329e-04" rms="4.6175110340118408e-01" purity="4.8731541633605957e-01" nType="-99"/>
          <Node pos="r" depth="2" NCoef="0" IVar="-1" Cut="0.0000000000000000e+00" cType="1" res="-2.4391710758209229e-04" rms="4.5477908849716187e-01" purity="5.7610237598419189e-01" nType="-99"/>
        </Node>
      </Node>
    </BinaryTree>
    <BinaryTree type="DecisionTree" boostWeight="1.0000000000000000e+00" itree="905">
      <Node pos="s" depth="0" NCoef="0" IVar="5" Cut="1.5960062742233276e+00" cType="1" res="-3.0575802084058523e-03" rms="4.5236349105834961e-01" purity="4.9798890948295593e-01" nType="0">
        <Node pos="l" depth="1" NCoef="0" IVar="-1" Cut="0.0000000000000000e+00" cType="1" res="9.2620315263047814e-04" rms="4.5190173387527466e-01" purity="6.1940538883209229e-01" nType="-99"/>
        <Node pos="r" depth="1" NCoef="0" IVar="6" Cut="4.0359005928039551e+00" cType="1" res="-7.0350421592593193e-03" rms="4.5223897695541382e-01" purity="4.8455762863159180e-01" nType="0">
          <Node pos="l" depth="2" NCoef="0" IVar="-1" Cut="0.0000000000000000e+00" cType="1" res="-4.2795119225047529e-04" rms="4.5763662457466125e-01" purity="4.1536724567413330e-01" nType="-99"/>
          <Node pos="r" depth="2" NCoef="0" IVar="-1" Cut="0.0000000000000000e+00" cType="1" res="2.9730616370216012e-04" rms="4.3323504924774170e-01" purity="7.1584057807922363e-01" nType="-99"/>
        </Node>
      </Node>
    </BinaryTree>
    <BinaryTree type="DecisionTree" boostWeight="1.0000000000000000e+00" itree="906">
      <Node pos="s" depth="0" NCoef="0" IVar="4" Cut="2.6713317871093750e+01" cType="1" res="8.1905098631978035e-03" rms="4.5491683483123779e-01" purity="5.0726473331451416e-01" nType="0">
        <Node pos="l" depth="1" NCoef="0" IVar="2" Cut="8.1058466434478760e-01" cType="1" res="-1.8024038523435593e-02" rms="4.4443404674530029e-01" purity="4.2128616571426392e-01" nType="0">
          <Node pos="l" depth="2" NCoef="0" IVar="-1" Cut="0.0000000000000000e+00" cType="1" res="9.8432188678998500e-05" rms="4.5270645618438721e-01" purity="4.8368850350379944e-01" nType="-99"/>
          <Node pos="r" depth="2" NCoef="0" IVar="-1" Cut="0.0000000000000000e+00" cType="1" res="-1.7347531393170357e-03" rms="4.3287333846092224e-01" purity="3.4590888023376465e-01" nType="-99"/>
        </Node>
        <Node pos="r" depth="1" NCoef="0" IVar="8" Cut="1.0131005096435547e+02" cType="1" res="1.1431034654378891e-02" rms="4.5609131455421448e-01" purity="5.1789301633834839e-01" nType="0">
          <Node pos="l" depth="2" NCoef="0" IVar="-1" Cut="0.0000000000000000e+00" cType="1" res="-3.6495283711701632e-04" rms="4.5646557211875916e-01" purity="4.5168626308441162e-01" nType="-99"/>
          <Node pos="r" depth="2" NCoef="0" IVar="-1" Cut="0.0000000000000000e+00" cType="1" res="4.9297360237687826e-04" rms="4.5588052272796631e-01" purity="5.3137475252151489e-01" nType="-99"/>
        </Node>
      </Node>
    </BinaryTree>
    <BinaryTree type="DecisionTree" boostWeight="1.0000000000000000e+00" itree="907">
      <Node pos="s" depth="0" NCoef="0" IVar="6" Cut="2.7619390487670898e+00" cType="1" res="5.2370235789567232e-04" rms="4.5272129774093628e-01" purity="4.9984520673751831e-01" nType="0">
        <Node pos="l" depth="1" NCoef="0" IVar="9" Cut="1.5698692321777344e+02" cType="1" res="-9.1895898804068565e-03" rms="4.5312428474426270e-01" purity="3.6201283335685730e-01" nType="0">
          <Node pos="l" depth="2" NCoef="0" IVar="-1" Cut="0.0000000000000000e+00" cType="1" res="-5.2359746769070625e-04" rms="4.5222213864326477e-01" purity="3.5515719652175903e-01" nType="-99"/>
          <Node pos="r" depth="2" NCoef="0" IVar="-1" Cut="0.0000000000000000e+00" cType="1" res="8.1122113624587655e-04" rms="4.5829787850379944e-01" purity="4.1098421812057495e-01" nType="-99"/>
        </Node>
        <Node pos="r" depth="1" NCoef="0" IVar="3" Cut="3.2580995559692383e-01" cType="1" res="1.0080335661768913e-02" rms="4.5212084054946899e-01" purity="6.3545453548431396e-01" nType="0">
          <Node pos="l" depth="2" NCoef="0" IVar="-1" Cut="0.0000000000000000e+00" cType="1" res="1.0874181753024459e-03" rms="4.4955012202262878e-01" purity="6.5506559610366821e-01" nType="-99"/>
          <Node pos="r" depth="2" NCoef="0" IVar="-1" Cut="0.0000000000000000e+00" cType="1" res="1.2508918007370085e-04" rms="4.5236313343048096e-01" purity="6.3188713788986206e-01" nType="-99"/>
        </Node>
      </Node>
    </BinaryTree>
    <BinaryTree type="DecisionTree" boostWeight="1.0000000000000000e+00" itree="908">
      <Node pos="s" depth="0" NCoef="0" IVar="7" Cut="2.2227640450000763e-01" cType="1" res="-1.1347950203344226e-03" rms="4.5289924740791321e-01" purity="4.9846979975700378e-01" nType="0">
        <Node pos="l" depth="1" NCoef="0" IVar="9" Cut="4.2827728271484375e+01" cType="1" res="-4.2932187207043171e-03" rms="4.5291113853454590e-01" purity="4.8836609721183777e-01" nType="0">
          <Node pos="l" depth="2" NCoef="0" IVar="-1" Cut="0.0000000000000000e+00" cType="1" res="-1.5265655238181353e-03" rms="4.5181161165237427e-01" purity="4.1380506753921509e-01" nType="-99"/>
          <Node pos="r" depth="2" NCoef="0" IVar="-1" Cut="0.0000000000000000e+00" cType="1" res="-5.6465352827217430e-05" rms="4.5286163687705994e-01" purity="4.9313277006149292e-01" nType="-99"/>
        </Node>
        <Node pos="r" depth="1" NCoef="0" IVar="-1" Cut="0.0000000000000000e+00" cType="1" res="1.0133382165804505e-03" rms="4.5103955268859863e-01" purity="6.1953598260879517e-01" nType="-99"/>
      </Node>
    </BinaryTree>
    <BinaryTree type="DecisionTree" boostWeight="1.0000000000000000e+00" itree="909">
      <Node pos="s" depth="0" NCoef="0" IVar="3" Cut="1.5161497890949249e-01" cType="1" res="2.1977649885229766e-04" rms="4.5170661807060242e-01" purity="4.9965879321098328e-01" nType="0">
        <Node pos="l" depth="1" NCoef="0" IVar="1" Cut="5.3075665283203125e+02" cType="1" res="3.0846348032355309e-02" rms="4.5531368255615234e-01" purity="4.4740504026412964e-01" nType="0">
          <Node pos="l" depth="2" NCoef="0" IVar="-1" Cut="0.0000000000000000e+00" cType="1" res="4.2261939961463213e-04" rms="4.3974506855010986e-01" purity="3.4665021300315857e-01" nType="-99"/>
          <Node pos="r" depth="2" NCoef="0" IVar="-1" Cut="0.0000000000000000e+00" cType="1" res="1.5390141634270549e-03" rms="4.6858161687850952e-01" purity="5.4175215959548950e-01" nType="-99"/>
        </Node>
        <Node pos="r" depth="1" NCoef="0" IVar="6" Cut="3.1674852371215820e+00" cType="1" res="-3.7324335426092148e-03" rms="4.5108759403228760e-01" purity="5.0640189647674561e-01" nType="0">
          <Node pos="l" depth="2" NCoef="0" IVar="-1" Cut="0.0000000000000000e+00" cType="1" res="-6.0965650482103229e-04" rms="4.5479288697242737e-01" purity="3.7681567668914795e-01" nType="-99"/>
          <Node pos="r" depth="2" NCoef="0" IVar="-1" Cut="0.0000000000000000e+00" cType="1" res="3.2950512832030654e-04" rms="4.4602423906326294e-01" purity="6.6425621509552002e-01" nType="-99"/>
        </Node>
      </Node>
    </BinaryTree>
    <BinaryTree type="DecisionTree" boostWeight="1.0000000000000000e+00" itree="910">
      <Node pos="s" depth="0" NCoef="0" IVar="2" Cut="4.2553490400314331e-01" cType="1" res="4.7269281931221485e-03" rms="4.5524555444717407e-01" purity="5.0375038385391235e-01" nType="0">
        <Node pos="l" depth="1" NCoef="0" IVar="-1" Cut="0.0000000000000000e+00" cType="1" res="1.0731617221608758e-03" rms="4.4936031103134155e-01" purity="6.0891056060791016e-01" nType="-99"/>
        <Node pos="r" depth="1" NCoef="0" IVar="3" Cut="2.2903145849704742e-01" cType="1" res="8.4975874051451683e-04" rms="4.5577707886695862e-01" purity="4.9136677384376526e-01" nType="0">
          <Node pos="l" depth="2" NCoef="0" IVar="-1" Cut="0.0000000000000000e+00" cType="1" res="5.5931822862476110e-04" rms="4.5580226182937622e-01" purity="4.1464486718177795e-01" nType="-99"/>
          <Node pos="r" depth="2" NCoef="0" IVar="-1" Cut="0.0000000000000000e+00" cType="1" res="-1.4471801114268601e-04" rms="4.5564648509025574e-01" purity="5.2084690332412720e-01" nType="-99"/>
        </Node>
      </Node>
    </BinaryTree>
    <BinaryTree type="DecisionTree" boostWeight="1.0000000000000000e+00" itree="911">
      <Node pos="s" depth="0" NCoef="0" IVar="5" Cut="1.6714614629745483e+00" cType="1" res="1.0702682193368673e-03" rms="4.5284116268157959e-01" purity="4.9827697873115540e-01" nType="0">
        <Node pos="l" depth="1" NCoef="0" IVar="3" Cut="3.6264073848724365e-01" cType="1" res="2.4317629635334015e-02" rms="4.4866210222244263e-01" purity="6.1314135789871216e-01" nType="0">
          <Node pos="l" depth="2" NCoef="0" IVar="-1" Cut="0.0000000000000000e+00" cType="1" res="1.1520216939970851e-03" rms="4.5991134643554688e-01" purity="5.5012184381484985e-01" nType="-99"/>
          <Node pos="r" depth="2" NCoef="0" IVar="-1" Cut="0.0000000000000000e+00" cType="1" res="3.0750175938010216e-04" rms="4.3812775611877441e-01" purity="6.6842681169509888e-01" nType="-99"/>
        </Node>
        <Node pos="r" depth="1" NCoef="0" IVar="0" Cut="9.9017542600631714e-01" cType="1" res="-2.1802277769893408e-03" rms="4.5332744717597961e-01" purity="4.8221641778945923e-01" nType="0">
          <Node pos="l" depth="2" NCoef="0" IVar="-1" Cut="0.0000000000000000e+00" cType="1" res="2.5713682407513261e-04" rms="4.5830938220024109e-01" purity="5.3191137313842773e-01" nType="-99"/>
          <Node pos="r" depth="2" NCoef="0" IVar="-1" Cut="0.0000000000000000e+00" cType="1" res="-3.6559664295054972e-04" rms="4.4912931323051453e-01" purity="4.4250383973121643e-01" nType="-99"/>
        </Node>
      </Node>
    </BinaryTree>
    <BinaryTree type="DecisionTree" boostWeight="1.0000000000000000e+00" itree="912">
      <Node pos="s" depth="0" NCoef="0" IVar="3" Cut="3.0645063519477844e-01" cType="1" res="-6.0634972760453820e-04" rms="4.5610705018043518e-01" purity="4.9490833282470703e-01" nType="0">
        <Node pos="l" depth="1" NCoef="0" IVar="1" Cut="4.9292385864257812e+02" cType="1" res="1.2661052867770195e-02" rms="4.5818191766738892e-01" purity="4.2123520374298096e-01" nType="0">
          <Node pos="l" depth="2" NCoef="0" IVar="-1" Cut="0.0000000000000000e+00" cType="1" res="1.4311756240203977e-03" rms="4.4407856464385986e-01" purity="3.4501001238822937e-01" nType="-99"/>
          <Node pos="r" depth="2" NCoef="0" IVar="-1" Cut="0.0000000000000000e+00" cType="1" res="-1.1814319441327825e-04" rms="4.6835863590240479e-01" purity="4.8134419322013855e-01" nType="-99"/>
        </Node>
        <Node pos="r" depth="1" NCoef="0" IVar="6" Cut="4.9902753829956055e+00" cType="1" res="-9.9781583994626999e-03" rms="4.5440229773521423e-01" purity="5.4694950580596924e-01" nType="0">
          <Node pos="l" depth="2" NCoef="0" IVar="-1" Cut="0.0000000000000000e+00" cType="1" res="-4.7870993148535490e-04" rms="4.6398374438285828e-01" purity="5.0279277563095093e-01" nType="-99"/>
          <Node pos="r" depth="2" NCoef="0" IVar="-1" Cut="0.0000000000000000e+00" cType="1" res="6.3368439441546798e-04" rms="3.9659076929092407e-01" purity="7.8800928592681885e-01" nType="-99"/>
        </Node>
      </Node>
    </BinaryTree>
    <BinaryTree type="DecisionTree" boostWeight="1.0000000000000000e+00" itree="913">
      <Node pos="s" depth="0" NCoef="0" IVar="3" Cut="2.8710204362869263e-01" cType="1" res="1.0532183805480599e-03" rms="4.5452988147735596e-01" purity="5.0022214651107788e-01" nType="0">
        <Node pos="l" depth="1" NCoef="0" IVar="6" Cut="1.1215229034423828e+00" cType="1" res="1.3384204357862473e-02" rms="4.5643281936645508e-01" purity="4.2453336715698242e-01" nType="0">
          <Node pos="l" depth="2" NCoef="0" IVar="-1" Cut="0.0000000000000000e+00" cType="1" res="-4.3829318019561470e-04" rms="4.2886161804199219e-01" purity="2.7379566431045532e-01" nType="-99"/>
          <Node pos="r" depth="2" NCoef="0" IVar="-1" Cut="0.0000000000000000e+00" cType="1" res="6.7921029403805733e-04" rms="4.6486112475395203e-01" purity="4.7379124164581299e-01" nType="-99"/>
        </Node>
        <Node pos="r" depth="1" NCoef="0" IVar="6" Cut="4.9577889442443848e+00" cType="1" res="-6.5633263438940048e-03" rms="4.5318290591239929e-01" purity="5.4697328805923462e-01" nType="0">
          <Node pos="l" depth="2" NCoef="0" IVar="-1" Cut="0.0000000000000000e+00" cType="1" res="-3.6015498335473239e-04" rms="4.6266013383865356e-01" purity="5.0232017040252686e-01" nType="-99"/>
          <Node pos="r" depth="2" NCoef="0" IVar="-1" Cut="0.0000000000000000e+00" cType="1" res="6.7132565891370177e-04" rms="3.9631268382072449e-01" purity="7.9026019573211670e-01" nType="-99"/>
        </Node>
      </Node>
    </BinaryTree>
    <BinaryTree type="DecisionTree" boostWeight="1.0000000000000000e+00" itree="914">
      <Node pos="s" depth="0" NCoef="0" IVar="7" Cut="-8.0407477915287018e-02" cType="1" res="1.9141444936394691e-03" rms="4.5378765463829041e-01" purity="4.9988302588462830e-01" nType="0">
        <Node pos="l" depth="1" NCoef="0" IVar="0" Cut="1.2780820131301880e+00" cType="1" res="-1.6335830092430115e-02" rms="4.4454365968704224e-01" purity="4.1693687438964844e-01" nType="0">
          <Node pos="l" depth="2" NCoef="0" IVar="-1" Cut="0.0000000000000000e+00" cType="1" res="-1.2935054837726057e-04" rms="4.5247665047645569e-01" purity="4.5498633384704590e-01" nType="-99"/>
          <Node pos="r" depth="2" NCoef="0" IVar="-1" Cut="0.0000000000000000e+00" cType="1" res="-1.9958552438765764e-03" rms="4.2310169339179993e-01" purity="3.2443958520889282e-01" nType="-99"/>
        </Node>
        <Node pos="r" depth="1" NCoef="0" IVar="3" Cut="1.9032473862171173e-01" cType="1" res="6.4181811176240444e-03" rms="4.5592784881591797e-01" purity="5.2035385370254517e-01" nType="0">
          <Node pos="l" depth="2" NCoef="0" IVar="-1" Cut="0.0000000000000000e+00" cType="1" res="9.0260384604334831e-04" rms="4.6122306585311890e-01" purity="4.5337614417076111e-01" nType="-99"/>
          <Node pos="r" depth="2" NCoef="0" IVar="-1" Cut="0.0000000000000000e+00" cType="1" res="4.1722541936906055e-05" rms="4.5443081855773926e-01" purity="5.3741854429244995e-01" nType="-99"/>
        </Node>
      </Node>
    </BinaryTree>
    <BinaryTree type="DecisionTree" boostWeight="1.0000000000000000e+00" itree="915">
      <Node pos="s" depth="0" NCoef="0" IVar="3" Cut="1.7096933722496033e-01" cType="1" res="2.0861057564616203e-03" rms="4.5404884219169617e-01" purity="5.0073337554931641e-01" nType="0">
        <Node pos="l" depth="1" NCoef="0" IVar="7" Cut="4.4019576162099838e-02" cType="1" res="3.0051277950406075e-02" rms="4.6096608042716980e-01" purity="4.4251212477684021e-01" nType="0">
          <Node pos="l" depth="2" NCoef="0" IVar="-1" Cut="0.0000000000000000e+00" cType="1" res="5.4981251014396548e-04" rms="4.5644110441207886e-01" purity="3.9962044358253479e-01" nType="-99"/>
          <Node pos="r" depth="2" NCoef="0" IVar="-1" Cut="0.0000000000000000e+00" cType="1" res="1.7822355730459094e-03" rms="4.6720802783966064e-01" purity="5.1378142833709717e-01" nType="-99"/>
        </Node>
        <Node pos="r" depth="1" NCoef="0" IVar="6" Cut="1.2930407524108887e+00" cType="1" res="-3.3582919277250767e-03" rms="4.5248892903327942e-01" purity="5.1206821203231812e-01" nType="0">
          <Node pos="l" depth="2" NCoef="0" IVar="-1" Cut="0.0000000000000000e+00" cType="1" res="-2.3660948500037193e-03" rms="3.9761778712272644e-01" purity="2.2598512470722198e-01" nType="-99"/>
          <Node pos="r" depth="2" NCoef="0" IVar="-1" Cut="0.0000000000000000e+00" cType="1" res="-1.7586942703928798e-05" rms="4.5588853955268860e-01" purity="5.3174620866775513e-01" nType="-99"/>
        </Node>
      </Node>
    </BinaryTree>
    <BinaryTree type="DecisionTree" boostWeight="1.0000000000000000e+00" itree="916">
      <Node pos="s" depth="0" NCoef="0" IVar="7" Cut="1.9673651456832886e-01" cType="1" res="2.1461071446537971e-03" rms="4.5317736268043518e-01" purity="5.0061172246932983e-01" nType="0">
        <Node pos="l" depth="1" NCoef="0" IVar="5" Cut="2.8756065368652344e+00" cType="1" res="-1.4731003902852535e-03" rms="4.5294269919395447e-01" purity="4.8647958040237427e-01" nType="0">
          <Node pos="l" depth="2" NCoef="0" IVar="-1" Cut="0.0000000000000000e+00" cType="1" res="1.9694994989549741e-05" rms="4.5593708753585815e-01" purity="5.0430226325988770e-01" nType="-99"/>
          <Node pos="r" depth="2" NCoef="0" IVar="-1" Cut="0.0000000000000000e+00" cType="1" res="-1.9328882917761803e-03" rms="4.0375643968582153e-01" purity="2.1750603616237640e-01" nType="-99"/>
        </Node>
        <Node pos="r" depth="1" NCoef="0" IVar="-1" Cut="0.0000000000000000e+00" cType="1" res="8.5780129302293062e-04" rms="4.5401474833488464e-01" purity="6.1017107963562012e-01" nType="-99"/>
      </Node>
    </BinaryTree>
    <BinaryTree type="DecisionTree" boostWeight="1.0000000000000000e+00" itree="917">
      <Node pos="s" depth="0" NCoef="0" IVar="3" Cut="1.5161477029323578e-01" cType="1" res="-2.2225796710699797e-03" rms="4.5302450656890869e-01" purity="4.9639686942100525e-01" nType="0">
        <Node pos="l" depth="1" NCoef="0" IVar="7" Cut="8.8386712595820427e-03" cType="1" res="3.0149582773447037e-02" rms="4.6062213182449341e-01" purity="4.4377171993255615e-01" nType="0">
          <Node pos="l" depth="2" NCoef="0" IVar="-1" Cut="0.0000000000000000e+00" cType="1" res="4.8961443826556206e-04" rms="4.5641645789146423e-01" purity="3.9752811193466187e-01" nType="-99"/>
          <Node pos="r" depth="2" NCoef="0" IVar="-1" Cut="0.0000000000000000e+00" cType="1" res="1.6221625264734030e-03" rms="4.6449121832847595e-01" purity="4.9540621042251587e-01" nType="-99"/>
        </Node>
        <Node pos="r" depth="1" NCoef="0" IVar="6" Cut="3.7650628089904785e+00" cType="1" res="-6.3778366893529892e-03" rms="4.5187211036682129e-01" purity="5.0315177440643311e-01" nType="0">
          <Node pos="l" depth="2" NCoef="0" IVar="-1" Cut="0.0000000000000000e+00" cType="1" res="-4.3129798723384738e-04" rms="4.5918136835098267e-01" purity="4.1191208362579346e-01" nType="-99"/>
          <Node pos="r" depth="2" NCoef="0" IVar="-1" Cut="0.0000000000000000e+00" cType="1" res="2.0264534396119416e-04" rms="4.3504691123962402e-01" purity="7.0387303829193115e-01" nType="-99"/>
        </Node>
      </Node>
    </BinaryTree>
    <BinaryTree type="DecisionTree" boostWeight="1.0000000000000000e+00" itree="918">
      <Node pos="s" depth="0" NCoef="0" IVar="0" Cut="5.7996487617492676e-01" cType="1" res="8.8274141307920218e-04" rms="4.5174178481101990e-01" purity="5.0056695938110352e-01" nType="0">
        <Node pos="l" depth="1" NCoef="0" IVar="-1" Cut="0.0000000000000000e+00" cType="1" res="1.0748343775048852e-03" rms="4.6165907382965088e-01" purity="5.9207308292388916e-01" nType="-99"/>
        <Node pos="r" depth="1" NCoef="0" IVar="8" Cut="9.2035110473632812e+01" cType="1" res="-1.9827089272439480e-03" rms="4.5082363486289978e-01" purity="4.9332675337791443e-01" nType="0">
          <Node pos="l" depth="2" NCoef="0" IVar="-1" Cut="0.0000000000000000e+00" cType="1" res="-1.3996979687362909e-03" rms="4.4674733281135559e-01" purity="3.9282563328742981e-01" nType="-99"/>
          <Node pos="r" depth="2" NCoef="0" IVar="-1" Cut="0.0000000000000000e+00" cType="1" res="5.9030455304309726e-05" rms="4.5108681917190552e-01" purity="5.0402241945266724e-01" nType="-99"/>
        </Node>
      </Node>
    </BinaryTree>
    <BinaryTree type="DecisionTree" boostWeight="1.0000000000000000e+00" itree="919">
      <Node pos="s" depth="0" NCoef="0" IVar="3" Cut="3.0645462870597839e-01" cType="1" res="5.9303669258952141e-03" rms="4.5433336496353149e-01" purity="5.0202959775924683e-01" nType="0">
        <Node pos="l" depth="1" NCoef="0" IVar="6" Cut="1.5179356336593628e+00" cType="1" res="1.7273891717195511e-02" rms="4.5635041594505310e-01" purity="4.2988991737365723e-01" nType="0">
          <Node pos="l" depth="2" NCoef="0" IVar="-1" Cut="0.0000000000000000e+00" cType="1" res="-6.5508771513123065e-05" rms="4.3849924206733704e-01" purity="3.0439805984497070e-01" nType="-99"/>
          <Node pos="r" depth="2" NCoef="0" IVar="-1" Cut="0.0000000000000000e+00" cType="1" res="9.2263869009912014e-04" rms="4.6767657995223999e-01" purity="5.1524734497070312e-01" nType="-99"/>
        </Node>
        <Node pos="r" depth="1" NCoef="0" IVar="8" Cut="1.3823445129394531e+02" cType="1" res="-1.9941071514040232e-03" rms="4.5275032520294189e-01" purity="5.5242556333541870e-01" nType="0">
          <Node pos="l" depth="2" NCoef="0" IVar="-1" Cut="0.0000000000000000e+00" cType="1" res="1.6570034495089203e-04" rms="4.5155635476112366e-01" purity="5.5907732248306274e-01" nType="-99"/>
          <Node pos="r" depth="2" NCoef="0" IVar="-1" Cut="0.0000000000000000e+00" cType="1" res="-7.5362029019743204e-04" rms="4.5552554726600647e-01" purity="5.3275078535079956e-01" nType="-99"/>
        </Node>
      </Node>
    </BinaryTree>
    <BinaryTree type="DecisionTree" boostWeight="1.0000000000000000e+00" itree="920">
      <Node pos="s" depth="0" NCoef="0" IVar="3" Cut="2.0967569947242737e-01" cType="1" res="1.3838498853147030e-03" rms="4.5458006858825684e-01" purity="4.9990832805633545e-01" nType="0">
        <Node pos="l" depth="1" NCoef="0" IVar="5" Cut="2.0569214820861816e+00" cType="1" res="1.7410999163985252e-02" rms="4.5494523644447327e-01" purity="4.2809316515922546e-01" nType="0">
          <Node pos="l" depth="2" NCoef="0" IVar="-1" Cut="0.0000000000000000e+00" cType="1" res="1.4034077757969499e-03" rms="4.6637475490570068e-01" purity="5.1688909530639648e-01" nType="-99"/>
          <Node pos="r" depth="2" NCoef="0" IVar="-1" Cut="0.0000000000000000e+00" cType="1" res="2.0271689572837204e-04" rms="4.4930925965309143e-01" purity="3.8923639059066772e-01" nType="-99"/>
        </Node>
        <Node pos="r" depth="1" NCoef="0" IVar="0" Cut="1.1980131864547729e+00" cType="1" res="-3.8556696381419897e-03" rms="4.5433804392814636e-01" purity="5.2338588237762451e-01" nType="0">
          <Node pos="l" depth="2" NCoef="0" IVar="-1" Cut="0.0000000000000000e+00" cType="1" res="1.2091395910829306e-04" rms="4.5458140969276428e-01" purity="5.6123632192611694e-01" nType="-99"/>
          <Node pos="r" depth="2" NCoef="0" IVar="-1" Cut="0.0000000000000000e+00" cType="1" res="-5.7745550293475389e-04" rms="4.5360696315765381e-01" purity="4.5901522040367126e-01" nType="-99"/>
        </Node>
      </Node>
    </BinaryTree>
    <BinaryTree type="DecisionTree" boostWeight="1.0000000000000000e+00" itree="921">
      <Node pos="s" depth="0" NCoef="0" IVar="3" Cut="6.9355493783950806e-01" cType="1" res="2.5511172134429216e-03" rms="4.5572280883789062e-01" purity="4.9880832433700562e-01" nType="0">
        <Node pos="l" depth="1" NCoef="0" IVar="6" Cut="3.1305096149444580e+00" cType="1" res="7.2784214280545712e-03" rms="4.5903176069259644e-01" purity="4.6389660239219666e-01" nType="0">
          <Node pos="l" depth="2" NCoef="0" IVar="-1" Cut="0.0000000000000000e+00" cType="1" res="7.8121796832419932e-05" rms="4.6089175343513489e-01" purity="3.9374029636383057e-01" nType="-99"/>
          <Node pos="r" depth="2" NCoef="0" IVar="-1" Cut="0.0000000000000000e+00" cType="1" res="5.5870477808639407e-04" rms="4.5387697219848633e-01" purity="6.4673948287963867e-01" nType="-99"/>
        </Node>
        <Node pos="r" depth="1" NCoef="0" IVar="6" Cut="4.9179821014404297e+00" cType="1" res="-1.9042499363422394e-02" rms="4.3964591622352600e-01" purity="6.5827983617782593e-01" nType="0">
          <Node pos="l" depth="2" NCoef="0" IVar="-1" Cut="0.0000000000000000e+00" cType="1" res="-1.2176755117252469e-03" rms="4.6605521440505981e-01" purity="5.6272709369659424e-01" nType="-99"/>
          <Node pos="r" depth="2" NCoef="0" IVar="-1" Cut="0.0000000000000000e+00" cType="1" res="3.2648880733177066e-04" rms="4.0290933847427368e-01" purity="7.7541774511337280e-01" nType="-99"/>
        </Node>
      </Node>
    </BinaryTree>
    <BinaryTree type="DecisionTree" boostWeight="1.0000000000000000e+00" itree="922">
      <Node pos="s" depth="0" NCoef="0" IVar="5" Cut="2.8893353939056396e+00" cType="1" res="2.3054117336869240e-03" rms="4.5309624075889587e-01" purity="5.0294733047485352e-01" nType="0">
        <Node pos="l" depth="1" NCoef="0" IVar="8" Cut="1.3741743469238281e+02" cType="1" res="5.3034196607768536e-03" rms="4.5633584260940552e-01" purity="5.1939940452575684e-01" nType="0">
          <Node pos="l" depth="2" NCoef="0" IVar="-1" Cut="0.0000000000000000e+00" cType="1" res="3.4269172465428710e-04" rms="4.5455253124237061e-01" purity="5.1988089084625244e-01" nType="-99"/>
          <Node pos="r" depth="2" NCoef="0" IVar="-1" Cut="0.0000000000000000e+00" cType="1" res="-3.6947432090528309e-04" rms="4.6115750074386597e-01" purity="5.1797324419021606e-01" nType="-99"/>
        </Node>
        <Node pos="r" depth="1" NCoef="0" IVar="-1" Cut="0.0000000000000000e+00" cType="1" res="-2.9696670826524496e-03" rms="3.8652864098548889e-01" purity="2.0788505673408508e-01" nType="-99"/>
      </Node>
    </BinaryTree>
    <BinaryTree type="DecisionTree" boostWeight="1.0000000000000000e+00" itree="923">
      <Node pos="s" depth="0" NCoef="0" IVar="6" Cut="8.2071673870086670e-01" cType="1" res="-1.4460572856478393e-04" rms="4.5501947402954102e-01" purity="4.9841153621673584e-01" nType="0">
        <Node pos="l" depth="1" NCoef="0" IVar="-1" Cut="0.0000000000000000e+00" cType="1" res="-2.0626785699278116e-03" rms="4.1424071788787842e-01" purity="2.3901730775833130e-01" nType="-99"/>
        <Node pos="r" depth="1" NCoef="0" IVar="1" Cut="3.7217810058593750e+02" cType="1" res="1.8314704066142440e-03" rms="4.5701742172241211e-01" purity="5.1230770349502563e-01" nType="0">
          <Node pos="l" depth="2" NCoef="0" IVar="-1" Cut="0.0000000000000000e+00" cType="1" res="-1.4545342419296503e-03" rms="4.2152777314186096e-01" purity="2.8273150324821472e-01" nType="-99"/>
          <Node pos="r" depth="2" NCoef="0" IVar="-1" Cut="0.0000000000000000e+00" cType="1" res="1.4997617108747363e-04" rms="4.6007585525512695e-01" purity="5.3378063440322876e-01" nType="-99"/>
        </Node>
      </Node>
    </BinaryTree>
    <BinaryTree type="DecisionTree" boostWeight="1.0000000000000000e+00" itree="924">
      <Node pos="s" depth="0" NCoef="0" IVar="1" Cut="3.6875115966796875e+02" cType="1" res="5.0236406968906522e-04" rms="4.5322796702384949e-01" purity="4.9927318096160889e-01" nType="0">
        <Node pos="l" depth="1" NCoef="0" IVar="-1" Cut="0.0000000000000000e+00" cType="1" res="-1.4240717282518744e-03" rms="4.0823063254356384e-01" purity="2.6997843384742737e-01" nType="-99"/>
        <Node pos="r" depth="1" NCoef="0" IVar="5" Cut="2.8518407344818115e+00" cType="1" res="3.0153742991387844e-03" rms="4.5679000020027161e-01" purity="5.1892077922821045e-01" nType="0">
          <Node pos="l" depth="2" NCoef="0" IVar="-1" Cut="0.0000000000000000e+00" cType="1" res="1.6309025522787124e-04" rms="4.5961743593215942e-01" purity="5.3600680828094482e-01" nType="-99"/>
          <Node pos="r" depth="2" NCoef="0" IVar="-1" Cut="0.0000000000000000e+00" cType="1" res="-1.9316371763125062e-03" rms="4.0495544672012329e-01" purity="2.3497961461544037e-01" nType="-99"/>
        </Node>
      </Node>
    </BinaryTree>
    <BinaryTree type="DecisionTree" boostWeight="1.0000000000000000e+00" itree="925">
      <Node pos="s" depth="0" NCoef="0" IVar="6" Cut="3.7344717979431152e+00" cType="1" res="3.9902259595692158e-03" rms="4.5177981257438660e-01" purity="5.0303971767425537e-01" nType="0">
        <Node pos="l" depth="1" NCoef="0" IVar="4" Cut="1.2723787689208984e+02" cType="1" res="-2.4941996671259403e-03" rms="4.6061229705810547e-01" purity="4.1936099529266357e-01" nType="0">
          <Node pos="l" depth="2" NCoef="0" IVar="-1" Cut="0.0000000000000000e+00" cType="1" res="6.9324516516644508e-05" rms="4.5887073874473572e-01" purity="4.0676149725914001e-01" nType="-99"/>
          <Node pos="r" depth="2" NCoef="0" IVar="-1" Cut="0.0000000000000000e+00" cType="1" res="-8.8786287233233452e-04" rms="4.6992665529251099e-01" purity="4.9402108788490295e-01" nType="-99"/>
        </Node>
        <Node pos="r" depth="1" NCoef="0" IVar="3" Cut="5.9678369760513306e-01" cType="1" res="2.0317308604717255e-02" rms="4.2830091714859009e-01" purity="7.1373367309570312e-01" nType="0">
          <Node pos="l" depth="2" NCoef="0" IVar="-1" Cut="0.0000000000000000e+00" cType="1" res="1.3580992817878723e-03" rms="4.1935727000236511e-01" purity="7.4130368232727051e-01" nType="-99"/>
          <Node pos="r" depth="2" NCoef="0" IVar="-1" Cut="0.0000000000000000e+00" cType="1" res="2.3361071362160146e-04" rms="4.3097364902496338e-01" purity="7.0347565412521362e-01" nType="-99"/>
        </Node>
      </Node>
    </BinaryTree>
    <BinaryTree type="DecisionTree" boostWeight="1.0000000000000000e+00" itree="926">
      <Node pos="s" depth="0" NCoef="0" IVar="3" Cut="1.5161632001399994e-01" cType="1" res="-3.0952061060816050e-03" rms="4.5174723863601685e-01" purity="4.9688130617141724e-01" nType="0">
        <Node pos="l" depth="1" NCoef="0" IVar="2" Cut="7.1856212615966797e-01" cType="1" res="2.7730965986847878e-02" rms="4.5922610163688660e-01" purity="4.4197320938110352e-01" nType="0">
          <Node pos="l" depth="2" NCoef="0" IVar="-1" Cut="0.0000000000000000e+00" cType="1" res="1.8494211835786700e-03" rms="4.6803084015846252e-01" purity="5.2457153797149658e-01" nType="-99"/>
          <Node pos="r" depth="2" NCoef="0" IVar="-1" Cut="0.0000000000000000e+00" cType="1" res="-1.0896149615291506e-04" rms="4.4865283370018005e-01" purity="3.6408734321594238e-01" nType="-99"/>
        </Node>
        <Node pos="r" depth="1" NCoef="0" IVar="6" Cut="3.3252522945404053e+00" cType="1" res="-7.1164788678288460e-03" rms="4.5060700178146362e-01" purity="5.0404405593872070e-01" nType="0">
          <Node pos="l" depth="2" NCoef="0" IVar="-1" Cut="0.0000000000000000e+00" cType="1" res="-6.0033146291971207e-04" rms="4.5530769228935242e-01" purity="3.8677415251731873e-01" nType="-99"/>
          <Node pos="r" depth="2" NCoef="0" IVar="-1" Cut="0.0000000000000000e+00" cType="1" res="1.8552418623585254e-04" rms="4.4342449307441711e-01" purity="6.7188733816146851e-01" nType="-99"/>
        </Node>
      </Node>
    </BinaryTree>
    <BinaryTree type="DecisionTree" boostWeight="1.0000000000000000e+00" itree="927">
      <Node pos="s" depth="0" NCoef="0" IVar="7" Cut="-1.0985758900642395e-01" cType="1" res="-1.5395442023873329e-03" rms="4.5250433683395386e-01" purity="4.9724990129470825e-01" nType="0">
        <Node pos="l" depth="1" NCoef="0" IVar="-1" Cut="0.0000000000000000e+00" cType="1" res="-1.5902383020147681e-03" rms="4.3114221096038818e-01" purity="3.5455197095870972e-01" nType="-99"/>
        <Node pos="r" depth="1" NCoef="0" IVar="6" Cut="3.3012087345123291e+00" cType="1" res="1.3052804861217737e-03" rms="4.5392593741416931e-01" purity="5.0787401199340820e-01" nType="0">
          <Node pos="l" depth="2" NCoef="0" IVar="-1" Cut="0.0000000000000000e+00" cType="1" res="-2.1698961791116744e-04" rms="4.6135482192039490e-01" purity="4.0439364314079285e-01" nType="-99"/>
          <Node pos="r" depth="2" NCoef="0" IVar="-1" Cut="0.0000000000000000e+00" cType="1" res="3.8594510988332331e-04" rms="4.4058513641357422e-01" purity="6.8555134534835815e-01" nType="-99"/>
        </Node>
      </Node>
    </BinaryTree>
    <BinaryTree type="DecisionTree" boostWeight="1.0000000000000000e+00" itree="928">
      <Node pos="s" depth="0" NCoef="0" IVar="3" Cut="5.5806291103363037e-01" cType="1" res="9.4976235413923860e-04" rms="4.5389768481254578e-01" purity="4.9950996041297913e-01" nType="0">
        <Node pos="l" depth="1" NCoef="0" IVar="6" Cut="3.3555257320404053e+00" cType="1" res="6.5896185114979744e-03" rms="4.5538127422332764e-01" purity="4.4654196500778198e-01" nType="0">
          <Node pos="l" depth="2" NCoef="0" IVar="-1" Cut="0.0000000000000000e+00" cType="1" res="-2.3286665964405984e-05" rms="4.5845246315002441e-01" purity="3.9993128180503845e-01" nType="-99"/>
          <Node pos="r" depth="2" NCoef="0" IVar="-1" Cut="0.0000000000000000e+00" cType="1" res="1.2138730380684137e-03" rms="4.3586632609367371e-01" purity="7.0403480529785156e-01" nType="-99"/>
        </Node>
        <Node pos="r" depth="1" NCoef="0" IVar="9" Cut="8.9709861755371094e+01" cType="1" res="-1.2094050645828247e-02" rms="4.5017719268798828e-01" purity="6.2201380729675293e-01" nType="0">
          <Node pos="l" depth="2" NCoef="0" IVar="-1" Cut="0.0000000000000000e+00" cType="1" res="-1.0029209079220891e-03" rms="4.5750150084495544e-01" purity="5.8321416378021240e-01" nType="-99"/>
          <Node pos="r" depth="2" NCoef="0" IVar="-1" Cut="0.0000000000000000e+00" cType="1" res="1.1079772957600653e-04" rms="4.4421544671058655e-01" purity="6.4953613281250000e-01" nType="-99"/>
        </Node>
      </Node>
    </BinaryTree>
    <BinaryTree type="DecisionTree" boostWeight="1.0000000000000000e+00" itree="929">
      <Node pos="s" depth="0" NCoef="0" IVar="6" Cut="4.2197413444519043e+00" cType="1" res="-1.7780937487259507e-03" rms="4.5193517208099365e-01" purity="4.9874645471572876e-01" nType="0">
        <Node pos="l" depth="1" NCoef="0" IVar="3" Cut="6.1613875627517700e-01" cType="1" res="-6.3210441730916500e-03" rms="4.5989307761192322e-01" purity="4.3809100985527039e-01" nType="0">
          <Node pos="l" depth="2" NCoef="0" IVar="-1" Cut="0.0000000000000000e+00" cType="1" res="-8.8662112830206752e-05" rms="4.5765179395675659e-01" purity="4.3020683526992798e-01" nType="-99"/>
          <Node pos="r" depth="2" NCoef="0" IVar="-1" Cut="0.0000000000000000e+00" cType="1" res="-9.6438947366550565e-04" rms="4.7524037957191467e-01" purity="4.9643394351005554e-01" nType="-99"/>
        </Node>
        <Node pos="r" depth="1" NCoef="0" IVar="0" Cut="1.1114212274551392e+00" cType="1" res="1.6580181196331978e-02" rms="4.1773462295532227e-01" purity="7.4385774135589600e-01" nType="0">
          <Node pos="l" depth="2" NCoef="0" IVar="-1" Cut="0.0000000000000000e+00" cType="1" res="7.8953243792057037e-04" rms="4.0288275480270386e-01" purity="7.7509504556655884e-01" nType="-99"/>
          <Node pos="r" depth="2" NCoef="0" IVar="-1" Cut="0.0000000000000000e+00" cType="1" res="3.3798914955696091e-05" rms="4.3678909540176392e-01" purity="7.0107895135879517e-01" nType="-99"/>
        </Node>
      </Node>
    </BinaryTree>
    <BinaryTree type="DecisionTree" boostWeight="1.0000000000000000e+00" itree="930">
      <Node pos="s" depth="0" NCoef="0" IVar="3" Cut="5.9678369760513306e-01" cType="1" res="-1.3637719675898552e-03" rms="4.5501765608787537e-01" purity="4.9633413553237915e-01" nType="0">
        <Node pos="l" depth="1" NCoef="0" IVar="6" Cut="1.5759911537170410e+00" cType="1" res="5.2588912658393383e-03" rms="4.5747110247612000e-01" purity="4.4897553324699402e-01" nType="0">
          <Node pos="l" depth="2" NCoef="0" IVar="-1" Cut="0.0000000000000000e+00" cType="1" res="-7.6190184336155653e-04" rms="4.3267869949340820e-01" purity="2.8566196560859680e-01" nType="-99"/>
          <Node pos="r" depth="2" NCoef="0" IVar="-1" Cut="0.0000000000000000e+00" cType="1" res="3.9172949618659914e-04" rms="4.6560686826705933e-01" purity="5.0614738464355469e-01" nType="-99"/>
        </Node>
        <Node pos="r" depth="1" NCoef="0" IVar="6" Cut="5.0459823608398438e+00" cType="1" res="-1.9512128084897995e-02" rms="4.4772380590438843e-01" purity="6.2611287832260132e-01" nType="0">
          <Node pos="l" depth="2" NCoef="0" IVar="-1" Cut="0.0000000000000000e+00" cType="1" res="-1.0643015848472714e-03" rms="4.6803689002990723e-01" purity="5.5328756570816040e-01" nType="-99"/>
          <Node pos="r" depth="2" NCoef="0" IVar="-1" Cut="0.0000000000000000e+00" cType="1" res="5.8548728702589869e-04" rms="3.9581933617591858e-01" purity="7.8885763883590698e-01" nType="-99"/>
        </Node>
      </Node>
    </BinaryTree>
    <BinaryTree type="DecisionTree" boostWeight="1.0000000000000000e+00" itree="931">
      <Node pos="s" depth="0" NCoef="0" IVar="2" Cut="1.2710464000701904e+00" cType="1" res="-2.6113232597708702e-03" rms="4.5316752791404724e-01" purity="4.9646675586700439e-01" nType="0">
        <Node pos="l" depth="1" NCoef="0" IVar="3" Cut="5.5806994438171387e-01" cType="1" res="-2.8522647335194051e-04" rms="4.5376235246658325e-01" purity="5.0363904237747192e-01" nType="0">
          <Node pos="l" depth="2" NCoef="0" IVar="-1" Cut="0.0000000000000000e+00" cType="1" res="1.7847347771748900e-04" rms="4.5656386017799377e-01" purity="4.4958740472793579e-01" nType="-99"/>
          <Node pos="r" depth="2" NCoef="0" IVar="-1" Cut="0.0000000000000000e+00" cType="1" res="-3.7108059041202068e-04" rms="4.4704204797744751e-01" purity="6.2704801559448242e-01" nType="-99"/>
        </Node>
        <Node pos="r" depth="1" NCoef="0" IVar="-1" Cut="0.0000000000000000e+00" cType="1" res="-1.7128121107816696e-03" rms="4.4025182723999023e-01" purity="3.6757755279541016e-01" nType="-99"/>
      </Node>
    </BinaryTree>
    <BinaryTree type="DecisionTree" boostWeight="1.0000000000000000e+00" itree="932">
      <Node pos="s" depth="0" NCoef="0" IVar="2" Cut="1.0210251808166504e+00" cType="1" res="1.0753953829407692e-03" rms="4.5212724804878235e-01" purity="4.9996566772460938e-01" nType="0">
        <Node pos="l" depth="1" NCoef="0" IVar="9" Cut="8.8746665954589844e+01" cType="1" res="5.9457048773765564e-03" rms="4.5337542891502380e-01" purity="5.2449941635131836e-01" nType="0">
          <Node pos="l" depth="2" NCoef="0" IVar="-1" Cut="0.0000000000000000e+00" cType="1" res="-2.2769099450670183e-04" rms="4.5655226707458496e-01" purity="4.8362725973129272e-01" nType="-99"/>
          <Node pos="r" depth="2" NCoef="0" IVar="-1" Cut="0.0000000000000000e+00" cType="1" res="4.7539934166707098e-04" rms="4.5078706741333008e-01" purity="5.5454540252685547e-01" nType="-99"/>
        </Node>
        <Node pos="r" depth="1" NCoef="0" IVar="4" Cut="4.7294914245605469e+01" cType="1" res="-1.6294516623020172e-02" rms="4.4721561670303345e-01" purity="4.1246643662452698e-01" nType="0">
          <Node pos="l" depth="2" NCoef="0" IVar="-1" Cut="0.0000000000000000e+00" cType="1" res="-2.0550685003399849e-03" rms="4.2327654361724854e-01" purity="3.2872560620307922e-01" nType="-99"/>
          <Node pos="r" depth="2" NCoef="0" IVar="-1" Cut="0.0000000000000000e+00" cType="1" res="-7.4505718657746911e-05" rms="4.5627200603485107e-01" purity="4.4801869988441467e-01" nType="-99"/>
        </Node>
      </Node>
    </BinaryTree>
    <BinaryTree type="DecisionTree" boostWeight="1.0000000000000000e+00" itree="933">
      <Node pos="s" depth="0" NCoef="0" IVar="8" Cut="1.3719209289550781e+02" cType="1" res="2.2245661821216345e-03" rms="4.5460596680641174e-01" purity="4.9878862500190735e-01" nType="0">
        <Node pos="l" depth="1" NCoef="0" IVar="8" Cut="9.3808601379394531e+01" cType="1" res="8.6761899292469025e-03" rms="4.5319455862045288e-01" purity="5.0292569398880005e-01" nType="0">
          <Node pos="l" depth="2" NCoef="0" IVar="-1" Cut="0.0000000000000000e+00" cType="1" res="-5.7806575205177069e-04" rms="4.5575237274169922e-01" purity="4.2532053589820862e-01" nType="-99"/>
          <Node pos="r" depth="2" NCoef="0" IVar="-1" Cut="0.0000000000000000e+00" cType="1" res="4.1537717333994806e-04" rms="4.5259565114974976e-01" purity="5.1662886142730713e-01" nType="-99"/>
        </Node>
        <Node pos="r" depth="1" NCoef="0" IVar="3" Cut="5.5807346105575562e-01" cType="1" res="-1.5368923544883728e-02" rms="4.5797109603881836e-01" purity="4.8750704526901245e-01" nType="0">
          <Node pos="l" depth="2" NCoef="0" IVar="-1" Cut="0.0000000000000000e+00" cType="1" res="1.6838228589222126e-07" rms="4.5675295591354370e-01" purity="4.5167431235313416e-01" nType="-99"/>
          <Node pos="r" depth="2" NCoef="0" IVar="-1" Cut="0.0000000000000000e+00" cType="1" res="-1.5944176120683551e-03" rms="4.5877096056938171e-01" purity="5.7516038417816162e-01" nType="-99"/>
        </Node>
      </Node>
    </BinaryTree>
    <BinaryTree type="DecisionTree" boostWeight="1.0000000000000000e+00" itree="934">
      <Node pos="s" depth="0" NCoef="0" IVar="8" Cut="1.0197555541992188e+02" cType="1" res="1.6908762045204639e-03" rms="4.5419803261756897e-01" purity="5.0064516067504883e-01" nType="0">
        <Node pos="l" depth="1" NCoef="0" IVar="5" Cut="2.3012809753417969e+00" cType="1" res="-2.2026591002941132e-02" rms="4.5286032557487488e-01" purity="4.3423634767532349e-01" nType="0">
          <Node pos="l" depth="2" NCoef="0" IVar="-1" Cut="0.0000000000000000e+00" cType="1" res="-3.3722163061611354e-04" rms="4.6518236398696899e-01" purity="4.9020105600357056e-01" nType="-99"/>
          <Node pos="r" depth="2" NCoef="0" IVar="-1" Cut="0.0000000000000000e+00" cType="1" res="-1.9054672447964549e-03" rms="4.2571610212326050e-01" purity="3.2014662027359009e-01" nType="-99"/>
        </Node>
        <Node pos="r" depth="1" NCoef="0" IVar="7" Cut="1.9362257421016693e-01" cType="1" res="6.6826688125729561e-03" rms="4.5432135462760925e-01" purity="5.1462209224700928e-01" nType="0">
          <Node pos="l" depth="2" NCoef="0" IVar="-1" Cut="0.0000000000000000e+00" cType="1" res="6.6981920099351555e-05" rms="4.5466470718383789e-01" purity="4.9972847104072571e-01" nType="-99"/>
          <Node pos="r" depth="2" NCoef="0" IVar="-1" Cut="0.0000000000000000e+00" cType="1" res="1.1451815953478217e-03" rms="4.5027527213096619e-01" purity="6.2566006183624268e-01" nType="-99"/>
        </Node>
      </Node>
    </BinaryTree>
    <BinaryTree type="DecisionTree" boostWeight="1.0000000000000000e+00" itree="935">
      <Node pos="s" depth="0" NCoef="0" IVar="9" Cut="1.7469044494628906e+02" cType="1" res="3.4065437503159046e-03" rms="4.5349231362342834e-01" purity="5.0181013345718384e-01" nType="0">
        <Node pos="l" depth="1" NCoef="0" IVar="6" Cut="3.4614491462707520e+00" cType="1" res="3.2735744025558233e-04" rms="4.5280221104621887e-01" purity="4.9668106436729431e-01" nType="0">
          <Node pos="l" depth="2" NCoef="0" IVar="-1" Cut="0.0000000000000000e+00" cType="1" res="-2.0173401571810246e-04" rms="4.5939096808433533e-01" purity="3.9980012178421021e-01" nType="-99"/>
          <Node pos="r" depth="2" NCoef="0" IVar="-1" Cut="0.0000000000000000e+00" cType="1" res="3.3479492412880063e-04" rms="4.3916800618171692e-01" purity="6.8925142288208008e-01" nType="-99"/>
        </Node>
        <Node pos="r" depth="1" NCoef="0" IVar="-1" Cut="0.0000000000000000e+00" cType="1" res="1.0488261468708515e-03" rms="4.5917829871177673e-01" purity="5.5283647775650024e-01" nType="-99"/>
      </Node>
    </BinaryTree>
    <BinaryTree type="DecisionTree" boostWeight="1.0000000000000000e+00" itree="936">
      <Node pos="s" depth="0" NCoef="0" IVar="7" Cut="1.3581144809722900e-01" cType="1" res="3.1991137075237930e-04" rms="4.5244684815406799e-01" purity="5.0075858831405640e-01" nType="0">
        <Node pos="l" depth="1" NCoef="0" IVar="6" Cut="4.9151616096496582e+00" cType="1" res="-5.9989970177412033e-03" rms="4.5140430331230164e-01" purity="4.7773012518882751e-01" nType="0">
          <Node pos="l" depth="2" NCoef="0" IVar="-1" Cut="0.0000000000000000e+00" cType="1" res="-2.8946937527507544e-04" rms="4.5641610026359558e-01" purity="4.4446089863777161e-01" nType="-99"/>
          <Node pos="r" depth="2" NCoef="0" IVar="-1" Cut="0.0000000000000000e+00" cType="1" res="5.0000607734546065e-04" rms="4.0319681167602539e-01" purity="7.7457553148269653e-01" nType="-99"/>
        </Node>
        <Node pos="r" depth="1" NCoef="0" IVar="2" Cut="7.3763811588287354e-01" cType="1" res="2.3855302482843399e-02" rms="4.5553836226463318e-01" purity="5.8653050661087036e-01" nType="0">
          <Node pos="l" depth="2" NCoef="0" IVar="-1" Cut="0.0000000000000000e+00" cType="1" res="-1.0550620208960027e-04" rms="4.4310691952705383e-01" purity="6.1311984062194824e-01" nType="-99"/>
          <Node pos="r" depth="2" NCoef="0" IVar="-1" Cut="0.0000000000000000e+00" cType="1" res="1.0433052666485310e-03" rms="4.6050032973289490e-01" purity="5.7454043626785278e-01" nType="-99"/>
        </Node>
      </Node>
    </BinaryTree>
    <BinaryTree type="DecisionTree" boostWeight="1.0000000000000000e+00" itree="937">
      <Node pos="s" depth="0" NCoef="0" IVar="0" Cut="9.2276638746261597e-01" cType="1" res="5.4985601454973221e-03" rms="4.5161032676696777e-01" purity="5.0378626585006714e-01" nType="0">
        <Node pos="l" depth="1" NCoef="0" IVar="3" Cut="6.1613494157791138e-01" cType="1" res="1.8402544781565666e-02" rms="4.5148289203643799e-01" purity="5.6149929761886597e-01" nType="0">
          <Node pos="l" depth="2" NCoef="0" IVar="-1" Cut="0.0000000000000000e+00" cType="1" res="7.6896970858797431e-04" rms="4.5805722475051880e-01" purity="5.1745009422302246e-01" nType="-99"/>
          <Node pos="r" depth="2" NCoef="0" IVar="-1" Cut="0.0000000000000000e+00" cType="1" res="-6.2060695199761540e-05" rms="4.3119695782661438e-01" purity="6.8921828269958496e-01" nType="-99"/>
        </Node>
        <Node pos="r" depth="1" NCoef="0" IVar="3" Cut="4.0322458744049072e-01" cType="1" res="-2.4129429366439581e-03" rms="4.5150610804557800e-01" purity="4.6840208768844604e-01" nType="0">
          <Node pos="l" depth="2" NCoef="0" IVar="-1" Cut="0.0000000000000000e+00" cType="1" res="2.1952055976726115e-04" rms="4.4931781291961670e-01" purity="4.0516984462738037e-01" nType="-99"/>
          <Node pos="r" depth="2" NCoef="0" IVar="-1" Cut="0.0000000000000000e+00" cType="1" res="-3.7633714964613318e-04" rms="4.5391446352005005e-01" purity="5.4434347152709961e-01" nType="-99"/>
        </Node>
      </Node>
    </BinaryTree>
    <BinaryTree type="DecisionTree" boostWeight="1.0000000000000000e+00" itree="938">
      <Node pos="s" depth="0" NCoef="0" IVar="3" Cut="1.7096933722496033e-01" cType="1" res="1.4431796735152602e-03" rms="4.5343923568725586e-01" purity="5.0025993585586548e-01" nType="0">
        <Node pos="l" depth="1" NCoef="0" IVar="6" Cut="1.3298346996307373e+00" cType="1" res="2.7177721261978149e-02" rms="4.5779243111610413e-01" purity="4.4288077950477600e-01" nType="0">
          <Node pos="l" depth="2" NCoef="0" IVar="-1" Cut="0.0000000000000000e+00" cType="1" res="1.0590389138087630e-04" rms="4.4182711839675903e-01" purity="3.0893620848655701e-01" nType="-99"/>
          <Node pos="r" depth="2" NCoef="0" IVar="-1" Cut="0.0000000000000000e+00" cType="1" res="1.4447168214246631e-03" rms="4.7034019231796265e-01" purity="5.6110948324203491e-01" nType="-99"/>
        </Node>
        <Node pos="r" depth="1" NCoef="0" IVar="6" Cut="3.1274998188018799e+00" cType="1" res="-3.6347282584756613e-03" rms="4.5240244269371033e-01" purity="5.1158195734024048e-01" nType="0">
          <Node pos="l" depth="2" NCoef="0" IVar="-1" Cut="0.0000000000000000e+00" cType="1" res="-6.8360101431608200e-04" rms="4.5548933744430542e-01" purity="3.7145715951919556e-01" nType="-99"/>
          <Node pos="r" depth="2" NCoef="0" IVar="-1" Cut="0.0000000000000000e+00" cType="1" res="3.4008544753305614e-04" rms="4.4854876399040222e-01" purity="6.6033989191055298e-01" nType="-99"/>
        </Node>
      </Node>
    </BinaryTree>
    <BinaryTree type="DecisionTree" boostWeight="1.0000000000000000e+00" itree="939">
      <Node pos="s" depth="0" NCoef="0" IVar="7" Cut="2.3104174435138702e-01" cType="1" res="4.3373266234993935e-03" rms="4.5405769348144531e-01" purity="5.0190979242324829e-01" nType="0">
        <Node pos="l" depth="1" NCoef="0" IVar="0" Cut="1.8430495262145996e+00" cType="1" res="2.2818427532911301e-03" rms="4.5377707481384277e-01" purity="4.9349465966224670e-01" nType="0">
          <Node pos="l" depth="2" NCoef="0" IVar="-1" Cut="0.0000000000000000e+00" cType="1" res="1.3373301771935076e-04" rms="4.5491150021553040e-01" purity="4.9944004416465759e-01" nType="-99"/>
          <Node pos="r" depth="2" NCoef="0" IVar="-1" Cut="0.0000000000000000e+00" cType="1" res="-1.1963434517383575e-03" rms="4.3185082077980042e-01" purity="3.8839974999427795e-01" nType="-99"/>
        </Node>
        <Node pos="r" depth="1" NCoef="0" IVar="-1" Cut="0.0000000000000000e+00" cType="1" res="9.1920344857499003e-04" rms="4.5698428153991699e-01" purity="6.1888909339904785e-01" nType="-99"/>
      </Node>
    </BinaryTree>
    <BinaryTree type="DecisionTree" boostWeight="1.0000000000000000e+00" itree="940">
      <Node pos="s" depth="0" NCoef="0" IVar="6" Cut="3.3642592430114746e+00" cType="1" res="2.4671196006238461e-03" rms="4.5441269874572754e-01" purity="5.0037848949432373e-01" nType="0">
        <Node pos="l" depth="1" NCoef="0" IVar="3" Cut="5.5430048704147339e-01" cType="1" res="-3.8694157265126705e-03" rms="4.5986649394035339e-01" purity="4.0004372596740723e-01" nType="0">
          <Node pos="l" depth="2" NCoef="0" IVar="-1" Cut="0.0000000000000000e+00" cType="1" res="-1.8673907106858678e-05" rms="4.5912283658981323e-01" purity="4.0071448683738708e-01" nType="-99"/>
          <Node pos="r" depth="2" NCoef="0" IVar="-1" Cut="0.0000000000000000e+00" cType="1" res="-1.3833256671205163e-03" rms="4.6659883856773376e-01" purity="3.9234292507171631e-01" nType="-99"/>
        </Node>
        <Node pos="r" depth="1" NCoef="0" IVar="3" Cut="6.8634867668151855e-01" cType="1" res="1.3734585605561733e-02" rms="4.4432651996612549e-01" purity="6.7879110574722290e-01" nType="0">
          <Node pos="l" depth="2" NCoef="0" IVar="-1" Cut="0.0000000000000000e+00" cType="1" res="8.1879203207790852e-04" rms="4.4690287113189697e-01" purity="6.7866724729537964e-01" nType="-99"/>
          <Node pos="r" depth="2" NCoef="0" IVar="-1" Cut="0.0000000000000000e+00" cType="1" res="-8.1127778685186058e-05" rms="4.4118222594261169e-01" purity="6.7891097068786621e-01" nType="-99"/>
        </Node>
      </Node>
    </BinaryTree>
    <BinaryTree type="DecisionTree" boostWeight="1.0000000000000000e+00" itree="941">
      <Node pos="s" depth="0" NCoef="0" IVar="6" Cut="4.5960006713867188e+00" cType="1" res="-6.0319359181448817e-04" rms="4.5161575078964233e-01" purity="4.9933069944381714e-01" nType="0">
        <Node pos="l" depth="1" NCoef="0" IVar="3" Cut="7.1283793449401855e-01" cType="1" res="-4.6853381209075451e-03" rms="4.5942690968513489e-01" purity="4.5350301265716553e-01" nType="0">
          <Node pos="l" depth="2" NCoef="0" IVar="-1" Cut="0.0000000000000000e+00" cType="1" res="-2.3790260456735268e-05" rms="4.5820555090904236e-01" purity="4.4755366444587708e-01" nType="-99"/>
          <Node pos="r" depth="2" NCoef="0" IVar="-1" Cut="0.0000000000000000e+00" cType="1" res="-1.4791721478104591e-03" rms="4.7130167484283447e-01" purity="5.2544867992401123e-01" nType="-99"/>
        </Node>
        <Node pos="r" depth="1" NCoef="0" IVar="-1" Cut="0.0000000000000000e+00" cType="1" res="6.9336890010163188e-04" rms="4.0020927786827087e-01" purity="7.7674448490142822e-01" nType="-99"/>
      </Node>
    </BinaryTree>
    <BinaryTree type="DecisionTree" boostWeight="1.0000000000000000e+00" itree="942">
      <Node pos="s" depth="0" NCoef="0" IVar="0" Cut="7.0769643783569336e-01" cType="1" res="-5.7591928634792566e-04" rms="4.5392170548439026e-01" purity="4.9907031655311584e-01" nType="0">
        <Node pos="l" depth="1" NCoef="0" IVar="3" Cut="3.8378810882568359e-01" cType="1" res="2.0762391388416290e-02" rms="4.5392471551895142e-01" purity="5.7349926233291626e-01" nType="0">
          <Node pos="l" depth="2" NCoef="0" IVar="-1" Cut="0.0000000000000000e+00" cType="1" res="1.2506030034273863e-03" rms="4.6621072292327881e-01" purity="5.1106572151184082e-01" nType="-99"/>
          <Node pos="r" depth="2" NCoef="0" IVar="-1" Cut="0.0000000000000000e+00" cType="1" res="2.2226684450288303e-05" rms="4.4033870100975037e-01" purity="6.3619560003280640e-01" nType="-99"/>
        </Node>
        <Node pos="r" depth="1" NCoef="0" IVar="4" Cut="4.4780998229980469e+01" cType="1" res="-5.1807407289743423e-03" rms="4.5378944277763367e-01" purity="4.8300850391387939e-01" nType="0">
          <Node pos="l" depth="2" NCoef="0" IVar="-1" Cut="0.0000000000000000e+00" cType="1" res="-9.3550875317305326e-04" rms="4.4726559519767761e-01" purity="4.0643796324729919e-01" nType="-99"/>
          <Node pos="r" depth="2" NCoef="0" IVar="-1" Cut="0.0000000000000000e+00" cType="1" res="7.8116885561030358e-05" rms="4.5599609613418579e-01" purity="5.1193892955780029e-01" nType="-99"/>
        </Node>
      </Node>
    </BinaryTree>
    <BinaryTree type="DecisionTree" boostWeight="1.0000000000000000e+00" itree="943">
      <Node pos="s" depth="0" NCoef="0" IVar="7" Cut="2.3502053320407867e-01" cType="1" res="-2.0569842308759689e-03" rms="4.5106866955757141e-01" purity="4.9748051166534424e-01" nType="0">
        <Node pos="l" depth="1" NCoef="0" IVar="2" Cut="4.9448412656784058e-01" cType="1" res="-5.2042203024029732e-03" rms="4.5127660036087036e-01" purity="4.8736575245857239e-01" nType="0">
          <Node pos="l" depth="2" NCoef="0" IVar="-1" Cut="0.0000000000000000e+00" cType="1" res="5.4910668404772878e-04" rms="4.4528156518936157e-01" purity="5.9287679195404053e-01" nType="-99"/>
          <Node pos="r" depth="2" NCoef="0" IVar="-1" Cut="0.0000000000000000e+00" cType="1" res="-3.4221820533275604e-04" rms="4.5235905051231384e-01" purity="4.6530029177665710e-01" nType="-99"/>
        </Node>
        <Node pos="r" depth="1" NCoef="0" IVar="-1" Cut="0.0000000000000000e+00" cType="1" res="1.1632407549768686e-03" rms="4.4582247734069824e-01" purity="6.3905531167984009e-01" nType="-99"/>
      </Node>
    </BinaryTree>
    <BinaryTree type="DecisionTree" boostWeight="1.0000000000000000e+00" itree="944">
      <Node pos="s" depth="0" NCoef="0" IVar="5" Cut="1.9594960212707520e+00" cType="1" res="1.9256168743595481e-03" rms="4.5291334390640259e-01" purity="5.0131732225418091e-01" nType="0">
        <Node pos="l" depth="1" NCoef="0" IVar="9" Cut="8.9292282104492188e+01" cType="1" res="2.0131159573793411e-02" rms="4.4939354062080383e-01" purity="5.8812803030014038e-01" nType="0">
          <Node pos="l" depth="2" NCoef="0" IVar="-1" Cut="0.0000000000000000e+00" cType="1" res="2.5570523575879633e-04" rms="4.5632433891296387e-01" purity="5.4241025447845459e-01" nType="-99"/>
          <Node pos="r" depth="2" NCoef="0" IVar="-1" Cut="0.0000000000000000e+00" cType="1" res="1.2477780692279339e-03" rms="4.3253347277641296e-01" purity="6.8946993350982666e-01" nType="-99"/>
        </Node>
        <Node pos="r" depth="1" NCoef="0" IVar="5" Cut="2.5348029136657715e+00" cType="1" res="-4.0778778493404388e-03" rms="4.5390799641609192e-01" purity="4.7269040346145630e-01" nType="0">
          <Node pos="l" depth="2" NCoef="0" IVar="-1" Cut="0.0000000000000000e+00" cType="1" res="-2.6360774063505232e-04" rms="4.5758786797523499e-01" purity="5.1162308454513550e-01" nType="-99"/>
          <Node pos="r" depth="2" NCoef="0" IVar="-1" Cut="0.0000000000000000e+00" cType="1" res="3.7611529114656150e-04" rms="4.4205567240715027e-01" purity="3.5214626789093018e-01" nType="-99"/>
        </Node>
      </Node>
    </BinaryTree>
    <BinaryTree type="DecisionTree" boostWeight="1.0000000000000000e+00" itree="945">
      <Node pos="s" depth="0" NCoef="0" IVar="6" Cut="3.6399827003479004e+00" cType="1" res="2.3032317403703928e-04" rms="4.5195513963699341e-01" purity="4.9888956546783447e-01" nType="0">
        <Node pos="l" depth="1" NCoef="0" IVar="9" Cut="1.4149696350097656e+02" cType="1" res="-6.0032531619071960e-03" rms="4.5947688817977905e-01" purity="4.1148129105567932e-01" nType="0">
          <Node pos="l" depth="2" NCoef="0" IVar="-1" Cut="0.0000000000000000e+00" cType="1" res="-4.2219241731800139e-04" rms="4.5773601531982422e-01" purity="4.0128260850906372e-01" nType="-99"/>
          <Node pos="r" depth="2" NCoef="0" IVar="-1" Cut="0.0000000000000000e+00" cType="1" res="7.0762500399723649e-04" rms="4.6616271138191223e-01" purity="4.5672237873077393e-01" nType="-99"/>
        </Node>
        <Node pos="r" depth="1" NCoef="0" IVar="3" Cut="7.1291428804397583e-01" cType="1" res="1.4748710207641125e-02" rms="4.3358400464057922e-01" purity="7.0246893167495728e-01" nType="0">
          <Node pos="l" depth="2" NCoef="0" IVar="-1" Cut="0.0000000000000000e+00" cType="1" res="8.4405299276113510e-04" rms="4.3360254168510437e-01" purity="7.0697396993637085e-01" nType="-99"/>
          <Node pos="r" depth="2" NCoef="0" IVar="-1" Cut="0.0000000000000000e+00" cType="1" res="-4.9681901145959273e-05" rms="4.3292826414108276e-01" purity="6.9808959960937500e-01" nType="-99"/>
        </Node>
      </Node>
    </BinaryTree>
    <BinaryTree type="DecisionTree" boostWeight="1.0000000000000000e+00" itree="946">
      <Node pos="s" depth="0" NCoef="0" IVar="8" Cut="1.3823445129394531e+02" cType="1" res="2.0908361766487360e-03" rms="4.5522278547286987e-01" purity="4.9911457300186157e-01" nType="0">
        <Node pos="l" depth="1" NCoef="0" IVar="6" Cut="2.1073932647705078e+00" cType="1" res="7.5989221222698689e-03" rms="4.5436552166938782e-01" purity="5.0198984146118164e-01" nType="0">
          <Node pos="l" depth="2" NCoef="0" IVar="-1" Cut="0.0000000000000000e+00" cType="1" res="-2.0994676742702723e-04" rms="4.4436752796173096e-01" purity="3.2262155413627625e-01" nType="-99"/>
          <Node pos="r" depth="2" NCoef="0" IVar="-1" Cut="0.0000000000000000e+00" cType="1" res="3.9783821557648480e-04" rms="4.5921790599822998e-01" purity="5.9289228916168213e-01" nType="-99"/>
        </Node>
        <Node pos="r" depth="1" NCoef="0" IVar="3" Cut="5.5802458524703979e-01" cType="1" res="-1.3653835281729698e-02" rms="4.5729875564575195e-01" purity="4.9089589715003967e-01" nType="0">
          <Node pos="l" depth="2" NCoef="0" IVar="-1" Cut="0.0000000000000000e+00" cType="1" res="-9.1311681899242103e-05" rms="4.5803877711296082e-01" purity="4.4966274499893188e-01" nType="-99"/>
          <Node pos="r" depth="2" NCoef="0" IVar="-1" Cut="0.0000000000000000e+00" cType="1" res="-1.1720445472747087e-03" rms="4.5447498559951782e-01" purity="5.8885800838470459e-01" nType="-99"/>
        </Node>
      </Node>
    </BinaryTree>
    <BinaryTree type="DecisionTree" boostWeight="1.0000000000000000e+00" itree="947">
      <Node pos="s" depth="0" NCoef="0" IVar="4" Cut="1.0410793304443359e+02" cType="1" res="6.2851351685822010e-03" rms="4.5358538627624512e-01" purity="5.0385743379592896e-01" nType="0">
        <Node pos="l" depth="1" NCoef="0" IVar="6" Cut="3.2959771156311035e+00" cType="1" res="1.2149949325248599e-03" rms="4.5252797007560730e-01" purity="4.7306749224662781e-01" nType="0">
          <Node pos="l" depth="2" NCoef="0" IVar="-1" Cut="0.0000000000000000e+00" cType="1" res="-2.4969782680273056e-04" rms="4.5338666439056396e-01" purity="3.6735731363296509e-01" nType="-99"/>
          <Node pos="r" depth="2" NCoef="0" IVar="-1" Cut="0.0000000000000000e+00" cType="1" res="3.9967085467651486e-04" rms="4.5072135329246521e-01" purity="6.5581715106964111e-01" nType="-99"/>
        </Node>
        <Node pos="r" depth="1" NCoef="0" IVar="3" Cut="5.5794703960418701e-01" cType="1" res="2.1095335483551025e-02" rms="4.5633769035339355e-01" purity="5.9379673004150391e-01" nType="0">
          <Node pos="l" depth="2" NCoef="0" IVar="-1" Cut="0.0000000000000000e+00" cType="1" res="9.2332228086888790e-04" rms="4.6491968631744385e-01" purity="5.5327093601226807e-01" nType="-99"/>
          <Node pos="r" depth="2" NCoef="0" IVar="-1" Cut="0.0000000000000000e+00" cType="1" res="-1.0979231592500582e-04" rms="4.3460112810134888e-01" purity="6.8851602077484131e-01" nType="-99"/>
        </Node>
      </Node>
    </BinaryTree>
    <BinaryTree type="DecisionTree" boostWeight="1.0000000000000000e+00" itree="948">
      <Node pos="s" depth="0" NCoef="0" IVar="1" Cut="3.6869296264648438e+02" cType="1" res="-5.0548138096928596e-04" rms="4.5337611436843872e-01" purity="5.0070780515670776e-01" nType="0">
        <Node pos="l" depth="1" NCoef="0" IVar="-1" Cut="0.0000000000000000e+00" cType="1" res="-1.5503213508054614e-03" rms="4.1371074318885803e-01" purity="2.6782649755477905e-01" nType="-99"/>
        <Node pos="r" depth="1" NCoef="0" IVar="0" Cut="7.0046693086624146e-01" cType="1" res="2.1342739928513765e-03" rms="4.5656025409698486e-01" purity="5.2091705799102783e-01" nType="0">
          <Node pos="l" depth="2" NCoef="0" IVar="-1" Cut="0.0000000000000000e+00" cType="1" res="6.2103231903165579e-04" rms="4.5314651727676392e-01" purity="5.9306931495666504e-01" nType="-99"/>
          <Node pos="r" depth="2" NCoef="0" IVar="-1" Cut="0.0000000000000000e+00" cType="1" res="-5.9667851019185036e-05" rms="4.5717138051986694e-01" purity="5.0578314065933228e-01" nType="-99"/>
        </Node>
      </Node>
    </BinaryTree>
    <BinaryTree type="DecisionTree" boostWeight="1.0000000000000000e+00" itree="949">
      <Node pos="s" depth="0" NCoef="0" IVar="8" Cut="8.3705055236816406e+01" cType="1" res="2.0678087603300810e-03" rms="4.5595905184745789e-01" purity="4.9989813566207886e-01" nType="0">
        <Node pos="l" depth="1" NCoef="0" IVar="-1" Cut="0.0000000000000000e+00" cType="1" res="-1.1496375082060695e-03" rms="4.5850095152854919e-01" purity="4.0442499518394470e-01" nType="-99"/>
        <Node pos="r" depth="1" NCoef="0" IVar="6" Cut="4.9574570655822754e+00" cType="1" res="4.2996783740818501e-03" rms="4.5570313930511475e-01" purity="5.0615173578262329e-01" nType="0">
          <Node pos="l" depth="2" NCoef="0" IVar="-1" Cut="0.0000000000000000e+00" cType="1" res="5.4745338275097311e-05" rms="4.6241670846939087e-01" purity="4.7405353188514709e-01" nType="-99"/>
          <Node pos="r" depth="2" NCoef="0" IVar="-1" Cut="0.0000000000000000e+00" cType="1" res="8.4305327618494630e-04" rms="3.8746738433837891e-01" purity="8.0245411396026611e-01" nType="-99"/>
        </Node>
      </Node>
    </BinaryTree>
    <BinaryTree type="DecisionTree" boostWeight="1.0000000000000000e+00" itree="950">
      <Node pos="s" depth="0" NCoef="0" IVar="9" Cut="1.5816709899902344e+02" cType="1" res="2.4280985817313194e-03" rms="4.5423728227615356e-01" purity="5.0136202573776245e-01" nType="0">
        <Node pos="l" depth="1" NCoef="0" IVar="8" Cut="1.3869970703125000e+02" cType="1" res="-2.0030345767736435e-03" rms="4.5436811447143555e-01" purity="4.9359825253486633e-01" nType="0">
          <Node pos="l" depth="2" NCoef="0" IVar="-1" Cut="0.0000000000000000e+00" cType="1" res="9.8623844678513706e-05" rms="4.5364457368850708e-01" purity="4.9938029050827026e-01" nType="-99"/>
          <Node pos="r" depth="2" NCoef="0" IVar="-1" Cut="0.0000000000000000e+00" cType="1" res="-8.7049143621698022e-04" rms="4.5701795816421509e-01" purity="4.6617794036865234e-01" nType="-99"/>
        </Node>
        <Node pos="r" depth="1" NCoef="0" IVar="6" Cut="2.6100869178771973e+00" cType="1" res="3.1308375298976898e-02" rms="4.5232143998146057e-01" purity="5.5196297168731689e-01" nType="0">
          <Node pos="l" depth="2" NCoef="0" IVar="-1" Cut="0.0000000000000000e+00" cType="1" res="1.8889810889959335e-03" rms="4.6445345878601074e-01" purity="4.3763539195060730e-01" nType="-99"/>
          <Node pos="r" depth="2" NCoef="0" IVar="-1" Cut="0.0000000000000000e+00" cType="1" res="4.0923076448962092e-04" rms="4.4221398234367371e-01" purity="6.3795202970504761e-01" nType="-99"/>
        </Node>
      </Node>
    </BinaryTree>
    <BinaryTree type="DecisionTree" boostWeight="1.0000000000000000e+00" itree="951">
      <Node pos="s" depth="0" NCoef="0" IVar="6" Cut="2.3276896476745605e+00" cType="1" res="1.1191579978913069e-03" rms="4.5272424817085266e-01" purity="4.9916690587997437e-01" nType="0">
        <Node pos="l" depth="1" NCoef="0" IVar="5" Cut="1.8970700502395630e+00" cType="1" res="-1.0938225314021111e-02" rms="4.4718685746192932e-01" purity="3.3088633418083191e-01" nType="0">
          <Node pos="l" depth="2" NCoef="0" IVar="-1" Cut="0.0000000000000000e+00" cType="1" res="4.3471407843753695e-04" rms="4.7616836428642273e-01" purity="4.2490613460540771e-01" nType="-99"/>
          <Node pos="r" depth="2" NCoef="0" IVar="-1" Cut="0.0000000000000000e+00" cType="1" res="-7.5107329757884145e-04" rms="4.3931707739830017e-01" purity="3.0701938271522522e-01" nType="-99"/>
        </Node>
        <Node pos="r" depth="1" NCoef="0" IVar="3" Cut="5.5806237459182739e-01" cType="1" res="8.5741523653268814e-03" rms="4.5595484972000122e-01" purity="6.0321360826492310e-01" nType="0">
          <Node pos="l" depth="2" NCoef="0" IVar="-1" Cut="0.0000000000000000e+00" cType="1" res="6.3838454661890864e-04" rms="4.6363323926925659e-01" purity="5.8013504743576050e-01" nType="-99"/>
          <Node pos="r" depth="2" NCoef="0" IVar="-1" Cut="0.0000000000000000e+00" cType="1" res="-1.7626474436838180e-04" rms="4.4732004404067993e-01" purity="6.2730705738067627e-01" nType="-99"/>
        </Node>
      </Node>
    </BinaryTree>
  </Weights>
</MethodSetup>
