<?xml version="1.0"?>
<MethodSetup Method="BDT::BDTG">
  <GeneralInfo>
    <Info name="TMVA Release" value="4.2.0 [262656]"/>
    <Info name="ROOT Release" value="6.02/05 [393733]"/>
    <Info name="Creator" value="kelmorab"/>
    <Info name="Date" value="Sat Apr  1 12:31:43 2017"/>
    <Info name="Host" value="Linux cmsbuild12.cern.ch 2.6.32-573.7.1.el6.x86_64 #1 SMP Wed Sep 23 10:12:03 CEST 2015 x86_64 x86_64 x86_64 GNU/Linux"/>
    <Info name="Dir" value="/nfs/dust/cms/user/kelmorab/Spring17Training/3makeHistosAndCards"/>
    <Info name="Training events" value="10314"/>
    <Info name="TrainingTime" value="7.21073699e+00"/>
    <Info name="AnalysisType" value="Classification"/>
  </GeneralInfo>
  <Options>
    <Option name="V" modified="Yes">False</Option>
    <Option name="VerbosityLevel" modified="No">Default</Option>
    <Option name="VarTransform" modified="No">None</Option>
    <Option name="H" modified="Yes">False</Option>
    <Option name="CreateMVAPdfs" modified="No">False</Option>
    <Option name="IgnoreNegWeightsInTraining" modified="No">False</Option>
    <Option name="NTrees" modified="Yes">943</Option>
    <Option name="MaxDepth" modified="Yes">2</Option>
    <Option name="MinNodeSize" modified="No">5%</Option>
    <Option name="nCuts" modified="Yes">12</Option>
    <Option name="BoostType" modified="Yes">Grad</Option>
    <Option name="AdaBoostR2Loss" modified="No">quadratic</Option>
    <Option name="UseBaggedBoost" modified="Yes">True</Option>
    <Option name="Shrinkage" modified="Yes">1.070000e-02</Option>
    <Option name="AdaBoostBeta" modified="No">5.000000e-01</Option>
    <Option name="UseRandomisedTrees" modified="No">False</Option>
    <Option name="UseNvars" modified="No">3</Option>
    <Option name="UsePoissonNvars" modified="No">True</Option>
    <Option name="BaggedSampleFraction" modified="No">1.000000e-01</Option>
    <Option name="UseYesNoLeaf" modified="No">True</Option>
    <Option name="NegWeightTreatment" modified="Yes">ignorenegweightsintraining</Option>
    <Option name="Css" modified="No">1.000000e+00</Option>
    <Option name="Cts_sb" modified="No">1.000000e+00</Option>
    <Option name="Ctb_ss" modified="No">1.000000e+00</Option>
    <Option name="Cbb" modified="No">1.000000e+00</Option>
    <Option name="NodePurityLimit" modified="No">5.000000e-01</Option>
    <Option name="SeparationType" modified="No">giniindex</Option>
    <Option name="DoBoostMonitor" modified="No">False</Option>
    <Option name="UseFisherCuts" modified="No">False</Option>
    <Option name="MinLinCorrForFisher" modified="No">8.000000e-01</Option>
    <Option name="UseExclusiveVars" modified="No">False</Option>
    <Option name="DoPreselection" modified="No">False</Option>
    <Option name="SigToBkgFraction" modified="No">1.000000e+00</Option>
    <Option name="PruneMethod" modified="No">nopruning</Option>
    <Option name="PruneStrength" modified="No">0.000000e+00</Option>
    <Option name="PruningValFraction" modified="No">5.000000e-01</Option>
    <Option name="nEventsMin" modified="No">0</Option>
    <Option name="UseBaggedGrad" modified="No">False</Option>
    <Option name="GradBaggingFraction" modified="Yes">1.000000e-01</Option>
    <Option name="UseNTrainEvents" modified="No">0</Option>
    <Option name="NNodesMax" modified="No">0</Option>
  </Options>
  <Variables NVar="7">
    <Variable VarIndex="0" Expression="blr_transformed" Label="blr_transformed" Title="blr_transformed" Unit="" Internal="blr_transformed" Type="F" Min="3.42756391e+00" Max="1.14586573e+01"/>
    <Variable VarIndex="1" Expression="closest_tagged_dijet_mass" Label="closest_tagged_dijet_mass" Title="closest_tagged_dijet_mass" Unit="" Internal="closest_tagged_dijet_mass" Type="F" Min="1.64016380e+01" Max="6.70629944e+02"/>
    <Variable VarIndex="2" Expression="Evt_Deta_JetsAverage" Label="Evt_Deta_JetsAverage" Title="Evt_Deta_JetsAverage" Unit="" Internal="Evt_Deta_JetsAverage" Type="F" Min="8.02555531e-02" Max="2.64934540e+00"/>
    <Variable VarIndex="3" Expression="avg_dr_tagged_jets" Label="avg_dr_tagged_jets" Title="avg_dr_tagged_jets" Unit="" Internal="avg_dr_tagged_jets" Type="F" Min="7.00930953e-01" Max="3.57256055e+00"/>
    <Variable VarIndex="4" Expression="best_higgs_mass" Label="best_higgs_mass" Title="best_higgs_mass" Unit="" Internal="best_higgs_mass" Type="F" Min="8.66471767e+00" Max="1.41516357e+03"/>
    <Variable VarIndex="5" Expression="sphericity" Label="sphericity" Title="sphericity" Unit="" Internal="sphericity" Type="F" Min="1.16541330e-02" Max="9.18540478e-01"/>
    <Variable VarIndex="6" Expression="HT" Label="HT" Title="HT" Unit="" Internal="HT" Type="F" Min="1.76146301e+02" Max="1.96140247e+03"/>
  </Variables>
  <Spectators NSpec="0"/>
  <Classes NClass="2">
    <Class Name="Signal" Index="0"/>
    <Class Name="Background" Index="1"/>
  </Classes>
  <Transformations NTransformations="0"/>
  <MVAPdfs/>
  <Weights NTrees="943" AnalysisType="1">
    <BinaryTree type="DecisionTree" boostWeight="1.0000000000000000e+00" itree="0">
      <Node pos="s" depth="0" NCoef="0" IVar="0" Cut="7.3199763298034668e+00" cType="1" res="-1.1415528133511543e-02" rms="4.9986967444419861e-01" purity="4.8858445882797241e-01" nType="0">
        <Node pos="l" depth="1" NCoef="0" IVar="3" Cut="2.4308669567108154e+00" cType="1" res="-1.0260469466447830e-01" rms="4.8935905098915100e-01" purity="3.9739528298377991e-01" nType="0">
          <Node pos="l" depth="2" NCoef="0" IVar="-1" Cut="0.0000000000000000e+00" cType="1" res="-9.5562246860936284e-04" rms="4.9745017290115356e-01" purity="4.4956865906715393e-01" nType="-99"/>
          <Node pos="r" depth="2" NCoef="0" IVar="-1" Cut="0.0000000000000000e+00" cType="1" res="-5.5974489077925682e-03" rms="3.9760768413543701e-01" purity="1.9683648645877838e-01" nType="-99"/>
        </Node>
        <Node pos="r" depth="1" NCoef="0" IVar="2" Cut="1.1209069490432739e+00" cType="1" res="1.5271823108196259e-01" rms="4.7610622644424438e-01" purity="6.5271818637847900e-01" nType="0">
          <Node pos="l" depth="2" NCoef="0" IVar="-1" Cut="0.0000000000000000e+00" cType="1" res="4.9189017154276371e-03" rms="4.3941488862037659e-01" purity="7.3856770992279053e-01" nType="-99"/>
          <Node pos="r" depth="2" NCoef="0" IVar="-1" Cut="0.0000000000000000e+00" cType="1" res="-2.8078959439881146e-04" rms="4.9981817603111267e-01" purity="4.8651751875877380e-01" nType="-99"/>
        </Node>
      </Node>
    </BinaryTree>
    <BinaryTree type="DecisionTree" boostWeight="1.0000000000000000e+00" itree="1">
      <Node pos="s" depth="0" NCoef="0" IVar="0" Cut="6.8644504547119141e+00" cType="1" res="-7.7329636551439762e-03" rms="4.9936559796333313e-01" purity="4.9232140183448792e-01" nType="0">
        <Node pos="l" depth="1" NCoef="0" IVar="2" Cut="1.0835089683532715e+00" cType="1" res="-1.4690658450126648e-01" rms="4.7748208045959473e-01" purity="3.5218524932861328e-01" nType="0">
          <Node pos="l" depth="2" NCoef="0" IVar="-1" Cut="0.0000000000000000e+00" cType="1" res="-1.1101573472842574e-03" rms="4.9634242057800293e-01" purity="4.3984746932983398e-01" nType="-99"/>
          <Node pos="r" depth="2" NCoef="0" IVar="-1" Cut="0.0000000000000000e+00" cType="1" res="-5.1410272717475891e-03" rms="4.1156792640686035e-01" purity="2.1624495089054108e-01" nType="-99"/>
        </Node>
        <Node pos="r" depth="1" NCoef="0" IVar="2" Cut="1.2265070676803589e+00" cType="1" res="1.3292537629604340e-01" rms="4.8125895857810974e-01" purity="6.3395255804061890e-01" nType="0">
          <Node pos="l" depth="2" NCoef="0" IVar="-1" Cut="0.0000000000000000e+00" cType="1" res="4.1856118477880955e-03" rms="4.5637214183807373e-01" purity="7.0362597703933716e-01" nType="-99"/>
          <Node pos="r" depth="2" NCoef="0" IVar="-1" Cut="0.0000000000000000e+00" cType="1" res="-1.8851264612749219e-03" rms="4.8990121483802795e-01" purity="4.0046045184135437e-01" nType="-99"/>
        </Node>
      </Node>
    </BinaryTree>
    <BinaryTree type="DecisionTree" boostWeight="1.0000000000000000e+00" itree="2">
      <Node pos="s" depth="0" NCoef="0" IVar="0" Cut="6.5826473236083984e+00" cType="1" res="8.7725725024938583e-03" rms="4.9879184365272522e-01" purity="5.0870549678802490e-01" nType="0">
        <Node pos="l" depth="1" NCoef="0" IVar="3" Cut="2.4103207588195801e+00" cType="1" res="-1.5136741101741791e-01" rms="4.7537970542907715e-01" purity="3.4618949890136719e-01" nType="0">
          <Node pos="l" depth="2" NCoef="0" IVar="-1" Cut="0.0000000000000000e+00" cType="1" res="-1.9098344491794705e-03" rms="4.8885187506675720e-01" purity="3.9549311995506287e-01" nType="-99"/>
          <Node pos="r" depth="2" NCoef="0" IVar="-1" Cut="0.0000000000000000e+00" cType="1" res="-6.0110511258244514e-03" rms="3.7972378730773926e-01" purity="1.7477259039878845e-01" nType="-99"/>
        </Node>
        <Node pos="r" depth="1" NCoef="0" IVar="2" Cut="1.1292971372604370e+00" cType="1" res="1.2875939905643463e-01" rms="4.8194453120231628e-01" purity="6.3047254085540771e-01" nType="0">
          <Node pos="l" depth="2" NCoef="0" IVar="-1" Cut="0.0000000000000000e+00" cType="1" res="4.5494870282709599e-03" rms="4.4752353429794312e-01" purity="7.2257524728775024e-01" nType="-99"/>
          <Node pos="r" depth="2" NCoef="0" IVar="-1" Cut="0.0000000000000000e+00" cType="1" res="-1.0910779237747192e-03" rms="4.9686649441719055e-01" purity="4.4468727707862854e-01" nType="-99"/>
        </Node>
      </Node>
    </BinaryTree>
    <BinaryTree type="DecisionTree" boostWeight="1.0000000000000000e+00" itree="3">
      <Node pos="s" depth="0" NCoef="0" IVar="0" Cut="6.6081023216247559e+00" cType="1" res="3.3320881426334381e-02" rms="4.9722746014595032e-01" purity="5.3353756666183472e-01" nType="0">
        <Node pos="l" depth="1" NCoef="0" IVar="2" Cut="7.3609715700149536e-01" cType="1" res="-1.1519233882427216e-01" rms="4.8516267538070679e-01" purity="3.8117858767509460e-01" nType="0">
          <Node pos="l" depth="2" NCoef="0" IVar="-1" Cut="0.0000000000000000e+00" cType="1" res="1.3660738477483392e-03" rms="4.9494689702987671e-01" purity="5.7060521841049194e-01" nType="-99"/>
          <Node pos="r" depth="2" NCoef="0" IVar="-1" Cut="0.0000000000000000e+00" cType="1" res="-3.1689684838056564e-03" rms="4.6609908342361450e-01" purity="3.2006129622459412e-01" nType="-99"/>
        </Node>
        <Node pos="r" depth="1" NCoef="0" IVar="2" Cut="1.2026450634002686e+00" cType="1" res="1.5034767985343933e-01" rms="4.7486776113510132e-01" purity="6.5359479188919067e-01" nType="0">
          <Node pos="l" depth="2" NCoef="0" IVar="-1" Cut="0.0000000000000000e+00" cType="1" res="4.3123844079673290e-03" rms="4.5172956585884094e-01" purity="7.1373927593231201e-01" nType="-99"/>
          <Node pos="r" depth="2" NCoef="0" IVar="-1" Cut="0.0000000000000000e+00" cType="1" res="-3.6492483923211694e-04" rms="4.9938818812370300e-01" purity="4.7931605577468872e-01" nType="-99"/>
        </Node>
      </Node>
    </BinaryTree>
    <BinaryTree type="DecisionTree" boostWeight="1.0000000000000000e+00" itree="4">
      <Node pos="s" depth="0" NCoef="0" IVar="0" Cut="7.4168543815612793e+00" cType="1" res="1.2103451415896416e-02" rms="4.9740448594093323e-01" purity="5.1276528835296631e-01" nType="0">
        <Node pos="l" depth="1" NCoef="0" IVar="2" Cut="1.0562036037445068e+00" cType="1" res="-8.8822618126869202e-02" rms="4.9028643965721130e-01" purity="4.0879899263381958e-01" nType="0">
          <Node pos="l" depth="2" NCoef="0" IVar="-1" Cut="0.0000000000000000e+00" cType="1" res="3.4852063981816173e-04" rms="4.9915722012519836e-01" purity="5.1843130588531494e-01" nType="-99"/>
          <Node pos="r" depth="2" NCoef="0" IVar="-1" Cut="0.0000000000000000e+00" cType="1" res="-4.3690558522939682e-03" rms="4.3633022904396057e-01" purity="2.5702020525932312e-01" nType="-99"/>
        </Node>
        <Node pos="r" depth="1" NCoef="0" IVar="2" Cut="1.2177286148071289e+00" cType="1" res="1.9738249480724335e-01" rms="4.5529091358184814e-01" purity="7.0362561941146851e-01" nType="0">
          <Node pos="l" depth="2" NCoef="0" IVar="-1" Cut="0.0000000000000000e+00" cType="1" res="5.4619298316538334e-03" rms="4.1893443465232849e-01" purity="7.7257484197616577e-01" nType="-99"/>
          <Node pos="r" depth="2" NCoef="0" IVar="-1" Cut="0.0000000000000000e+00" cType="1" res="-8.8257808238267899e-04" rms="4.9796766042709351e-01" purity="4.5496422052383423e-01" nType="-99"/>
        </Node>
      </Node>
    </BinaryTree>
    <BinaryTree type="DecisionTree" boostWeight="1.0000000000000000e+00" itree="5">
      <Node pos="s" depth="0" NCoef="0" IVar="0" Cut="7.0397768020629883e+00" cType="1" res="3.3774445764720440e-03" rms="4.9677318334579468e-01" purity="5.0406467914581299e-01" nType="0">
        <Node pos="l" depth="1" NCoef="0" IVar="2" Cut="8.2352137565612793e-01" cType="1" res="-1.1696149408817291e-01" rms="4.8354589939117432e-01" purity="3.7872371077537537e-01" nType="0">
          <Node pos="l" depth="2" NCoef="0" IVar="-1" Cut="0.0000000000000000e+00" cType="1" res="6.1217299662530422e-04" rms="4.9854725599288940e-01" purity="5.3256839513778687e-01" nType="-99"/>
          <Node pos="r" depth="2" NCoef="0" IVar="-1" Cut="0.0000000000000000e+00" cType="1" res="-3.5028869751840830e-03" rms="4.5779109001159668e-01" purity="3.0143252015113831e-01" nType="-99"/>
        </Node>
        <Node pos="r" depth="1" NCoef="0" IVar="2" Cut="1.1787992715835571e+00" cType="1" res="1.6039405763149261e-01" rms="4.6920493245124817e-01" purity="6.6760778427124023e-01" nType="0">
          <Node pos="l" depth="2" NCoef="0" IVar="-1" Cut="0.0000000000000000e+00" cType="1" res="5.0078737549483776e-03" rms="4.3345913290977478e-01" purity="7.4894624948501587e-01" nType="-99"/>
          <Node pos="r" depth="2" NCoef="0" IVar="-1" Cut="0.0000000000000000e+00" cType="1" res="-1.5347582520917058e-03" rms="4.9326345324516296e-01" purity="4.2135176062583923e-01" nType="-99"/>
        </Node>
      </Node>
    </BinaryTree>
    <BinaryTree type="DecisionTree" boostWeight="1.0000000000000000e+00" itree="6">
      <Node pos="s" depth="0" NCoef="0" IVar="2" Cut="1.3268895149230957e+00" cType="1" res="1.7901731655001640e-02" rms="4.9624291062355042e-01" purity="5.1825678348541260e-01" nType="0">
        <Node pos="l" depth="1" NCoef="0" IVar="0" Cut="6.6112194061279297e+00" cType="1" res="9.9396780133247375e-02" rms="4.8704579472541809e-01" purity="6.0265660285949707e-01" nType="0">
          <Node pos="l" depth="2" NCoef="0" IVar="-1" Cut="0.0000000000000000e+00" cType="1" res="-3.3753536990843713e-04" rms="4.9865043163299561e-01" purity="4.7718900442123413e-01" nType="-99"/>
          <Node pos="r" depth="2" NCoef="0" IVar="-1" Cut="0.0000000000000000e+00" cType="1" res="4.0431614033877850e-03" rms="4.5648694038391113e-01" purity="7.0260941982269287e-01" nType="-99"/>
        </Node>
        <Node pos="r" depth="1" NCoef="0" IVar="0" Cut="5.7168178558349609e+00" cType="1" res="-2.3389846086502075e-01" rms="4.3620550632476807e-01" purity="2.5748154520988464e-01" nType="0">
          <Node pos="l" depth="2" NCoef="0" IVar="-1" Cut="0.0000000000000000e+00" cType="1" res="-6.9500841200351715e-03" rms="2.7024331688880920e-01" purity="7.9559430480003357e-02" nType="-99"/>
          <Node pos="r" depth="2" NCoef="0" IVar="-1" Cut="0.0000000000000000e+00" cType="1" res="-3.1344438903033733e-03" rms="4.6903985738754272e-01" purity="3.2796546816825867e-01" nType="-99"/>
        </Node>
      </Node>
    </BinaryTree>
    <BinaryTree type="DecisionTree" boostWeight="1.0000000000000000e+00" itree="7">
      <Node pos="s" depth="0" NCoef="0" IVar="2" Cut="1.0634131431579590e+00" cType="1" res="-1.6614510677754879e-03" rms="4.9576464295387268e-01" purity="4.9996232986450195e-01" nType="0">
        <Node pos="l" depth="1" NCoef="0" IVar="0" Cut="7.6850776672363281e+00" cType="1" res="1.1224318295717239e-01" rms="4.8339664936065674e-01" purity="6.1942338943481445e-01" nType="0">
          <Node pos="l" depth="2" NCoef="0" IVar="-1" Cut="0.0000000000000000e+00" cType="1" res="7.4577896157279611e-04" rms="4.9723377823829651e-01" purity="5.4139572381973267e-01" nType="-99"/>
          <Node pos="r" depth="2" NCoef="0" IVar="-1" Cut="0.0000000000000000e+00" cType="1" res="5.4006525315344334e-03" rms="4.1831779479980469e-01" purity="7.7387994527816772e-01" nType="-99"/>
        </Node>
        <Node pos="r" depth="1" NCoef="0" IVar="0" Cut="7.3535442352294922e+00" cType="1" res="-1.6690385341644287e-01" rms="4.6607306599617004e-01" purity="3.2665914297103882e-01" nType="0">
          <Node pos="l" depth="2" NCoef="0" IVar="-1" Cut="0.0000000000000000e+00" cType="1" res="-4.6754647046327591e-03" rms="4.2078456282615662e-01" purity="2.3087520897388458e-01" nType="-99"/>
          <Node pos="r" depth="2" NCoef="0" IVar="-1" Cut="0.0000000000000000e+00" cType="1" res="4.4223177246749401e-04" rms="4.9687126278877258e-01" purity="5.2284097671508789e-01" nType="-99"/>
        </Node>
      </Node>
    </BinaryTree>
    <BinaryTree type="DecisionTree" boostWeight="1.0000000000000000e+00" itree="8">
      <Node pos="s" depth="0" NCoef="0" IVar="2" Cut="1.1894295215606689e+00" cType="1" res="-3.4203890711069107e-02" rms="4.9434974789619446e-01" purity="4.6637612581253052e-01" nType="0">
        <Node pos="l" depth="1" NCoef="0" IVar="0" Cut="5.7235164642333984e+00" cType="1" res="5.9112094342708588e-02" rms="4.9295243620872498e-01" purity="5.6520527601242065e-01" nType="0">
          <Node pos="l" depth="2" NCoef="0" IVar="-1" Cut="0.0000000000000000e+00" cType="1" res="-2.6666119229048491e-03" rms="4.7411102056503296e-01" purity="3.4347677230834961e-01" nType="-99"/>
          <Node pos="r" depth="2" NCoef="0" IVar="-1" Cut="0.0000000000000000e+00" cType="1" res="2.2596023045480251e-03" rms="4.8367568850517273e-01" purity="6.1906766891479492e-01" nType="-99"/>
        </Node>
        <Node pos="r" depth="1" NCoef="0" IVar="0" Cut="7.9762606620788574e+00" cType="1" res="-2.3506343364715576e-01" rms="4.3389308452606201e-01" purity="2.5364956259727478e-01" nType="0">
          <Node pos="l" depth="2" NCoef="0" IVar="-1" Cut="0.0000000000000000e+00" cType="1" res="-5.2410471253097057e-03" rms="3.9901989698410034e-01" purity="1.9903443753719330e-01" nType="-99"/>
          <Node pos="r" depth="2" NCoef="0" IVar="-1" Cut="0.0000000000000000e+00" cType="1" res="-3.9750954601913691e-04" rms="4.9956926703453064e-01" purity="4.7817471623420715e-01" nType="-99"/>
        </Node>
      </Node>
    </BinaryTree>
    <BinaryTree type="DecisionTree" boostWeight="1.0000000000000000e+00" itree="9">
      <Node pos="s" depth="0" NCoef="0" IVar="2" Cut="1.1787992715835571e+00" cType="1" res="2.0714685320854187e-02" rms="4.9434092640876770e-01" purity="5.2104419469833374e-01" nType="0">
        <Node pos="l" depth="1" NCoef="0" IVar="0" Cut="6.6489953994750977e+00" cType="1" res="1.1132401227951050e-01" rms="4.8244440555572510e-01" purity="6.1824160814285278e-01" nType="0">
          <Node pos="l" depth="2" NCoef="0" IVar="-1" Cut="0.0000000000000000e+00" cType="1" res="-7.1053759893402457e-04" rms="4.9793687462806702e-01" purity="4.5797735452651978e-01" nType="-99"/>
          <Node pos="r" depth="2" NCoef="0" IVar="-1" Cut="0.0000000000000000e+00" cType="1" res="4.9063889309763908e-03" rms="4.3266153335571289e-01" purity="7.4895530939102173e-01" nType="-99"/>
        </Node>
        <Node pos="r" depth="1" NCoef="0" IVar="0" Cut="7.8959369659423828e+00" cType="1" res="-1.5723825991153717e-01" rms="4.6840512752532959e-01" purity="3.3015257120132446e-01" nType="0">
          <Node pos="l" depth="2" NCoef="0" IVar="-1" Cut="0.0000000000000000e+00" cType="1" res="-3.8012645673006773e-03" rms="4.4702875614166260e-01" purity="2.7835139632225037e-01" nType="-99"/>
          <Node pos="r" depth="2" NCoef="0" IVar="-1" Cut="0.0000000000000000e+00" cType="1" res="1.2168479152023792e-03" rms="4.9720215797424316e-01" purity="5.5592393875122070e-01" nType="-99"/>
        </Node>
      </Node>
    </BinaryTree>
    <BinaryTree type="DecisionTree" boostWeight="1.0000000000000000e+00" itree="10">
      <Node pos="s" depth="0" NCoef="0" IVar="2" Cut="1.2178940773010254e+00" cType="1" res="-1.0681621730327606e-02" rms="4.9472683668136597e-01" purity="4.9072837829589844e-01" nType="0">
        <Node pos="l" depth="1" NCoef="0" IVar="0" Cut="6.8676586151123047e+00" cType="1" res="7.3601856827735901e-02" rms="4.9035331606864929e-01" purity="5.8144301176071167e-01" nType="0">
          <Node pos="l" depth="2" NCoef="0" IVar="-1" Cut="0.0000000000000000e+00" cType="1" res="-3.5189194022677839e-04" rms="4.9806848168373108e-01" purity="4.7734364867210388e-01" nType="-99"/>
          <Node pos="r" depth="2" NCoef="0" IVar="-1" Cut="0.0000000000000000e+00" cType="1" res="3.3176357392221689e-03" rms="4.6619156002998352e-01" purity="6.8052363395690918e-01" nType="-99"/>
        </Node>
        <Node pos="r" depth="1" NCoef="0" IVar="3" Cut="2.3215408325195312e+00" cType="1" res="-2.2229935228824615e-01" rms="4.3926507234573364e-01" purity="2.6296326518058777e-01" nType="0">
          <Node pos="l" depth="2" NCoef="0" IVar="-1" Cut="0.0000000000000000e+00" cType="1" res="-7.3831930058076978e-04" rms="4.9563521146774292e-01" purity="4.4723543524742126e-01" nType="-99"/>
          <Node pos="r" depth="2" NCoef="0" IVar="-1" Cut="0.0000000000000000e+00" cType="1" res="-5.2766874432563782e-03" rms="4.0039202570915222e-01" purity="2.0115704834461212e-01" nType="-99"/>
        </Node>
      </Node>
    </BinaryTree>
    <BinaryTree type="DecisionTree" boostWeight="1.0000000000000000e+00" itree="11">
      <Node pos="s" depth="0" NCoef="0" IVar="2" Cut="1.2783036231994629e+00" cType="1" res="3.5114109516143799e-02" rms="4.9218106269836426e-01" purity="5.3617829084396362e-01" nType="0">
        <Node pos="l" depth="1" NCoef="0" IVar="0" Cut="6.6616992950439453e+00" cType="1" res="1.1431650072336197e-01" rms="4.8118361830711365e-01" purity="6.2157207727432251e-01" nType="0">
          <Node pos="l" depth="2" NCoef="0" IVar="-1" Cut="0.0000000000000000e+00" cType="1" res="-3.7913638516329229e-04" rms="4.9851670861244202e-01" purity="4.7360426187515259e-01" nType="-99"/>
          <Node pos="r" depth="2" NCoef="0" IVar="-1" Cut="0.0000000000000000e+00" cType="1" res="4.5309122651815414e-03" rms="4.4098803400993347e-01" purity="7.3384571075439453e-01" nType="-99"/>
        </Node>
        <Node pos="r" depth="1" NCoef="0" IVar="0" Cut="6.1123523712158203e+00" cType="1" res="-2.0885872840881348e-01" rms="4.4313666224479675e-01" purity="2.7313339710235596e-01" nType="0">
          <Node pos="l" depth="2" NCoef="0" IVar="-1" Cut="0.0000000000000000e+00" cType="1" res="-5.6716492399573326e-03" rms="3.5008889436721802e-01" purity="1.4345122873783112e-01" nType="-99"/>
          <Node pos="r" depth="2" NCoef="0" IVar="-1" Cut="0.0000000000000000e+00" cType="1" res="-2.2016051225364208e-03" rms="4.8163354396820068e-01" purity="3.7238463759422302e-01" nType="-99"/>
        </Node>
      </Node>
    </BinaryTree>
    <BinaryTree type="DecisionTree" boostWeight="1.0000000000000000e+00" itree="12">
      <Node pos="s" depth="0" NCoef="0" IVar="3" Cut="2.4001941680908203e+00" cType="1" res="1.6807574778795242e-02" rms="4.9252524971961975e-01" purity="5.1844459772109985e-01" nType="0">
        <Node pos="l" depth="1" NCoef="0" IVar="0" Cut="6.9918022155761719e+00" cType="1" res="9.1870203614234924e-02" rms="4.8510244488716125e-01" purity="5.9934210777282715e-01" nType="0">
          <Node pos="l" depth="2" NCoef="0" IVar="-1" Cut="0.0000000000000000e+00" cType="1" res="-7.0401292759925127e-04" rms="4.9580150842666626e-01" purity="4.5783886313438416e-01" nType="-99"/>
          <Node pos="r" depth="2" NCoef="0" IVar="-1" Cut="0.0000000000000000e+00" cType="1" res="4.8196008428931236e-03" rms="4.3223902583122253e-01" purity="7.5106543302536011e-01" nType="-99"/>
        </Node>
        <Node pos="r" depth="1" NCoef="0" IVar="3" Cut="2.7283523082733154e+00" cType="1" res="-2.1617156267166138e-01" rms="4.3970131874084473e-01" purity="2.6735526323318481e-01" nType="0">
          <Node pos="l" depth="2" NCoef="0" IVar="-1" Cut="0.0000000000000000e+00" cType="1" res="-2.8667391743510962e-03" rms="4.6814614534378052e-01" purity="3.3131900429725647e-01" nType="-99"/>
          <Node pos="r" depth="2" NCoef="0" IVar="-1" Cut="0.0000000000000000e+00" cType="1" res="-6.9782626815140247e-03" rms="2.9829755425453186e-01" purity="9.9214263260364532e-02" nType="-99"/>
        </Node>
      </Node>
    </BinaryTree>
    <BinaryTree type="DecisionTree" boostWeight="1.0000000000000000e+00" itree="13">
      <Node pos="s" depth="0" NCoef="0" IVar="0" Cut="6.7388768196105957e+00" cType="1" res="-1.3378073461353779e-02" rms="4.9296784400939941e-01" purity="4.8882034420967102e-01" nType="0">
        <Node pos="l" depth="1" NCoef="0" IVar="2" Cut="1.5253931283950806e+00" cType="1" res="-1.4593292772769928e-01" rms="4.7140312194824219e-01" purity="3.4192222356796265e-01" nType="0">
          <Node pos="l" depth="2" NCoef="0" IVar="-1" Cut="0.0000000000000000e+00" cType="1" res="-1.8129153177142143e-03" rms="4.8767971992492676e-01" purity="3.9527055621147156e-01" nType="-99"/>
          <Node pos="r" depth="2" NCoef="0" IVar="-1" Cut="0.0000000000000000e+00" cType="1" res="-6.9094034843146801e-03" rms="2.6693761348724365e-01" purity="7.7694147825241089e-02" nType="-99"/>
        </Node>
        <Node pos="r" depth="1" NCoef="0" IVar="2" Cut="1.3520549535751343e+00" cType="1" res="1.0719013214111328e-01" rms="4.8105564713478088e-01" purity="6.2243485450744629e-01" nType="0">
          <Node pos="l" depth="2" NCoef="0" IVar="-1" Cut="0.0000000000000000e+00" cType="1" res="3.1124176457524300e-03" rms="4.6871551871299744e-01" purity="6.7112547159194946e-01" nType="-99"/>
          <Node pos="r" depth="2" NCoef="0" IVar="-1" Cut="0.0000000000000000e+00" cType="1" res="-2.7873746585100889e-03" rms="4.7356536984443665e-01" purity="3.4399336576461792e-01" nType="-99"/>
        </Node>
      </Node>
    </BinaryTree>
    <BinaryTree type="DecisionTree" boostWeight="1.0000000000000000e+00" itree="14">
      <Node pos="s" depth="0" NCoef="0" IVar="2" Cut="9.9827986955642700e-01" cType="1" res="-2.0994629710912704e-02" rms="4.9329873919487000e-01" purity="4.8101666569709778e-01" nType="0">
        <Node pos="l" depth="1" NCoef="0" IVar="0" Cut="5.6666970252990723e+00" cType="1" res="8.3915434777736664e-02" rms="4.8794817924499512e-01" purity="5.9681034088134766e-01" nType="0">
          <Node pos="l" depth="2" NCoef="0" IVar="-1" Cut="0.0000000000000000e+00" cType="1" res="-1.6523118829354644e-03" rms="4.8984944820404053e-01" purity="4.0315979719161987e-01" nType="-99"/>
          <Node pos="r" depth="2" NCoef="0" IVar="-1" Cut="0.0000000000000000e+00" cType="1" res="2.5438265874981880e-03" rms="4.7771865129470825e-01" purity="6.4474165439605713e-01" nType="-99"/>
        </Node>
        <Node pos="r" depth="1" NCoef="0" IVar="0" Cut="6.5372452735900879e+00" cType="1" res="-1.4175687730312347e-01" rms="4.7131142020225525e-01" purity="3.4772619605064392e-01" nType="0">
          <Node pos="l" depth="2" NCoef="0" IVar="-1" Cut="0.0000000000000000e+00" cType="1" res="-4.4489675201475620e-03" rms="4.1700339317321777e-01" purity="2.2647847235202789e-01" nType="-99"/>
          <Node pos="r" depth="2" NCoef="0" IVar="-1" Cut="0.0000000000000000e+00" cType="1" res="-8.4517057985067368e-04" rms="4.9553510546684265e-01" purity="4.5844173431396484e-01" nType="-99"/>
        </Node>
      </Node>
    </BinaryTree>
    <BinaryTree type="DecisionTree" boostWeight="1.0000000000000000e+00" itree="15">
      <Node pos="s" depth="0" NCoef="0" IVar="0" Cut="6.7425947189331055e+00" cType="1" res="-4.9010715447366238e-03" rms="4.9111962318420410e-01" purity="4.9804729223251343e-01" nType="0">
        <Node pos="l" depth="1" NCoef="0" IVar="3" Cut="2.3140175342559814e+00" cType="1" res="-1.6501435637474060e-01" rms="4.6339160203933716e-01" purity="3.2122743129730225e-01" nType="0">
          <Node pos="l" depth="2" NCoef="0" IVar="-1" Cut="0.0000000000000000e+00" cType="1" res="-1.6480328049510717e-03" rms="4.8919594287872314e-01" purity="4.0370002388954163e-01" nType="-99"/>
          <Node pos="r" depth="2" NCoef="0" IVar="-1" Cut="0.0000000000000000e+00" cType="1" res="-6.0653612017631531e-03" rms="3.3759254217147827e-01" purity="1.3134071230888367e-01" nType="-99"/>
        </Node>
        <Node pos="r" depth="1" NCoef="0" IVar="2" Cut="1.2706632614135742e+00" cType="1" res="1.3073572516441345e-01" rms="4.7276276350021362e-01" purity="6.4783674478530884e-01" nType="0">
          <Node pos="l" depth="2" NCoef="0" IVar="-1" Cut="0.0000000000000000e+00" cType="1" res="3.8842088542878628e-03" rms="4.5117518305778503e-01" purity="7.1415942907333374e-01" nType="-99"/>
          <Node pos="r" depth="2" NCoef="0" IVar="-1" Cut="0.0000000000000000e+00" cType="1" res="-1.7488360172137618e-03" rms="4.8725852370262146e-01" purity="3.9537888765335083e-01" nType="-99"/>
        </Node>
      </Node>
    </BinaryTree>
    <BinaryTree type="DecisionTree" boostWeight="1.0000000000000000e+00" itree="16">
      <Node pos="s" depth="0" NCoef="0" IVar="0" Cut="6.6614766120910645e+00" cType="1" res="5.7355891913175583e-03" rms="4.9033370614051819e-01" purity="5.0645321607589722e-01" nType="0">
        <Node pos="l" depth="1" NCoef="0" IVar="3" Cut="2.2732810974121094e+00" cType="1" res="-1.3858488202095032e-01" rms="4.7103026509284973e-01" purity="3.4406453371047974e-01" nType="0">
          <Node pos="l" depth="2" NCoef="0" IVar="-1" Cut="0.0000000000000000e+00" cType="1" res="-6.5097096376121044e-04" rms="4.9662917852401733e-01" purity="4.5642852783203125e-01" nType="-99"/>
          <Node pos="r" depth="2" NCoef="0" IVar="-1" Cut="0.0000000000000000e+00" cType="1" res="-5.2130459807813168e-03" rms="3.8840341567993164e-01" purity="1.8665039539337158e-01" nType="-99"/>
        </Node>
        <Node pos="r" depth="1" NCoef="0" IVar="2" Cut="1.2943829298019409e+00" cType="1" res="1.3178730010986328e-01" rms="4.7175711393356323e-01" purity="6.4828598499298096e-01" nType="0">
          <Node pos="l" depth="2" NCoef="0" IVar="-1" Cut="0.0000000000000000e+00" cType="1" res="4.0468862280249596e-03" rms="4.4802558422088623e-01" purity="7.1903854608535767e-01" nType="-99"/>
          <Node pos="r" depth="2" NCoef="0" IVar="-1" Cut="0.0000000000000000e+00" cType="1" res="-1.4296466251835227e-03" rms="4.9047482013702393e-01" purity="4.0981400012969971e-01" nType="-99"/>
        </Node>
      </Node>
    </BinaryTree>
    <BinaryTree type="DecisionTree" boostWeight="1.0000000000000000e+00" itree="17">
      <Node pos="s" depth="0" NCoef="0" IVar="0" Cut="6.6808738708496094e+00" cType="1" res="-3.3100213855504990e-02" rms="4.9038445949554443e-01" purity="4.6760940551757812e-01" nType="0">
        <Node pos="l" depth="1" NCoef="0" IVar="2" Cut="7.8863328695297241e-01" cType="1" res="-1.5429610013961792e-01" rms="4.6667018532752991e-01" purity="3.2749235630035400e-01" nType="0">
          <Node pos="l" depth="2" NCoef="0" IVar="-1" Cut="0.0000000000000000e+00" cType="1" res="-8.7796407751739025e-04" rms="4.9718099832534790e-01" purity="4.5038893818855286e-01" nType="-99"/>
          <Node pos="r" depth="2" NCoef="0" IVar="-1" Cut="0.0000000000000000e+00" cType="1" res="-3.6036551464349031e-03" rms="4.4724136590957642e-01" purity="2.7961856126785278e-01" nType="-99"/>
        </Node>
        <Node pos="r" depth="1" NCoef="0" IVar="2" Cut="1.1332526206970215e+00" cType="1" res="8.2637816667556763e-02" rms="4.8448783159255981e-01" purity="6.0141646862030029e-01" nType="0">
          <Node pos="l" depth="2" NCoef="0" IVar="-1" Cut="0.0000000000000000e+00" cType="1" res="3.2317803706973791e-03" rms="4.6377170085906982e-01" purity="6.8510466814041138e-01" nType="-99"/>
          <Node pos="r" depth="2" NCoef="0" IVar="-1" Cut="0.0000000000000000e+00" cType="1" res="-1.2325199786573648e-03" rms="4.9285602569580078e-01" purity="4.3274700641632080e-01" nType="-99"/>
        </Node>
      </Node>
    </BinaryTree>
    <BinaryTree type="DecisionTree" boostWeight="1.0000000000000000e+00" itree="18">
      <Node pos="s" depth="0" NCoef="0" IVar="2" Cut="1.1854532957077026e+00" cType="1" res="-1.7746967496350408e-03" rms="4.8959735035896301e-01" purity="4.9955961108207703e-01" nType="0">
        <Node pos="l" depth="1" NCoef="0" IVar="0" Cut="6.3561654090881348e+00" cType="1" res="9.3736700713634491e-02" rms="4.8242425918579102e-01" purity="6.0837924480438232e-01" nType="0">
          <Node pos="l" depth="2" NCoef="0" IVar="-1" Cut="0.0000000000000000e+00" cType="1" res="-1.0365344351157546e-03" rms="4.9473080039024353e-01" purity="4.3436843156814575e-01" nType="-99"/>
          <Node pos="r" depth="2" NCoef="0" IVar="-1" Cut="0.0000000000000000e+00" cType="1" res="3.4750169143080711e-03" rms="4.5679542422294617e-01" purity="6.9931131601333618e-01" nType="-99"/>
        </Node>
        <Node pos="r" depth="1" NCoef="0" IVar="0" Cut="7.9634661674499512e+00" cType="1" res="-1.8374359607696533e-01" rms="4.4999629259109497e-01" purity="2.9223576188087463e-01" nType="0">
          <Node pos="l" depth="2" NCoef="0" IVar="-1" Cut="0.0000000000000000e+00" cType="1" res="-4.1958345100283623e-03" rms="4.2444676160812378e-01" purity="2.4076734483242035e-01" nType="-99"/>
          <Node pos="r" depth="2" NCoef="0" IVar="-1" Cut="0.0000000000000000e+00" cType="1" res="-1.1869609807035886e-05" rms="4.9789729714393616e-01" purity="4.9385234713554382e-01" nType="-99"/>
        </Node>
      </Node>
    </BinaryTree>
    <BinaryTree type="DecisionTree" boostWeight="1.0000000000000000e+00" itree="19">
      <Node pos="s" depth="0" NCoef="0" IVar="0" Cut="6.0139236450195312e+00" cType="1" res="-7.1470439434051514e-03" rms="4.9131515622138977e-01" purity="4.9489787220954895e-01" nType="0">
        <Node pos="l" depth="1" NCoef="0" IVar="2" Cut="1.3024730682373047e+00" cType="1" res="-1.8706618249416351e-01" rms="4.5024198293685913e-01" purity="2.9066869616508484e-01" nType="0">
          <Node pos="l" depth="2" NCoef="0" IVar="-1" Cut="0.0000000000000000e+00" cType="1" res="-2.2008747328072786e-03" rms="4.7994920611381531e-01" purity="3.6503744125366211e-01" nType="-99"/>
          <Node pos="r" depth="2" NCoef="0" IVar="-1" Cut="0.0000000000000000e+00" cType="1" res="-5.8105806820094585e-03" rms="3.3232280611991882e-01" purity="1.2609262764453888e-01" nType="-99"/>
        </Node>
        <Node pos="r" depth="1" NCoef="0" IVar="2" Cut="1.0400614738464355e+00" cType="1" res="6.1545893549919128e-02" rms="4.8895591497421265e-01" purity="5.7287240028381348e-01" nType="0">
          <Node pos="l" depth="2" NCoef="0" IVar="-1" Cut="0.0000000000000000e+00" cType="1" res="2.9506576247513294e-03" rms="4.6854680776596069e-01" purity="6.6990423202514648e-01" nType="-99"/>
          <Node pos="r" depth="2" NCoef="0" IVar="-1" Cut="0.0000000000000000e+00" cType="1" res="-8.0825743498280644e-04" rms="4.9434164166450500e-01" purity="4.5205628871917725e-01" nType="-99"/>
        </Node>
      </Node>
    </BinaryTree>
    <BinaryTree type="DecisionTree" boostWeight="1.0000000000000000e+00" itree="20">
      <Node pos="s" depth="0" NCoef="0" IVar="0" Cut="7.0496330261230469e+00" cType="1" res="-2.4204893037676811e-02" rms="4.8712682723999023e-01" purity="4.7617483139038086e-01" nType="0">
        <Node pos="l" depth="1" NCoef="0" IVar="3" Cut="2.3815724849700928e+00" cType="1" res="-1.5276406705379486e-01" rms="4.6429124474525452e-01" purity="3.3141687512397766e-01" nType="0">
          <Node pos="l" depth="2" NCoef="0" IVar="-1" Cut="0.0000000000000000e+00" cType="1" res="-1.3608568115159869e-03" rms="4.9073806405067444e-01" purity="4.1939651966094971e-01" nType="-99"/>
          <Node pos="r" depth="2" NCoef="0" IVar="-1" Cut="0.0000000000000000e+00" cType="1" res="-6.2834084965288639e-03" rms="3.1627920269966125e-01" purity="1.1542174965143204e-01" nType="-99"/>
        </Node>
        <Node pos="r" depth="1" NCoef="0" IVar="2" Cut="1.2567887306213379e+00" cType="1" res="1.5948085486888885e-01" rms="4.5932561159133911e-01" purity="6.8300551176071167e-01" nType="0">
          <Node pos="l" depth="2" NCoef="0" IVar="-1" Cut="0.0000000000000000e+00" cType="1" res="4.6559697948396206e-03" rms="4.2881700396537781e-01" purity="7.5639265775680542e-01" nType="-99"/>
          <Node pos="r" depth="2" NCoef="0" IVar="-1" Cut="0.0000000000000000e+00" cType="1" res="-1.0070467833429575e-03" rms="4.9536451697349548e-01" purity="4.3608796596527100e-01" nType="-99"/>
        </Node>
      </Node>
    </BinaryTree>
    <BinaryTree type="DecisionTree" boostWeight="1.0000000000000000e+00" itree="21">
      <Node pos="s" depth="0" NCoef="0" IVar="2" Cut="1.0597018003463745e+00" cType="1" res="1.4379967935383320e-02" rms="4.8941367864608765e-01" purity="5.1696133613586426e-01" nType="0">
        <Node pos="l" depth="1" NCoef="0" IVar="0" Cut="5.5772781372070312e+00" cType="1" res="1.0892757773399353e-01" rms="4.7778987884521484e-01" purity="6.2724155187606812e-01" nType="0">
          <Node pos="l" depth="2" NCoef="0" IVar="-1" Cut="0.0000000000000000e+00" cType="1" res="-2.7380723040550947e-03" rms="4.7058510780334473e-01" purity="3.3356788754463196e-01" nType="-99"/>
          <Node pos="r" depth="2" NCoef="0" IVar="-1" Cut="0.0000000000000000e+00" cType="1" res="3.1596745830029249e-03" rms="4.6339616179466248e-01" purity="6.8036133050918579e-01" nType="-99"/>
        </Node>
        <Node pos="r" depth="1" NCoef="0" IVar="0" Cut="8.2090501785278320e+00" cType="1" res="-1.0898912698030472e-01" rms="4.7677177190780640e-01" purity="3.7306380271911621e-01" nType="0">
          <Node pos="l" depth="2" NCoef="0" IVar="-1" Cut="0.0000000000000000e+00" cType="1" res="-3.1610368750989437e-03" rms="4.5903515815734863e-01" purity="3.1075489521026611e-01" nType="-99"/>
          <Node pos="r" depth="2" NCoef="0" IVar="-1" Cut="0.0000000000000000e+00" cType="1" res="4.3455287814140320e-03" rms="4.4634437561035156e-01" purity="7.0825517177581787e-01" nType="-99"/>
        </Node>
      </Node>
    </BinaryTree>
    <BinaryTree type="DecisionTree" boostWeight="1.0000000000000000e+00" itree="22">
      <Node pos="s" depth="0" NCoef="0" IVar="0" Cut="5.4590334892272949e+00" cType="1" res="5.0887526012957096e-03" rms="4.9000373482704163e-01" purity="5.0860083103179932e-01" nType="0">
        <Node pos="l" depth="1" NCoef="0" IVar="2" Cut="1.0669008493423462e+00" cType="1" res="-2.2594921290874481e-01" rms="4.2734092473983765e-01" purity="2.4511611461639404e-01" nType="0">
          <Node pos="l" depth="2" NCoef="0" IVar="-1" Cut="0.0000000000000000e+00" cType="1" res="-2.2336270194500685e-03" rms="4.7780779004096985e-01" purity="3.5433930158615112e-01" nType="-99"/>
          <Node pos="r" depth="2" NCoef="0" IVar="-1" Cut="0.0000000000000000e+00" cType="1" res="-5.1825880073010921e-03" rms="3.6437112092971802e-01" purity="1.5762786567211151e-01" nType="-99"/>
        </Node>
        <Node pos="r" depth="1" NCoef="0" IVar="2" Cut="1.1309815645217896e+00" cType="1" res="4.8643913120031357e-02" rms="4.8885625600814819e-01" purity="5.5827289819717407e-01" nType="0">
          <Node pos="l" depth="2" NCoef="0" IVar="-1" Cut="0.0000000000000000e+00" cType="1" res="2.3710087407380342e-03" rms="4.7650146484375000e-01" purity="6.4153808355331421e-01" nType="-99"/>
          <Node pos="r" depth="2" NCoef="0" IVar="-1" Cut="0.0000000000000000e+00" cType="1" res="-1.9364571198821068e-03" rms="4.8141309618949890e-01" purity="3.7920296192169189e-01" nType="-99"/>
        </Node>
      </Node>
    </BinaryTree>
    <BinaryTree type="DecisionTree" boostWeight="1.0000000000000000e+00" itree="23">
      <Node pos="s" depth="0" NCoef="0" IVar="0" Cut="5.7912082672119141e+00" cType="1" res="3.3147070556879044e-02" rms="4.8788240551948547e-01" purity="5.3446221351623535e-01" nType="0">
        <Node pos="l" depth="1" NCoef="0" IVar="6" Cut="4.8348413085937500e+02" cType="1" res="-1.5621869266033173e-01" rms="4.6261128783226013e-01" purity="3.1629875302314758e-01" nType="0">
          <Node pos="l" depth="2" NCoef="0" IVar="-1" Cut="0.0000000000000000e+00" cType="1" res="-3.6731967702507973e-03" rms="4.3905270099639893e-01" purity="2.6455861330032349e-01" nType="-99"/>
          <Node pos="r" depth="2" NCoef="0" IVar="-1" Cut="0.0000000000000000e+00" cType="1" res="4.1079169022850692e-04" rms="4.9680373072624207e-01" purity="4.9501654505729675e-01" nType="-99"/>
        </Node>
        <Node pos="r" depth="1" NCoef="0" IVar="3" Cut="2.4680876731872559e+00" cType="1" res="9.3133151531219482e-02" rms="4.8029211163520813e-01" purity="6.0357058048248291e-01" nType="0">
          <Node pos="l" depth="2" NCoef="0" IVar="-1" Cut="0.0000000000000000e+00" cType="1" res="2.9710410162806511e-03" rms="4.6710994839668274e-01" purity="6.6419452428817749e-01" nType="-99"/>
          <Node pos="r" depth="2" NCoef="0" IVar="-1" Cut="0.0000000000000000e+00" cType="1" res="-4.0913019329309464e-03" rms="4.3762752413749695e-01" purity="2.6163774728775024e-01" nType="-99"/>
        </Node>
      </Node>
    </BinaryTree>
    <BinaryTree type="DecisionTree" boostWeight="1.0000000000000000e+00" itree="24">
      <Node pos="s" depth="0" NCoef="0" IVar="0" Cut="6.8375329971313477e+00" cType="1" res="-2.0722709596157074e-02" rms="4.8629993200302124e-01" purity="4.8023387789726257e-01" nType="0">
        <Node pos="l" depth="1" NCoef="0" IVar="0" Cut="5.8347401618957520e+00" cType="1" res="-1.5124034881591797e-01" rms="4.6418756246566772e-01" purity="3.2933503389358521e-01" nType="0">
          <Node pos="l" depth="2" NCoef="0" IVar="-1" Cut="0.0000000000000000e+00" cType="1" res="-4.1665760800242424e-03" rms="4.2161840200424194e-01" purity="2.3495019972324371e-01" nType="-99"/>
          <Node pos="r" depth="2" NCoef="0" IVar="-1" Cut="0.0000000000000000e+00" cType="1" res="-1.3216871302574873e-03" rms="4.8730230331420898e-01" purity="4.1844907402992249e-01" nType="-99"/>
        </Node>
        <Node pos="r" depth="1" NCoef="0" IVar="2" Cut="8.5839533805847168e-01" cType="1" res="1.3548831641674042e-01" rms="4.6567419171333313e-01" purity="6.6083830595016479e-01" nType="0">
          <Node pos="l" depth="2" NCoef="0" IVar="-1" Cut="0.0000000000000000e+00" cType="1" res="5.4727159440517426e-03" rms="3.9593932032585144e-01" purity="8.0437403917312622e-01" nType="-99"/>
          <Node pos="r" depth="2" NCoef="0" IVar="-1" Cut="0.0000000000000000e+00" cType="1" res="8.7327358778566122e-04" rms="4.9088692665100098e-01" purity="5.5439865589141846e-01" nType="-99"/>
        </Node>
      </Node>
    </BinaryTree>
    <BinaryTree type="DecisionTree" boostWeight="1.0000000000000000e+00" itree="25">
      <Node pos="s" depth="0" NCoef="0" IVar="0" Cut="5.4208049774169922e+00" cType="1" res="2.6321474462747574e-02" rms="4.8682478070259094e-01" purity="5.2982956171035767e-01" nType="0">
        <Node pos="l" depth="1" NCoef="0" IVar="1" Cut="7.7059410095214844e+01" cType="1" res="-2.6532256603240967e-01" rms="3.9863279461860657e-01" purity="2.0081403851509094e-01" nType="0">
          <Node pos="l" depth="2" NCoef="0" IVar="-1" Cut="0.0000000000000000e+00" cType="1" res="-6.1071137897670269e-03" rms="3.1215932965278625e-01" purity="1.1029451340436935e-01" nType="-99"/>
          <Node pos="r" depth="2" NCoef="0" IVar="-1" Cut="0.0000000000000000e+00" cType="1" res="-3.1281923875212669e-03" rms="4.5144400000572205e-01" purity="2.9262110590934753e-01" nType="-99"/>
        </Node>
        <Node pos="r" depth="1" NCoef="0" IVar="2" Cut="1.2323925495147705e+00" cType="1" res="7.5852021574974060e-02" rms="4.8307561874389648e-01" purity="5.8570700883865356e-01" nType="0">
          <Node pos="l" depth="2" NCoef="0" IVar="-1" Cut="0.0000000000000000e+00" cType="1" res="2.7274971362203360e-03" rms="4.6947985887527466e-01" purity="6.5766435861587524e-01" nType="-99"/>
          <Node pos="r" depth="2" NCoef="0" IVar="-1" Cut="0.0000000000000000e+00" cType="1" res="-1.5722011448815465e-03" rms="4.8440387845039368e-01" purity="3.8655489683151245e-01" nType="-99"/>
        </Node>
      </Node>
    </BinaryTree>
    <BinaryTree type="DecisionTree" boostWeight="1.0000000000000000e+00" itree="26">
      <Node pos="s" depth="0" NCoef="0" IVar="2" Cut="1.0006270408630371e+00" cType="1" res="-1.3897843658924103e-02" rms="4.8655748367309570e-01" purity="4.8910149931907654e-01" nType="0">
        <Node pos="l" depth="1" NCoef="0" IVar="0" Cut="5.9389877319335938e+00" cType="1" res="9.9732778966426849e-02" rms="4.7778853774070740e-01" purity="6.2384283542633057e-01" nType="0">
          <Node pos="l" depth="2" NCoef="0" IVar="-1" Cut="0.0000000000000000e+00" cType="1" res="-1.2626902898773551e-03" rms="4.9095988273620605e-01" purity="4.1469740867614746e-01" nType="-99"/>
          <Node pos="r" depth="2" NCoef="0" IVar="-1" Cut="0.0000000000000000e+00" cType="1" res="3.0191303230822086e-03" rms="4.6262493729591370e-01" purity="6.8351924419403076e-01" nType="-99"/>
        </Node>
        <Node pos="r" depth="1" NCoef="0" IVar="0" Cut="7.9057183265686035e+00" cType="1" res="-1.3539065420627594e-01" rms="4.6606200933456421e-01" purity="3.4503737092018127e-01" nType="0">
          <Node pos="l" depth="2" NCoef="0" IVar="-1" Cut="0.0000000000000000e+00" cType="1" res="-3.5935475025326014e-03" rms="4.4493189454078674e-01" purity="2.7925711870193481e-01" nType="-99"/>
          <Node pos="r" depth="2" NCoef="0" IVar="-1" Cut="0.0000000000000000e+00" cType="1" res="2.3449328728020191e-03" rms="4.7281762957572937e-01" purity="6.2447309494018555e-01" nType="-99"/>
        </Node>
      </Node>
    </BinaryTree>
    <BinaryTree type="DecisionTree" boostWeight="1.0000000000000000e+00" itree="27">
      <Node pos="s" depth="0" NCoef="0" IVar="3" Cut="2.3391420841217041e+00" cType="1" res="-3.3213011920452118e-02" rms="4.8525309562683105e-01" purity="4.6952155232429504e-01" nType="0">
        <Node pos="l" depth="1" NCoef="0" IVar="0" Cut="6.7587418556213379e+00" cType="1" res="3.7891905754804611e-02" rms="4.8753511905670166e-01" purity="5.5320161581039429e-01" nType="0">
          <Node pos="l" depth="2" NCoef="0" IVar="-1" Cut="0.0000000000000000e+00" cType="1" res="-1.7218703869730234e-03" rms="4.8503860831260681e-01" purity="3.9313095808029175e-01" nType="-99"/>
          <Node pos="r" depth="2" NCoef="0" IVar="-1" Cut="0.0000000000000000e+00" cType="1" res="2.9803726356476545e-03" rms="4.6323987841606140e-01" purity="6.8185943365097046e-01" nType="-99"/>
        </Node>
        <Node pos="r" depth="1" NCoef="0" IVar="0" Cut="6.3214087486267090e+00" cType="1" res="-2.1410219371318817e-01" rms="4.2923203110694885e-01" purity="2.5664135813713074e-01" nType="0">
          <Node pos="l" depth="2" NCoef="0" IVar="-1" Cut="0.0000000000000000e+00" cType="1" res="-5.5627734400331974e-03" rms="3.4355142712593079e-01" purity="1.3528729975223541e-01" nType="-99"/>
          <Node pos="r" depth="2" NCoef="0" IVar="-1" Cut="0.0000000000000000e+00" cType="1" res="-2.7716949116438627e-03" rms="4.6879804134368896e-01" purity="3.4405425190925598e-01" nType="-99"/>
        </Node>
      </Node>
    </BinaryTree>
    <BinaryTree type="DecisionTree" boostWeight="1.0000000000000000e+00" itree="28">
      <Node pos="s" depth="0" NCoef="0" IVar="2" Cut="1.1212186813354492e+00" cType="1" res="2.3635981604456902e-02" rms="4.8521339893341064e-01" purity="5.2775180339813232e-01" nType="0">
        <Node pos="l" depth="1" NCoef="0" IVar="0" Cut="5.5911064147949219e+00" cType="1" res="1.3072724640369415e-01" rms="4.6888509392738342e-01" purity="6.5544164180755615e-01" nType="0">
          <Node pos="l" depth="2" NCoef="0" IVar="-1" Cut="0.0000000000000000e+00" cType="1" res="-1.2663778616115451e-03" rms="4.9053749442100525e-01" purity="4.0726634860038757e-01" nType="-99"/>
          <Node pos="r" depth="2" NCoef="0" IVar="-1" Cut="0.0000000000000000e+00" cType="1" res="3.2978984527289867e-03" rms="4.5795616507530212e-01" purity="6.9301348924636841e-01" nType="-99"/>
        </Node>
        <Node pos="r" depth="1" NCoef="0" IVar="1" Cut="8.5123023986816406e+01" cType="1" res="-1.4783598482608795e-01" rms="4.6109724044799805e-01" purity="3.2329785823822021e-01" nType="0">
          <Node pos="l" depth="2" NCoef="0" IVar="-1" Cut="0.0000000000000000e+00" cType="1" res="-4.0195845067501068e-03" rms="4.2925539612770081e-01" purity="2.5575530529022217e-01" nType="-99"/>
          <Node pos="r" depth="2" NCoef="0" IVar="-1" Cut="0.0000000000000000e+00" cType="1" res="-1.2778013478964567e-03" rms="4.8498791456222534e-01" purity="4.0527498722076416e-01" nType="-99"/>
        </Node>
      </Node>
    </BinaryTree>
    <BinaryTree type="DecisionTree" boostWeight="1.0000000000000000e+00" itree="29">
      <Node pos="s" depth="0" NCoef="0" IVar="0" Cut="5.9458742141723633e+00" cType="1" res="1.3314880430698395e-02" rms="4.8654901981353760e-01" purity="5.1575803756713867e-01" nType="0">
        <Node pos="l" depth="1" NCoef="0" IVar="2" Cut="1.0067188739776611e+00" cType="1" res="-1.4688387513160706e-01" rms="4.6158206462860107e-01" purity="3.2025110721588135e-01" nType="0">
          <Node pos="l" depth="2" NCoef="0" IVar="-1" Cut="0.0000000000000000e+00" cType="1" res="-1.0381148895248771e-03" rms="4.9265962839126587e-01" purity="4.2618027329444885e-01" nType="-99"/>
          <Node pos="r" depth="2" NCoef="0" IVar="-1" Cut="0.0000000000000000e+00" cType="1" res="-4.1132597252726555e-03" rms="4.0967985987663269e-01" purity="2.1529047191143036e-01" nType="-99"/>
        </Node>
        <Node pos="r" depth="1" NCoef="0" IVar="2" Cut="1.1239140033721924e+00" cType="1" res="7.5679615139961243e-02" rms="4.8173150420188904e-01" purity="5.9186810255050659e-01" nType="0">
          <Node pos="l" depth="2" NCoef="0" IVar="-1" Cut="0.0000000000000000e+00" cType="1" res="3.1177373602986336e-03" rms="4.5995041728019714e-01" purity="6.8834894895553589e-01" nType="-99"/>
          <Node pos="r" depth="2" NCoef="0" IVar="-1" Cut="0.0000000000000000e+00" cType="1" res="-1.1698685120791197e-03" rms="4.8934093117713928e-01" purity="4.2155772447586060e-01" nType="-99"/>
        </Node>
      </Node>
    </BinaryTree>
    <BinaryTree type="DecisionTree" boostWeight="1.0000000000000000e+00" itree="30">
      <Node pos="s" depth="0" NCoef="0" IVar="0" Cut="7.0784401893615723e+00" cType="1" res="-7.5241639278829098e-03" rms="4.8805484175682068e-01" purity="4.9574217200279236e-01" nType="0">
        <Node pos="l" depth="1" NCoef="0" IVar="5" Cut="3.4417593479156494e-01" cType="1" res="-8.6307927966117859e-02" rms="4.8290562629699707e-01" purity="3.9587500691413879e-01" nType="0">
          <Node pos="l" depth="2" NCoef="0" IVar="-1" Cut="0.0000000000000000e+00" cType="1" res="-3.6208273377269506e-03" rms="4.4234973192214966e-01" purity="2.7575978636741638e-01" nType="-99"/>
          <Node pos="r" depth="2" NCoef="0" IVar="-1" Cut="0.0000000000000000e+00" cType="1" res="-1.7555267550051212e-04" rms="4.9514368176460266e-01" purity="4.8023402690887451e-01" nType="-99"/>
        </Node>
        <Node pos="r" depth="1" NCoef="0" IVar="3" Cut="2.5426850318908691e+00" cType="1" res="9.3642637133598328e-02" rms="4.7582837939262390e-01" purity="6.2398236989974976e-01" nType="0">
          <Node pos="l" depth="2" NCoef="0" IVar="-1" Cut="0.0000000000000000e+00" cType="1" res="2.7543487958610058e-03" rms="4.6565866470336914e-01" purity="6.7153745889663696e-01" nType="-99"/>
          <Node pos="r" depth="2" NCoef="0" IVar="-1" Cut="0.0000000000000000e+00" cType="1" res="-4.1333832778036594e-03" rms="4.4338160753250122e-01" purity="2.7465271949768066e-01" nType="-99"/>
        </Node>
      </Node>
    </BinaryTree>
    <BinaryTree type="DecisionTree" boostWeight="1.0000000000000000e+00" itree="31">
      <Node pos="s" depth="0" NCoef="0" IVar="2" Cut="9.9865305423736572e-01" cType="1" res="-1.8670348450541496e-02" rms="4.8662728071212769e-01" purity="4.8378551006317139e-01" nType="0">
        <Node pos="l" depth="1" NCoef="0" IVar="0" Cut="7.6310529708862305e+00" cType="1" res="9.5763653516769409e-02" rms="4.7819715738296509e-01" purity="6.2231302261352539e-01" nType="0">
          <Node pos="l" depth="2" NCoef="0" IVar="-1" Cut="0.0000000000000000e+00" cType="1" res="7.0155475987121463e-04" rms="4.9459442496299744e-01" purity="5.4654926061630249e-01" nType="-99"/>
          <Node pos="r" depth="2" NCoef="0" IVar="-1" Cut="0.0000000000000000e+00" cType="1" res="4.5754662714898586e-03" rms="4.2027884721755981e-01" purity="7.7084410190582275e-01" nType="-99"/>
        </Node>
        <Node pos="r" depth="1" NCoef="0" IVar="0" Cut="6.0226821899414062e+00" cType="1" res="-1.2968133389949799e-01" rms="4.6868914365768433e-01" purity="3.4940177202224731e-01" nType="0">
          <Node pos="l" depth="2" NCoef="0" IVar="-1" Cut="0.0000000000000000e+00" cType="1" res="-4.7918148338794708e-03" rms="3.8740900158882141e-01" purity="1.8629223108291626e-01" nType="-99"/>
          <Node pos="r" depth="2" NCoef="0" IVar="-1" Cut="0.0000000000000000e+00" cType="1" res="-1.6498687909916043e-03" rms="4.8553720116615295e-01" purity="4.0572071075439453e-01" nType="-99"/>
        </Node>
      </Node>
    </BinaryTree>
    <BinaryTree type="DecisionTree" boostWeight="1.0000000000000000e+00" itree="32">
      <Node pos="s" depth="0" NCoef="0" IVar="2" Cut="1.2884001731872559e+00" cType="1" res="-8.2799112424254417e-03" rms="4.8613408207893372e-01" purity="4.9496385455131531e-01" nType="0">
        <Node pos="l" depth="1" NCoef="0" IVar="0" Cut="7.8172459602355957e+00" cType="1" res="4.9750082194805145e-02" rms="4.8714709281921387e-01" purity="5.6919580698013306e-01" nType="0">
          <Node pos="l" depth="2" NCoef="0" IVar="-1" Cut="0.0000000000000000e+00" cType="1" res="-7.8404256782960147e-05" rms="4.9417200684547424e-01" purity="5.0307941436767578e-01" nType="-99"/>
          <Node pos="r" depth="2" NCoef="0" IVar="-1" Cut="0.0000000000000000e+00" cType="1" res="4.0239454247057438e-03" rms="4.3766000866889954e-01" purity="7.4308997392654419e-01" nType="-99"/>
        </Node>
        <Node pos="r" depth="1" NCoef="0" IVar="0" Cut="6.1411256790161133e+00" cType="1" res="-1.7937892675399780e-01" rms="4.4069901108741760e-01" purity="2.7609398961067200e-01" nType="0">
          <Node pos="l" depth="2" NCoef="0" IVar="-1" Cut="0.0000000000000000e+00" cType="1" res="-5.5348374880850315e-03" rms="3.2467332482337952e-01" purity="1.2191111594438553e-01" nType="-99"/>
          <Node pos="r" depth="2" NCoef="0" IVar="-1" Cut="0.0000000000000000e+00" cType="1" res="-1.7969942418858409e-03" rms="4.8257547616958618e-01" purity="3.7637519836425781e-01" nType="-99"/>
        </Node>
      </Node>
    </BinaryTree>
    <BinaryTree type="DecisionTree" boostWeight="1.0000000000000000e+00" itree="33">
      <Node pos="s" depth="0" NCoef="0" IVar="0" Cut="7.5840811729431152e+00" cType="1" res="9.8826214671134949e-03" rms="4.8401227593421936e-01" purity="5.1510459184646606e-01" nType="0">
        <Node pos="l" depth="1" NCoef="0" IVar="2" Cut="8.5038220882415771e-01" cType="1" res="-6.6697634756565094e-02" rms="4.8237875103950500e-01" purity="4.2082887887954712e-01" nType="0">
          <Node pos="l" depth="2" NCoef="0" IVar="-1" Cut="0.0000000000000000e+00" cType="1" res="1.1858858633786440e-03" rms="4.8839402198791504e-01" purity="5.7746982574462891e-01" nType="-99"/>
          <Node pos="r" depth="2" NCoef="0" IVar="-1" Cut="0.0000000000000000e+00" cType="1" res="-2.4522144813090563e-03" rms="4.6641018986701965e-01" purity="3.4255179762840271e-01" nType="-99"/>
        </Node>
        <Node pos="r" depth="1" NCoef="0" IVar="2" Cut="1.0680261850357056e+00" cType="1" res="1.6857592761516571e-01" rms="4.4744032621383667e-01" purity="7.1046721935272217e-01" nType="0">
          <Node pos="l" depth="2" NCoef="0" IVar="-1" Cut="0.0000000000000000e+00" cType="1" res="5.0241383723914623e-03" rms="4.0568429231643677e-01" purity="7.9202657938003540e-01" nType="-99"/>
          <Node pos="r" depth="2" NCoef="0" IVar="-1" Cut="0.0000000000000000e+00" cType="1" res="1.0939526837319136e-03" rms="4.9476280808448792e-01" purity="5.6234562397003174e-01" nType="-99"/>
        </Node>
      </Node>
    </BinaryTree>
    <BinaryTree type="DecisionTree" boostWeight="1.0000000000000000e+00" itree="34">
      <Node pos="s" depth="0" NCoef="0" IVar="2" Cut="1.3896991014480591e+00" cType="1" res="-1.1796888895332813e-02" rms="4.8431217670440674e-01" purity="4.9273359775543213e-01" nType="0">
        <Node pos="l" depth="1" NCoef="0" IVar="0" Cut="7.1005120277404785e+00" cType="1" res="4.1399303823709488e-02" rms="4.8623299598693848e-01" purity="5.5781590938568115e-01" nType="0">
          <Node pos="l" depth="2" NCoef="0" IVar="-1" Cut="0.0000000000000000e+00" cType="1" res="-1.1485189897939563e-03" rms="4.9129453301429749e-01" purity="4.2847588658332825e-01" nType="-99"/>
          <Node pos="r" depth="2" NCoef="0" IVar="-1" Cut="0.0000000000000000e+00" cType="1" res="3.4689637832343578e-03" rms="4.4970151782035828e-01" purity="7.1634870767593384e-01" nType="-99"/>
        </Node>
        <Node pos="r" depth="1" NCoef="0" IVar="0" Cut="6.4031777381896973e+00" cType="1" res="-2.4998272955417633e-01" rms="3.9599013328552246e-01" purity="2.0132726430892944e-01" nType="0">
          <Node pos="l" depth="2" NCoef="0" IVar="-1" Cut="0.0000000000000000e+00" cType="1" res="-6.0829860158264637e-03" rms="2.8730800747871399e-01" purity="9.2048518359661102e-02" nType="-99"/>
          <Node pos="r" depth="2" NCoef="0" IVar="-1" Cut="0.0000000000000000e+00" cType="1" res="-3.5851290449500084e-03" rms="4.4787797331809998e-01" purity="2.8055471181869507e-01" nType="-99"/>
        </Node>
      </Node>
    </BinaryTree>
    <BinaryTree type="DecisionTree" boostWeight="1.0000000000000000e+00" itree="35">
      <Node pos="s" depth="0" NCoef="0" IVar="0" Cut="5.8645682334899902e+00" cType="1" res="1.0761000216007233e-02" rms="4.8332411050796509e-01" purity="5.1438993215560913e-01" nType="0">
        <Node pos="l" depth="1" NCoef="0" IVar="3" Cut="2.2974364757537842e+00" cType="1" res="-1.8297697603702545e-01" rms="4.3960702419281006e-01" purity="2.7420923113822937e-01" nType="0">
          <Node pos="l" depth="2" NCoef="0" IVar="-1" Cut="0.0000000000000000e+00" cType="1" res="-1.9693467766046524e-03" rms="4.7769182920455933e-01" purity="3.6355629563331604e-01" nType="-99"/>
          <Node pos="r" depth="2" NCoef="0" IVar="-1" Cut="0.0000000000000000e+00" cType="1" res="-5.3098439238965511e-03" rms="3.3406901359558105e-01" purity="1.2696205079555511e-01" nType="-99"/>
        </Node>
        <Node pos="r" depth="1" NCoef="0" IVar="2" Cut="1.0434457063674927e+00" cType="1" res="7.1137785911560059e-02" rms="4.8045149445533752e-01" purity="5.8924019336700439e-01" nType="0">
          <Node pos="l" depth="2" NCoef="0" IVar="-1" Cut="0.0000000000000000e+00" cType="1" res="3.0844530556350946e-03" rms="4.5873048901557922e-01" purity="6.9137012958526611e-01" nType="-99"/>
          <Node pos="r" depth="2" NCoef="0" IVar="-1" Cut="0.0000000000000000e+00" cType="1" res="-7.4707251042127609e-04" rms="4.8912128806114197e-01" purity="4.4450712203979492e-01" nType="-99"/>
        </Node>
      </Node>
    </BinaryTree>
    <BinaryTree type="DecisionTree" boostWeight="1.0000000000000000e+00" itree="36">
      <Node pos="s" depth="0" NCoef="0" IVar="0" Cut="6.4657096862792969e+00" cType="1" res="-2.6578776538372040e-02" rms="4.8257955908775330e-01" purity="4.7453966736793518e-01" nType="0">
        <Node pos="l" depth="1" NCoef="0" IVar="6" Cut="2.8426873779296875e+02" cType="1" res="-1.6522698104381561e-01" rms="4.5236378908157349e-01" purity="2.9961013793945312e-01" nType="0">
          <Node pos="l" depth="2" NCoef="0" IVar="-1" Cut="0.0000000000000000e+00" cType="1" res="-6.3758390024304390e-03" rms="2.7567836642265320e-01" purity="8.7048776447772980e-02" nType="-99"/>
          <Node pos="r" depth="2" NCoef="0" IVar="-1" Cut="0.0000000000000000e+00" cType="1" res="-2.2440997418016195e-03" rms="4.6957919001579285e-01" purity="3.4306633472442627e-01" nType="-99"/>
        </Node>
        <Node pos="r" depth="1" NCoef="0" IVar="2" Cut="9.9250841140747070e-01" cType="1" res="7.3931358754634857e-02" rms="4.7887837886810303e-01" purity="6.0135120153427124e-01" nType="0">
          <Node pos="l" depth="2" NCoef="0" IVar="-1" Cut="0.0000000000000000e+00" cType="1" res="4.0415003895759583e-03" rms="4.3191680312156677e-01" purity="7.4967414140701294e-01" nType="-99"/>
          <Node pos="r" depth="2" NCoef="0" IVar="-1" Cut="0.0000000000000000e+00" cType="1" res="-1.0308665223419666e-03" rms="4.9287483096122742e-01" purity="4.4562390446662903e-01" nType="-99"/>
        </Node>
      </Node>
    </BinaryTree>
    <BinaryTree type="DecisionTree" boostWeight="1.0000000000000000e+00" itree="37">
      <Node pos="s" depth="0" NCoef="0" IVar="0" Cut="5.4792704582214355e+00" cType="1" res="8.3507495000958443e-03" rms="4.8291197419166565e-01" purity="5.1433306932449341e-01" nType="0">
        <Node pos="l" depth="1" NCoef="0" IVar="0" Cut="5.1092443466186523e+00" cType="1" res="-2.4621994793415070e-01" rms="4.0328088402748108e-01" purity="2.0875126123428345e-01" nType="0">
          <Node pos="l" depth="2" NCoef="0" IVar="-1" Cut="0.0000000000000000e+00" cType="1" res="-3.5500410012900829e-03" rms="4.3015587329864502e-01" purity="2.5059130787849426e-01" nType="-99"/>
          <Node pos="r" depth="2" NCoef="0" IVar="-1" Cut="0.0000000000000000e+00" cType="1" res="-5.2091213874518871e-03" rms="3.5934388637542725e-01" purity="1.5567925572395325e-01" nType="-99"/>
        </Node>
        <Node pos="r" depth="1" NCoef="0" IVar="2" Cut="1.0548077821731567e+00" cType="1" res="5.5954981595277786e-02" rms="4.8167970776557922e-01" purity="5.7147628068923950e-01" nType="0">
          <Node pos="l" depth="2" NCoef="0" IVar="-1" Cut="0.0000000000000000e+00" cType="1" res="2.6417954359203577e-03" rms="4.6467164158821106e-01" purity="6.6952246427536011e-01" nType="-99"/>
          <Node pos="r" depth="2" NCoef="0" IVar="-1" Cut="0.0000000000000000e+00" cType="1" res="-9.8231958691030741e-04" rms="4.8628333210945129e-01" purity="4.2767551541328430e-01" nType="-99"/>
        </Node>
      </Node>
    </BinaryTree>
    <BinaryTree type="DecisionTree" boostWeight="1.0000000000000000e+00" itree="38">
      <Node pos="s" depth="0" NCoef="0" IVar="0" Cut="5.4927482604980469e+00" cType="1" res="1.5566478250548244e-03" rms="4.8434630036354065e-01" purity="5.0275474786758423e-01" nType="0">
        <Node pos="l" depth="1" NCoef="0" IVar="2" Cut="8.7992149591445923e-01" cType="1" res="-1.9629132747650146e-01" rms="4.3072465062141418e-01" purity="2.5491920113563538e-01" nType="0">
          <Node pos="l" depth="2" NCoef="0" IVar="-1" Cut="0.0000000000000000e+00" cType="1" res="-1.1187727795913815e-03" rms="4.9093824625015259e-01" purity="4.1029956936836243e-01" nType="-99"/>
          <Node pos="r" depth="2" NCoef="0" IVar="-1" Cut="0.0000000000000000e+00" cType="1" res="-4.6758395619690418e-03" rms="3.7428620457649231e-01" purity="1.7017762362957001e-01" nType="-99"/>
        </Node>
        <Node pos="r" depth="1" NCoef="0" IVar="2" Cut="1.5042970180511475e+00" cType="1" res="4.7347065061330795e-02" rms="4.8455274105072021e-01" purity="5.6011444330215454e-01" nType="0">
          <Node pos="l" depth="2" NCoef="0" IVar="-1" Cut="0.0000000000000000e+00" cType="1" res="1.7088074237108231e-03" rms="4.8087716102600098e-01" purity="6.0547983646392822e-01" nType="-99"/>
          <Node pos="r" depth="2" NCoef="0" IVar="-1" Cut="0.0000000000000000e+00" cType="1" res="-4.1170231997966766e-03" rms="4.2380091547966003e-01" purity="2.3817545175552368e-01" nType="-99"/>
        </Node>
      </Node>
    </BinaryTree>
    <BinaryTree type="DecisionTree" boostWeight="1.0000000000000000e+00" itree="39">
      <Node pos="s" depth="0" NCoef="0" IVar="0" Cut="6.1456079483032227e+00" cType="1" res="7.5379206100478768e-04" rms="4.8273760080337524e-01" purity="5.0334519147872925e-01" nType="0">
        <Node pos="l" depth="1" NCoef="0" IVar="2" Cut="1.4616152048110962e+00" cType="1" res="-1.5803843736648560e-01" rms="4.5213547348976135e-01" purity="3.0235490202903748e-01" nType="0">
          <Node pos="l" depth="2" NCoef="0" IVar="-1" Cut="0.0000000000000000e+00" cType="1" res="-2.1122950129210949e-03" rms="4.7432824969291687e-01" purity="3.5190224647521973e-01" nType="-99"/>
          <Node pos="r" depth="2" NCoef="0" IVar="-1" Cut="0.0000000000000000e+00" cType="1" res="-6.6121006384491920e-03" rms="2.2292153537273407e-01" purity="5.3207706660032272e-02" nType="-99"/>
        </Node>
        <Node pos="r" depth="1" NCoef="0" IVar="2" Cut="1.6020929813385010e+00" cType="1" res="7.2575494647026062e-02" rms="4.7897014021873474e-01" purity="5.9425306320190430e-01" nType="0">
          <Node pos="l" depth="2" NCoef="0" IVar="-1" Cut="0.0000000000000000e+00" cType="1" res="2.0588613115251064e-03" rms="4.7399380803108215e-01" purity="6.2933814525604248e-01" nType="-99"/>
          <Node pos="r" depth="2" NCoef="0" IVar="-1" Cut="0.0000000000000000e+00" cType="1" res="-3.8691218942403793e-03" rms="4.4188210368156433e-01" purity="2.5794029235839844e-01" nType="-99"/>
        </Node>
      </Node>
    </BinaryTree>
    <BinaryTree type="DecisionTree" boostWeight="1.0000000000000000e+00" itree="40">
      <Node pos="s" depth="0" NCoef="0" IVar="0" Cut="6.4811415672302246e+00" cType="1" res="-1.7155945301055908e-02" rms="4.8081669211387634e-01" purity="4.8042812943458557e-01" nType="0">
        <Node pos="l" depth="1" NCoef="0" IVar="2" Cut="9.2539787292480469e-01" cType="1" res="-1.3153931498527527e-01" rms="4.6250391006469727e-01" purity="3.2905468344688416e-01" nType="0">
          <Node pos="l" depth="2" NCoef="0" IVar="-1" Cut="0.0000000000000000e+00" cType="1" res="-5.6072045117616653e-04" rms="4.9597528576850891e-01" purity="4.5898184180259705e-01" nType="-99"/>
          <Node pos="r" depth="2" NCoef="0" IVar="-1" Cut="0.0000000000000000e+00" cType="1" res="-3.4629334695637226e-03" rms="4.3011978268623352e-01" purity="2.5149202346801758e-01" nType="-99"/>
        </Node>
        <Node pos="r" depth="1" NCoef="0" IVar="2" Cut="1.0530270338058472e+00" cType="1" res="7.7836818993091583e-02" rms="4.7501772642135620e-01" purity="6.0614019632339478e-01" nType="0">
          <Node pos="l" depth="2" NCoef="0" IVar="-1" Cut="0.0000000000000000e+00" cType="1" res="3.6919803824275732e-03" rms="4.3936401605606079e-01" purity="7.3482739925384521e-01" nType="-99"/>
          <Node pos="r" depth="2" NCoef="0" IVar="-1" Cut="0.0000000000000000e+00" cType="1" res="-9.2110037803649902e-04" rms="4.8911029100418091e-01" purity="4.4162333011627197e-01" nType="-99"/>
        </Node>
      </Node>
    </BinaryTree>
    <BinaryTree type="DecisionTree" boostWeight="1.0000000000000000e+00" itree="41">
      <Node pos="s" depth="0" NCoef="0" IVar="0" Cut="7.2430353164672852e+00" cType="1" res="3.2896054908633232e-03" rms="4.8331922292709351e-01" purity="5.0959450006484985e-01" nType="0">
        <Node pos="l" depth="1" NCoef="0" IVar="2" Cut="1.0583043098449707e+00" cType="1" res="-8.1499241292476654e-02" rms="4.7934740781784058e-01" purity="3.9927110075950623e-01" nType="0">
          <Node pos="l" depth="2" NCoef="0" IVar="-1" Cut="0.0000000000000000e+00" cType="1" res="7.5752534030470997e-05" rms="4.9617373943328857e-01" purity="5.1109063625335693e-01" nType="-99"/>
          <Node pos="r" depth="2" NCoef="0" IVar="-1" Cut="0.0000000000000000e+00" cType="1" res="-3.5291260574012995e-03" rms="4.3299630284309387e-01" purity="2.5624176859855652e-01" nType="-99"/>
        </Node>
        <Node pos="r" depth="1" NCoef="0" IVar="3" Cut="2.4447216987609863e+00" cType="1" res="1.3090108335018158e-01" rms="4.6070310473442078e-01" purity="6.7563682794570923e-01" nType="0">
          <Node pos="l" depth="2" NCoef="0" IVar="-1" Cut="0.0000000000000000e+00" cType="1" res="3.5808871034532785e-03" rms="4.4530805945396423e-01" purity="7.2711622714996338e-01" nType="-99"/>
          <Node pos="r" depth="2" NCoef="0" IVar="-1" Cut="0.0000000000000000e+00" cType="1" res="-1.8510008230805397e-03" rms="4.8223957419395447e-01" purity="3.8990724086761475e-01" nType="-99"/>
        </Node>
      </Node>
    </BinaryTree>
    <BinaryTree type="DecisionTree" boostWeight="1.0000000000000000e+00" itree="42">
      <Node pos="s" depth="0" NCoef="0" IVar="2" Cut="1.4845702648162842e+00" cType="1" res="1.1102180927991867e-02" rms="4.8161202669143677e-01" purity="5.1443552970886230e-01" nType="0">
        <Node pos="l" depth="1" NCoef="0" IVar="0" Cut="7.2208766937255859e+00" cType="1" res="5.6451164186000824e-02" rms="4.8151597380638123e-01" purity="5.7058697938919067e-01" nType="0">
          <Node pos="l" depth="2" NCoef="0" IVar="-1" Cut="0.0000000000000000e+00" cType="1" res="-3.5977317020297050e-04" rms="4.9245005846023560e-01" purity="4.6793022751808167e-01" nType="-99"/>
          <Node pos="r" depth="2" NCoef="0" IVar="-1" Cut="0.0000000000000000e+00" cType="1" res="3.6212247796356678e-03" rms="4.4062948226928711e-01" purity="7.2587907314300537e-01" nType="-99"/>
        </Node>
        <Node pos="r" depth="1" NCoef="0" IVar="6" Cut="4.0806716918945312e+02" cType="1" res="-2.5289046764373779e-01" rms="3.8836175203323364e-01" purity="1.8755795061588287e-01" nType="0">
          <Node pos="l" depth="2" NCoef="0" IVar="-1" Cut="0.0000000000000000e+00" cType="1" res="-5.8751250617206097e-03" rms="3.1067138910293579e-01" purity="1.0912332683801651e-01" nType="-99"/>
          <Node pos="r" depth="2" NCoef="0" IVar="-1" Cut="0.0000000000000000e+00" cType="1" res="-2.8998139314353466e-03" rms="4.5692065358161926e-01" purity="2.9832959175109863e-01" nType="-99"/>
        </Node>
      </Node>
    </BinaryTree>
    <BinaryTree type="DecisionTree" boostWeight="1.0000000000000000e+00" itree="43">
      <Node pos="s" depth="0" NCoef="0" IVar="2" Cut="1.0514127016067505e+00" cType="1" res="8.6974389851093292e-03" rms="4.8180779814720154e-01" purity="5.1424044370651245e-01" nType="0">
        <Node pos="l" depth="1" NCoef="0" IVar="0" Cut="5.3559184074401855e+00" cType="1" res="9.2924483120441437e-02" rms="4.7203224897384644e-01" purity="6.2817418575286865e-01" nType="0">
          <Node pos="l" depth="2" NCoef="0" IVar="-1" Cut="0.0000000000000000e+00" cType="1" res="-2.5685126893222332e-03" rms="4.6572491526603699e-01" purity="3.1974384188652039e-01" nType="-99"/>
          <Node pos="r" depth="2" NCoef="0" IVar="-1" Cut="0.0000000000000000e+00" cType="1" res="2.6356396265327930e-03" rms="4.6205651760101318e-01" purity="6.7575883865356445e-01" nType="-99"/>
        </Node>
        <Node pos="r" depth="1" NCoef="0" IVar="1" Cut="8.5514236450195312e+01" cType="1" res="-1.0197208821773529e-01" rms="4.7203943133354187e-01" purity="3.6453801393508911e-01" nType="0">
          <Node pos="l" depth="2" NCoef="0" IVar="-1" Cut="0.0000000000000000e+00" cType="1" res="-3.5821278579533100e-03" rms="4.4041731953620911e-01" purity="2.7578714489936829e-01" nType="-99"/>
          <Node pos="r" depth="2" NCoef="0" IVar="-1" Cut="0.0000000000000000e+00" cType="1" res="2.8000476959277876e-05" rms="4.8652976751327515e-01" purity="4.6829327940940857e-01" nType="-99"/>
        </Node>
      </Node>
    </BinaryTree>
    <BinaryTree type="DecisionTree" boostWeight="1.0000000000000000e+00" itree="44">
      <Node pos="s" depth="0" NCoef="0" IVar="2" Cut="1.1464084386825562e+00" cType="1" res="9.2258555814623833e-03" rms="4.8081153631210327e-01" purity="5.1551091670989990e-01" nType="0">
        <Node pos="l" depth="1" NCoef="0" IVar="0" Cut="5.3152098655700684e+00" cType="1" res="8.1496618688106537e-02" rms="4.7646564245223999e-01" purity="6.1472660303115845e-01" nType="0">
          <Node pos="l" depth="2" NCoef="0" IVar="-1" Cut="0.0000000000000000e+00" cType="1" res="-2.9603771399706602e-03" rms="4.5071700215339661e-01" purity="2.8663614392280579e-01" nType="-99"/>
          <Node pos="r" depth="2" NCoef="0" IVar="-1" Cut="0.0000000000000000e+00" cType="1" res="2.3810463026165962e-03" rms="4.6899566054344177e-01" purity="6.5996336936950684e-01" nType="-99"/>
        </Node>
        <Node pos="r" depth="1" NCoef="0" IVar="3" Cut="2.5097198486328125e+00" cType="1" res="-1.2635847926139832e-01" rms="4.5913246273994446e-01" purity="3.2937628030776978e-01" nType="0">
          <Node pos="l" depth="2" NCoef="0" IVar="-1" Cut="0.0000000000000000e+00" cType="1" res="-8.4984936984255910e-04" rms="4.8619788885116577e-01" purity="4.2681717872619629e-01" nType="-99"/>
          <Node pos="r" depth="2" NCoef="0" IVar="-1" Cut="0.0000000000000000e+00" cType="1" res="-4.5669116079807281e-03" rms="3.8648042082786560e-01" purity="1.8704278767108917e-01" nType="-99"/>
        </Node>
      </Node>
    </BinaryTree>
    <BinaryTree type="DecisionTree" boostWeight="1.0000000000000000e+00" itree="45">
      <Node pos="s" depth="0" NCoef="0" IVar="3" Cut="2.6231617927551270e+00" cType="1" res="1.4952708967030048e-02" rms="4.8190125823020935e-01" purity="5.1920723915100098e-01" nType="0">
        <Node pos="l" depth="1" NCoef="0" IVar="0" Cut="8.1355266571044922e+00" cType="1" res="4.7809217125177383e-02" rms="4.8322966694831848e-01" purity="5.5946457386016846e-01" nType="0">
          <Node pos="l" depth="2" NCoef="0" IVar="-1" Cut="0.0000000000000000e+00" cType="1" res="-5.8142479247180745e-05" rms="4.9028328061103821e-01" purity="4.9693253636360168e-01" nType="-99"/>
          <Node pos="r" depth="2" NCoef="0" IVar="-1" Cut="0.0000000000000000e+00" cType="1" res="5.3768400102853775e-03" rms="3.9426293969154358e-01" purity="8.0734276771545410e-01" nType="-99"/>
        </Node>
        <Node pos="r" depth="1" NCoef="0" IVar="-1" Cut="0.0000000000000000e+00" cType="1" res="-5.7925218716263771e-03" rms="3.1946811079978943e-01" purity="1.1899723112583160e-01" nType="-99"/>
      </Node>
    </BinaryTree>
    <BinaryTree type="DecisionTree" boostWeight="1.0000000000000000e+00" itree="46">
      <Node pos="s" depth="0" NCoef="0" IVar="2" Cut="1.1450958251953125e+00" cType="1" res="3.0777310021221638e-03" rms="4.8098343610763550e-01" purity="5.0653654336929321e-01" nType="0">
        <Node pos="l" depth="1" NCoef="0" IVar="0" Cut="5.7700624465942383e+00" cType="1" res="7.2761595249176025e-02" rms="4.7729614377021790e-01" purity="6.0479342937469482e-01" nType="0">
          <Node pos="l" depth="2" NCoef="0" IVar="-1" Cut="0.0000000000000000e+00" cType="1" res="-1.5322635881602764e-03" rms="4.8397159576416016e-01" purity="3.8509032130241394e-01" nType="-99"/>
          <Node pos="r" depth="2" NCoef="0" IVar="-1" Cut="0.0000000000000000e+00" cType="1" res="2.3029753938317299e-03" rms="4.6741291880607605e-01" purity="6.6048955917358398e-01" nType="-99"/>
        </Node>
        <Node pos="r" depth="1" NCoef="0" IVar="0" Cut="8.0392875671386719e+00" cType="1" res="-1.2312233448028564e-01" rms="4.6154490113258362e-01" purity="3.2858973741531372e-01" nType="0">
          <Node pos="l" depth="2" NCoef="0" IVar="-1" Cut="0.0000000000000000e+00" cType="1" res="-2.9859717469662428e-03" rms="4.4655638933181763e-01" purity="2.8471183776855469e-01" nType="-99"/>
          <Node pos="r" depth="2" NCoef="0" IVar="-1" Cut="0.0000000000000000e+00" cType="1" res="1.0314930696040392e-03" rms="4.9467536807060242e-01" purity="5.4668378829956055e-01" nType="-99"/>
        </Node>
      </Node>
    </BinaryTree>
    <BinaryTree type="DecisionTree" boostWeight="1.0000000000000000e+00" itree="47">
      <Node pos="s" depth="0" NCoef="0" IVar="2" Cut="9.8464930057525635e-01" cType="1" res="-1.4003303833305836e-02" rms="4.7915926575660706e-01" purity="4.9014511704444885e-01" nType="0">
        <Node pos="l" depth="1" NCoef="0" IVar="0" Cut="7.1422805786132812e+00" cType="1" res="9.4479866325855255e-02" rms="4.7129392623901367e-01" purity="6.3512533903121948e-01" nType="0">
          <Node pos="l" depth="2" NCoef="0" IVar="-1" Cut="0.0000000000000000e+00" cType="1" res="3.3946437179110944e-04" rms="4.9543431401252747e-01" purity="5.2519077062606812e-01" nType="-99"/>
          <Node pos="r" depth="2" NCoef="0" IVar="-1" Cut="0.0000000000000000e+00" cType="1" res="3.9342348463833332e-03" rms="4.2294585704803467e-01" purity="7.6611745357513428e-01" nType="-99"/>
        </Node>
        <Node pos="r" depth="1" NCoef="0" IVar="0" Cut="8.2577018737792969e+00" cType="1" res="-1.2191412597894669e-01" rms="4.6225374937057495e-01" purity="3.4592986106872559e-01" nType="0">
          <Node pos="l" depth="2" NCoef="0" IVar="-1" Cut="0.0000000000000000e+00" cType="1" res="-3.1127326656132936e-03" rms="4.4674345850944519e-01" purity="2.9182699322700500e-01" nType="-99"/>
          <Node pos="r" depth="2" NCoef="0" IVar="-1" Cut="0.0000000000000000e+00" cType="1" res="3.2879728823900223e-03" rms="4.6043446660041809e-01" purity="6.8289238214492798e-01" nType="-99"/>
        </Node>
      </Node>
    </BinaryTree>
    <BinaryTree type="DecisionTree" boostWeight="1.0000000000000000e+00" itree="48">
      <Node pos="s" depth="0" NCoef="0" IVar="0" Cut="6.6820106506347656e+00" cType="1" res="7.0251472061499953e-04" rms="4.8136508464813232e-01" purity="5.0717723369598389e-01" nType="0">
        <Node pos="l" depth="1" NCoef="0" IVar="3" Cut="2.4457209110260010e+00" cType="1" res="-9.1175928711891174e-02" rms="4.7445356845855713e-01" purity="3.7258109450340271e-01" nType="0">
          <Node pos="l" depth="2" NCoef="0" IVar="-1" Cut="0.0000000000000000e+00" cType="1" res="-9.8452914971858263e-04" rms="4.8820602893829346e-01" purity="4.2162337899208069e-01" nType="-99"/>
          <Node pos="r" depth="2" NCoef="0" IVar="-1" Cut="0.0000000000000000e+00" cType="1" res="-4.5424066483974457e-03" rms="3.7377429008483887e-01" purity="1.6952610015869141e-01" nType="-99"/>
        </Node>
        <Node pos="r" depth="1" NCoef="0" IVar="2" Cut="1.3332276344299316e+00" cType="1" res="7.8733772039413452e-02" rms="4.7335463762283325e-01" purity="6.2148809432983398e-01" nType="0">
          <Node pos="l" depth="2" NCoef="0" IVar="-1" Cut="0.0000000000000000e+00" cType="1" res="2.4556466378271580e-03" rms="4.6405547857284546e-01" purity="6.7650282382965088e-01" nType="-99"/>
          <Node pos="r" depth="2" NCoef="0" IVar="-1" Cut="0.0000000000000000e+00" cType="1" res="-1.9592111930251122e-03" rms="4.7643303871154785e-01" purity="3.6547809839248657e-01" nType="-99"/>
        </Node>
      </Node>
    </BinaryTree>
    <BinaryTree type="DecisionTree" boostWeight="1.0000000000000000e+00" itree="49">
      <Node pos="s" depth="0" NCoef="0" IVar="0" Cut="7.8887081146240234e+00" cType="1" res="2.0361267030239105e-02" rms="4.8101300001144409e-01" purity="5.2563637495040894e-01" nType="0">
        <Node pos="l" depth="1" NCoef="0" IVar="2" Cut="1.0926175117492676e+00" cType="1" res="-2.9871573671698570e-02" rms="4.8412001132965088e-01" purity="4.5891615748405457e-01" nType="0">
          <Node pos="l" depth="2" NCoef="0" IVar="-1" Cut="0.0000000000000000e+00" cType="1" res="9.2479260638356209e-04" rms="4.8950096964836121e-01" purity="5.6840723752975464e-01" nType="-99"/>
          <Node pos="r" depth="2" NCoef="0" IVar="-1" Cut="0.0000000000000000e+00" cType="1" res="-2.5760394055396318e-03" rms="4.5538204908370972e-01" purity="3.0559536814689636e-01" nType="-99"/>
        </Node>
        <Node pos="r" depth="1" NCoef="0" IVar="5" Cut="4.2273452877998352e-01" cType="1" res="1.9281809031963348e-01" rms="4.2740410566329956e-01" purity="7.5469684600830078e-01" nType="0">
          <Node pos="l" depth="2" NCoef="0" IVar="-1" Cut="0.0000000000000000e+00" cType="1" res="2.5132207665592432e-03" rms="4.6377113461494446e-01" purity="6.6990017890930176e-01" nType="-99"/>
          <Node pos="r" depth="2" NCoef="0" IVar="-1" Cut="0.0000000000000000e+00" cType="1" res="5.7233511470258236e-03" rms="3.7768369913101196e-01" purity="8.3222770690917969e-01" nType="-99"/>
        </Node>
      </Node>
    </BinaryTree>
    <BinaryTree type="DecisionTree" boostWeight="1.0000000000000000e+00" itree="50">
      <Node pos="s" depth="0" NCoef="0" IVar="0" Cut="6.8333044052124023e+00" cType="1" res="1.4466157183051109e-02" rms="4.7703209519386292e-01" purity="5.2040624618530273e-01" nType="0">
        <Node pos="l" depth="1" NCoef="0" IVar="0" Cut="5.3325066566467285e+00" cType="1" res="-9.9492885172367096e-02" rms="4.7309300303459167e-01" purity="3.6539253592491150e-01" nType="0">
          <Node pos="l" depth="2" NCoef="0" IVar="-1" Cut="0.0000000000000000e+00" cType="1" res="-4.4883806258440018e-03" rms="3.8450539112091064e-01" purity="1.8300969898700714e-01" nType="-99"/>
          <Node pos="r" depth="2" NCoef="0" IVar="-1" Cut="0.0000000000000000e+00" cType="1" res="-9.6235558157786727e-04" rms="4.8792469501495361e-01" purity="4.2344367504119873e-01" nType="-99"/>
        </Node>
        <Node pos="r" depth="1" NCoef="0" IVar="2" Cut="1.1913799047470093e+00" cType="1" res="1.2624140083789825e-01" rms="4.5387116074562073e-01" purity="6.7244940996170044e-01" nType="0">
          <Node pos="l" depth="2" NCoef="0" IVar="-1" Cut="0.0000000000000000e+00" cType="1" res="4.1194874793291092e-03" rms="4.1938602924346924e-01" purity="7.6895028352737427e-01" nType="-99"/>
          <Node pos="r" depth="2" NCoef="0" IVar="-1" Cut="0.0000000000000000e+00" cType="1" res="-7.9300987999886274e-04" rms="4.9078711867332458e-01" purity="4.3730494379997253e-01" nType="-99"/>
        </Node>
      </Node>
    </BinaryTree>
    <BinaryTree type="DecisionTree" boostWeight="1.0000000000000000e+00" itree="51">
      <Node pos="s" depth="0" NCoef="0" IVar="2" Cut="8.3468914031982422e-01" cType="1" res="-1.6017608344554901e-02" rms="4.8019912838935852e-01" purity="4.8933109641075134e-01" nType="0">
        <Node pos="l" depth="1" NCoef="0" IVar="1" Cut="9.6141380310058594e+01" cType="1" res="1.0898933559656143e-01" rms="4.6421185135841370e-01" purity="6.5476185083389282e-01" nType="0">
          <Node pos="l" depth="2" NCoef="0" IVar="-1" Cut="0.0000000000000000e+00" cType="1" res="8.4650365170091391e-04" rms="4.8056852817535400e-01" purity="5.8400201797485352e-01" nType="-99"/>
          <Node pos="r" depth="2" NCoef="0" IVar="-1" Cut="0.0000000000000000e+00" cType="1" res="6.4032329246401787e-03" rms="3.4918594360351562e-01" purity="8.5834252834320068e-01" nType="-99"/>
        </Node>
        <Node pos="r" depth="1" NCoef="0" IVar="5" Cut="2.7257719635963440e-01" cType="1" res="-8.0880552530288696e-02" rms="4.7551017999649048e-01" purity="4.0349325537681580e-01" nType="0">
          <Node pos="l" depth="2" NCoef="0" IVar="-1" Cut="0.0000000000000000e+00" cType="1" res="-3.4853483084589243e-03" rms="4.3952599167823792e-01" purity="2.8057572245597839e-01" nType="-99"/>
          <Node pos="r" depth="2" NCoef="0" IVar="-1" Cut="0.0000000000000000e+00" cType="1" res="-5.1830452866852283e-04" rms="4.8349460959434509e-01" purity="4.6522244811058044e-01" nType="-99"/>
        </Node>
      </Node>
    </BinaryTree>
    <BinaryTree type="DecisionTree" boostWeight="1.0000000000000000e+00" itree="52">
      <Node pos="s" depth="0" NCoef="0" IVar="3" Cut="2.5707271099090576e+00" cType="1" res="6.3211699016392231e-03" rms="4.8157724738121033e-01" purity="5.1272851228713989e-01" nType="0">
        <Node pos="l" depth="1" NCoef="0" IVar="0" Cut="5.1286630630493164e+00" cType="1" res="3.5071231424808502e-02" rms="4.8361673951148987e-01" purity="5.5128061771392822e-01" nType="0">
          <Node pos="l" depth="2" NCoef="0" IVar="-1" Cut="0.0000000000000000e+00" cType="1" res="-3.6752070300281048e-03" rms="4.1467478871345520e-01" purity="2.2644202411174774e-01" nType="-99"/>
          <Node pos="r" depth="2" NCoef="0" IVar="-1" Cut="0.0000000000000000e+00" cType="1" res="1.1442060349509120e-03" rms="4.8320955038070679e-01" purity="5.8018642663955688e-01" nType="-99"/>
        </Node>
        <Node pos="r" depth="1" NCoef="0" IVar="3" Cut="2.7222418785095215e+00" cType="1" res="-2.3331809043884277e-01" rms="3.8883396983146667e-01" purity="1.9138708710670471e-01" nType="0">
          <Node pos="l" depth="2" NCoef="0" IVar="-1" Cut="0.0000000000000000e+00" cType="1" res="-3.5339756868779659e-03" rms="4.2811661958694458e-01" purity="2.4593089520931244e-01" nType="-99"/>
          <Node pos="r" depth="2" NCoef="0" IVar="-1" Cut="0.0000000000000000e+00" cType="1" res="-5.2820793353021145e-03" rms="3.3805462718009949e-01" purity="1.3643884658813477e-01" nType="-99"/>
        </Node>
      </Node>
    </BinaryTree>
    <BinaryTree type="DecisionTree" boostWeight="1.0000000000000000e+00" itree="53">
      <Node pos="s" depth="0" NCoef="0" IVar="2" Cut="1.1195261478424072e+00" cType="1" res="-6.4059263095259666e-03" rms="4.7852528095245361e-01" purity="4.9611487984657288e-01" nType="0">
        <Node pos="l" depth="1" NCoef="0" IVar="0" Cut="6.9133863449096680e+00" cType="1" res="6.9396935403347015e-02" rms="4.7865486145019531e-01" purity="6.0637092590332031e-01" nType="0">
          <Node pos="l" depth="2" NCoef="0" IVar="-1" Cut="0.0000000000000000e+00" cType="1" res="1.3021305494476110e-04" rms="4.9631148576736450e-01" purity="5.0116270780563354e-01" nType="-99"/>
          <Node pos="r" depth="2" NCoef="0" IVar="-1" Cut="0.0000000000000000e+00" cType="1" res="2.8171271551400423e-03" rms="4.5248633623123169e-01" purity="7.0918852090835571e-01" nType="-99"/>
        </Node>
        <Node pos="r" depth="1" NCoef="0" IVar="0" Cut="5.8221640586853027e+00" cType="1" res="-1.2718971073627472e-01" rms="4.5281815528869629e-01" purity="3.2043367624282837e-01" nType="0">
          <Node pos="l" depth="2" NCoef="0" IVar="-1" Cut="0.0000000000000000e+00" cType="1" res="-5.1383175887167454e-03" rms="3.2013761997222900e-01" purity="1.1624983698129654e-01" nType="-99"/>
          <Node pos="r" depth="2" NCoef="0" IVar="-1" Cut="0.0000000000000000e+00" cType="1" res="-1.2044066097587347e-03" rms="4.8082318902015686e-01" purity="4.0208652615547180e-01" nType="-99"/>
        </Node>
      </Node>
    </BinaryTree>
    <BinaryTree type="DecisionTree" boostWeight="1.0000000000000000e+00" itree="54">
      <Node pos="s" depth="0" NCoef="0" IVar="0" Cut="7.5592713356018066e+00" cType="1" res="-1.1884391307830811e-02" rms="4.7705388069152832e-01" purity="4.9000227451324463e-01" nType="0">
        <Node pos="l" depth="1" NCoef="0" IVar="6" Cut="3.0120458984375000e+02" cType="1" res="-8.7742373347282410e-02" rms="4.7299307584762573e-01" purity="3.8852787017822266e-01" nType="0">
          <Node pos="l" depth="2" NCoef="0" IVar="-1" Cut="0.0000000000000000e+00" cType="1" res="-4.4683092273771763e-03" rms="4.0172824263572693e-01" purity="2.1585135161876678e-01" nType="-99"/>
          <Node pos="r" depth="2" NCoef="0" IVar="-1" Cut="0.0000000000000000e+00" cType="1" res="-6.7829270847141743e-04" rms="4.8289594054222107e-01" purity="4.4506710767745972e-01" nType="-99"/>
        </Node>
        <Node pos="r" depth="1" NCoef="0" IVar="0" Cut="8.6647510528564453e+00" cType="1" res="1.6255225241184235e-01" rms="4.3907999992370605e-01" purity="7.2334438562393188e-01" nType="0">
          <Node pos="l" depth="2" NCoef="0" IVar="-1" Cut="0.0000000000000000e+00" cType="1" res="2.4654529988765717e-03" rms="4.6121522784233093e-01" purity="6.7603462934494019e-01" nType="-99"/>
          <Node pos="r" depth="2" NCoef="0" IVar="-1" Cut="0.0000000000000000e+00" cType="1" res="5.2167400717735291e-03" rms="3.8837373256683350e-01" purity="8.0185210704803467e-01" nType="-99"/>
        </Node>
      </Node>
    </BinaryTree>
    <BinaryTree type="DecisionTree" boostWeight="1.0000000000000000e+00" itree="55">
      <Node pos="s" depth="0" NCoef="0" IVar="0" Cut="6.4582619667053223e+00" cType="1" res="-2.0781684666872025e-02" rms="4.7915059328079224e-01" purity="4.8237800598144531e-01" nType="0">
        <Node pos="l" depth="1" NCoef="0" IVar="1" Cut="5.0261318206787109e+01" cType="1" res="-1.2832340598106384e-01" rms="4.6194735169410706e-01" purity="3.2506611943244934e-01" nType="0">
          <Node pos="l" depth="2" NCoef="0" IVar="-1" Cut="0.0000000000000000e+00" cType="1" res="-4.7192359343171120e-03" rms="3.9046835899353027e-01" purity="1.9453369081020355e-01" nType="-99"/>
          <Node pos="r" depth="2" NCoef="0" IVar="-1" Cut="0.0000000000000000e+00" cType="1" res="-1.4756062300875783e-03" rms="4.7675099968910217e-01" purity="3.7412443757057190e-01" nType="-99"/>
        </Node>
        <Node pos="r" depth="1" NCoef="0" IVar="3" Cut="2.6549184322357178e+00" cType="1" res="4.7220394015312195e-02" rms="4.7737342119216919e-01" purity="5.8185136318206787e-01" nType="0">
          <Node pos="l" depth="2" NCoef="0" IVar="-1" Cut="0.0000000000000000e+00" cType="1" res="1.6367718344554305e-03" rms="4.7525563836097717e-01" purity="6.2373322248458862e-01" nType="-99"/>
          <Node pos="r" depth="2" NCoef="0" IVar="-1" Cut="0.0000000000000000e+00" cType="1" res="-5.4191541858017445e-03" rms="3.6222392320632935e-01" purity="1.5812772512435913e-01" nType="-99"/>
        </Node>
      </Node>
    </BinaryTree>
    <BinaryTree type="DecisionTree" boostWeight="1.0000000000000000e+00" itree="56">
      <Node pos="s" depth="0" NCoef="0" IVar="3" Cut="2.5370674133300781e+00" cType="1" res="-1.7154645174741745e-03" rms="4.7779399156570435e-01" purity="5.0264519453048706e-01" nType="0">
        <Node pos="l" depth="1" NCoef="0" IVar="0" Cut="6.4370737075805664e+00" cType="1" res="3.4403361380100250e-02" rms="4.8102718591690063e-01" purity="5.5077517032623291e-01" nType="0">
          <Node pos="l" depth="2" NCoef="0" IVar="-1" Cut="0.0000000000000000e+00" cType="1" res="-1.2990044197067618e-03" rms="4.8417773842811584e-01" purity="3.9267069101333618e-01" nType="-99"/>
          <Node pos="r" depth="2" NCoef="0" IVar="-1" Cut="0.0000000000000000e+00" cType="1" res="2.2847519721835852e-03" rms="4.6474650502204895e-01" purity="6.6238224506378174e-01" nType="-99"/>
        </Node>
        <Node pos="r" depth="1" NCoef="0" IVar="1" Cut="9.9622810363769531e+01" cType="1" res="-2.6037564873695374e-01" rms="3.6033165454864502e-01" purity="1.5796898305416107e-01" nType="0">
          <Node pos="l" depth="2" NCoef="0" IVar="-1" Cut="0.0000000000000000e+00" cType="1" res="-6.1691589653491974e-03" rms="2.9244932532310486e-01" purity="9.9923357367515564e-02" nType="-99"/>
          <Node pos="r" depth="2" NCoef="0" IVar="-1" Cut="0.0000000000000000e+00" cType="1" res="-3.7046030629426241e-03" rms="4.2013090848922729e-01" purity="2.3059692978858948e-01" nType="-99"/>
        </Node>
      </Node>
    </BinaryTree>
    <BinaryTree type="DecisionTree" boostWeight="1.0000000000000000e+00" itree="57">
      <Node pos="s" depth="0" NCoef="0" IVar="0" Cut="7.2366938591003418e+00" cType="1" res="-1.0833388194441795e-02" rms="4.7751185297966003e-01" purity="4.9283331632614136e-01" nType="0">
        <Node pos="l" depth="1" NCoef="0" IVar="0" Cut="4.9337153434753418e+00" cType="1" res="-8.6480885744094849e-02" rms="4.7407454252243042e-01" purity="3.8503041863441467e-01" nType="0">
          <Node pos="l" depth="2" NCoef="0" IVar="-1" Cut="0.0000000000000000e+00" cType="1" res="-4.9440516158938408e-03" rms="3.3215269446372986e-01" purity="1.2825028598308563e-01" nType="-99"/>
          <Node pos="r" depth="2" NCoef="0" IVar="-1" Cut="0.0000000000000000e+00" cType="1" res="-1.1555717792361975e-03" rms="4.8233753442764282e-01" purity="4.1651555895805359e-01" nType="-99"/>
        </Node>
        <Node pos="r" depth="1" NCoef="0" IVar="1" Cut="6.8017150878906250e+01" cType="1" res="1.1653429269790649e-01" rms="4.5570522546768188e-01" purity="6.7434108257293701e-01" nType="0">
          <Node pos="l" depth="2" NCoef="0" IVar="-1" Cut="0.0000000000000000e+00" cType="1" res="7.4481307819951326e-05" rms="4.7826984524726868e-01" purity="5.6427472829818726e-01" nType="-99"/>
          <Node pos="r" depth="2" NCoef="0" IVar="-1" Cut="0.0000000000000000e+00" cType="1" res="3.9440421387553215e-03" rms="4.2914363741874695e-01" purity="7.3722058534622192e-01" nType="-99"/>
        </Node>
      </Node>
    </BinaryTree>
    <BinaryTree type="DecisionTree" boostWeight="1.0000000000000000e+00" itree="58">
      <Node pos="s" depth="0" NCoef="0" IVar="3" Cut="2.3325757980346680e+00" cType="1" res="-2.5053223595023155e-02" rms="4.7342035174369812e-01" purity="4.7554349899291992e-01" nType="0">
        <Node pos="l" depth="1" NCoef="0" IVar="0" Cut="6.7898011207580566e+00" cType="1" res="4.2593151330947876e-02" rms="4.7640353441238403e-01" purity="5.6616061925888062e-01" nType="0">
          <Node pos="l" depth="2" NCoef="0" IVar="-1" Cut="0.0000000000000000e+00" cType="1" res="-1.3335606781765819e-03" rms="4.8272538185119629e-01" purity="4.0297001600265503e-01" nType="-99"/>
          <Node pos="r" depth="2" NCoef="0" IVar="-1" Cut="0.0000000000000000e+00" cType="1" res="3.2398344483226538e-03" rms="4.4373801350593567e-01" purity="7.2169774770736694e-01" nType="-99"/>
        </Node>
        <Node pos="r" depth="1" NCoef="0" IVar="3" Cut="2.6146693229675293e+00" cType="1" res="-1.8795563280582428e-01" rms="4.2396512627601624e-01" purity="2.5732412934303284e-01" nType="0">
          <Node pos="l" depth="2" NCoef="0" IVar="-1" Cut="0.0000000000000000e+00" cType="1" res="-2.3419021163135767e-03" rms="4.6183189749717712e-01" purity="3.3913013339042664e-01" nType="-99"/>
          <Node pos="r" depth="2" NCoef="0" IVar="-1" Cut="0.0000000000000000e+00" cType="1" res="-6.0238977894186974e-03" rms="2.9374504089355469e-01" purity="9.3969501554965973e-02" nType="-99"/>
        </Node>
      </Node>
    </BinaryTree>
    <BinaryTree type="DecisionTree" boostWeight="1.0000000000000000e+00" itree="59">
      <Node pos="s" depth="0" NCoef="0" IVar="2" Cut="1.2078449726104736e+00" cType="1" res="2.6117356494069099e-02" rms="4.7577714920043945e-01" purity="5.2754503488540649e-01" nType="0">
        <Node pos="l" depth="1" NCoef="0" IVar="0" Cut="5.4178972244262695e+00" cType="1" res="1.0142911225557327e-01" rms="4.6844765543937683e-01" purity="6.3488143682479858e-01" nType="0">
          <Node pos="l" depth="2" NCoef="0" IVar="-1" Cut="0.0000000000000000e+00" cType="1" res="-1.5057720011100173e-03" rms="4.7881722450256348e-01" purity="3.6076757311820984e-01" nType="-99"/>
          <Node pos="r" depth="2" NCoef="0" IVar="-1" Cut="0.0000000000000000e+00" cType="1" res="2.7712741866707802e-03" rms="4.5930102467536926e-01" purity="6.8053710460662842e-01" nType="-99"/>
        </Node>
        <Node pos="r" depth="1" NCoef="0" IVar="0" Cut="5.6057205200195312e+00" cType="1" res="-1.3054370880126953e-01" rms="4.5212721824645996e-01" purity="3.0426722764968872e-01" nType="0">
          <Node pos="l" depth="2" NCoef="0" IVar="-1" Cut="0.0000000000000000e+00" cType="1" res="-4.9358773976564407e-03" rms="3.0706036090850830e-01" purity="1.0951442271471024e-01" nType="-99"/>
          <Node pos="r" depth="2" NCoef="0" IVar="-1" Cut="0.0000000000000000e+00" cType="1" res="-1.6684500733390450e-03" rms="4.7854700684547424e-01" purity="3.6405393481254578e-01" nType="-99"/>
        </Node>
      </Node>
    </BinaryTree>
    <BinaryTree type="DecisionTree" boostWeight="1.0000000000000000e+00" itree="60">
      <Node pos="s" depth="0" NCoef="0" IVar="0" Cut="6.1073803901672363e+00" cType="1" res="-1.3354333117604256e-02" rms="4.7626066207885742e-01" purity="4.9250635504722595e-01" nType="0">
        <Node pos="l" depth="1" NCoef="0" IVar="6" Cut="5.5365667724609375e+02" cType="1" res="-1.5935277938842773e-01" rms="4.4277358055114746e-01" purity="2.8593555092811584e-01" nType="0">
          <Node pos="l" depth="2" NCoef="0" IVar="-1" Cut="0.0000000000000000e+00" cType="1" res="-3.5273034591227770e-03" rms="4.2414572834968567e-01" purity="2.4715301394462585e-01" nType="-99"/>
          <Node pos="r" depth="2" NCoef="0" IVar="-1" Cut="0.0000000000000000e+00" cType="1" res="6.4383566495962441e-05" rms="4.8511630296707153e-01" purity="4.5812958478927612e-01" nType="-99"/>
        </Node>
        <Node pos="r" depth="1" NCoef="0" IVar="3" Cut="2.2993922233581543e+00" cType="1" res="5.9238839894533157e-02" rms="4.7566610574722290e-01" purity="5.9521722793579102e-01" nType="0">
          <Node pos="l" depth="2" NCoef="0" IVar="-1" Cut="0.0000000000000000e+00" cType="1" res="2.4793043266981840e-03" rms="4.5871785283088684e-01" purity="6.7578488588333130e-01" nType="-99"/>
          <Node pos="r" depth="2" NCoef="0" IVar="-1" Cut="0.0000000000000000e+00" cType="1" res="-1.5560608590021729e-03" rms="4.8607334494590759e-01" purity="4.1062539815902710e-01" nType="-99"/>
        </Node>
      </Node>
    </BinaryTree>
    <BinaryTree type="DecisionTree" boostWeight="1.0000000000000000e+00" itree="61">
      <Node pos="s" depth="0" NCoef="0" IVar="0" Cut="6.6706433296203613e+00" cType="1" res="-1.1063203215599060e-02" rms="4.7635325789451599e-01" purity="4.9275648593902588e-01" nType="0">
        <Node pos="l" depth="1" NCoef="0" IVar="0" Cut="5.1196064949035645e+00" cType="1" res="-1.0068170726299286e-01" rms="4.6837514638900757e-01" purity="3.5445961356163025e-01" nType="0">
          <Node pos="l" depth="2" NCoef="0" IVar="-1" Cut="0.0000000000000000e+00" cType="1" res="-4.9636438488960266e-03" rms="3.3673772215843201e-01" purity="1.3062947988510132e-01" nType="-99"/>
          <Node pos="r" depth="2" NCoef="0" IVar="-1" Cut="0.0000000000000000e+00" cType="1" res="-9.8122446797788143e-04" rms="4.8413389921188354e-01" purity="4.1031932830810547e-01" nType="-99"/>
        </Node>
        <Node pos="r" depth="1" NCoef="0" IVar="3" Cut="2.4121007919311523e+00" cType="1" res="7.4346557259559631e-02" rms="4.6813082695007324e-01" purity="6.2455850839614868e-01" nType="0">
          <Node pos="l" depth="2" NCoef="0" IVar="-1" Cut="0.0000000000000000e+00" cType="1" res="2.5412682443857193e-03" rms="4.5668753981590271e-01" purity="6.8929892778396606e-01" nType="-99"/>
          <Node pos="r" depth="2" NCoef="0" IVar="-1" Cut="0.0000000000000000e+00" cType="1" res="-2.1932141389697790e-03" rms="4.6900907158851624e-01" purity="3.4998145699501038e-01" nType="-99"/>
        </Node>
      </Node>
    </BinaryTree>
    <BinaryTree type="DecisionTree" boostWeight="1.0000000000000000e+00" itree="62">
      <Node pos="s" depth="0" NCoef="0" IVar="0" Cut="6.6141772270202637e+00" cType="1" res="-4.5601618476212025e-03" rms="4.7510865330696106e-01" purity="4.9676281213760376e-01" nType="0">
        <Node pos="l" depth="1" NCoef="0" IVar="1" Cut="8.5984817504882812e+01" cType="1" res="-1.3486374914646149e-01" rms="4.5509102940559387e-01" purity="3.1119972467422485e-01" nType="0">
          <Node pos="l" depth="2" NCoef="0" IVar="-1" Cut="0.0000000000000000e+00" cType="1" res="-3.3951282966881990e-03" rms="4.3069404363632202e-01" purity="2.6226034760475159e-01" nType="-99"/>
          <Node pos="r" depth="2" NCoef="0" IVar="-1" Cut="0.0000000000000000e+00" cType="1" res="-1.0497415205463767e-03" rms="4.8143756389617920e-01" purity="3.9032205939292908e-01" nType="-99"/>
        </Node>
        <Node pos="r" depth="1" NCoef="0" IVar="3" Cut="2.5520961284637451e+00" cType="1" res="9.2812947928905487e-02" rms="4.6634033322334290e-01" purity="6.3543015718460083e-01" nType="0">
          <Node pos="l" depth="2" NCoef="0" IVar="-1" Cut="0.0000000000000000e+00" cType="1" res="2.7130250819027424e-03" rms="4.5785835385322571e-01" purity="6.8619263172149658e-01" nType="-99"/>
          <Node pos="r" depth="2" NCoef="0" IVar="-1" Cut="0.0000000000000000e+00" cType="1" res="-2.9335513245314360e-03" rms="4.4980958104133606e-01" purity="2.9183816909790039e-01" nType="-99"/>
        </Node>
      </Node>
    </BinaryTree>
    <BinaryTree type="DecisionTree" boostWeight="1.0000000000000000e+00" itree="63">
      <Node pos="s" depth="0" NCoef="0" IVar="2" Cut="1.0330115556716919e+00" cType="1" res="-2.1358529105782509e-02" rms="4.7924202680587769e-01" purity="4.8372146487236023e-01" nType="0">
        <Node pos="l" depth="1" NCoef="0" IVar="0" Cut="8.5801792144775391e+00" cType="1" res="7.0460341870784760e-02" rms="4.7546476125717163e-01" purity="6.1810636520385742e-01" nType="0">
          <Node pos="l" depth="2" NCoef="0" IVar="-1" Cut="0.0000000000000000e+00" cType="1" res="9.4516953686252236e-04" rms="4.8464044928550720e-01" purity="5.8620637655258179e-01" nType="-99"/>
          <Node pos="r" depth="2" NCoef="0" IVar="-1" Cut="0.0000000000000000e+00" cType="1" res="5.2840965799987316e-03" rms="3.6649048328399658e-01" purity="8.3995550870895386e-01" nType="-99"/>
        </Node>
        <Node pos="r" depth="1" NCoef="0" IVar="0" Cut="8.0017776489257812e+00" cType="1" res="-1.2359736114740372e-01" rms="4.6243715286254883e-01" purity="3.3408603072166443e-01" nType="0">
          <Node pos="l" depth="2" NCoef="0" IVar="-1" Cut="0.0000000000000000e+00" cType="1" res="-2.8768684715032578e-03" rms="4.5063057541847229e-01" purity="2.9043194651603699e-01" nType="-99"/>
          <Node pos="r" depth="2" NCoef="0" IVar="-1" Cut="0.0000000000000000e+00" cType="1" res="-1.2627843534573913e-04" rms="4.9018311500549316e-01" purity="5.1062893867492676e-01" nType="-99"/>
        </Node>
      </Node>
    </BinaryTree>
    <BinaryTree type="DecisionTree" boostWeight="1.0000000000000000e+00" itree="64">
      <Node pos="s" depth="0" NCoef="0" IVar="0" Cut="5.9774165153503418e+00" cType="1" res="3.9798389188945293e-03" rms="4.7467899322509766e-01" purity="5.0816494226455688e-01" nType="0">
        <Node pos="l" depth="1" NCoef="0" IVar="2" Cut="1.0507365465164185e+00" cType="1" res="-1.4648175239562988e-01" rms="4.4302278757095337e-01" purity="2.8882658481597900e-01" nType="0">
          <Node pos="l" depth="2" NCoef="0" IVar="-1" Cut="0.0000000000000000e+00" cType="1" res="-1.0985404951497912e-03" rms="4.8857706785202026e-01" purity="4.0859439969062805e-01" nType="-99"/>
          <Node pos="r" depth="2" NCoef="0" IVar="-1" Cut="0.0000000000000000e+00" cType="1" res="-4.4105756096541882e-03" rms="3.6920732259750366e-01" purity="1.6513164341449738e-01" nType="-99"/>
        </Node>
        <Node pos="r" depth="1" NCoef="0" IVar="3" Cut="2.4713728427886963e+00" cType="1" res="5.9567693620920181e-02" rms="4.7391891479492188e-01" purity="5.8919924497604370e-01" nType="0">
          <Node pos="l" depth="2" NCoef="0" IVar="-1" Cut="0.0000000000000000e+00" cType="1" res="2.0599716808646917e-03" rms="4.6804562211036682e-01" purity="6.4596194028854370e-01" nType="-99"/>
          <Node pos="r" depth="2" NCoef="0" IVar="-1" Cut="0.0000000000000000e+00" cType="1" res="-2.6583259459584951e-03" rms="4.5659011602401733e-01" purity="3.0713936686515808e-01" nType="-99"/>
        </Node>
      </Node>
    </BinaryTree>
    <BinaryTree type="DecisionTree" boostWeight="1.0000000000000000e+00" itree="65">
      <Node pos="s" depth="0" NCoef="0" IVar="3" Cut="2.3424928188323975e+00" cType="1" res="-1.9613392651081085e-02" rms="4.7544887661933899e-01" purity="4.8067691922187805e-01" nType="0">
        <Node pos="l" depth="1" NCoef="0" IVar="0" Cut="6.9229016304016113e+00" cType="1" res="3.9376109838485718e-02" rms="4.8014611005783081e-01" purity="5.6519836187362671e-01" nType="0">
          <Node pos="l" depth="2" NCoef="0" IVar="-1" Cut="0.0000000000000000e+00" cType="1" res="-7.5384776573628187e-04" rms="4.8943161964416504e-01" purity="4.3568980693817139e-01" nType="-99"/>
          <Node pos="r" depth="2" NCoef="0" IVar="-1" Cut="0.0000000000000000e+00" cType="1" res="2.7427927125245333e-03" rms="4.5293620228767395e-01" purity="7.1061354875564575e-01" nType="-99"/>
        </Node>
        <Node pos="r" depth="1" NCoef="0" IVar="0" Cut="7.7716789245605469e+00" cType="1" res="-1.6149061918258667e-01" rms="4.3215441703796387e-01" purity="2.7739208936691284e-01" nType="0">
          <Node pos="l" depth="2" NCoef="0" IVar="-1" Cut="0.0000000000000000e+00" cType="1" res="-3.7764736916869879e-03" rms="4.0597566962242126e-01" purity="2.1772964298725128e-01" nType="-99"/>
          <Node pos="r" depth="2" NCoef="0" IVar="-1" Cut="0.0000000000000000e+00" cType="1" res="-7.1417738217860460e-04" rms="4.8428079485893250e-01" purity="4.6408468484878540e-01" nType="-99"/>
        </Node>
      </Node>
    </BinaryTree>
    <BinaryTree type="DecisionTree" boostWeight="1.0000000000000000e+00" itree="66">
      <Node pos="s" depth="0" NCoef="0" IVar="0" Cut="7.8966565132141113e+00" cType="1" res="-1.3665284030139446e-02" rms="4.7343277931213379e-01" purity="4.8895400762557983e-01" nType="0">
        <Node pos="l" depth="1" NCoef="0" IVar="2" Cut="1.0303698778152466e+00" cType="1" res="-7.3127858340740204e-02" rms="4.7269040346145630e-01" purity="4.0666443109512329e-01" nType="0">
          <Node pos="l" depth="2" NCoef="0" IVar="-1" Cut="0.0000000000000000e+00" cType="1" res="3.8303903420455754e-04" rms="4.9199900031089783e-01" purity="5.4221147298812866e-01" nType="-99"/>
          <Node pos="r" depth="2" NCoef="0" IVar="-1" Cut="0.0000000000000000e+00" cType="1" res="-3.3443858847022057e-03" rms="4.2863142490386963e-01" purity="2.5951012969017029e-01" nType="-99"/>
        </Node>
        <Node pos="r" depth="1" NCoef="0" IVar="2" Cut="1.2063213586807251e+00" cType="1" res="1.6074082255363464e-01" rms="4.3059331178665161e-01" purity="7.3031246662139893e-01" nType="0">
          <Node pos="l" depth="2" NCoef="0" IVar="-1" Cut="0.0000000000000000e+00" cType="1" res="4.6503711491823196e-03" rms="3.9486756920814514e-01" purity="8.0391442775726318e-01" nType="-99"/>
          <Node pos="r" depth="2" NCoef="0" IVar="-1" Cut="0.0000000000000000e+00" cType="1" res="1.2020494323223829e-03" rms="4.9134448170661926e-01" purity="5.5447900295257568e-01" nType="-99"/>
        </Node>
      </Node>
    </BinaryTree>
    <BinaryTree type="DecisionTree" boostWeight="1.0000000000000000e+00" itree="67">
      <Node pos="s" depth="0" NCoef="0" IVar="0" Cut="7.6386117935180664e+00" cType="1" res="-1.7392363399267197e-02" rms="4.7371158003807068e-01" purity="4.8774480819702148e-01" nType="0">
        <Node pos="l" depth="1" NCoef="0" IVar="1" Cut="9.9763442993164062e+01" cType="1" res="-8.2091957330703735e-02" rms="4.7299480438232422e-01" purity="3.9586210250854492e-01" nType="0">
          <Node pos="l" depth="2" NCoef="0" IVar="-1" Cut="0.0000000000000000e+00" cType="1" res="-2.6079693343490362e-03" rms="4.5806765556335449e-01" purity="3.4426337480545044e-01" nType="-99"/>
          <Node pos="r" depth="2" NCoef="0" IVar="-1" Cut="0.0000000000000000e+00" cType="1" res="7.3860993143171072e-04" rms="4.8309400677680969e-01" purity="5.0965309143066406e-01" nType="-99"/>
        </Node>
        <Node pos="r" depth="1" NCoef="0" IVar="2" Cut="1.2444982528686523e+00" cType="1" res="1.3114646077156067e-01" rms="4.4077920913696289e-01" purity="6.9869124889373779e-01" nType="0">
          <Node pos="l" depth="2" NCoef="0" IVar="-1" Cut="0.0000000000000000e+00" cType="1" res="4.1905301623046398e-03" rms="4.0420502424240112e-01" purity="7.9285591840744019e-01" nType="-99"/>
          <Node pos="r" depth="2" NCoef="0" IVar="-1" Cut="0.0000000000000000e+00" cType="1" res="-9.0825755614787340e-04" rms="4.8887318372726440e-01" purity="4.3427821993827820e-01" nType="-99"/>
        </Node>
      </Node>
    </BinaryTree>
    <BinaryTree type="DecisionTree" boostWeight="1.0000000000000000e+00" itree="68">
      <Node pos="s" depth="0" NCoef="0" IVar="3" Cut="2.3512954711914062e+00" cType="1" res="9.5848850905895233e-03" rms="4.7271409630775452e-01" purity="5.1677155494689941e-01" nType="0">
        <Node pos="l" depth="1" NCoef="0" IVar="0" Cut="6.2069272994995117e+00" cType="1" res="7.1083262562751770e-02" rms="4.7339537739753723e-01" purity="6.0290896892547607e-01" nType="0">
          <Node pos="l" depth="2" NCoef="0" IVar="-1" Cut="0.0000000000000000e+00" cType="1" res="-1.3262291904538870e-03" rms="4.8516395688056946e-01" purity="3.8959348201751709e-01" nType="-99"/>
          <Node pos="r" depth="2" NCoef="0" IVar="-1" Cut="0.0000000000000000e+00" cType="1" res="2.9159591067582369e-03" rms="4.5248273015022278e-01" purity="7.0275741815567017e-01" nType="-99"/>
        </Node>
        <Node pos="r" depth="1" NCoef="0" IVar="0" Cut="7.7571558952331543e+00" cType="1" res="-1.6100558638572693e-01" rms="4.2670667171478271e-01" purity="2.7783471345901489e-01" nType="0">
          <Node pos="l" depth="2" NCoef="0" IVar="-1" Cut="0.0000000000000000e+00" cType="1" res="-4.2663323692977428e-03" rms="3.8546469807624817e-01" purity="1.9226148724555969e-01" nType="-99"/>
          <Node pos="r" depth="2" NCoef="0" IVar="-1" Cut="0.0000000000000000e+00" cType="1" res="1.7577625112608075e-03" rms="4.7676503658294678e-01" purity="5.8871400356292725e-01" nType="-99"/>
        </Node>
      </Node>
    </BinaryTree>
    <BinaryTree type="DecisionTree" boostWeight="1.0000000000000000e+00" itree="69">
      <Node pos="s" depth="0" NCoef="0" IVar="0" Cut="7.5265026092529297e+00" cType="1" res="-1.5809707343578339e-02" rms="4.7564110159873962e-01" purity="4.8314431309700012e-01" nType="0">
        <Node pos="l" depth="1" NCoef="0" IVar="6" Cut="6.7394293212890625e+02" cType="1" res="-7.2481080889701843e-02" rms="4.7337853908538818e-01" purity="3.9775219559669495e-01" nType="0">
          <Node pos="l" depth="2" NCoef="0" IVar="-1" Cut="0.0000000000000000e+00" cType="1" res="-1.8602513009682298e-03" rms="4.6595326066017151e-01" purity="3.7025612592697144e-01" nType="-99"/>
          <Node pos="r" depth="2" NCoef="0" IVar="-1" Cut="0.0000000000000000e+00" cType="1" res="4.4951406307518482e-03" rms="4.5324403047561646e-01" purity="7.1625125408172607e-01" nType="-99"/>
        </Node>
        <Node pos="r" depth="1" NCoef="0" IVar="0" Cut="8.6004409790039062e+00" cType="1" res="1.1623655259609222e-01" rms="4.5422258973121643e-01" purity="6.8211108446121216e-01" nType="0">
          <Node pos="l" depth="2" NCoef="0" IVar="-1" Cut="0.0000000000000000e+00" cType="1" res="1.2010299833491445e-03" rms="4.7149407863616943e-01" purity="6.1556887626647949e-01" nType="-99"/>
          <Node pos="r" depth="2" NCoef="0" IVar="-1" Cut="0.0000000000000000e+00" cType="1" res="4.3955580331385136e-03" rms="4.1287049651145935e-01" purity="7.7828282117843628e-01" nType="-99"/>
        </Node>
      </Node>
    </BinaryTree>
    <BinaryTree type="DecisionTree" boostWeight="1.0000000000000000e+00" itree="70">
      <Node pos="s" depth="0" NCoef="0" IVar="0" Cut="6.4657096862792969e+00" cType="1" res="3.5938192741014063e-04" rms="4.7338837385177612e-01" purity="5.0681811571121216e-01" nType="0">
        <Node pos="l" depth="1" NCoef="0" IVar="0" Cut="4.8467454910278320e+00" cType="1" res="-1.1174312978982925e-01" rms="4.6249949932098389e-01" purity="3.2945823669433594e-01" nType="0">
          <Node pos="l" depth="2" NCoef="0" IVar="-1" Cut="0.0000000000000000e+00" cType="1" res="-4.5499308034777641e-03" rms="3.5098844766616821e-01" purity="1.4604085683822632e-01" nType="-99"/>
          <Node pos="r" depth="2" NCoef="0" IVar="-1" Cut="0.0000000000000000e+00" cType="1" res="-1.4527898747473955e-03" rms="4.7521346807479858e-01" purity="3.6666813492774963e-01" nType="-99"/>
        </Node>
        <Node pos="r" depth="1" NCoef="0" IVar="3" Cut="2.5190744400024414e+00" cType="1" res="7.3660984635353088e-02" rms="4.6601468324661255e-01" purity="6.2279015779495239e-01" nType="0">
          <Node pos="l" depth="2" NCoef="0" IVar="-1" Cut="0.0000000000000000e+00" cType="1" res="2.5074463337659836e-03" rms="4.5780614018440247e-01" purity="6.8407267332077026e-01" nType="-99"/>
          <Node pos="r" depth="2" NCoef="0" IVar="-1" Cut="0.0000000000000000e+00" cType="1" res="-4.0909065864980221e-03" rms="4.1567328572273254e-01" purity="2.2558915615081787e-01" nType="-99"/>
        </Node>
      </Node>
    </BinaryTree>
    <BinaryTree type="DecisionTree" boostWeight="1.0000000000000000e+00" itree="71">
      <Node pos="s" depth="0" NCoef="0" IVar="0" Cut="6.5042181015014648e+00" cType="1" res="-1.1692770756781101e-02" rms="4.7390416264533997e-01" purity="4.9355325102806091e-01" nType="0">
        <Node pos="l" depth="1" NCoef="0" IVar="6" Cut="2.8622705078125000e+02" cType="1" res="-1.2704680860042572e-01" rms="4.5582959055900574e-01" purity="3.1549173593521118e-01" nType="0">
          <Node pos="l" depth="2" NCoef="0" IVar="-1" Cut="0.0000000000000000e+00" cType="1" res="-4.7534867189824581e-03" rms="3.6505949497222900e-01" purity="1.6499371826648712e-01" nType="-99"/>
          <Node pos="r" depth="2" NCoef="0" IVar="-1" Cut="0.0000000000000000e+00" cType="1" res="-1.7326105153188109e-03" rms="4.6927592158317566e-01" purity="3.5219672322273254e-01" nType="-99"/>
        </Node>
        <Node pos="r" depth="1" NCoef="0" IVar="5" Cut="2.8351119160652161e-01" cType="1" res="7.8728526830673218e-02" rms="4.6813571453094482e-01" purity="6.3312834501266479e-01" nType="0">
          <Node pos="l" depth="2" NCoef="0" IVar="-1" Cut="0.0000000000000000e+00" cType="1" res="-6.8371387897059321e-04" rms="4.8376092314720154e-01" purity="5.0258135795593262e-01" nType="-99"/>
          <Node pos="r" depth="2" NCoef="0" IVar="-1" Cut="0.0000000000000000e+00" cType="1" res="2.6873194146901369e-03" rms="4.5285695791244507e-01" purity="6.8891668319702148e-01" nType="-99"/>
        </Node>
      </Node>
    </BinaryTree>
    <BinaryTree type="DecisionTree" boostWeight="1.0000000000000000e+00" itree="72">
      <Node pos="s" depth="0" NCoef="0" IVar="2" Cut="1.3223297595977783e+00" cType="1" res="-8.8248485699295998e-03" rms="4.6734809875488281e-01" purity="4.9731326103210449e-01" nType="0">
        <Node pos="l" depth="1" NCoef="0" IVar="0" Cut="6.8659710884094238e+00" cType="1" res="5.3531829267740250e-02" rms="4.6964168548583984e-01" purity="5.8585566282272339e-01" nType="0">
          <Node pos="l" depth="2" NCoef="0" IVar="-1" Cut="0.0000000000000000e+00" cType="1" res="-1.2521563330665231e-03" rms="4.8141947388648987e-01" purity="4.0151241421699524e-01" nType="-99"/>
          <Node pos="r" depth="2" NCoef="0" IVar="-1" Cut="0.0000000000000000e+00" cType="1" res="3.4119538031518459e-03" rms="4.3281698226928711e-01" purity="7.4620962142944336e-01" nType="-99"/>
        </Node>
        <Node pos="r" depth="1" NCoef="0" IVar="6" Cut="4.0562417602539062e+02" cType="1" res="-2.1208371222019196e-01" rms="3.9676237106323242e-01" purity="2.0869883894920349e-01" nType="0">
          <Node pos="l" depth="2" NCoef="0" IVar="-1" Cut="0.0000000000000000e+00" cType="1" res="-5.3008040413260460e-03" rms="3.2886108756065369e-01" purity="1.2937262654304504e-01" nType="-99"/>
          <Node pos="r" depth="2" NCoef="0" IVar="-1" Cut="0.0000000000000000e+00" cType="1" res="-1.9080265192314982e-03" rms="4.5842817425727844e-01" purity="3.2848834991455078e-01" nType="-99"/>
        </Node>
      </Node>
    </BinaryTree>
    <BinaryTree type="DecisionTree" boostWeight="1.0000000000000000e+00" itree="73">
      <Node pos="s" depth="0" NCoef="0" IVar="3" Cut="2.3114373683929443e+00" cType="1" res="-5.4305545054376125e-03" rms="4.7438701987266541e-01" purity="5.0120049715042114e-01" nType="0">
        <Node pos="l" depth="1" NCoef="0" IVar="0" Cut="6.8614301681518555e+00" cType="1" res="4.7305766493082047e-02" rms="4.7669082880020142e-01" purity="5.7882618904113770e-01" nType="0">
          <Node pos="l" depth="2" NCoef="0" IVar="-1" Cut="0.0000000000000000e+00" cType="1" res="-4.6160287456586957e-04" rms="4.9066314101219177e-01" purity="4.5363998413085938e-01" nType="-99"/>
          <Node pos="r" depth="2" NCoef="0" IVar="-1" Cut="0.0000000000000000e+00" cType="1" res="2.5820012670010328e-03" rms="4.4931089878082275e-01" purity="7.1050673723220825e-01" nType="-99"/>
        </Node>
        <Node pos="r" depth="1" NCoef="0" IVar="0" Cut="5.9052395820617676e+00" cType="1" res="-1.3150705397129059e-01" rms="4.4414037466049194e-01" purity="3.1562125682830811e-01" nType="0">
          <Node pos="l" depth="2" NCoef="0" IVar="-1" Cut="0.0000000000000000e+00" cType="1" res="-5.0722234882414341e-03" rms="3.1695052981376648e-01" purity="1.1634086817502975e-01" nType="-99"/>
          <Node pos="r" depth="2" NCoef="0" IVar="-1" Cut="0.0000000000000000e+00" cType="1" res="-1.6114122699946165e-03" rms="4.7308522462844849e-01" purity="3.8961264491081238e-01" nType="-99"/>
        </Node>
      </Node>
    </BinaryTree>
    <BinaryTree type="DecisionTree" boostWeight="1.0000000000000000e+00" itree="74">
      <Node pos="s" depth="0" NCoef="0" IVar="3" Cut="2.2290375232696533e+00" cType="1" res="3.9780368097126484e-03" rms="4.7365626692771912e-01" purity="5.1075518131256104e-01" nType="0">
        <Node pos="l" depth="1" NCoef="0" IVar="0" Cut="6.7184152603149414e+00" cType="1" res="7.5429037213325500e-02" rms="4.7018322348594666e-01" purity="6.1316704750061035e-01" nType="0">
          <Node pos="l" depth="2" NCoef="0" IVar="-1" Cut="0.0000000000000000e+00" cType="1" res="-2.4976456188596785e-04" rms="4.9388673901557922e-01" purity="4.5992034673690796e-01" nType="-99"/>
          <Node pos="r" depth="2" NCoef="0" IVar="-1" Cut="0.0000000000000000e+00" cType="1" res="3.2866536639630795e-03" rms="4.3341788649559021e-01" purity="7.4840950965881348e-01" nType="-99"/>
        </Node>
        <Node pos="r" depth="1" NCoef="0" IVar="0" Cut="6.0528979301452637e+00" cType="1" res="-1.0005735605955124e-01" rms="4.5920184254646301e-01" purity="3.6163964867591858e-01" nType="0">
          <Node pos="l" depth="2" NCoef="0" IVar="-1" Cut="0.0000000000000000e+00" cType="1" res="-4.0091574192047119e-03" rms="3.8120883703231812e-01" purity="1.7999829351902008e-01" nType="-99"/>
          <Node pos="r" depth="2" NCoef="0" IVar="-1" Cut="0.0000000000000000e+00" cType="1" res="-8.6955801816657186e-04" rms="4.8424178361892700e-01" purity="4.5409458875656128e-01" nType="-99"/>
        </Node>
      </Node>
    </BinaryTree>
    <BinaryTree type="DecisionTree" boostWeight="1.0000000000000000e+00" itree="75">
      <Node pos="s" depth="0" NCoef="0" IVar="2" Cut="7.7786028385162354e-01" cType="1" res="-1.3439344242215157e-02" rms="4.7355994582176208e-01" purity="4.9082642793655396e-01" nType="0">
        <Node pos="l" depth="1" NCoef="0" IVar="0" Cut="7.2544460296630859e+00" cType="1" res="1.1677732318639755e-01" rms="4.5238491892814636e-01" purity="6.7416006326675415e-01" nType="0">
          <Node pos="l" depth="2" NCoef="0" IVar="-1" Cut="0.0000000000000000e+00" cType="1" res="9.0086885029450059e-04" rms="4.8863422870635986e-01" purity="5.6303459405899048e-01" nType="-99"/>
          <Node pos="r" depth="2" NCoef="0" IVar="-1" Cut="0.0000000000000000e+00" cType="1" res="4.9273809418082237e-03" rms="3.7185749411582947e-01" purity="8.3453720808029175e-01" nType="-99"/>
        </Node>
        <Node pos="r" depth="1" NCoef="0" IVar="0" Cut="8.6127557754516602e+00" cType="1" res="-6.7810051143169403e-02" rms="4.7160318493843079e-01" purity="4.1427722573280334e-01" nType="0">
          <Node pos="l" depth="2" NCoef="0" IVar="-1" Cut="0.0000000000000000e+00" cType="1" res="-1.8498050048947334e-03" rms="4.6664819121360779e-01" purity="3.7634176015853882e-01" nType="-99"/>
          <Node pos="r" depth="2" NCoef="0" IVar="-1" Cut="0.0000000000000000e+00" cType="1" res="3.5265572369098663e-03" rms="4.5018202066421509e-01" purity="7.2841852903366089e-01" nType="-99"/>
        </Node>
      </Node>
    </BinaryTree>
    <BinaryTree type="DecisionTree" boostWeight="1.0000000000000000e+00" itree="76">
      <Node pos="s" depth="0" NCoef="0" IVar="2" Cut="1.2710381746292114e+00" cType="1" res="2.2189870651345700e-04" rms="4.7628375887870789e-01" purity="5.0846433639526367e-01" nType="0">
        <Node pos="l" depth="1" NCoef="0" IVar="6" Cut="3.0420120239257812e+02" cType="1" res="5.1220249384641647e-02" rms="4.8049154877662659e-01" purity="5.8929216861724854e-01" nType="0">
          <Node pos="l" depth="2" NCoef="0" IVar="-1" Cut="0.0000000000000000e+00" cType="1" res="-1.9946198444813490e-03" rms="4.8206111788749695e-01" purity="4.1029798984527588e-01" nType="-99"/>
          <Node pos="r" depth="2" NCoef="0" IVar="-1" Cut="0.0000000000000000e+00" cType="1" res="1.7406170954927802e-03" rms="4.7339248657226562e-01" purity="6.2862539291381836e-01" nType="-99"/>
        </Node>
        <Node pos="r" depth="1" NCoef="0" IVar="0" Cut="6.7500939369201660e+00" cType="1" res="-1.5185999870300293e-01" rms="4.2890065908432007e-01" purity="2.6742812991142273e-01" nType="0">
          <Node pos="l" depth="2" NCoef="0" IVar="-1" Cut="0.0000000000000000e+00" cType="1" res="-4.5013334602117538e-03" rms="3.5365283489227295e-01" purity="1.4794778823852539e-01" nType="-99"/>
          <Node pos="r" depth="2" NCoef="0" IVar="-1" Cut="0.0000000000000000e+00" cType="1" res="-8.7908847490325570e-04" rms="4.8767265677452087e-01" purity="4.1926288604736328e-01" nType="-99"/>
        </Node>
      </Node>
    </BinaryTree>
    <BinaryTree type="DecisionTree" boostWeight="1.0000000000000000e+00" itree="77">
      <Node pos="s" depth="0" NCoef="0" IVar="0" Cut="6.9087185859680176e+00" cType="1" res="2.1177094429731369e-02" rms="4.7397226095199585e-01" purity="5.2932864427566528e-01" nType="0">
        <Node pos="l" depth="1" NCoef="0" IVar="2" Cut="1.1133047342300415e+00" cType="1" res="-5.2513565868139267e-02" rms="4.7639185190200806e-01" purity="4.0562465786933899e-01" nType="0">
          <Node pos="l" depth="2" NCoef="0" IVar="-1" Cut="0.0000000000000000e+00" cType="1" res="2.2704465663991868e-04" rms="4.9252596497535706e-01" purity="5.0088703632354736e-01" nType="-99"/>
          <Node pos="r" depth="2" NCoef="0" IVar="-1" Cut="0.0000000000000000e+00" cType="1" res="-3.1132674776017666e-03" rms="4.2450651526451111e-01" purity="2.4006566405296326e-01" nType="-99"/>
        </Node>
        <Node pos="r" depth="1" NCoef="0" IVar="5" Cut="4.3878155946731567e-01" cType="1" res="1.0995576530694962e-01" rms="4.5547294616699219e-01" purity="6.7836087942123413e-01" nType="0">
          <Node pos="l" depth="2" NCoef="0" IVar="-1" Cut="0.0000000000000000e+00" cType="1" res="6.3531124033033848e-04" rms="4.8115444183349609e-01" purity="5.8433866500854492e-01" nType="-99"/>
          <Node pos="r" depth="2" NCoef="0" IVar="-1" Cut="0.0000000000000000e+00" cType="1" res="4.7280965372920036e-03" rms="3.9346492290496826e-01" purity="8.0506259202957153e-01" nType="-99"/>
        </Node>
      </Node>
    </BinaryTree>
    <BinaryTree type="DecisionTree" boostWeight="1.0000000000000000e+00" itree="78">
      <Node pos="s" depth="0" NCoef="0" IVar="0" Cut="7.6747255325317383e+00" cType="1" res="2.4648637045174837e-03" rms="4.7183105349540710e-01" purity="5.1218163967132568e-01" nType="0">
        <Node pos="l" depth="1" NCoef="0" IVar="3" Cut="2.1632442474365234e+00" cType="1" res="-5.8092918246984482e-02" rms="4.7388875484466553e-01" purity="4.1896212100982666e-01" nType="0">
          <Node pos="l" depth="2" NCoef="0" IVar="-1" Cut="0.0000000000000000e+00" cType="1" res="3.6347482819110155e-04" rms="4.8675125837326050e-01" purity="5.2865236997604370e-01" nType="-99"/>
          <Node pos="r" depth="2" NCoef="0" IVar="-1" Cut="0.0000000000000000e+00" cType="1" res="-2.5925168301910162e-03" rms="4.4762769341468811e-01" purity="3.0883386731147766e-01" nType="-99"/>
        </Node>
        <Node pos="r" depth="1" NCoef="0" IVar="0" Cut="8.7776899337768555e+00" cType="1" res="1.4601065218448639e-01" rms="4.3441173434257507e-01" purity="7.3314851522445679e-01" nType="0">
          <Node pos="l" depth="2" NCoef="0" IVar="-1" Cut="0.0000000000000000e+00" cType="1" res="1.6890127444639802e-03" rms="4.6551984548568726e-01" purity="6.6156119108200073e-01" nType="-99"/>
          <Node pos="r" depth="2" NCoef="0" IVar="-1" Cut="0.0000000000000000e+00" cType="1" res="5.9857857413589954e-03" rms="3.3704671263694763e-01" purity="8.6515223979949951e-01" nType="-99"/>
        </Node>
      </Node>
    </BinaryTree>
    <BinaryTree type="DecisionTree" boostWeight="1.0000000000000000e+00" itree="79">
      <Node pos="s" depth="0" NCoef="0" IVar="0" Cut="6.0115785598754883e+00" cType="1" res="-7.1937986649572849e-03" rms="4.7452908754348755e-01" purity="4.9910283088684082e-01" nType="0">
        <Node pos="l" depth="1" NCoef="0" IVar="3" Cut="2.1852710247039795e+00" cType="1" res="-1.6035456955432892e-01" rms="4.2582017183303833e-01" purity="2.6108506321907043e-01" nType="0">
          <Node pos="l" depth="2" NCoef="0" IVar="-1" Cut="0.0000000000000000e+00" cType="1" res="-1.3038235483691096e-03" rms="4.8132690787315369e-01" purity="3.8502892851829529e-01" nType="-99"/>
          <Node pos="r" depth="2" NCoef="0" IVar="-1" Cut="0.0000000000000000e+00" cType="1" res="-4.4004940427839756e-03" rms="3.5115882754325867e-01" purity="1.5138989686965942e-01" nType="-99"/>
        </Node>
        <Node pos="r" depth="1" NCoef="0" IVar="4" Cut="2.2306547546386719e+02" cType="1" res="5.6542877107858658e-02" rms="4.7916957736015320e-01" purity="5.9815210103988647e-01" nType="0">
          <Node pos="l" depth="2" NCoef="0" IVar="-1" Cut="0.0000000000000000e+00" cType="1" res="1.6595184570178390e-03" rms="4.7630399465560913e-01" purity="6.2458419799804688e-01" nType="-99"/>
          <Node pos="r" depth="2" NCoef="0" IVar="-1" Cut="0.0000000000000000e+00" cType="1" res="-1.4711271505802870e-03" rms="4.7377574443817139e-01" purity="4.5741257071495056e-01" nType="-99"/>
        </Node>
      </Node>
    </BinaryTree>
    <BinaryTree type="DecisionTree" boostWeight="1.0000000000000000e+00" itree="80">
      <Node pos="s" depth="0" NCoef="0" IVar="2" Cut="1.1359856128692627e+00" cType="1" res="-2.9593270272016525e-02" rms="4.7329682111740112e-01" purity="4.7377699613571167e-01" nType="0">
        <Node pos="l" depth="1" NCoef="0" IVar="1" Cut="3.8112270355224609e+01" cType="1" res="3.3239074051380157e-02" rms="4.7769090533256531e-01" purity="5.7788181304931641e-01" nType="0">
          <Node pos="l" depth="2" NCoef="0" IVar="-1" Cut="0.0000000000000000e+00" cType="1" res="-4.4463640078902245e-03" rms="4.4217115640640259e-01" purity="2.8245684504508972e-01" nType="-99"/>
          <Node pos="r" depth="2" NCoef="0" IVar="-1" Cut="0.0000000000000000e+00" cType="1" res="1.2864059535786510e-03" rms="4.7194218635559082e-01" purity="6.1019909381866455e-01" nType="-99"/>
        </Node>
        <Node pos="r" depth="1" NCoef="0" IVar="0" Cut="6.4657096862792969e+00" cType="1" res="-1.3802909851074219e-01" rms="4.4522652029991150e-01" purity="2.9411321878433228e-01" nType="0">
          <Node pos="l" depth="2" NCoef="0" IVar="-1" Cut="0.0000000000000000e+00" cType="1" res="-3.8550775498151779e-03" rms="3.8132217526435852e-01" purity="1.7908346652984619e-01" nType="-99"/>
          <Node pos="r" depth="2" NCoef="0" IVar="-1" Cut="0.0000000000000000e+00" cType="1" res="-1.6507642576470971e-03" rms="4.8220714926719666e-01" purity="3.8267526030540466e-01" nType="-99"/>
        </Node>
      </Node>
    </BinaryTree>
    <BinaryTree type="DecisionTree" boostWeight="1.0000000000000000e+00" itree="81">
      <Node pos="s" depth="0" NCoef="0" IVar="0" Cut="6.9009680747985840e+00" cType="1" res="-1.6403395682573318e-02" rms="4.7028350830078125e-01" purity="4.8709177970886230e-01" nType="0">
        <Node pos="l" depth="1" NCoef="0" IVar="5" Cut="2.9612424969673157e-01" cType="1" res="-1.0719466209411621e-01" rms="4.6063154935836792e-01" purity="3.4068486094474792e-01" nType="0">
          <Node pos="l" depth="2" NCoef="0" IVar="-1" Cut="0.0000000000000000e+00" cType="1" res="-3.6370917223393917e-03" rms="4.1656118631362915e-01" purity="2.4140579998493195e-01" nType="-99"/>
          <Node pos="r" depth="2" NCoef="0" IVar="-1" Cut="0.0000000000000000e+00" cType="1" res="-1.0861679911613464e-03" rms="4.7767660021781921e-01" purity="3.9910712838172913e-01" nType="-99"/>
        </Node>
        <Node pos="r" depth="1" NCoef="0" IVar="3" Cut="2.4730517864227295e+00" cType="1" res="8.2520239055156708e-02" rms="4.6064007282257080e-01" purity="6.4661264419555664e-01" nType="0">
          <Node pos="l" depth="2" NCoef="0" IVar="-1" Cut="0.0000000000000000e+00" cType="1" res="2.5588374119251966e-03" rms="4.5033299922943115e-01" purity="7.0281541347503662e-01" nType="-99"/>
          <Node pos="r" depth="2" NCoef="0" IVar="-1" Cut="0.0000000000000000e+00" cType="1" res="-2.3142322897911072e-03" rms="4.6682024002075195e-01" purity="3.3048424124717712e-01" nType="-99"/>
        </Node>
      </Node>
    </BinaryTree>
    <BinaryTree type="DecisionTree" boostWeight="1.0000000000000000e+00" itree="82">
      <Node pos="s" depth="0" NCoef="0" IVar="3" Cut="2.3872504234313965e+00" cType="1" res="-4.3168962001800537e-02" rms="4.6754634380340576e-01" purity="4.5917022228240967e-01" nType="0">
        <Node pos="l" depth="1" NCoef="0" IVar="0" Cut="6.7574758529663086e+00" cType="1" res="1.2068597599864006e-02" rms="4.7789484262466431e-01" purity="5.4261958599090576e-01" nType="0">
          <Node pos="l" depth="2" NCoef="0" IVar="-1" Cut="0.0000000000000000e+00" cType="1" res="-1.4565160963684320e-03" rms="4.8087111115455627e-01" purity="3.8714647293090820e-01" nType="-99"/>
          <Node pos="r" depth="2" NCoef="0" IVar="-1" Cut="0.0000000000000000e+00" cType="1" res="1.9787175115197897e-03" rms="4.6022796630859375e-01" purity="6.8527108430862427e-01" nType="-99"/>
        </Node>
        <Node pos="r" depth="1" NCoef="0" IVar="3" Cut="2.5386228561401367e+00" cType="1" res="-2.0980136096477509e-01" rms="3.9001825451850891e-01" purity="2.0743274688720703e-01" nType="0">
          <Node pos="l" depth="2" NCoef="0" IVar="-1" Cut="0.0000000000000000e+00" cType="1" res="-2.6590051129460335e-03" rms="4.4425365328788757e-01" purity="3.0708220601081848e-01" nType="-99"/>
          <Node pos="r" depth="2" NCoef="0" IVar="-1" Cut="0.0000000000000000e+00" cType="1" res="-4.8276004381477833e-03" rms="3.4613865613937378e-01" purity="1.4821755886077881e-01" nType="-99"/>
        </Node>
      </Node>
    </BinaryTree>
    <BinaryTree type="DecisionTree" boostWeight="1.0000000000000000e+00" itree="83">
      <Node pos="s" depth="0" NCoef="0" IVar="3" Cut="2.7012102603912354e+00" cType="1" res="2.8996083419770002e-03" rms="4.7235280275344849e-01" purity="5.0940543413162231e-01" nType="0">
        <Node pos="l" depth="1" NCoef="0" IVar="6" Cut="3.5563085937500000e+02" cType="1" res="2.3634376004338264e-02" rms="4.7656399011611938e-01" purity="5.4073542356491089e-01" nType="0">
          <Node pos="l" depth="2" NCoef="0" IVar="-1" Cut="0.0000000000000000e+00" cType="1" res="-1.4912550104781985e-03" rms="4.7691491246223450e-01" purity="4.2264801263809204e-01" nType="-99"/>
          <Node pos="r" depth="2" NCoef="0" IVar="-1" Cut="0.0000000000000000e+00" cType="1" res="1.7666505882516503e-03" rms="4.6567139029502869e-01" purity="6.1327916383743286e-01" nType="-99"/>
        </Node>
        <Node pos="r" depth="1" NCoef="0" IVar="-1" Cut="0.0000000000000000e+00" cType="1" res="-5.1812510937452316e-03" rms="3.1636857986450195e-01" purity="1.1669418215751648e-01" nType="-99"/>
      </Node>
    </BinaryTree>
    <BinaryTree type="DecisionTree" boostWeight="1.0000000000000000e+00" itree="84">
      <Node pos="s" depth="0" NCoef="0" IVar="0" Cut="5.9671759605407715e+00" cType="1" res="-1.4582094736397266e-02" rms="4.7190546989440918e-01" purity="4.9252659082412720e-01" nType="0">
        <Node pos="l" depth="1" NCoef="0" IVar="1" Cut="4.5826320648193359e+01" cType="1" res="-1.5388843417167664e-01" rms="4.3440034985542297e-01" purity="2.6613527536392212e-01" nType="0">
          <Node pos="l" depth="2" NCoef="0" IVar="-1" Cut="0.0000000000000000e+00" cType="1" res="-5.4760538041591644e-03" rms="3.3094894886016846e-01" purity="1.2971891462802887e-01" nType="-99"/>
          <Node pos="r" depth="2" NCoef="0" IVar="-1" Cut="0.0000000000000000e+00" cType="1" res="-2.0819546189159155e-03" rms="4.5070984959602356e-01" purity="3.0479863286018372e-01" nType="-99"/>
        </Node>
        <Node pos="r" depth="1" NCoef="0" IVar="1" Cut="4.7631538391113281e+01" cType="1" res="3.8636766374111176e-02" rms="4.7479924559593201e-01" purity="5.7901430130004883e-01" nType="0">
          <Node pos="l" depth="2" NCoef="0" IVar="-1" Cut="0.0000000000000000e+00" cType="1" res="-2.5568548589944839e-03" rms="4.7546637058258057e-01" purity="4.1479066014289856e-01" nType="-99"/>
          <Node pos="r" depth="2" NCoef="0" IVar="-1" Cut="0.0000000000000000e+00" cType="1" res="1.5731267631053925e-03" rms="4.6702191233634949e-01" purity="6.1577552556991577e-01" nType="-99"/>
        </Node>
      </Node>
    </BinaryTree>
    <BinaryTree type="DecisionTree" boostWeight="1.0000000000000000e+00" itree="85">
      <Node pos="s" depth="0" NCoef="0" IVar="2" Cut="9.0831184387207031e-01" cType="1" res="5.5191549472510815e-04" rms="4.7371831536293030e-01" purity="5.0670713186264038e-01" nType="0">
        <Node pos="l" depth="1" NCoef="0" IVar="1" Cut="5.6982994079589844e+01" cType="1" res="7.7018134295940399e-02" rms="4.7130537033081055e-01" purity="6.3636660575866699e-01" nType="0">
          <Node pos="l" depth="2" NCoef="0" IVar="-1" Cut="0.0000000000000000e+00" cType="1" res="-9.2997535830363631e-04" rms="4.9150481820106506e-01" purity="5.0721853971481323e-01" nType="-99"/>
          <Node pos="r" depth="2" NCoef="0" IVar="-1" Cut="0.0000000000000000e+00" cType="1" res="3.2162447459995747e-03" rms="4.4054251909255981e-01" purity="7.1794641017913818e-01" nType="-99"/>
        </Node>
        <Node pos="r" depth="1" NCoef="0" IVar="0" Cut="6.7994422912597656e+00" cType="1" res="-5.9554282575845718e-02" rms="4.6689680218696594e-01" purity="4.0478834509849548e-01" nType="0">
          <Node pos="l" depth="2" NCoef="0" IVar="-1" Cut="0.0000000000000000e+00" cType="1" res="-2.5198170915246010e-03" rms="4.4087925553321838e-01" purity="2.8450730443000793e-01" nType="-99"/>
          <Node pos="r" depth="2" NCoef="0" IVar="-1" Cut="0.0000000000000000e+00" cType="1" res="5.9684010921046138e-04" rms="4.8230838775634766e-01" purity="5.5115360021591187e-01" nType="-99"/>
        </Node>
      </Node>
    </BinaryTree>
    <BinaryTree type="DecisionTree" boostWeight="1.0000000000000000e+00" itree="86">
      <Node pos="s" depth="0" NCoef="0" IVar="0" Cut="7.3311634063720703e+00" cType="1" res="-1.0067781433463097e-02" rms="4.7266450524330139e-01" purity="4.9627006053924561e-01" nType="0">
        <Node pos="l" depth="1" NCoef="0" IVar="3" Cut="2.3633434772491455e+00" cType="1" res="-7.0367366075515747e-02" rms="4.7279259562492371e-01" purity="3.9599040150642395e-01" nType="0">
          <Node pos="l" depth="2" NCoef="0" IVar="-1" Cut="0.0000000000000000e+00" cType="1" res="-5.4991192882880569e-04" rms="4.9059176445007324e-01" purity="4.6256574988365173e-01" nType="-99"/>
          <Node pos="r" depth="2" NCoef="0" IVar="-1" Cut="0.0000000000000000e+00" cType="1" res="-4.0520471520721912e-03" rms="3.7333181500434875e-01" purity="1.7033801972866058e-01" nType="-99"/>
        </Node>
        <Node pos="r" depth="1" NCoef="0" IVar="5" Cut="2.4842798709869385e-01" cType="1" res="9.6818536520004272e-02" rms="4.5313045382499695e-01" purity="6.7402458190917969e-01" nType="0">
          <Node pos="l" depth="2" NCoef="0" IVar="-1" Cut="0.0000000000000000e+00" cType="1" res="-1.3496180763468146e-03" rms="4.8976728320121765e-01" purity="4.7249945998191833e-01" nType="-99"/>
          <Node pos="r" depth="2" NCoef="0" IVar="-1" Cut="0.0000000000000000e+00" cType="1" res="3.0548311769962311e-03" rms="4.3216231465339661e-01" purity="7.2988718748092651e-01" nType="-99"/>
        </Node>
      </Node>
    </BinaryTree>
    <BinaryTree type="DecisionTree" boostWeight="1.0000000000000000e+00" itree="87">
      <Node pos="s" depth="0" NCoef="0" IVar="0" Cut="9.3154668807983398e+00" cType="1" res="-2.3488009348511696e-02" rms="4.7727364301681519e-01" purity="4.8182985186576843e-01" nType="0">
        <Node pos="l" depth="1" NCoef="0" IVar="3" Cut="2.4414663314819336e+00" cType="1" res="-3.7417184561491013e-02" rms="4.7812688350677490e-01" purity="4.6197310090065002e-01" nType="0">
          <Node pos="l" depth="2" NCoef="0" IVar="-1" Cut="0.0000000000000000e+00" cType="1" res="-1.6883356147445738e-04" rms="4.8504722118377686e-01" purity="5.1469355821609497e-01" nType="-99"/>
          <Node pos="r" depth="2" NCoef="0" IVar="-1" Cut="0.0000000000000000e+00" cType="1" res="-3.0149680096656084e-03" rms="4.3036460876464844e-01" purity="2.5112727284431458e-01" nType="-99"/>
        </Node>
        <Node pos="r" depth="1" NCoef="0" IVar="-1" Cut="0.0000000000000000e+00" cType="1" res="4.4633084908127785e-03" rms="4.0273162722587585e-01" purity="7.9893243312835693e-01" nType="-99"/>
      </Node>
    </BinaryTree>
    <BinaryTree type="DecisionTree" boostWeight="1.0000000000000000e+00" itree="88">
      <Node pos="s" depth="0" NCoef="0" IVar="2" Cut="8.6683863401412964e-01" cType="1" res="-5.2079679444432259e-03" rms="4.6894028782844543e-01" purity="4.9835783243179321e-01" nType="0">
        <Node pos="l" depth="1" NCoef="0" IVar="2" Cut="6.0611850023269653e-01" cType="1" res="8.1257656216621399e-02" rms="4.6100956201553345e-01" purity="6.4117550849914551e-01" nType="0">
          <Node pos="l" depth="2" NCoef="0" IVar="-1" Cut="0.0000000000000000e+00" cType="1" res="4.2038271203637123e-03" rms="4.0608629584312439e-01" purity="7.6309853792190552e-01" nType="-99"/>
          <Node pos="r" depth="2" NCoef="0" IVar="-1" Cut="0.0000000000000000e+00" cType="1" res="3.3331333543173969e-04" rms="4.7687527537345886e-01" purity="5.7316726446151733e-01" nType="-99"/>
        </Node>
        <Node pos="r" depth="1" NCoef="0" IVar="6" Cut="4.0079214477539062e+02" cType="1" res="-6.9968976080417633e-02" rms="4.6436545252799988e-01" purity="3.9139029383659363e-01" nType="0">
          <Node pos="l" depth="2" NCoef="0" IVar="-1" Cut="0.0000000000000000e+00" cType="1" res="-2.5612560566514730e-03" rms="4.4198989868164062e-01" purity="3.1618782877922058e-01" nType="-99"/>
          <Node pos="r" depth="2" NCoef="0" IVar="-1" Cut="0.0000000000000000e+00" cType="1" res="2.2083039220888168e-04" rms="4.7965627908706665e-01" purity="4.8788473010063171e-01" nType="-99"/>
        </Node>
      </Node>
    </BinaryTree>
    <BinaryTree type="DecisionTree" boostWeight="1.0000000000000000e+00" itree="89">
      <Node pos="s" depth="0" NCoef="0" IVar="3" Cut="2.3485746383666992e+00" cType="1" res="-8.7437378242611885e-03" rms="4.6843960881233215e-01" purity="4.9850353598594666e-01" nType="0">
        <Node pos="l" depth="1" NCoef="0" IVar="0" Cut="6.5081911087036133e+00" cType="1" res="3.8296714425086975e-02" rms="4.7050502896308899e-01" purity="5.7802915573120117e-01" nType="0">
          <Node pos="l" depth="2" NCoef="0" IVar="-1" Cut="0.0000000000000000e+00" cType="1" res="-1.4652669196948409e-03" rms="4.8082914948463440e-01" purity="3.7619739770889282e-01" nType="-99"/>
          <Node pos="r" depth="2" NCoef="0" IVar="-1" Cut="0.0000000000000000e+00" cType="1" res="2.3199042771011591e-03" rms="4.4981467723846436e-01" purity="7.0041084289550781e-01" nType="-99"/>
        </Node>
        <Node pos="r" depth="1" NCoef="0" IVar="5" Cut="1.6734665632247925e-01" cType="1" res="-1.3737009465694427e-01" rms="4.3765002489089966e-01" purity="2.8105032444000244e-01" nType="0">
          <Node pos="l" depth="2" NCoef="0" IVar="-1" Cut="0.0000000000000000e+00" cType="1" res="1.7776085587684065e-04" rms="4.7790104150772095e-01" purity="4.1166824102401733e-01" nType="-99"/>
          <Node pos="r" depth="2" NCoef="0" IVar="-1" Cut="0.0000000000000000e+00" cType="1" res="-3.5677717532962561e-03" rms="4.1458022594451904e-01" purity="2.4140146374702454e-01" nType="-99"/>
        </Node>
      </Node>
    </BinaryTree>
    <BinaryTree type="DecisionTree" boostWeight="1.0000000000000000e+00" itree="90">
      <Node pos="s" depth="0" NCoef="0" IVar="0" Cut="5.7417674064636230e+00" cType="1" res="-5.6530726142227650e-03" rms="4.7209593653678894e-01" purity="4.9988439679145813e-01" nType="0">
        <Node pos="l" depth="1" NCoef="0" IVar="2" Cut="1.1968268156051636e+00" cType="1" res="-1.2888754904270172e-01" rms="4.3361973762512207e-01" purity="2.8224229812622070e-01" nType="0">
          <Node pos="l" depth="2" NCoef="0" IVar="-1" Cut="0.0000000000000000e+00" cType="1" res="-1.0965624824166298e-03" rms="4.8014542460441589e-01" purity="3.8558614253997803e-01" nType="-99"/>
          <Node pos="r" depth="2" NCoef="0" IVar="-1" Cut="0.0000000000000000e+00" cType="1" res="-4.7761164605617523e-03" rms="3.0752462148666382e-01" purity="1.0946415364742279e-01" nType="-99"/>
        </Node>
        <Node pos="r" depth="1" NCoef="0" IVar="3" Cut="2.1358842849731445e+00" cType="1" res="3.2105464488267899e-02" rms="4.7694143652915955e-01" purity="5.6656903028488159e-01" nType="0">
          <Node pos="l" depth="2" NCoef="0" IVar="-1" Cut="0.0000000000000000e+00" cType="1" res="2.0444528199732304e-03" rms="4.6806541085243225e-01" purity="6.7228198051452637e-01" nType="-99"/>
          <Node pos="r" depth="2" NCoef="0" IVar="-1" Cut="0.0000000000000000e+00" cType="1" res="-5.0439097685739398e-04" rms="4.7722163796424866e-01" purity="4.7530469298362732e-01" nType="-99"/>
        </Node>
      </Node>
    </BinaryTree>
    <BinaryTree type="DecisionTree" boostWeight="1.0000000000000000e+00" itree="91">
      <Node pos="s" depth="0" NCoef="0" IVar="0" Cut="6.9133863449096680e+00" cType="1" res="3.3110324293375015e-02" rms="4.6573394536972046e-01" purity="5.3868722915649414e-01" nType="0">
        <Node pos="l" depth="1" NCoef="0" IVar="6" Cut="4.6498437500000000e+02" cType="1" res="-5.9913288801908493e-02" rms="4.7557020187377930e-01" purity="3.8859331607818604e-01" nType="0">
          <Node pos="l" depth="2" NCoef="0" IVar="-1" Cut="0.0000000000000000e+00" cType="1" res="-2.1394097711890936e-03" rms="4.5557948946952820e-01" purity="3.3137041330337524e-01" nType="-99"/>
          <Node pos="r" depth="2" NCoef="0" IVar="-1" Cut="0.0000000000000000e+00" cType="1" res="1.0842828778550029e-03" rms="4.9506616592407227e-01" purity="5.0734722614288330e-01" nType="-99"/>
        </Node>
        <Node pos="r" depth="1" NCoef="0" IVar="2" Cut="9.8464930057525635e-01" cType="1" res="1.4016023278236389e-01" rms="4.2992469668388367e-01" purity="7.1141248941421509e-01" nType="0">
          <Node pos="l" depth="2" NCoef="0" IVar="-1" Cut="0.0000000000000000e+00" cType="1" res="4.8967925831675529e-03" rms="3.6665460467338562e-01" purity="8.3819735050201416e-01" nType="-99"/>
          <Node pos="r" depth="2" NCoef="0" IVar="-1" Cut="0.0000000000000000e+00" cType="1" res="9.3859340995550156e-04" rms="4.7970461845397949e-01" purity="5.5811500549316406e-01" nType="-99"/>
        </Node>
      </Node>
    </BinaryTree>
    <BinaryTree type="DecisionTree" boostWeight="1.0000000000000000e+00" itree="92">
      <Node pos="s" depth="0" NCoef="0" IVar="0" Cut="5.0899577140808105e+00" cType="1" res="1.2196290772408247e-03" rms="4.7046566009521484e-01" purity="5.1454460620880127e-01" nType="0">
        <Node pos="l" depth="1" NCoef="0" IVar="-1" Cut="0.0000000000000000e+00" cType="1" res="-4.1655790992081165e-03" rms="3.7104484438896179e-01" purity="1.6715258359909058e-01" nType="-99"/>
        <Node pos="r" depth="1" NCoef="0" IVar="3" Cut="2.3782043457031250e+00" cType="1" res="2.3502675816416740e-02" rms="4.7286239266395569e-01" purity="5.4763734340667725e-01" nType="0">
          <Node pos="l" depth="2" NCoef="0" IVar="-1" Cut="0.0000000000000000e+00" cType="1" res="1.3864684151485562e-03" rms="4.7314611077308655e-01" purity="6.2075471878051758e-01" nType="-99"/>
          <Node pos="r" depth="2" NCoef="0" IVar="-1" Cut="0.0000000000000000e+00" cType="1" res="-2.3173617664724588e-03" rms="4.4354510307312012e-01" purity="3.1289982795715332e-01" nType="-99"/>
        </Node>
      </Node>
    </BinaryTree>
    <BinaryTree type="DecisionTree" boostWeight="1.0000000000000000e+00" itree="93">
      <Node pos="s" depth="0" NCoef="0" IVar="2" Cut="8.5839533805847168e-01" cType="1" res="1.4072504825890064e-02" rms="4.6919703483581543e-01" purity="5.2212232351303101e-01" nType="0">
        <Node pos="l" depth="1" NCoef="0" IVar="5" Cut="4.2543306946754456e-01" cType="1" res="1.2095525115728378e-01" rms="4.4881540536880493e-01" purity="6.8664807081222534e-01" nType="0">
          <Node pos="l" depth="2" NCoef="0" IVar="-1" Cut="0.0000000000000000e+00" cType="1" res="8.6050963727757335e-04" rms="4.6976885199546814e-01" purity="5.9948188066482544e-01" nType="-99"/>
          <Node pos="r" depth="2" NCoef="0" IVar="-1" Cut="0.0000000000000000e+00" cType="1" res="3.9366343989968300e-03" rms="4.2160540819168091e-01" purity="7.5438284873962402e-01" nType="-99"/>
        </Node>
        <Node pos="r" depth="1" NCoef="0" IVar="0" Cut="8.5247058868408203e+00" cType="1" res="-5.6386139243841171e-02" rms="4.6902552247047424e-01" purity="4.1366451978683472e-01" nType="0">
          <Node pos="l" depth="2" NCoef="0" IVar="-1" Cut="0.0000000000000000e+00" cType="1" res="-1.6542327357456088e-03" rms="4.6519997715950012e-01" purity="3.7204599380493164e-01" nType="-99"/>
          <Node pos="r" depth="2" NCoef="0" IVar="-1" Cut="0.0000000000000000e+00" cType="1" res="3.9001682307571173e-03" rms="4.3488442897796631e-01" purity="7.4629521369934082e-01" nType="-99"/>
        </Node>
      </Node>
    </BinaryTree>
    <BinaryTree type="DecisionTree" boostWeight="1.0000000000000000e+00" itree="94">
      <Node pos="s" depth="0" NCoef="0" IVar="3" Cut="2.7527689933776855e+00" cType="1" res="1.9424576312303543e-03" rms="4.7380015254020691e-01" purity="5.1088273525238037e-01" nType="0">
        <Node pos="l" depth="1" NCoef="0" IVar="1" Cut="8.4419486999511719e+01" cType="1" res="2.0352333784103394e-02" rms="4.7717252373695374e-01" purity="5.3827154636383057e-01" nType="0">
          <Node pos="l" depth="2" NCoef="0" IVar="-1" Cut="0.0000000000000000e+00" cType="1" res="-6.1661138897761703e-04" rms="4.7633969783782959e-01" purity="4.8640501499176025e-01" nType="-99"/>
          <Node pos="r" depth="2" NCoef="0" IVar="-1" Cut="0.0000000000000000e+00" cType="1" res="1.8345157150179148e-03" rms="4.6947276592254639e-01" purity="6.0860371589660645e-01" nType="-99"/>
        </Node>
        <Node pos="r" depth="1" NCoef="0" IVar="-1" Cut="0.0000000000000000e+00" cType="1" res="-5.3313360549509525e-03" rms="3.0813217163085938e-01" purity="9.9863901734352112e-02" nType="-99"/>
      </Node>
    </BinaryTree>
    <BinaryTree type="DecisionTree" boostWeight="1.0000000000000000e+00" itree="95">
      <Node pos="s" depth="0" NCoef="0" IVar="0" Cut="5.8361530303955078e+00" cType="1" res="-3.3891641069203615e-03" rms="4.6657276153564453e-01" purity="5.0499248504638672e-01" nType="0">
        <Node pos="l" depth="1" NCoef="0" IVar="6" Cut="3.2983621215820312e+02" cType="1" res="-1.4638134837150574e-01" rms="4.2689812183380127e-01" purity="2.5971838831901550e-01" nType="0">
          <Node pos="l" depth="2" NCoef="0" IVar="-1" Cut="0.0000000000000000e+00" cType="1" res="-5.4128137417137623e-03" rms="2.8138452768325806e-01" purity="9.0640544891357422e-02" nType="-99"/>
          <Node pos="r" depth="2" NCoef="0" IVar="-1" Cut="0.0000000000000000e+00" cType="1" res="-6.5900996560230851e-04" rms="4.7616061568260193e-01" purity="3.8207447528839111e-01" nType="-99"/>
        </Node>
        <Node pos="r" depth="1" NCoef="0" IVar="1" Cut="3.8823425292968750e+01" cType="1" res="3.8463979959487915e-02" rms="4.6939247846603394e-01" purity="5.7678306102752686e-01" nType="0">
          <Node pos="l" depth="2" NCoef="0" IVar="-1" Cut="0.0000000000000000e+00" cType="1" res="-4.0943333879113197e-03" rms="4.5068174600601196e-01" purity="3.3805063366889954e-01" nType="-99"/>
          <Node pos="r" depth="2" NCoef="0" IVar="-1" Cut="0.0000000000000000e+00" cType="1" res="1.3965828111395240e-03" rms="4.6334367990493774e-01" purity="6.0515522956848145e-01" nType="-99"/>
        </Node>
      </Node>
    </BinaryTree>
    <BinaryTree type="DecisionTree" boostWeight="1.0000000000000000e+00" itree="96">
      <Node pos="s" depth="0" NCoef="0" IVar="2" Cut="1.2993165254592896e+00" cType="1" res="-5.2285301499068737e-03" rms="4.7173267602920532e-01" purity="4.9848100543022156e-01" nType="0">
        <Node pos="l" depth="1" NCoef="0" IVar="0" Cut="8.6483001708984375e+00" cType="1" res="3.6242403090000153e-02" rms="4.7397550940513611e-01" purity="5.7367455959320068e-01" nType="0">
          <Node pos="l" depth="2" NCoef="0" IVar="-1" Cut="0.0000000000000000e+00" cType="1" res="1.4030050078872591e-04" rms="4.8332840204238892e-01" purity="5.3041070699691772e-01" nType="-99"/>
          <Node pos="r" depth="2" NCoef="0" IVar="-1" Cut="0.0000000000000000e+00" cType="1" res="5.1804659888148308e-03" rms="3.5326737165451050e-01" purity="8.5470885038375854e-01" nType="-99"/>
        </Node>
        <Node pos="r" depth="1" NCoef="0" IVar="6" Cut="4.3379748535156250e+02" cType="1" res="-1.2564474344253540e-01" rms="4.4371062517166138e-01" purity="2.8014668822288513e-01" nType="0">
          <Node pos="l" depth="2" NCoef="0" IVar="-1" Cut="0.0000000000000000e+00" cType="1" res="-3.3985294867306948e-03" rms="4.0805089473724365e-01" purity="2.2384299337863922e-01" nType="-99"/>
          <Node pos="r" depth="2" NCoef="0" IVar="-1" Cut="0.0000000000000000e+00" cType="1" res="-8.3883083425462246e-04" rms="4.8777571320533752e-01" purity="3.7679681181907654e-01" nType="-99"/>
        </Node>
      </Node>
    </BinaryTree>
    <BinaryTree type="DecisionTree" boostWeight="1.0000000000000000e+00" itree="97">
      <Node pos="s" depth="0" NCoef="0" IVar="3" Cut="2.4020819664001465e+00" cType="1" res="3.0357709620147943e-03" rms="4.6903973817825317e-01" purity="5.0792551040649414e-01" nType="0">
        <Node pos="l" depth="1" NCoef="0" IVar="0" Cut="7.4029164314270020e+00" cType="1" res="4.4645119458436966e-02" rms="4.7293603420257568e-01" purity="5.7875365018844604e-01" nType="0">
          <Node pos="l" depth="2" NCoef="0" IVar="-1" Cut="0.0000000000000000e+00" cType="1" res="-2.1815703075844795e-04" rms="4.8937562108039856e-01" purity="4.7516518831253052e-01" nType="-99"/>
          <Node pos="r" depth="2" NCoef="0" IVar="-1" Cut="0.0000000000000000e+00" cType="1" res="3.0744411051273346e-03" rms="4.2799672484397888e-01" purity="7.5207334756851196e-01" nType="-99"/>
        </Node>
        <Node pos="r" depth="1" NCoef="0" IVar="0" Cut="6.1737318038940430e+00" cType="1" res="-1.4009225368499756e-01" rms="4.2536136507987976e-01" purity="2.6429086923599243e-01" nType="0">
          <Node pos="l" depth="2" NCoef="0" IVar="-1" Cut="0.0000000000000000e+00" cType="1" res="-4.7269696369767189e-03" rms="3.0472755432128906e-01" purity="1.0795690119266510e-01" nType="-99"/>
          <Node pos="r" depth="2" NCoef="0" IVar="-1" Cut="0.0000000000000000e+00" cType="1" res="-1.5490679070353508e-03" rms="4.7926115989685059e-01" purity="3.6844685673713684e-01" nType="-99"/>
        </Node>
      </Node>
    </BinaryTree>
    <BinaryTree type="DecisionTree" boostWeight="1.0000000000000000e+00" itree="98">
      <Node pos="s" depth="0" NCoef="0" IVar="2" Cut="1.1855857372283936e+00" cType="1" res="-1.9012701231986284e-03" rms="4.6885427832603455e-01" purity="5.0326782464981079e-01" nType="0">
        <Node pos="l" depth="1" NCoef="0" IVar="0" Cut="7.3877635002136230e+00" cType="1" res="4.8320371657609940e-02" rms="4.7241345047950745e-01" purity="5.9454196691513062e-01" nType="0">
          <Node pos="l" depth="2" NCoef="0" IVar="-1" Cut="0.0000000000000000e+00" cType="1" res="-9.5096736913546920e-05" rms="4.9204120039939880e-01" purity="4.9716058373451233e-01" nType="-99"/>
          <Node pos="r" depth="2" NCoef="0" IVar="-1" Cut="0.0000000000000000e+00" cType="1" res="3.1005104538053274e-03" rms="4.2156800627708435e-01" purity="7.6096647977828979e-01" nType="-99"/>
        </Node>
        <Node pos="r" depth="1" NCoef="0" IVar="0" Cut="8.1701145172119141e+00" cType="1" res="-1.1329082399606705e-01" rms="4.4089913368225098e-01" purity="3.0082553625106812e-01" nType="0">
          <Node pos="l" depth="2" NCoef="0" IVar="-1" Cut="0.0000000000000000e+00" cType="1" res="-2.8683417476713657e-03" rms="4.2348963022232056e-01" purity="2.4752081930637360e-01" nType="-99"/>
          <Node pos="r" depth="2" NCoef="0" IVar="-1" Cut="0.0000000000000000e+00" cType="1" res="8.4659457206726074e-04" rms="4.8326802253723145e-01" purity="5.4132157564163208e-01" nType="-99"/>
        </Node>
      </Node>
    </BinaryTree>
    <BinaryTree type="DecisionTree" boostWeight="1.0000000000000000e+00" itree="99">
      <Node pos="s" depth="0" NCoef="0" IVar="6" Cut="2.8943917846679688e+02" cType="1" res="1.9951330497860909e-02" rms="4.7044238448143005e-01" purity="5.2457755804061890e-01" nType="0">
        <Node pos="l" depth="1" NCoef="0" IVar="0" Cut="6.5641331672668457e+00" cType="1" res="-1.6307310760021210e-01" rms="4.3048852682113647e-01" purity="2.9854303598403931e-01" nType="0">
          <Node pos="l" depth="2" NCoef="0" IVar="-1" Cut="0.0000000000000000e+00" cType="1" res="-4.5676096342504025e-03" rms="3.7182304263114929e-01" purity="1.7427490651607513e-01" nType="-99"/>
          <Node pos="r" depth="2" NCoef="0" IVar="-1" Cut="0.0000000000000000e+00" cType="1" res="-9.6383411437273026e-04" rms="4.8396348953247070e-01" purity="4.8869761824607849e-01" nType="-99"/>
        </Node>
        <Node pos="r" depth="1" NCoef="0" IVar="2" Cut="1.3660119771957397e+00" cType="1" res="4.8851467669010162e-02" rms="4.6997362375259399e-01" purity="5.6026917695999146e-01" nType="0">
          <Node pos="l" depth="2" NCoef="0" IVar="-1" Cut="0.0000000000000000e+00" cType="1" res="1.7498928355053067e-03" rms="4.6812388300895691e-01" purity="6.2766498327255249e-01" nType="-99"/>
          <Node pos="r" depth="2" NCoef="0" IVar="-1" Cut="0.0000000000000000e+00" cType="1" res="-1.7256452701985836e-03" rms="4.5105621218681335e-01" purity="3.0592432618141174e-01" nType="-99"/>
        </Node>
      </Node>
    </BinaryTree>
    <BinaryTree type="DecisionTree" boostWeight="1.0000000000000000e+00" itree="100">
      <Node pos="s" depth="0" NCoef="0" IVar="0" Cut="5.5366396903991699e+00" cType="1" res="9.0877618640661240e-04" rms="4.7003817558288574e-01" purity="5.0702255964279175e-01" nType="0">
        <Node pos="l" depth="1" NCoef="0" IVar="0" Cut="4.8982419967651367e+00" cType="1" res="-1.5223647654056549e-01" rms="4.2226260900497437e-01" purity="2.4800162017345428e-01" nType="0">
          <Node pos="l" depth="2" NCoef="0" IVar="-1" Cut="0.0000000000000000e+00" cType="1" res="-4.4702040031552315e-03" rms="3.4320515394210815e-01" purity="1.3991339504718781e-01" nType="-99"/>
          <Node pos="r" depth="2" NCoef="0" IVar="-1" Cut="0.0000000000000000e+00" cType="1" res="-1.9899250473827124e-03" rms="4.4975587725639343e-01" purity="3.0251154303550720e-01" nType="-99"/>
        </Node>
        <Node pos="r" depth="1" NCoef="0" IVar="2" Cut="4.9669972062110901e-01" cType="1" res="3.1920593231916428e-02" rms="4.7313573956489563e-01" purity="5.5947417020797729e-01" nType="0">
          <Node pos="l" depth="2" NCoef="0" IVar="-1" Cut="0.0000000000000000e+00" cType="1" res="4.7351182438433170e-03" rms="3.9539125561714172e-01" purity="8.0458885431289673e-01" nType="-99"/>
          <Node pos="r" depth="2" NCoef="0" IVar="-1" Cut="0.0000000000000000e+00" cType="1" res="2.8373507666401565e-04" rms="4.7623643279075623e-01" purity="5.3556054830551147e-01" nType="-99"/>
        </Node>
      </Node>
    </BinaryTree>
    <BinaryTree type="DecisionTree" boostWeight="1.0000000000000000e+00" itree="101">
      <Node pos="s" depth="0" NCoef="0" IVar="3" Cut="2.6630547046661377e+00" cType="1" res="1.0615405626595020e-03" rms="4.7177103161811829e-01" purity="5.0546598434448242e-01" nType="0">
        <Node pos="l" depth="1" NCoef="0" IVar="1" Cut="8.9355743408203125e+01" cType="1" res="2.1308375522494316e-02" rms="4.7656556963920593e-01" purity="5.3830015659332275e-01" nType="0">
          <Node pos="l" depth="2" NCoef="0" IVar="-1" Cut="0.0000000000000000e+00" cType="1" res="-7.8285782365128398e-04" rms="4.7796434164047241e-01" purity="4.7116792201995850e-01" nType="-99"/>
          <Node pos="r" depth="2" NCoef="0" IVar="-1" Cut="0.0000000000000000e+00" cType="1" res="3.0875615775585175e-03" rms="4.4886222481727600e-01" purity="6.7515957355499268e-01" nType="-99"/>
        </Node>
        <Node pos="r" depth="1" NCoef="0" IVar="-1" Cut="0.0000000000000000e+00" cType="1" res="-4.4026672840118408e-03" rms="3.5348817706108093e-01" purity="1.5980584919452667e-01" nType="-99"/>
      </Node>
    </BinaryTree>
    <BinaryTree type="DecisionTree" boostWeight="1.0000000000000000e+00" itree="102">
      <Node pos="s" depth="0" NCoef="0" IVar="0" Cut="7.7157421112060547e+00" cType="1" res="1.1401365045458078e-03" rms="4.7039347887039185e-01" purity="5.0688755512237549e-01" nType="0">
        <Node pos="l" depth="1" NCoef="0" IVar="1" Cut="7.2289924621582031e+01" cType="1" res="-4.7913488000631332e-02" rms="4.7476828098297119e-01" purity="4.2161348462104797e-01" nType="0">
          <Node pos="l" depth="2" NCoef="0" IVar="-1" Cut="0.0000000000000000e+00" cType="1" res="-2.2000325843691826e-03" rms="4.6333089470863342e-01" purity="3.5231685638427734e-01" nType="-99"/>
          <Node pos="r" depth="2" NCoef="0" IVar="-1" Cut="0.0000000000000000e+00" cType="1" res="3.4055000287480652e-04" rms="4.7709807753562927e-01" purity="4.9096685647964478e-01" nType="-99"/>
        </Node>
        <Node pos="r" depth="1" NCoef="0" IVar="0" Cut="8.5373325347900391e+00" cType="1" res="1.1723500490188599e-01" rms="4.3853285908699036e-01" purity="7.0870518684387207e-01" nType="0">
          <Node pos="l" depth="2" NCoef="0" IVar="-1" Cut="0.0000000000000000e+00" cType="1" res="8.3038985030725598e-04" rms="4.7427800297737122e-01" purity="6.1438286304473877e-01" nType="-99"/>
          <Node pos="r" depth="2" NCoef="0" IVar="-1" Cut="0.0000000000000000e+00" cType="1" res="4.7090854495763779e-03" rms="3.7470394372940063e-01" purity="8.1507086753845215e-01" nType="-99"/>
        </Node>
      </Node>
    </BinaryTree>
    <BinaryTree type="DecisionTree" boostWeight="1.0000000000000000e+00" itree="103">
      <Node pos="s" depth="0" NCoef="0" IVar="1" Cut="5.1817867279052734e+01" cType="1" res="1.2574182823300362e-02" rms="4.7013983130455017e-01" purity="5.2043116092681885e-01" nType="0">
        <Node pos="l" depth="1" NCoef="0" IVar="4" Cut="9.3242370605468750e+01" cType="1" res="-1.4276237785816193e-01" rms="4.6084374189376831e-01" purity="3.6268201470375061e-01" nType="0">
          <Node pos="l" depth="2" NCoef="0" IVar="-1" Cut="0.0000000000000000e+00" cType="1" res="-4.5223110355436802e-03" rms="4.1102463006973267e-01" purity="2.6931974291801453e-01" nType="-99"/>
          <Node pos="r" depth="2" NCoef="0" IVar="-1" Cut="0.0000000000000000e+00" cType="1" res="-1.0028819087892771e-03" rms="4.8983883857727051e-01" purity="4.5871934294700623e-01" nType="-99"/>
        </Node>
        <Node pos="r" depth="1" NCoef="0" IVar="3" Cut="2.4578971862792969e+00" cType="1" res="6.6812679171562195e-02" rms="4.6117925643920898e-01" purity="5.7551205158233643e-01" nType="0">
          <Node pos="l" depth="2" NCoef="0" IVar="-1" Cut="0.0000000000000000e+00" cType="1" res="2.4236883036792278e-03" rms="4.5737087726593018e-01" purity="6.5333586931228638e-01" nType="-99"/>
          <Node pos="r" depth="2" NCoef="0" IVar="-1" Cut="0.0000000000000000e+00" cType="1" res="-2.7074997778981924e-03" rms="4.1956245899200439e-01" purity="2.6222720742225647e-01" nType="-99"/>
        </Node>
      </Node>
    </BinaryTree>
    <BinaryTree type="DecisionTree" boostWeight="1.0000000000000000e+00" itree="104">
      <Node pos="s" depth="0" NCoef="0" IVar="0" Cut="7.2195611000061035e+00" cType="1" res="-2.4519266560673714e-02" rms="4.6760794520378113e-01" purity="4.8172727227210999e-01" nType="0">
        <Node pos="l" depth="1" NCoef="0" IVar="2" Cut="9.2536950111389160e-01" cType="1" res="-9.0443491935729980e-02" rms="4.6548980474472046e-01" purity="3.6192697286605835e-01" nType="0">
          <Node pos="l" depth="2" NCoef="0" IVar="-1" Cut="0.0000000000000000e+00" cType="1" res="-9.6644507721066475e-05" rms="4.9382659792900085e-01" purity="5.0496959686279297e-01" nType="-99"/>
          <Node pos="r" depth="2" NCoef="0" IVar="-1" Cut="0.0000000000000000e+00" cType="1" res="-2.9679995495826006e-03" rms="4.3233612179756165e-01" purity="2.5529193878173828e-01" nType="-99"/>
        </Node>
        <Node pos="r" depth="1" NCoef="0" IVar="2" Cut="1.2512419223785400e+00" cType="1" res="7.5785949826240540e-02" rms="4.5275893807411194e-01" purity="6.6400605440139771e-01" nType="0">
          <Node pos="l" depth="2" NCoef="0" IVar="-1" Cut="0.0000000000000000e+00" cType="1" res="2.8017144650220871e-03" rms="4.3284276127815247e-01" purity="7.4417948722839355e-01" nType="-99"/>
          <Node pos="r" depth="2" NCoef="0" IVar="-1" Cut="0.0000000000000000e+00" cType="1" res="-1.8227244727313519e-03" rms="4.8124837875366211e-01" purity="3.7275218963623047e-01" nType="-99"/>
        </Node>
      </Node>
    </BinaryTree>
    <BinaryTree type="DecisionTree" boostWeight="1.0000000000000000e+00" itree="105">
      <Node pos="s" depth="0" NCoef="0" IVar="2" Cut="1.0302369594573975e+00" cType="1" res="1.4676501043140888e-02" rms="4.6341809630393982e-01" purity="5.1798993349075317e-01" nType="0">
        <Node pos="l" depth="1" NCoef="0" IVar="0" Cut="6.0554161071777344e+00" cType="1" res="8.5766933858394623e-02" rms="4.5622318983078003e-01" purity="6.4263820648193359e-01" nType="0">
          <Node pos="l" depth="2" NCoef="0" IVar="-1" Cut="0.0000000000000000e+00" cType="1" res="-5.6686071911826730e-04" rms="4.8733580112457275e-01" purity="4.2841666936874390e-01" nType="-99"/>
          <Node pos="r" depth="2" NCoef="0" IVar="-1" Cut="0.0000000000000000e+00" cType="1" res="2.9021436348557472e-03" rms="4.3320101499557495e-01" purity="7.3289579153060913e-01" nType="-99"/>
        </Node>
        <Node pos="r" depth="1" NCoef="0" IVar="1" Cut="1.0041155242919922e+02" cType="1" res="-7.2103232145309448e-02" rms="4.5731106400489807e-01" purity="3.6583238840103149e-01" nType="0">
          <Node pos="l" depth="2" NCoef="0" IVar="-1" Cut="0.0000000000000000e+00" cType="1" res="-2.5233633350580931e-03" rms="4.3669864535331726e-01" purity="3.0892232060432434e-01" nType="-99"/>
          <Node pos="r" depth="2" NCoef="0" IVar="-1" Cut="0.0000000000000000e+00" cType="1" res="5.5000232532620430e-04" rms="4.7590005397796631e-01" purity="4.6671450138092041e-01" nType="-99"/>
        </Node>
      </Node>
    </BinaryTree>
    <BinaryTree type="DecisionTree" boostWeight="1.0000000000000000e+00" itree="106">
      <Node pos="s" depth="0" NCoef="0" IVar="0" Cut="6.6334576606750488e+00" cType="1" res="-6.7573343403637409e-03" rms="4.6514505147933960e-01" purity="4.9879884719848633e-01" nType="0">
        <Node pos="l" depth="1" NCoef="0" IVar="3" Cut="2.1962399482727051e+00" cType="1" res="-9.1197118163108826e-02" rms="4.5585268735885620e-01" purity="3.3466374874114990e-01" nType="0">
          <Node pos="l" depth="2" NCoef="0" IVar="-1" Cut="0.0000000000000000e+00" cType="1" res="-9.6967698482330889e-05" rms="4.9038368463516235e-01" purity="4.5779904723167419e-01" nType="-99"/>
          <Node pos="r" depth="2" NCoef="0" IVar="-1" Cut="0.0000000000000000e+00" cType="1" res="-3.4281692933291197e-03" rms="3.9752045273780823e-01" purity="2.0641066133975983e-01" nType="-99"/>
        </Node>
        <Node pos="r" depth="1" NCoef="0" IVar="3" Cut="2.4749345779418945e+00" cType="1" res="6.0145463794469833e-02" rms="4.6153599023818970e-01" purity="6.2884527444839478e-01" nType="0">
          <Node pos="l" depth="2" NCoef="0" IVar="-1" Cut="0.0000000000000000e+00" cType="1" res="2.1341014653444290e-03" rms="4.5354774594306946e-01" purity="6.8933004140853882e-01" nType="-99"/>
          <Node pos="r" depth="2" NCoef="0" IVar="-1" Cut="0.0000000000000000e+00" cType="1" res="-2.9240627773106098e-03" rms="4.4859662652015686e-01" purity="2.9364135861396790e-01" nType="-99"/>
        </Node>
      </Node>
    </BinaryTree>
    <BinaryTree type="DecisionTree" boostWeight="1.0000000000000000e+00" itree="107">
      <Node pos="s" depth="0" NCoef="0" IVar="2" Cut="8.4643906354904175e-01" cType="1" res="-1.2546796351671219e-02" rms="4.7224101424217224e-01" purity="4.9348258972167969e-01" nType="0">
        <Node pos="l" depth="1" NCoef="0" IVar="2" Cut="5.8734136819839478e-01" cType="1" res="6.6342681646347046e-02" rms="4.6716260910034180e-01" purity="6.3945829868316650e-01" nType="0">
          <Node pos="l" depth="2" NCoef="0" IVar="-1" Cut="0.0000000000000000e+00" cType="1" res="3.1524330843240023e-03" rms="4.4036817550659180e-01" purity="7.2310626506805420e-01" nType="-99"/>
          <Node pos="r" depth="2" NCoef="0" IVar="-1" Cut="0.0000000000000000e+00" cType="1" res="4.2320330976508558e-04" rms="4.7513318061828613e-01" purity="5.9342765808105469e-01" nType="-99"/>
        </Node>
        <Node pos="r" depth="1" NCoef="0" IVar="5" Cut="2.2608859837055206e-01" cType="1" res="-5.7741917669773102e-02" rms="4.6918722987174988e-01" purity="4.0985435247421265e-01" nType="0">
          <Node pos="l" depth="2" NCoef="0" IVar="-1" Cut="0.0000000000000000e+00" cType="1" res="-3.0996715649962425e-03" rms="4.1904768347740173e-01" purity="2.7686455845832825e-01" nType="-99"/>
          <Node pos="r" depth="2" NCoef="0" IVar="-1" Cut="0.0000000000000000e+00" cType="1" res="-5.1298667676746845e-04" rms="4.8074358701705933e-01" purity="4.5487126708030701e-01" nType="-99"/>
        </Node>
      </Node>
    </BinaryTree>
    <BinaryTree type="DecisionTree" boostWeight="1.0000000000000000e+00" itree="108">
      <Node pos="s" depth="0" NCoef="0" IVar="0" Cut="6.3174667358398438e+00" cType="1" res="-1.4113031327724457e-02" rms="4.6900907158851624e-01" purity="4.8960444331169128e-01" nType="0">
        <Node pos="l" depth="1" NCoef="0" IVar="0" Cut="4.9971442222595215e+00" cType="1" res="-1.1336277425289154e-01" rms="4.4703897833824158e-01" purity="3.0295056104660034e-01" nType="0">
          <Node pos="l" depth="2" NCoef="0" IVar="-1" Cut="0.0000000000000000e+00" cType="1" res="-3.9106863550841808e-03" rms="3.7500843405723572e-01" purity="1.5835942327976227e-01" nType="-99"/>
          <Node pos="r" depth="2" NCoef="0" IVar="-1" Cut="0.0000000000000000e+00" cType="1" res="-1.6350790392607450e-03" rms="4.6155369281768799e-01" purity="3.4618914127349854e-01" nType="-99"/>
        </Node>
        <Node pos="r" depth="1" NCoef="0" IVar="2" Cut="1.1553862094879150e+00" cType="1" res="4.2080618441104889e-02" rms="4.7183623909950256e-01" purity="5.9528499841690063e-01" nType="0">
          <Node pos="l" depth="2" NCoef="0" IVar="-1" Cut="0.0000000000000000e+00" cType="1" res="1.9099627388641238e-03" rms="4.6104142069816589e-01" purity="6.8368172645568848e-01" nType="-99"/>
          <Node pos="r" depth="2" NCoef="0" IVar="-1" Cut="0.0000000000000000e+00" cType="1" res="-1.3348764041438699e-03" rms="4.7845762968063354e-01" purity="3.8912191987037659e-01" nType="-99"/>
        </Node>
      </Node>
    </BinaryTree>
    <BinaryTree type="DecisionTree" boostWeight="1.0000000000000000e+00" itree="109">
      <Node pos="s" depth="0" NCoef="0" IVar="3" Cut="2.4071593284606934e+00" cType="1" res="1.9881273619830608e-03" rms="4.6646633744239807e-01" purity="5.1109606027603149e-01" nType="0">
        <Node pos="l" depth="1" NCoef="0" IVar="6" Cut="2.8771041870117188e+02" cType="1" res="4.1930783540010452e-02" rms="4.7043651342391968e-01" purity="5.7918065786361694e-01" nType="0">
          <Node pos="l" depth="2" NCoef="0" IVar="-1" Cut="0.0000000000000000e+00" cType="1" res="-2.4846703745424747e-03" rms="4.5875477790832520e-01" purity="3.7287294864654541e-01" nType="-99"/>
          <Node pos="r" depth="2" NCoef="0" IVar="-1" Cut="0.0000000000000000e+00" cType="1" res="1.4463628176599741e-03" rms="4.6642133593559265e-01" purity="6.1485838890075684e-01" nType="-99"/>
        </Node>
        <Node pos="r" depth="1" NCoef="0" IVar="6" Cut="4.0008471679687500e+02" cType="1" res="-1.4659200608730316e-01" rms="4.1921770572662354e-01" purity="2.5783246755599976e-01" nType="0">
          <Node pos="l" depth="2" NCoef="0" IVar="-1" Cut="0.0000000000000000e+00" cType="1" res="-4.0329028852283955e-03" rms="3.7634295225143433e-01" purity="1.8599884212017059e-01" nType="-99"/>
          <Node pos="r" depth="2" NCoef="0" IVar="-1" Cut="0.0000000000000000e+00" cType="1" res="-9.5692410832270980e-04" rms="4.6859139204025269e-01" purity="3.8378721475601196e-01" nType="-99"/>
        </Node>
      </Node>
    </BinaryTree>
    <BinaryTree type="DecisionTree" boostWeight="1.0000000000000000e+00" itree="110">
      <Node pos="s" depth="0" NCoef="0" IVar="0" Cut="6.7413415908813477e+00" cType="1" res="2.9476111754775047e-02" rms="4.6624431014060974e-01" purity="5.3764176368713379e-01" nType="0">
        <Node pos="l" depth="1" NCoef="0" IVar="1" Cut="1.1591464996337891e+02" cType="1" res="-4.9263995140790939e-02" rms="4.7418379783630371e-01" purity="3.8865876197814941e-01" nType="0">
          <Node pos="l" depth="2" NCoef="0" IVar="-1" Cut="0.0000000000000000e+00" cType="1" res="-1.6617808723822236e-03" rms="4.6340733766555786e-01" purity="3.4866380691528320e-01" nType="-99"/>
          <Node pos="r" depth="2" NCoef="0" IVar="-1" Cut="0.0000000000000000e+00" cType="1" res="3.4123943187296391e-03" rms="4.7300446033477783e-01" purity="6.1346691846847534e-01" nType="-99"/>
        </Node>
        <Node pos="r" depth="1" NCoef="0" IVar="2" Cut="1.5102729797363281e+00" cType="1" res="1.0402178019285202e-01" rms="4.4596877694129944e-01" purity="6.7868858575820923e-01" nType="0">
          <Node pos="l" depth="2" NCoef="0" IVar="-1" Cut="0.0000000000000000e+00" cType="1" res="2.7255180757492781e-03" rms="4.3750447034835815e-01" purity="7.1905511617660522e-01" nType="-99"/>
          <Node pos="r" depth="2" NCoef="0" IVar="-1" Cut="0.0000000000000000e+00" cType="1" res="-1.7074986826628447e-03" rms="4.7098904848098755e-01" purity="3.4073397517204285e-01" nType="-99"/>
        </Node>
      </Node>
    </BinaryTree>
    <BinaryTree type="DecisionTree" boostWeight="1.0000000000000000e+00" itree="111">
      <Node pos="s" depth="0" NCoef="0" IVar="0" Cut="5.7275485992431641e+00" cType="1" res="-9.4814449548721313e-03" rms="4.6882161498069763e-01" purity="4.9325940012931824e-01" nType="0">
        <Node pos="l" depth="1" NCoef="0" IVar="6" Cut="4.1051013183593750e+02" cType="1" res="-1.3083471357822418e-01" rms="4.2944574356079102e-01" purity="2.6812815666198730e-01" nType="0">
          <Node pos="l" depth="2" NCoef="0" IVar="-1" Cut="0.0000000000000000e+00" cType="1" res="-3.4637388307601213e-03" rms="3.8134628534317017e-01" purity="2.0544239878654480e-01" nType="-99"/>
          <Node pos="r" depth="2" NCoef="0" IVar="-1" Cut="0.0000000000000000e+00" cType="1" res="-1.0760592995211482e-03" rms="4.7384637594223022e-01" purity="3.4823232889175415e-01" nType="-99"/>
        </Node>
        <Node pos="r" depth="1" NCoef="0" IVar="2" Cut="1.0351934432983398e+00" cType="1" res="2.6784932240843773e-02" rms="4.7397017478942871e-01" purity="5.6053978204727173e-01" nType="0">
          <Node pos="l" depth="2" NCoef="0" IVar="-1" Cut="0.0000000000000000e+00" cType="1" res="1.7566075548529625e-03" rms="4.6473875641822815e-01" purity="6.7524433135986328e-01" nType="-99"/>
          <Node pos="r" depth="2" NCoef="0" IVar="-1" Cut="0.0000000000000000e+00" cType="1" res="-8.9117069728672504e-04" rms="4.7592914104461670e-01" purity="4.1285449266433716e-01" nType="-99"/>
        </Node>
      </Node>
    </BinaryTree>
    <BinaryTree type="DecisionTree" boostWeight="1.0000000000000000e+00" itree="112">
      <Node pos="s" depth="0" NCoef="0" IVar="3" Cut="2.4466798305511475e+00" cType="1" res="-9.4615938141942024e-03" rms="4.6512785553932190e-01" purity="4.9628183245658875e-01" nType="0">
        <Node pos="l" depth="1" NCoef="0" IVar="0" Cut="5.7101182937622070e+00" cType="1" res="2.8257077559828758e-02" rms="4.7213816642761230e-01" purity="5.6128877401351929e-01" nType="0">
          <Node pos="l" depth="2" NCoef="0" IVar="-1" Cut="0.0000000000000000e+00" cType="1" res="-1.5351839829236269e-03" rms="4.5879802107810974e-01" purity="3.3446288108825684e-01" nType="-99"/>
          <Node pos="r" depth="2" NCoef="0" IVar="-1" Cut="0.0000000000000000e+00" cType="1" res="1.2059124419465661e-03" rms="4.7130134701728821e-01" purity="6.2031304836273193e-01" nType="-99"/>
        </Node>
        <Node pos="r" depth="1" NCoef="0" IVar="1" Cut="7.3098770141601562e+01" cType="1" res="-1.7650701105594635e-01" rms="3.9120322465896606e-01" purity="2.0838424563407898e-01" nType="0">
          <Node pos="l" depth="2" NCoef="0" IVar="-1" Cut="0.0000000000000000e+00" cType="1" res="-5.9315343387424946e-03" rms="2.5747928023338318e-01" purity="7.7329732477664948e-02" nType="-99"/>
          <Node pos="r" depth="2" NCoef="0" IVar="-1" Cut="0.0000000000000000e+00" cType="1" res="-2.5805938057601452e-03" rms="4.2785111069679260e-01" purity="2.6565220952033997e-01" nType="-99"/>
        </Node>
      </Node>
    </BinaryTree>
    <BinaryTree type="DecisionTree" boostWeight="1.0000000000000000e+00" itree="113">
      <Node pos="s" depth="0" NCoef="0" IVar="3" Cut="2.3441717624664307e+00" cType="1" res="-1.8606862053275108e-02" rms="4.6249204874038696e-01" purity="4.8685306310653687e-01" nType="0">
        <Node pos="l" depth="1" NCoef="0" IVar="0" Cut="6.6746153831481934e+00" cType="1" res="2.6718853041529655e-02" rms="4.7131878137588501e-01" purity="5.7079029083251953e-01" nType="0">
          <Node pos="l" depth="2" NCoef="0" IVar="-1" Cut="0.0000000000000000e+00" cType="1" res="-7.2704476770013571e-04" rms="4.7927662730216980e-01" purity="4.2032590508460999e-01" nType="-99"/>
          <Node pos="r" depth="2" NCoef="0" IVar="-1" Cut="0.0000000000000000e+00" cType="1" res="1.6466656234115362e-03" rms="4.5929381251335144e-01" purity="6.8351852893829346e-01" nType="-99"/>
        </Node>
        <Node pos="r" depth="1" NCoef="0" IVar="5" Cut="2.7991047501564026e-01" cType="1" res="-1.3660991191864014e-01" rms="4.1613304615020752e-01" purity="2.6832726597785950e-01" nType="0">
          <Node pos="l" depth="2" NCoef="0" IVar="-1" Cut="0.0000000000000000e+00" cType="1" res="-4.4165537692606449e-03" rms="3.3914646506309509e-01" purity="1.4816445112228394e-01" nType="-99"/>
          <Node pos="r" depth="2" NCoef="0" IVar="-1" Cut="0.0000000000000000e+00" cType="1" res="-9.5769815379753709e-04" rms="4.5516204833984375e-01" purity="3.7375831604003906e-01" nType="-99"/>
        </Node>
      </Node>
    </BinaryTree>
    <BinaryTree type="DecisionTree" boostWeight="1.0000000000000000e+00" itree="114">
      <Node pos="s" depth="0" NCoef="0" IVar="0" Cut="6.5432777404785156e+00" cType="1" res="-7.3035140521824360e-03" rms="4.6890571713447571e-01" purity="5.0069361925125122e-01" nType="0">
        <Node pos="l" depth="1" NCoef="0" IVar="1" Cut="5.2254940032958984e+01" cType="1" res="-8.9483179152011871e-02" rms="4.6056875586509705e-01" purity="3.3166423439979553e-01" nType="0">
          <Node pos="l" depth="2" NCoef="0" IVar="-1" Cut="0.0000000000000000e+00" cType="1" res="-3.1223814003169537e-03" rms="4.2672684788703918e-01" purity="2.4465596675872803e-01" nType="-99"/>
          <Node pos="r" depth="2" NCoef="0" IVar="-1" Cut="0.0000000000000000e+00" cType="1" res="-1.1030577588826418e-03" rms="4.6966820955276489e-01" purity="3.6724966764450073e-01" nType="-99"/>
        </Node>
        <Node pos="r" depth="1" NCoef="0" IVar="1" Cut="3.9362712860107422e+01" cType="1" res="5.2029959857463837e-02" rms="4.6590861678123474e-01" purity="6.2273240089416504e-01" nType="0">
          <Node pos="l" depth="2" NCoef="0" IVar="-1" Cut="0.0000000000000000e+00" cType="1" res="-2.7982238680124283e-03" rms="4.8533523082733154e-01" purity="4.3611606955528259e-01" nType="-99"/>
          <Node pos="r" depth="2" NCoef="0" IVar="-1" Cut="0.0000000000000000e+00" cType="1" res="1.5763067640364170e-03" rms="4.5892146229743958e-01" purity="6.4326310157775879e-01" nType="-99"/>
        </Node>
      </Node>
    </BinaryTree>
    <BinaryTree type="DecisionTree" boostWeight="1.0000000000000000e+00" itree="115">
      <Node pos="s" depth="0" NCoef="0" IVar="0" Cut="8.2714595794677734e+00" cType="1" res="-1.1031553149223328e-02" rms="4.6268689632415771e-01" purity="4.9673601984977722e-01" nType="0">
        <Node pos="l" depth="1" NCoef="0" IVar="5" Cut="4.1969177126884460e-01" cType="1" res="-4.5635592192411423e-02" rms="4.6616703271865845e-01" purity="4.4066685438156128e-01" nType="0">
          <Node pos="l" depth="2" NCoef="0" IVar="-1" Cut="0.0000000000000000e+00" cType="1" res="-2.4022872094064951e-03" rms="4.4863039255142212e-01" purity="3.5034355521202087e-01" nType="-99"/>
          <Node pos="r" depth="2" NCoef="0" IVar="-1" Cut="0.0000000000000000e+00" cType="1" res="1.0075044119730592e-03" rms="4.7069999575614929e-01" purity="5.5564707517623901e-01" nType="-99"/>
        </Node>
        <Node pos="r" depth="1" NCoef="0" IVar="1" Cut="6.9523956298828125e+01" cType="1" res="1.6109062731266022e-01" rms="4.0301144123077393e-01" purity="7.7562659978866577e-01" nType="0">
          <Node pos="l" depth="2" NCoef="0" IVar="-1" Cut="0.0000000000000000e+00" cType="1" res="-2.5113133233389817e-05" rms="4.6367481350898743e-01" purity="6.2049454450607300e-01" nType="-99"/>
          <Node pos="r" depth="2" NCoef="0" IVar="-1" Cut="0.0000000000000000e+00" cType="1" res="5.9734517708420753e-03" rms="3.2402718067169189e-01" purity="8.6957895755767822e-01" nType="-99"/>
        </Node>
      </Node>
    </BinaryTree>
    <BinaryTree type="DecisionTree" boostWeight="1.0000000000000000e+00" itree="116">
      <Node pos="s" depth="0" NCoef="0" IVar="2" Cut="6.5459436178207397e-01" cType="1" res="-3.6753412336111069e-02" rms="4.6715414524078369e-01" purity="4.7780176997184753e-01" nType="0">
        <Node pos="l" depth="1" NCoef="0" IVar="0" Cut="6.9168558120727539e+00" cType="1" res="1.0995133221149445e-01" rms="4.3576678633689880e-01" purity="6.9033658504486084e-01" nType="0">
          <Node pos="l" depth="2" NCoef="0" IVar="-1" Cut="0.0000000000000000e+00" cType="1" res="3.1972888973541558e-04" rms="4.8756614327430725e-01" purity="5.2356588840484619e-01" nType="-99"/>
          <Node pos="r" depth="2" NCoef="0" IVar="-1" Cut="0.0000000000000000e+00" cType="1" res="4.7476370818912983e-03" rms="3.5679051280021667e-01" purity="8.5151207447052002e-01" nType="-99"/>
        </Node>
        <Node pos="r" depth="1" NCoef="0" IVar="0" Cut="8.4181470870971680e+00" cType="1" res="-6.9375067949295044e-02" rms="4.6763756871223450e-01" purity="4.3054196238517761e-01" nType="0">
          <Node pos="l" depth="2" NCoef="0" IVar="-1" Cut="0.0000000000000000e+00" cType="1" res="-1.9580123480409384e-03" rms="4.6547698974609375e-01" purity="3.8286510109901428e-01" nType="-99"/>
          <Node pos="r" depth="2" NCoef="0" IVar="-1" Cut="0.0000000000000000e+00" cType="1" res="2.4492628872394562e-03" rms="4.4135406613349915e-01" purity="7.2534513473510742e-01" nType="-99"/>
        </Node>
      </Node>
    </BinaryTree>
    <BinaryTree type="DecisionTree" boostWeight="1.0000000000000000e+00" itree="117">
      <Node pos="s" depth="0" NCoef="0" IVar="2" Cut="1.4875937700271606e+00" cType="1" res="2.0864002872258425e-03" rms="4.7013470530509949e-01" purity="5.0880938768386841e-01" nType="0">
        <Node pos="l" depth="1" NCoef="0" IVar="0" Cut="6.1293964385986328e+00" cType="1" res="2.3854097351431847e-02" rms="4.7421771287918091e-01" purity="5.4775840044021606e-01" nType="0">
          <Node pos="l" depth="2" NCoef="0" IVar="-1" Cut="0.0000000000000000e+00" cType="1" res="-1.4091144548729062e-03" rms="4.6506384015083313e-01" purity="3.4134644269943237e-01" nType="-99"/>
          <Node pos="r" depth="2" NCoef="0" IVar="-1" Cut="0.0000000000000000e+00" cType="1" res="1.4383082743734121e-03" rms="4.7177991271018982e-01" purity="6.3671278953552246e-01" nType="-99"/>
        </Node>
        <Node pos="r" depth="1" NCoef="0" IVar="1" Cut="9.2075431823730469e+01" cType="1" res="-1.5820476412773132e-01" rms="4.0429106354713440e-01" purity="2.2199948132038116e-01" nType="0">
          <Node pos="l" depth="2" NCoef="0" IVar="-1" Cut="0.0000000000000000e+00" cType="1" res="-5.7995817624032497e-03" rms="2.6253312826156616e-01" purity="7.8020177781581879e-02" nType="-99"/>
          <Node pos="r" depth="2" NCoef="0" IVar="-1" Cut="0.0000000000000000e+00" cType="1" res="-3.8504446274600923e-04" rms="4.7048187255859375e-01" purity="3.6897793412208557e-01" nType="-99"/>
        </Node>
      </Node>
    </BinaryTree>
    <BinaryTree type="DecisionTree" boostWeight="1.0000000000000000e+00" itree="118">
      <Node pos="s" depth="0" NCoef="0" IVar="2" Cut="1.1687730550765991e+00" cType="1" res="-1.8080597743391991e-02" rms="4.6294882893562317e-01" purity="4.8799917101860046e-01" nType="0">
        <Node pos="l" depth="1" NCoef="0" IVar="0" Cut="5.2851524353027344e+00" cType="1" res="3.5503841936588287e-02" rms="4.6858406066894531e-01" purity="5.9373086690902710e-01" nType="0">
          <Node pos="l" depth="2" NCoef="0" IVar="-1" Cut="0.0000000000000000e+00" cType="1" res="-3.3900721464306116e-03" rms="4.1557520627975464e-01" purity="2.2233650088310242e-01" nType="-99"/>
          <Node pos="r" depth="2" NCoef="0" IVar="-1" Cut="0.0000000000000000e+00" cType="1" res="1.2721216771751642e-03" rms="4.6727815270423889e-01" purity="6.3451111316680908e-01" nType="-99"/>
        </Node>
        <Node pos="r" depth="1" NCoef="0" IVar="5" Cut="2.3078766465187073e-01" cType="1" res="-1.1614909023046494e-01" rms="4.3570852279663086e-01" purity="2.9449254274368286e-01" nType="0">
          <Node pos="l" depth="2" NCoef="0" IVar="-1" Cut="0.0000000000000000e+00" cType="1" res="-4.1735977865755558e-03" rms="3.7227380275726318e-01" purity="1.7724037170410156e-01" nType="-99"/>
          <Node pos="r" depth="2" NCoef="0" IVar="-1" Cut="0.0000000000000000e+00" cType="1" res="-1.3157746288925409e-03" rms="4.5588654279708862e-01" purity="3.5357427597045898e-01" nType="-99"/>
        </Node>
      </Node>
    </BinaryTree>
    <BinaryTree type="DecisionTree" boostWeight="1.0000000000000000e+00" itree="119">
      <Node pos="s" depth="0" NCoef="0" IVar="0" Cut="6.7398080825805664e+00" cType="1" res="7.3941081063821912e-04" rms="4.6467685699462891e-01" purity="5.0910300016403198e-01" nType="0">
        <Node pos="l" depth="1" NCoef="0" IVar="2" Cut="1.1238390207290649e+00" cType="1" res="-8.0102913081645966e-02" rms="4.6152618527412415e-01" purity="3.4772640466690063e-01" nType="0">
          <Node pos="l" depth="2" NCoef="0" IVar="-1" Cut="0.0000000000000000e+00" cType="1" res="-5.6600919924676418e-04" rms="4.8969608545303345e-01" purity="4.3859782814979553e-01" nType="-99"/>
          <Node pos="r" depth="2" NCoef="0" IVar="-1" Cut="0.0000000000000000e+00" cType="1" res="-3.1479364261031151e-03" rms="4.0029266476631165e-01" purity="2.0329278707504272e-01" nType="-99"/>
        </Node>
        <Node pos="r" depth="1" NCoef="0" IVar="2" Cut="1.0959278345108032e+00" cType="1" res="7.1131482720375061e-02" rms="4.5587259531021118e-01" purity="6.4961886405944824e-01" nType="0">
          <Node pos="l" depth="2" NCoef="0" IVar="-1" Cut="0.0000000000000000e+00" cType="1" res="2.6484502013772726e-03" rms="4.3178504705429077e-01" purity="7.4797886610031128e-01" nType="-99"/>
          <Node pos="r" depth="2" NCoef="0" IVar="-1" Cut="0.0000000000000000e+00" cType="1" res="-2.2514256124850363e-04" rms="4.8370712995529175e-01" purity="4.8014694452285767e-01" nType="-99"/>
        </Node>
      </Node>
    </BinaryTree>
    <BinaryTree type="DecisionTree" boostWeight="1.0000000000000000e+00" itree="120">
      <Node pos="s" depth="0" NCoef="0" IVar="0" Cut="6.8240823745727539e+00" cType="1" res="-1.8561741337180138e-02" rms="4.6409663558006287e-01" purity="4.9053817987442017e-01" nType="0">
        <Node pos="l" depth="1" NCoef="0" IVar="6" Cut="5.0657803344726562e+02" cType="1" res="-9.6529826521873474e-02" rms="4.5406448841094971e-01" purity="3.3213701844215393e-01" nType="0">
          <Node pos="l" depth="2" NCoef="0" IVar="-1" Cut="0.0000000000000000e+00" cType="1" res="-2.5690242182463408e-03" rms="4.3837594985961914e-01" purity="2.8890633583068848e-01" nType="-99"/>
          <Node pos="r" depth="2" NCoef="0" IVar="-1" Cut="0.0000000000000000e+00" cType="1" res="1.4122294960543513e-03" rms="4.8347833752632141e-01" purity="5.2022761106491089e-01" nType="-99"/>
        </Node>
        <Node pos="r" depth="1" NCoef="0" IVar="5" Cut="2.3185659945011139e-01" cType="1" res="5.1595155149698257e-02" rms="4.6182462573051453e-01" purity="6.3307005167007446e-01" nType="0">
          <Node pos="l" depth="2" NCoef="0" IVar="-1" Cut="0.0000000000000000e+00" cType="1" res="-2.0618070848286152e-03" rms="4.7557172179222107e-01" purity="4.3725490570068359e-01" nType="-99"/>
          <Node pos="r" depth="2" NCoef="0" IVar="-1" Cut="0.0000000000000000e+00" cType="1" res="1.9778457935899496e-03" rms="4.5026531815528870e-01" purity="6.8219828605651855e-01" nType="-99"/>
        </Node>
      </Node>
    </BinaryTree>
    <BinaryTree type="DecisionTree" boostWeight="1.0000000000000000e+00" itree="121">
      <Node pos="s" depth="0" NCoef="0" IVar="3" Cut="2.2720532417297363e+00" cType="1" res="-6.1548380181193352e-03" rms="4.6270105242729187e-01" purity="5.0258433818817139e-01" nType="0">
        <Node pos="l" depth="1" NCoef="0" IVar="0" Cut="6.1148843765258789e+00" cType="1" res="5.2359938621520996e-02" rms="4.6806368231773376e-01" purity="6.0336577892303467e-01" nType="0">
          <Node pos="l" depth="2" NCoef="0" IVar="-1" Cut="0.0000000000000000e+00" cType="1" res="-3.2956365612335503e-04" rms="4.8387879133224487e-01" purity="4.2919725179672241e-01" nType="-99"/>
          <Node pos="r" depth="2" NCoef="0" IVar="-1" Cut="0.0000000000000000e+00" cType="1" res="1.7564742593094707e-03" rms="4.5830881595611572e-01" purity="6.7513990402221680e-01" nType="-99"/>
        </Node>
        <Node pos="r" depth="1" NCoef="0" IVar="0" Cut="7.9229598045349121e+00" cType="1" res="-1.1594660580158234e-01" rms="4.3156489729881287e-01" purity="3.1348720192909241e-01" nType="0">
          <Node pos="l" depth="2" NCoef="0" IVar="-1" Cut="0.0000000000000000e+00" cType="1" res="-3.0694643501192331e-03" rms="4.0696704387664795e-01" purity="2.3932811617851257e-01" nType="-99"/>
          <Node pos="r" depth="2" NCoef="0" IVar="-1" Cut="0.0000000000000000e+00" cType="1" res="5.7661149185150862e-04" rms="4.7995612025260925e-01" purity="5.6721049547195435e-01" nType="-99"/>
        </Node>
      </Node>
    </BinaryTree>
    <BinaryTree type="DecisionTree" boostWeight="1.0000000000000000e+00" itree="122">
      <Node pos="s" depth="0" NCoef="0" IVar="0" Cut="6.1784844398498535e+00" cType="1" res="-1.2359022162854671e-02" rms="4.6588721871376038e-01" purity="4.9229198694229126e-01" nType="0">
        <Node pos="l" depth="1" NCoef="0" IVar="2" Cut="1.0531214475631714e+00" cType="1" res="-1.0122072696685791e-01" rms="4.4617524743080139e-01" purity="3.0082437396049500e-01" nType="0">
          <Node pos="l" depth="2" NCoef="0" IVar="-1" Cut="0.0000000000000000e+00" cType="1" res="-6.4930709777399898e-04" rms="4.9296811223030090e-01" purity="4.2402338981628418e-01" nType="-99"/>
          <Node pos="r" depth="2" NCoef="0" IVar="-1" Cut="0.0000000000000000e+00" cType="1" res="-3.1815920956432819e-03" rms="3.8861188292503357e-01" purity="1.8783116340637207e-01" nType="-99"/>
        </Node>
        <Node pos="r" depth="1" NCoef="0" IVar="3" Cut="2.4484059810638428e+00" cType="1" res="3.0836066231131554e-02" rms="4.6913319826126099e-01" purity="5.8536320924758911e-01" nType="0">
          <Node pos="l" depth="2" NCoef="0" IVar="-1" Cut="0.0000000000000000e+00" cType="1" res="1.2615101877599955e-03" rms="4.6880716085433960e-01" purity="6.4085215330123901e-01" nType="-99"/>
          <Node pos="r" depth="2" NCoef="0" IVar="-1" Cut="0.0000000000000000e+00" cType="1" res="-2.3514034692198038e-03" rms="4.4149217009544373e-01" purity="2.9178431630134583e-01" nType="-99"/>
        </Node>
      </Node>
    </BinaryTree>
    <BinaryTree type="DecisionTree" boostWeight="1.0000000000000000e+00" itree="123">
      <Node pos="s" depth="0" NCoef="0" IVar="3" Cut="2.2884280681610107e+00" cType="1" res="-3.6024156957864761e-02" rms="4.7006481885910034e-01" purity="4.6515643596649170e-01" nType="0">
        <Node pos="l" depth="1" NCoef="0" IVar="1" Cut="3.7432231903076172e+01" cType="1" res="5.9111043810844421e-03" rms="4.7833469510078430e-01" purity="5.5021095275878906e-01" nType="0">
          <Node pos="l" depth="2" NCoef="0" IVar="-1" Cut="0.0000000000000000e+00" cType="1" res="-3.5087859723716974e-03" rms="4.6415495872497559e-01" purity="3.2603794336318970e-01" nType="-99"/>
          <Node pos="r" depth="2" NCoef="0" IVar="-1" Cut="0.0000000000000000e+00" cType="1" res="6.4206949900835752e-04" rms="4.7449636459350586e-01" purity="5.8001220226287842e-01" nType="-99"/>
        </Node>
        <Node pos="r" depth="1" NCoef="0" IVar="1" Cut="7.3341194152832031e+01" cType="1" res="-1.1442113667726517e-01" rms="4.4369438290596008e-01" purity="3.0614897608757019e-01" nType="0">
          <Node pos="l" depth="2" NCoef="0" IVar="-1" Cut="0.0000000000000000e+00" cType="1" res="-4.6553378924727440e-03" rms="3.7348240613937378e-01" purity="1.8641357123851776e-01" nType="-99"/>
          <Node pos="r" depth="2" NCoef="0" IVar="-1" Cut="0.0000000000000000e+00" cType="1" res="-1.1663332115858793e-03" rms="4.6519649028778076e-01" purity="3.6652389168739319e-01" nType="-99"/>
        </Node>
      </Node>
    </BinaryTree>
    <BinaryTree type="DecisionTree" boostWeight="1.0000000000000000e+00" itree="124">
      <Node pos="s" depth="0" NCoef="0" IVar="0" Cut="6.2348566055297852e+00" cType="1" res="-3.4621935337781906e-02" rms="4.6237924695014954e-01" purity="4.7258198261260986e-01" nType="0">
        <Node pos="l" depth="1" NCoef="0" IVar="1" Cut="1.0475666046142578e+02" cType="1" res="-1.3458219170570374e-01" rms="4.3299233913421631e-01" purity="2.6685953140258789e-01" nType="0">
          <Node pos="l" depth="2" NCoef="0" IVar="-1" Cut="0.0000000000000000e+00" cType="1" res="-3.3425390720367432e-03" rms="4.1239091753959656e-01" purity="2.2599294781684875e-01" nType="-99"/>
          <Node pos="r" depth="2" NCoef="0" IVar="-1" Cut="0.0000000000000000e+00" cType="1" res="-3.8273257086984813e-04" rms="4.6219143271446228e-01" purity="3.7160602211952209e-01" nType="-99"/>
        </Node>
        <Node pos="r" depth="1" NCoef="0" IVar="3" Cut="2.5520961284637451e+00" cType="1" res="1.6276061534881592e-02" rms="4.6852311491966248e-01" purity="5.7733219861984253e-01" nType="0">
          <Node pos="l" depth="2" NCoef="0" IVar="-1" Cut="0.0000000000000000e+00" cType="1" res="8.5690285777673125e-04" rms="4.6976649761199951e-01" purity="6.2175792455673218e-01" nType="-99"/>
          <Node pos="r" depth="2" NCoef="0" IVar="-1" Cut="0.0000000000000000e+00" cType="1" res="-3.3432107884436846e-03" rms="4.1262033581733704e-01" purity="2.1913963556289673e-01" nType="-99"/>
        </Node>
      </Node>
    </BinaryTree>
    <BinaryTree type="DecisionTree" boostWeight="1.0000000000000000e+00" itree="125">
      <Node pos="s" depth="0" NCoef="0" IVar="0" Cut="8.6642274856567383e+00" cType="1" res="1.3700170442461967e-02" rms="4.6279805898666382e-01" purity="5.2242350578308105e-01" nType="0">
        <Node pos="l" depth="1" NCoef="0" IVar="2" Cut="8.5395753383636475e-01" cType="1" res="-1.1335109360516071e-02" rms="4.6876922249794006e-01" purity="4.8493203520774841e-01" nType="0">
          <Node pos="l" depth="2" NCoef="0" IVar="-1" Cut="0.0000000000000000e+00" cType="1" res="1.6081386711448431e-03" rms="4.6253785490989685e-01" purity="6.4056491851806641e-01" nType="-99"/>
          <Node pos="r" depth="2" NCoef="0" IVar="-1" Cut="0.0000000000000000e+00" cType="1" res="-1.3578034704551101e-03" rms="4.6376350522041321e-01" purity="3.8670146465301514e-01" nType="-99"/>
        </Node>
        <Node pos="r" depth="1" NCoef="0" IVar="1" Cut="9.1318595886230469e+01" cType="1" res="2.3721534013748169e-01" rms="3.3009824156761169e-01" purity="8.5714739561080933e-01" nType="0">
          <Node pos="l" depth="2" NCoef="0" IVar="-1" Cut="0.0000000000000000e+00" cType="1" res="4.4657769612967968e-03" rms="3.7542349100112915e-01" purity="8.1419724225997925e-01" nType="-99"/>
          <Node pos="r" depth="2" NCoef="0" IVar="-1" Cut="0.0000000000000000e+00" cType="1" res="6.5399445593357086e-03" rms="2.7274414896965027e-01" purity="8.9937180280685425e-01" nType="-99"/>
        </Node>
      </Node>
    </BinaryTree>
    <BinaryTree type="DecisionTree" boostWeight="1.0000000000000000e+00" itree="126">
      <Node pos="s" depth="0" NCoef="0" IVar="0" Cut="7.0190329551696777e+00" cType="1" res="5.2063497714698315e-03" rms="4.6012273430824280e-01" purity="5.0809657573699951e-01" nType="0">
        <Node pos="l" depth="1" NCoef="0" IVar="2" Cut="8.5795700550079346e-01" cType="1" res="-6.4698003232479095e-02" rms="4.5907759666442871e-01" purity="3.6483037471771240e-01" nType="0">
          <Node pos="l" depth="2" NCoef="0" IVar="-1" Cut="0.0000000000000000e+00" cType="1" res="7.7963137300685048e-04" rms="4.9012115597724915e-01" purity="5.4559355974197388e-01" nType="-99"/>
          <Node pos="r" depth="2" NCoef="0" IVar="-1" Cut="0.0000000000000000e+00" cType="1" res="-2.1821588743478060e-03" rms="4.3631693720817566e-01" purity="2.8401014208793640e-01" nType="-99"/>
        </Node>
        <Node pos="r" depth="1" NCoef="0" IVar="1" Cut="9.2490913391113281e+01" cType="1" res="9.0039335191249847e-02" rms="4.4693621993064880e-01" purity="6.8195831775665283e-01" nType="0">
          <Node pos="l" depth="2" NCoef="0" IVar="-1" Cut="0.0000000000000000e+00" cType="1" res="8.7723560864105821e-04" rms="4.5792177319526672e-01" purity="6.4071297645568848e-01" nType="-99"/>
          <Node pos="r" depth="2" NCoef="0" IVar="-1" Cut="0.0000000000000000e+00" cType="1" res="3.7303348071873188e-03" rms="4.1622507572174072e-01" purity="7.4826604127883911e-01" nType="-99"/>
        </Node>
      </Node>
    </BinaryTree>
    <BinaryTree type="DecisionTree" boostWeight="1.0000000000000000e+00" itree="127">
      <Node pos="s" depth="0" NCoef="0" IVar="2" Cut="7.7786028385162354e-01" cType="1" res="-5.5589159019291401e-03" rms="4.6914726495742798e-01" purity="5.0269460678100586e-01" nType="0">
        <Node pos="l" depth="1" NCoef="0" IVar="1" Cut="5.4554786682128906e+01" cType="1" res="8.8749982416629791e-02" rms="4.5256826281547546e-01" purity="6.7254680395126343e-01" nType="0">
          <Node pos="l" depth="2" NCoef="0" IVar="-1" Cut="0.0000000000000000e+00" cType="1" res="6.1796657973900437e-04" rms="4.6442976593971252e-01" purity="5.8964949846267700e-01" nType="-99"/>
          <Node pos="r" depth="2" NCoef="0" IVar="-1" Cut="0.0000000000000000e+00" cType="1" res="2.4396940134465694e-03" rms="4.4436118006706238e-01" purity="7.1078658103942871e-01" nType="-99"/>
        </Node>
        <Node pos="r" depth="1" NCoef="0" IVar="1" Cut="9.7608352661132812e+01" cType="1" res="-4.3636698275804520e-02" rms="4.7034880518913269e-01" purity="4.3411582708358765e-01" nType="0">
          <Node pos="l" depth="2" NCoef="0" IVar="-1" Cut="0.0000000000000000e+00" cType="1" res="-1.6885420773178339e-03" rms="4.6207481622695923e-01" purity="3.8710421323776245e-01" nType="-99"/>
          <Node pos="r" depth="2" NCoef="0" IVar="-1" Cut="0.0000000000000000e+00" cType="1" res="7.6375802746042609e-04" rms="4.7504690289497375e-01" purity="5.2234423160552979e-01" nType="-99"/>
        </Node>
      </Node>
    </BinaryTree>
    <BinaryTree type="DecisionTree" boostWeight="1.0000000000000000e+00" itree="128">
      <Node pos="s" depth="0" NCoef="0" IVar="0" Cut="5.9726715087890625e+00" cType="1" res="1.1889647692441940e-02" rms="4.6174681186676025e-01" purity="5.1075780391693115e-01" nType="0">
        <Node pos="l" depth="1" NCoef="0" IVar="6" Cut="4.6337197875976562e+02" cType="1" res="-9.9410235881805420e-02" rms="4.3706056475639343e-01" purity="2.7878332138061523e-01" nType="0">
          <Node pos="l" depth="2" NCoef="0" IVar="-1" Cut="0.0000000000000000e+00" cType="1" res="-2.9376018792390823e-03" rms="4.0031716227531433e-01" purity="2.1594974398612976e-01" nType="-99"/>
          <Node pos="r" depth="2" NCoef="0" IVar="-1" Cut="0.0000000000000000e+00" cType="1" res="1.8666894175112247e-03" rms="4.9562540650367737e-01" purity="4.8669150471687317e-01" nType="-99"/>
        </Node>
        <Node pos="r" depth="1" NCoef="0" IVar="2" Cut="9.9711436033248901e-01" cType="1" res="5.7712752372026443e-02" rms="4.6383759379386902e-01" purity="6.0626363754272461e-01" nType="0">
          <Node pos="l" depth="2" NCoef="0" IVar="-1" Cut="0.0000000000000000e+00" cType="1" res="2.6417798362672329e-03" rms="4.3133050203323364e-01" purity="7.3137128353118896e-01" nType="-99"/>
          <Node pos="r" depth="2" NCoef="0" IVar="-1" Cut="0.0000000000000000e+00" cType="1" res="-2.8185680275782943e-04" rms="4.8858875036239624e-01" purity="4.6368268132209778e-01" nType="-99"/>
        </Node>
      </Node>
    </BinaryTree>
    <BinaryTree type="DecisionTree" boostWeight="1.0000000000000000e+00" itree="129">
      <Node pos="s" depth="0" NCoef="0" IVar="3" Cut="2.2104384899139404e+00" cType="1" res="-1.1691877618432045e-02" rms="4.6500456333160400e-01" purity="4.9012598395347595e-01" nType="0">
        <Node pos="l" depth="1" NCoef="0" IVar="6" Cut="6.1560754394531250e+02" cType="1" res="4.0173336863517761e-02" rms="4.6962818503379822e-01" purity="5.8758902549743652e-01" nType="0">
          <Node pos="l" depth="2" NCoef="0" IVar="-1" Cut="0.0000000000000000e+00" cType="1" res="2.1823718270752579e-04" rms="4.7521609067916870e-01" purity="5.5161851644515991e-01" nType="-99"/>
          <Node pos="r" depth="2" NCoef="0" IVar="-1" Cut="0.0000000000000000e+00" cType="1" res="5.8312802575528622e-03" rms="3.6025047302246094e-01" purity="8.5018432140350342e-01" nType="-99"/>
        </Node>
        <Node pos="r" depth="1" NCoef="0" IVar="0" Cut="5.5331025123596191e+00" cType="1" res="-8.1634983420372009e-02" rms="4.4931277632713318e-01" purity="3.5869163274765015e-01" nType="0">
          <Node pos="l" depth="2" NCoef="0" IVar="-1" Cut="0.0000000000000000e+00" cType="1" res="-4.6410830691456795e-03" rms="2.8230738639831543e-01" purity="8.8694505393505096e-02" nType="-99"/>
          <Node pos="r" depth="2" NCoef="0" IVar="-1" Cut="0.0000000000000000e+00" cType="1" res="-8.8153820252045989e-04" rms="4.7279977798461914e-01" purity="4.2329940199851990e-01" nType="-99"/>
        </Node>
      </Node>
    </BinaryTree>
    <BinaryTree type="DecisionTree" boostWeight="1.0000000000000000e+00" itree="130">
      <Node pos="s" depth="0" NCoef="0" IVar="2" Cut="1.1444493532180786e+00" cType="1" res="4.1491705924272537e-03" rms="4.7012323141098022e-01" purity="5.0613236427307129e-01" nType="0">
        <Node pos="l" depth="1" NCoef="0" IVar="2" Cut="5.7991629838943481e-01" cType="1" res="4.4186163693666458e-02" rms="4.7247499227523804e-01" purity="5.9827309846878052e-01" nType="0">
          <Node pos="l" depth="2" NCoef="0" IVar="-1" Cut="0.0000000000000000e+00" cType="1" res="2.7869087643921375e-03" rms="4.3926101922988892e-01" purity="7.0691853761672974e-01" nType="-99"/>
          <Node pos="r" depth="2" NCoef="0" IVar="-1" Cut="0.0000000000000000e+00" cType="1" res="3.8870074786245823e-04" rms="4.7825896739959717e-01" purity="5.6800508499145508e-01" nType="-99"/>
        </Node>
        <Node pos="r" depth="1" NCoef="0" IVar="4" Cut="2.0510676574707031e+02" cType="1" res="-7.0899188518524170e-02" rms="4.5631530880928040e-01" purity="3.3341678977012634e-01" nType="0">
          <Node pos="l" depth="2" NCoef="0" IVar="-1" Cut="0.0000000000000000e+00" cType="1" res="-7.8913324978202581e-04" rms="4.6784725785255432e-01" purity="3.6738365888595581e-01" nType="-99"/>
          <Node pos="r" depth="2" NCoef="0" IVar="-1" Cut="0.0000000000000000e+00" cType="1" res="-3.4427267964929342e-03" rms="3.9987167716026306e-01" purity="2.2352714836597443e-01" nType="-99"/>
        </Node>
      </Node>
    </BinaryTree>
    <BinaryTree type="DecisionTree" boostWeight="1.0000000000000000e+00" itree="131">
      <Node pos="s" depth="0" NCoef="0" IVar="3" Cut="2.4583230018615723e+00" cType="1" res="-1.2177089229226112e-02" rms="4.6302977204322815e-01" purity="4.9028027057647705e-01" nType="0">
        <Node pos="l" depth="1" NCoef="0" IVar="2" Cut="6.6118973493576050e-01" cType="1" res="2.7110360562801361e-02" rms="4.7361624240875244e-01" purity="5.6053769588470459e-01" nType="0">
          <Node pos="l" depth="2" NCoef="0" IVar="-1" Cut="0.0000000000000000e+00" cType="1" res="2.4589966051280499e-03" rms="4.4745290279388428e-01" purity="6.9852077960968018e-01" nType="-99"/>
          <Node pos="r" depth="2" NCoef="0" IVar="-1" Cut="0.0000000000000000e+00" cType="1" res="3.3533880923641846e-05" rms="4.7763502597808838e-01" purity="5.2174967527389526e-01" nType="-99"/>
        </Node>
        <Node pos="r" depth="1" NCoef="0" IVar="2" Cut="1.6829888820648193e+00" cType="1" res="-1.8715225160121918e-01" rms="3.6434033513069153e-01" purity="1.7737360298633575e-01" nType="0">
          <Node pos="l" depth="2" NCoef="0" IVar="-1" Cut="0.0000000000000000e+00" cType="1" res="-2.9028523713350296e-03" rms="4.0492820739746094e-01" purity="2.3087887465953827e-01" nType="-99"/>
          <Node pos="r" depth="2" NCoef="0" IVar="-1" Cut="0.0000000000000000e+00" cType="1" res="-5.7884682901203632e-03" rms="2.2058939933776855e-01" purity="5.2815549075603485e-02" nType="-99"/>
        </Node>
      </Node>
    </BinaryTree>
    <BinaryTree type="DecisionTree" boostWeight="1.0000000000000000e+00" itree="132">
      <Node pos="s" depth="0" NCoef="0" IVar="6" Cut="6.5982244873046875e+02" cType="1" res="-2.5315610691905022e-03" rms="4.6789705753326416e-01" purity="5.0152409076690674e-01" nType="0">
        <Node pos="l" depth="1" NCoef="0" IVar="5" Cut="3.7461403012275696e-01" cType="1" res="-2.2202476859092712e-02" rms="4.6715766191482544e-01" purity="4.7661608457565308e-01" nType="0">
          <Node pos="l" depth="2" NCoef="0" IVar="-1" Cut="0.0000000000000000e+00" cType="1" res="-1.9213611958548427e-03" rms="4.5550951361656189e-01" purity="3.7732338905334473e-01" nType="-99"/>
          <Node pos="r" depth="2" NCoef="0" IVar="-1" Cut="0.0000000000000000e+00" cType="1" res="7.9469010233879089e-04" rms="4.6812590956687927e-01" purity="5.6019556522369385e-01" nType="-99"/>
        </Node>
        <Node pos="r" depth="1" NCoef="0" IVar="-1" Cut="0.0000000000000000e+00" cType="1" res="3.6871826741844416e-03" rms="4.3770915269851685e-01" purity="7.2091442346572876e-01" nType="-99"/>
      </Node>
    </BinaryTree>
    <BinaryTree type="DecisionTree" boostWeight="1.0000000000000000e+00" itree="133">
      <Node pos="s" depth="0" NCoef="0" IVar="0" Cut="5.0128169059753418e+00" cType="1" res="1.6639047535136342e-03" rms="4.5815527439117432e-01" purity="5.0490194559097290e-01" nType="0">
        <Node pos="l" depth="1" NCoef="0" IVar="-1" Cut="0.0000000000000000e+00" cType="1" res="-4.4110720045864582e-03" rms="3.2640814781188965e-01" purity="1.2877109646797180e-01" nType="-99"/>
        <Node pos="r" depth="1" NCoef="0" IVar="0" Cut="6.8609285354614258e+00" cType="1" res="2.4380322545766830e-02" rms="4.6217811107635498e-01" purity="5.4023939371109009e-01" nType="0">
          <Node pos="l" depth="2" NCoef="0" IVar="-1" Cut="0.0000000000000000e+00" cType="1" res="-8.3934125723317266e-04" rms="4.7201892733573914e-01" purity="3.9524802565574646e-01" nType="-99"/>
          <Node pos="r" depth="2" NCoef="0" IVar="-1" Cut="0.0000000000000000e+00" cType="1" res="1.9032714189961553e-03" rms="4.4439849257469177e-01" purity="6.7219316959381104e-01" nType="-99"/>
        </Node>
      </Node>
    </BinaryTree>
    <BinaryTree type="DecisionTree" boostWeight="1.0000000000000000e+00" itree="134">
      <Node pos="s" depth="0" NCoef="0" IVar="0" Cut="6.8175086975097656e+00" cType="1" res="-3.2421048730611801e-02" rms="4.6386414766311646e-01" purity="4.7616842389106750e-01" nType="0">
        <Node pos="l" depth="1" NCoef="0" IVar="5" Cut="3.4872779250144958e-01" cType="1" res="-9.6071824431419373e-02" rms="4.5543360710144043e-01" purity="3.3555471897125244e-01" nType="0">
          <Node pos="l" depth="2" NCoef="0" IVar="-1" Cut="0.0000000000000000e+00" cType="1" res="-3.5163685679435730e-03" rms="4.0818169713020325e-01" purity="2.2911915183067322e-01" nType="-99"/>
          <Node pos="r" depth="2" NCoef="0" IVar="-1" Cut="0.0000000000000000e+00" cType="1" res="-2.8736877720803022e-04" rms="4.8045569658279419e-01" purity="4.3271216750144958e-01" nType="-99"/>
        </Node>
        <Node pos="r" depth="1" NCoef="0" IVar="3" Cut="2.2269184589385986e+00" cType="1" res="3.6214128136634827e-02" rms="4.6308481693267822e-01" purity="6.2779325246810913e-01" nType="0">
          <Node pos="l" depth="2" NCoef="0" IVar="-1" Cut="0.0000000000000000e+00" cType="1" res="1.8909464124590158e-03" rms="4.4768437743186951e-01" purity="7.1910339593887329e-01" nType="-99"/>
          <Node pos="r" depth="2" NCoef="0" IVar="-1" Cut="0.0000000000000000e+00" cType="1" res="-1.0808145161718130e-03" rms="4.7865206003189087e-01" purity="4.5445612072944641e-01" nType="-99"/>
        </Node>
      </Node>
    </BinaryTree>
    <BinaryTree type="DecisionTree" boostWeight="1.0000000000000000e+00" itree="135">
      <Node pos="s" depth="0" NCoef="0" IVar="0" Cut="6.1794290542602539e+00" cType="1" res="-1.0297653265297413e-02" rms="4.6505877375602722e-01" purity="4.9616864323616028e-01" nType="0">
        <Node pos="l" depth="1" NCoef="0" IVar="6" Cut="2.8930593872070312e+02" cType="1" res="-1.1874351650476456e-01" rms="4.3212592601776123e-01" purity="2.7203723788261414e-01" nType="0">
          <Node pos="l" depth="2" NCoef="0" IVar="-1" Cut="0.0000000000000000e+00" cType="1" res="-4.6582897193729877e-03" rms="3.0503538250923157e-01" purity="1.1285941302776337e-01" nType="-99"/>
          <Node pos="r" depth="2" NCoef="0" IVar="-1" Cut="0.0000000000000000e+00" cType="1" res="-1.5058357967063785e-03" rms="4.5796775817871094e-01" purity="3.2297384738922119e-01" nType="-99"/>
        </Node>
        <Node pos="r" depth="1" NCoef="0" IVar="5" Cut="3.4471291303634644e-01" cType="1" res="3.6926340311765671e-02" rms="4.7095099091529846e-01" purity="5.9376925230026245e-01" nType="0">
          <Node pos="l" depth="2" NCoef="0" IVar="-1" Cut="0.0000000000000000e+00" cType="1" res="-5.0481565995141864e-04" rms="4.7598671913146973e-01" purity="5.0034117698669434e-01" nType="-99"/>
          <Node pos="r" depth="2" NCoef="0" IVar="-1" Cut="0.0000000000000000e+00" cType="1" res="1.6860202886164188e-03" rms="4.6274435520172119e-01" purity="6.5862548351287842e-01" nType="-99"/>
        </Node>
      </Node>
    </BinaryTree>
    <BinaryTree type="DecisionTree" boostWeight="1.0000000000000000e+00" itree="136">
      <Node pos="s" depth="0" NCoef="0" IVar="2" Cut="1.0626996755599976e+00" cType="1" res="-8.0778952687978745e-03" rms="4.6452829241752625e-01" purity="4.8876816034317017e-01" nType="0">
        <Node pos="l" depth="1" NCoef="0" IVar="1" Cut="3.7980911254882812e+01" cType="1" res="5.0147384405136108e-02" rms="4.6976709365844727e-01" purity="6.0981857776641846e-01" nType="0">
          <Node pos="l" depth="2" NCoef="0" IVar="-1" Cut="0.0000000000000000e+00" cType="1" res="-3.0242088250815868e-03" rms="4.8815912008285522e-01" purity="3.7989538908004761e-01" nType="-99"/>
          <Node pos="r" depth="2" NCoef="0" IVar="-1" Cut="0.0000000000000000e+00" cType="1" res="1.5687689883634448e-03" rms="4.6109667420387268e-01" purity="6.3799345493316650e-01" nType="-99"/>
        </Node>
        <Node pos="r" depth="1" NCoef="0" IVar="1" Cut="1.1432019042968750e+02" cType="1" res="-7.9134166240692139e-02" rms="4.4791412353515625e-01" purity="3.4104213118553162e-01" nType="0">
          <Node pos="l" depth="2" NCoef="0" IVar="-1" Cut="0.0000000000000000e+00" cType="1" res="-2.2298793774098158e-03" rms="4.3876957893371582e-01" purity="3.0667749047279358e-01" nType="-99"/>
          <Node pos="r" depth="2" NCoef="0" IVar="-1" Cut="0.0000000000000000e+00" cType="1" res="1.3162896502763033e-03" rms="4.6075510978698730e-01" purity="4.9465081095695496e-01" nType="-99"/>
        </Node>
      </Node>
    </BinaryTree>
    <BinaryTree type="DecisionTree" boostWeight="1.0000000000000000e+00" itree="137">
      <Node pos="s" depth="0" NCoef="0" IVar="2" Cut="1.4412481784820557e+00" cType="1" res="-4.2297996580600739e-02" rms="4.6247822046279907e-01" purity="4.6536660194396973e-01" nType="0">
        <Node pos="l" depth="1" NCoef="0" IVar="2" Cut="6.6138792037963867e-01" cType="1" res="-1.1661219410598278e-02" rms="4.7371536493301392e-01" purity="5.2278292179107666e-01" nType="0">
          <Node pos="l" depth="2" NCoef="0" IVar="-1" Cut="0.0000000000000000e+00" cType="1" res="1.5664078528061509e-03" rms="4.5070284605026245e-01" purity="6.5160369873046875e-01" nType="-99"/>
          <Node pos="r" depth="2" NCoef="0" IVar="-1" Cut="0.0000000000000000e+00" cType="1" res="-7.7248341403901577e-04" rms="4.7758528590202332e-01" purity="4.8260504007339478e-01" nType="-99"/>
        </Node>
        <Node pos="r" depth="1" NCoef="0" IVar="3" Cut="2.7317583560943604e+00" cType="1" res="-1.9683332741260529e-01" rms="3.6360102891921997e-01" purity="1.7575234174728394e-01" nType="0">
          <Node pos="l" depth="2" NCoef="0" IVar="-1" Cut="0.0000000000000000e+00" cType="1" res="-2.9714615084230900e-03" rms="4.0884801745414734e-01" purity="2.3579555749893188e-01" nType="-99"/>
          <Node pos="r" depth="2" NCoef="0" IVar="-1" Cut="0.0000000000000000e+00" cType="1" res="-5.6757065467536449e-03" rms="2.3344852030277252e-01" purity="6.0117229819297791e-02" nType="-99"/>
        </Node>
      </Node>
    </BinaryTree>
    <BinaryTree type="DecisionTree" boostWeight="1.0000000000000000e+00" itree="138">
      <Node pos="s" depth="0" NCoef="0" IVar="0" Cut="6.7117896080017090e+00" cType="1" res="1.8029641360044479e-02" rms="4.5685109496116638e-01" purity="5.2256923913955688e-01" nType="0">
        <Node pos="l" depth="1" NCoef="0" IVar="3" Cut="2.2777183055877686e+00" cType="1" res="-7.2375856339931488e-02" rms="4.5492276549339294e-01" purity="3.4411925077438354e-01" nType="0">
          <Node pos="l" depth="2" NCoef="0" IVar="-1" Cut="0.0000000000000000e+00" cType="1" res="-1.8884816381614655e-04" rms="4.8771685361862183e-01" purity="4.5001342892646790e-01" nType="-99"/>
          <Node pos="r" depth="2" NCoef="0" IVar="-1" Cut="0.0000000000000000e+00" cType="1" res="-3.3532988745719194e-03" rms="3.8103684782981873e-01" purity="1.8373154103755951e-01" nType="-99"/>
        </Node>
        <Node pos="r" depth="1" NCoef="0" IVar="3" Cut="2.5774564743041992e+00" cType="1" res="8.9920163154602051e-02" rms="4.4546997547149658e-01" purity="6.6447275876998901e-01" nType="0">
          <Node pos="l" depth="2" NCoef="0" IVar="-1" Cut="0.0000000000000000e+00" cType="1" res="2.6015120092779398e-03" rms="4.3866005539894104e-01" purity="7.1731430292129517e-01" nType="-99"/>
          <Node pos="r" depth="2" NCoef="0" IVar="-1" Cut="0.0000000000000000e+00" cType="1" res="-2.3242998868227005e-03" rms="4.4260895252227783e-01" purity="2.8117674589157104e-01" nType="-99"/>
        </Node>
      </Node>
    </BinaryTree>
    <BinaryTree type="DecisionTree" boostWeight="1.0000000000000000e+00" itree="139">
      <Node pos="s" depth="0" NCoef="0" IVar="2" Cut="9.3246603012084961e-01" cType="1" res="2.5070898700505495e-03" rms="4.5597934722900391e-01" purity="5.0645691156387329e-01" nType="0">
        <Node pos="l" depth="1" NCoef="0" IVar="1" Cut="4.6792205810546875e+01" cType="1" res="1.0469044744968414e-01" rms="4.4351729750633240e-01" purity="6.8671572208404541e-01" nType="0">
          <Node pos="l" depth="2" NCoef="0" IVar="-1" Cut="0.0000000000000000e+00" cType="1" res="-5.3385645151138306e-04" rms="4.7695636749267578e-01" purity="5.1769292354583740e-01" nType="-99"/>
          <Node pos="r" depth="2" NCoef="0" IVar="-1" Cut="0.0000000000000000e+00" cType="1" res="2.9489095322787762e-03" rms="4.2889016866683960e-01" purity="7.2815102338790894e-01" nType="-99"/>
        </Node>
        <Node pos="r" depth="1" NCoef="0" IVar="0" Cut="8.6148777008056641e+00" cType="1" res="-7.8960463404655457e-02" rms="4.4932460784912109e-01" purity="3.6274224519729614e-01" nType="0">
          <Node pos="l" depth="2" NCoef="0" IVar="-1" Cut="0.0000000000000000e+00" cType="1" res="-2.1483937744051218e-03" rms="4.4257569313049316e-01" purity="3.2136419415473938e-01" nType="-99"/>
          <Node pos="r" depth="2" NCoef="0" IVar="-1" Cut="0.0000000000000000e+00" cType="1" res="3.6123625468462706e-03" rms="4.3116161227226257e-01" purity="7.2747778892517090e-01" nType="-99"/>
        </Node>
      </Node>
    </BinaryTree>
    <BinaryTree type="DecisionTree" boostWeight="1.0000000000000000e+00" itree="140">
      <Node pos="s" depth="0" NCoef="0" IVar="0" Cut="5.3603868484497070e+00" cType="1" res="1.9626531749963760e-02" rms="4.6355026960372925e-01" purity="5.2895247936248779e-01" nType="0">
        <Node pos="l" depth="1" NCoef="0" IVar="2" Cut="1.1880476474761963e+00" cType="1" res="-1.3575607538223267e-01" rms="4.1739839315414429e-01" purity="2.3596605658531189e-01" nType="0">
          <Node pos="l" depth="2" NCoef="0" IVar="-1" Cut="0.0000000000000000e+00" cType="1" res="-3.0987509526312351e-03" rms="4.1612479090690613e-01" purity="2.3821841180324554e-01" nType="-99"/>
          <Node pos="r" depth="2" NCoef="0" IVar="-1" Cut="0.0000000000000000e+00" cType="1" res="-1.6267913160845637e-03" rms="4.1292387247085571e-01" purity="2.3233367502689362e-01" nType="-99"/>
        </Node>
        <Node pos="r" depth="1" NCoef="0" IVar="0" Cut="8.5465869903564453e+00" cType="1" res="4.4751916080713272e-02" rms="4.6574437618255615e-01" purity="5.7632845640182495e-01" nType="0">
          <Node pos="l" depth="2" NCoef="0" IVar="-1" Cut="0.0000000000000000e+00" cType="1" res="4.7064200043678284e-04" rms="4.7417211532592773e-01" purity="5.3631854057312012e-01" nType="-99"/>
          <Node pos="r" depth="2" NCoef="0" IVar="-1" Cut="0.0000000000000000e+00" cType="1" res="3.9244908839464188e-03" rms="3.9459127187728882e-01" purity="7.9852664470672607e-01" nType="-99"/>
        </Node>
      </Node>
    </BinaryTree>
    <BinaryTree type="DecisionTree" boostWeight="1.0000000000000000e+00" itree="141">
      <Node pos="s" depth="0" NCoef="0" IVar="2" Cut="1.3827867507934570e+00" cType="1" res="5.1338938064873219e-03" rms="4.6117454767227173e-01" purity="5.1255524158477783e-01" nType="0">
        <Node pos="l" depth="1" NCoef="0" IVar="1" Cut="9.8936958312988281e+01" cType="1" res="4.5453488826751709e-02" rms="4.6962755918502808e-01" purity="5.8454066514968872e-01" nType="0">
          <Node pos="l" depth="2" NCoef="0" IVar="-1" Cut="0.0000000000000000e+00" cType="1" res="1.0186096187680960e-04" rms="4.7405421733856201e-01" purity="5.3742772340774536e-01" nType="-99"/>
          <Node pos="r" depth="2" NCoef="0" IVar="-1" Cut="0.0000000000000000e+00" cType="1" res="3.1022261828184128e-03" rms="4.4370990991592407e-01" purity="6.9830644130706787e-01" nType="-99"/>
        </Node>
        <Node pos="r" depth="1" NCoef="0" IVar="3" Cut="2.6061804294586182e+00" cType="1" res="-1.6990301012992859e-01" rms="3.7527245283126831e-01" purity="2.0004945993423462e-01" nType="0">
          <Node pos="l" depth="2" NCoef="0" IVar="-1" Cut="0.0000000000000000e+00" cType="1" res="-2.2406247444450855e-03" rms="4.1372895240783691e-01" purity="2.7625352144241333e-01" nType="-99"/>
          <Node pos="r" depth="2" NCoef="0" IVar="-1" Cut="0.0000000000000000e+00" cType="1" res="-4.6388204209506512e-03" rms="3.2293283939361572e-01" purity="1.2450576573610306e-01" nType="-99"/>
        </Node>
      </Node>
    </BinaryTree>
    <BinaryTree type="DecisionTree" boostWeight="1.0000000000000000e+00" itree="142">
      <Node pos="s" depth="0" NCoef="0" IVar="6" Cut="2.8396072387695312e+02" cType="1" res="-3.8488169666379690e-03" rms="4.7030809521675110e-01" purity="5.0471371412277222e-01" nType="0">
        <Node pos="l" depth="1" NCoef="0" IVar="1" Cut="5.5694301605224609e+01" cType="1" res="-1.2865746021270752e-01" rms="4.2911377549171448e-01" purity="3.0562838912010193e-01" nType="0">
          <Node pos="l" depth="2" NCoef="0" IVar="-1" Cut="0.0000000000000000e+00" cType="1" res="-8.2978856517001987e-04" rms="4.4982960820198059e-01" purity="4.0905401110649109e-01" nType="-99"/>
          <Node pos="r" depth="2" NCoef="0" IVar="-1" Cut="0.0000000000000000e+00" cType="1" res="-4.5308535918593407e-03" rms="3.8136678934097290e-01" purity="1.9035919010639191e-01" nType="-99"/>
        </Node>
        <Node pos="r" depth="1" NCoef="0" IVar="5" Cut="2.1566665172576904e-01" cType="1" res="1.7544731497764587e-02" rms="4.7372233867645264e-01" purity="5.3883910179138184e-01" nType="0">
          <Node pos="l" depth="2" NCoef="0" IVar="-1" Cut="0.0000000000000000e+00" cType="1" res="-1.8385117873549461e-03" rms="4.5651733875274658e-01" purity="3.7507757544517517e-01" nType="-99"/>
          <Node pos="r" depth="2" NCoef="0" IVar="-1" Cut="0.0000000000000000e+00" cType="1" res="1.0200551478192210e-03" rms="4.7395879030227661e-01" purity="5.8514267206192017e-01" nType="-99"/>
        </Node>
      </Node>
    </BinaryTree>
    <BinaryTree type="DecisionTree" boostWeight="1.0000000000000000e+00" itree="143">
      <Node pos="s" depth="0" NCoef="0" IVar="0" Cut="8.7000322341918945e+00" cType="1" res="-1.1310088448226452e-02" rms="4.5805293321609497e-01" purity="4.8991855978965759e-01" nType="0">
        <Node pos="l" depth="1" NCoef="0" IVar="2" Cut="1.0204030275344849e+00" cType="1" res="-3.3962674438953400e-02" rms="4.6177414059638977e-01" purity="4.5420825481414795e-01" nType="0">
          <Node pos="l" depth="2" NCoef="0" IVar="-1" Cut="0.0000000000000000e+00" cType="1" res="5.2948563825339079e-04" rms="4.7082617878913879e-01" purity="5.8459109067916870e-01" nType="-99"/>
          <Node pos="r" depth="2" NCoef="0" IVar="-1" Cut="0.0000000000000000e+00" cType="1" res="-2.0035149063915014e-03" rms="4.4221824407577515e-01" purity="3.1000697612762451e-01" nType="-99"/>
        </Node>
        <Node pos="r" depth="1" NCoef="0" IVar="-1" Cut="0.0000000000000000e+00" cType="1" res="4.6024834737181664e-03" rms="3.5985243320465088e-01" purity="8.2025277614593506e-01" nType="-99"/>
      </Node>
    </BinaryTree>
    <BinaryTree type="DecisionTree" boostWeight="1.0000000000000000e+00" itree="144">
      <Node pos="s" depth="0" NCoef="0" IVar="0" Cut="8.4509468078613281e+00" cType="1" res="4.2953565716743469e-03" rms="4.5850712060928345e-01" purity="5.1061409711837769e-01" nType="0">
        <Node pos="l" depth="1" NCoef="0" IVar="2" Cut="7.1921366453170776e-01" cType="1" res="-2.7635104954242706e-02" rms="4.6481311321258545e-01" purity="4.5689570903778076e-01" nType="0">
          <Node pos="l" depth="2" NCoef="0" IVar="-1" Cut="0.0000000000000000e+00" cType="1" res="1.8756249919533730e-03" rms="4.5107787847518921e-01" purity="6.6349881887435913e-01" nType="-99"/>
          <Node pos="r" depth="2" NCoef="0" IVar="-1" Cut="0.0000000000000000e+00" cType="1" res="-1.3820115709677339e-03" rms="4.6235600113868713e-01" purity="3.8494294881820679e-01" nType="-99"/>
        </Node>
        <Node pos="r" depth="1" NCoef="0" IVar="3" Cut="2.1754300594329834e+00" cType="1" res="1.8659999966621399e-01" rms="3.7138918042182922e-01" purity="8.1731545925140381e-01" nType="0">
          <Node pos="l" depth="2" NCoef="0" IVar="-1" Cut="0.0000000000000000e+00" cType="1" res="5.1216380670666695e-03" rms="3.2136097550392151e-01" purity="8.8373768329620361e-01" nType="-99"/>
          <Node pos="r" depth="2" NCoef="0" IVar="-1" Cut="0.0000000000000000e+00" cType="1" res="3.3695152960717678e-03" rms="4.2888224124908447e-01" purity="7.2561156749725342e-01" nType="-99"/>
        </Node>
      </Node>
    </BinaryTree>
    <BinaryTree type="DecisionTree" boostWeight="1.0000000000000000e+00" itree="145">
      <Node pos="s" depth="0" NCoef="0" IVar="0" Cut="5.8715515136718750e+00" cType="1" res="-2.0970094949007034e-02" rms="4.5959573984146118e-01" purity="4.8382905125617981e-01" nType="0">
        <Node pos="l" depth="1" NCoef="0" IVar="2" Cut="8.6521339416503906e-01" cType="1" res="-1.2143026292324066e-01" rms="4.2044839262962341e-01" purity="2.5844290852546692e-01" nType="0">
          <Node pos="l" depth="2" NCoef="0" IVar="-1" Cut="0.0000000000000000e+00" cType="1" res="-2.3492469335906208e-04" rms="4.9376946687698364e-01" purity="4.4200941920280457e-01" nType="-99"/>
          <Node pos="r" depth="2" NCoef="0" IVar="-1" Cut="0.0000000000000000e+00" cType="1" res="-3.4367225598543882e-03" rms="3.6833599209785461e-01" purity="1.6904196143150330e-01" nType="-99"/>
        </Node>
        <Node pos="r" depth="1" NCoef="0" IVar="1" Cut="4.5268272399902344e+01" cType="1" res="1.2831230647861958e-02" rms="4.6720629930496216e-01" purity="5.5966359376907349e-01" nType="0">
          <Node pos="l" depth="2" NCoef="0" IVar="-1" Cut="0.0000000000000000e+00" cType="1" res="-2.5357713457196951e-03" rms="4.6692526340484619e-01" purity="4.2066890001296997e-01" nType="-99"/>
          <Node pos="r" depth="2" NCoef="0" IVar="-1" Cut="0.0000000000000000e+00" cType="1" res="7.9700362402945757e-04" rms="4.6296542882919312e-01" purity="5.8490908145904541e-01" nType="-99"/>
        </Node>
      </Node>
    </BinaryTree>
    <BinaryTree type="DecisionTree" boostWeight="1.0000000000000000e+00" itree="146">
      <Node pos="s" depth="0" NCoef="0" IVar="5" Cut="6.2147617340087891e-01" cType="1" res="5.1138916751369834e-04" rms="4.5895302295684814e-01" purity="5.0659751892089844e-01" nType="0">
        <Node pos="l" depth="1" NCoef="0" IVar="3" Cut="2.3473992347717285e+00" cType="1" res="-2.8064506128430367e-02" rms="4.5922541618347168e-01" purity="4.7138103842735291e-01" nType="0">
          <Node pos="l" depth="2" NCoef="0" IVar="-1" Cut="0.0000000000000000e+00" cType="1" res="2.0409892022144049e-04" rms="4.7058555483818054e-01" purity="5.5388039350509644e-01" nType="-99"/>
          <Node pos="r" depth="2" NCoef="0" IVar="-1" Cut="0.0000000000000000e+00" cType="1" res="-2.5926129892468452e-03" rms="4.1083136200904846e-01" purity="2.5222295522689819e-01" nType="-99"/>
        </Node>
        <Node pos="r" depth="1" NCoef="0" IVar="1" Cut="6.5375762939453125e+01" cType="1" res="1.7523942887783051e-01" rms="4.1663631796836853e-01" purity="7.2192972898483276e-01" nType="0">
          <Node pos="l" depth="2" NCoef="0" IVar="-1" Cut="0.0000000000000000e+00" cType="1" res="2.2432575933635235e-03" rms="4.3275558948516846e-01" purity="6.4886540174484253e-01" nType="-99"/>
          <Node pos="r" depth="2" NCoef="0" IVar="-1" Cut="0.0000000000000000e+00" cType="1" res="4.8631019890308380e-03" rms="3.9827117323875427e-01" purity="7.7248996496200562e-01" nType="-99"/>
        </Node>
      </Node>
    </BinaryTree>
    <BinaryTree type="DecisionTree" boostWeight="1.0000000000000000e+00" itree="147">
      <Node pos="s" depth="0" NCoef="0" IVar="2" Cut="8.4305304288864136e-01" cType="1" res="8.7075124611146748e-05" rms="4.6648868918418884e-01" purity="5.1110154390335083e-01" nType="0">
        <Node pos="l" depth="1" NCoef="0" IVar="4" Cut="9.7945434570312500e+01" cType="1" res="8.5961177945137024e-02" rms="4.5604321360588074e-01" purity="6.7889004945755005e-01" nType="0">
          <Node pos="l" depth="2" NCoef="0" IVar="-1" Cut="0.0000000000000000e+00" cType="1" res="3.6761525552719831e-03" rms="4.1485384106636047e-01" purity="7.6580560207366943e-01" nType="-99"/>
          <Node pos="r" depth="2" NCoef="0" IVar="-1" Cut="0.0000000000000000e+00" cType="1" res="1.2955088459420949e-04" rms="4.8120748996734619e-01" purity="5.9098660945892334e-01" nType="-99"/>
        </Node>
        <Node pos="r" depth="1" NCoef="0" IVar="5" Cut="5.4300349950790405e-01" cType="1" res="-5.1201507449150085e-02" rms="4.6511515974998474e-01" purity="4.1088932752609253e-01" nType="0">
          <Node pos="l" depth="2" NCoef="0" IVar="-1" Cut="0.0000000000000000e+00" cType="1" res="-1.6399554442614317e-03" rms="4.6035724878311157e-01" purity="3.7468114495277405e-01" nType="-99"/>
          <Node pos="r" depth="2" NCoef="0" IVar="-1" Cut="0.0000000000000000e+00" cType="1" res="1.5821328852325678e-03" rms="4.6563658118247986e-01" purity="5.7582950592041016e-01" nType="-99"/>
        </Node>
      </Node>
    </BinaryTree>
    <BinaryTree type="DecisionTree" boostWeight="1.0000000000000000e+00" itree="148">
      <Node pos="s" depth="0" NCoef="0" IVar="2" Cut="1.1989266872406006e+00" cType="1" res="7.2449552826583385e-03" rms="4.6618536114692688e-01" purity="5.1846802234649658e-01" nType="0">
        <Node pos="l" depth="1" NCoef="0" IVar="1" Cut="7.1264984130859375e+01" cType="1" res="4.5284878462553024e-02" rms="4.7033816576004028e-01" purity="6.0067176818847656e-01" nType="0">
          <Node pos="l" depth="2" NCoef="0" IVar="-1" Cut="0.0000000000000000e+00" cType="1" res="-2.7783657424151897e-04" rms="4.8193868994712830e-01" purity="5.2486610412597656e-01" nType="-99"/>
          <Node pos="r" depth="2" NCoef="0" IVar="-1" Cut="0.0000000000000000e+00" cType="1" res="2.4210810661315918e-03" rms="4.4695368409156799e-01" purity="6.8822294473648071e-01" nType="-99"/>
        </Node>
        <Node pos="r" depth="1" NCoef="0" IVar="6" Cut="4.5077581787109375e+02" cType="1" res="-9.3796320259571075e-02" rms="4.3925553560256958e-01" purity="3.0011916160583496e-01" nType="0">
          <Node pos="l" depth="2" NCoef="0" IVar="-1" Cut="0.0000000000000000e+00" cType="1" res="-3.0713581945747137e-03" rms="4.0568438172340393e-01" purity="2.3467037081718445e-01" nType="-99"/>
          <Node pos="r" depth="2" NCoef="0" IVar="-1" Cut="0.0000000000000000e+00" cType="1" res="1.4252540422603488e-03" rms="4.8878246545791626e-01" purity="4.8966288566589355e-01" nType="-99"/>
        </Node>
      </Node>
    </BinaryTree>
    <BinaryTree type="DecisionTree" boostWeight="1.0000000000000000e+00" itree="149">
      <Node pos="s" depth="0" NCoef="0" IVar="0" Cut="8.6011095046997070e+00" cType="1" res="-2.7036374434828758e-02" rms="4.5746898651123047e-01" purity="4.7453138232231140e-01" nType="0">
        <Node pos="l" depth="1" NCoef="0" IVar="3" Cut="2.1454524993896484e+00" cType="1" res="-5.3665976971387863e-02" rms="4.5935615897178650e-01" purity="4.2827919125556946e-01" nType="0">
          <Node pos="l" depth="2" NCoef="0" IVar="-1" Cut="0.0000000000000000e+00" cType="1" res="4.4331248500384390e-04" rms="4.7185799479484558e-01" purity="5.5983489751815796e-01" nType="-99"/>
          <Node pos="r" depth="2" NCoef="0" IVar="-1" Cut="0.0000000000000000e+00" cType="1" res="-2.4067133199423552e-03" rms="4.3805536627769470e-01" purity="3.1501400470733643e-01" nType="-99"/>
        </Node>
        <Node pos="r" depth="1" NCoef="0" IVar="1" Cut="9.1772857666015625e+01" cType="1" res="1.4944729208946228e-01" rms="4.0244862437248230e-01" purity="7.8106087446212769e-01" nType="0">
          <Node pos="l" depth="2" NCoef="0" IVar="-1" Cut="0.0000000000000000e+00" cType="1" res="1.0643921559676528e-03" rms="4.5078793168067932e-01" purity="6.7834204435348511e-01" nType="-99"/>
          <Node pos="r" depth="2" NCoef="0" IVar="-1" Cut="0.0000000000000000e+00" cType="1" res="6.0544083826243877e-03" rms="3.1402954459190369e-01" purity="8.8492286205291748e-01" nType="-99"/>
        </Node>
      </Node>
    </BinaryTree>
    <BinaryTree type="DecisionTree" boostWeight="1.0000000000000000e+00" itree="150">
      <Node pos="s" depth="0" NCoef="0" IVar="0" Cut="5.7269172668457031e+00" cType="1" res="-2.4363355711102486e-02" rms="4.6165016293525696e-01" purity="4.8148724436759949e-01" nType="0">
        <Node pos="l" depth="1" NCoef="0" IVar="0" Cut="5.3703336715698242e+00" cType="1" res="-1.3468818366527557e-01" rms="4.1616529226303101e-01" purity="2.3916889727115631e-01" nType="0">
          <Node pos="l" depth="2" NCoef="0" IVar="-1" Cut="0.0000000000000000e+00" cType="1" res="-3.4266412258148193e-03" rms="3.7935492396354675e-01" purity="1.8414728343486786e-01" nType="-99"/>
          <Node pos="r" depth="2" NCoef="0" IVar="-1" Cut="0.0000000000000000e+00" cType="1" res="-1.2534057023003697e-03" rms="4.6425431966781616e-01" purity="3.3310052752494812e-01" nType="-99"/>
        </Node>
        <Node pos="r" depth="1" NCoef="0" IVar="2" Cut="9.4937300682067871e-01" cType="1" res="7.0354505442082882e-03" rms="4.6907818317413330e-01" purity="5.5045187473297119e-01" nType="0">
          <Node pos="l" depth="2" NCoef="0" IVar="-1" Cut="0.0000000000000000e+00" cType="1" res="1.4938187086954713e-03" rms="4.5776233077049255e-01" purity="6.7474842071533203e-01" nType="-99"/>
          <Node pos="r" depth="2" NCoef="0" IVar="-1" Cut="0.0000000000000000e+00" cType="1" res="-1.2018422130495310e-03" rms="4.7196394205093384e-01" purity="4.2014175653457642e-01" nType="-99"/>
        </Node>
      </Node>
    </BinaryTree>
    <BinaryTree type="DecisionTree" boostWeight="1.0000000000000000e+00" itree="151">
      <Node pos="s" depth="0" NCoef="0" IVar="3" Cut="2.7470901012420654e+00" cType="1" res="-2.1764209493994713e-02" rms="4.5966503024101257e-01" purity="4.8448002338409424e-01" nType="0">
        <Node pos="l" depth="1" NCoef="0" IVar="0" Cut="5.5543160438537598e+00" cType="1" res="-6.2188394367694855e-03" rms="4.6691825985908508e-01" purity="5.1253885030746460e-01" nType="0">
          <Node pos="l" depth="2" NCoef="0" IVar="-1" Cut="0.0000000000000000e+00" cType="1" res="-2.5579940993338823e-03" rms="4.1765731573104858e-01" purity="2.3594321310520172e-01" nType="-99"/>
          <Node pos="r" depth="2" NCoef="0" IVar="-1" Cut="0.0000000000000000e+00" cType="1" res="4.1564131970517337e-04" rms="4.7214615345001221e-01" purity="5.6887727975845337e-01" nType="-99"/>
        </Node>
        <Node pos="r" depth="1" NCoef="0" IVar="-1" Cut="0.0000000000000000e+00" cType="1" res="-5.3371316753327847e-03" rms="2.0720665156841278e-01" purity="4.4956441968679428e-02" nType="-99"/>
      </Node>
    </BinaryTree>
    <BinaryTree type="DecisionTree" boostWeight="1.0000000000000000e+00" itree="152">
      <Node pos="s" depth="0" NCoef="0" IVar="0" Cut="5.6223158836364746e+00" cType="1" res="-4.0149111300706863e-03" rms="4.6917024254798889e-01" purity="4.9552929401397705e-01" nType="0">
        <Node pos="l" depth="1" NCoef="0" IVar="6" Cut="2.9649328613281250e+02" cType="1" res="-1.0702888667583466e-01" rms="4.2998516559600830e-01" purity="2.6857236027717590e-01" nType="0">
          <Node pos="l" depth="2" NCoef="0" IVar="-1" Cut="0.0000000000000000e+00" cType="1" res="-4.2623537592589855e-03" rms="3.1782999634742737e-01" purity="1.2608370184898376e-01" nType="-99"/>
          <Node pos="r" depth="2" NCoef="0" IVar="-1" Cut="0.0000000000000000e+00" cType="1" res="-1.1475083883851767e-03" rms="4.5745593309402466e-01" purity="3.2341971993446350e-01" nType="-99"/>
        </Node>
        <Node pos="r" depth="1" NCoef="0" IVar="1" Cut="6.6726890563964844e+01" cType="1" res="2.5774093344807625e-02" rms="4.7576600313186646e-01" purity="5.6115943193435669e-01" nType="0">
          <Node pos="l" depth="2" NCoef="0" IVar="-1" Cut="0.0000000000000000e+00" cType="1" res="-6.1901513254269958e-04" rms="4.8457133769989014e-01" purity="5.1303815841674805e-01" nType="-99"/>
          <Node pos="r" depth="2" NCoef="0" IVar="-1" Cut="0.0000000000000000e+00" cType="1" res="1.3931324938312173e-03" rms="4.6542865037918091e-01" purity="5.9532064199447632e-01" nType="-99"/>
        </Node>
      </Node>
    </BinaryTree>
    <BinaryTree type="DecisionTree" boostWeight="1.0000000000000000e+00" itree="153">
      <Node pos="s" depth="0" NCoef="0" IVar="0" Cut="7.6689357757568359e+00" cType="1" res="2.2840844467282295e-02" rms="4.6120220422744751e-01" purity="5.1738709211349487e-01" nType="0">
        <Node pos="l" depth="1" NCoef="0" IVar="2" Cut="1.0204985141754150e+00" cType="1" res="-1.6693495213985443e-02" rms="4.6783414483070374e-01" purity="4.3011394143104553e-01" nType="0">
          <Node pos="l" depth="2" NCoef="0" IVar="-1" Cut="0.0000000000000000e+00" cType="1" res="8.3782168803736567e-04" rms="4.8461523652076721e-01" purity="5.6487470865249634e-01" nType="-99"/>
          <Node pos="r" depth="2" NCoef="0" IVar="-1" Cut="0.0000000000000000e+00" cType="1" res="-1.5209062257781625e-03" rms="4.4348281621932983e-01" purity="2.9924815893173218e-01" nType="-99"/>
        </Node>
        <Node pos="r" depth="1" NCoef="0" IVar="0" Cut="8.5102777481079102e+00" cType="1" res="1.1991349607706070e-01" rms="4.2932295799255371e-01" purity="7.3167771100997925e-01" nType="0">
          <Node pos="l" depth="2" NCoef="0" IVar="-1" Cut="0.0000000000000000e+00" cType="1" res="1.3097435003146529e-03" rms="4.6614629030227661e-01" purity="6.4686995744705200e-01" nType="-99"/>
          <Node pos="r" depth="2" NCoef="0" IVar="-1" Cut="0.0000000000000000e+00" cType="1" res="4.1685546748340130e-03" rms="3.8080793619155884e-01" purity="8.1409037113189697e-01" nType="-99"/>
        </Node>
      </Node>
    </BinaryTree>
    <BinaryTree type="DecisionTree" boostWeight="1.0000000000000000e+00" itree="154">
      <Node pos="s" depth="0" NCoef="0" IVar="0" Cut="6.0541296005249023e+00" cType="1" res="-1.9214550266042352e-03" rms="4.5861211419105530e-01" purity="5.0871789455413818e-01" nType="0">
        <Node pos="l" depth="1" NCoef="0" IVar="2" Cut="7.6626688241958618e-01" cType="1" res="-1.0234583169221878e-01" rms="4.3368899822235107e-01" purity="2.8454706072807312e-01" nType="0">
          <Node pos="l" depth="2" NCoef="0" IVar="-1" Cut="0.0000000000000000e+00" cType="1" res="1.3260530249681324e-04" rms="4.9135920405387878e-01" purity="4.7350654006004333e-01" nType="-99"/>
          <Node pos="r" depth="2" NCoef="0" IVar="-1" Cut="0.0000000000000000e+00" cType="1" res="-2.7259769849479198e-03" rms="4.0754231810569763e-01" purity="2.2445800900459290e-01" nType="-99"/>
        </Node>
        <Node pos="r" depth="1" NCoef="0" IVar="1" Cut="4.2909584045410156e+01" cType="1" res="3.9213091135025024e-02" rms="4.6218106150627136e-01" purity="6.0053980350494385e-01" nType="0">
          <Node pos="l" depth="2" NCoef="0" IVar="-1" Cut="0.0000000000000000e+00" cType="1" res="-3.6169572267681360e-03" rms="4.6553140878677368e-01" purity="3.7172719836235046e-01" nType="-99"/>
          <Node pos="r" depth="2" NCoef="0" IVar="-1" Cut="0.0000000000000000e+00" cType="1" res="1.3085409300401807e-03" rms="4.5598423480987549e-01" purity="6.2443870306015015e-01" nType="-99"/>
        </Node>
      </Node>
    </BinaryTree>
    <BinaryTree type="DecisionTree" boostWeight="1.0000000000000000e+00" itree="155">
      <Node pos="s" depth="0" NCoef="0" IVar="1" Cut="5.0946247100830078e+01" cType="1" res="-1.5074199065566063e-02" rms="4.6799415349960327e-01" purity="4.8498579859733582e-01" nType="0">
        <Node pos="l" depth="1" NCoef="0" IVar="2" Cut="1.1822922229766846e+00" cType="1" res="-1.0927893966436386e-01" rms="4.5201060175895691e-01" purity="3.8093742728233337e-01" nType="0">
          <Node pos="l" depth="2" NCoef="0" IVar="-1" Cut="0.0000000000000000e+00" cType="1" res="-1.0254061780869961e-03" rms="4.8500260710716248e-01" purity="4.8745685815811157e-01" nType="-99"/>
          <Node pos="r" depth="2" NCoef="0" IVar="-1" Cut="0.0000000000000000e+00" cType="1" res="-5.1186745986342430e-03" rms="3.0686804652214050e-01" purity="1.0952849686145782e-01" nType="-99"/>
        </Node>
        <Node pos="r" depth="1" NCoef="0" IVar="2" Cut="1.0658984184265137e+00" cType="1" res="1.1633408255875111e-02" rms="4.6899700164794922e-01" purity="5.1448416709899902e-01" nType="0">
          <Node pos="l" depth="2" NCoef="0" IVar="-1" Cut="0.0000000000000000e+00" cType="1" res="9.1341318329796195e-04" rms="4.6973040699958801e-01" purity="6.2399697303771973e-01" nType="-99"/>
          <Node pos="r" depth="2" NCoef="0" IVar="-1" Cut="0.0000000000000000e+00" cType="1" res="-5.8138964232057333e-04" rms="4.6503356099128723e-01" purity="3.7786808609962463e-01" nType="-99"/>
        </Node>
      </Node>
    </BinaryTree>
    <BinaryTree type="DecisionTree" boostWeight="1.0000000000000000e+00" itree="156">
      <Node pos="s" depth="0" NCoef="0" IVar="0" Cut="6.3217177391052246e+00" cType="1" res="1.3819094747304916e-02" rms="4.5977383852005005e-01" purity="5.1687639951705933e-01" nType="0">
        <Node pos="l" depth="1" NCoef="0" IVar="4" Cut="1.1475798034667969e+02" cType="1" res="-6.7702554166316986e-02" rms="4.5743462443351746e-01" purity="3.3365237712860107e-01" nType="0">
          <Node pos="l" depth="2" NCoef="0" IVar="-1" Cut="0.0000000000000000e+00" cType="1" res="-5.3296377882361412e-04" rms="4.6667978167533875e-01" purity="3.7329328060150146e-01" nType="-99"/>
          <Node pos="r" depth="2" NCoef="0" IVar="-1" Cut="0.0000000000000000e+00" cType="1" res="-2.5614008773118258e-03" rms="4.3475016951560974e-01" purity="2.7071475982666016e-01" nType="-99"/>
        </Node>
        <Node pos="r" depth="1" NCoef="0" IVar="0" Cut="8.4360151290893555e+00" cType="1" res="5.9184312820434570e-02" rms="4.5478531718254089e-01" purity="6.1883699893951416e-01" nType="0">
          <Node pos="l" depth="2" NCoef="0" IVar="-1" Cut="0.0000000000000000e+00" cType="1" res="4.4016150059178472e-04" rms="4.7064957022666931e-01" purity="5.5545485019683838e-01" nType="-99"/>
          <Node pos="r" depth="2" NCoef="0" IVar="-1" Cut="0.0000000000000000e+00" cType="1" res="4.1130403988063335e-03" rms="3.7998166680335999e-01" purity="8.1147378683090210e-01" nType="-99"/>
        </Node>
      </Node>
    </BinaryTree>
    <BinaryTree type="DecisionTree" boostWeight="1.0000000000000000e+00" itree="157">
      <Node pos="s" depth="0" NCoef="0" IVar="1" Cut="9.1730728149414062e+01" cType="1" res="-1.4561628922820091e-03" rms="4.6648311614990234e-01" purity="5.0634098052978516e-01" nType="0">
        <Node pos="l" depth="1" NCoef="0" IVar="0" Cut="5.2867488861083984e+00" cType="1" res="-3.7663049995899200e-02" rms="4.6763822436332703e-01" purity="4.6444076299667358e-01" nType="0">
          <Node pos="l" depth="2" NCoef="0" IVar="-1" Cut="0.0000000000000000e+00" cType="1" res="-3.4100832417607307e-03" rms="3.7987846136093140e-01" purity="1.8512786924839020e-01" nType="-99"/>
          <Node pos="r" depth="2" NCoef="0" IVar="-1" Cut="0.0000000000000000e+00" cType="1" res="-3.0733179301023483e-04" rms="4.7656798362731934e-01" purity="5.0994700193405151e-01" nType="-99"/>
        </Node>
        <Node pos="r" depth="1" NCoef="0" IVar="2" Cut="1.1424282789230347e+00" cType="1" res="6.4789459109306335e-02" rms="4.5699596405029297e-01" purity="5.8300346136093140e-01" nType="0">
          <Node pos="l" depth="2" NCoef="0" IVar="-1" Cut="0.0000000000000000e+00" cType="1" res="2.4667545221745968e-03" rms="4.4476616382598877e-01" purity="7.0113837718963623e-01" nType="-99"/>
          <Node pos="r" depth="2" NCoef="0" IVar="-1" Cut="0.0000000000000000e+00" cType="1" res="-1.8191435083281249e-04" rms="4.6531802415847778e-01" purity="4.0415036678314209e-01" nType="-99"/>
        </Node>
      </Node>
    </BinaryTree>
    <BinaryTree type="DecisionTree" boostWeight="1.0000000000000000e+00" itree="158">
      <Node pos="s" depth="0" NCoef="0" IVar="0" Cut="5.8994016647338867e+00" cType="1" res="-3.1578298658132553e-02" rms="4.5976877212524414e-01" purity="4.7259217500686646e-01" nType="0">
        <Node pos="l" depth="1" NCoef="0" IVar="0" Cut="5.7125124931335449e+00" cType="1" res="-1.4028897881507874e-01" rms="4.1273078322410583e-01" purity="2.3959572613239288e-01" nType="0">
          <Node pos="l" depth="2" NCoef="0" IVar="-1" Cut="0.0000000000000000e+00" cType="1" res="-3.4545906819403172e-03" rms="3.7960729002952576e-01" purity="1.8534095585346222e-01" nType="-99"/>
          <Node pos="r" depth="2" NCoef="0" IVar="-1" Cut="0.0000000000000000e+00" cType="1" res="9.0857478789985180e-04" rms="4.9482172727584839e-01" purity="4.8276898264884949e-01" nType="-99"/>
        </Node>
        <Node pos="r" depth="1" NCoef="0" IVar="3" Cut="2.1290371417999268e+00" cType="1" res="9.4786072149872780e-03" rms="4.6982783079147339e-01" purity="5.6058824062347412e-01" nType="0">
          <Node pos="l" depth="2" NCoef="0" IVar="-1" Cut="0.0000000000000000e+00" cType="1" res="1.4822436496615410e-03" rms="4.6009978652000427e-01" purity="6.6978359222412109e-01" nType="-99"/>
          <Node pos="r" depth="2" NCoef="0" IVar="-1" Cut="0.0000000000000000e+00" cType="1" res="-1.0088931303471327e-03" rms="4.7196081280708313e-01" purity="4.5240974426269531e-01" nType="-99"/>
        </Node>
      </Node>
    </BinaryTree>
    <BinaryTree type="DecisionTree" boostWeight="1.0000000000000000e+00" itree="159">
      <Node pos="s" depth="0" NCoef="0" IVar="0" Cut="8.1021032333374023e+00" cType="1" res="4.4905720278620720e-03" rms="4.6150240302085876e-01" purity="4.9959239363670349e-01" nType="0">
        <Node pos="l" depth="1" NCoef="0" IVar="0" Cut="5.6212401390075684e+00" cType="1" res="-2.7514249086380005e-02" rms="4.6779155731201172e-01" purity="4.3443310260772705e-01" nType="0">
          <Node pos="l" depth="2" NCoef="0" IVar="-1" Cut="0.0000000000000000e+00" cType="1" res="-2.4482412263751030e-03" rms="4.1395333409309387e-01" purity="2.3488703370094299e-01" nType="-99"/>
          <Node pos="r" depth="2" NCoef="0" IVar="-1" Cut="0.0000000000000000e+00" cType="1" res="1.2248635175637901e-04" rms="4.8025780916213989e-01" purity="5.0266098976135254e-01" nType="-99"/>
        </Node>
        <Node pos="r" depth="1" NCoef="0" IVar="0" Cut="8.9934129714965820e+00" cType="1" res="1.4411641657352448e-01" rms="4.0437984466552734e-01" purity="7.8385955095291138e-01" nType="0">
          <Node pos="l" depth="2" NCoef="0" IVar="-1" Cut="0.0000000000000000e+00" cType="1" res="4.8862458206713200e-03" rms="3.5712966322898865e-01" purity="8.3344435691833496e-01" nType="-99"/>
          <Node pos="r" depth="2" NCoef="0" IVar="-1" Cut="0.0000000000000000e+00" cType="1" res="1.9873767159879208e-03" rms="4.4029888510704041e-01" purity="7.3181563615798950e-01" nType="-99"/>
        </Node>
      </Node>
    </BinaryTree>
    <BinaryTree type="DecisionTree" boostWeight="1.0000000000000000e+00" itree="160">
      <Node pos="s" depth="0" NCoef="0" IVar="1" Cut="6.5873649597167969e+01" cType="1" res="1.0795450769364834e-02" rms="4.5785564184188843e-01" purity="5.1859605312347412e-01" nType="0">
        <Node pos="l" depth="1" NCoef="0" IVar="2" Cut="9.7900390625000000e-01" cType="1" res="-6.4100317656993866e-02" rms="4.6248692274093628e-01" purity="4.3662375211715698e-01" nType="0">
          <Node pos="l" depth="2" NCoef="0" IVar="-1" Cut="0.0000000000000000e+00" cType="1" res="-2.4137512809829786e-05" rms="4.8209580779075623e-01" purity="5.5277532339096069e-01" nType="-99"/>
          <Node pos="r" depth="2" NCoef="0" IVar="-1" Cut="0.0000000000000000e+00" cType="1" res="-2.9362991917878389e-03" rms="4.1977193951606750e-01" purity="2.7938207983970642e-01" nType="-99"/>
        </Node>
        <Node pos="r" depth="1" NCoef="0" IVar="3" Cut="2.4223587512969971e+00" cType="1" res="6.4896874129772186e-02" rms="4.4673693180084229e-01" purity="5.7780933380126953e-01" nType="0">
          <Node pos="l" depth="2" NCoef="0" IVar="-1" Cut="0.0000000000000000e+00" cType="1" res="2.4525274056941271e-03" rms="4.3800106644630432e-01" purity="6.7686724662780762e-01" nType="-99"/>
          <Node pos="r" depth="2" NCoef="0" IVar="-1" Cut="0.0000000000000000e+00" cType="1" res="-1.4686962822452188e-03" rms="4.4159987568855286e-01" purity="3.0741271376609802e-01" nType="-99"/>
        </Node>
      </Node>
    </BinaryTree>
    <BinaryTree type="DecisionTree" boostWeight="1.0000000000000000e+00" itree="161">
      <Node pos="s" depth="0" NCoef="0" IVar="3" Cut="2.2562112808227539e+00" cType="1" res="2.8420609305612743e-04" rms="4.6316853165626526e-01" purity="4.9910366535186768e-01" nType="0">
        <Node pos="l" depth="1" NCoef="0" IVar="2" Cut="5.5104869604110718e-01" cType="1" res="5.6565165519714355e-02" rms="4.6901601552963257e-01" purity="6.0658282041549683e-01" nType="0">
          <Node pos="l" depth="2" NCoef="0" IVar="-1" Cut="0.0000000000000000e+00" cType="1" res="3.6581603344529867e-03" rms="4.0990531444549561e-01" purity="7.6141399145126343e-01" nType="-99"/>
          <Node pos="r" depth="2" NCoef="0" IVar="-1" Cut="0.0000000000000000e+00" cType="1" res="7.2936853393912315e-04" rms="4.7725206613540649e-01" purity="5.7527124881744385e-01" nType="-99"/>
        </Node>
        <Node pos="r" depth="1" NCoef="0" IVar="3" Cut="2.6505570411682129e+00" cType="1" res="-8.9516952633857727e-02" rms="4.3898665904998779e-01" purity="3.2761120796203613e-01" nType="0">
          <Node pos="l" depth="2" NCoef="0" IVar="-1" Cut="0.0000000000000000e+00" cType="1" res="-1.0814805282279849e-03" rms="4.6608072519302368e-01" purity="3.9216631650924683e-01" nType="-99"/>
          <Node pos="r" depth="2" NCoef="0" IVar="-1" Cut="0.0000000000000000e+00" cType="1" res="-4.6868110075592995e-03" rms="2.9673844575881958e-01" purity="1.0651371628046036e-01" nType="-99"/>
        </Node>
      </Node>
    </BinaryTree>
    <BinaryTree type="DecisionTree" boostWeight="1.0000000000000000e+00" itree="162">
      <Node pos="s" depth="0" NCoef="0" IVar="1" Cut="8.3198890686035156e+01" cType="1" res="1.0888000251725316e-03" rms="4.6275937557220459e-01" purity="5.0076830387115479e-01" nType="0">
        <Node pos="l" depth="1" NCoef="0" IVar="5" Cut="2.1719525754451752e-01" cType="1" res="-5.5870316922664642e-02" rms="4.5963904261589050e-01" purity="4.3910345435142517e-01" nType="0">
          <Node pos="l" depth="2" NCoef="0" IVar="-1" Cut="0.0000000000000000e+00" cType="1" res="-3.7895024288445711e-03" rms="3.8543567061424255e-01" purity="2.3452296853065491e-01" nType="-99"/>
          <Node pos="r" depth="2" NCoef="0" IVar="-1" Cut="0.0000000000000000e+00" cType="1" res="-4.4340119347907603e-04" rms="4.7032833099365234e-01" purity="4.9051314592361450e-01" nType="-99"/>
        </Node>
        <Node pos="r" depth="1" NCoef="0" IVar="3" Cut="2.4254305362701416e+00" cType="1" res="7.7217571437358856e-02" rms="4.5591810345649719e-01" purity="5.8318650722503662e-01" nType="0">
          <Node pos="l" depth="2" NCoef="0" IVar="-1" Cut="0.0000000000000000e+00" cType="1" res="2.6038093492388725e-03" rms="4.4851377606391907e-01" purity="6.7846757173538208e-01" nType="-99"/>
          <Node pos="r" depth="2" NCoef="0" IVar="-1" Cut="0.0000000000000000e+00" cType="1" res="-9.5240783412009478e-04" rms="4.5341241359710693e-01" purity="3.2426646351814270e-01" nType="-99"/>
        </Node>
      </Node>
    </BinaryTree>
    <BinaryTree type="DecisionTree" boostWeight="1.0000000000000000e+00" itree="163">
      <Node pos="s" depth="0" NCoef="0" IVar="0" Cut="6.4999570846557617e+00" cType="1" res="-4.5627714134752750e-03" rms="4.6172982454299927e-01" purity="4.9861282110214233e-01" nType="0">
        <Node pos="l" depth="1" NCoef="0" IVar="5" Cut="6.1133438348770142e-01" cType="1" res="-7.8953728079795837e-02" rms="4.5184344053268433e-01" purity="3.2781523466110229e-01" nType="0">
          <Node pos="l" depth="2" NCoef="0" IVar="-1" Cut="0.0000000000000000e+00" cType="1" res="-2.1214110311120749e-03" rms="4.3833816051483154e-01" purity="2.9327696561813354e-01" nType="-99"/>
          <Node pos="r" depth="2" NCoef="0" IVar="-1" Cut="0.0000000000000000e+00" cType="1" res="2.5964977685362101e-03" rms="4.8947864770889282e-01" purity="5.7038909196853638e-01" nType="-99"/>
        </Node>
        <Node pos="r" depth="1" NCoef="0" IVar="2" Cut="5.3725540637969971e-01" cType="1" res="5.1438532769680023e-02" rms="4.6118485927581787e-01" purity="6.2718874216079712e-01" nType="0">
          <Node pos="l" depth="2" NCoef="0" IVar="-1" Cut="0.0000000000000000e+00" cType="1" res="5.4705538786947727e-03" rms="3.1631681323051453e-01" purity="8.8959926366806030e-01" nType="-99"/>
          <Node pos="r" depth="2" NCoef="0" IVar="-1" Cut="0.0000000000000000e+00" cType="1" res="6.9921795511618257e-04" rms="4.6999618411064148e-01" purity="5.9956520795822144e-01" nType="-99"/>
        </Node>
      </Node>
    </BinaryTree>
    <BinaryTree type="DecisionTree" boostWeight="1.0000000000000000e+00" itree="164">
      <Node pos="s" depth="0" NCoef="0" IVar="2" Cut="1.1818847656250000e+00" cType="1" res="5.1871682517230511e-03" rms="4.5821270346641541e-01" purity="5.1567411422729492e-01" nType="0">
        <Node pos="l" depth="1" NCoef="0" IVar="0" Cut="5.2680010795593262e+00" cType="1" res="4.5160856097936630e-02" rms="4.6097362041473389e-01" purity="6.0989934206008911e-01" nType="0">
          <Node pos="l" depth="2" NCoef="0" IVar="-1" Cut="0.0000000000000000e+00" cType="1" res="-2.7849492616951466e-03" rms="4.2583283782005310e-01" purity="2.4479688704013824e-01" nType="-99"/>
          <Node pos="r" depth="2" NCoef="0" IVar="-1" Cut="0.0000000000000000e+00" cType="1" res="1.3909403933212161e-03" rms="4.5958960056304932e-01" purity="6.4621877670288086e-01" nType="-99"/>
        </Node>
        <Node pos="r" depth="1" NCoef="0" IVar="1" Cut="8.8817443847656250e+01" cType="1" res="-8.5592068731784821e-02" rms="4.3854984641075134e-01" purity="3.0169114470481873e-01" nType="0">
          <Node pos="l" depth="2" NCoef="0" IVar="-1" Cut="0.0000000000000000e+00" cType="1" res="-2.8615365736186504e-03" rms="4.1740840673446655e-01" purity="2.4735368788242340e-01" nType="-99"/>
          <Node pos="r" depth="2" NCoef="0" IVar="-1" Cut="0.0000000000000000e+00" cType="1" res="-6.2409456586465240e-04" rms="4.5277911424636841e-01" purity="3.5782209038734436e-01" nType="-99"/>
        </Node>
      </Node>
    </BinaryTree>
    <BinaryTree type="DecisionTree" boostWeight="1.0000000000000000e+00" itree="165">
      <Node pos="s" depth="0" NCoef="0" IVar="3" Cut="2.6527132987976074e+00" cType="1" res="-5.7680490426719189e-03" rms="4.5830020308494568e-01" purity="5.0457155704498291e-01" nType="0">
        <Node pos="l" depth="1" NCoef="0" IVar="2" Cut="7.7016359567642212e-01" cType="1" res="1.3071781024336815e-02" rms="4.6444982290267944e-01" purity="5.3776389360427856e-01" nType="0">
          <Node pos="l" depth="2" NCoef="0" IVar="-1" Cut="0.0000000000000000e+00" cType="1" res="1.8706067930907011e-03" rms="4.5082581043243408e-01" purity="6.7620706558227539e-01" nType="-99"/>
          <Node pos="r" depth="2" NCoef="0" IVar="-1" Cut="0.0000000000000000e+00" cType="1" res="-4.3777699465863407e-04" rms="4.6676069498062134e-01" purity="4.7282975912094116e-01" nType="-99"/>
        </Node>
        <Node pos="r" depth="1" NCoef="0" IVar="-1" Cut="0.0000000000000000e+00" cType="1" res="-5.2240123040974140e-03" rms="2.7832019329071045e-01" purity="8.5782654583454132e-02" nType="-99"/>
      </Node>
    </BinaryTree>
    <BinaryTree type="DecisionTree" boostWeight="1.0000000000000000e+00" itree="166">
      <Node pos="s" depth="0" NCoef="0" IVar="0" Cut="6.9587783813476562e+00" cType="1" res="-1.6144005581736565e-02" rms="4.5996931195259094e-01" purity="4.8643803596496582e-01" nType="0">
        <Node pos="l" depth="1" NCoef="0" IVar="1" Cut="1.0053012847900391e+02" cType="1" res="-7.2812058031558990e-02" rms="4.5434084534645081e-01" purity="3.4914895892143250e-01" nType="0">
          <Node pos="l" depth="2" NCoef="0" IVar="-1" Cut="0.0000000000000000e+00" cType="1" res="-2.0890545565634966e-03" rms="4.4136255979537964e-01" purity="3.1103950738906860e-01" nType="-99"/>
          <Node pos="r" depth="2" NCoef="0" IVar="-1" Cut="0.0000000000000000e+00" cType="1" res="7.3923770105466247e-04" rms="4.7501239180564880e-01" purity="4.6552598476409912e-01" nType="-99"/>
        </Node>
        <Node pos="r" depth="1" NCoef="0" IVar="5" Cut="4.9454027414321899e-01" cType="1" res="4.9404967576265335e-02" rms="4.5772612094879150e-01" purity="6.4524281024932861e-01" nType="0">
          <Node pos="l" depth="2" NCoef="0" IVar="-1" Cut="0.0000000000000000e+00" cType="1" res="1.1701171752065420e-04" rms="4.7398650646209717e-01" purity="5.8023470640182495e-01" nType="-99"/>
          <Node pos="r" depth="2" NCoef="0" IVar="-1" Cut="0.0000000000000000e+00" cType="1" res="2.9065532144159079e-03" rms="4.1743007302284241e-01" purity="7.5744271278381348e-01" nType="-99"/>
        </Node>
      </Node>
    </BinaryTree>
    <BinaryTree type="DecisionTree" boostWeight="1.0000000000000000e+00" itree="167">
      <Node pos="s" depth="0" NCoef="0" IVar="2" Cut="1.6241229772567749e+00" cType="1" res="2.1393273491412401e-03" rms="4.6397134661674500e-01" purity="5.0479924678802490e-01" nType="0">
        <Node pos="l" depth="1" NCoef="0" IVar="0" Cut="7.3263554573059082e+00" cType="1" res="1.9940773025155067e-02" rms="4.6932178735733032e-01" purity="5.3543877601623535e-01" nType="0">
          <Node pos="l" depth="2" NCoef="0" IVar="-1" Cut="0.0000000000000000e+00" cType="1" res="-2.6589518529362977e-04" rms="4.7992596030235291e-01" purity="4.4452095031738281e-01" nType="-99"/>
          <Node pos="r" depth="2" NCoef="0" IVar="-1" Cut="0.0000000000000000e+00" cType="1" res="1.7864258261397481e-03" rms="4.4438412785530090e-01" purity="6.9350290298461914e-01" nType="-99"/>
        </Node>
        <Node pos="r" depth="1" NCoef="0" IVar="-1" Cut="0.0000000000000000e+00" cType="1" res="-4.9669179134070873e-03" rms="3.0045992136001587e-01" purity="1.0107269138097763e-01" nType="-99"/>
      </Node>
    </BinaryTree>
    <BinaryTree type="DecisionTree" boostWeight="1.0000000000000000e+00" itree="168">
      <Node pos="s" depth="0" NCoef="0" IVar="0" Cut="5.2092776298522949e+00" cType="1" res="-3.1186612322926521e-03" rms="4.5727178454399109e-01" purity="4.9634060263633728e-01" nType="0">
        <Node pos="l" depth="1" NCoef="0" IVar="6" Cut="3.4371368408203125e+02" cType="1" res="-1.9491966068744659e-01" rms="3.6389115452766418e-01" purity="1.5475401282310486e-01" nType="0">
          <Node pos="l" depth="2" NCoef="0" IVar="-1" Cut="0.0000000000000000e+00" cType="1" res="-4.3801395222544670e-03" rms="3.0206096172332764e-01" purity="9.9225848913192749e-02" nType="-99"/>
          <Node pos="r" depth="2" NCoef="0" IVar="-1" Cut="0.0000000000000000e+00" cType="1" res="-3.0134348198771477e-03" rms="4.1611677408218384e-01" purity="2.1358211338520050e-01" nType="-99"/>
        </Node>
        <Node pos="r" depth="1" NCoef="0" IVar="3" Cut="2.4930903911590576e+00" cType="1" res="2.3319642990827560e-02" rms="4.6249049901962280e-01" purity="5.4342573881149292e-01" nType="0">
          <Node pos="l" depth="2" NCoef="0" IVar="-1" Cut="0.0000000000000000e+00" cType="1" res="1.2150368420407176e-03" rms="4.6746593713760376e-01" purity="6.0883545875549316e-01" nType="-99"/>
          <Node pos="r" depth="2" NCoef="0" IVar="-1" Cut="0.0000000000000000e+00" cType="1" res="-3.3691865392029285e-03" rms="3.8744443655014038e-01" purity="1.9562879204750061e-01" nType="-99"/>
        </Node>
      </Node>
    </BinaryTree>
    <BinaryTree type="DecisionTree" boostWeight="1.0000000000000000e+00" itree="169">
      <Node pos="s" depth="0" NCoef="0" IVar="2" Cut="1.2019040584564209e+00" cType="1" res="-2.6825969107449055e-03" rms="4.5644834637641907e-01" purity="5.0355345010757446e-01" nType="0">
        <Node pos="l" depth="1" NCoef="0" IVar="1" Cut="6.2012187957763672e+01" cType="1" res="3.7083875387907028e-02" rms="4.6070778369903564e-01" purity="5.9691739082336426e-01" nType="0">
          <Node pos="l" depth="2" NCoef="0" IVar="-1" Cut="0.0000000000000000e+00" cType="1" res="-9.8528270609676838e-04" rms="4.6284952759742737e-01" purity="4.8896160721778870e-01" nType="-99"/>
          <Node pos="r" depth="2" NCoef="0" IVar="-1" Cut="0.0000000000000000e+00" cType="1" res="2.0376043394207954e-03" rms="4.5050784945487976e-01" purity="6.6845059394836426e-01" nType="-99"/>
        </Node>
        <Node pos="r" depth="1" NCoef="0" IVar="2" Cut="1.6427699327468872e+00" cType="1" res="-9.4788894057273865e-02" rms="4.3260887265205383e-01" purity="2.8730580210685730e-01" nType="0">
          <Node pos="l" depth="2" NCoef="0" IVar="-1" Cut="0.0000000000000000e+00" cType="1" res="-1.3470819685608149e-03" rms="4.5166265964508057e-01" purity="3.3263948559761047e-01" nType="-99"/>
          <Node pos="r" depth="2" NCoef="0" IVar="-1" Cut="0.0000000000000000e+00" cType="1" res="-3.9507113397121429e-03" rms="3.5220980644226074e-01" purity="1.4509966969490051e-01" nType="-99"/>
        </Node>
      </Node>
    </BinaryTree>
    <BinaryTree type="DecisionTree" boostWeight="1.0000000000000000e+00" itree="170">
      <Node pos="s" depth="0" NCoef="0" IVar="3" Cut="2.4071593284606934e+00" cType="1" res="1.9264876842498779e-02" rms="4.6206992864608765e-01" purity="5.2657020092010498e-01" nType="0">
        <Node pos="l" depth="1" NCoef="0" IVar="1" Cut="1.0572144317626953e+02" cType="1" res="5.4817955940961838e-02" rms="4.6649983525276184e-01" purity="5.9677970409393311e-01" nType="0">
          <Node pos="l" depth="2" NCoef="0" IVar="-1" Cut="0.0000000000000000e+00" cType="1" res="5.2588857943192124e-04" rms="4.6977126598358154e-01" purity="5.5516570806503296e-01" nType="-99"/>
          <Node pos="r" depth="2" NCoef="0" IVar="-1" Cut="0.0000000000000000e+00" cType="1" res="3.5716989077627659e-03" rms="4.3930941820144653e-01" purity="7.4533903598785400e-01" nType="-99"/>
        </Node>
        <Node pos="r" depth="1" NCoef="0" IVar="2" Cut="1.6191189289093018e+00" cType="1" res="-1.2195092439651489e-01" rms="4.1497877240180969e-01" purity="2.4770011007785797e-01" nType="0">
          <Node pos="l" depth="2" NCoef="0" IVar="-1" Cut="0.0000000000000000e+00" cType="1" res="-1.8000653944909573e-03" rms="4.4623407721519470e-01" purity="3.0653277039527893e-01" nType="-99"/>
          <Node pos="r" depth="2" NCoef="0" IVar="-1" Cut="0.0000000000000000e+00" cType="1" res="-4.3629091233015060e-03" rms="3.1959882378578186e-01" purity="1.1276262253522873e-01" nType="-99"/>
        </Node>
      </Node>
    </BinaryTree>
    <BinaryTree type="DecisionTree" boostWeight="1.0000000000000000e+00" itree="171">
      <Node pos="s" depth="0" NCoef="0" IVar="0" Cut="8.0436935424804688e+00" cType="1" res="-1.1129884980618954e-02" rms="4.6031016111373901e-01" purity="4.9637335538864136e-01" nType="0">
        <Node pos="l" depth="1" NCoef="0" IVar="2" Cut="6.7312246561050415e-01" cType="1" res="-5.1288269460201263e-02" rms="4.6679899096488953e-01" purity="4.1680133342742920e-01" nType="0">
          <Node pos="l" depth="2" NCoef="0" IVar="-1" Cut="0.0000000000000000e+00" cType="1" res="1.7654180992394686e-03" rms="4.5964697003364563e-01" purity="6.5416806936264038e-01" nType="-99"/>
          <Node pos="r" depth="2" NCoef="0" IVar="-1" Cut="0.0000000000000000e+00" cType="1" res="-1.6420996980741620e-03" rms="4.6298125386238098e-01" purity="3.6479741334915161e-01" nType="-99"/>
        </Node>
        <Node pos="r" depth="1" NCoef="0" IVar="4" Cut="7.7621490478515625e+01" cType="1" res="1.2676329910755157e-01" rms="4.0826025605201721e-01" purity="7.6960253715515137e-01" nType="0">
          <Node pos="l" depth="2" NCoef="0" IVar="-1" Cut="0.0000000000000000e+00" cType="1" res="1.5512960962951183e-03" rms="4.3677499890327454e-01" purity="7.0052587985992432e-01" nType="-99"/>
          <Node pos="r" depth="2" NCoef="0" IVar="-1" Cut="0.0000000000000000e+00" cType="1" res="4.0875640697777271e-03" rms="3.8340789079666138e-01" purity="8.1395369768142700e-01" nType="-99"/>
        </Node>
      </Node>
    </BinaryTree>
    <BinaryTree type="DecisionTree" boostWeight="1.0000000000000000e+00" itree="172">
      <Node pos="s" depth="0" NCoef="0" IVar="0" Cut="7.3727445602416992e+00" cType="1" res="-1.1655736016109586e-03" rms="4.6320715546607971e-01" purity="5.0908708572387695e-01" nType="0">
        <Node pos="l" depth="1" NCoef="0" IVar="6" Cut="6.2488494873046875e+02" cType="1" res="-4.9818210303783417e-02" rms="4.6887138485908508e-01" purity="3.9268955588340759e-01" nType="0">
          <Node pos="l" depth="2" NCoef="0" IVar="-1" Cut="0.0000000000000000e+00" cType="1" res="-1.4073059428483248e-03" rms="4.6554762125015259e-01" purity="3.6994561553001404e-01" nType="-99"/>
          <Node pos="r" depth="2" NCoef="0" IVar="-1" Cut="0.0000000000000000e+00" cType="1" res="2.7056534308940172e-03" rms="4.5896577835083008e-01" purity="5.7947885990142822e-01" nType="-99"/>
        </Node>
        <Node pos="r" depth="1" NCoef="0" IVar="1" Cut="6.7983833312988281e+01" cType="1" res="7.7207110822200775e-02" rms="4.4283288717269897e-01" purity="6.9658750295639038e-01" nType="0">
          <Node pos="l" depth="2" NCoef="0" IVar="-1" Cut="0.0000000000000000e+00" cType="1" res="1.5296925266738981e-04" rms="4.6866068243980408e-01" purity="6.3460355997085571e-01" nType="-99"/>
          <Node pos="r" depth="2" NCoef="0" IVar="-1" Cut="0.0000000000000000e+00" cType="1" res="2.8564448002725840e-03" rms="4.1821345686912537e-01" purity="7.3794281482696533e-01" nType="-99"/>
        </Node>
      </Node>
    </BinaryTree>
    <BinaryTree type="DecisionTree" boostWeight="1.0000000000000000e+00" itree="173">
      <Node pos="s" depth="0" NCoef="0" IVar="3" Cut="2.2119481563568115e+00" cType="1" res="-1.6808239743113518e-02" rms="4.5400267839431763e-01" purity="4.8386612534523010e-01" nType="0">
        <Node pos="l" depth="1" NCoef="0" IVar="0" Cut="8.4214248657226562e+00" cType="1" res="3.7348218262195587e-02" rms="4.5913013815879822e-01" purity="5.9574508666992188e-01" nType="0">
          <Node pos="l" depth="2" NCoef="0" IVar="-1" Cut="0.0000000000000000e+00" cType="1" res="1.2671235890593380e-04" rms="4.7529882192611694e-01" purity="5.3996175527572632e-01" nType="-99"/>
          <Node pos="r" depth="2" NCoef="0" IVar="-1" Cut="0.0000000000000000e+00" cType="1" res="5.0907772965729237e-03" rms="3.1705322861671448e-01" purity="8.8702601194381714e-01" nType="-99"/>
        </Node>
        <Node pos="r" depth="1" NCoef="0" IVar="0" Cut="7.6429247856140137e+00" cType="1" res="-9.2183917760848999e-02" rms="4.3570438027381897e-01" purity="3.2815149426460266e-01" nType="0">
          <Node pos="l" depth="2" NCoef="0" IVar="-1" Cut="0.0000000000000000e+00" cType="1" res="-2.4720572400838137e-03" rms="4.1430953145027161e-01" purity="2.5868913531303406e-01" nType="-99"/>
          <Node pos="r" depth="2" NCoef="0" IVar="-1" Cut="0.0000000000000000e+00" cType="1" res="1.6424115165136755e-04" rms="4.8815858364105225e-01" purity="5.6266927719116211e-01" nType="-99"/>
        </Node>
      </Node>
    </BinaryTree>
    <BinaryTree type="DecisionTree" boostWeight="1.0000000000000000e+00" itree="174">
      <Node pos="s" depth="0" NCoef="0" IVar="2" Cut="8.4067893028259277e-01" cType="1" res="-3.8620224222540855e-03" rms="4.5938509702682495e-01" purity="4.9268215894699097e-01" nType="0">
        <Node pos="l" depth="1" NCoef="0" IVar="1" Cut="4.1303272247314453e+01" cType="1" res="7.4450694024562836e-02" rms="4.4920507073402405e-01" purity="6.6498255729675293e-01" nType="0">
          <Node pos="l" depth="2" NCoef="0" IVar="-1" Cut="0.0000000000000000e+00" cType="1" res="-1.0862260824069381e-03" rms="4.8294305801391602e-01" purity="4.7486504912376404e-01" nType="-99"/>
          <Node pos="r" depth="2" NCoef="0" IVar="-1" Cut="0.0000000000000000e+00" cType="1" res="2.1280089858919382e-03" rms="4.3873304128646851e-01" purity="6.9941568374633789e-01" nType="-99"/>
        </Node>
        <Node pos="r" depth="1" NCoef="0" IVar="1" Cut="9.1996665954589844e+01" cType="1" res="-4.8324383795261383e-02" rms="4.5915925502777100e-01" purity="3.9485788345336914e-01" nType="0">
          <Node pos="l" depth="2" NCoef="0" IVar="-1" Cut="0.0000000000000000e+00" cType="1" res="-2.0975703373551369e-03" rms="4.4888204336166382e-01" purity="3.3354341983795166e-01" nType="-99"/>
          <Node pos="r" depth="2" NCoef="0" IVar="-1" Cut="0.0000000000000000e+00" cType="1" res="7.3660741327330470e-04" rms="4.6209532022476196e-01" purity="4.8970413208007812e-01" nType="-99"/>
        </Node>
      </Node>
    </BinaryTree>
    <BinaryTree type="DecisionTree" boostWeight="1.0000000000000000e+00" itree="175">
      <Node pos="s" depth="0" NCoef="0" IVar="1" Cut="7.8289375305175781e+01" cType="1" res="-2.2587627172470093e-02" rms="4.5530417561531067e-01" purity="4.8327815532684326e-01" nType="0">
        <Node pos="l" depth="1" NCoef="0" IVar="0" Cut="6.3400025367736816e+00" cType="1" res="-8.6041547358036041e-02" rms="4.5366293191909790e-01" purity="4.2047664523124695e-01" nType="0">
          <Node pos="l" depth="2" NCoef="0" IVar="-1" Cut="0.0000000000000000e+00" cType="1" res="-3.0769370496273041e-03" rms="4.1075745224952698e-01" purity="2.2831687331199646e-01" nType="-99"/>
          <Node pos="r" depth="2" NCoef="0" IVar="-1" Cut="0.0000000000000000e+00" cType="1" res="-8.3297491073608398e-04" rms="4.7246697545051575e-01" purity="5.4093098640441895e-01" nType="-99"/>
        </Node>
        <Node pos="r" depth="1" NCoef="0" IVar="3" Cut="2.4503536224365234e+00" cType="1" res="5.4020423442125320e-02" rms="4.4539093971252441e-01" purity="5.5909860134124756e-01" nType="0">
          <Node pos="l" depth="2" NCoef="0" IVar="-1" Cut="0.0000000000000000e+00" cType="1" res="2.5019403547048569e-03" rms="4.3948492407798767e-01" purity="6.7379498481750488e-01" nType="-99"/>
          <Node pos="r" depth="2" NCoef="0" IVar="-1" Cut="0.0000000000000000e+00" cType="1" res="-2.3457214701920748e-03" rms="4.1863927245140076e-01" purity="2.4675238132476807e-01" nType="-99"/>
        </Node>
      </Node>
    </BinaryTree>
    <BinaryTree type="DecisionTree" boostWeight="1.0000000000000000e+00" itree="176">
      <Node pos="s" depth="0" NCoef="0" IVar="2" Cut="1.0421342849731445e+00" cType="1" res="-8.0746627645567060e-04" rms="4.5800012350082397e-01" purity="5.1073348522186279e-01" nType="0">
        <Node pos="l" depth="1" NCoef="0" IVar="1" Cut="5.9869289398193359e+01" cType="1" res="4.8896603286266327e-02" rms="4.5945465564727783e-01" purity="6.3735067844390869e-01" nType="0">
          <Node pos="l" depth="2" NCoef="0" IVar="-1" Cut="0.0000000000000000e+00" cType="1" res="-3.7253327900543809e-04" rms="4.8956516385078430e-01" purity="5.4429286718368530e-01" nType="-99"/>
          <Node pos="r" depth="2" NCoef="0" IVar="-1" Cut="0.0000000000000000e+00" cType="1" res="2.0369074773043394e-03" rms="4.3352052569389343e-01" purity="6.9720649719238281e-01" nType="-99"/>
        </Node>
        <Node pos="r" depth="1" NCoef="0" IVar="0" Cut="7.9585227966308594e+00" cType="1" res="-7.0290885865688324e-02" rms="4.4678521156311035e-01" purity="3.3372992277145386e-01" nType="0">
          <Node pos="l" depth="2" NCoef="0" IVar="-1" Cut="0.0000000000000000e+00" cType="1" res="-1.9136256305500865e-03" rms="4.4009429216384888e-01" purity="2.8213033080101013e-01" nType="-99"/>
          <Node pos="r" depth="2" NCoef="0" IVar="-1" Cut="0.0000000000000000e+00" cType="1" res="8.7412062566727400e-04" rms="4.6040558815002441e-01" purity="5.7036358118057251e-01" nType="-99"/>
        </Node>
      </Node>
    </BinaryTree>
    <BinaryTree type="DecisionTree" boostWeight="1.0000000000000000e+00" itree="177">
      <Node pos="s" depth="0" NCoef="0" IVar="0" Cut="7.6659712791442871e+00" cType="1" res="-1.8136542290449142e-02" rms="4.6251222491264343e-01" purity="4.8054671287536621e-01" nType="0">
        <Node pos="l" depth="1" NCoef="0" IVar="5" Cut="1.6201172769069672e-01" cType="1" res="-5.4494552314281464e-02" rms="4.6346181631088257e-01" purity="3.9346092939376831e-01" nType="0">
          <Node pos="l" depth="2" NCoef="0" IVar="-1" Cut="0.0000000000000000e+00" cType="1" res="-3.3998650033026934e-03" rms="3.8497644662857056e-01" purity="2.0346005260944366e-01" nType="-99"/>
          <Node pos="r" depth="2" NCoef="0" IVar="-1" Cut="0.0000000000000000e+00" cType="1" res="-6.5199658274650574e-04" rms="4.7275128960609436e-01" purity="4.2747685313224792e-01" nType="-99"/>
        </Node>
        <Node pos="r" depth="1" NCoef="0" IVar="1" Cut="9.7022827148437500e+01" cType="1" res="6.8200014531612396e-02" rms="4.4859397411346436e-01" purity="6.8734258413314819e-01" nType="0">
          <Node pos="l" depth="2" NCoef="0" IVar="-1" Cut="0.0000000000000000e+00" cType="1" res="6.4875261159613729e-04" rms="4.5883339643478394e-01" purity="6.4686632156372070e-01" nType="-99"/>
          <Node pos="r" depth="2" NCoef="0" IVar="-1" Cut="0.0000000000000000e+00" cType="1" res="3.2480643130838871e-03" rms="4.1946339607238770e-01" purity="7.6186233758926392e-01" nType="-99"/>
        </Node>
      </Node>
    </BinaryTree>
    <BinaryTree type="DecisionTree" boostWeight="1.0000000000000000e+00" itree="178">
      <Node pos="s" depth="0" NCoef="0" IVar="5" Cut="1.6407643258571625e-01" cType="1" res="-4.6549160033464432e-03" rms="4.6541625261306763e-01" purity="4.9515289068222046e-01" nType="0">
        <Node pos="l" depth="1" NCoef="0" IVar="-1" Cut="0.0000000000000000e+00" cType="1" res="-3.3721043728291988e-03" rms="4.2304149270057678e-01" purity="2.4921195209026337e-01" nType="-99"/>
        <Node pos="r" depth="1" NCoef="0" IVar="4" Cut="2.1835824584960938e+02" cType="1" res="1.5283308923244476e-02" rms="4.6633094549179077e-01" purity="5.2483505010604858e-01" nType="0">
          <Node pos="l" depth="2" NCoef="0" IVar="-1" Cut="0.0000000000000000e+00" cType="1" res="8.2398421363905072e-04" rms="4.6445557475090027e-01" purity="5.4804438352584839e-01" nType="-99"/>
          <Node pos="r" depth="2" NCoef="0" IVar="-1" Cut="0.0000000000000000e+00" cType="1" res="-2.0313970744609833e-03" rms="4.5859959721565247e-01" purity="4.1343984007835388e-01" nType="-99"/>
        </Node>
      </Node>
    </BinaryTree>
    <BinaryTree type="DecisionTree" boostWeight="1.0000000000000000e+00" itree="179">
      <Node pos="s" depth="0" NCoef="0" IVar="3" Cut="2.6028656959533691e+00" cType="1" res="-8.9762201532721519e-03" rms="4.6588960289955139e-01" purity="5.0386518239974976e-01" nType="0">
        <Node pos="l" depth="1" NCoef="0" IVar="4" Cut="1.1118649291992188e+02" cType="1" res="7.6381517574191093e-03" rms="4.7306445240974426e-01" purity="5.3972953557968140e-01" nType="0">
          <Node pos="l" depth="2" NCoef="0" IVar="-1" Cut="0.0000000000000000e+00" cType="1" res="-6.3782226061448455e-04" rms="4.7622475028038025e-01" purity="5.0419723987579346e-01" nType="-99"/>
          <Node pos="r" depth="2" NCoef="0" IVar="-1" Cut="0.0000000000000000e+00" cType="1" res="1.2748617446050048e-03" rms="4.6373450756072998e-01" purity="5.8713549375534058e-01" nType="-99"/>
        </Node>
        <Node pos="r" depth="1" NCoef="0" IVar="-1" Cut="0.0000000000000000e+00" cType="1" res="-3.8392266724258661e-03" rms="3.4759876132011414e-01" purity="1.4953792095184326e-01" nType="-99"/>
      </Node>
    </BinaryTree>
    <BinaryTree type="DecisionTree" boostWeight="1.0000000000000000e+00" itree="180">
      <Node pos="s" depth="0" NCoef="0" IVar="3" Cut="2.4215402603149414e+00" cType="1" res="-2.1280331537127495e-02" rms="4.6286860108375549e-01" purity="4.8853006958961487e-01" nType="0">
        <Node pos="l" depth="1" NCoef="0" IVar="0" Cut="8.0319452285766602e+00" cType="1" res="-1.6316679539158940e-03" rms="4.7192206978797913e-01" purity="5.4532700777053833e-01" nType="0">
          <Node pos="l" depth="2" NCoef="0" IVar="-1" Cut="0.0000000000000000e+00" cType="1" res="-5.3313939133659005e-04" rms="4.8153373599052429e-01" purity="4.8108106851577759e-01" nType="-99"/>
          <Node pos="r" depth="2" NCoef="0" IVar="-1" Cut="0.0000000000000000e+00" cType="1" res="1.7657650168985128e-03" rms="4.3333745002746582e-01" purity="7.3675686120986938e-01" nType="-99"/>
        </Node>
        <Node pos="r" depth="1" NCoef="0" IVar="5" Cut="3.3364114165306091e-01" cType="1" res="-1.0688226670026779e-01" rms="4.1032561659812927e-01" purity="2.4108697474002838e-01" nType="0">
          <Node pos="l" depth="2" NCoef="0" IVar="-1" Cut="0.0000000000000000e+00" cType="1" res="-3.7039010785520077e-03" rms="3.6010026931762695e-01" purity="1.6276493668556213e-01" nType="-99"/>
          <Node pos="r" depth="2" NCoef="0" IVar="-1" Cut="0.0000000000000000e+00" cType="1" res="-4.5720741036348045e-04" rms="4.5872405171394348e-01" purity="3.5138341784477234e-01" nType="-99"/>
        </Node>
      </Node>
    </BinaryTree>
    <BinaryTree type="DecisionTree" boostWeight="1.0000000000000000e+00" itree="181">
      <Node pos="s" depth="0" NCoef="0" IVar="6" Cut="3.0420120239257812e+02" cType="1" res="-1.4604660682380199e-02" rms="4.6337902545928955e-01" purity="4.8817500472068787e-01" nType="0">
        <Node pos="l" depth="1" NCoef="0" IVar="1" Cut="7.2288070678710938e+01" cType="1" res="-1.3132521510124207e-01" rms="4.2789471149444580e-01" purity="3.0790233612060547e-01" nType="0">
          <Node pos="l" depth="2" NCoef="0" IVar="-1" Cut="0.0000000000000000e+00" cType="1" res="-1.6605029813945293e-03" rms="4.5027914643287659e-01" purity="3.6474928259849548e-01" nType="-99"/>
          <Node pos="r" depth="2" NCoef="0" IVar="-1" Cut="0.0000000000000000e+00" cType="1" res="-5.2146450616419315e-03" rms="3.2717084884643555e-01" purity="1.5629595518112183e-01" nType="-99"/>
        </Node>
        <Node pos="r" depth="1" NCoef="0" IVar="0" Cut="8.4340171813964844e+00" cType="1" res="1.5118543989956379e-02" rms="4.6735540032386780e-01" purity="5.3408193588256836e-01" nType="0">
          <Node pos="l" depth="2" NCoef="0" IVar="-1" Cut="0.0000000000000000e+00" cType="1" res="-1.7893336189445108e-04" rms="4.7776499390602112e-01" purity="4.8493599891662598e-01" nType="-99"/>
          <Node pos="r" depth="2" NCoef="0" IVar="-1" Cut="0.0000000000000000e+00" cType="1" res="3.2417823094874620e-03" rms="3.8946843147277832e-01" purity="7.8149795532226562e-01" nType="-99"/>
        </Node>
      </Node>
    </BinaryTree>
    <BinaryTree type="DecisionTree" boostWeight="1.0000000000000000e+00" itree="182">
      <Node pos="s" depth="0" NCoef="0" IVar="0" Cut="6.0835452079772949e+00" cType="1" res="-1.0627918876707554e-02" rms="4.6063014864921570e-01" purity="4.9185600876808167e-01" nType="0">
        <Node pos="l" depth="1" NCoef="0" IVar="3" Cut="2.4297461509704590e+00" cType="1" res="-1.1108777672052383e-01" rms="4.2004731297492981e-01" purity="2.6594540476799011e-01" nType="0">
          <Node pos="l" depth="2" NCoef="0" IVar="-1" Cut="0.0000000000000000e+00" cType="1" res="-1.3519118074327707e-03" rms="4.6326595544815063e-01" purity="3.4157797694206238e-01" nType="-99"/>
          <Node pos="r" depth="2" NCoef="0" IVar="-1" Cut="0.0000000000000000e+00" cType="1" res="-4.8896819353103638e-03" rms="2.2302815318107605e-01" purity="4.9914866685867310e-02" nType="-99"/>
        </Node>
        <Node pos="r" depth="1" NCoef="0" IVar="4" Cut="2.8019378662109375e+02" cType="1" res="3.2210949808359146e-02" rms="4.7040629386901855e-01" purity="5.8819055557250977e-01" nType="0">
          <Node pos="l" depth="2" NCoef="0" IVar="-1" Cut="0.0000000000000000e+00" cType="1" res="1.0425512446090579e-03" rms="4.6860951185226440e-01" purity="6.0847938060760498e-01" nType="-99"/>
          <Node pos="r" depth="2" NCoef="0" IVar="-1" Cut="0.0000000000000000e+00" cType="1" res="-3.1745068263262510e-03" rms="4.5205071568489075e-01" purity="3.6052498221397400e-01" nType="-99"/>
        </Node>
      </Node>
    </BinaryTree>
    <BinaryTree type="DecisionTree" boostWeight="1.0000000000000000e+00" itree="183">
      <Node pos="s" depth="0" NCoef="0" IVar="0" Cut="7.7767853736877441e+00" cType="1" res="-7.0187766104936600e-03" rms="4.5538413524627686e-01" purity="4.9550285935401917e-01" nType="0">
        <Node pos="l" depth="1" NCoef="0" IVar="6" Cut="2.8360073852539062e+02" cType="1" res="-4.3477427214384079e-02" rms="4.6122574806213379e-01" purity="4.1640549898147583e-01" nType="0">
          <Node pos="l" depth="2" NCoef="0" IVar="-1" Cut="0.0000000000000000e+00" cType="1" res="-3.7154476158320904e-03" rms="4.0230384469032288e-01" purity="2.2028823196887970e-01" nType="-99"/>
          <Node pos="r" depth="2" NCoef="0" IVar="-1" Cut="0.0000000000000000e+00" cType="1" res="-3.0700408387929201e-04" rms="4.6651887893676758e-01" purity="4.5427501201629639e-01" nType="-99"/>
        </Node>
        <Node pos="r" depth="1" NCoef="0" IVar="2" Cut="1.2862296104431152e+00" cType="1" res="9.4300687313079834e-02" rms="4.2253386974334717e-01" purity="7.1531635522842407e-01" nType="0">
          <Node pos="l" depth="2" NCoef="0" IVar="-1" Cut="0.0000000000000000e+00" cType="1" res="3.5170495975762606e-03" rms="3.8712546229362488e-01" purity="8.1478208303451538e-01" nType="-99"/>
          <Node pos="r" depth="2" NCoef="0" IVar="-1" Cut="0.0000000000000000e+00" cType="1" res="-1.3571553863584995e-03" rms="4.8441317677497864e-01" purity="4.0220847725868225e-01" nType="-99"/>
        </Node>
      </Node>
    </BinaryTree>
    <BinaryTree type="DecisionTree" boostWeight="1.0000000000000000e+00" itree="184">
      <Node pos="s" depth="0" NCoef="0" IVar="0" Cut="6.7214555740356445e+00" cType="1" res="1.6782460734248161e-02" rms="4.5115095376968384e-01" purity="5.2128672599792480e-01" nType="0">
        <Node pos="l" depth="1" NCoef="0" IVar="2" Cut="7.0356476306915283e-01" cType="1" res="-6.1663880944252014e-02" rms="4.4502443075180054e-01" purity="3.4494775533676147e-01" nType="0">
          <Node pos="l" depth="2" NCoef="0" IVar="-1" Cut="0.0000000000000000e+00" cType="1" res="2.7323185931891203e-03" rms="4.7073736786842346e-01" purity="6.3737744092941284e-01" nType="-99"/>
          <Node pos="r" depth="2" NCoef="0" IVar="-1" Cut="0.0000000000000000e+00" cType="1" res="-2.2784215398132801e-03" rms="4.2336705327033997e-01" purity="2.7134692668914795e-01" nType="-99"/>
        </Node>
        <Node pos="r" depth="1" NCoef="0" IVar="5" Cut="4.4228240847587585e-01" cType="1" res="8.1459172070026398e-02" rms="4.4587799906730652e-01" purity="6.6667312383651733e-01" nType="0">
          <Node pos="l" depth="2" NCoef="0" IVar="-1" Cut="0.0000000000000000e+00" cType="1" res="2.9740473837591708e-04" rms="4.6272510290145874e-01" purity="5.7576209306716919e-01" nType="-99"/>
          <Node pos="r" depth="2" NCoef="0" IVar="-1" Cut="0.0000000000000000e+00" cType="1" res="3.9973254315555096e-03" rms="4.0339592099189758e-01" purity="7.9169958829879761e-01" nType="-99"/>
        </Node>
      </Node>
    </BinaryTree>
    <BinaryTree type="DecisionTree" boostWeight="1.0000000000000000e+00" itree="185">
      <Node pos="s" depth="0" NCoef="0" IVar="3" Cut="2.4146232604980469e+00" cType="1" res="-3.1792052090167999e-02" rms="4.6068146824836731e-01" purity="4.6977320313453674e-01" nType="0">
        <Node pos="l" depth="1" NCoef="0" IVar="1" Cut="9.9037094116210938e+01" cType="1" res="-8.5322102531790733e-03" rms="4.7177335619926453e-01" purity="5.3726488351821899e-01" nType="0">
          <Node pos="l" depth="2" NCoef="0" IVar="-1" Cut="0.0000000000000000e+00" cType="1" res="-6.6989759216085076e-04" rms="4.7369965910911560e-01" purity="4.9778872728347778e-01" nType="-99"/>
          <Node pos="r" depth="2" NCoef="0" IVar="-1" Cut="0.0000000000000000e+00" cType="1" res="1.5654047019779682e-03" rms="4.5645931363105774e-01" purity="6.6536653041839600e-01" nType="-99"/>
        </Node>
        <Node pos="r" depth="1" NCoef="0" IVar="1" Cut="1.1968099212646484e+02" cType="1" res="-1.1647893488407135e-01" rms="4.0672975778579712e-01" purity="2.2404241561889648e-01" nType="0">
          <Node pos="l" depth="2" NCoef="0" IVar="-1" Cut="0.0000000000000000e+00" cType="1" res="-1.8562428886070848e-03" rms="4.0929615497589111e-01" purity="2.3896056413650513e-01" nType="-99"/>
          <Node pos="r" depth="2" NCoef="0" IVar="-1" Cut="0.0000000000000000e+00" cType="1" res="-3.8414155133068562e-03" rms="3.9134126901626587e-01" purity="1.8735757470130920e-01" nType="-99"/>
        </Node>
      </Node>
    </BinaryTree>
    <BinaryTree type="DecisionTree" boostWeight="1.0000000000000000e+00" itree="186">
      <Node pos="s" depth="0" NCoef="0" IVar="2" Cut="9.6843618154525757e-01" cType="1" res="1.5422316500917077e-03" rms="4.6520817279815674e-01" purity="5.1810741424560547e-01" nType="0">
        <Node pos="l" depth="1" NCoef="0" IVar="6" Cut="3.0584680175781250e+02" cType="1" res="4.8862434923648834e-02" rms="4.6419644355773926e-01" purity="6.3960063457489014e-01" nType="0">
          <Node pos="l" depth="2" NCoef="0" IVar="-1" Cut="0.0000000000000000e+00" cType="1" res="-1.8596656154841185e-03" rms="4.6207401156425476e-01" purity="4.4484013319015503e-01" nType="-99"/>
          <Node pos="r" depth="2" NCoef="0" IVar="-1" Cut="0.0000000000000000e+00" cType="1" res="1.6383643960580230e-03" rms="4.5958667993545532e-01" purity="6.7731243371963501e-01" nType="-99"/>
        </Node>
        <Node pos="r" depth="1" NCoef="0" IVar="0" Cut="8.0288019180297852e+00" cType="1" res="-4.7628048807382584e-02" rms="4.6114119887351990e-01" purity="3.9186426997184753e-01" nType="0">
          <Node pos="l" depth="2" NCoef="0" IVar="-1" Cut="0.0000000000000000e+00" cType="1" res="-1.6656762454658747e-03" rms="4.5839282870292664e-01" purity="3.2779902219772339e-01" nType="-99"/>
          <Node pos="r" depth="2" NCoef="0" IVar="-1" Cut="0.0000000000000000e+00" cType="1" res="2.3276736028492451e-03" rms="4.4296526908874512e-01" purity="6.7423903942108154e-01" nType="-99"/>
        </Node>
      </Node>
    </BinaryTree>
    <BinaryTree type="DecisionTree" boostWeight="1.0000000000000000e+00" itree="187">
      <Node pos="s" depth="0" NCoef="0" IVar="6" Cut="2.8279177856445312e+02" cType="1" res="4.7470469144172966e-04" rms="4.6025493741035461e-01" purity="5.0854623317718506e-01" nType="0">
        <Node pos="l" depth="1" NCoef="0" IVar="3" Cut="2.2084839344024658e+00" cType="1" res="-1.7704272270202637e-01" rms="4.2044135928153992e-01" purity="2.7008634805679321e-01" nType="0">
          <Node pos="l" depth="2" NCoef="0" IVar="-1" Cut="0.0000000000000000e+00" cType="1" res="-4.7963764518499374e-03" rms="4.1548576951026917e-01" purity="2.5431212782859802e-01" nType="-99"/>
          <Node pos="r" depth="2" NCoef="0" IVar="-1" Cut="0.0000000000000000e+00" cType="1" res="-1.8716166960075498e-03" rms="4.1095483303070068e-01" purity="2.8978723287582397e-01" nType="-99"/>
        </Node>
        <Node pos="r" depth="1" NCoef="0" IVar="5" Cut="4.2274078726768494e-01" cType="1" res="2.4843186140060425e-02" rms="4.6013942360877991e-01" purity="5.4128050804138184e-01" nType="0">
          <Node pos="l" depth="2" NCoef="0" IVar="-1" Cut="0.0000000000000000e+00" cType="1" res="-4.9419456627219915e-04" rms="4.6018093824386597e-01" purity="4.6892890334129333e-01" nType="-99"/>
          <Node pos="r" depth="2" NCoef="0" IVar="-1" Cut="0.0000000000000000e+00" cType="1" res="1.8356686923652887e-03" rms="4.5297062397003174e-01" purity="6.3125228881835938e-01" nType="-99"/>
        </Node>
      </Node>
    </BinaryTree>
    <BinaryTree type="DecisionTree" boostWeight="1.0000000000000000e+00" itree="188">
      <Node pos="s" depth="0" NCoef="0" IVar="1" Cut="4.1520473480224609e+01" cType="1" res="-1.6273492947220802e-02" rms="4.5722764730453491e-01" purity="4.9220862984657288e-01" nType="0">
        <Node pos="l" depth="1" NCoef="0" IVar="4" Cut="5.3652191162109375e+01" cType="1" res="-1.4719209074974060e-01" rms="4.2569261789321899e-01" purity="3.2597604393959045e-01" nType="0">
          <Node pos="l" depth="2" NCoef="0" IVar="-1" Cut="0.0000000000000000e+00" cType="1" res="-3.8372634444385767e-03" rms="3.8442173600196838e-01" purity="2.7910104393959045e-01" nType="-99"/>
          <Node pos="r" depth="2" NCoef="0" IVar="-1" Cut="0.0000000000000000e+00" cType="1" res="-2.0432751625776291e-03" rms="4.4705054163932800e-01" purity="3.5901588201522827e-01" nType="-99"/>
        </Node>
        <Node pos="r" depth="1" NCoef="0" IVar="3" Cut="2.2522861957550049e+00" cType="1" res="5.5874232202768326e-03" rms="4.5865723490715027e-01" purity="5.1996630430221558e-01" nType="0">
          <Node pos="l" depth="2" NCoef="0" IVar="-1" Cut="0.0000000000000000e+00" cType="1" res="1.1441140668466687e-03" rms="4.6048918366432190e-01" purity="6.2559819221496582e-01" nType="-99"/>
          <Node pos="r" depth="2" NCoef="0" IVar="-1" Cut="0.0000000000000000e+00" cType="1" res="-1.4910619938746095e-03" rms="4.4523599743843079e-01" purity="3.5327014327049255e-01" nType="-99"/>
        </Node>
      </Node>
    </BinaryTree>
    <BinaryTree type="DecisionTree" boostWeight="1.0000000000000000e+00" itree="189">
      <Node pos="s" depth="0" NCoef="0" IVar="0" Cut="5.4341936111450195e+00" cType="1" res="-6.4494921825826168e-03" rms="4.5259085297584534e-01" purity="4.9968504905700684e-01" nType="0">
        <Node pos="l" depth="1" NCoef="0" IVar="0" Cut="4.9148674011230469e+00" cType="1" res="-1.4494219422340393e-01" rms="3.9041385054588318e-01" purity="1.9392754137516022e-01" nType="0">
          <Node pos="l" depth="2" NCoef="0" IVar="-1" Cut="0.0000000000000000e+00" cType="1" res="-4.0602083317935467e-03" rms="3.3149269223213196e-01" purity="1.2651884555816650e-01" nType="-99"/>
          <Node pos="r" depth="2" NCoef="0" IVar="-1" Cut="0.0000000000000000e+00" cType="1" res="-1.7546933377161622e-03" rms="4.3033036589622498e-01" purity="2.5828242301940918e-01" nType="-99"/>
        </Node>
        <Node pos="r" depth="1" NCoef="0" IVar="2" Cut="1.0768430233001709e+00" cType="1" res="1.6381882131099701e-02" rms="4.5803523063659668e-01" purity="5.5009108781814575e-01" nType="0">
          <Node pos="l" depth="2" NCoef="0" IVar="-1" Cut="0.0000000000000000e+00" cType="1" res="1.3402346521615982e-03" rms="4.5727938413619995e-01" purity="6.6199147701263428e-01" nType="-99"/>
          <Node pos="r" depth="2" NCoef="0" IVar="-1" Cut="0.0000000000000000e+00" cType="1" res="-1.1881454847753048e-03" rms="4.4971576333045959e-01" purity="3.6476534605026245e-01" nType="-99"/>
        </Node>
      </Node>
    </BinaryTree>
    <BinaryTree type="DecisionTree" boostWeight="1.0000000000000000e+00" itree="190">
      <Node pos="s" depth="0" NCoef="0" IVar="5" Cut="3.4184104204177856e-01" cType="1" res="-9.6025252714753151e-03" rms="4.5327568054199219e-01" purity="4.8505556583404541e-01" nType="0">
        <Node pos="l" depth="1" NCoef="0" IVar="1" Cut="1.1199709320068359e+02" cType="1" res="-7.8477658331394196e-02" rms="4.3843266367912292e-01" purity="3.8101053237915039e-01" nType="0">
          <Node pos="l" depth="2" NCoef="0" IVar="-1" Cut="0.0000000000000000e+00" cType="1" res="-2.4171823170036077e-03" rms="4.3509170413017273e-01" purity="3.3392760157585144e-01" nType="-99"/>
          <Node pos="r" depth="2" NCoef="0" IVar="-1" Cut="0.0000000000000000e+00" cType="1" res="1.2034137034788728e-03" rms="4.2072835564613342e-01" purity="5.2245873212814331e-01" nType="-99"/>
        </Node>
        <Node pos="r" depth="1" NCoef="0" IVar="6" Cut="3.0564767456054688e+02" cType="1" res="4.4210199266672134e-02" rms="4.5738145709037781e-01" purity="5.6634688377380371e-01" nType="0">
          <Node pos="l" depth="2" NCoef="0" IVar="-1" Cut="0.0000000000000000e+00" cType="1" res="-1.6286949394270778e-03" rms="4.4960948824882507e-01" purity="3.6054205894470215e-01" nType="-99"/>
          <Node pos="r" depth="2" NCoef="0" IVar="-1" Cut="0.0000000000000000e+00" cType="1" res="1.7983374418690801e-03" rms="4.5234784483909607e-01" purity="6.3205802440643311e-01" nType="-99"/>
        </Node>
      </Node>
    </BinaryTree>
    <BinaryTree type="DecisionTree" boostWeight="1.0000000000000000e+00" itree="191">
      <Node pos="s" depth="0" NCoef="0" IVar="1" Cut="4.5361736297607422e+01" cType="1" res="-6.9804866798222065e-03" rms="4.5837190747261047e-01" purity="4.9938091635704041e-01" nType="0">
        <Node pos="l" depth="1" NCoef="0" IVar="4" Cut="4.3237392425537109e+01" cType="1" res="-1.5225046873092651e-01" rms="4.3750280141830444e-01" purity="3.4377849102020264e-01" nType="0">
          <Node pos="l" depth="2" NCoef="0" IVar="-1" Cut="0.0000000000000000e+00" cType="1" res="-1.1497912928462029e-03" rms="4.4493654370307922e-01" purity="4.3667486310005188e-01" nType="-99"/>
          <Node pos="r" depth="2" NCoef="0" IVar="-1" Cut="0.0000000000000000e+00" cType="1" res="-4.0022321045398712e-03" rms="4.2687976360321045e-01" purity="3.0029985308647156e-01" nType="-99"/>
        </Node>
        <Node pos="r" depth="1" NCoef="0" IVar="2" Cut="5.7823097705841064e-01" cType="1" res="2.6432925835251808e-02" rms="4.5654645562171936e-01" purity="5.3517085313796997e-01" nType="0">
          <Node pos="l" depth="2" NCoef="0" IVar="-1" Cut="0.0000000000000000e+00" cType="1" res="4.5665423385798931e-03" rms="3.6172723770141602e-01" purity="8.2676172256469727e-01" nType="-99"/>
          <Node pos="r" depth="2" NCoef="0" IVar="-1" Cut="0.0000000000000000e+00" cType="1" res="2.8644531994359568e-05" rms="4.6231281757354736e-01" purity="4.9552911520004272e-01" nType="-99"/>
        </Node>
      </Node>
    </BinaryTree>
    <BinaryTree type="DecisionTree" boostWeight="1.0000000000000000e+00" itree="192">
      <Node pos="s" depth="0" NCoef="0" IVar="1" Cut="9.6897056579589844e+01" cType="1" res="-3.2457131892442703e-03" rms="4.6299046277999878e-01" purity="5.0324004888534546e-01" nType="0">
        <Node pos="l" depth="1" NCoef="0" IVar="4" Cut="1.3707479858398438e+02" cType="1" res="-4.0223561227321625e-02" rms="4.5985880494117737e-01" purity="4.5956352353096008e-01" nType="0">
          <Node pos="l" depth="2" NCoef="0" IVar="-1" Cut="0.0000000000000000e+00" cType="1" res="2.4876798852346838e-04" rms="4.6070343255996704e-01" purity="5.2466064691543579e-01" nType="-99"/>
          <Node pos="r" depth="2" NCoef="0" IVar="-1" Cut="0.0000000000000000e+00" cType="1" res="-3.0873999930918217e-03" rms="4.3814781308174133e-01" purity="3.2265642285346985e-01" nType="-99"/>
        </Node>
        <Node pos="r" depth="1" NCoef="0" IVar="1" Cut="1.5633784484863281e+02" cType="1" res="7.0038504898548126e-02" rms="4.6044251322746277e-01" purity="5.8979988098144531e-01" nType="0">
          <Node pos="l" depth="2" NCoef="0" IVar="-1" Cut="0.0000000000000000e+00" cType="1" res="1.9905876833945513e-03" rms="4.5401713252067566e-01" purity="6.1359721422195435e-01" nType="-99"/>
          <Node pos="r" depth="2" NCoef="0" IVar="-1" Cut="0.0000000000000000e+00" cType="1" res="-1.1196549749001861e-03" rms="4.7766476869583130e-01" purity="4.5321211218833923e-01" nType="-99"/>
        </Node>
      </Node>
    </BinaryTree>
    <BinaryTree type="DecisionTree" boostWeight="1.0000000000000000e+00" itree="193">
      <Node pos="s" depth="0" NCoef="0" IVar="1" Cut="9.1051818847656250e+01" cType="1" res="-1.4195322990417480e-02" rms="4.6316266059875488e-01" purity="4.9391797184944153e-01" nType="0">
        <Node pos="l" depth="1" NCoef="0" IVar="3" Cut="2.2261655330657959e+00" cType="1" res="-5.1081277430057526e-02" rms="4.6272775530815125e-01" purity="4.5505779981613159e-01" nType="0">
          <Node pos="l" depth="2" NCoef="0" IVar="-1" Cut="0.0000000000000000e+00" cType="1" res="-3.4717551898211241e-04" rms="4.7174781560897827e-01" purity="5.3310358524322510e-01" nType="-99"/>
          <Node pos="r" depth="2" NCoef="0" IVar="-1" Cut="0.0000000000000000e+00" cType="1" res="-2.8569379355758429e-03" rms="4.2907449603080750e-01" purity="2.6762080192565918e-01" nType="-99"/>
        </Node>
        <Node pos="r" depth="1" NCoef="0" IVar="4" Cut="1.1216911315917969e+02" cType="1" res="4.7970026731491089e-02" rms="4.5720967650413513e-01" purity="5.5941057205200195e-01" nType="0">
          <Node pos="l" depth="2" NCoef="0" IVar="-1" Cut="0.0000000000000000e+00" cType="1" res="2.4977561552077532e-03" rms="4.4683432579040527e-01" purity="6.1503136157989502e-01" nType="-99"/>
          <Node pos="r" depth="2" NCoef="0" IVar="-1" Cut="0.0000000000000000e+00" cType="1" res="-1.7146633763331920e-04" rms="4.5838671922683716e-01" purity="5.1246029138565063e-01" nType="-99"/>
        </Node>
      </Node>
    </BinaryTree>
    <BinaryTree type="DecisionTree" boostWeight="1.0000000000000000e+00" itree="194">
      <Node pos="s" depth="0" NCoef="0" IVar="3" Cut="2.3423326015472412e+00" cType="1" res="-1.1145771481096745e-02" rms="4.6117082238197327e-01" purity="4.8794955015182495e-01" nType="0">
        <Node pos="l" depth="1" NCoef="0" IVar="1" Cut="1.2134591674804688e+02" cType="1" res="2.0371073856949806e-02" rms="4.7292530536651611e-01" purity="5.7093209028244019e-01" nType="0">
          <Node pos="l" depth="2" NCoef="0" IVar="-1" Cut="0.0000000000000000e+00" cType="1" res="-5.3660573939851020e-06" rms="4.7851291298866272e-01" purity="5.4209017753601074e-01" nType="-99"/>
          <Node pos="r" depth="2" NCoef="0" IVar="-1" Cut="0.0000000000000000e+00" cType="1" res="4.1899168863892555e-03" rms="3.9396685361862183e-01" purity="7.9067724943161011e-01" nType="-99"/>
        </Node>
        <Node pos="r" depth="1" NCoef="0" IVar="0" Cut="8.0552873611450195e+00" cType="1" res="-8.7715215981006622e-02" rms="4.2157703638076782e-01" purity="2.8634542226791382e-01" nType="0">
          <Node pos="l" depth="2" NCoef="0" IVar="-1" Cut="0.0000000000000000e+00" cType="1" res="-2.5852438993752003e-03" rms="3.9880734682083130e-01" purity="2.2321975231170654e-01" nType="-99"/>
          <Node pos="r" depth="2" NCoef="0" IVar="-1" Cut="0.0000000000000000e+00" cType="1" res="8.7043939856812358e-04" rms="4.7982916235923767e-01" purity="5.3393101692199707e-01" nType="-99"/>
        </Node>
      </Node>
    </BinaryTree>
    <BinaryTree type="DecisionTree" boostWeight="1.0000000000000000e+00" itree="195">
      <Node pos="s" depth="0" NCoef="0" IVar="1" Cut="8.5081207275390625e+01" cType="1" res="-4.2290678247809410e-03" rms="4.6019127964973450e-01" purity="5.0343418121337891e-01" nType="0">
        <Node pos="l" depth="1" NCoef="0" IVar="2" Cut="1.4470211267471313e+00" cType="1" res="-4.6017531305551529e-02" rms="4.6038448810577393e-01" purity="4.5486798882484436e-01" nType="0">
          <Node pos="l" depth="2" NCoef="0" IVar="-1" Cut="0.0000000000000000e+00" cType="1" res="-5.5263185640797019e-04" rms="4.7098007798194885e-01" purity="4.9550223350524902e-01" nType="-99"/>
          <Node pos="r" depth="2" NCoef="0" IVar="-1" Cut="0.0000000000000000e+00" cType="1" res="-4.1619944386184216e-03" rms="3.3454924821853638e-01" purity="1.4267630875110626e-01" nType="-99"/>
        </Node>
        <Node pos="r" depth="1" NCoef="0" IVar="0" Cut="7.0158247947692871e+00" cType="1" res="6.3472375273704529e-02" rms="4.5174682140350342e-01" purity="5.8211624622344971e-01" nType="0">
          <Node pos="l" depth="2" NCoef="0" IVar="-1" Cut="0.0000000000000000e+00" cType="1" res="-1.9995590264443308e-04" rms="4.7316282987594604e-01" purity="4.2834660410881042e-01" nType="-99"/>
          <Node pos="r" depth="2" NCoef="0" IVar="-1" Cut="0.0000000000000000e+00" cType="1" res="3.3664370421320200e-03" rms="4.1233283281326294e-01" purity="7.5043052434921265e-01" nType="-99"/>
        </Node>
      </Node>
    </BinaryTree>
    <BinaryTree type="DecisionTree" boostWeight="1.0000000000000000e+00" itree="196">
      <Node pos="s" depth="0" NCoef="0" IVar="0" Cut="5.5151247978210449e+00" cType="1" res="8.9465742930769920e-03" rms="4.5878890156745911e-01" purity="5.1557075977325439e-01" nType="0">
        <Node pos="l" depth="1" NCoef="0" IVar="0" Cut="5.1121468544006348e+00" cType="1" res="-1.2001374363899231e-01" rms="4.0960809588432312e-01" purity="2.3198018968105316e-01" nType="0">
          <Node pos="l" depth="2" NCoef="0" IVar="-1" Cut="0.0000000000000000e+00" cType="1" res="-3.5126293078064919e-03" rms="3.6233398318290710e-01" purity="1.5835255384445190e-01" nType="-99"/>
          <Node pos="r" depth="2" NCoef="0" IVar="-1" Cut="0.0000000000000000e+00" cType="1" res="-1.0533645981922746e-03" rms="4.4364002346992493e-01" purity="3.0788072943687439e-01" nType="-99"/>
        </Node>
        <Node pos="r" depth="1" NCoef="0" IVar="2" Cut="9.7287231683731079e-01" cType="1" res="3.0914694070816040e-02" rms="4.6308416128158569e-01" purity="5.6387978792190552e-01" nType="0">
          <Node pos="l" depth="2" NCoef="0" IVar="-1" Cut="0.0000000000000000e+00" cType="1" res="2.0266633946448565e-03" rms="4.4109916687011719e-01" purity="7.0596945285797119e-01" nType="-99"/>
          <Node pos="r" depth="2" NCoef="0" IVar="-1" Cut="0.0000000000000000e+00" cType="1" res="-5.5048934882506728e-04" rms="4.7641673684120178e-01" purity="4.2659956216812134e-01" nType="-99"/>
        </Node>
      </Node>
    </BinaryTree>
    <BinaryTree type="DecisionTree" boostWeight="1.0000000000000000e+00" itree="197">
      <Node pos="s" depth="0" NCoef="0" IVar="1" Cut="8.8435020446777344e+01" cType="1" res="8.5234036669135094e-03" rms="4.6376338601112366e-01" purity="5.1788407564163208e-01" nType="0">
        <Node pos="l" depth="1" NCoef="0" IVar="4" Cut="1.8827845764160156e+02" cType="1" res="-4.7193564474582672e-02" rms="4.6349725127220154e-01" purity="4.5014631748199463e-01" nType="0">
          <Node pos="l" depth="2" NCoef="0" IVar="-1" Cut="0.0000000000000000e+00" cType="1" res="-3.2386739621870220e-04" rms="4.6523877978324890e-01" purity="4.9145671725273132e-01" nType="-99"/>
          <Node pos="r" depth="2" NCoef="0" IVar="-1" Cut="0.0000000000000000e+00" cType="1" res="-4.1186176240444183e-03" rms="4.2030847072601318e-01" purity="2.4457176029682159e-01" nType="-99"/>
        </Node>
        <Node pos="r" depth="1" NCoef="0" IVar="4" Cut="1.8808554077148438e+02" cType="1" res="9.8179616034030914e-02" rms="4.4993329048156738e-01" purity="6.2688326835632324e-01" nType="0">
          <Node pos="l" depth="2" NCoef="0" IVar="-1" Cut="0.0000000000000000e+00" cType="1" res="2.9319310560822487e-03" rms="4.4389626383781433e-01" purity="6.6738295555114746e-01" nType="-99"/>
          <Node pos="r" depth="2" NCoef="0" IVar="-1" Cut="0.0000000000000000e+00" cType="1" res="2.5607872521504760e-04" rms="4.5250695943832397e-01" purity="5.3019124269485474e-01" nType="-99"/>
        </Node>
      </Node>
    </BinaryTree>
    <BinaryTree type="DecisionTree" boostWeight="1.0000000000000000e+00" itree="198">
      <Node pos="s" depth="0" NCoef="0" IVar="2" Cut="1.1607202291488647e+00" cType="1" res="-3.0205573886632919e-02" rms="4.5879158377647400e-01" purity="4.6975991129875183e-01" nType="0">
        <Node pos="l" depth="1" NCoef="0" IVar="6" Cut="3.0120458984375000e+02" cType="1" res="-3.8030088762752712e-04" rms="4.6937805414199829e-01" purity="5.6267046928405762e-01" nType="0">
          <Node pos="l" depth="2" NCoef="0" IVar="-1" Cut="0.0000000000000000e+00" cType="1" res="-2.4198833853006363e-03" rms="4.5044857263565063e-01" purity="3.6381208896636963e-01" nType="-99"/>
          <Node pos="r" depth="2" NCoef="0" IVar="-1" Cut="0.0000000000000000e+00" cType="1" res="4.5921312994323671e-04" rms="4.6940016746520996e-01" purity="5.9862041473388672e-01" nType="-99"/>
        </Node>
        <Node pos="r" depth="1" NCoef="0" IVar="3" Cut="2.2870774269104004e+00" cType="1" res="-9.0454995632171631e-02" rms="4.3036428093910217e-01" purity="2.8207319974899292e-01" nType="0">
          <Node pos="l" depth="2" NCoef="0" IVar="-1" Cut="0.0000000000000000e+00" cType="1" res="-2.2805373009759933e-04" rms="4.6051454544067383e-01" purity="4.1373038291931152e-01" nType="-99"/>
          <Node pos="r" depth="2" NCoef="0" IVar="-1" Cut="0.0000000000000000e+00" cType="1" res="-2.6336291339248419e-03" rms="4.1335049271583557e-01" purity="2.2900697588920593e-01" nType="-99"/>
        </Node>
      </Node>
    </BinaryTree>
    <BinaryTree type="DecisionTree" boostWeight="1.0000000000000000e+00" itree="199">
      <Node pos="s" depth="0" NCoef="0" IVar="2" Cut="6.8878781795501709e-01" cType="1" res="-2.6266118511557579e-02" rms="4.5525795221328735e-01" purity="4.7835960984230042e-01" nType="0">
        <Node pos="l" depth="1" NCoef="0" IVar="2" Cut="5.6496429443359375e-01" cType="1" res="8.9902728796005249e-02" rms="4.5213934779167175e-01" purity="6.9231224060058594e-01" nType="0">
          <Node pos="l" depth="2" NCoef="0" IVar="-1" Cut="0.0000000000000000e+00" cType="1" res="2.8538294136524200e-03" rms="4.4715347886085510e-01" purity="7.3233664035797119e-01" nType="-99"/>
          <Node pos="r" depth="2" NCoef="0" IVar="-1" Cut="0.0000000000000000e+00" cType="1" res="1.2242638040333986e-03" rms="4.5424696803092957e-01" purity="6.5554326772689819e-01" nType="-99"/>
        </Node>
        <Node pos="r" depth="1" NCoef="0" IVar="0" Cut="7.2082133293151855e+00" cType="1" res="-5.7571426033973694e-02" rms="4.5100516080856323e-01" purity="4.2070341110229492e-01" nType="0">
          <Node pos="l" depth="2" NCoef="0" IVar="-1" Cut="0.0000000000000000e+00" cType="1" res="-2.4222219362854958e-03" rms="4.3460854887962341e-01" purity="2.8574940562248230e-01" nType="-99"/>
          <Node pos="r" depth="2" NCoef="0" IVar="-1" Cut="0.0000000000000000e+00" cType="1" res="8.2625448703765869e-04" rms="4.5978525280952454e-01" purity="6.3153785467147827e-01" nType="-99"/>
        </Node>
      </Node>
    </BinaryTree>
    <BinaryTree type="DecisionTree" boostWeight="1.0000000000000000e+00" itree="200">
      <Node pos="s" depth="0" NCoef="0" IVar="6" Cut="2.7934240722656250e+02" cType="1" res="-3.0056452378630638e-03" rms="4.5883929729461670e-01" purity="4.9997144937515259e-01" nType="0">
        <Node pos="l" depth="1" NCoef="0" IVar="5" Cut="4.5839941501617432e-01" cType="1" res="-1.2499717622995377e-01" rms="4.3828263878822327e-01" purity="2.9570037126541138e-01" nType="0">
          <Node pos="l" depth="2" NCoef="0" IVar="-1" Cut="0.0000000000000000e+00" cType="1" res="-1.6621907707303762e-03" rms="4.2822244763374329e-01" purity="3.2262006402015686e-01" nType="-99"/>
          <Node pos="r" depth="2" NCoef="0" IVar="-1" Cut="0.0000000000000000e+00" cType="1" res="-3.3446250017732382e-03" rms="4.4320499897003174e-01" purity="2.7089840173721313e-01" nType="-99"/>
        </Node>
        <Node pos="r" depth="1" NCoef="0" IVar="3" Cut="2.7397649288177490e+00" cType="1" res="1.4055693522095680e-02" rms="4.5906457304954529e-01" purity="5.2854013442993164e-01" nType="0">
          <Node pos="l" depth="2" NCoef="0" IVar="-1" Cut="0.0000000000000000e+00" cType="1" res="6.1692245071753860e-04" rms="4.6519291400909424e-01" purity="5.6280910968780518e-01" nType="-99"/>
          <Node pos="r" depth="2" NCoef="0" IVar="-1" Cut="0.0000000000000000e+00" cType="1" res="-3.7943643983453512e-03" rms="3.3124059438705444e-01" purity="1.1968231201171875e-01" nType="-99"/>
        </Node>
      </Node>
    </BinaryTree>
    <BinaryTree type="DecisionTree" boostWeight="1.0000000000000000e+00" itree="201">
      <Node pos="s" depth="0" NCoef="0" IVar="0" Cut="6.5783181190490723e+00" cType="1" res="-2.5556363165378571e-02" rms="4.5957732200622559e-01" purity="4.7656881809234619e-01" nType="0">
        <Node pos="l" depth="1" NCoef="0" IVar="1" Cut="8.5984817504882812e+01" cType="1" res="-9.8755642771720886e-02" rms="4.4550383090972900e-01" purity="3.0116236209869385e-01" nType="0">
          <Node pos="l" depth="2" NCoef="0" IVar="-1" Cut="0.0000000000000000e+00" cType="1" res="-2.7456551324576139e-03" rms="4.2275762557983398e-01" purity="2.5061500072479248e-01" nType="-99"/>
          <Node pos="r" depth="2" NCoef="0" IVar="-1" Cut="0.0000000000000000e+00" cType="1" res="-6.3178321579471231e-04" rms="4.7106030583381653e-01" purity="3.8009521365165710e-01" nType="-99"/>
        </Node>
        <Node pos="r" depth="1" NCoef="0" IVar="1" Cut="4.3872692108154297e+01" cType="1" res="3.3558748662471771e-02" rms="4.6225136518478394e-01" purity="6.1822551488876343e-01" nType="0">
          <Node pos="l" depth="2" NCoef="0" IVar="-1" Cut="0.0000000000000000e+00" cType="1" res="-1.7470255261287093e-03" rms="4.6490097045898438e-01" purity="4.7384381294250488e-01" nType="-99"/>
          <Node pos="r" depth="2" NCoef="0" IVar="-1" Cut="0.0000000000000000e+00" cType="1" res="1.2288554571568966e-03" rms="4.5856645703315735e-01" purity="6.4484071731567383e-01" nType="-99"/>
        </Node>
      </Node>
    </BinaryTree>
    <BinaryTree type="DecisionTree" boostWeight="1.0000000000000000e+00" itree="202">
      <Node pos="s" depth="0" NCoef="0" IVar="5" Cut="4.1030713915824890e-01" cType="1" res="2.1051887422800064e-02" rms="4.6007803082466125e-01" purity="5.1766079664230347e-01" nType="0">
        <Node pos="l" depth="1" NCoef="0" IVar="0" Cut="7.6939277648925781e+00" cType="1" res="-3.7587486207485199e-02" rms="4.5826625823974609e-01" purity="4.3107640743255615e-01" nType="0">
          <Node pos="l" depth="2" NCoef="0" IVar="-1" Cut="0.0000000000000000e+00" cType="1" res="-1.3710070634260774e-03" rms="4.5940005779266357e-01" purity="3.5249903798103333e-01" nType="-99"/>
          <Node pos="r" depth="2" NCoef="0" IVar="-1" Cut="0.0000000000000000e+00" cType="1" res="1.0811997344717383e-03" rms="4.4468533992767334e-01" purity="6.5937024354934692e-01" nType="-99"/>
        </Node>
        <Node pos="r" depth="1" NCoef="0" IVar="1" Cut="9.2002372741699219e+01" cType="1" res="8.7315700948238373e-02" rms="4.5307326316833496e-01" purity="6.1550319194793701e-01" nType="0">
          <Node pos="l" depth="2" NCoef="0" IVar="-1" Cut="0.0000000000000000e+00" cType="1" res="1.0930764256045222e-03" rms="4.6630302071571350e-01" purity="5.7647532224655151e-01" nType="-99"/>
          <Node pos="r" depth="2" NCoef="0" IVar="-1" Cut="0.0000000000000000e+00" cType="1" res="3.7854465190321207e-03" rms="4.0697011351585388e-01" purity="7.0915067195892334e-01" nType="-99"/>
        </Node>
      </Node>
    </BinaryTree>
    <BinaryTree type="DecisionTree" boostWeight="1.0000000000000000e+00" itree="203">
      <Node pos="s" depth="0" NCoef="0" IVar="2" Cut="6.9994133710861206e-01" cType="1" res="-4.0074732154607773e-02" rms="4.5742386579513550e-01" purity="4.6418336033821106e-01" nType="0">
        <Node pos="l" depth="1" NCoef="0" IVar="4" Cut="8.2581268310546875e+01" cType="1" res="6.1242863535881042e-02" rms="4.4565790891647339e-01" purity="6.7745959758758545e-01" nType="0">
          <Node pos="l" depth="2" NCoef="0" IVar="-1" Cut="0.0000000000000000e+00" cType="1" res="-2.0139741536695510e-04" rms="4.6708035469055176e-01" purity="6.1249923706054688e-01" nType="-99"/>
          <Node pos="r" depth="2" NCoef="0" IVar="-1" Cut="0.0000000000000000e+00" cType="1" res="2.7961854357272387e-03" rms="4.1547417640686035e-01" purity="7.3569786548614502e-01" nType="-99"/>
        </Node>
        <Node pos="r" depth="1" NCoef="0" IVar="1" Cut="5.1965927124023438e+01" cType="1" res="-6.9088384509086609e-02" rms="4.5661580562591553e-01" purity="4.0310886502265930e-01" nType="0">
          <Node pos="l" depth="2" NCoef="0" IVar="-1" Cut="0.0000000000000000e+00" cType="1" res="-3.5867034457623959e-03" rms="4.0876439213752747e-01" purity="2.6595854759216309e-01" nType="-99"/>
          <Node pos="r" depth="2" NCoef="0" IVar="-1" Cut="0.0000000000000000e+00" cType="1" res="-8.1605598097667098e-04" rms="4.6483588218688965e-01" purity="4.4194245338439941e-01" nType="-99"/>
        </Node>
      </Node>
    </BinaryTree>
    <BinaryTree type="DecisionTree" boostWeight="1.0000000000000000e+00" itree="204">
      <Node pos="s" depth="0" NCoef="0" IVar="1" Cut="5.3045299530029297e+01" cType="1" res="2.2128475829958916e-03" rms="4.5845946669578552e-01" purity="4.9981111288070679e-01" nType="0">
        <Node pos="l" depth="1" NCoef="0" IVar="1" Cut="4.8060344696044922e+01" cType="1" res="-8.8244467973709106e-02" rms="4.5286479592323303e-01" purity="4.1833439469337463e-01" nType="0">
          <Node pos="l" depth="2" NCoef="0" IVar="-1" Cut="0.0000000000000000e+00" cType="1" res="-2.8782580047845840e-03" rms="4.4394487142562866e-01" purity="3.5645687580108643e-01" nType="-99"/>
          <Node pos="r" depth="2" NCoef="0" IVar="-1" Cut="0.0000000000000000e+00" cType="1" res="2.3015183396637440e-03" rms="4.3043467402458191e-01" purity="6.4310663938522339e-01" nType="-99"/>
        </Node>
        <Node pos="r" depth="1" NCoef="0" IVar="2" Cut="1.0878174304962158e+00" cType="1" res="3.2780159264802933e-02" rms="4.5629879832267761e-01" purity="5.2734369039535522e-01" nType="0">
          <Node pos="l" depth="2" NCoef="0" IVar="-1" Cut="0.0000000000000000e+00" cType="1" res="1.9353713141754270e-03" rms="4.4864511489868164e-01" purity="6.8186777830123901e-01" nType="-99"/>
          <Node pos="r" depth="2" NCoef="0" IVar="-1" Cut="0.0000000000000000e+00" cType="1" res="-5.3648685570806265e-04" rms="4.5677909255027771e-01" purity="3.6790862679481506e-01" nType="-99"/>
        </Node>
      </Node>
    </BinaryTree>
    <BinaryTree type="DecisionTree" boostWeight="1.0000000000000000e+00" itree="205">
      <Node pos="s" depth="0" NCoef="0" IVar="3" Cut="2.2390995025634766e+00" cType="1" res="1.1098945979028940e-03" rms="4.5258760452270508e-01" purity="4.9478748440742493e-01" nType="0">
        <Node pos="l" depth="1" NCoef="0" IVar="5" Cut="6.6465055942535400e-01" cType="1" res="5.1038686186075211e-02" rms="4.6052432060241699e-01" purity="6.0627955198287964e-01" nType="0">
          <Node pos="l" depth="2" NCoef="0" IVar="-1" Cut="0.0000000000000000e+00" cType="1" res="1.4536944217979908e-03" rms="4.5477652549743652e-01" purity="6.2109434604644775e-01" nType="-99"/>
          <Node pos="r" depth="2" NCoef="0" IVar="-1" Cut="0.0000000000000000e+00" cType="1" res="-1.9471461419016123e-03" rms="4.8081141710281372e-01" purity="4.8636627197265625e-01" nType="-99"/>
        </Node>
        <Node pos="r" depth="1" NCoef="0" IVar="0" Cut="8.0422210693359375e+00" cType="1" res="-7.3271594941616058e-02" rms="4.2987528443336487e-01" purity="3.2869189977645874e-01" nType="0">
          <Node pos="l" depth="2" NCoef="0" IVar="-1" Cut="0.0000000000000000e+00" cType="1" res="-2.2860970348119736e-03" rms="4.1663610935211182e-01" purity="2.5774353742599487e-01" nType="-99"/>
          <Node pos="r" depth="2" NCoef="0" IVar="-1" Cut="0.0000000000000000e+00" cType="1" res="2.0515029318630695e-03" rms="4.4722437858581543e-01" purity="6.4466702938079834e-01" nType="-99"/>
        </Node>
      </Node>
    </BinaryTree>
    <BinaryTree type="DecisionTree" boostWeight="1.0000000000000000e+00" itree="206">
      <Node pos="s" depth="0" NCoef="0" IVar="5" Cut="4.2872354388237000e-01" cType="1" res="-6.3438680954277515e-03" rms="4.5875963568687439e-01" purity="4.9478828907012939e-01" nType="0">
        <Node pos="l" depth="1" NCoef="0" IVar="0" Cut="8.6558198928833008e+00" cType="1" res="-4.5762971043586731e-02" rms="4.5146954059600830e-01" purity="4.2893999814987183e-01" nType="0">
          <Node pos="l" depth="2" NCoef="0" IVar="-1" Cut="0.0000000000000000e+00" cType="1" res="-1.3758540153503418e-03" rms="4.5281809568405151e-01" purity="3.8752508163452148e-01" nType="-99"/>
          <Node pos="r" depth="2" NCoef="0" IVar="-1" Cut="0.0000000000000000e+00" cType="1" res="2.7403016574680805e-03" rms="4.0755590796470642e-01" purity="7.5937479734420776e-01" nType="-99"/>
        </Node>
        <Node pos="r" depth="1" NCoef="0" IVar="2" Cut="6.0522162914276123e-01" cType="1" res="4.5448798686265945e-02" rms="4.6309274435043335e-01" purity="5.8130615949630737e-01" nType="0">
          <Node pos="l" depth="2" NCoef="0" IVar="-1" Cut="0.0000000000000000e+00" cType="1" res="3.3826916478574276e-03" rms="3.9624804258346558e-01" purity="7.8535145521163940e-01" nType="-99"/>
          <Node pos="r" depth="2" NCoef="0" IVar="-1" Cut="0.0000000000000000e+00" cType="1" res="5.3905730601400137e-04" rms="4.7253197431564331e-01" purity="5.4140716791152954e-01" nType="-99"/>
        </Node>
      </Node>
    </BinaryTree>
    <BinaryTree type="DecisionTree" boostWeight="1.0000000000000000e+00" itree="207">
      <Node pos="s" depth="0" NCoef="0" IVar="0" Cut="5.8127684593200684e+00" cType="1" res="-1.5755293890833855e-02" rms="4.5453652739524841e-01" purity="4.8738268017768860e-01" nType="0">
        <Node pos="l" depth="1" NCoef="0" IVar="3" Cut="2.2376546859741211e+00" cType="1" res="-1.2270142138004303e-01" rms="4.0144512057304382e-01" purity="2.3474569618701935e-01" nType="0">
          <Node pos="l" depth="2" NCoef="0" IVar="-1" Cut="0.0000000000000000e+00" cType="1" res="-1.0929179843515158e-03" rms="4.6715652942657471e-01" purity="3.5174664855003357e-01" nType="-99"/>
          <Node pos="r" depth="2" NCoef="0" IVar="-1" Cut="0.0000000000000000e+00" cType="1" res="-4.1784960776567459e-03" rms="3.0116325616836548e-01" purity="1.0931019484996796e-01" nType="-99"/>
        </Node>
        <Node pos="r" depth="1" NCoef="0" IVar="1" Cut="1.2071797180175781e+02" cType="1" res="2.1434349939227104e-02" rms="4.6588227152824402e-01" purity="5.7523512840270996e-01" nType="0">
          <Node pos="l" depth="2" NCoef="0" IVar="-1" Cut="0.0000000000000000e+00" cType="1" res="8.0933212302625179e-05" rms="4.6799659729003906e-01" purity="5.5353587865829468e-01" nType="-99"/>
          <Node pos="r" depth="2" NCoef="0" IVar="-1" Cut="0.0000000000000000e+00" cType="1" res="2.5506739038974047e-03" rms="4.4431757926940918e-01" purity="6.8508797883987427e-01" nType="-99"/>
        </Node>
      </Node>
    </BinaryTree>
    <BinaryTree type="DecisionTree" boostWeight="1.0000000000000000e+00" itree="208">
      <Node pos="s" depth="0" NCoef="0" IVar="0" Cut="7.5245804786682129e+00" cType="1" res="4.8598586581647396e-03" rms="4.5563745498657227e-01" purity="5.1352179050445557e-01" nType="0">
        <Node pos="l" depth="1" NCoef="0" IVar="5" Cut="4.1738024353981018e-01" cType="1" res="-2.9506355524063110e-02" rms="4.6418565511703491e-01" purity="4.1857331991195679e-01" nType="0">
          <Node pos="l" depth="2" NCoef="0" IVar="-1" Cut="0.0000000000000000e+00" cType="1" res="-1.7842556117102504e-03" rms="4.4263988733291626e-01" purity="3.3116215467453003e-01" nType="-99"/>
          <Node pos="r" depth="2" NCoef="0" IVar="-1" Cut="0.0000000000000000e+00" cType="1" res="6.8022269988432527e-04" rms="4.7954264283180237e-01" purity="5.1705551147460938e-01" nType="-99"/>
        </Node>
        <Node pos="r" depth="1" NCoef="0" IVar="0" Cut="8.5730695724487305e+00" cType="1" res="8.0567769706249237e-02" rms="4.2655637860298157e-01" purity="7.2269105911254883e-01" nType="0">
          <Node pos="l" depth="2" NCoef="0" IVar="-1" Cut="0.0000000000000000e+00" cType="1" res="8.9535803999751806e-04" rms="4.5540416240692139e-01" purity="6.6385805606842041e-01" nType="-99"/>
          <Node pos="r" depth="2" NCoef="0" IVar="-1" Cut="0.0000000000000000e+00" cType="1" res="3.4941278863698244e-03" rms="3.7077575922012329e-01" purity="8.1093233823776245e-01" nType="-99"/>
        </Node>
      </Node>
    </BinaryTree>
    <BinaryTree type="DecisionTree" boostWeight="1.0000000000000000e+00" itree="209">
      <Node pos="s" depth="0" NCoef="0" IVar="0" Cut="4.9346818923950195e+00" cType="1" res="-8.0906488001346588e-03" rms="4.5663797855377197e-01" purity="4.9297398328781128e-01" nType="0">
        <Node pos="l" depth="1" NCoef="0" IVar="-1" Cut="0.0000000000000000e+00" cType="1" res="-4.2918068356812000e-03" rms="3.0215272307395935e-01" purity="1.0488837212324142e-01" nType="-99"/>
        <Node pos="r" depth="1" NCoef="0" IVar="1" Cut="8.7723342895507812e+01" cType="1" res="1.2477247975766659e-02" rms="4.6344554424285889e-01" purity="5.2985042333602905e-01" nType="0">
          <Node pos="l" depth="2" NCoef="0" IVar="-1" Cut="0.0000000000000000e+00" cType="1" res="-7.7722949208691716e-04" rms="4.6326750516891479e-01" purity="4.7663149237632751e-01" nType="-99"/>
          <Node pos="r" depth="2" NCoef="0" IVar="-1" Cut="0.0000000000000000e+00" cType="1" res="1.7188437050208449e-03" rms="4.5559325814247131e-01" purity="6.0098081827163696e-01" nType="-99"/>
        </Node>
      </Node>
    </BinaryTree>
    <BinaryTree type="DecisionTree" boostWeight="1.0000000000000000e+00" itree="210">
      <Node pos="s" depth="0" NCoef="0" IVar="5" Cut="2.4357956647872925e-01" cType="1" res="1.1948511004447937e-02" rms="4.6071830391883850e-01" purity="5.2342069149017334e-01" nType="0">
        <Node pos="l" depth="1" NCoef="0" IVar="0" Cut="7.8396196365356445e+00" cType="1" res="-6.8001940846443176e-02" rms="4.4187769293785095e-01" purity="3.8593104481697083e-01" nType="0">
          <Node pos="l" depth="2" NCoef="0" IVar="-1" Cut="0.0000000000000000e+00" cType="1" res="-2.8210605960339308e-03" rms="4.3340036273002625e-01" purity="2.6977968215942383e-01" nType="-99"/>
          <Node pos="r" depth="2" NCoef="0" IVar="-1" Cut="0.0000000000000000e+00" cType="1" res="2.6792811695486307e-03" rms="4.1116979718208313e-01" purity="7.2218859195709229e-01" nType="-99"/>
        </Node>
        <Node pos="r" depth="1" NCoef="0" IVar="3" Cut="2.5737967491149902e+00" cType="1" res="3.6767248064279556e-02" rms="4.6361631155014038e-01" purity="5.6610119342803955e-01" nType="0">
          <Node pos="l" depth="2" NCoef="0" IVar="-1" Cut="0.0000000000000000e+00" cType="1" res="1.1165977921336889e-03" rms="4.6676445007324219e-01" purity="6.0098248720169067e-01" nType="-99"/>
          <Node pos="r" depth="2" NCoef="0" IVar="-1" Cut="0.0000000000000000e+00" cType="1" res="-2.6759086176753044e-03" rms="3.9302220940589905e-01" purity="1.9695921242237091e-01" nType="-99"/>
        </Node>
      </Node>
    </BinaryTree>
    <BinaryTree type="DecisionTree" boostWeight="1.0000000000000000e+00" itree="211">
      <Node pos="s" depth="0" NCoef="0" IVar="0" Cut="5.0487990379333496e+00" cType="1" res="2.9768874868750572e-02" rms="4.5401993393898010e-01" purity="5.3663313388824463e-01" nType="0">
        <Node pos="l" depth="1" NCoef="0" IVar="-1" Cut="0.0000000000000000e+00" cType="1" res="-3.2282748725265265e-03" rms="3.8343665003776550e-01" purity="1.6674084961414337e-01" nType="-99"/>
        <Node pos="r" depth="1" NCoef="0" IVar="1" Cut="7.2289924621582031e+01" cType="1" res="4.5599646866321564e-02" rms="4.5564359426498413e-01" purity="5.6672245264053345e-01" nType="0">
          <Node pos="l" depth="2" NCoef="0" IVar="-1" Cut="0.0000000000000000e+00" cType="1" res="-9.5855881227180362e-05" rms="4.6443197131156921e-01" purity="5.0309973955154419e-01" nType="-99"/>
          <Node pos="r" depth="2" NCoef="0" IVar="-1" Cut="0.0000000000000000e+00" cType="1" res="1.9559969659894705e-03" rms="4.4330143928527832e-01" purity="6.2195998430252075e-01" nType="-99"/>
        </Node>
      </Node>
    </BinaryTree>
    <BinaryTree type="DecisionTree" boostWeight="1.0000000000000000e+00" itree="212">
      <Node pos="s" depth="0" NCoef="0" IVar="0" Cut="7.6474881172180176e+00" cType="1" res="6.9733196869492531e-03" rms="4.5202016830444336e-01" purity="5.1883870363235474e-01" nType="0">
        <Node pos="l" depth="1" NCoef="0" IVar="6" Cut="3.2551281738281250e+02" cType="1" res="-3.0781596899032593e-02" rms="4.6227392554283142e-01" purity="4.1994237899780273e-01" nType="0">
          <Node pos="l" depth="2" NCoef="0" IVar="-1" Cut="0.0000000000000000e+00" cType="1" res="-2.1901798900216818e-03" rms="4.3511295318603516e-01" purity="3.0886816978454590e-01" nType="-99"/>
          <Node pos="r" depth="2" NCoef="0" IVar="-1" Cut="0.0000000000000000e+00" cType="1" res="-1.4268440509113134e-06" rms="4.6926271915435791e-01" purity="4.6459987759590149e-01" nType="-99"/>
        </Node>
        <Node pos="r" depth="1" NCoef="0" IVar="1" Cut="9.1927566528320312e+01" cType="1" res="9.0026386082172394e-02" rms="4.1673231124877930e-01" purity="7.3639017343521118e-01" nType="0">
          <Node pos="l" depth="2" NCoef="0" IVar="-1" Cut="0.0000000000000000e+00" cType="1" res="7.3076237458735704e-04" rms="4.4958642125129700e-01" purity="6.7243957519531250e-01" nType="-99"/>
          <Node pos="r" depth="2" NCoef="0" IVar="-1" Cut="0.0000000000000000e+00" cType="1" res="4.1357250884175301e-03" rms="3.5201486945152283e-01" purity="8.2299703359603882e-01" nType="-99"/>
        </Node>
      </Node>
    </BinaryTree>
    <BinaryTree type="DecisionTree" boostWeight="1.0000000000000000e+00" itree="213">
      <Node pos="s" depth="0" NCoef="0" IVar="2" Cut="1.1949597597122192e+00" cType="1" res="-1.2376633472740650e-02" rms="4.5169040560722351e-01" purity="5.0111216306686401e-01" nType="0">
        <Node pos="l" depth="1" NCoef="0" IVar="1" Cut="3.8994636535644531e+01" cType="1" res="2.3078899830579758e-02" rms="4.6286433935165405e-01" purity="5.9731364250183105e-01" nType="0">
          <Node pos="l" depth="2" NCoef="0" IVar="-1" Cut="0.0000000000000000e+00" cType="1" res="-2.8036350850015879e-03" rms="4.6848317980766296e-01" purity="3.8276645541191101e-01" nType="-99"/>
          <Node pos="r" depth="2" NCoef="0" IVar="-1" Cut="0.0000000000000000e+00" cType="1" res="9.3295786064118147e-04" rms="4.5800983905792236e-01" purity="6.2288248538970947e-01" nType="-99"/>
        </Node>
        <Node pos="r" depth="1" NCoef="0" IVar="0" Cut="7.8609519004821777e+00" cType="1" res="-9.8853342235088348e-02" rms="4.1055470705032349e-01" purity="2.6647490262985229e-01" nType="0">
          <Node pos="l" depth="2" NCoef="0" IVar="-1" Cut="0.0000000000000000e+00" cType="1" res="-3.0360883101820946e-03" rms="3.7372651696205139e-01" purity="1.8691465258598328e-01" nType="-99"/>
          <Node pos="r" depth="2" NCoef="0" IVar="-1" Cut="0.0000000000000000e+00" cType="1" res="7.6985254418104887e-04" rms="4.8894903063774109e-01" purity="5.2799350023269653e-01" nType="-99"/>
        </Node>
      </Node>
    </BinaryTree>
    <BinaryTree type="DecisionTree" boostWeight="1.0000000000000000e+00" itree="214">
      <Node pos="s" depth="0" NCoef="0" IVar="1" Cut="1.0305259704589844e+02" cType="1" res="-1.5739910304546356e-03" rms="4.6549046039581299e-01" purity="5.0082093477249146e-01" nType="0">
        <Node pos="l" depth="1" NCoef="0" IVar="5" Cut="4.9699819087982178e-01" cType="1" res="-3.8101226091384888e-02" rms="4.6830168366432190e-01" purity="4.6067881584167480e-01" nType="0">
          <Node pos="l" depth="2" NCoef="0" IVar="-1" Cut="0.0000000000000000e+00" cType="1" res="-1.4454226475208998e-03" rms="4.6010747551918030e-01" purity="3.9738115668296814e-01" nType="-99"/>
          <Node pos="r" depth="2" NCoef="0" IVar="-1" Cut="0.0000000000000000e+00" cType="1" res="5.3164461860433221e-04" rms="4.7798758745193481e-01" purity="5.8611357212066650e-01" nType="-99"/>
        </Node>
        <Node pos="r" depth="1" NCoef="0" IVar="3" Cut="2.5311629772186279e+00" cType="1" res="9.1013036668300629e-02" rms="4.4505399465560913e-01" purity="6.0257065296173096e-01" nType="0">
          <Node pos="l" depth="2" NCoef="0" IVar="-1" Cut="0.0000000000000000e+00" cType="1" res="2.7547932695597410e-03" rms="4.3335524201393127e-01" purity="6.9687741994857788e-01" nType="-99"/>
          <Node pos="r" depth="2" NCoef="0" IVar="-1" Cut="0.0000000000000000e+00" cType="1" res="-2.0209203648846596e-04" rms="4.6509435772895813e-01" purity="3.1338739395141602e-01" nType="-99"/>
        </Node>
      </Node>
    </BinaryTree>
    <BinaryTree type="DecisionTree" boostWeight="1.0000000000000000e+00" itree="215">
      <Node pos="s" depth="0" NCoef="0" IVar="0" Cut="8.2691345214843750e+00" cType="1" res="-1.7862740904092789e-02" rms="4.6098804473876953e-01" purity="4.9441391229629517e-01" nType="0">
        <Node pos="l" depth="1" NCoef="0" IVar="5" Cut="3.0190345644950867e-01" cType="1" res="-3.7288412451744080e-02" rms="4.6218332648277283e-01" purity="4.3856799602508545e-01" nType="0">
          <Node pos="l" depth="2" NCoef="0" IVar="-1" Cut="0.0000000000000000e+00" cType="1" res="-2.1260580979287624e-03" rms="4.3349975347518921e-01" purity="3.1322428584098816e-01" nType="-99"/>
          <Node pos="r" depth="2" NCoef="0" IVar="-1" Cut="0.0000000000000000e+00" cType="1" res="-6.5874250140041113e-05" rms="4.7280740737915039e-01" purity="5.0367522239685059e-01" nType="-99"/>
        </Node>
        <Node pos="r" depth="1" NCoef="0" IVar="5" Cut="3.0194172263145447e-01" cType="1" res="6.2581554055213928e-02" rms="4.4710904359817505e-01" purity="7.2567921876907349e-01" nType="0">
          <Node pos="l" depth="2" NCoef="0" IVar="-1" Cut="0.0000000000000000e+00" cType="1" res="6.1001842841506004e-03" rms="3.1651127338409424e-01" purity="8.6095672845840454e-01" nType="-99"/>
          <Node pos="r" depth="2" NCoef="0" IVar="-1" Cut="0.0000000000000000e+00" cType="1" res="-5.6007822422543541e-05" rms="4.6815183758735657e-01" purity="6.7776131629943848e-01" nType="-99"/>
        </Node>
      </Node>
    </BinaryTree>
    <BinaryTree type="DecisionTree" boostWeight="1.0000000000000000e+00" itree="216">
      <Node pos="s" depth="0" NCoef="0" IVar="1" Cut="4.3727222442626953e+01" cType="1" res="8.1080049276351929e-03" rms="4.5361247658729553e-01" purity="5.0924813747406006e-01" nType="0">
        <Node pos="l" depth="1" NCoef="0" IVar="1" Cut="3.6257949829101562e+01" cType="1" res="-1.4857831597328186e-01" rms="4.4789192080497742e-01" purity="3.1312149763107300e-01" nType="0">
          <Node pos="l" depth="2" NCoef="0" IVar="-1" Cut="0.0000000000000000e+00" cType="1" res="-3.8692746311426163e-03" rms="4.3314018845558167e-01" purity="2.5477007031440735e-01" nType="-99"/>
          <Node pos="r" depth="2" NCoef="0" IVar="-1" Cut="0.0000000000000000e+00" cType="1" res="-2.0171399228274822e-03" rms="4.5500272512435913e-01" purity="3.6171609163284302e-01" nType="-99"/>
        </Node>
        <Node pos="r" depth="1" NCoef="0" IVar="3" Cut="2.4301104545593262e+00" cType="1" res="3.1058993190526962e-02" rms="4.4988536834716797e-01" purity="5.3797620534896851e-01" nType="0">
          <Node pos="l" depth="2" NCoef="0" IVar="-1" Cut="0.0000000000000000e+00" cType="1" res="1.4138234546408057e-03" rms="4.5571324229240417e-01" purity="6.1930865049362183e-01" nType="-99"/>
          <Node pos="r" depth="2" NCoef="0" IVar="-1" Cut="0.0000000000000000e+00" cType="1" res="-2.0205213222652674e-03" rms="4.0545818209648132e-01" purity="2.5015032291412354e-01" nType="-99"/>
        </Node>
      </Node>
    </BinaryTree>
    <BinaryTree type="DecisionTree" boostWeight="1.0000000000000000e+00" itree="217">
      <Node pos="s" depth="0" NCoef="0" IVar="2" Cut="5.4556345939636230e-01" cType="1" res="-1.5109203755855560e-02" rms="4.5800486207008362e-01" purity="4.8911759257316589e-01" nType="0">
        <Node pos="l" depth="1" NCoef="0" IVar="-1" Cut="0.0000000000000000e+00" cType="1" res="2.6095092762261629e-03" rms="4.3006971478462219e-01" purity="7.1483290195465088e-01" nType="-99"/>
        <Node pos="r" depth="1" NCoef="0" IVar="5" Cut="3.5800567269325256e-01" cType="1" res="-2.6430210098624229e-02" rms="4.5872947573661804e-01" purity="4.6889346837997437e-01" nType="0">
          <Node pos="l" depth="2" NCoef="0" IVar="-1" Cut="0.0000000000000000e+00" cType="1" res="-1.4157572295516729e-03" rms="4.4473615288734436e-01" purity="3.9972779154777527e-01" nType="-99"/>
          <Node pos="r" depth="2" NCoef="0" IVar="-1" Cut="0.0000000000000000e+00" cType="1" res="1.6360914742108434e-04" rms="4.6746009588241577e-01" purity="5.2704167366027832e-01" nType="-99"/>
        </Node>
      </Node>
    </BinaryTree>
    <BinaryTree type="DecisionTree" boostWeight="1.0000000000000000e+00" itree="218">
      <Node pos="s" depth="0" NCoef="0" IVar="1" Cut="4.8830585479736328e+01" cType="1" res="-5.7260938920080662e-03" rms="4.5439344644546509e-01" purity="5.0136572122573853e-01" nType="0">
        <Node pos="l" depth="1" NCoef="0" IVar="2" Cut="1.0220702886581421e+00" cType="1" res="-1.1390043050050735e-01" rms="4.2998519539833069e-01" purity="3.6008274555206299e-01" nType="0">
          <Node pos="l" depth="2" NCoef="0" IVar="-1" Cut="0.0000000000000000e+00" cType="1" res="-5.5818329565227032e-04" rms="4.7244247794151306e-01" purity="5.2514255046844482e-01" nType="-99"/>
          <Node pos="r" depth="2" NCoef="0" IVar="-1" Cut="0.0000000000000000e+00" cType="1" res="-4.5193177647888660e-03" rms="3.4301638603210449e-01" purity="1.5836010873317719e-01" nType="-99"/>
        </Node>
        <Node pos="r" depth="1" NCoef="0" IVar="3" Cut="2.4061686992645264e+00" cType="1" res="2.0513677969574928e-02" rms="4.5627024769783020e-01" purity="5.3563660383224487e-01" nType="0">
          <Node pos="l" depth="2" NCoef="0" IVar="-1" Cut="0.0000000000000000e+00" cType="1" res="1.0899391490966082e-03" rms="4.6143782138824463e-01" purity="6.1890560388565063e-01" nType="-99"/>
          <Node pos="r" depth="2" NCoef="0" IVar="-1" Cut="0.0000000000000000e+00" cType="1" res="-1.6061078058555722e-03" rms="4.2668169736862183e-01" purity="2.7800023555755615e-01" nType="-99"/>
        </Node>
      </Node>
    </BinaryTree>
    <BinaryTree type="DecisionTree" boostWeight="1.0000000000000000e+00" itree="219">
      <Node pos="s" depth="0" NCoef="0" IVar="2" Cut="8.7796378135681152e-01" cType="1" res="-9.7789699211716652e-03" rms="4.5575410127639771e-01" purity="4.9039444327354431e-01" nType="0">
        <Node pos="l" depth="1" NCoef="0" IVar="5" Cut="6.6708862781524658e-01" cType="1" res="5.4734952747821808e-02" rms="4.5320847630500793e-01" purity="6.5540778636932373e-01" nType="0">
          <Node pos="l" depth="2" NCoef="0" IVar="-1" Cut="0.0000000000000000e+00" cType="1" res="6.8738462869077921e-04" rms="4.6379408240318298e-01" purity="6.3107079267501831e-01" nType="-99"/>
          <Node pos="r" depth="2" NCoef="0" IVar="-1" Cut="0.0000000000000000e+00" cType="1" res="3.8932915776968002e-03" rms="3.6876541376113892e-01" purity="7.8435927629470825e-01" nType="-99"/>
        </Node>
        <Node pos="r" depth="1" NCoef="0" IVar="0" Cut="7.0860905647277832e+00" cType="1" res="-5.0579309463500977e-02" rms="4.5263484120368958e-01" purity="3.8603553175926208e-01" nType="0">
          <Node pos="l" depth="2" NCoef="0" IVar="-1" Cut="0.0000000000000000e+00" cType="1" res="-1.8804591381922364e-03" rms="4.3200677633285522e-01" purity="2.7252465486526489e-01" nType="-99"/>
          <Node pos="r" depth="2" NCoef="0" IVar="-1" Cut="0.0000000000000000e+00" cType="1" res="3.2829184783622622e-04" rms="4.7634038329124451e-01" purity="5.6650602817535400e-01" nType="-99"/>
        </Node>
      </Node>
    </BinaryTree>
    <BinaryTree type="DecisionTree" boostWeight="1.0000000000000000e+00" itree="220">
      <Node pos="s" depth="0" NCoef="0" IVar="2" Cut="6.8334847688674927e-01" cType="1" res="-8.6159529164433479e-03" rms="4.6840664744377136e-01" purity="4.9345788359642029e-01" nType="0">
        <Node pos="l" depth="1" NCoef="0" IVar="3" Cut="1.9947395324707031e+00" cType="1" res="9.6685610711574554e-02" rms="4.4005224108695984e-01" purity="7.0454889535903931e-01" nType="0">
          <Node pos="l" depth="2" NCoef="0" IVar="-1" Cut="0.0000000000000000e+00" cType="1" res="3.7127197720110416e-03" rms="4.0735074877738953e-01" purity="7.7424919605255127e-01" nType="-99"/>
          <Node pos="r" depth="2" NCoef="0" IVar="-1" Cut="0.0000000000000000e+00" cType="1" res="-2.6340223848819733e-04" rms="4.6587786078453064e-01" purity="5.9614884853363037e-01" nType="-99"/>
        </Node>
        <Node pos="r" depth="1" NCoef="0" IVar="4" Cut="1.1126698303222656e+02" cType="1" res="-3.6307230591773987e-02" rms="4.7169467806816101e-01" purity="4.3794697523117065e-01" nType="0">
          <Node pos="l" depth="2" NCoef="0" IVar="-1" Cut="0.0000000000000000e+00" cType="1" res="-1.3534463942050934e-03" rms="4.6260532736778259e-01" purity="4.0330982208251953e-01" nType="-99"/>
          <Node pos="r" depth="2" NCoef="0" IVar="-1" Cut="0.0000000000000000e+00" cType="1" res="-7.8550910984631628e-05" rms="4.7960960865020752e-01" purity="4.7685214877128601e-01" nType="-99"/>
        </Node>
      </Node>
    </BinaryTree>
    <BinaryTree type="DecisionTree" boostWeight="1.0000000000000000e+00" itree="221">
      <Node pos="s" depth="0" NCoef="0" IVar="0" Cut="5.0458197593688965e+00" cType="1" res="-7.6518896967172623e-03" rms="4.5662721991539001e-01" purity="4.9845200777053833e-01" nType="0">
        <Node pos="l" depth="1" NCoef="0" IVar="-1" Cut="0.0000000000000000e+00" cType="1" res="-4.5275478623807430e-03" rms="2.9865819215774536e-01" purity="1.0598157346248627e-01" nType="-99"/>
        <Node pos="r" depth="1" NCoef="0" IVar="1" Cut="7.5787330627441406e+01" cType="1" res="1.3146527111530304e-02" rms="4.6295788884162903e-01" purity="5.3451180458068848e-01" nType="0">
          <Node pos="l" depth="2" NCoef="0" IVar="-1" Cut="0.0000000000000000e+00" cType="1" res="-1.1363558005541563e-03" rms="4.6750646829605103e-01" purity="4.5445472002029419e-01" nType="-99"/>
          <Node pos="r" depth="2" NCoef="0" IVar="-1" Cut="0.0000000000000000e+00" cType="1" res="1.7945140134543180e-03" rms="4.4782724976539612e-01" purity="6.1591637134552002e-01" nType="-99"/>
        </Node>
      </Node>
    </BinaryTree>
    <BinaryTree type="DecisionTree" boostWeight="1.0000000000000000e+00" itree="222">
      <Node pos="s" depth="0" NCoef="0" IVar="1" Cut="1.1005738830566406e+02" cType="1" res="-2.9322175309062004e-02" rms="4.6744510531425476e-01" purity="4.7189316153526306e-01" nType="0">
        <Node pos="l" depth="1" NCoef="0" IVar="1" Cut="1.0267338562011719e+02" cType="1" res="-5.6139905005693436e-02" rms="4.6513858437538147e-01" purity="4.4100144505500793e-01" nType="0">
          <Node pos="l" depth="2" NCoef="0" IVar="-1" Cut="0.0000000000000000e+00" cType="1" res="-1.4039025409147143e-03" rms="4.6377676725387573e-01" purity="4.3194770812988281e-01" nType="-99"/>
          <Node pos="r" depth="2" NCoef="0" IVar="-1" Cut="0.0000000000000000e+00" cType="1" res="1.9346739863976836e-03" rms="4.5937079191207886e-01" purity="5.6873953342437744e-01" nType="-99"/>
        </Node>
        <Node pos="r" depth="1" NCoef="0" IVar="6" Cut="4.7254791259765625e+02" cType="1" res="7.4095152318477631e-02" rms="4.6187815070152283e-01" purity="5.9102088212966919e-01" nType="0">
          <Node pos="l" depth="2" NCoef="0" IVar="-1" Cut="0.0000000000000000e+00" cType="1" res="1.9675889052450657e-04" rms="4.4872161746025085e-01" purity="4.7701242566108704e-01" nType="-99"/>
          <Node pos="r" depth="2" NCoef="0" IVar="-1" Cut="0.0000000000000000e+00" cType="1" res="2.7892822399735451e-03" rms="4.6554499864578247e-01" purity="6.7419910430908203e-01" nType="-99"/>
        </Node>
      </Node>
    </BinaryTree>
    <BinaryTree type="DecisionTree" boostWeight="1.0000000000000000e+00" itree="223">
      <Node pos="s" depth="0" NCoef="0" IVar="1" Cut="6.6123962402343750e+01" cType="1" res="-3.4213254693895578e-03" rms="4.6298250555992126e-01" purity="4.9743285775184631e-01" nType="0">
        <Node pos="l" depth="1" NCoef="0" IVar="1" Cut="5.1521629333496094e+01" cType="1" res="-6.1951179057359695e-02" rms="4.6203741431236267e-01" purity="4.2661598324775696e-01" nType="0">
          <Node pos="l" depth="2" NCoef="0" IVar="-1" Cut="0.0000000000000000e+00" cType="1" res="-2.2659520618617535e-03" rms="4.5595014095306396e-01" purity="3.6278367042541504e-01" nType="-99"/>
          <Node pos="r" depth="2" NCoef="0" IVar="-1" Cut="0.0000000000000000e+00" cType="1" res="2.7283999952487648e-04" rms="4.6099379658699036e-01" purity="5.2186310291290283e-01" nType="-99"/>
        </Node>
        <Node pos="r" depth="1" NCoef="0" IVar="0" Cut="6.6788477897644043e+00" cType="1" res="4.1300889104604721e-02" rms="4.5869722962379456e-01" purity="5.5154341459274292e-01" nType="0">
          <Node pos="l" depth="2" NCoef="0" IVar="-1" Cut="0.0000000000000000e+00" cType="1" res="-3.6717660259455442e-04" rms="4.6830856800079346e-01" purity="3.8334795832633972e-01" nType="-99"/>
          <Node pos="r" depth="2" NCoef="0" IVar="-1" Cut="0.0000000000000000e+00" cType="1" res="2.0249704830348492e-03" rms="4.4586300849914551e-01" purity="6.8073409795761108e-01" nType="-99"/>
        </Node>
      </Node>
    </BinaryTree>
    <BinaryTree type="DecisionTree" boostWeight="1.0000000000000000e+00" itree="224">
      <Node pos="s" depth="0" NCoef="0" IVar="5" Cut="5.6758433580398560e-01" cType="1" res="7.4094305746257305e-03" rms="4.6132615208625793e-01" purity="5.0920790433883667e-01" nType="0">
        <Node pos="l" depth="1" NCoef="0" IVar="0" Cut="5.5276203155517578e+00" cType="1" res="-1.9547207280993462e-02" rms="4.5825144648551941e-01" purity="4.7382941842079163e-01" nType="0">
          <Node pos="l" depth="2" NCoef="0" IVar="-1" Cut="0.0000000000000000e+00" cType="1" res="-3.0593744013458490e-03" rms="3.6967793107032776e-01" purity="1.7811951041221619e-01" nType="-99"/>
          <Node pos="r" depth="2" NCoef="0" IVar="-1" Cut="0.0000000000000000e+00" cType="1" res="1.3900807243771851e-04" rms="4.7002342343330383e-01" purity="5.3393387794494629e-01" nType="-99"/>
        </Node>
        <Node pos="r" depth="1" NCoef="0" IVar="2" Cut="7.9066759347915649e-01" cType="1" res="1.0947072505950928e-01" rms="4.5864921808242798e-01" purity="6.4315557479858398e-01" nType="0">
          <Node pos="l" depth="2" NCoef="0" IVar="-1" Cut="0.0000000000000000e+00" cType="1" res="4.1889226995408535e-03" rms="4.0483385324478149e-01" purity="7.8707653284072876e-01" nType="-99"/>
          <Node pos="r" depth="2" NCoef="0" IVar="-1" Cut="0.0000000000000000e+00" cType="1" res="9.8329328466206789e-04" rms="4.8934021592140198e-01" purity="5.2633780241012573e-01" nType="-99"/>
        </Node>
      </Node>
    </BinaryTree>
    <BinaryTree type="DecisionTree" boostWeight="1.0000000000000000e+00" itree="225">
      <Node pos="s" depth="0" NCoef="0" IVar="0" Cut="5.5906758308410645e+00" cType="1" res="8.6652645841240883e-03" rms="4.5613279938697815e-01" purity="5.0300711393356323e-01" nType="0">
        <Node pos="l" depth="1" NCoef="0" IVar="0" Cut="5.3170533180236816e+00" cType="1" res="-1.2900589406490326e-01" rms="3.9480736851692200e-01" purity="2.0311002433300018e-01" nType="0">
          <Node pos="l" depth="2" NCoef="0" IVar="-1" Cut="0.0000000000000000e+00" cType="1" res="-3.2000555656850338e-03" rms="3.7627890706062317e-01" purity="1.6469149291515350e-01" nType="-99"/>
          <Node pos="r" depth="2" NCoef="0" IVar="-1" Cut="0.0000000000000000e+00" cType="1" res="-1.4630656223744154e-03" rms="4.2115065455436707e-01" purity="2.7450054883956909e-01" nType="-99"/>
        </Node>
        <Node pos="r" depth="1" NCoef="0" IVar="6" Cut="6.8393939208984375e+02" cType="1" res="4.1552767157554626e-02" rms="4.6358805894851685e-01" purity="5.7464784383773804e-01" nType="0">
          <Node pos="l" depth="2" NCoef="0" IVar="-1" Cut="0.0000000000000000e+00" cType="1" res="5.8068014914169908e-04" rms="4.6708849072456360e-01" purity="5.5597180128097534e-01" nType="-99"/>
          <Node pos="r" depth="2" NCoef="0" IVar="-1" Cut="0.0000000000000000e+00" cType="1" res="5.3184614516794682e-03" rms="3.5947021842002869e-01" purity="8.2393431663513184e-01" nType="-99"/>
        </Node>
      </Node>
    </BinaryTree>
    <BinaryTree type="DecisionTree" boostWeight="1.0000000000000000e+00" itree="226">
      <Node pos="s" depth="0" NCoef="0" IVar="0" Cut="5.0220131874084473e+00" cType="1" res="-6.0155694372951984e-03" rms="4.5214286446571350e-01" purity="5.0606667995452881e-01" nType="0">
        <Node pos="l" depth="1" NCoef="0" IVar="-1" Cut="0.0000000000000000e+00" cType="1" res="-3.1913844868540764e-03" rms="3.8459751009941101e-01" purity="1.7491817474365234e-01" nType="-99"/>
        <Node pos="r" depth="1" NCoef="0" IVar="2" Cut="1.5742790699005127e+00" cType="1" res="9.5114000141620636e-03" rms="4.5558977127075195e-01" purity="5.3971409797668457e-01" nType="0">
          <Node pos="l" depth="2" NCoef="0" IVar="-1" Cut="0.0000000000000000e+00" cType="1" res="5.4030335741117597e-04" rms="4.6113595366477966e-01" purity="5.7688224315643311e-01" nType="-99"/>
          <Node pos="r" depth="2" NCoef="0" IVar="-1" Cut="0.0000000000000000e+00" cType="1" res="-3.2093066256493330e-03" rms="3.6047908663749695e-01" purity="1.6590511798858643e-01" nType="-99"/>
        </Node>
      </Node>
    </BinaryTree>
    <BinaryTree type="DecisionTree" boostWeight="1.0000000000000000e+00" itree="227">
      <Node pos="s" depth="0" NCoef="0" IVar="2" Cut="1.2350888252258301e+00" cType="1" res="-8.1521244719624519e-03" rms="4.5615717768669128e-01" purity="5.0291556119918823e-01" nType="0">
        <Node pos="l" depth="1" NCoef="0" IVar="0" Cut="7.6763114929199219e+00" cType="1" res="2.3917699232697487e-02" rms="4.6420535445213318e-01" purity="5.8834731578826904e-01" nType="0">
          <Node pos="l" depth="2" NCoef="0" IVar="-1" Cut="0.0000000000000000e+00" cType="1" res="-1.7344573279842734e-04" rms="4.8284637928009033e-01" purity="5.0050300359725952e-01" nType="-99"/>
          <Node pos="r" depth="2" NCoef="0" IVar="-1" Cut="0.0000000000000000e+00" cType="1" res="2.4233390577137470e-03" rms="4.1121536493301392e-01" purity="7.8205949068069458e-01" nType="-99"/>
        </Node>
        <Node pos="r" depth="1" NCoef="0" IVar="4" Cut="2.2903877258300781e+02" cType="1" res="-1.0191076248884201e-01" rms="4.1788306832313538e-01" purity="2.5314912199974060e-01" nType="0">
          <Node pos="l" depth="2" NCoef="0" IVar="-1" Cut="0.0000000000000000e+00" cType="1" res="-1.7071746988222003e-03" rms="4.2823460698127747e-01" purity="2.7873075008392334e-01" nType="-99"/>
          <Node pos="r" depth="2" NCoef="0" IVar="-1" Cut="0.0000000000000000e+00" cType="1" res="-3.6669503897428513e-03" rms="3.7561511993408203e-01" purity="1.7588734626770020e-01" nType="-99"/>
        </Node>
      </Node>
    </BinaryTree>
    <BinaryTree type="DecisionTree" boostWeight="1.0000000000000000e+00" itree="228">
      <Node pos="s" depth="0" NCoef="0" IVar="1" Cut="7.3911148071289062e+01" cType="1" res="1.0614073835313320e-02" rms="4.5929694175720215e-01" purity="5.2359354496002197e-01" nType="0">
        <Node pos="l" depth="1" NCoef="0" IVar="0" Cut="5.8361530303955078e+00" cType="1" res="-3.7490930408239365e-02" rms="4.5988482236862183e-01" purity="4.6261683106422424e-01" nType="0">
          <Node pos="l" depth="2" NCoef="0" IVar="-1" Cut="0.0000000000000000e+00" cType="1" res="-2.1562436595559120e-03" rms="4.2230194807052612e-01" purity="2.5346761941909790e-01" nType="-99"/>
          <Node pos="r" depth="2" NCoef="0" IVar="-1" Cut="0.0000000000000000e+00" cType="1" res="-1.9942155631724745e-04" rms="4.7112572193145752e-01" purity="5.4629892110824585e-01" nType="-99"/>
        </Node>
        <Node pos="r" depth="1" NCoef="0" IVar="4" Cut="2.7403479003906250e+02" cType="1" res="5.5822990834712982e-02" rms="4.5412245392799377e-01" purity="5.8089923858642578e-01" nType="0">
          <Node pos="l" depth="2" NCoef="0" IVar="-1" Cut="0.0000000000000000e+00" cType="1" res="1.7181901494041085e-03" rms="4.4999742507934570e-01" purity="6.0799098014831543e-01" nType="-99"/>
          <Node pos="r" depth="2" NCoef="0" IVar="-1" Cut="0.0000000000000000e+00" cType="1" res="-9.9304900504648685e-04" rms="4.5758250355720520e-01" purity="4.6755793690681458e-01" nType="-99"/>
        </Node>
      </Node>
    </BinaryTree>
    <BinaryTree type="DecisionTree" boostWeight="1.0000000000000000e+00" itree="229">
      <Node pos="s" depth="0" NCoef="0" IVar="0" Cut="8.4917192459106445e+00" cType="1" res="-4.2331642471253872e-03" rms="4.5608216524124146e-01" purity="4.9788674712181091e-01" nType="0">
        <Node pos="l" depth="1" NCoef="0" IVar="2" Cut="5.0381320714950562e-01" cType="1" res="-2.9352642595767975e-02" rms="4.6240389347076416e-01" purity="4.4442170858383179e-01" nType="0">
          <Node pos="l" depth="2" NCoef="0" IVar="-1" Cut="0.0000000000000000e+00" cType="1" res="3.6110479850322008e-03" rms="4.1835054755210876e-01" purity="7.4819076061248779e-01" nType="-99"/>
          <Node pos="r" depth="2" NCoef="0" IVar="-1" Cut="0.0000000000000000e+00" cType="1" res="-9.3236332759261131e-04" rms="4.6233907341957092e-01" purity="4.1931024193763733e-01" nType="-99"/>
        </Node>
        <Node pos="r" depth="1" NCoef="0" IVar="1" Cut="6.9755493164062500e+01" cType="1" res="1.3725610077381134e-01" rms="3.8952797651290894e-01" purity="7.9903662204742432e-01" nType="0">
          <Node pos="l" depth="2" NCoef="0" IVar="-1" Cut="0.0000000000000000e+00" cType="1" res="1.9347104243934155e-03" rms="4.2817181348800659e-01" purity="7.2430634498596191e-01" nType="-99"/>
          <Node pos="r" depth="2" NCoef="0" IVar="-1" Cut="0.0000000000000000e+00" cType="1" res="4.5403912663459778e-03" rms="3.5427451133728027e-01" purity="8.5160094499588013e-01" nType="-99"/>
        </Node>
      </Node>
    </BinaryTree>
    <BinaryTree type="DecisionTree" boostWeight="1.0000000000000000e+00" itree="230">
      <Node pos="s" depth="0" NCoef="0" IVar="1" Cut="5.0034538269042969e+01" cType="1" res="-2.0085761323571205e-02" rms="4.5167225599288940e-01" purity="4.7298234701156616e-01" nType="0">
        <Node pos="l" depth="1" NCoef="0" IVar="2" Cut="8.9847838878631592e-01" cType="1" res="-1.2204433977603912e-01" rms="4.3038144707679749e-01" purity="3.3251300454139709e-01" nType="0">
          <Node pos="l" depth="2" NCoef="0" IVar="-1" Cut="0.0000000000000000e+00" cType="1" res="-1.3696352252736688e-03" rms="4.8373180627822876e-01" purity="4.8074665665626526e-01" nType="-99"/>
          <Node pos="r" depth="2" NCoef="0" IVar="-1" Cut="0.0000000000000000e+00" cType="1" res="-3.4870463423430920e-03" rms="3.7607172131538391e-01" purity="2.1327829360961914e-01" nType="-99"/>
        </Node>
        <Node pos="r" depth="1" NCoef="0" IVar="3" Cut="2.2587511539459229e+00" cType="1" res="6.3156243413686752e-03" rms="4.5330098271369934e-01" purity="5.0935584306716919e-01" nType="0">
          <Node pos="l" depth="2" NCoef="0" IVar="-1" Cut="0.0000000000000000e+00" cType="1" res="1.0629334719851613e-03" rms="4.5430120825767517e-01" purity="6.3328254222869873e-01" nType="-99"/>
          <Node pos="r" depth="2" NCoef="0" IVar="-1" Cut="0.0000000000000000e+00" cType="1" res="-1.1158135021105409e-03" rms="4.4530028104782104e-01" purity="3.3890980482101440e-01" nType="-99"/>
        </Node>
      </Node>
    </BinaryTree>
    <BinaryTree type="DecisionTree" boostWeight="1.0000000000000000e+00" itree="231">
      <Node pos="s" depth="0" NCoef="0" IVar="0" Cut="5.2203869819641113e+00" cType="1" res="-2.3039182648062706e-02" rms="4.5939731597900391e-01" purity="4.8821526765823364e-01" nType="0">
        <Node pos="l" depth="1" NCoef="0" IVar="2" Cut="1.0802321434020996e+00" cType="1" res="-1.5281088650226593e-01" rms="3.7148773670196533e-01" purity="1.7443940043449402e-01" nType="0">
          <Node pos="l" depth="2" NCoef="0" IVar="-1" Cut="0.0000000000000000e+00" cType="1" res="-2.6078342925757170e-03" rms="4.3346142768859863e-01" purity="2.4493165314197540e-01" nType="-99"/>
          <Node pos="r" depth="2" NCoef="0" IVar="-1" Cut="0.0000000000000000e+00" cType="1" res="-3.7497568409889936e-03" rms="2.8664928674697876e-01" purity="9.5898225903511047e-02" nType="-99"/>
        </Node>
        <Node pos="r" depth="1" NCoef="0" IVar="3" Cut="2.1336879730224609e+00" cType="1" res="-7.2392737492918968e-03" rms="4.6651786565780640e-01" purity="5.2641797065734863e-01" nType="0">
          <Node pos="l" depth="2" NCoef="0" IVar="-1" Cut="0.0000000000000000e+00" cType="1" res="8.4816379239782691e-04" rms="4.6551305055618286e-01" purity="6.3449019193649292e-01" nType="-99"/>
          <Node pos="r" depth="2" NCoef="0" IVar="-1" Cut="0.0000000000000000e+00" cType="1" res="-1.0144996922463179e-03" rms="4.6364378929138184e-01" purity="4.3057879805564880e-01" nType="-99"/>
        </Node>
      </Node>
    </BinaryTree>
    <BinaryTree type="DecisionTree" boostWeight="1.0000000000000000e+00" itree="232">
      <Node pos="s" depth="0" NCoef="0" IVar="6" Cut="2.8164309692382812e+02" cType="1" res="1.2004030868411064e-03" rms="4.5758232474327087e-01" purity="5.0546073913574219e-01" nType="0">
        <Node pos="l" depth="1" NCoef="0" IVar="1" Cut="5.2211662292480469e+01" cType="1" res="-1.7767588794231415e-01" rms="3.9758008718490601e-01" purity="2.3871468007564545e-01" nType="0">
          <Node pos="l" depth="2" NCoef="0" IVar="-1" Cut="0.0000000000000000e+00" cType="1" res="-4.5514479279518127e-03" rms="3.7410518527030945e-01" purity="1.9328705966472626e-01" nType="-99"/>
          <Node pos="r" depth="2" NCoef="0" IVar="-1" Cut="0.0000000000000000e+00" cType="1" res="-2.8281328268349171e-03" rms="4.1686114668846130e-01" purity="2.8830313682556152e-01" nType="-99"/>
        </Node>
        <Node pos="r" depth="1" NCoef="0" IVar="3" Cut="2.6859557628631592e+00" cType="1" res="2.5792555883526802e-02" rms="4.5981764793395996e-01" purity="5.4213333129882812e-01" nType="0">
          <Node pos="l" depth="2" NCoef="0" IVar="-1" Cut="0.0000000000000000e+00" cType="1" res="9.3734526308253407e-04" rms="4.6593496203422546e-01" purity="5.8065253496170044e-01" nType="-99"/>
          <Node pos="r" depth="2" NCoef="0" IVar="-1" Cut="0.0000000000000000e+00" cType="1" res="-3.7701271940022707e-03" rms="3.3198419213294983e-01" purity="1.2364523857831955e-01" nType="-99"/>
        </Node>
      </Node>
    </BinaryTree>
    <BinaryTree type="DecisionTree" boostWeight="1.0000000000000000e+00" itree="233">
      <Node pos="s" depth="0" NCoef="0" IVar="1" Cut="1.0438430786132812e+02" cType="1" res="-5.3616226650774479e-03" rms="4.5446735620498657e-01" purity="4.9502587318420410e-01" nType="0">
        <Node pos="l" depth="1" NCoef="0" IVar="6" Cut="3.0620889282226562e+02" cType="1" res="-3.4563068300485611e-02" rms="4.5496526360511780e-01" purity="4.5623126626014709e-01" nType="0">
          <Node pos="l" depth="2" NCoef="0" IVar="-1" Cut="0.0000000000000000e+00" cType="1" res="-2.6133796200156212e-03" rms="4.1046938300132751e-01" purity="3.0246129631996155e-01" nType="-99"/>
          <Node pos="r" depth="2" NCoef="0" IVar="-1" Cut="0.0000000000000000e+00" cType="1" res="-2.7386426154407673e-05" rms="4.6597740054130554e-01" purity="5.1310133934020996e-01" nType="-99"/>
        </Node>
        <Node pos="r" depth="1" NCoef="0" IVar="2" Cut="9.6897089481353760e-01" cType="1" res="8.0672018229961395e-02" rms="4.4191896915435791e-01" purity="6.0932290554046631e-01" nType="0">
          <Node pos="l" depth="2" NCoef="0" IVar="-1" Cut="0.0000000000000000e+00" cType="1" res="3.5555807407945395e-03" rms="3.9065384864807129e-01" purity="7.9315882921218872e-01" nType="-99"/>
          <Node pos="r" depth="2" NCoef="0" IVar="-1" Cut="0.0000000000000000e+00" cType="1" res="5.0027586985379457e-04" rms="4.6993201971054077e-01" purity="4.6607398986816406e-01" nType="-99"/>
        </Node>
      </Node>
    </BinaryTree>
    <BinaryTree type="DecisionTree" boostWeight="1.0000000000000000e+00" itree="234">
      <Node pos="s" depth="0" NCoef="0" IVar="3" Cut="2.3853378295898438e+00" cType="1" res="1.8537625670433044e-02" rms="4.5484110713005066e-01" purity="5.1875537633895874e-01" nType="0">
        <Node pos="l" depth="1" NCoef="0" IVar="2" Cut="5.9466183185577393e-01" cType="1" res="4.5980103313922882e-02" rms="4.6168458461761475e-01" purity="5.9789651632308960e-01" nType="0">
          <Node pos="l" depth="2" NCoef="0" IVar="-1" Cut="0.0000000000000000e+00" cType="1" res="3.7209037691354752e-03" rms="4.0632382035255432e-01" purity="7.8409963846206665e-01" nType="-99"/>
          <Node pos="r" depth="2" NCoef="0" IVar="-1" Cut="0.0000000000000000e+00" cType="1" res="4.9708160804584622e-04" rms="4.6848636865615845e-01" purity="5.6135576963424683e-01" nType="-99"/>
        </Node>
        <Node pos="r" depth="1" NCoef="0" IVar="0" Cut="6.9865584373474121e+00" cType="1" res="-6.5236531198024750e-02" rms="4.2239323258399963e-01" purity="2.7715963125228882e-01" nType="0">
          <Node pos="l" depth="2" NCoef="0" IVar="-1" Cut="0.0000000000000000e+00" cType="1" res="-2.5467840023338795e-03" rms="3.8092854619026184e-01" purity="1.7903831601142883e-01" nType="-99"/>
          <Node pos="r" depth="2" NCoef="0" IVar="-1" Cut="0.0000000000000000e+00" cType="1" res="3.6698413896374404e-04" rms="4.7212013602256775e-01" purity="4.4047722220420837e-01" nType="-99"/>
        </Node>
      </Node>
    </BinaryTree>
    <BinaryTree type="DecisionTree" boostWeight="1.0000000000000000e+00" itree="235">
      <Node pos="s" depth="0" NCoef="0" IVar="3" Cut="2.7390522956848145e+00" cType="1" res="6.5810414962470531e-03" rms="4.5756974816322327e-01" purity="5.1406329870223999e-01" nType="0">
        <Node pos="l" depth="1" NCoef="0" IVar="1" Cut="9.0033653259277344e+01" cType="1" res="1.5221017412841320e-02" rms="4.6247479319572449e-01" purity="5.3737872838973999e-01" nType="0">
          <Node pos="l" depth="2" NCoef="0" IVar="-1" Cut="0.0000000000000000e+00" cType="1" res="-3.6961992736905813e-04" rms="4.6393036842346191e-01" purity="4.8765435814857483e-01" nType="-99"/>
          <Node pos="r" depth="2" NCoef="0" IVar="-1" Cut="0.0000000000000000e+00" cType="1" res="1.6343009192496538e-03" rms="4.5407232642173767e-01" purity="6.2611395120620728e-01" nType="-99"/>
        </Node>
        <Node pos="r" depth="1" NCoef="0" IVar="-1" Cut="0.0000000000000000e+00" cType="1" res="-3.1385135371237993e-03" rms="3.3831971883773804e-01" purity="1.3302659988403320e-01" nType="-99"/>
      </Node>
    </BinaryTree>
    <BinaryTree type="DecisionTree" boostWeight="1.0000000000000000e+00" itree="236">
      <Node pos="s" depth="0" NCoef="0" IVar="0" Cut="9.1380834579467773e+00" cType="1" res="-2.0143270376138389e-04" rms="4.5755225419998169e-01" purity="5.0056916475296021e-01" nType="0">
        <Node pos="l" depth="1" NCoef="0" IVar="3" Cut="2.2537360191345215e+00" cType="1" res="-1.5672493726015091e-02" rms="4.6151077747344971e-01" purity="4.7436884045600891e-01" nType="0">
          <Node pos="l" depth="2" NCoef="0" IVar="-1" Cut="0.0000000000000000e+00" cType="1" res="6.0126493917778134e-04" rms="4.7858318686485291e-01" purity="5.7722371816635132e-01" nType="-99"/>
          <Node pos="r" depth="2" NCoef="0" IVar="-1" Cut="0.0000000000000000e+00" cType="1" res="-1.9908419344574213e-03" rms="4.1828781366348267e-01" purity="2.9223853349685669e-01" nType="-99"/>
        </Node>
        <Node pos="r" depth="1" NCoef="0" IVar="-1" Cut="0.0000000000000000e+00" cType="1" res="5.8313324116170406e-03" rms="3.0953073501586914e-01" purity="8.9718252420425415e-01" nType="-99"/>
      </Node>
    </BinaryTree>
    <BinaryTree type="DecisionTree" boostWeight="1.0000000000000000e+00" itree="237">
      <Node pos="s" depth="0" NCoef="0" IVar="2" Cut="1.3164970874786377e+00" cType="1" res="2.7597915381193161e-02" rms="4.5575234293937683e-01" purity="5.2905768156051636e-01" nType="0">
        <Node pos="l" depth="1" NCoef="0" IVar="6" Cut="3.1383209228515625e+02" cType="1" res="4.8545479774475098e-02" rms="4.5802640914916992e-01" purity="5.9598308801651001e-01" nType="0">
          <Node pos="l" depth="2" NCoef="0" IVar="-1" Cut="0.0000000000000000e+00" cType="1" res="-9.2386198230087757e-04" rms="4.5027402043342590e-01" purity="4.2914167046546936e-01" nType="-99"/>
          <Node pos="r" depth="2" NCoef="0" IVar="-1" Cut="0.0000000000000000e+00" cType="1" res="1.5824917936697602e-03" rms="4.5687872171401978e-01" purity="6.3950085639953613e-01" nType="-99"/>
        </Node>
        <Node pos="r" depth="1" NCoef="0" IVar="5" Cut="2.0386379957199097e-01" cType="1" res="-4.2071394622325897e-02" rms="4.4100540876388550e-01" purity="3.0647090077400208e-01" nType="0">
          <Node pos="l" depth="2" NCoef="0" IVar="-1" Cut="0.0000000000000000e+00" cType="1" res="-2.7430951595306396e-03" rms="3.8326120376586914e-01" purity="2.0169924199581146e-01" nType="-99"/>
          <Node pos="r" depth="2" NCoef="0" IVar="-1" Cut="0.0000000000000000e+00" cType="1" res="3.1232798937708139e-04" rms="4.6436524391174316e-01" purity="3.7163823843002319e-01" nType="-99"/>
        </Node>
      </Node>
    </BinaryTree>
    <BinaryTree type="DecisionTree" boostWeight="1.0000000000000000e+00" itree="238">
      <Node pos="s" depth="0" NCoef="0" IVar="5" Cut="4.3893390893936157e-01" cType="1" res="-5.8012111112475395e-03" rms="4.6440473198890686e-01" purity="5.0241744518280029e-01" nType="0">
        <Node pos="l" depth="1" NCoef="0" IVar="1" Cut="1.0386450195312500e+02" cType="1" res="-4.6654086560010910e-02" rms="4.6386259794235229e-01" purity="4.3434652686119080e-01" nType="0">
          <Node pos="l" depth="2" NCoef="0" IVar="-1" Cut="0.0000000000000000e+00" cType="1" res="-1.7466613790020347e-03" rms="4.5691877603530884e-01" purity="3.8739472627639771e-01" nType="-99"/>
          <Node pos="r" depth="2" NCoef="0" IVar="-1" Cut="0.0000000000000000e+00" cType="1" res="1.2711953604593873e-03" rms="4.6681836247444153e-01" purity="5.6209492683410645e-01" nType="-99"/>
        </Node>
        <Node pos="r" depth="1" NCoef="0" IVar="6" Cut="5.2462255859375000e+02" cType="1" res="4.8421807587146759e-02" rms="4.5954802632331848e-01" purity="5.9276634454727173e-01" nType="0">
          <Node pos="l" depth="2" NCoef="0" IVar="-1" Cut="0.0000000000000000e+00" cType="1" res="1.6423129709437490e-03" rms="4.5241677761077881e-01" purity="6.0609191656112671e-01" nType="-99"/>
          <Node pos="r" depth="2" NCoef="0" IVar="-1" Cut="0.0000000000000000e+00" cType="1" res="-1.8247221596539021e-03" rms="4.7121214866638184e-01" purity="5.2720081806182861e-01" nType="-99"/>
        </Node>
      </Node>
    </BinaryTree>
    <BinaryTree type="DecisionTree" boostWeight="1.0000000000000000e+00" itree="239">
      <Node pos="s" depth="0" NCoef="0" IVar="6" Cut="2.9633569335937500e+02" cType="1" res="-5.9675397351384163e-03" rms="4.6103936433792114e-01" purity="5.0411373376846313e-01" nType="0">
        <Node pos="l" depth="1" NCoef="0" IVar="2" Cut="9.8260784149169922e-01" cType="1" res="-1.0388106107711792e-01" rms="4.3357017636299133e-01" purity="3.1675073504447937e-01" nType="0">
          <Node pos="l" depth="2" NCoef="0" IVar="-1" Cut="0.0000000000000000e+00" cType="1" res="-4.6090080286376178e-04" rms="4.5402953028678894e-01" purity="4.7467514872550964e-01" nType="-99"/>
          <Node pos="r" depth="2" NCoef="0" IVar="-1" Cut="0.0000000000000000e+00" cType="1" res="-3.3632807899266481e-03" rms="4.0972226858139038e-01" purity="2.0830161869525909e-01" nType="-99"/>
        </Node>
        <Node pos="r" depth="1" NCoef="0" IVar="3" Cut="2.6138145923614502e+00" cType="1" res="1.4904940500855446e-02" rms="4.6402207016944885e-01" purity="5.4405444860458374e-01" nType="0">
          <Node pos="l" depth="2" NCoef="0" IVar="-1" Cut="0.0000000000000000e+00" cType="1" res="6.2868918757885695e-04" rms="4.7096067667007446e-01" purity="5.8324396610260010e-01" nType="-99"/>
          <Node pos="r" depth="2" NCoef="0" IVar="-1" Cut="0.0000000000000000e+00" cType="1" res="-2.9033988248556852e-03" rms="3.5955420136451721e-01" purity="1.5771937370300293e-01" nType="-99"/>
        </Node>
      </Node>
    </BinaryTree>
    <BinaryTree type="DecisionTree" boostWeight="1.0000000000000000e+00" itree="240">
      <Node pos="s" depth="0" NCoef="0" IVar="3" Cut="2.7829344272613525e+00" cType="1" res="6.7038927227258682e-03" rms="4.6183636784553528e-01" purity="5.0741505622863770e-01" nType="0">
        <Node pos="l" depth="1" NCoef="0" IVar="3" Cut="2.0989706516265869e+00" cType="1" res="1.8781179562211037e-02" rms="4.6824267506599426e-01" purity="5.3333491086959839e-01" nType="0">
          <Node pos="l" depth="2" NCoef="0" IVar="-1" Cut="0.0000000000000000e+00" cType="1" res="1.5361612895503640e-03" rms="4.6321427822113037e-01" purity="6.4519882202148438e-01" nType="-99"/>
          <Node pos="r" depth="2" NCoef="0" IVar="-1" Cut="0.0000000000000000e+00" cType="1" res="-5.5674585746601224e-04" rms="4.6790069341659546e-01" purity="4.3613430857658386e-01" nType="-99"/>
        </Node>
        <Node pos="r" depth="1" NCoef="0" IVar="-1" Cut="0.0000000000000000e+00" cType="1" res="-4.7713834792375565e-03" rms="2.6662933826446533e-01" purity="7.5541988015174866e-02" nType="-99"/>
      </Node>
    </BinaryTree>
    <BinaryTree type="DecisionTree" boostWeight="1.0000000000000000e+00" itree="241">
      <Node pos="s" depth="0" NCoef="0" IVar="2" Cut="7.6802355051040649e-01" cType="1" res="7.9924846068024635e-04" rms="4.4857165217399597e-01" purity="4.9593120813369751e-01" nType="0">
        <Node pos="l" depth="1" NCoef="0" IVar="5" Cut="3.7214702367782593e-01" cType="1" res="8.6944334208965302e-02" rms="4.3404418230056763e-01" purity="6.9114941358566284e-01" nType="0">
          <Node pos="l" depth="2" NCoef="0" IVar="-1" Cut="0.0000000000000000e+00" cType="1" res="4.3966734665445983e-04" rms="4.5276215672492981e-01" purity="6.1168169975280762e-01" nType="-99"/>
          <Node pos="r" depth="2" NCoef="0" IVar="-1" Cut="0.0000000000000000e+00" cType="1" res="2.8410796076059341e-03" rms="4.1738203167915344e-01" purity="7.3887175321578979e-01" nType="-99"/>
        </Node>
        <Node pos="r" depth="1" NCoef="0" IVar="0" Cut="7.1886682510375977e+00" cType="1" res="-3.3416762948036194e-02" rms="4.4965663552284241e-01" purity="4.1839233040809631e-01" nType="0">
          <Node pos="l" depth="2" NCoef="0" IVar="-1" Cut="0.0000000000000000e+00" cType="1" res="-1.5654525486752391e-03" rms="4.3689459562301636e-01" purity="2.9929009079933167e-01" nType="-99"/>
          <Node pos="r" depth="2" NCoef="0" IVar="-1" Cut="0.0000000000000000e+00" cType="1" res="9.7541383001953363e-04" rms="4.6203240752220154e-01" purity="6.3167184591293335e-01" nType="-99"/>
        </Node>
      </Node>
    </BinaryTree>
    <BinaryTree type="DecisionTree" boostWeight="1.0000000000000000e+00" itree="242">
      <Node pos="s" depth="0" NCoef="0" IVar="0" Cut="9.3288402557373047e+00" cType="1" res="-3.2951995730400085e-02" rms="4.5860424637794495e-01" purity="4.7890409827232361e-01" nType="0">
        <Node pos="l" depth="1" NCoef="0" IVar="1" Cut="1.1743376922607422e+02" cType="1" res="-4.6041544526815414e-02" rms="4.6167641878128052e-01" purity="4.5684280991554260e-01" nType="0">
          <Node pos="l" depth="2" NCoef="0" IVar="-1" Cut="0.0000000000000000e+00" cType="1" res="-1.3548693386837840e-03" rms="4.6594101190567017e-01" purity="4.3902590870857239e-01" nType="-99"/>
          <Node pos="r" depth="2" NCoef="0" IVar="-1" Cut="0.0000000000000000e+00" cType="1" res="9.4804383115842938e-04" rms="4.2933264374732971e-01" purity="5.4301959276199341e-01" nType="-99"/>
        </Node>
        <Node pos="r" depth="1" NCoef="0" IVar="-1" Cut="0.0000000000000000e+00" cType="1" res="4.2654629796743393e-03" rms="3.4513038396835327e-01" purity="8.3022660017013550e-01" nType="-99"/>
      </Node>
    </BinaryTree>
    <BinaryTree type="DecisionTree" boostWeight="1.0000000000000000e+00" itree="243">
      <Node pos="s" depth="0" NCoef="0" IVar="5" Cut="4.2799201607704163e-01" cType="1" res="-3.2631264184601605e-04" rms="4.5930659770965576e-01" purity="4.9175134301185608e-01" nType="0">
        <Node pos="l" depth="1" NCoef="0" IVar="0" Cut="5.4529252052307129e+00" cType="1" res="-3.9534006267786026e-02" rms="4.5331448316574097e-01" purity="4.2533507943153381e-01" nType="0">
          <Node pos="l" depth="2" NCoef="0" IVar="-1" Cut="0.0000000000000000e+00" cType="1" res="-2.8101243078708649e-03" rms="3.7025898694992065e-01" purity="1.7671152949333191e-01" nType="-99"/>
          <Node pos="r" depth="2" NCoef="0" IVar="-1" Cut="0.0000000000000000e+00" cType="1" res="-3.3473697840236127e-04" rms="4.6951183676719666e-01" purity="4.8993366956710815e-01" nType="-99"/>
        </Node>
        <Node pos="r" depth="1" NCoef="0" IVar="4" Cut="1.7402705383300781e+02" cType="1" res="5.1500517874956131e-02" rms="4.6203148365020752e-01" purity="5.7954388856887817e-01" nType="0">
          <Node pos="l" depth="2" NCoef="0" IVar="-1" Cut="0.0000000000000000e+00" cType="1" res="1.7564769368618727e-03" rms="4.6249777078628540e-01" purity="6.0954332351684570e-01" nType="-99"/>
          <Node pos="r" depth="2" NCoef="0" IVar="-1" Cut="0.0000000000000000e+00" cType="1" res="-9.5967296510934830e-04" rms="4.4737017154693604e-01" purity="4.8598599433898926e-01" nType="-99"/>
        </Node>
      </Node>
    </BinaryTree>
    <BinaryTree type="DecisionTree" boostWeight="1.0000000000000000e+00" itree="244">
      <Node pos="s" depth="0" NCoef="0" IVar="2" Cut="1.0852750539779663e+00" cType="1" res="3.1174784526228905e-03" rms="4.6332621574401855e-01" purity="5.0416332483291626e-01" nType="0">
        <Node pos="l" depth="1" NCoef="0" IVar="3" Cut="2.2255949974060059e+00" cType="1" res="4.6906981617212296e-02" rms="4.6783664822578430e-01" purity="6.3305395841598511e-01" nType="0">
          <Node pos="l" depth="2" NCoef="0" IVar="-1" Cut="0.0000000000000000e+00" cType="1" res="1.4508428284898400e-03" rms="4.6164128184318542e-01" purity="6.5729534626007080e-01" nType="-99"/>
          <Node pos="r" depth="2" NCoef="0" IVar="-1" Cut="0.0000000000000000e+00" cType="1" res="-1.0624501155689359e-03" rms="4.8592489957809448e-01" purity="5.1281255483627319e-01" nType="-99"/>
        </Node>
        <Node pos="r" depth="1" NCoef="0" IVar="2" Cut="1.1986985206604004e+00" cType="1" res="-6.0663267970085144e-02" rms="4.4910237193107605e-01" purity="3.1643015146255493e-01" nType="0">
          <Node pos="l" depth="2" NCoef="0" IVar="-1" Cut="0.0000000000000000e+00" cType="1" res="-3.3699516206979752e-03" rms="4.4281297922134399e-01" purity="3.0887499451637268e-01" nType="-99"/>
          <Node pos="r" depth="2" NCoef="0" IVar="-1" Cut="0.0000000000000000e+00" cType="1" res="-5.7855935301631689e-04" rms="4.4557434320449829e-01" purity="3.1883251667022705e-01" nType="-99"/>
        </Node>
      </Node>
    </BinaryTree>
    <BinaryTree type="DecisionTree" boostWeight="1.0000000000000000e+00" itree="245">
      <Node pos="s" depth="0" NCoef="0" IVar="1" Cut="4.6795448303222656e+01" cType="1" res="-2.1069850772619247e-03" rms="4.5491492748260498e-01" purity="5.0391066074371338e-01" nType="0">
        <Node pos="l" depth="1" NCoef="0" IVar="0" Cut="7.4984989166259766e+00" cType="1" res="-1.0673720389604568e-01" rms="4.3905988335609436e-01" purity="3.6625841259956360e-01" nType="0">
          <Node pos="l" depth="2" NCoef="0" IVar="-1" Cut="0.0000000000000000e+00" cType="1" res="-3.0179128516465425e-03" rms="4.2131996154785156e-01" purity="2.6403388381004333e-01" nType="-99"/>
          <Node pos="r" depth="2" NCoef="0" IVar="-1" Cut="0.0000000000000000e+00" cType="1" res="7.3710958531592041e-05" rms="4.5962554216384888e-01" purity="6.0562998056411743e-01" nType="-99"/>
        </Node>
        <Node pos="r" depth="1" NCoef="0" IVar="0" Cut="8.7826862335205078e+00" cType="1" res="2.4285089224576950e-02" rms="4.5504385232925415e-01" purity="5.3863227367401123e-01" nType="0">
          <Node pos="l" depth="2" NCoef="0" IVar="-1" Cut="0.0000000000000000e+00" cType="1" res="2.1057960111647844e-04" rms="4.6271088719367981e-01" purity="5.0444859266281128e-01" nType="-99"/>
          <Node pos="r" depth="2" NCoef="0" IVar="-1" Cut="0.0000000000000000e+00" cType="1" res="3.9521972648799419e-03" rms="3.5833090543746948e-01" purity="8.3430045843124390e-01" nType="-99"/>
        </Node>
      </Node>
    </BinaryTree>
    <BinaryTree type="DecisionTree" boostWeight="1.0000000000000000e+00" itree="246">
      <Node pos="s" depth="0" NCoef="0" IVar="0" Cut="8.7896471023559570e+00" cType="1" res="-1.8066737102344632e-03" rms="4.5739793777465820e-01" purity="5.0405329465866089e-01" nType="0">
        <Node pos="l" depth="1" NCoef="0" IVar="2" Cut="5.7895618677139282e-01" cType="1" res="-1.4431383460760117e-02" rms="4.6242690086364746e-01" purity="4.7326534986495972e-01" nType="0">
          <Node pos="l" depth="2" NCoef="0" IVar="-1" Cut="0.0000000000000000e+00" cType="1" res="1.5540068270638585e-03" rms="4.5126989483833313e-01" purity="6.8791025876998901e-01" nType="-99"/>
          <Node pos="r" depth="2" NCoef="0" IVar="-1" Cut="0.0000000000000000e+00" cType="1" res="-6.0139526613056660e-04" rms="4.6276575326919556e-01" purity="4.3768545985221863e-01" nType="-99"/>
        </Node>
        <Node pos="r" depth="1" NCoef="0" IVar="-1" Cut="0.0000000000000000e+00" cType="1" res="2.8703855350613594e-03" rms="3.9026927947998047e-01" purity="7.8486180305480957e-01" nType="-99"/>
      </Node>
    </BinaryTree>
    <BinaryTree type="DecisionTree" boostWeight="1.0000000000000000e+00" itree="247">
      <Node pos="s" depth="0" NCoef="0" IVar="1" Cut="8.8076919555664062e+01" cType="1" res="-1.9421599805355072e-02" rms="4.6065613627433777e-01" purity="4.9090373516082764e-01" nType="0">
        <Node pos="l" depth="1" NCoef="0" IVar="4" Cut="1.9991687011718750e+02" cType="1" res="-5.6620299816131592e-02" rms="4.6116012334823608e-01" purity="4.3849980831146240e-01" nType="0">
          <Node pos="l" depth="2" NCoef="0" IVar="-1" Cut="0.0000000000000000e+00" cType="1" res="-8.1570848124101758e-04" rms="4.6568840742111206e-01" purity="4.6429762244224548e-01" nType="-99"/>
          <Node pos="r" depth="2" NCoef="0" IVar="-1" Cut="0.0000000000000000e+00" cType="1" res="-3.5058378707617521e-03" rms="4.1470158100128174e-01" purity="2.7634605765342712e-01" nType="-99"/>
        </Node>
        <Node pos="r" depth="1" NCoef="0" IVar="6" Cut="5.0478598022460938e+02" cType="1" res="4.2054645717144012e-02" rms="4.5317775011062622e-01" purity="5.7750886678695679e-01" nType="0">
          <Node pos="l" depth="2" NCoef="0" IVar="-1" Cut="0.0000000000000000e+00" cType="1" res="-2.3445700935553759e-04" rms="4.4839546084403992e-01" purity="5.0344747304916382e-01" nType="-99"/>
          <Node pos="r" depth="2" NCoef="0" IVar="-1" Cut="0.0000000000000000e+00" cType="1" res="2.3599155247211456e-03" rms="4.5088636875152588e-01" purity="6.6433954238891602e-01" nType="-99"/>
        </Node>
      </Node>
    </BinaryTree>
    <BinaryTree type="DecisionTree" boostWeight="1.0000000000000000e+00" itree="248">
      <Node pos="s" depth="0" NCoef="0" IVar="1" Cut="1.0091675567626953e+02" cType="1" res="-1.2069849297404289e-02" rms="4.5732331275939941e-01" purity="4.8951542377471924e-01" nType="0">
        <Node pos="l" depth="1" NCoef="0" IVar="5" Cut="2.8307294845581055e-01" cType="1" res="-3.4755479544401169e-02" rms="4.5506390929222107e-01" purity="4.5411670207977295e-01" nType="0">
          <Node pos="l" depth="2" NCoef="0" IVar="-1" Cut="0.0000000000000000e+00" cType="1" res="-2.3861238732933998e-03" rms="4.2919778823852539e-01" purity="3.1938222050666809e-01" nType="-99"/>
          <Node pos="r" depth="2" NCoef="0" IVar="-1" Cut="0.0000000000000000e+00" cType="1" res="-1.2720476661343127e-05" rms="4.6175572276115417e-01" purity="5.1288038492202759e-01" nType="-99"/>
        </Node>
        <Node pos="r" depth="1" NCoef="0" IVar="1" Cut="1.4253881835937500e+02" cType="1" res="4.5226138085126877e-02" rms="4.5800486207008362e-01" purity="5.7892024517059326e-01" nType="0">
          <Node pos="l" depth="2" NCoef="0" IVar="-1" Cut="0.0000000000000000e+00" cType="1" res="1.4803920639678836e-03" rms="4.4943302869796753e-01" purity="6.0307264328002930e-01" nType="-99"/>
          <Node pos="r" depth="2" NCoef="0" IVar="-1" Cut="0.0000000000000000e+00" cType="1" res="-4.7496211482211947e-04" rms="4.7841486334800720e-01" purity="5.0160187482833862e-01" nType="-99"/>
        </Node>
      </Node>
    </BinaryTree>
    <BinaryTree type="DecisionTree" boostWeight="1.0000000000000000e+00" itree="249">
      <Node pos="s" depth="0" NCoef="0" IVar="0" Cut="6.8714928627014160e+00" cType="1" res="1.0742115788161755e-02" rms="4.5494663715362549e-01" purity="5.2032035589218140e-01" nType="0">
        <Node pos="l" depth="1" NCoef="0" IVar="6" Cut="3.4503482055664062e+02" cType="1" res="-3.3235915005207062e-02" rms="4.6354261040687561e-01" purity="3.8037449121475220e-01" nType="0">
          <Node pos="l" depth="2" NCoef="0" IVar="-1" Cut="0.0000000000000000e+00" cType="1" res="-2.1042961161583662e-03" rms="4.2811346054077148e-01" purity="2.7284488081932068e-01" nType="-99"/>
          <Node pos="r" depth="2" NCoef="0" IVar="-1" Cut="0.0000000000000000e+00" cType="1" res="2.3531168699264526e-04" rms="4.7939997911453247e-01" purity="4.4893008470535278e-01" nType="-99"/>
        </Node>
        <Node pos="r" depth="1" NCoef="0" IVar="5" Cut="2.4631394445896149e-01" cType="1" res="5.6531600654125214e-02" rms="4.4118648767471313e-01" purity="6.6603058576583862e-01" nType="0">
          <Node pos="l" depth="2" NCoef="0" IVar="-1" Cut="0.0000000000000000e+00" cType="1" res="-8.7675754912197590e-04" rms="4.6053251624107361e-01" purity="4.6036860346794128e-01" nType="-99"/>
          <Node pos="r" depth="2" NCoef="0" IVar="-1" Cut="0.0000000000000000e+00" cType="1" res="1.8816407537087798e-03" rms="4.3326878547668457e-01" purity="7.1531236171722412e-01" nType="-99"/>
        </Node>
      </Node>
    </BinaryTree>
    <BinaryTree type="DecisionTree" boostWeight="1.0000000000000000e+00" itree="250">
      <Node pos="s" depth="0" NCoef="0" IVar="3" Cut="2.2181279659271240e+00" cType="1" res="1.4346101321280003e-02" rms="4.4710353016853333e-01" purity="5.1664340496063232e-01" nType="0">
        <Node pos="l" depth="1" NCoef="0" IVar="1" Cut="8.1404327392578125e+01" cType="1" res="7.0479832589626312e-02" rms="4.4557243585586548e-01" purity="6.3207191228866577e-01" nType="0">
          <Node pos="l" depth="2" NCoef="0" IVar="-1" Cut="0.0000000000000000e+00" cType="1" res="4.8188603250309825e-04" rms="4.6890968084335327e-01" purity="5.5321466922760010e-01" nType="-99"/>
          <Node pos="r" depth="2" NCoef="0" IVar="-1" Cut="0.0000000000000000e+00" cType="1" res="3.7725344300270081e-03" rms="3.8113254308700562e-01" purity="7.8255492448806763e-01" nType="-99"/>
        </Node>
        <Node pos="r" depth="1" NCoef="0" IVar="0" Cut="7.9450426101684570e+00" cType="1" res="-7.1134932339191437e-02" rms="4.3574938178062439e-01" purity="3.4086766839027405e-01" nType="0">
          <Node pos="l" depth="2" NCoef="0" IVar="-1" Cut="0.0000000000000000e+00" cType="1" res="-2.1642553620040417e-03" rms="4.2421254515647888e-01" purity="2.7606081962585449e-01" nType="-99"/>
          <Node pos="r" depth="2" NCoef="0" IVar="-1" Cut="0.0000000000000000e+00" cType="1" res="1.2697143247351050e-03" rms="4.6050816774368286e-01" purity="6.1812412738800049e-01" nType="-99"/>
        </Node>
      </Node>
    </BinaryTree>
    <BinaryTree type="DecisionTree" boostWeight="1.0000000000000000e+00" itree="251">
      <Node pos="s" depth="0" NCoef="0" IVar="1" Cut="9.2336425781250000e+01" cType="1" res="-7.5040049850940704e-03" rms="4.5521882176399231e-01" purity="4.9932295083999634e-01" nType="0">
        <Node pos="l" depth="1" NCoef="0" IVar="0" Cut="6.6039180755615234e+00" cType="1" res="-5.2074011415243149e-02" rms="4.5331531763076782e-01" purity="4.4028100371360779e-01" nType="0">
          <Node pos="l" depth="2" NCoef="0" IVar="-1" Cut="0.0000000000000000e+00" cType="1" res="-2.0135843660682440e-03" rms="4.2873919010162354e-01" purity="2.7978003025054932e-01" nType="-99"/>
          <Node pos="r" depth="2" NCoef="0" IVar="-1" Cut="0.0000000000000000e+00" cType="1" res="-2.2531619470100850e-04" rms="4.7015848755836487e-01" purity="5.8311545848846436e-01" nType="-99"/>
        </Node>
        <Node pos="r" depth="1" NCoef="0" IVar="3" Cut="2.2112491130828857e+00" cType="1" res="6.9531023502349854e-02" rms="4.4815778732299805e-01" purity="6.0137140750885010e-01" nType="0">
          <Node pos="l" depth="2" NCoef="0" IVar="-1" Cut="0.0000000000000000e+00" cType="1" res="3.6359732039272785e-03" rms="3.9176514744758606e-01" purity="8.0326193571090698e-01" nType="-99"/>
          <Node pos="r" depth="2" NCoef="0" IVar="-1" Cut="0.0000000000000000e+00" cType="1" res="1.8171813280787319e-04" rms="4.7624188661575317e-01" purity="4.5308604836463928e-01" nType="-99"/>
        </Node>
      </Node>
    </BinaryTree>
    <BinaryTree type="DecisionTree" boostWeight="1.0000000000000000e+00" itree="252">
      <Node pos="s" depth="0" NCoef="0" IVar="2" Cut="5.4226374626159668e-01" cType="1" res="-3.2314456999301910e-02" rms="4.4955262541770935e-01" purity="4.6455377340316772e-01" nType="0">
        <Node pos="l" depth="1" NCoef="0" IVar="-1" Cut="0.0000000000000000e+00" cType="1" res="3.3481896389275789e-03" rms="4.0092581510543823e-01" purity="7.8279238939285278e-01" nType="-99"/>
        <Node pos="r" depth="1" NCoef="0" IVar="0" Cut="7.7535672187805176e+00" cType="1" res="-5.2147187292575836e-02" rms="4.5047742128372192e-01" purity="4.2844572663307190e-01" nType="0">
          <Node pos="l" depth="2" NCoef="0" IVar="-1" Cut="0.0000000000000000e+00" cType="1" res="-1.6126063419505954e-03" rms="4.5024788379669189e-01" purity="3.4928008913993835e-01" nType="-99"/>
          <Node pos="r" depth="2" NCoef="0" IVar="-1" Cut="0.0000000000000000e+00" cType="1" res="9.0086727868765593e-04" rms="4.3925580382347107e-01" purity="6.7788332700729370e-01" nType="-99"/>
        </Node>
      </Node>
    </BinaryTree>
    <BinaryTree type="DecisionTree" boostWeight="1.0000000000000000e+00" itree="253">
      <Node pos="s" depth="0" NCoef="0" IVar="1" Cut="7.6337570190429688e+01" cType="1" res="1.2432053685188293e-02" rms="4.5552706718444824e-01" purity="5.2240073680877686e-01" nType="0">
        <Node pos="l" depth="1" NCoef="0" IVar="4" Cut="2.0779412841796875e+02" cType="1" res="-3.7621371448040009e-02" rms="4.6127480268478394e-01" purity="4.7089472413063049e-01" nType="0">
          <Node pos="l" depth="2" NCoef="0" IVar="-1" Cut="0.0000000000000000e+00" cType="1" res="-2.4440122069790959e-04" rms="4.6408435702323914e-01" purity="5.0475627183914185e-01" nType="-99"/>
          <Node pos="r" depth="2" NCoef="0" IVar="-1" Cut="0.0000000000000000e+00" cType="1" res="-3.9592869579792023e-03" rms="4.0879133343696594e-01" purity="2.6538407802581787e-01" nType="-99"/>
        </Node>
        <Node pos="r" depth="1" NCoef="0" IVar="2" Cut="1.4789776802062988e+00" cType="1" res="7.1648836135864258e-02" rms="4.4136154651641846e-01" purity="5.8333605527877808e-01" nType="0">
          <Node pos="l" depth="2" NCoef="0" IVar="-1" Cut="0.0000000000000000e+00" cType="1" res="2.1408442407846451e-03" rms="4.3795743584632874e-01" purity="6.4322131872177124e-01" nType="-99"/>
          <Node pos="r" depth="2" NCoef="0" IVar="-1" Cut="0.0000000000000000e+00" cType="1" res="-1.6048023244366050e-03" rms="4.3181559443473816e-01" purity="2.5955414772033691e-01" nType="-99"/>
        </Node>
      </Node>
    </BinaryTree>
    <BinaryTree type="DecisionTree" boostWeight="1.0000000000000000e+00" itree="254">
      <Node pos="s" depth="0" NCoef="0" IVar="0" Cut="5.8462376594543457e+00" cType="1" res="-1.3120979070663452e-02" rms="4.5867264270782471e-01" purity="4.9970191717147827e-01" nType="0">
        <Node pos="l" depth="1" NCoef="0" IVar="3" Cut="2.2348818778991699e+00" cType="1" res="-1.0776094347238541e-01" rms="4.0386104583740234e-01" purity="2.4032352864742279e-01" nType="0">
          <Node pos="l" depth="2" NCoef="0" IVar="-1" Cut="0.0000000000000000e+00" cType="1" res="-9.8972104024142027e-04" rms="4.6913427114486694e-01" purity="3.5721272230148315e-01" nType="-99"/>
          <Node pos="r" depth="2" NCoef="0" IVar="-1" Cut="0.0000000000000000e+00" cType="1" res="-3.8457126356661320e-03" rms="2.9720255732536316e-01" purity="1.0394351929426193e-01" nType="-99"/>
        </Node>
        <Node pos="r" depth="1" NCoef="0" IVar="0" Cut="9.2981996536254883e+00" cType="1" res="1.4451493509113789e-02" rms="4.6987718343734741e-01" purity="5.7526934146881104e-01" nType="0">
          <Node pos="l" depth="2" NCoef="0" IVar="-1" Cut="0.0000000000000000e+00" cType="1" res="8.2958511484321207e-05" rms="4.7436213493347168e-01" purity="5.5595338344573975e-01" nType="-99"/>
          <Node pos="r" depth="2" NCoef="0" IVar="-1" Cut="0.0000000000000000e+00" cType="1" res="4.2246859520673752e-03" rms="3.7244266271591187e-01" purity="8.4344333410263062e-01" nType="-99"/>
        </Node>
      </Node>
    </BinaryTree>
    <BinaryTree type="DecisionTree" boostWeight="1.0000000000000000e+00" itree="255">
      <Node pos="s" depth="0" NCoef="0" IVar="0" Cut="5.4823632240295410e+00" cType="1" res="4.6232377644628286e-04" rms="4.5098653435707092e-01" purity="4.9760326743125916e-01" nType="0">
        <Node pos="l" depth="1" NCoef="0" IVar="0" Cut="4.8138074874877930e+00" cType="1" res="-1.1001471430063248e-01" rms="4.0413385629653931e-01" purity="2.2178947925567627e-01" nType="0">
          <Node pos="l" depth="2" NCoef="0" IVar="-1" Cut="0.0000000000000000e+00" cType="1" res="-3.4966107923537493e-03" rms="3.4968361258506775e-01" purity="1.4244146645069122e-01" nType="-99"/>
          <Node pos="r" depth="2" NCoef="0" IVar="-1" Cut="0.0000000000000000e+00" cType="1" res="-1.4528138563036919e-03" rms="4.3025436997413635e-01" purity="2.7189877629280090e-01" nType="-99"/>
        </Node>
        <Node pos="r" depth="1" NCoef="0" IVar="5" Cut="3.5198104381561279e-01" cType="1" res="2.4010697379708290e-02" rms="4.5691645145416260e-01" purity="5.5639350414276123e-01" nType="0">
          <Node pos="l" depth="2" NCoef="0" IVar="-1" Cut="0.0000000000000000e+00" cType="1" res="-5.8663316303864121e-04" rms="4.4667541980743408e-01" purity="4.5610523223876953e-01" nType="-99"/>
          <Node pos="r" depth="2" NCoef="0" IVar="-1" Cut="0.0000000000000000e+00" cType="1" res="1.4093063073232770e-03" rms="4.6072518825531006e-01" purity="6.3251918554306030e-01" nType="-99"/>
        </Node>
      </Node>
    </BinaryTree>
    <BinaryTree type="DecisionTree" boostWeight="1.0000000000000000e+00" itree="256">
      <Node pos="s" depth="0" NCoef="0" IVar="0" Cut="5.4492607116699219e+00" cType="1" res="1.5980735421180725e-02" rms="4.5035633444786072e-01" purity="5.1610833406448364e-01" nType="0">
        <Node pos="l" depth="1" NCoef="0" IVar="5" Cut="4.1946923732757568e-01" cType="1" res="-1.1258810013532639e-01" rms="3.8683000206947327e-01" purity="2.0954135060310364e-01" nType="0">
          <Node pos="l" depth="2" NCoef="0" IVar="-1" Cut="0.0000000000000000e+00" cType="1" res="-3.4031916875392199e-03" rms="3.3684504032135010e-01" purity="1.4797283709049225e-01" nType="-99"/>
          <Node pos="r" depth="2" NCoef="0" IVar="-1" Cut="0.0000000000000000e+00" cType="1" res="-5.8060616720467806e-04" rms="4.4808149337768555e-01" purity="3.1561928987503052e-01" nType="-99"/>
        </Node>
        <Node pos="r" depth="1" NCoef="0" IVar="2" Cut="1.0466421842575073e+00" cType="1" res="4.0819782763719559e-02" rms="4.5747694373130798e-01" purity="5.7533597946166992e-01" nType="0">
          <Node pos="l" depth="2" NCoef="0" IVar="-1" Cut="0.0000000000000000e+00" cType="1" res="1.7495320644229650e-03" rms="4.4831839203834534e-01" purity="6.9548356533050537e-01" nType="-99"/>
          <Node pos="r" depth="2" NCoef="0" IVar="-1" Cut="0.0000000000000000e+00" cType="1" res="-1.1535300291143358e-04" rms="4.6469467878341675e-01" purity="4.2362520098686218e-01" nType="-99"/>
        </Node>
      </Node>
    </BinaryTree>
    <BinaryTree type="DecisionTree" boostWeight="1.0000000000000000e+00" itree="257">
      <Node pos="s" depth="0" NCoef="0" IVar="6" Cut="7.0535852050781250e+02" cType="1" res="-1.6050966456532478e-02" rms="4.5764696598052979e-01" purity="4.7378167510032654e-01" nType="0">
        <Node pos="l" depth="1" NCoef="0" IVar="0" Cut="8.1074314117431641e+00" cType="1" res="-2.8810672461986542e-02" rms="4.5536360144615173e-01" purity="4.5483171939849854e-01" nType="0">
          <Node pos="l" depth="2" NCoef="0" IVar="-1" Cut="0.0000000000000000e+00" cType="1" res="-9.9833204876631498e-04" rms="4.6029269695281982e-01" purity="4.0102663636207581e-01" nType="-99"/>
          <Node pos="r" depth="2" NCoef="0" IVar="-1" Cut="0.0000000000000000e+00" cType="1" res="1.5888368943706155e-03" rms="4.1754060983657837e-01" purity="7.2333401441574097e-01" nType="-99"/>
        </Node>
        <Node pos="r" depth="1" NCoef="0" IVar="-1" Cut="0.0000000000000000e+00" cType="1" res="3.0587657820433378e-03" rms="4.5808658003807068e-01" purity="6.9343787431716919e-01" nType="-99"/>
      </Node>
    </BinaryTree>
    <BinaryTree type="DecisionTree" boostWeight="1.0000000000000000e+00" itree="258">
      <Node pos="s" depth="0" NCoef="0" IVar="5" Cut="4.9743461608886719e-01" cType="1" res="-1.2266909470781684e-03" rms="4.6614176034927368e-01" purity="4.9365541338920593e-01" nType="0">
        <Node pos="l" depth="1" NCoef="0" IVar="2" Cut="1.6741776466369629e+00" cType="1" res="-2.6919813826680183e-02" rms="4.6343600749969482e-01" purity="4.4756212830543518e-01" nType="0">
          <Node pos="l" depth="2" NCoef="0" IVar="-1" Cut="0.0000000000000000e+00" cType="1" res="-3.3662116038613021e-04" rms="4.7286415100097656e-01" purity="4.7648161649703979e-01" nType="-99"/>
          <Node pos="r" depth="2" NCoef="0" IVar="-1" Cut="0.0000000000000000e+00" cType="1" res="-3.4654114861041307e-03" rms="3.2593378424644470e-01" purity="1.4200706779956818e-01" nType="-99"/>
        </Node>
        <Node pos="r" depth="1" NCoef="0" IVar="5" Cut="5.9088027477264404e-01" cType="1" res="5.7313606142997742e-02" rms="4.6699881553649902e-01" purity="5.9867638349533081e-01" nType="0">
          <Node pos="l" depth="2" NCoef="0" IVar="-1" Cut="0.0000000000000000e+00" cType="1" res="2.9098724480718374e-03" rms="4.4456833600997925e-01" purity="6.5247428417205811e-01" nType="-99"/>
          <Node pos="r" depth="2" NCoef="0" IVar="-1" Cut="0.0000000000000000e+00" cType="1" res="2.5266731972806156e-04" rms="4.7359308600425720e-01" purity="5.6769406795501709e-01" nType="-99"/>
        </Node>
      </Node>
    </BinaryTree>
    <BinaryTree type="DecisionTree" boostWeight="1.0000000000000000e+00" itree="259">
      <Node pos="s" depth="0" NCoef="0" IVar="2" Cut="7.1676969528198242e-01" cType="1" res="1.1162451468408108e-02" rms="4.5973539352416992e-01" purity="5.1258033514022827e-01" nType="0">
        <Node pos="l" depth="1" NCoef="0" IVar="5" Cut="3.8231128454208374e-01" cType="1" res="1.1472111940383911e-01" rms="4.2963516712188721e-01" purity="7.3855131864547729e-01" nType="0">
          <Node pos="l" depth="2" NCoef="0" IVar="-1" Cut="0.0000000000000000e+00" cType="1" res="5.0405841320753098e-03" rms="3.6172232031822205e-01" purity="8.1682127714157104e-01" nType="-99"/>
          <Node pos="r" depth="2" NCoef="0" IVar="-1" Cut="0.0000000000000000e+00" cType="1" res="1.5432991785928607e-03" rms="4.4913259148597717e-01" purity="7.0236420631408691e-01" nType="-99"/>
        </Node>
        <Node pos="r" depth="1" NCoef="0" IVar="3" Cut="2.1951603889465332e+00" cType="1" res="-1.8205894157290459e-02" rms="4.6372902393341064e-01" purity="4.4849693775177002e-01" nType="0">
          <Node pos="l" depth="2" NCoef="0" IVar="-1" Cut="0.0000000000000000e+00" cType="1" res="4.9633614253252745e-04" rms="4.7998386621475220e-01" purity="5.5699157714843750e-01" nType="-99"/>
          <Node pos="r" depth="2" NCoef="0" IVar="-1" Cut="0.0000000000000000e+00" cType="1" res="-1.1688537197187543e-03" rms="4.4641882181167603e-01" purity="3.5679259896278381e-01" nType="-99"/>
        </Node>
      </Node>
    </BinaryTree>
    <BinaryTree type="DecisionTree" boostWeight="1.0000000000000000e+00" itree="260">
      <Node pos="s" depth="0" NCoef="0" IVar="1" Cut="4.2041366577148438e+01" cType="1" res="1.7575457692146301e-02" rms="4.5634520053863525e-01" purity="5.1789933443069458e-01" nType="0">
        <Node pos="l" depth="1" NCoef="0" IVar="1" Cut="3.2854946136474609e+01" cType="1" res="-9.6243016421794891e-02" rms="4.4891875982284546e-01" purity="3.5339823365211487e-01" nType="0">
          <Node pos="l" depth="2" NCoef="0" IVar="-1" Cut="0.0000000000000000e+00" cType="1" res="-3.8280235603451729e-03" rms="4.1306707262992859e-01" purity="2.3822720348834991e-01" nType="-99"/>
          <Node pos="r" depth="2" NCoef="0" IVar="-1" Cut="0.0000000000000000e+00" cType="1" res="-7.8293448314070702e-04" rms="4.6030902862548828e-01" purity="4.2679518461227417e-01" nType="-99"/>
        </Node>
        <Node pos="r" depth="1" NCoef="0" IVar="0" Cut="6.5484299659729004e+00" cType="1" res="3.5987026989459991e-02" rms="4.5486688613891602e-01" purity="5.4450941085815430e-01" nType="0">
          <Node pos="l" depth="2" NCoef="0" IVar="-1" Cut="0.0000000000000000e+00" cType="1" res="-1.9457396410871297e-04" rms="4.6738407015800476e-01" purity="3.5962396860122681e-01" nType="-99"/>
          <Node pos="r" depth="2" NCoef="0" IVar="-1" Cut="0.0000000000000000e+00" cType="1" res="1.5315075870603323e-03" rms="4.4360885024070740e-01" purity="6.6936808824539185e-01" nType="-99"/>
        </Node>
      </Node>
    </BinaryTree>
    <BinaryTree type="DecisionTree" boostWeight="1.0000000000000000e+00" itree="261">
      <Node pos="s" depth="0" NCoef="0" IVar="3" Cut="2.3348093032836914e+00" cType="1" res="1.9658157601952553e-02" rms="4.5631158351898193e-01" purity="5.3454846143722534e-01" nType="0">
        <Node pos="l" depth="1" NCoef="0" IVar="1" Cut="7.5284927368164062e+01" cType="1" res="4.9574535340070724e-02" rms="4.6090865135192871e-01" purity="6.1568450927734375e-01" nType="0">
          <Node pos="l" depth="2" NCoef="0" IVar="-1" Cut="0.0000000000000000e+00" cType="1" res="1.1796016769949347e-04" rms="4.8088896274566650e-01" purity="5.4676806926727295e-01" nType="-99"/>
          <Node pos="r" depth="2" NCoef="0" IVar="-1" Cut="0.0000000000000000e+00" cType="1" res="2.3289308883249760e-03" rms="4.2970472574234009e-01" purity="6.9864392280578613e-01" nType="-99"/>
        </Node>
        <Node pos="r" depth="1" NCoef="0" IVar="0" Cut="6.7504496574401855e+00" cType="1" res="-6.3984476029872894e-02" rms="4.3235740065574646e-01" purity="3.0770182609558105e-01" nType="0">
          <Node pos="l" depth="2" NCoef="0" IVar="-1" Cut="0.0000000000000000e+00" cType="1" res="-2.4594797287136316e-03" rms="3.6877542734146118e-01" purity="1.7669895291328430e-01" nType="-99"/>
          <Node pos="r" depth="2" NCoef="0" IVar="-1" Cut="0.0000000000000000e+00" cType="1" res="-3.7382016307674348e-04" rms="4.8808953166007996e-01" purity="4.5022869110107422e-01" nType="-99"/>
        </Node>
      </Node>
    </BinaryTree>
    <BinaryTree type="DecisionTree" boostWeight="1.0000000000000000e+00" itree="262">
      <Node pos="s" depth="0" NCoef="0" IVar="0" Cut="8.1315021514892578e+00" cType="1" res="1.8618149682879448e-02" rms="4.5471686124801636e-01" purity="5.2551496028900146e-01" nType="0">
        <Node pos="l" depth="1" NCoef="0" IVar="3" Cut="2.4209580421447754e+00" cType="1" res="-4.7893668524920940e-03" rms="4.6627783775329590e-01" purity="4.6426159143447876e-01" nType="0">
          <Node pos="l" depth="2" NCoef="0" IVar="-1" Cut="0.0000000000000000e+00" cType="1" res="2.5332596851512790e-04" rms="4.7996750473976135e-01" purity="5.2776831388473511e-01" nType="-99"/>
          <Node pos="r" depth="2" NCoef="0" IVar="-1" Cut="0.0000000000000000e+00" cType="1" res="-1.5228539705276489e-03" rms="4.0747138857841492e-01" purity="2.3592489957809448e-01" nType="-99"/>
        </Node>
        <Node pos="r" depth="1" NCoef="0" IVar="2" Cut="7.2904348373413086e-01" cType="1" res="1.2096513062715530e-01" rms="3.8385054469108582e-01" purity="7.9333907365798950e-01" nType="0">
          <Node pos="l" depth="2" NCoef="0" IVar="-1" Cut="0.0000000000000000e+00" cType="1" res="6.3424190739169717e-04" rms="4.2120185494422913e-01" purity="7.6673281192779541e-01" nType="-99"/>
          <Node pos="r" depth="2" NCoef="0" IVar="-1" Cut="0.0000000000000000e+00" cType="1" res="3.8903472013771534e-03" rms="3.6200478672981262e-01" purity="8.0330747365951538e-01" nType="-99"/>
        </Node>
      </Node>
    </BinaryTree>
    <BinaryTree type="DecisionTree" boostWeight="1.0000000000000000e+00" itree="263">
      <Node pos="s" depth="0" NCoef="0" IVar="3" Cut="2.0868217945098877e+00" cType="1" res="-7.9106548801064491e-03" rms="4.5256000757217407e-01" purity="4.9899402260780334e-01" nType="0">
        <Node pos="l" depth="1" NCoef="0" IVar="1" Cut="9.5114318847656250e+01" cType="1" res="5.3135231137275696e-02" rms="4.5172277092933655e-01" purity="6.2933850288391113e-01" nType="0">
          <Node pos="l" depth="2" NCoef="0" IVar="-1" Cut="0.0000000000000000e+00" cType="1" res="5.6284107267856598e-04" rms="4.5823943614959717e-01" purity="5.8605927228927612e-01" nType="-99"/>
          <Node pos="r" depth="2" NCoef="0" IVar="-1" Cut="0.0000000000000000e+00" cType="1" res="3.7769807968288660e-03" rms="4.0873789787292480e-01" purity="7.9841637611389160e-01" nType="-99"/>
        </Node>
        <Node pos="r" depth="1" NCoef="0" IVar="1" Cut="7.4993667602539062e+01" cType="1" res="-5.2919894456863403e-02" rms="4.4787868857383728e-01" purity="4.0289083123207092e-01" nType="0">
          <Node pos="l" depth="2" NCoef="0" IVar="-1" Cut="0.0000000000000000e+00" cType="1" res="-2.4025044403970242e-03" rms="4.2745500802993774e-01" purity="3.1217473745346069e-01" nType="-99"/>
          <Node pos="r" depth="2" NCoef="0" IVar="-1" Cut="0.0000000000000000e+00" cType="1" res="-2.9324105707928538e-04" rms="4.5676162838935852e-01" purity="4.6352913975715637e-01" nType="-99"/>
        </Node>
      </Node>
    </BinaryTree>
    <BinaryTree type="DecisionTree" boostWeight="1.0000000000000000e+00" itree="264">
      <Node pos="s" depth="0" NCoef="0" IVar="1" Cut="6.6726890563964844e+01" cType="1" res="-9.1353580355644226e-03" rms="4.5401284098625183e-01" purity="5.0515455007553101e-01" nType="0">
        <Node pos="l" depth="1" NCoef="0" IVar="2" Cut="6.5300506353378296e-01" cType="1" res="-9.2496246099472046e-02" rms="4.4652536511421204e-01" purity="3.8943362236022949e-01" nType="0">
          <Node pos="l" depth="2" NCoef="0" IVar="-1" Cut="0.0000000000000000e+00" cType="1" res="1.1113284854218364e-03" rms="4.5731967687606812e-01" purity="6.2788850069046021e-01" nType="-99"/>
          <Node pos="r" depth="2" NCoef="0" IVar="-1" Cut="0.0000000000000000e+00" cType="1" res="-2.8460689354687929e-03" rms="4.3401977419853210e-01" purity="3.1948244571685791e-01" nType="-99"/>
        </Node>
        <Node pos="r" depth="1" NCoef="0" IVar="5" Cut="2.2933736443519592e-01" cType="1" res="5.0737813115119934e-02" rms="4.4988298416137695e-01" purity="5.8827000856399536e-01" nType="0">
          <Node pos="l" depth="2" NCoef="0" IVar="-1" Cut="0.0000000000000000e+00" cType="1" res="-5.4307648679241538e-04" rms="4.6442860364913940e-01" purity="4.4044968485832214e-01" nType="-99"/>
          <Node pos="r" depth="2" NCoef="0" IVar="-1" Cut="0.0000000000000000e+00" cType="1" res="1.6020546900108457e-03" rms="4.4344073534011841e-01" purity="6.2947809696197510e-01" nType="-99"/>
        </Node>
      </Node>
    </BinaryTree>
    <BinaryTree type="DecisionTree" boostWeight="1.0000000000000000e+00" itree="265">
      <Node pos="s" depth="0" NCoef="0" IVar="2" Cut="1.6273334026336670e+00" cType="1" res="6.3254917040467262e-03" rms="4.5340770483016968e-01" purity="5.0517213344573975e-01" nType="0">
        <Node pos="l" depth="1" NCoef="0" IVar="2" Cut="6.1065751314163208e-01" cType="1" res="2.2059721872210503e-02" rms="4.6134346723556519e-01" purity="5.4260891675949097e-01" nType="0">
          <Node pos="l" depth="2" NCoef="0" IVar="-1" Cut="0.0000000000000000e+00" cType="1" res="2.7847252786159515e-03" rms="4.4353508949279785e-01" purity="7.5906878709793091e-01" nType="-99"/>
          <Node pos="r" depth="2" NCoef="0" IVar="-1" Cut="0.0000000000000000e+00" cType="1" res="7.4535164458211511e-05" rms="4.6219852566719055e-01" purity="5.0238567590713501e-01" nType="-99"/>
        </Node>
        <Node pos="r" depth="1" NCoef="0" IVar="-1" Cut="0.0000000000000000e+00" cType="1" res="-3.3001187257468700e-03" rms="3.2993492484092712e-01" purity="1.4017716050148010e-01" nType="-99"/>
      </Node>
    </BinaryTree>
    <BinaryTree type="DecisionTree" boostWeight="1.0000000000000000e+00" itree="266">
      <Node pos="s" depth="0" NCoef="0" IVar="1" Cut="3.7728618621826172e+01" cType="1" res="6.9663850590586662e-03" rms="4.6188929677009583e-01" purity="5.0845968723297119e-01" nType="0">
        <Node pos="l" depth="1" NCoef="0" IVar="-1" Cut="0.0000000000000000e+00" cType="1" res="-3.1760830897837877e-03" rms="4.2687875032424927e-01" purity="3.0030184984207153e-01" nType="-99"/>
        <Node pos="r" depth="1" NCoef="0" IVar="5" Cut="5.7066297531127930e-01" cType="1" res="2.1772367879748344e-02" rms="4.6223977208137512e-01" purity="5.2784216403961182e-01" nType="0">
          <Node pos="l" depth="2" NCoef="0" IVar="-1" Cut="0.0000000000000000e+00" cType="1" res="-3.9143342291936278e-05" rms="4.5952925086021423e-01" purity="4.9388813972473145e-01" nType="-99"/>
          <Node pos="r" depth="2" NCoef="0" IVar="-1" Cut="0.0000000000000000e+00" cType="1" res="2.3143007420003414e-03" rms="4.6180886030197144e-01" purity="6.5315443277359009e-01" nType="-99"/>
        </Node>
      </Node>
    </BinaryTree>
    <BinaryTree type="DecisionTree" boostWeight="1.0000000000000000e+00" itree="267">
      <Node pos="s" depth="0" NCoef="0" IVar="2" Cut="8.9614534378051758e-01" cType="1" res="-7.4838497675955296e-03" rms="4.5702862739562988e-01" purity="4.9888789653778076e-01" nType="0">
        <Node pos="l" depth="1" NCoef="0" IVar="0" Cut="6.8382525444030762e+00" cType="1" res="5.4014477878808975e-02" rms="4.4789090752601624e-01" purity="6.6183692216873169e-01" nType="0">
          <Node pos="l" depth="2" NCoef="0" IVar="-1" Cut="0.0000000000000000e+00" cType="1" res="2.7428954490460455e-04" rms="4.8624935746192932e-01" purity="5.1581752300262451e-01" nType="-99"/>
          <Node pos="r" depth="2" NCoef="0" IVar="-1" Cut="0.0000000000000000e+00" cType="1" res="2.2886297665536404e-03" rms="4.0798106789588928e-01" purity="7.9020059108734131e-01" nType="-99"/>
        </Node>
        <Node pos="r" depth="1" NCoef="0" IVar="1" Cut="4.3345878601074219e+01" cType="1" res="-5.3323004394769669e-02" rms="4.5838662981987000e-01" purity="3.7743014097213745e-01" nType="0">
          <Node pos="l" depth="2" NCoef="0" IVar="-1" Cut="0.0000000000000000e+00" cType="1" res="-3.7830050569027662e-03" rms="4.0656530857086182e-01" purity="2.1936737000942230e-01" nType="-99"/>
          <Node pos="r" depth="2" NCoef="0" IVar="-1" Cut="0.0000000000000000e+00" cType="1" res="-7.1363931056112051e-04" rms="4.6319302916526794e-01" purity="4.0307876467704773e-01" nType="-99"/>
        </Node>
      </Node>
    </BinaryTree>
    <BinaryTree type="DecisionTree" boostWeight="1.0000000000000000e+00" itree="268">
      <Node pos="s" depth="0" NCoef="0" IVar="0" Cut="5.7703485488891602e+00" cType="1" res="-1.7355183139443398e-02" rms="4.5465436577796936e-01" purity="4.8531097173690796e-01" nType="0">
        <Node pos="l" depth="1" NCoef="0" IVar="4" Cut="7.5398025512695312e+01" cType="1" res="-1.0095235705375671e-01" rms="4.0693977475166321e-01" purity="2.2960932552814484e-01" nType="0">
          <Node pos="l" depth="2" NCoef="0" IVar="-1" Cut="0.0000000000000000e+00" cType="1" res="-3.6269731353968382e-03" rms="3.3708408474922180e-01" purity="1.3550220429897308e-01" nType="-99"/>
          <Node pos="r" depth="2" NCoef="0" IVar="-1" Cut="0.0000000000000000e+00" cType="1" res="-9.2831335496157408e-04" rms="4.4184640049934387e-01" purity="2.9675590991973877e-01" nType="-99"/>
        </Node>
        <Node pos="r" depth="1" NCoef="0" IVar="4" Cut="1.8661671447753906e+02" cType="1" res="1.0138463228940964e-02" rms="4.6602240204811096e-01" purity="5.6940680742263794e-01" nType="0">
          <Node pos="l" depth="2" NCoef="0" IVar="-1" Cut="0.0000000000000000e+00" cType="1" res="7.2200765134766698e-04" rms="4.6196347475051880e-01" purity="5.9387421607971191e-01" nType="-99"/>
          <Node pos="r" depth="2" NCoef="0" IVar="-1" Cut="0.0000000000000000e+00" cType="1" res="-1.4377132756635547e-03" rms="4.7152605652809143e-01" purity="4.8699909448623657e-01" nType="-99"/>
        </Node>
      </Node>
    </BinaryTree>
    <BinaryTree type="DecisionTree" boostWeight="1.0000000000000000e+00" itree="269">
      <Node pos="s" depth="0" NCoef="0" IVar="0" Cut="8.1414136886596680e+00" cType="1" res="-1.5365266241133213e-02" rms="4.5545196533203125e-01" purity="4.8244640231132507e-01" nType="0">
        <Node pos="l" depth="1" NCoef="0" IVar="0" Cut="5.0962057113647461e+00" cType="1" res="-3.7806730717420578e-02" rms="4.5990437269210815e-01" purity="4.2549380660057068e-01" nType="0">
          <Node pos="l" depth="2" NCoef="0" IVar="-1" Cut="0.0000000000000000e+00" cType="1" res="-3.1052087433636189e-03" rms="3.5491278767585754e-01" purity="1.5208928287029266e-01" nType="-99"/>
          <Node pos="r" depth="2" NCoef="0" IVar="-1" Cut="0.0000000000000000e+00" cType="1" res="-4.6711257891729474e-04" rms="4.7005844116210938e-01" purity="4.6213692426681519e-01" nType="-99"/>
        </Node>
        <Node pos="r" depth="1" NCoef="0" IVar="1" Cut="6.4107391357421875e+01" cType="1" res="8.9451089501380920e-02" rms="4.1840460896492004e-01" purity="7.4845236539840698e-01" nType="0">
          <Node pos="l" depth="2" NCoef="0" IVar="-1" Cut="0.0000000000000000e+00" cType="1" res="2.0256757852621377e-04" rms="4.6672135591506958e-01" purity="6.4928096532821655e-01" nType="-99"/>
          <Node pos="r" depth="2" NCoef="0" IVar="-1" Cut="0.0000000000000000e+00" cType="1" res="3.0506923794746399e-03" rms="3.9276012778282166e-01" purity="7.8814065456390381e-01" nType="-99"/>
        </Node>
      </Node>
    </BinaryTree>
    <BinaryTree type="DecisionTree" boostWeight="1.0000000000000000e+00" itree="270">
      <Node pos="s" depth="0" NCoef="0" IVar="4" Cut="1.8632246398925781e+02" cType="1" res="-1.8100667512044311e-03" rms="4.5854425430297852e-01" purity="4.9817913770675659e-01" nType="0">
        <Node pos="l" depth="1" NCoef="0" IVar="5" Cut="2.8720661997795105e-01" cType="1" res="2.1176174283027649e-02" rms="4.5931988954544067e-01" purity="5.2410018444061279e-01" nType="0">
          <Node pos="l" depth="2" NCoef="0" IVar="-1" Cut="0.0000000000000000e+00" cType="1" res="-1.1555110104382038e-03" rms="4.6280995011329651e-01" purity="3.6991363763809204e-01" nType="-99"/>
          <Node pos="r" depth="2" NCoef="0" IVar="-1" Cut="0.0000000000000000e+00" cType="1" res="1.1914911447092891e-03" rms="4.5382097363471985e-01" purity="5.9310603141784668e-01" nType="-99"/>
        </Node>
        <Node pos="r" depth="1" NCoef="0" IVar="5" Cut="2.5330024957656860e-01" cType="1" res="-7.3786854743957520e-02" rms="4.4855147600173950e-01" purity="4.1701272130012512e-01" nType="0">
          <Node pos="l" depth="2" NCoef="0" IVar="-1" Cut="0.0000000000000000e+00" cType="1" res="1.0316109983250499e-03" rms="4.2452478408813477e-01" purity="4.4908425211906433e-01" nType="-99"/>
          <Node pos="r" depth="2" NCoef="0" IVar="-1" Cut="0.0000000000000000e+00" cType="1" res="-2.6552330236881971e-03" rms="4.4895282387733459e-01" purity="4.0413188934326172e-01" nType="-99"/>
        </Node>
      </Node>
    </BinaryTree>
    <BinaryTree type="DecisionTree" boostWeight="1.0000000000000000e+00" itree="271">
      <Node pos="s" depth="0" NCoef="0" IVar="4" Cut="3.7442785644531250e+02" cType="1" res="-2.5752976536750793e-02" rms="4.6836304664611816e-01" purity="4.8158937692642212e-01" nType="0">
        <Node pos="l" depth="1" NCoef="0" IVar="6" Cut="6.8083526611328125e+02" cType="1" res="-1.6127541661262512e-02" rms="4.7208538651466370e-01" purity="4.9633994698524475e-01" nType="0">
          <Node pos="l" depth="2" NCoef="0" IVar="-1" Cut="0.0000000000000000e+00" cType="1" res="-5.9113098541274667e-04" rms="4.7102168202400208e-01" purity="4.8139443993568420e-01" nType="-99"/>
          <Node pos="r" depth="2" NCoef="0" IVar="-1" Cut="0.0000000000000000e+00" cType="1" res="4.0605938993394375e-03" rms="4.4949042797088623e-01" purity="7.3565661907196045e-01" nType="-99"/>
        </Node>
        <Node pos="r" depth="1" NCoef="0" IVar="-1" Cut="0.0000000000000000e+00" cType="1" res="-4.2325747199356556e-03" rms="3.5753670334815979e-01" purity="2.2286239266395569e-01" nType="-99"/>
      </Node>
    </BinaryTree>
    <BinaryTree type="DecisionTree" boostWeight="1.0000000000000000e+00" itree="272">
      <Node pos="s" depth="0" NCoef="0" IVar="0" Cut="7.2152762413024902e+00" cType="1" res="-1.3224491849541664e-02" rms="4.5449092984199524e-01" purity="4.9076721072196960e-01" nType="0">
        <Node pos="l" depth="1" NCoef="0" IVar="6" Cut="6.4721289062500000e+02" cType="1" res="-5.0149291753768921e-02" rms="4.6054804325103760e-01" purity="3.7325039505958557e-01" nType="0">
          <Node pos="l" depth="2" NCoef="0" IVar="-1" Cut="0.0000000000000000e+00" cType="1" res="-1.3632125919684768e-03" rms="4.5605450868606567e-01" purity="3.4998598694801331e-01" nType="-99"/>
          <Node pos="r" depth="2" NCoef="0" IVar="-1" Cut="0.0000000000000000e+00" cType="1" res="2.8101196512579918e-03" rms="4.6961808204650879e-01" purity="6.2183433771133423e-01" nType="-99"/>
        </Node>
        <Node pos="r" depth="1" NCoef="0" IVar="3" Cut="2.4318952560424805e+00" cType="1" res="4.2444769293069839e-02" rms="4.3937602639198303e-01" purity="6.6794008016586304e-01" nType="0">
          <Node pos="l" depth="2" NCoef="0" IVar="-1" Cut="0.0000000000000000e+00" cType="1" res="1.6984400572255254e-03" rms="4.3014690279960632e-01" purity="7.3768597841262817e-01" nType="-99"/>
          <Node pos="r" depth="2" NCoef="0" IVar="-1" Cut="0.0000000000000000e+00" cType="1" res="-1.6681485576555133e-03" rms="4.5864623785018921e-01" purity="3.5436999797821045e-01" nType="-99"/>
        </Node>
      </Node>
    </BinaryTree>
    <BinaryTree type="DecisionTree" boostWeight="1.0000000000000000e+00" itree="273">
      <Node pos="s" depth="0" NCoef="0" IVar="1" Cut="4.0293399810791016e+01" cType="1" res="-2.1890044212341309e-02" rms="4.6141043305397034e-01" purity="4.7574383020401001e-01" nType="0">
        <Node pos="l" depth="1" NCoef="0" IVar="-1" Cut="0.0000000000000000e+00" cType="1" res="-3.4836113918572664e-03" rms="4.2499688267707825e-01" purity="2.6775535941123962e-01" nType="-99"/>
        <Node pos="r" depth="1" NCoef="0" IVar="2" Cut="1.1655280590057373e+00" cType="1" res="-5.9447996318340302e-03" rms="4.6236762404441833e-01" purity="4.9823242425918579e-01" nType="0">
          <Node pos="l" depth="2" NCoef="0" IVar="-1" Cut="0.0000000000000000e+00" cType="1" res="4.1600619442760944e-04" rms="4.7103267908096313e-01" purity="5.9672456979751587e-01" nType="-99"/>
          <Node pos="r" depth="2" NCoef="0" IVar="-1" Cut="0.0000000000000000e+00" cType="1" res="-1.1581586441025138e-03" rms="4.4174033403396606e-01" purity="3.1371235847473145e-01" nType="-99"/>
        </Node>
      </Node>
    </BinaryTree>
    <BinaryTree type="DecisionTree" boostWeight="1.0000000000000000e+00" itree="274">
      <Node pos="s" depth="0" NCoef="0" IVar="2" Cut="9.8842120170593262e-01" cType="1" res="5.8549186214804649e-03" rms="4.5699930191040039e-01" purity="5.2022016048431396e-01" nType="0">
        <Node pos="l" depth="1" NCoef="0" IVar="1" Cut="1.1036245727539062e+02" cType="1" res="4.9812883138656616e-02" rms="4.5838573575019836e-01" purity="6.4782279729843140e-01" nType="0">
          <Node pos="l" depth="2" NCoef="0" IVar="-1" Cut="0.0000000000000000e+00" cType="1" res="4.1377978050149977e-04" rms="4.6976250410079956e-01" purity="6.0509186983108521e-01" nType="-99"/>
          <Node pos="r" depth="2" NCoef="0" IVar="-1" Cut="0.0000000000000000e+00" cType="1" res="4.9457759596407413e-03" rms="3.6118623614311218e-01" purity="8.5833823680877686e-01" nType="-99"/>
        </Node>
        <Node pos="r" depth="1" NCoef="0" IVar="3" Cut="2.4985158443450928e+00" cType="1" res="-4.4910151511430740e-02" rms="4.5008230209350586e-01" purity="3.7285757064819336e-01" nType="0">
          <Node pos="l" depth="2" NCoef="0" IVar="-1" Cut="0.0000000000000000e+00" cType="1" res="-4.2693474097177386e-04" rms="4.7228416800498962e-01" purity="4.3710780143737793e-01" nType="-99"/>
          <Node pos="r" depth="2" NCoef="0" IVar="-1" Cut="0.0000000000000000e+00" cType="1" res="-2.7036981191486120e-03" rms="3.7125793099403381e-01" purity="1.9029356539249420e-01" nType="-99"/>
        </Node>
      </Node>
    </BinaryTree>
    <BinaryTree type="DecisionTree" boostWeight="1.0000000000000000e+00" itree="275">
      <Node pos="s" depth="0" NCoef="0" IVar="3" Cut="2.5717854499816895e+00" cType="1" res="2.0671049132943153e-03" rms="4.5728915929794312e-01" purity="5.1540732383728027e-01" nType="0">
        <Node pos="l" depth="1" NCoef="0" IVar="5" Cut="5.3621274232864380e-01" cType="1" res="1.6272913664579391e-02" rms="4.6496948599815369e-01" purity="5.5655866861343384e-01" nType="0">
          <Node pos="l" depth="2" NCoef="0" IVar="-1" Cut="0.0000000000000000e+00" cType="1" res="-2.1638181351590902e-04" rms="4.6827492117881775e-01" purity="5.1611596345901489e-01" nType="-99"/>
          <Node pos="r" depth="2" NCoef="0" IVar="-1" Cut="0.0000000000000000e+00" cType="1" res="1.7510949401184916e-03" rms="4.5077264308929443e-01" purity="6.5352547168731689e-01" nType="-99"/>
        </Node>
        <Node pos="r" depth="1" NCoef="0" IVar="-1" Cut="0.0000000000000000e+00" cType="1" res="-2.8075422160327435e-03" rms="3.6464118957519531e-01" purity="1.6697870194911957e-01" nType="-99"/>
      </Node>
    </BinaryTree>
    <BinaryTree type="DecisionTree" boostWeight="1.0000000000000000e+00" itree="276">
      <Node pos="s" depth="0" NCoef="0" IVar="2" Cut="1.5122090578079224e+00" cType="1" res="5.5442661978304386e-03" rms="4.5060262084007263e-01" purity="5.0423431396484375e-01" nType="0">
        <Node pos="l" depth="1" NCoef="0" IVar="3" Cut="2.2458615303039551e+00" cType="1" res="2.8236089274287224e-02" rms="4.6161201596260071e-01" purity="5.6094694137573242e-01" nType="0">
          <Node pos="l" depth="2" NCoef="0" IVar="-1" Cut="0.0000000000000000e+00" cType="1" res="1.1266120709478855e-03" rms="4.5887804031372070e-01" purity="6.3072121143341064e-01" nType="-99"/>
          <Node pos="r" depth="2" NCoef="0" IVar="-1" Cut="0.0000000000000000e+00" cType="1" res="-4.3275975622236729e-04" rms="4.6366456151008606e-01" purity="4.1209933161735535e-01" nType="-99"/>
        </Node>
        <Node pos="r" depth="1" NCoef="0" IVar="5" Cut="2.5936543941497803e-01" cType="1" res="-1.3913016021251678e-01" rms="3.3882015943527222e-01" purity="1.4265571534633636e-01" nType="0">
          <Node pos="l" depth="2" NCoef="0" IVar="-1" Cut="0.0000000000000000e+00" cType="1" res="-2.4486333131790161e-03" rms="3.5564637184143066e-01" purity="1.6227035224437714e-01" nType="-99"/>
          <Node pos="r" depth="2" NCoef="0" IVar="-1" Cut="0.0000000000000000e+00" cType="1" res="-4.0524480864405632e-03" rms="3.1345283985137939e-01" purity="1.2067683786153793e-01" nType="-99"/>
        </Node>
      </Node>
    </BinaryTree>
    <BinaryTree type="DecisionTree" boostWeight="1.0000000000000000e+00" itree="277">
      <Node pos="s" depth="0" NCoef="0" IVar="0" Cut="8.3346109390258789e+00" cType="1" res="-6.5073842415586114e-04" rms="4.6015053987503052e-01" purity="5.0279688835144043e-01" nType="0">
        <Node pos="l" depth="1" NCoef="0" IVar="5" Cut="2.9196190834045410e-01" cType="1" res="-2.0691500976681709e-02" rms="4.6780517697334290e-01" purity="4.4715958833694458e-01" nType="0">
          <Node pos="l" depth="2" NCoef="0" IVar="-1" Cut="0.0000000000000000e+00" cType="1" res="-1.7121153650805354e-03" rms="4.4931215047836304e-01" purity="3.3936047554016113e-01" nType="-99"/>
          <Node pos="r" depth="2" NCoef="0" IVar="-1" Cut="0.0000000000000000e+00" cType="1" res="1.7419735377188772e-04" rms="4.7397795319557190e-01" purity="5.0034600496292114e-01" nType="-99"/>
        </Node>
        <Node pos="r" depth="1" NCoef="0" IVar="0" Cut="9.2405185699462891e+00" cType="1" res="9.4234213232994080e-02" rms="4.0890493988990784e-01" purity="7.6621705293655396e-01" nType="0">
          <Node pos="l" depth="2" NCoef="0" IVar="-1" Cut="0.0000000000000000e+00" cType="1" res="1.4351874124258757e-03" rms="4.3226128816604614e-01" purity="7.2655379772186279e-01" nType="-99"/>
          <Node pos="r" depth="2" NCoef="0" IVar="-1" Cut="0.0000000000000000e+00" cType="1" res="4.4458704069256783e-03" rms="3.4116789698600769e-01" purity="8.4947323799133301e-01" nType="-99"/>
        </Node>
      </Node>
    </BinaryTree>
    <BinaryTree type="DecisionTree" boostWeight="1.0000000000000000e+00" itree="278">
      <Node pos="s" depth="0" NCoef="0" IVar="5" Cut="4.4021850824356079e-01" cType="1" res="1.8192462157458067e-03" rms="4.4890850782394409e-01" purity="4.9967768788337708e-01" nType="0">
        <Node pos="l" depth="1" NCoef="0" IVar="0" Cut="8.0714292526245117e+00" cType="1" res="-4.1698340326547623e-02" rms="4.3530559539794922e-01" purity="4.1569334268569946e-01" nType="0">
          <Node pos="l" depth="2" NCoef="0" IVar="-1" Cut="0.0000000000000000e+00" cType="1" res="-1.5392594505101442e-03" rms="4.3616297841072083e-01" purity="3.4657651185989380e-01" nType="-99"/>
          <Node pos="r" depth="2" NCoef="0" IVar="-1" Cut="0.0000000000000000e+00" cType="1" res="1.8253404414281249e-03" rms="4.1073131561279297e-01" purity="6.8222808837890625e-01" nType="-99"/>
        </Node>
        <Node pos="r" depth="1" NCoef="0" IVar="2" Cut="8.9033496379852295e-01" cType="1" res="6.0342140495777130e-02" rms="4.6013298630714417e-01" purity="6.1262071132659912e-01" nType="0">
          <Node pos="l" depth="2" NCoef="0" IVar="-1" Cut="0.0000000000000000e+00" cType="1" res="2.5269524194300175e-03" rms="4.2907753586769104e-01" purity="7.4401587247848511e-01" nType="-99"/>
          <Node pos="r" depth="2" NCoef="0" IVar="-1" Cut="0.0000000000000000e+00" cType="1" res="1.5503659960813820e-04" rms="4.8435911536216736e-01" purity="4.7733232378959656e-01" nType="-99"/>
        </Node>
      </Node>
    </BinaryTree>
    <BinaryTree type="DecisionTree" boostWeight="1.0000000000000000e+00" itree="279">
      <Node pos="s" depth="0" NCoef="0" IVar="2" Cut="8.6870908737182617e-01" cType="1" res="9.5814801752567291e-03" rms="4.5089444518089294e-01" purity="5.1220607757568359e-01" nType="0">
        <Node pos="l" depth="1" NCoef="0" IVar="1" Cut="4.2924919128417969e+01" cType="1" res="7.0225991308689117e-02" rms="4.4586619734764099e-01" purity="6.8689978122711182e-01" nType="0">
          <Node pos="l" depth="2" NCoef="0" IVar="-1" Cut="0.0000000000000000e+00" cType="1" res="-2.0138733088970184e-03" rms="4.6041253209114075e-01" purity="4.6317201852798462e-01" nType="-99"/>
          <Node pos="r" depth="2" NCoef="0" IVar="-1" Cut="0.0000000000000000e+00" cType="1" res="2.2496089804917574e-03" rms="4.3689650297164917e-01" purity="7.2415995597839355e-01" nType="-99"/>
        </Node>
        <Node pos="r" depth="1" NCoef="0" IVar="0" Cut="8.5149154663085938e+00" cType="1" res="-2.6526458561420441e-02" rms="4.4999668002128601e-01" purity="4.0819287300109863e-01" nType="0">
          <Node pos="l" depth="2" NCoef="0" IVar="-1" Cut="0.0000000000000000e+00" cType="1" res="-9.9365902133285999e-04" rms="4.5310148596763611e-01" purity="3.6388245224952698e-01" nType="-99"/>
          <Node pos="r" depth="2" NCoef="0" IVar="-1" Cut="0.0000000000000000e+00" cType="1" res="3.1917677260935307e-03" rms="3.9135864377021790e-01" purity="7.4781531095504761e-01" nType="-99"/>
        </Node>
      </Node>
    </BinaryTree>
    <BinaryTree type="DecisionTree" boostWeight="1.0000000000000000e+00" itree="280">
      <Node pos="s" depth="0" NCoef="0" IVar="6" Cut="4.2487258911132812e+02" cType="1" res="-9.2162890359759331e-03" rms="4.5711028575897217e-01" purity="4.9635234475135803e-01" nType="0">
        <Node pos="l" depth="1" NCoef="0" IVar="6" Cut="2.8154827880859375e+02" cType="1" res="-3.8355790078639984e-02" rms="4.5613527297973633e-01" purity="4.3794992566108704e-01" nType="0">
          <Node pos="l" depth="2" NCoef="0" IVar="-1" Cut="0.0000000000000000e+00" cType="1" res="-2.6141481939703226e-03" rms="4.5272272825241089e-01" purity="2.8247785568237305e-01" nType="-99"/>
          <Node pos="r" depth="2" NCoef="0" IVar="-1" Cut="0.0000000000000000e+00" cType="1" res="-3.3755370532162488e-04" rms="4.5427832007408142e-01" purity="4.7932130098342896e-01" nType="-99"/>
        </Node>
        <Node pos="r" depth="1" NCoef="0" IVar="4" Cut="2.2203030395507812e+02" cType="1" res="3.0865330249071121e-02" rms="4.5541206002235413e-01" purity="5.7668536901473999e-01" nType="0">
          <Node pos="l" depth="2" NCoef="0" IVar="-1" Cut="0.0000000000000000e+00" cType="1" res="1.3876766897737980e-03" rms="4.5791658759117126e-01" purity="6.2272751331329346e-01" nType="-99"/>
          <Node pos="r" depth="2" NCoef="0" IVar="-1" Cut="0.0000000000000000e+00" cType="1" res="-1.5620874473825097e-03" rms="4.3181630969047546e-01" purity="4.2680081725120544e-01" nType="-99"/>
        </Node>
      </Node>
    </BinaryTree>
    <BinaryTree type="DecisionTree" boostWeight="1.0000000000000000e+00" itree="281">
      <Node pos="s" depth="0" NCoef="0" IVar="0" Cut="5.5151247978210449e+00" cType="1" res="-7.2981468401849270e-03" rms="4.5689323544502258e-01" purity="4.9761223793029785e-01" nType="0">
        <Node pos="l" depth="1" NCoef="0" IVar="1" Cut="7.0164352416992188e+01" cType="1" res="-1.0983490198850632e-01" rms="4.1069048643112183e-01" purity="2.2555632889270782e-01" nType="0">
          <Node pos="l" depth="2" NCoef="0" IVar="-1" Cut="0.0000000000000000e+00" cType="1" res="-1.1269795941188931e-03" rms="4.2992866039276123e-01" purity="2.6821222901344299e-01" nType="-99"/>
          <Node pos="r" depth="2" NCoef="0" IVar="-1" Cut="0.0000000000000000e+00" cType="1" res="-2.9519007075577974e-03" rms="3.9081409573554993e-01" purity="1.9412361085414886e-01" nType="-99"/>
        </Node>
        <Node pos="r" depth="1" NCoef="0" IVar="3" Cut="1.9535547494888306e+00" cType="1" res="1.1878913268446922e-02" rms="4.6250858902931213e-01" purity="5.4849374294281006e-01" nType="0">
          <Node pos="l" depth="2" NCoef="0" IVar="-1" Cut="0.0000000000000000e+00" cType="1" res="2.0972311031073332e-03" rms="4.3212476372718811e-01" purity="6.9178247451782227e-01" nType="-99"/>
          <Node pos="r" depth="2" NCoef="0" IVar="-1" Cut="0.0000000000000000e+00" cType="1" res="-2.1201488561928272e-04" rms="4.6802064776420593e-01" purity="5.0984823703765869e-01" nType="-99"/>
        </Node>
      </Node>
    </BinaryTree>
    <BinaryTree type="DecisionTree" boostWeight="1.0000000000000000e+00" itree="282">
      <Node pos="s" depth="0" NCoef="0" IVar="1" Cut="3.8451038360595703e+01" cType="1" res="-3.1512889545410872e-03" rms="4.5627108216285706e-01" purity="5.0424528121948242e-01" nType="0">
        <Node pos="l" depth="1" NCoef="0" IVar="1" Cut="3.3655323028564453e+01" cType="1" res="-1.5077373385429382e-01" rms="4.3553093075752258e-01" purity="2.9287743568420410e-01" nType="0">
          <Node pos="l" depth="2" NCoef="0" IVar="-1" Cut="0.0000000000000000e+00" cType="1" res="-3.3902102150022984e-03" rms="4.2452880740165710e-01" purity="2.7433472871780396e-01" nType="-99"/>
          <Node pos="r" depth="2" NCoef="0" IVar="-1" Cut="0.0000000000000000e+00" cType="1" res="-2.7748853899538517e-03" rms="4.4808390736579895e-01" purity="3.1532466411590576e-01" nType="-99"/>
        </Node>
        <Node pos="r" depth="1" NCoef="0" IVar="5" Cut="5.6624352931976318e-01" cType="1" res="1.6246899962425232e-02" rms="4.5538321137428284e-01" purity="5.3201991319656372e-01" nType="0">
          <Node pos="l" depth="2" NCoef="0" IVar="-1" Cut="0.0000000000000000e+00" cType="1" res="-2.5711339549161494e-04" rms="4.5363140106201172e-01" purity="4.8567801713943481e-01" nType="-99"/>
          <Node pos="r" depth="2" NCoef="0" IVar="-1" Cut="0.0000000000000000e+00" cType="1" res="2.7754059992730618e-03" rms="4.4632938504219055e-01" purity="7.0760601758956909e-01" nType="-99"/>
        </Node>
      </Node>
    </BinaryTree>
    <BinaryTree type="DecisionTree" boostWeight="1.0000000000000000e+00" itree="283">
      <Node pos="s" depth="0" NCoef="0" IVar="1" Cut="5.3270584106445312e+01" cType="1" res="1.9563416019082069e-02" rms="4.5044806599617004e-01" purity="5.2266156673431396e-01" nType="0">
        <Node pos="l" depth="1" NCoef="0" IVar="1" Cut="4.5860855102539062e+01" cType="1" res="-5.5034421384334564e-02" rms="4.6533280611038208e-01" purity="4.1741430759429932e-01" nType="0">
          <Node pos="l" depth="2" NCoef="0" IVar="-1" Cut="0.0000000000000000e+00" cType="1" res="-9.5896262791939080e-05" rms="4.6865740418434143e-01" purity="4.6893781423568726e-01" nType="-99"/>
          <Node pos="r" depth="2" NCoef="0" IVar="-1" Cut="0.0000000000000000e+00" cType="1" res="-3.5351258702576160e-03" rms="4.3042331933975220e-01" purity="2.8550389409065247e-01" nType="-99"/>
        </Node>
        <Node pos="r" depth="1" NCoef="0" IVar="0" Cut="6.0091438293457031e+00" cType="1" res="4.5072320848703384e-02" rms="4.4236707687377930e-01" purity="5.5865108966827393e-01" nType="0">
          <Node pos="l" depth="2" NCoef="0" IVar="-1" Cut="0.0000000000000000e+00" cType="1" res="-9.6893310546875000e-04" rms="4.3482267856597900e-01" purity="2.9928320646286011e-01" nType="-99"/>
          <Node pos="r" depth="2" NCoef="0" IVar="-1" Cut="0.0000000000000000e+00" cType="1" res="1.8795997602865100e-03" rms="4.4011804461479187e-01" purity="6.6090601682662964e-01" nType="-99"/>
        </Node>
      </Node>
    </BinaryTree>
    <BinaryTree type="DecisionTree" boostWeight="1.0000000000000000e+00" itree="284">
      <Node pos="s" depth="0" NCoef="0" IVar="3" Cut="2.5772807598114014e+00" cType="1" res="-2.5013141334056854e-02" rms="4.5363897085189819e-01" purity="4.7699424624443054e-01" nType="0">
        <Node pos="l" depth="1" NCoef="0" IVar="1" Cut="1.1633198547363281e+02" cType="1" res="-7.1320817805826664e-03" rms="4.6728414297103882e-01" purity="5.2853530645370483e-01" nType="0">
          <Node pos="l" depth="2" NCoef="0" IVar="-1" Cut="0.0000000000000000e+00" cType="1" res="-5.3267262410372496e-04" rms="4.7144511342048645e-01" purity="5.0313633680343628e-01" nType="-99"/>
          <Node pos="r" depth="2" NCoef="0" IVar="-1" Cut="0.0000000000000000e+00" cType="1" res="2.1045689936727285e-03" rms="4.2966610193252563e-01" purity="6.7069911956787109e-01" nType="-99"/>
        </Node>
        <Node pos="r" depth="1" NCoef="0" IVar="0" Cut="6.4840369224548340e+00" cType="1" res="-1.4959457516670227e-01" rms="3.1699988245964050e-01" purity="1.1789591610431671e-01" nType="0">
          <Node pos="l" depth="2" NCoef="0" IVar="-1" Cut="0.0000000000000000e+00" cType="1" res="-2.5950719136744738e-03" rms="3.1559073925018311e-01" purity="1.1874508857727051e-01" nType="-99"/>
          <Node pos="r" depth="2" NCoef="0" IVar="-1" Cut="0.0000000000000000e+00" cType="1" res="-4.8138480633497238e-03" rms="3.0737796425819397e-01" purity="1.1679422110319138e-01" nType="-99"/>
        </Node>
      </Node>
    </BinaryTree>
    <BinaryTree type="DecisionTree" boostWeight="1.0000000000000000e+00" itree="285">
      <Node pos="s" depth="0" NCoef="0" IVar="4" Cut="2.6710491943359375e+02" cType="1" res="1.5575473196804523e-02" rms="4.4330942630767822e-01" purity="5.2517139911651611e-01" nType="0">
        <Node pos="l" depth="1" NCoef="0" IVar="6" Cut="2.9825183105468750e+02" cType="1" res="3.4023489803075790e-02" rms="4.4610300660133362e-01" purity="5.5216014385223389e-01" nType="0">
          <Node pos="l" depth="2" NCoef="0" IVar="-1" Cut="0.0000000000000000e+00" cType="1" res="-1.5634166775271297e-03" rms="4.3569210171699524e-01" purity="3.4598580002784729e-01" nType="-99"/>
          <Node pos="r" depth="2" NCoef="0" IVar="-1" Cut="0.0000000000000000e+00" cType="1" res="1.2984144268557429e-03" rms="4.4481018185615540e-01" purity="5.9965890645980835e-01" nType="-99"/>
        </Node>
        <Node pos="r" depth="1" NCoef="0" IVar="0" Cut="6.7668361663818359e+00" cType="1" res="-1.3710126280784607e-01" rms="3.8708314299583435e-01" purity="3.0181115865707397e-01" nType="0">
          <Node pos="l" depth="2" NCoef="0" IVar="-1" Cut="0.0000000000000000e+00" cType="1" res="-3.2316381111741066e-03" rms="3.4827068448066711e-01" purity="2.0802617073059082e-01" nType="-99"/>
          <Node pos="r" depth="2" NCoef="0" IVar="-1" Cut="0.0000000000000000e+00" cType="1" res="-2.8800978325307369e-03" rms="4.2216292023658752e-01" purity="3.9528688788414001e-01" nType="-99"/>
        </Node>
      </Node>
    </BinaryTree>
    <BinaryTree type="DecisionTree" boostWeight="1.0000000000000000e+00" itree="286">
      <Node pos="s" depth="0" NCoef="0" IVar="0" Cut="8.9090604782104492e+00" cType="1" res="8.8556036353111267e-03" rms="4.4852399826049805e-01" purity="5.1994866132736206e-01" nType="0">
        <Node pos="l" depth="1" NCoef="0" IVar="2" Cut="1.1598502397537231e+00" cType="1" res="-4.4932663440704346e-03" rms="4.5559811592102051e-01" purity="4.8834618926048279e-01" nType="0">
          <Node pos="l" depth="2" NCoef="0" IVar="-1" Cut="0.0000000000000000e+00" cType="1" res="4.9562955973669887e-04" rms="4.6580788493156433e-01" purity="5.9211033582687378e-01" nType="-99"/>
          <Node pos="r" depth="2" NCoef="0" IVar="-1" Cut="0.0000000000000000e+00" cType="1" res="-1.2774325441569090e-03" rms="4.3003779649734497e-01" purity="2.8582632541656494e-01" nType="-99"/>
        </Node>
        <Node pos="r" depth="1" NCoef="0" IVar="-1" Cut="0.0000000000000000e+00" cType="1" res="3.7494569551199675e-03" rms="3.4305638074874878e-01" purity="8.3574306964874268e-01" nType="-99"/>
      </Node>
    </BinaryTree>
    <BinaryTree type="DecisionTree" boostWeight="1.0000000000000000e+00" itree="287">
      <Node pos="s" depth="0" NCoef="0" IVar="2" Cut="8.2513517141342163e-01" cType="1" res="1.3539934530854225e-02" rms="4.4601947069168091e-01" purity="5.2287662029266357e-01" nType="0">
        <Node pos="l" depth="1" NCoef="0" IVar="2" Cut="6.7595475912094116e-01" cType="1" res="9.0032443404197693e-02" rms="4.3214559555053711e-01" purity="7.2177362442016602e-01" nType="0">
          <Node pos="l" depth="2" NCoef="0" IVar="-1" Cut="0.0000000000000000e+00" cType="1" res="1.3893912546336651e-03" rms="4.3910023570060730e-01" purity="6.9657921791076660e-01" nType="-99"/>
          <Node pos="r" depth="2" NCoef="0" IVar="-1" Cut="0.0000000000000000e+00" cType="1" res="3.1309318728744984e-03" rms="4.1833829879760742e-01" purity="7.5699943304061890e-01" nType="-99"/>
        </Node>
        <Node pos="r" depth="1" NCoef="0" IVar="2" Cut="1.1548557281494141e+00" cType="1" res="-2.5598019361495972e-02" rms="4.4793042540550232e-01" purity="4.2110946774482727e-01" nType="0">
          <Node pos="l" depth="2" NCoef="0" IVar="-1" Cut="0.0000000000000000e+00" cType="1" res="4.0678016375750303e-04" rms="4.6213361620903015e-01" purity="5.5673772096633911e-01" nType="-99"/>
          <Node pos="r" depth="2" NCoef="0" IVar="-1" Cut="0.0000000000000000e+00" cType="1" res="-1.3981600059196353e-03" rms="4.3070808053016663e-01" purity="2.9848721623420715e-01" nType="-99"/>
        </Node>
      </Node>
    </BinaryTree>
    <BinaryTree type="DecisionTree" boostWeight="1.0000000000000000e+00" itree="288">
      <Node pos="s" depth="0" NCoef="0" IVar="1" Cut="1.4780198669433594e+02" cType="1" res="9.6257764380425215e-04" rms="4.6021205186843872e-01" purity="5.0811237096786499e-01" nType="0">
        <Node pos="l" depth="1" NCoef="0" IVar="3" Cut="2.4308669567108154e+00" cType="1" res="1.2331798672676086e-02" rms="4.5718929171562195e-01" purity="5.1887041330337524e-01" nType="0">
          <Node pos="l" depth="2" NCoef="0" IVar="-1" Cut="0.0000000000000000e+00" cType="1" res="6.4486148767173290e-04" rms="4.6395444869995117e-01" purity="5.8009058237075806e-01" nType="-99"/>
          <Node pos="r" depth="2" NCoef="0" IVar="-1" Cut="0.0000000000000000e+00" cType="1" res="-1.3689058832824230e-03" rms="4.2048040032386780e-01" purity="2.6725962758064270e-01" nType="-99"/>
        </Node>
        <Node pos="r" depth="1" NCoef="0" IVar="-1" Cut="0.0000000000000000e+00" cType="1" res="-4.3071848340332508e-03" rms="4.6962144970893860e-01" purity="3.3274069428443909e-01" nType="-99"/>
      </Node>
    </BinaryTree>
    <BinaryTree type="DecisionTree" boostWeight="1.0000000000000000e+00" itree="289">
      <Node pos="s" depth="0" NCoef="0" IVar="2" Cut="9.8007416725158691e-01" cType="1" res="-4.1483614593744278e-02" rms="4.6037897467613220e-01" purity="4.6939536929130554e-01" nType="0">
        <Node pos="l" depth="1" NCoef="0" IVar="0" Cut="5.4314332008361816e+00" cType="1" res="-4.9359099939465523e-03" rms="4.7141513228416443e-01" purity="6.0172492265701294e-01" nType="0">
          <Node pos="l" depth="2" NCoef="0" IVar="-1" Cut="0.0000000000000000e+00" cType="1" res="-2.7764025144279003e-03" rms="4.1944164037704468e-01" purity="2.5890219211578369e-01" nType="-99"/>
          <Node pos="r" depth="2" NCoef="0" IVar="-1" Cut="0.0000000000000000e+00" cType="1" res="2.9659981373697519e-04" rms="4.7453069686889648e-01" purity="6.4521193504333496e-01" nType="-99"/>
        </Node>
        <Node pos="r" depth="1" NCoef="0" IVar="1" Cut="9.9414733886718750e+01" cType="1" res="-7.7258594334125519e-02" rms="4.4642522931098938e-01" purity="3.3986368775367737e-01" nType="0">
          <Node pos="l" depth="2" NCoef="0" IVar="-1" Cut="0.0000000000000000e+00" cType="1" res="-2.6736499276012182e-03" rms="4.2960828542709351e-01" purity="2.7794143557548523e-01" nType="-99"/>
          <Node pos="r" depth="2" NCoef="0" IVar="-1" Cut="0.0000000000000000e+00" cType="1" res="3.8159187533892691e-04" rms="4.6401888132095337e-01" purity="4.6458965539932251e-01" nType="-99"/>
        </Node>
      </Node>
    </BinaryTree>
    <BinaryTree type="DecisionTree" boostWeight="1.0000000000000000e+00" itree="290">
      <Node pos="s" depth="0" NCoef="0" IVar="5" Cut="6.3891625404357910e-01" cType="1" res="-2.2796696051955223e-02" rms="4.6193709969520569e-01" purity="4.8850083351135254e-01" nType="0">
        <Node pos="l" depth="1" NCoef="0" IVar="1" Cut="1.0895113372802734e+02" cType="1" res="-3.4924622625112534e-02" rms="4.6061965823173523e-01" purity="4.6944719552993774e-01" nType="0">
          <Node pos="l" depth="2" NCoef="0" IVar="-1" Cut="0.0000000000000000e+00" cType="1" res="-1.2450102949514985e-03" rms="4.6189677715301514e-01" purity="4.3907666206359863e-01" nType="-99"/>
          <Node pos="r" depth="2" NCoef="0" IVar="-1" Cut="0.0000000000000000e+00" cType="1" res="6.8294734228402376e-04" rms="4.5076593756675720e-01" purity="5.5475467443466187e-01" nType="-99"/>
        </Node>
        <Node pos="r" depth="1" NCoef="0" IVar="1" Cut="8.0463531494140625e+01" cType="1" res="5.4633636027574539e-02" rms="4.6282950043678284e-01" purity="6.1014807224273682e-01" nType="0">
          <Node pos="l" depth="2" NCoef="0" IVar="-1" Cut="0.0000000000000000e+00" cType="1" res="1.9171766471117735e-03" rms="4.5123246312141418e-01" purity="6.2627452611923218e-01" nType="-99"/>
          <Node pos="r" depth="2" NCoef="0" IVar="-1" Cut="0.0000000000000000e+00" cType="1" res="1.2122713087592274e-04" rms="4.7475624084472656e-01" purity="5.8692771196365356e-01" nType="-99"/>
        </Node>
      </Node>
    </BinaryTree>
    <BinaryTree type="DecisionTree" boostWeight="1.0000000000000000e+00" itree="291">
      <Node pos="s" depth="0" NCoef="0" IVar="0" Cut="5.4537243843078613e+00" cType="1" res="5.8016208931803703e-03" rms="4.5187130570411682e-01" purity="5.0658953189849854e-01" nType="0">
        <Node pos="l" depth="1" NCoef="0" IVar="2" Cut="1.1538351774215698e+00" cType="1" res="-1.0715056210756302e-01" rms="4.1392922401428223e-01" purity="2.1314220130443573e-01" nType="0">
          <Node pos="l" depth="2" NCoef="0" IVar="-1" Cut="0.0000000000000000e+00" cType="1" res="-3.4540127962827682e-03" rms="3.9122235774993896e-01" purity="1.9432963430881500e-01" nType="-99"/>
          <Node pos="r" depth="2" NCoef="0" IVar="-1" Cut="0.0000000000000000e+00" cType="1" res="2.8716618544422090e-04" rms="4.1910031437873840e-01" purity="2.4161675572395325e-01" nType="-99"/>
        </Node>
        <Node pos="r" depth="1" NCoef="0" IVar="0" Cut="8.4471569061279297e+00" cType="1" res="2.8141187503933907e-02" rms="4.5569992065429688e-01" purity="5.6462728977203369e-01" nType="0">
          <Node pos="l" depth="2" NCoef="0" IVar="-1" Cut="0.0000000000000000e+00" cType="1" res="2.6044572587125003e-04" rms="4.6649077534675598e-01" purity="5.1851707696914673e-01" nType="-99"/>
          <Node pos="r" depth="2" NCoef="0" IVar="-1" Cut="0.0000000000000000e+00" cType="1" res="2.6551203336566687e-03" rms="3.9290463924407959e-01" purity="7.7958971261978149e-01" nType="-99"/>
        </Node>
      </Node>
    </BinaryTree>
    <BinaryTree type="DecisionTree" boostWeight="1.0000000000000000e+00" itree="292">
      <Node pos="s" depth="0" NCoef="0" IVar="6" Cut="3.0864428710937500e+02" cType="1" res="-1.0779677890241146e-02" rms="4.4497564435005188e-01" purity="4.9236711859703064e-01" nType="0">
        <Node pos="l" depth="1" NCoef="0" IVar="0" Cut="6.5365071296691895e+00" cType="1" res="-1.1042135208845139e-01" rms="4.0853816270828247e-01" purity="3.0524036288261414e-01" nType="0">
          <Node pos="l" depth="2" NCoef="0" IVar="-1" Cut="0.0000000000000000e+00" cType="1" res="-3.6756815388798714e-03" rms="3.4607589244842529e-01" purity="1.4519728720188141e-01" nType="-99"/>
          <Node pos="r" depth="2" NCoef="0" IVar="-1" Cut="0.0000000000000000e+00" cType="1" res="-9.5939025050029159e-04" rms="4.5850515365600586e-01" purity="4.8035207390785217e-01" nType="-99"/>
        </Node>
        <Node pos="r" depth="1" NCoef="0" IVar="1" Cut="1.0695027160644531e+02" cType="1" res="1.5182497911155224e-02" rms="4.5038384199142456e-01" purity="5.4112392663955688e-01" nType="0">
          <Node pos="l" depth="2" NCoef="0" IVar="-1" Cut="0.0000000000000000e+00" cType="1" res="-3.2909045694395900e-04" rms="4.5784169435501099e-01" purity="5.0622642040252686e-01" nType="-99"/>
          <Node pos="r" depth="2" NCoef="0" IVar="-1" Cut="0.0000000000000000e+00" cType="1" res="2.1104880142956972e-03" rms="4.2186984419822693e-01" purity="6.2830978631973267e-01" nType="-99"/>
        </Node>
      </Node>
    </BinaryTree>
    <BinaryTree type="DecisionTree" boostWeight="1.0000000000000000e+00" itree="293">
      <Node pos="s" depth="0" NCoef="0" IVar="2" Cut="1.0246098041534424e+00" cType="1" res="9.9605983123183250e-03" rms="4.4447684288024902e-01" purity="5.1289588212966919e-01" nType="0">
        <Node pos="l" depth="1" NCoef="0" IVar="1" Cut="6.3207424163818359e+01" cType="1" res="6.7469634115695953e-02" rms="4.3840116262435913e-01" purity="6.5968984365463257e-01" nType="0">
          <Node pos="l" depth="2" NCoef="0" IVar="-1" Cut="0.0000000000000000e+00" cType="1" res="3.2600361737422645e-04" rms="4.6455949544906616e-01" purity="5.6474226713180542e-01" nType="-99"/>
          <Node pos="r" depth="2" NCoef="0" IVar="-1" Cut="0.0000000000000000e+00" cType="1" res="2.5284073781222105e-03" rms="4.1163715720176697e-01" purity="7.3553353548049927e-01" nType="-99"/>
        </Node>
        <Node pos="r" depth="1" NCoef="0" IVar="4" Cut="3.0329132080078125e+02" cType="1" res="-6.1038848012685776e-02" rms="4.4165372848510742e-01" purity="3.3166712522506714e-01" nType="0">
          <Node pos="l" depth="2" NCoef="0" IVar="-1" Cut="0.0000000000000000e+00" cType="1" res="-9.3155913054943085e-04" rms="4.5048022270202637e-01" purity="3.5659128427505493e-01" nType="-99"/>
          <Node pos="r" depth="2" NCoef="0" IVar="-1" Cut="0.0000000000000000e+00" cType="1" res="-3.8837830070406199e-03" rms="3.6448109149932861e-01" purity="1.7968793213367462e-01" nType="-99"/>
        </Node>
      </Node>
    </BinaryTree>
    <BinaryTree type="DecisionTree" boostWeight="1.0000000000000000e+00" itree="294">
      <Node pos="s" depth="0" NCoef="0" IVar="1" Cut="9.2469635009765625e+01" cType="1" res="-1.4016628847457469e-04" rms="4.4451776146888733e-01" purity="4.9934411048889160e-01" nType="0">
        <Node pos="l" depth="1" NCoef="0" IVar="2" Cut="1.1199783086776733e+00" cType="1" res="-3.5672497004270554e-02" rms="4.4474890828132629e-01" purity="4.4843351840972900e-01" nType="0">
          <Node pos="l" depth="2" NCoef="0" IVar="-1" Cut="0.0000000000000000e+00" cType="1" res="9.8390242783352733e-05" rms="4.6638768911361694e-01" purity="5.6426578760147095e-01" nType="-99"/>
          <Node pos="r" depth="2" NCoef="0" IVar="-1" Cut="0.0000000000000000e+00" cType="1" res="-2.4132959078997374e-03" rms="3.9098978042602539e-01" purity="2.3452462255954742e-01" nType="-99"/>
        </Node>
        <Node pos="r" depth="1" NCoef="0" IVar="3" Cut="2.1909127235412598e+00" cType="1" res="6.2873974442481995e-02" rms="4.3706026673316956e-01" purity="5.8963054418563843e-01" nType="0">
          <Node pos="l" depth="2" NCoef="0" IVar="-1" Cut="0.0000000000000000e+00" cType="1" res="3.7374952808022499e-03" rms="3.7317669391632080e-01" purity="8.0257672071456909e-01" nType="-99"/>
          <Node pos="r" depth="2" NCoef="0" IVar="-1" Cut="0.0000000000000000e+00" cType="1" res="2.1733506582677364e-04" rms="4.6255367994308472e-01" purity="4.6409475803375244e-01" nType="-99"/>
        </Node>
      </Node>
    </BinaryTree>
    <BinaryTree type="DecisionTree" boostWeight="1.0000000000000000e+00" itree="295">
      <Node pos="s" depth="0" NCoef="0" IVar="1" Cut="8.1430023193359375e+01" cType="1" res="1.7965612933039665e-02" rms="4.5027679204940796e-01" purity="5.2518099546432495e-01" nType="0">
        <Node pos="l" depth="1" NCoef="0" IVar="2" Cut="1.2211337089538574e+00" cType="1" res="-1.4066901057958603e-02" rms="4.4815698266029358e-01" purity="4.6951156854629517e-01" nType="0">
          <Node pos="l" depth="2" NCoef="0" IVar="-1" Cut="0.0000000000000000e+00" cType="1" res="4.8093570512719452e-04" rms="4.6651315689086914e-01" purity="5.7492250204086304e-01" nType="-99"/>
          <Node pos="r" depth="2" NCoef="0" IVar="-1" Cut="0.0000000000000000e+00" cType="1" res="-2.6084238197654486e-03" rms="3.7880858778953552e-01" purity="1.9173279404640198e-01" nType="-99"/>
        </Node>
        <Node pos="r" depth="1" NCoef="0" IVar="6" Cut="3.5599853515625000e+02" cType="1" res="5.7705942541360855e-02" rms="4.4973292946815491e-01" purity="5.9424591064453125e-01" nType="0">
          <Node pos="l" depth="2" NCoef="0" IVar="-1" Cut="0.0000000000000000e+00" cType="1" res="3.5527078434824944e-03" rms="4.3490126729011536e-01" purity="5.9712862968444824e-01" nType="-99"/>
          <Node pos="r" depth="2" NCoef="0" IVar="-1" Cut="0.0000000000000000e+00" cType="1" res="7.7681936090812087e-04" rms="4.5015498995780945e-01" purity="5.9356606006622314e-01" nType="-99"/>
        </Node>
      </Node>
    </BinaryTree>
    <BinaryTree type="DecisionTree" boostWeight="1.0000000000000000e+00" itree="296">
      <Node pos="s" depth="0" NCoef="0" IVar="1" Cut="4.9798328399658203e+01" cType="1" res="1.7498187953606248e-03" rms="4.5626509189605713e-01" purity="5.2011620998382568e-01" nType="0">
        <Node pos="l" depth="1" NCoef="0" IVar="1" Cut="3.4369316101074219e+01" cType="1" res="-7.9935602843761444e-02" rms="4.5290645956993103e-01" purity="3.9721533656120300e-01" nType="0">
          <Node pos="l" depth="2" NCoef="0" IVar="-1" Cut="0.0000000000000000e+00" cType="1" res="-4.1644396260380745e-03" rms="4.1012474894523621e-01" purity="2.5677335262298584e-01" nType="-99"/>
          <Node pos="r" depth="2" NCoef="0" IVar="-1" Cut="0.0000000000000000e+00" cType="1" res="-8.6926051881164312e-04" rms="4.5786204934120178e-01" purity="4.3946939706802368e-01" nType="-99"/>
        </Node>
        <Node pos="r" depth="1" NCoef="0" IVar="0" Cut="7.6260137557983398e+00" cType="1" res="2.6355687528848648e-02" rms="4.5440319180488586e-01" purity="5.5713731050491333e-01" nType="0">
          <Node pos="l" depth="2" NCoef="0" IVar="-1" Cut="0.0000000000000000e+00" cType="1" res="-3.5574284993344918e-05" rms="4.6931579709053040e-01" purity="4.5885038375854492e-01" nType="-99"/>
          <Node pos="r" depth="2" NCoef="0" IVar="-1" Cut="0.0000000000000000e+00" cType="1" res="2.1546212956309319e-03" rms="4.1547521948814392e-01" purity="7.6256662607192993e-01" nType="-99"/>
        </Node>
      </Node>
    </BinaryTree>
    <BinaryTree type="DecisionTree" boostWeight="1.0000000000000000e+00" itree="297">
      <Node pos="s" depth="0" NCoef="0" IVar="0" Cut="5.5098943710327148e+00" cType="1" res="6.9081322290003300e-03" rms="4.5576193928718567e-01" purity="5.0422507524490356e-01" nType="0">
        <Node pos="l" depth="1" NCoef="0" IVar="5" Cut="3.3892416954040527e-01" cType="1" res="-7.8670091927051544e-02" rms="4.1276001930236816e-01" purity="2.5117361545562744e-01" nType="0">
          <Node pos="l" depth="2" NCoef="0" IVar="-1" Cut="0.0000000000000000e+00" cType="1" res="-3.6655105650424957e-03" rms="3.1896993517875671e-01" purity="1.2768198549747467e-01" nType="-99"/>
          <Node pos="r" depth="2" NCoef="0" IVar="-1" Cut="0.0000000000000000e+00" cType="1" res="-4.7183220158331096e-04" rms="4.5400705933570862e-01" purity="3.2952228188514709e-01" nType="-99"/>
        </Node>
        <Node pos="r" depth="1" NCoef="0" IVar="1" Cut="1.5327540588378906e+02" cType="1" res="2.4560306221246719e-02" rms="4.6216931939125061e-01" purity="5.5642187595367432e-01" nType="0">
          <Node pos="l" depth="2" NCoef="0" IVar="-1" Cut="0.0000000000000000e+00" cType="1" res="7.9585658386349678e-04" rms="4.6079602837562561e-01" purity="5.6739646196365356e-01" nType="-99"/>
          <Node pos="r" depth="2" NCoef="0" IVar="-1" Cut="0.0000000000000000e+00" cType="1" res="-3.2882632222026587e-03" rms="4.4932946562767029e-01" purity="3.9496785402297974e-01" nType="-99"/>
        </Node>
      </Node>
    </BinaryTree>
    <BinaryTree type="DecisionTree" boostWeight="1.0000000000000000e+00" itree="298">
      <Node pos="s" depth="0" NCoef="0" IVar="0" Cut="8.8348636627197266e+00" cType="1" res="-1.4073917642235756e-02" rms="4.5298227667808533e-01" purity="4.9399617314338684e-01" nType="0">
        <Node pos="l" depth="1" NCoef="0" IVar="0" Cut="7.2991790771484375e+00" cType="1" res="-2.8634648770093918e-02" rms="4.5866578817367554e-01" purity="4.5783948898315430e-01" nType="0">
          <Node pos="l" depth="2" NCoef="0" IVar="-1" Cut="0.0000000000000000e+00" cType="1" res="-1.0262570576742291e-03" rms="4.5699211955070496e-01" purity="3.7202420830726624e-01" nType="-99"/>
          <Node pos="r" depth="2" NCoef="0" IVar="-1" Cut="0.0000000000000000e+00" cType="1" res="4.1044040699489415e-04" rms="4.5889189839363098e-01" purity="6.4305913448333740e-01" nType="-99"/>
        </Node>
        <Node pos="r" depth="1" NCoef="0" IVar="-1" Cut="0.0000000000000000e+00" cType="1" res="3.1684306450188160e-03" rms="3.7237152457237244e-01" purity="8.2261377573013306e-01" nType="-99"/>
      </Node>
    </BinaryTree>
    <BinaryTree type="DecisionTree" boostWeight="1.0000000000000000e+00" itree="299">
      <Node pos="s" depth="0" NCoef="0" IVar="0" Cut="8.3972177505493164e+00" cType="1" res="-9.1535464162006974e-04" rms="4.5439827442169189e-01" purity="5.0226062536239624e-01" nType="0">
        <Node pos="l" depth="1" NCoef="0" IVar="1" Cut="8.7437065124511719e+01" cType="1" res="-2.2512663155794144e-02" rms="4.6185687184333801e-01" purity="4.4712302088737488e-01" nType="0">
          <Node pos="l" depth="2" NCoef="0" IVar="-1" Cut="0.0000000000000000e+00" cType="1" res="-1.0323636233806610e-03" rms="4.5975336432456970e-01" purity="4.0566062927246094e-01" nType="-99"/>
          <Node pos="r" depth="2" NCoef="0" IVar="-1" Cut="0.0000000000000000e+00" cType="1" res="6.0044846031814814e-04" rms="4.6168228983879089e-01" purity="5.2560758590698242e-01" nType="-99"/>
        </Node>
        <Node pos="r" depth="1" NCoef="0" IVar="6" Cut="5.0976718139648438e+02" cType="1" res="1.0979420691728592e-01" rms="3.9597818255424500e-01" purity="7.8490036725997925e-01" nType="0">
          <Node pos="l" depth="2" NCoef="0" IVar="-1" Cut="0.0000000000000000e+00" cType="1" res="3.9904862642288208e-03" rms="3.7100797891616821e-01" purity="8.1270152330398560e-01" nType="-99"/>
          <Node pos="r" depth="2" NCoef="0" IVar="-1" Cut="0.0000000000000000e+00" cType="1" res="2.4182033666875213e-04" rms="4.2925572395324707e-01" purity="7.2344654798507690e-01" nType="-99"/>
        </Node>
      </Node>
    </BinaryTree>
    <BinaryTree type="DecisionTree" boostWeight="1.0000000000000000e+00" itree="300">
      <Node pos="s" depth="0" NCoef="0" IVar="6" Cut="2.9210675048828125e+02" cType="1" res="-1.3250551186501980e-02" rms="4.5953026413917542e-01" purity="4.8367908596992493e-01" nType="0">
        <Node pos="l" depth="1" NCoef="0" IVar="5" Cut="5.2158904075622559e-01" cType="1" res="-1.1400463432073593e-01" rms="4.0954703092575073e-01" purity="2.8742441534996033e-01" nType="0">
          <Node pos="l" depth="2" NCoef="0" IVar="-1" Cut="0.0000000000000000e+00" cType="1" res="-3.8523774128407240e-03" rms="3.5398498177528381e-01" purity="1.9283866882324219e-01" nType="-99"/>
          <Node pos="r" depth="2" NCoef="0" IVar="-1" Cut="0.0000000000000000e+00" cType="1" res="-3.5073235630989075e-04" rms="4.6857047080993652e-01" purity="4.3708038330078125e-01" nType="-99"/>
        </Node>
        <Node pos="r" depth="1" NCoef="0" IVar="6" Cut="5.0640426635742188e+02" cType="1" res="6.5081552602350712e-03" rms="4.6616056561470032e-01" purity="5.2216625213623047e-01" nType="0">
          <Node pos="l" depth="2" NCoef="0" IVar="-1" Cut="0.0000000000000000e+00" cType="1" res="-2.6782869827002287e-04" rms="4.6587216854095459e-01" purity="4.9094384908676147e-01" nType="-99"/>
          <Node pos="r" depth="2" NCoef="0" IVar="-1" Cut="0.0000000000000000e+00" cType="1" res="1.3301877770572901e-03" rms="4.6291196346282959e-01" purity="6.0861760377883911e-01" nType="-99"/>
        </Node>
      </Node>
    </BinaryTree>
    <BinaryTree type="DecisionTree" boostWeight="1.0000000000000000e+00" itree="301">
      <Node pos="s" depth="0" NCoef="0" IVar="4" Cut="3.0443716430664062e+02" cType="1" res="-1.5312121249735355e-02" rms="4.5757800340652466e-01" purity="4.9666342139244080e-01" nType="0">
        <Node pos="l" depth="1" NCoef="0" IVar="0" Cut="8.8558712005615234e+00" cType="1" res="-1.1532638454809785e-03" rms="4.5940548181533813e-01" purity="5.1622980833053589e-01" nType="0">
          <Node pos="l" depth="2" NCoef="0" IVar="-1" Cut="0.0000000000000000e+00" cType="1" res="-3.1198735814541578e-04" rms="4.6349310874938965e-01" purity="4.8424461483955383e-01" nType="-99"/>
          <Node pos="r" depth="2" NCoef="0" IVar="-1" Cut="0.0000000000000000e+00" cType="1" res="3.3143854234367609e-03" rms="3.9610975980758667e-01" purity="8.2472783327102661e-01" nType="-99"/>
        </Node>
        <Node pos="r" depth="1" NCoef="0" IVar="-1" Cut="0.0000000000000000e+00" cType="1" res="-3.1526756938546896e-03" rms="4.1777038574218750e-01" purity="3.1449422240257263e-01" nType="-99"/>
      </Node>
    </BinaryTree>
    <BinaryTree type="DecisionTree" boostWeight="1.0000000000000000e+00" itree="302">
      <Node pos="s" depth="0" NCoef="0" IVar="0" Cut="5.8586101531982422e+00" cType="1" res="-1.3059996068477631e-02" rms="4.4652527570724487e-01" purity="4.8119679093360901e-01" nType="0">
        <Node pos="l" depth="1" NCoef="0" IVar="3" Cut="2.3006958961486816e+00" cType="1" res="-8.2831509411334991e-02" rms="4.0502142906188965e-01" purity="2.6024568080902100e-01" nType="0">
          <Node pos="l" depth="2" NCoef="0" IVar="-1" Cut="0.0000000000000000e+00" cType="1" res="-4.6765099978074431e-04" rms="4.6257501840591431e-01" purity="3.6766406893730164e-01" nType="-99"/>
          <Node pos="r" depth="2" NCoef="0" IVar="-1" Cut="0.0000000000000000e+00" cType="1" res="-4.5564980246126652e-03" rms="2.2407206892967224e-01" purity="5.6080296635627747e-02" nType="-99"/>
        </Node>
        <Node pos="r" depth="1" NCoef="0" IVar="1" Cut="8.1430023193359375e+01" cType="1" res="1.3764386065304279e-02" rms="4.5867362618446350e-01" purity="5.6614375114440918e-01" nType="0">
          <Node pos="l" depth="2" NCoef="0" IVar="-1" Cut="0.0000000000000000e+00" cType="1" res="-5.3347129141911864e-04" rms="4.6510809659957886e-01" purity="5.1186621189117432e-01" nType="-99"/>
          <Node pos="r" depth="2" NCoef="0" IVar="-1" Cut="0.0000000000000000e+00" cType="1" res="1.5183252980932593e-03" rms="4.4492062926292419e-01" purity="6.3788670301437378e-01" nType="-99"/>
        </Node>
      </Node>
    </BinaryTree>
    <BinaryTree type="DecisionTree" boostWeight="1.0000000000000000e+00" itree="303">
      <Node pos="s" depth="0" NCoef="0" IVar="0" Cut="8.8090267181396484e+00" cType="1" res="-1.5615808777511120e-02" rms="4.4860559701919556e-01" purity="4.8568898439407349e-01" nType="0">
        <Node pos="l" depth="1" NCoef="0" IVar="2" Cut="4.9547725915908813e-01" cType="1" res="-3.0892979353666306e-02" rms="4.5595607161521912e-01" purity="4.5011603832244873e-01" nType="0">
          <Node pos="l" depth="2" NCoef="0" IVar="-1" Cut="0.0000000000000000e+00" cType="1" res="3.0909657943993807e-03" rms="3.8527747988700867e-01" purity="7.4526119232177734e-01" nType="-99"/>
          <Node pos="r" depth="2" NCoef="0" IVar="-1" Cut="0.0000000000000000e+00" cType="1" res="-9.3285361072048545e-04" rms="4.5833313465118408e-01" purity="4.2686051130294800e-01" nType="-99"/>
        </Node>
        <Node pos="r" depth="1" NCoef="0" IVar="-1" Cut="0.0000000000000000e+00" cType="1" res="3.6231004633009434e-03" rms="3.3538898825645447e-01" purity="8.3087939023971558e-01" nType="-99"/>
      </Node>
    </BinaryTree>
    <BinaryTree type="DecisionTree" boostWeight="1.0000000000000000e+00" itree="304">
      <Node pos="s" depth="0" NCoef="0" IVar="2" Cut="1.3695300817489624e+00" cType="1" res="7.5667751953005791e-03" rms="4.4571322202682495e-01" purity="4.9666193127632141e-01" nType="0">
        <Node pos="l" depth="1" NCoef="0" IVar="5" Cut="6.9245511293411255e-01" cType="1" res="3.9874870330095291e-02" rms="4.5842191576957703e-01" purity="5.7615882158279419e-01" nType="0">
          <Node pos="l" depth="2" NCoef="0" IVar="-1" Cut="0.0000000000000000e+00" cType="1" res="6.2919955234974623e-04" rms="4.6057638525962830e-01" purity="5.6393963098526001e-01" nType="-99"/>
          <Node pos="r" depth="2" NCoef="0" IVar="-1" Cut="0.0000000000000000e+00" cType="1" res="3.8485184777528048e-03" rms="4.1037246584892273e-01" purity="7.1986913681030273e-01" nType="-99"/>
        </Node>
        <Node pos="r" depth="1" NCoef="0" IVar="1" Cut="8.0110862731933594e+01" cType="1" res="-1.2081768363714218e-01" rms="3.6382672190666199e-01" purity="1.8076071143150330e-01" nType="0">
          <Node pos="l" depth="2" NCoef="0" IVar="-1" Cut="0.0000000000000000e+00" cType="1" res="-3.9003004785627127e-03" rms="3.0277618765830994e-01" purity="1.1889989674091339e-01" nType="-99"/>
          <Node pos="r" depth="2" NCoef="0" IVar="-1" Cut="0.0000000000000000e+00" cType="1" res="-1.8719856161624193e-03" rms="4.0809881687164307e-01" purity="2.3805512487888336e-01" nType="-99"/>
        </Node>
      </Node>
    </BinaryTree>
    <BinaryTree type="DecisionTree" boostWeight="1.0000000000000000e+00" itree="305">
      <Node pos="s" depth="0" NCoef="0" IVar="0" Cut="5.4864840507507324e+00" cType="1" res="-2.0753003656864166e-02" rms="4.5311868190765381e-01" purity="4.8130396008491516e-01" nType="0">
        <Node pos="l" depth="1" NCoef="0" IVar="1" Cut="9.4134506225585938e+01" cType="1" res="-1.0991260409355164e-01" rms="3.9046928286552429e-01" purity="2.1322077512741089e-01" nType="0">
          <Node pos="l" depth="2" NCoef="0" IVar="-1" Cut="0.0000000000000000e+00" cType="1" res="-3.0672280117869377e-03" rms="3.6119416356086731e-01" purity="1.6983692348003387e-01" nType="-99"/>
          <Node pos="r" depth="2" NCoef="0" IVar="-1" Cut="0.0000000000000000e+00" cType="1" res="-5.4081331472843885e-04" rms="4.3327355384826660e-01" purity="3.0346369743347168e-01" nType="-99"/>
        </Node>
        <Node pos="r" depth="1" NCoef="0" IVar="2" Cut="1.1259872913360596e+00" cType="1" res="-2.0990269258618355e-03" rms="4.6299323439598083e-01" purity="5.3739231824874878e-01" nType="0">
          <Node pos="l" depth="2" NCoef="0" IVar="-1" Cut="0.0000000000000000e+00" cType="1" res="6.6572148352861404e-04" rms="4.6492981910705566e-01" purity="6.5281760692596436e-01" nType="-99"/>
          <Node pos="r" depth="2" NCoef="0" IVar="-1" Cut="0.0000000000000000e+00" cType="1" res="-1.2747949222102761e-03" rms="4.5405039191246033e-01" purity="3.3071935176849365e-01" nType="-99"/>
        </Node>
      </Node>
    </BinaryTree>
    <BinaryTree type="DecisionTree" boostWeight="1.0000000000000000e+00" itree="306">
      <Node pos="s" depth="0" NCoef="0" IVar="1" Cut="8.4810859680175781e+01" cType="1" res="-3.0146094504743814e-03" rms="4.4799095392227173e-01" purity="5.0763756036758423e-01" nType="0">
        <Node pos="l" depth="1" NCoef="0" IVar="1" Cut="3.7419437408447266e+01" cType="1" res="-5.1381301134824753e-02" rms="4.5035237073898315e-01" purity="4.3321371078491211e-01" nType="0">
          <Node pos="l" depth="2" NCoef="0" IVar="-1" Cut="0.0000000000000000e+00" cType="1" res="-4.4682514853775501e-03" rms="3.4517762064933777e-01" purity="1.9927705824375153e-01" nType="-99"/>
          <Node pos="r" depth="2" NCoef="0" IVar="-1" Cut="0.0000000000000000e+00" cType="1" res="-5.7660922175273299e-04" rms="4.5939582586288452e-01" purity="4.6922221779823303e-01" nType="-99"/>
        </Node>
        <Node pos="r" depth="1" NCoef="0" IVar="3" Cut="2.3964552879333496e+00" cType="1" res="6.5089322626590729e-02" rms="4.3563371896743774e-01" purity="6.1243194341659546e-01" nType="0">
          <Node pos="l" depth="2" NCoef="0" IVar="-1" Cut="0.0000000000000000e+00" cType="1" res="2.4163981433957815e-03" rms="4.2932522296905518e-01" purity="7.1596455574035645e-01" nType="-99"/>
          <Node pos="r" depth="2" NCoef="0" IVar="-1" Cut="0.0000000000000000e+00" cType="1" res="-1.0052426951006055e-03" rms="4.3327686190605164e-01" purity="3.3389794826507568e-01" nType="-99"/>
        </Node>
      </Node>
    </BinaryTree>
    <BinaryTree type="DecisionTree" boostWeight="1.0000000000000000e+00" itree="307">
      <Node pos="s" depth="0" NCoef="0" IVar="0" Cut="7.9570155143737793e+00" cType="1" res="-3.2234828919172287e-02" rms="4.5001718401908875e-01" purity="4.6574455499649048e-01" nType="0">
        <Node pos="l" depth="1" NCoef="0" IVar="2" Cut="8.6006653308868408e-01" cType="1" res="-5.6301709264516830e-02" rms="4.5346620678901672e-01" purity="3.9614543318748474e-01" nType="0">
          <Node pos="l" depth="2" NCoef="0" IVar="-1" Cut="0.0000000000000000e+00" cType="1" res="2.1935901895631105e-04" rms="4.6822103857994080e-01" purity="5.8179724216461182e-01" nType="-99"/>
          <Node pos="r" depth="2" NCoef="0" IVar="-1" Cut="0.0000000000000000e+00" cType="1" res="-1.9253487698733807e-03" rms="4.4101390242576599e-01" purity="2.9521393775939941e-01" nType="-99"/>
        </Node>
        <Node pos="r" depth="1" NCoef="0" IVar="5" Cut="2.8131970763206482e-01" cType="1" res="6.0765560716390610e-02" rms="4.2377674579620361e-01" purity="7.3469269275665283e-01" nType="0">
          <Node pos="l" depth="2" NCoef="0" IVar="-1" Cut="0.0000000000000000e+00" cType="1" res="-1.3927438994869590e-03" rms="4.7928702831268311e-01" purity="5.6569784879684448e-01" nType="-99"/>
          <Node pos="r" depth="2" NCoef="0" IVar="-1" Cut="0.0000000000000000e+00" cType="1" res="2.7401344850659370e-03" rms="3.9170515537261963e-01" purity="7.9879486560821533e-01" nType="-99"/>
        </Node>
      </Node>
    </BinaryTree>
    <BinaryTree type="DecisionTree" boostWeight="1.0000000000000000e+00" itree="308">
      <Node pos="s" depth="0" NCoef="0" IVar="3" Cut="2.7897248268127441e+00" cType="1" res="1.1365278623998165e-02" rms="4.4891324639320374e-01" purity="5.0437825918197632e-01" nType="0">
        <Node pos="l" depth="1" NCoef="0" IVar="1" Cut="8.7776580810546875e+01" cType="1" res="2.1011332049965858e-02" rms="4.5492464303970337e-01" purity="5.2893197536468506e-01" nType="0">
          <Node pos="l" depth="2" NCoef="0" IVar="-1" Cut="0.0000000000000000e+00" cType="1" res="-3.5732070682570338e-04" rms="4.5261111855506897e-01" purity="4.6622198820114136e-01" nType="-99"/>
          <Node pos="r" depth="2" NCoef="0" IVar="-1" Cut="0.0000000000000000e+00" cType="1" res="1.8440402345731854e-03" rms="4.5199495553970337e-01" purity="6.3210570812225342e-01" nType="-99"/>
        </Node>
        <Node pos="r" depth="1" NCoef="0" IVar="-1" Cut="0.0000000000000000e+00" cType="1" res="-3.9662728086113930e-03" rms="2.7976316213607788e-01" purity="8.0155573785305023e-02" nType="-99"/>
      </Node>
    </BinaryTree>
    <BinaryTree type="DecisionTree" boostWeight="1.0000000000000000e+00" itree="309">
      <Node pos="s" depth="0" NCoef="0" IVar="0" Cut="6.5492372512817383e+00" cType="1" res="-1.2474637478590012e-03" rms="4.5137283205986023e-01" purity="4.9649688601493835e-01" nType="0">
        <Node pos="l" depth="1" NCoef="0" IVar="5" Cut="3.5092768073081970e-01" cType="1" res="-5.3372353315353394e-02" rms="4.4363123178482056e-01" purity="3.1876727938652039e-01" nType="0">
          <Node pos="l" depth="2" NCoef="0" IVar="-1" Cut="0.0000000000000000e+00" cType="1" res="-2.2320109419524670e-03" rms="3.9376091957092285e-01" purity="2.2369785606861115e-01" nType="-99"/>
          <Node pos="r" depth="2" NCoef="0" IVar="-1" Cut="0.0000000000000000e+00" cType="1" res="-2.0524959836620837e-04" rms="4.7822347283363342e-01" purity="4.0044945478439331e-01" nType="-99"/>
        </Node>
        <Node pos="r" depth="1" NCoef="0" IVar="1" Cut="1.3776550292968750e+02" cType="1" res="3.6380540579557419e-02" rms="4.5316877961158752e-01" purity="6.2479662895202637e-01" nType="0">
          <Node pos="l" depth="2" NCoef="0" IVar="-1" Cut="0.0000000000000000e+00" cType="1" res="1.1760109337046742e-03" rms="4.4645637273788452e-01" purity="6.3766157627105713e-01" nType="-99"/>
          <Node pos="r" depth="2" NCoef="0" IVar="-1" Cut="0.0000000000000000e+00" cType="1" res="-2.3955719079822302e-03" rms="4.9179184436798096e-01" purity="5.0061023235321045e-01" nType="-99"/>
        </Node>
      </Node>
    </BinaryTree>
    <BinaryTree type="DecisionTree" boostWeight="1.0000000000000000e+00" itree="310">
      <Node pos="s" depth="0" NCoef="0" IVar="6" Cut="2.8198709106445312e+02" cType="1" res="1.1991775594651699e-02" rms="4.5854097604751587e-01" purity="5.1406067609786987e-01" nType="0">
        <Node pos="l" depth="1" NCoef="0" IVar="2" Cut="1.0003864765167236e+00" cType="1" res="-1.0574856400489807e-01" rms="4.3676897883415222e-01" purity="2.9141870141029358e-01" nType="0">
          <Node pos="l" depth="2" NCoef="0" IVar="-1" Cut="0.0000000000000000e+00" cType="1" res="-2.7671495918184519e-03" rms="4.4632831215858459e-01" purity="3.1773522496223450e-01" nType="-99"/>
          <Node pos="r" depth="2" NCoef="0" IVar="-1" Cut="0.0000000000000000e+00" cType="1" res="-1.5247397823259234e-03" rms="4.2311429977416992e-01" purity="2.6421669125556946e-01" nType="-99"/>
        </Node>
        <Node pos="r" depth="1" NCoef="0" IVar="0" Cut="7.6386117935180664e+00" cType="1" res="3.0396930873394012e-02" rms="4.5913085341453552e-01" purity="5.4886406660079956e-01" nType="0">
          <Node pos="l" depth="2" NCoef="0" IVar="-1" Cut="0.0000000000000000e+00" cType="1" res="-3.4115735616069287e-05" rms="4.7439953684806824e-01" purity="4.5234319567680359e-01" nType="-99"/>
          <Node pos="r" depth="2" NCoef="0" IVar="-1" Cut="0.0000000000000000e+00" cType="1" res="2.4261034559458494e-03" rms="4.1719219088554382e-01" purity="7.5229185819625854e-01" nType="-99"/>
        </Node>
      </Node>
    </BinaryTree>
    <BinaryTree type="DecisionTree" boostWeight="1.0000000000000000e+00" itree="311">
      <Node pos="s" depth="0" NCoef="0" IVar="0" Cut="7.7522997856140137e+00" cType="1" res="1.6533499583601952e-02" rms="4.4722577929496765e-01" purity="5.2126866579055786e-01" nType="0">
        <Node pos="l" depth="1" NCoef="0" IVar="5" Cut="3.6137366294860840e-01" cType="1" res="-1.0537835769355297e-02" rms="4.6359273791313171e-01" purity="4.3222332000732422e-01" nType="0">
          <Node pos="l" depth="2" NCoef="0" IVar="-1" Cut="0.0000000000000000e+00" cType="1" res="-1.0346862254664302e-03" rms="4.4962021708488464e-01" purity="3.4436419606208801e-01" nType="-99"/>
          <Node pos="r" depth="2" NCoef="0" IVar="-1" Cut="0.0000000000000000e+00" cType="1" res="4.6716508222743869e-04" rms="4.7297140955924988e-01" purity="5.0874876976013184e-01" nType="-99"/>
        </Node>
        <Node pos="r" depth="1" NCoef="0" IVar="2" Cut="1.2435306310653687e+00" cType="1" res="8.5933431982994080e-02" rms="3.9382669329643250e-01" purity="7.4954485893249512e-01" nType="0">
          <Node pos="l" depth="2" NCoef="0" IVar="-1" Cut="0.0000000000000000e+00" cType="1" res="3.0557934660464525e-03" rms="3.6976125836372375e-01" purity="8.2436084747314453e-01" nType="-99"/>
          <Node pos="r" depth="2" NCoef="0" IVar="-1" Cut="0.0000000000000000e+00" cType="1" res="-7.7800551662221551e-04" rms="4.6057495474815369e-01" purity="4.3985682725906372e-01" nType="-99"/>
        </Node>
      </Node>
    </BinaryTree>
    <BinaryTree type="DecisionTree" boostWeight="1.0000000000000000e+00" itree="312">
      <Node pos="s" depth="0" NCoef="0" IVar="2" Cut="9.6795248985290527e-01" cType="1" res="-1.7083027632907033e-03" rms="4.4852602481842041e-01" purity="5.0787353515625000e-01" nType="0">
        <Node pos="l" depth="1" NCoef="0" IVar="2" Cut="9.0505647659301758e-01" cType="1" res="3.9682272821664810e-02" rms="4.5170915126800537e-01" purity="6.5532308816909790e-01" nType="0">
          <Node pos="l" depth="2" NCoef="0" IVar="-1" Cut="0.0000000000000000e+00" cType="1" res="1.1628741631284356e-03" rms="4.4764539599418640e-01" purity="6.7301273345947266e-01" nType="-99"/>
          <Node pos="r" depth="2" NCoef="0" IVar="-1" Cut="0.0000000000000000e+00" cType="1" res="-1.3189443852752447e-03" rms="4.7264859080314636e-01" purity="5.0763022899627686e-01" nType="-99"/>
        </Node>
        <Node pos="r" depth="1" NCoef="0" IVar="1" Cut="5.0150199890136719e+01" cType="1" res="-4.2623810470104218e-02" rms="4.4156011939048767e-01" purity="3.6211630702018738e-01" nType="0">
          <Node pos="l" depth="2" NCoef="0" IVar="-1" Cut="0.0000000000000000e+00" cType="1" res="-3.3668295945972204e-03" rms="4.0232396125793457e-01" purity="2.0034283399581909e-01" nType="-99"/>
          <Node pos="r" depth="2" NCoef="0" IVar="-1" Cut="0.0000000000000000e+00" cType="1" res="-2.6464028633199632e-04" rms="4.4657173752784729e-01" purity="4.0564510226249695e-01" nType="-99"/>
        </Node>
      </Node>
    </BinaryTree>
    <BinaryTree type="DecisionTree" boostWeight="1.0000000000000000e+00" itree="313">
      <Node pos="s" depth="0" NCoef="0" IVar="0" Cut="5.0441360473632812e+00" cType="1" res="-3.6201179027557373e-03" rms="4.6086713671684265e-01" purity="5.0006914138793945e-01" nType="0">
        <Node pos="l" depth="1" NCoef="0" IVar="-1" Cut="0.0000000000000000e+00" cType="1" res="-3.2425899989902973e-03" rms="3.6856749653816223e-01" purity="1.4730694890022278e-01" nType="-99"/>
        <Node pos="r" depth="1" NCoef="0" IVar="1" Cut="1.1097568511962891e+02" cType="1" res="1.1440219357609749e-02" rms="4.6618056297302246e-01" purity="5.3451496362686157e-01" nType="0">
          <Node pos="l" depth="2" NCoef="0" IVar="-1" Cut="0.0000000000000000e+00" cType="1" res="-2.5916504091583192e-04" rms="4.6927532553672791e-01" purity="5.0290840864181519e-01" nType="-99"/>
          <Node pos="r" depth="2" NCoef="0" IVar="-1" Cut="0.0000000000000000e+00" cType="1" res="2.4013740476220846e-03" rms="4.4182348251342773e-01" purity="6.5980499982833862e-01" nType="-99"/>
        </Node>
      </Node>
    </BinaryTree>
    <BinaryTree type="DecisionTree" boostWeight="1.0000000000000000e+00" itree="314">
      <Node pos="s" depth="0" NCoef="0" IVar="0" Cut="7.0272450447082520e+00" cType="1" res="4.5688492245972157e-03" rms="4.5659264922142029e-01" purity="5.0401777029037476e-01" nType="0">
        <Node pos="l" depth="1" NCoef="0" IVar="3" Cut="2.2386155128479004e+00" cType="1" res="-2.7777744457125664e-02" rms="4.6175453066825867e-01" purity="3.6788952350616455e-01" nType="0">
          <Node pos="l" depth="2" NCoef="0" IVar="-1" Cut="0.0000000000000000e+00" cType="1" res="-1.1675872374325991e-03" rms="4.7287890315055847e-01" purity="3.9662209153175354e-01" nType="-99"/>
          <Node pos="r" depth="2" NCoef="0" IVar="-1" Cut="0.0000000000000000e+00" cType="1" res="3.9452113560400903e-04" rms="4.4110897183418274e-01" purity="3.2591503858566284e-01" nType="-99"/>
        </Node>
        <Node pos="r" depth="1" NCoef="0" IVar="4" Cut="2.5581799316406250e+02" cType="1" res="4.2715337127447128e-02" rms="4.4743424654006958e-01" purity="6.6455441713333130e-01" nType="0">
          <Node pos="l" depth="2" NCoef="0" IVar="-1" Cut="0.0000000000000000e+00" cType="1" res="1.4411548618227243e-03" rms="4.4207838177680969e-01" purity="6.8970930576324463e-01" nType="-99"/>
          <Node pos="r" depth="2" NCoef="0" IVar="-1" Cut="0.0000000000000000e+00" cType="1" res="-1.7379575874656439e-03" rms="4.6437805891036987e-01" purity="4.9751490354537964e-01" nType="-99"/>
        </Node>
      </Node>
    </BinaryTree>
    <BinaryTree type="DecisionTree" boostWeight="1.0000000000000000e+00" itree="315">
      <Node pos="s" depth="0" NCoef="0" IVar="2" Cut="1.0323350429534912e+00" cType="1" res="-1.2772376649081707e-03" rms="4.5359119772911072e-01" purity="4.9950170516967773e-01" nType="0">
        <Node pos="l" depth="1" NCoef="0" IVar="5" Cut="3.2167005538940430e-01" cType="1" res="3.8482818752527237e-02" rms="4.5287346839904785e-01" purity="6.3431775569915771e-01" nType="0">
          <Node pos="l" depth="2" NCoef="0" IVar="-1" Cut="0.0000000000000000e+00" cType="1" res="-1.2919040163978934e-03" rms="4.6028017997741699e-01" purity="5.1682335138320923e-01" nType="-99"/>
          <Node pos="r" depth="2" NCoef="0" IVar="-1" Cut="0.0000000000000000e+00" cType="1" res="1.5820020344108343e-03" rms="4.4570770859718323e-01" purity="6.7286938428878784e-01" nType="-99"/>
        </Node>
        <Node pos="r" depth="1" NCoef="0" IVar="4" Cut="2.1489277648925781e+02" cType="1" res="-4.7421034425497055e-02" rms="4.5004016160964966e-01" purity="3.4304007887840271e-01" nType="0">
          <Node pos="l" depth="2" NCoef="0" IVar="-1" Cut="0.0000000000000000e+00" cType="1" res="-6.3142151338979602e-04" rms="4.5749348402023315e-01" purity="3.7141028046607971e-01" nType="-99"/>
          <Node pos="r" depth="2" NCoef="0" IVar="-1" Cut="0.0000000000000000e+00" cType="1" res="-2.8471527621150017e-03" rms="4.1094031929969788e-01" purity="2.3090028762817383e-01" nType="-99"/>
        </Node>
      </Node>
    </BinaryTree>
    <BinaryTree type="DecisionTree" boostWeight="1.0000000000000000e+00" itree="316">
      <Node pos="s" depth="0" NCoef="0" IVar="0" Cut="8.0597915649414062e+00" cType="1" res="-8.2563590258359909e-03" rms="4.5563080906867981e-01" purity="5.0134396553039551e-01" nType="0">
        <Node pos="l" depth="1" NCoef="0" IVar="6" Cut="5.4713165283203125e+02" cType="1" res="-3.4521490335464478e-02" rms="4.6187669038772583e-01" purity="4.2345556616783142e-01" nType="0">
          <Node pos="l" depth="2" NCoef="0" IVar="-1" Cut="0.0000000000000000e+00" cType="1" res="-1.0780473239719868e-03" rms="4.5924726128578186e-01" purity="3.9846274256706238e-01" nType="-99"/>
          <Node pos="r" depth="2" NCoef="0" IVar="-1" Cut="0.0000000000000000e+00" cType="1" res="6.7596026929095387e-04" rms="4.6689879894256592e-01" purity="5.2663803100585938e-01" nType="-99"/>
        </Node>
        <Node pos="r" depth="1" NCoef="0" IVar="0" Cut="8.8807888031005859e+00" cType="1" res="7.3810927569866180e-02" rms="4.2520940303802490e-01" purity="7.4471199512481689e-01" nType="0">
          <Node pos="l" depth="2" NCoef="0" IVar="-1" Cut="0.0000000000000000e+00" cType="1" res="3.0778595246374607e-03" rms="3.9686939120292664e-01" purity="7.7200889587402344e-01" nType="-99"/>
          <Node pos="r" depth="2" NCoef="0" IVar="-1" Cut="0.0000000000000000e+00" cType="1" res="3.7663331022486091e-04" rms="4.5029363036155701e-01" purity="7.1148192882537842e-01" nType="-99"/>
        </Node>
      </Node>
    </BinaryTree>
    <BinaryTree type="DecisionTree" boostWeight="1.0000000000000000e+00" itree="317">
      <Node pos="s" depth="0" NCoef="0" IVar="0" Cut="8.2204675674438477e+00" cType="1" res="-2.0651707425713539e-02" rms="4.5964822173118591e-01" purity="4.8557969927787781e-01" nType="0">
        <Node pos="l" depth="1" NCoef="0" IVar="2" Cut="1.2290639877319336e+00" cType="1" res="-4.0841341018676758e-02" rms="4.6559712290763855e-01" purity="4.2814177274703979e-01" nType="0">
          <Node pos="l" depth="2" NCoef="0" IVar="-1" Cut="0.0000000000000000e+00" cType="1" res="-1.2169963447377086e-03" rms="4.7730210423469543e-01" purity="4.7720065712928772e-01" nType="-99"/>
          <Node pos="r" depth="2" NCoef="0" IVar="-1" Cut="0.0000000000000000e+00" cType="1" res="7.9691933933645487e-05" rms="4.3246632814407349e-01" purity="3.0817672610282898e-01" nType="-99"/>
        </Node>
        <Node pos="r" depth="1" NCoef="0" IVar="6" Cut="4.7256646728515625e+02" cType="1" res="7.7890597283840179e-02" rms="4.1558548808097839e-01" purity="7.6592487096786499e-01" nType="0">
          <Node pos="l" depth="2" NCoef="0" IVar="-1" Cut="0.0000000000000000e+00" cType="1" res="4.4499300420284271e-03" rms="3.5209041833877563e-01" purity="8.3871310949325562e-01" nType="-99"/>
          <Node pos="r" depth="2" NCoef="0" IVar="-1" Cut="0.0000000000000000e+00" cType="1" res="-1.6937347827479243e-03" rms="4.6361073851585388e-01" purity="6.5358704328536987e-01" nType="-99"/>
        </Node>
      </Node>
    </BinaryTree>
    <BinaryTree type="DecisionTree" boostWeight="1.0000000000000000e+00" itree="318">
      <Node pos="s" depth="0" NCoef="0" IVar="1" Cut="5.5207687377929688e+01" cType="1" res="1.4451227616518736e-03" rms="4.5981705188751221e-01" purity="5.0732696056365967e-01" nType="0">
        <Node pos="l" depth="1" NCoef="0" IVar="1" Cut="4.9860504150390625e+01" cType="1" res="-7.1981102228164673e-02" rms="4.5735073089599609e-01" purity="4.0260332822799683e-01" nType="0">
          <Node pos="l" depth="2" NCoef="0" IVar="-1" Cut="0.0000000000000000e+00" cType="1" res="-1.9054111326113343e-03" rms="4.5065590739250183e-01" purity="3.7105000019073486e-01" nType="-99"/>
          <Node pos="r" depth="2" NCoef="0" IVar="-1" Cut="0.0000000000000000e+00" cType="1" res="5.9397276345407590e-05" rms="4.7639667987823486e-01" purity="5.3120738267898560e-01" nType="-99"/>
        </Node>
        <Node pos="r" depth="1" NCoef="0" IVar="6" Cut="3.0992709350585938e+02" cType="1" res="3.1413301825523376e-02" rms="4.5744550228118896e-01" purity="5.5006885528564453e-01" nType="0">
          <Node pos="l" depth="2" NCoef="0" IVar="-1" Cut="0.0000000000000000e+00" cType="1" res="-1.4503613347187638e-03" rms="4.1771408915519714e-01" purity="3.3846619725227356e-01" nType="-99"/>
          <Node pos="r" depth="2" NCoef="0" IVar="-1" Cut="0.0000000000000000e+00" cType="1" res="1.1149465572088957e-03" rms="4.6219637989997864e-01" purity="5.8936071395874023e-01" nType="-99"/>
        </Node>
      </Node>
    </BinaryTree>
    <BinaryTree type="DecisionTree" boostWeight="1.0000000000000000e+00" itree="319">
      <Node pos="s" depth="0" NCoef="0" IVar="6" Cut="6.1411328125000000e+02" cType="1" res="1.4287823811173439e-02" rms="4.5362469553947449e-01" purity="5.2457773685455322e-01" nType="0">
        <Node pos="l" depth="1" NCoef="0" IVar="1" Cut="9.5348678588867188e+01" cType="1" res="-3.9212703704833984e-03" rms="4.5225486159324646e-01" purity="4.9149262905120850e-01" nType="0">
          <Node pos="l" depth="2" NCoef="0" IVar="-1" Cut="0.0000000000000000e+00" cType="1" res="-5.8317824732512236e-04" rms="4.5917579531669617e-01" purity="4.6294152736663818e-01" nType="-99"/>
          <Node pos="r" depth="2" NCoef="0" IVar="-1" Cut="0.0000000000000000e+00" cType="1" res="1.0913915466517210e-03" rms="4.3123096227645874e-01" purity="5.5759936571121216e-01" nType="-99"/>
        </Node>
        <Node pos="r" depth="1" NCoef="0" IVar="0" Cut="7.3810749053955078e+00" cType="1" res="1.2430281192064285e-01" rms="4.4628009200096130e-01" purity="7.2446995973587036e-01" nType="0">
          <Node pos="l" depth="2" NCoef="0" IVar="-1" Cut="0.0000000000000000e+00" cType="1" res="6.0496493242681026e-03" rms="3.9517834782600403e-01" purity="7.4665117263793945e-01" nType="-99"/>
          <Node pos="r" depth="2" NCoef="0" IVar="-1" Cut="0.0000000000000000e+00" cType="1" res="-8.6467785877175629e-05" rms="4.5367956161499023e-01" purity="7.0367425680160522e-01" nType="-99"/>
        </Node>
      </Node>
    </BinaryTree>
    <BinaryTree type="DecisionTree" boostWeight="1.0000000000000000e+00" itree="320">
      <Node pos="s" depth="0" NCoef="0" IVar="2" Cut="1.5000425577163696e+00" cType="1" res="-4.1321949101984501e-03" rms="4.5621961355209351e-01" purity="5.0573259592056274e-01" nType="0">
        <Node pos="l" depth="1" NCoef="0" IVar="0" Cut="8.1300601959228516e+00" cType="1" res="7.8770620748400688e-03" rms="4.6344068646430969e-01" purity="5.4521900415420532e-01" nType="0">
          <Node pos="l" depth="2" NCoef="0" IVar="-1" Cut="0.0000000000000000e+00" cType="1" res="-1.0993646719725803e-04" rms="4.7391295433044434e-01" purity="4.9317750334739685e-01" nType="-99"/>
          <Node pos="r" depth="2" NCoef="0" IVar="-1" Cut="0.0000000000000000e+00" cType="1" res="1.6801148885861039e-03" rms="4.1133019328117371e-01" purity="7.6641267538070679e-01" nType="-99"/>
        </Node>
        <Node pos="r" depth="1" NCoef="0" IVar="0" Cut="6.5433464050292969e+00" cType="1" res="-1.0260754078626633e-01" rms="3.7789002060890198e-01" purity="1.8194586038589478e-01" nType="0">
          <Node pos="l" depth="2" NCoef="0" IVar="-1" Cut="0.0000000000000000e+00" cType="1" res="-1.6543128294870257e-03" rms="3.6001667380332947e-01" purity="1.5932993590831757e-01" nType="-99"/>
          <Node pos="r" depth="2" NCoef="0" IVar="-1" Cut="0.0000000000000000e+00" cType="1" res="-3.2540902029722929e-03" rms="3.9166432619094849e-01" purity="2.0714382827281952e-01" nType="-99"/>
        </Node>
      </Node>
    </BinaryTree>
    <BinaryTree type="DecisionTree" boostWeight="1.0000000000000000e+00" itree="321">
      <Node pos="s" depth="0" NCoef="0" IVar="6" Cut="3.1228207397460938e+02" cType="1" res="5.2389604970812798e-03" rms="4.5476135611534119e-01" purity="5.0723922252655029e-01" nType="0">
        <Node pos="l" depth="1" NCoef="0" IVar="4" Cut="4.8834194183349609e+01" cType="1" res="-6.0869865119457245e-02" rms="4.4303807616233826e-01" purity="3.5884338617324829e-01" nType="0">
          <Node pos="l" depth="2" NCoef="0" IVar="-1" Cut="0.0000000000000000e+00" cType="1" res="7.3474377859383821e-04" rms="4.4077825546264648e-01" purity="4.5119675993919373e-01" nType="-99"/>
          <Node pos="r" depth="2" NCoef="0" IVar="-1" Cut="0.0000000000000000e+00" cType="1" res="-2.1834811195731163e-03" rms="4.3796685338020325e-01" purity="3.1985786557197571e-01" nType="-99"/>
        </Node>
        <Node pos="r" depth="1" NCoef="0" IVar="3" Cut="2.5119588375091553e+00" cType="1" res="2.5353612378239632e-02" rms="4.5637261867523193e-01" purity="5.5239105224609375e-01" nType="0">
          <Node pos="l" depth="2" NCoef="0" IVar="-1" Cut="0.0000000000000000e+00" cType="1" res="8.8934635277837515e-04" rms="4.6274057030677795e-01" purity="6.0651940107345581e-01" nType="-99"/>
          <Node pos="r" depth="2" NCoef="0" IVar="-1" Cut="0.0000000000000000e+00" cType="1" res="-1.4329538680613041e-03" rms="4.0625521540641785e-01" purity="2.3436249792575836e-01" nType="-99"/>
        </Node>
      </Node>
    </BinaryTree>
    <BinaryTree type="DecisionTree" boostWeight="1.0000000000000000e+00" itree="322">
      <Node pos="s" depth="0" NCoef="0" IVar="5" Cut="4.2280235886573792e-01" cType="1" res="-1.3287187553942204e-02" rms="4.4998133182525635e-01" purity="4.9188154935836792e-01" nType="0">
        <Node pos="l" depth="1" NCoef="0" IVar="2" Cut="1.4557478427886963e+00" cType="1" res="-5.7255197316408157e-02" rms="4.3401944637298584e-01" purity="4.1206648945808411e-01" nType="0">
          <Node pos="l" depth="2" NCoef="0" IVar="-1" Cut="0.0000000000000000e+00" cType="1" res="-6.1152380658313632e-04" rms="4.5954897999763489e-01" purity="4.9699911475181580e-01" nType="-99"/>
          <Node pos="r" depth="2" NCoef="0" IVar="-1" Cut="0.0000000000000000e+00" cType="1" res="-3.6220522597432137e-03" rms="3.2023307681083679e-01" purity="1.3606634736061096e-01" nType="-99"/>
        </Node>
        <Node pos="r" depth="1" NCoef="0" IVar="1" Cut="1.1478360748291016e+02" cType="1" res="3.8647070527076721e-02" rms="4.6278443932533264e-01" purity="5.8615773916244507e-01" nType="0">
          <Node pos="l" depth="2" NCoef="0" IVar="-1" Cut="0.0000000000000000e+00" cType="1" res="4.5526982285082340e-04" rms="4.6956276893615723e-01" purity="5.6070840358734131e-01" nType="-99"/>
          <Node pos="r" depth="2" NCoef="0" IVar="-1" Cut="0.0000000000000000e+00" cType="1" res="3.2082363031804562e-03" rms="4.0928587317466736e-01" purity="7.2842633724212646e-01" nType="-99"/>
        </Node>
      </Node>
    </BinaryTree>
    <BinaryTree type="DecisionTree" boostWeight="1.0000000000000000e+00" itree="323">
      <Node pos="s" depth="0" NCoef="0" IVar="0" Cut="8.7271442413330078e+00" cType="1" res="-2.6434471365064383e-03" rms="4.5370876789093018e-01" purity="5.0305914878845215e-01" nType="0">
        <Node pos="l" depth="1" NCoef="0" IVar="4" Cut="1.9269725036621094e+02" cType="1" res="-2.3219527676701546e-02" rms="4.6054765582084656e-01" purity="4.5985895395278931e-01" nType="0">
          <Node pos="l" depth="2" NCoef="0" IVar="-1" Cut="0.0000000000000000e+00" cType="1" res="-6.4874082454480231e-05" rms="4.6027290821075439e-01" purity="4.8385900259017944e-01" nType="-99"/>
          <Node pos="r" depth="2" NCoef="0" IVar="-1" Cut="0.0000000000000000e+00" cType="1" res="-2.3067558649927378e-03" rms="4.5244938135147095e-01" purity="3.6240330338478088e-01" nType="-99"/>
        </Node>
        <Node pos="r" depth="1" NCoef="0" IVar="6" Cut="4.4363037109375000e+02" cType="1" res="1.6449333727359772e-01" rms="3.5169544816017151e-01" purity="8.5396850109100342e-01" nType="0">
          <Node pos="l" depth="2" NCoef="0" IVar="-1" Cut="0.0000000000000000e+00" cType="1" res="5.8782002888619900e-03" rms="3.0311104655265808e-01" purity="8.9216434955596924e-01" nType="-99"/>
          <Node pos="r" depth="2" NCoef="0" IVar="-1" Cut="0.0000000000000000e+00" cType="1" res="3.1951861456036568e-03" rms="3.8424080610275269e-01" purity="8.1943207979202271e-01" nType="-99"/>
        </Node>
      </Node>
    </BinaryTree>
    <BinaryTree type="DecisionTree" boostWeight="1.0000000000000000e+00" itree="324">
      <Node pos="s" depth="0" NCoef="0" IVar="0" Cut="8.0815801620483398e+00" cType="1" res="-1.4633511891588569e-03" rms="4.5519971847534180e-01" purity="4.9930772185325623e-01" nType="0">
        <Node pos="l" depth="1" NCoef="0" IVar="1" Cut="3.8135917663574219e+01" cType="1" res="-2.0411331206560135e-02" rms="4.6312567591667175e-01" purity="4.3169435858726501e-01" nType="0">
          <Node pos="l" depth="2" NCoef="0" IVar="-1" Cut="0.0000000000000000e+00" cType="1" res="-2.7483650483191013e-03" rms="4.3485215306282043e-01" purity="2.8091606497764587e-01" nType="-99"/>
          <Node pos="r" depth="2" NCoef="0" IVar="-1" Cut="0.0000000000000000e+00" cType="1" res="-1.1782530782511458e-04" rms="4.6429485082626343e-01" purity="4.5025801658630371e-01" nType="-99"/>
        </Node>
        <Node pos="r" depth="1" NCoef="0" IVar="6" Cut="5.4749865722656250e+02" cType="1" res="6.8897068500518799e-02" rms="4.1700723767280579e-01" purity="7.5037938356399536e-01" nType="0">
          <Node pos="l" depth="2" NCoef="0" IVar="-1" Cut="0.0000000000000000e+00" cType="1" res="2.6760261971503496e-03" rms="3.9417979121208191e-01" purity="7.6681274175643921e-01" nType="-99"/>
          <Node pos="r" depth="2" NCoef="0" IVar="-1" Cut="0.0000000000000000e+00" cType="1" res="-7.0437620161101222e-04" rms="4.5717504620552063e-01" purity="7.0810729265213013e-01" nType="-99"/>
        </Node>
      </Node>
    </BinaryTree>
    <BinaryTree type="DecisionTree" boostWeight="1.0000000000000000e+00" itree="325">
      <Node pos="s" depth="0" NCoef="0" IVar="0" Cut="7.5918145179748535e+00" cType="1" res="1.2265433557331562e-02" rms="4.5921587944030762e-01" purity="5.1267027854919434e-01" nType="0">
        <Node pos="l" depth="1" NCoef="0" IVar="5" Cut="4.1850247979164124e-01" cType="1" res="-8.1837046891450882e-03" rms="4.6732765436172485e-01" purity="4.2590802907943726e-01" nType="0">
          <Node pos="l" depth="2" NCoef="0" IVar="-1" Cut="0.0000000000000000e+00" cType="1" res="-8.1911368761211634e-04" rms="4.4928762316703796e-01" purity="3.5643845796585083e-01" nType="-99"/>
          <Node pos="r" depth="2" NCoef="0" IVar="-1" Cut="0.0000000000000000e+00" cType="1" res="6.5249146427959204e-04" rms="4.8757824301719666e-01" purity="5.1848417520523071e-01" nType="-99"/>
        </Node>
        <Node pos="r" depth="1" NCoef="0" IVar="2" Cut="1.0996003150939941e+00" cType="1" res="6.2889002263545990e-02" rms="4.3436729907989502e-01" purity="7.2745758295059204e-01" nType="0">
          <Node pos="l" depth="2" NCoef="0" IVar="-1" Cut="0.0000000000000000e+00" cType="1" res="9.6487515838816762e-04" rms="4.1833922266960144e-01" purity="7.6248639822006226e-01" nType="-99"/>
          <Node pos="r" depth="2" NCoef="0" IVar="-1" Cut="0.0000000000000000e+00" cType="1" res="2.7912654913961887e-03" rms="4.6306651830673218e-01" purity="6.4603471755981445e-01" nType="-99"/>
        </Node>
      </Node>
    </BinaryTree>
    <BinaryTree type="DecisionTree" boostWeight="1.0000000000000000e+00" itree="326">
      <Node pos="s" depth="0" NCoef="0" IVar="3" Cut="2.1704387664794922e+00" cType="1" res="-6.0401172377169132e-03" rms="4.3775904178619385e-01" purity="4.8194104433059692e-01" nType="0">
        <Node pos="l" depth="1" NCoef="0" IVar="0" Cut="6.7191209793090820e+00" cType="1" res="4.2238704860210419e-02" rms="4.4462949037551880e-01" purity="6.0979163646697998e-01" nType="0">
          <Node pos="l" depth="2" NCoef="0" IVar="-1" Cut="0.0000000000000000e+00" cType="1" res="-3.8991431938484311e-04" rms="4.7689744830131531e-01" purity="4.3092715740203857e-01" nType="-99"/>
          <Node pos="r" depth="2" NCoef="0" IVar="-1" Cut="0.0000000000000000e+00" cType="1" res="2.3695665877312422e-03" rms="4.0684080123901367e-01" purity="7.6542806625366211e-01" nType="-99"/>
        </Node>
        <Node pos="r" depth="1" NCoef="0" IVar="6" Cut="3.0748333740234375e+02" cType="1" res="-5.6361075490713120e-02" rms="4.2467930912971497e-01" purity="3.4868255257606506e-01" nType="0">
          <Node pos="l" depth="2" NCoef="0" IVar="-1" Cut="0.0000000000000000e+00" cType="1" res="-4.0096398442983627e-03" rms="3.1629443168640137e-01" purity="1.4296589791774750e-01" nType="-99"/>
          <Node pos="r" depth="2" NCoef="0" IVar="-1" Cut="0.0000000000000000e+00" cType="1" res="-4.7949497820809484e-04" rms="4.4661420583724976e-01" purity="4.1107386350631714e-01" nType="-99"/>
        </Node>
      </Node>
    </BinaryTree>
    <BinaryTree type="DecisionTree" boostWeight="1.0000000000000000e+00" itree="327">
      <Node pos="s" depth="0" NCoef="0" IVar="2" Cut="6.9504576921463013e-01" cType="1" res="-4.2501357384026051e-03" rms="4.6129986643791199e-01" purity="4.9526160955429077e-01" nType="0">
        <Node pos="l" depth="1" NCoef="0" IVar="5" Cut="3.5779729485511780e-01" cType="1" res="4.4503640383481979e-02" rms="4.5009762048721313e-01" purity="6.6800367832183838e-01" nType="0">
          <Node pos="l" depth="2" NCoef="0" IVar="-1" Cut="0.0000000000000000e+00" cType="1" res="2.4190924596041441e-03" rms="4.3305519223213196e-01" purity="7.1667778491973877e-01" nType="-99"/>
          <Node pos="r" depth="2" NCoef="0" IVar="-1" Cut="0.0000000000000000e+00" cType="1" res="3.2425078097730875e-04" rms="4.5458585023880005e-01" purity="6.4581960439682007e-01" nType="-99"/>
        </Node>
        <Node pos="r" depth="1" NCoef="0" IVar="6" Cut="2.8771041870117188e+02" cType="1" res="-1.9470250234007835e-02" rms="4.6369296312332153e-01" purity="4.4133445620536804e-01" nType="0">
          <Node pos="l" depth="2" NCoef="0" IVar="-1" Cut="0.0000000000000000e+00" cType="1" res="-1.9454866414889693e-03" rms="4.0877562761306763e-01" purity="2.9542100429534912e-01" nType="-99"/>
          <Node pos="r" depth="2" NCoef="0" IVar="-1" Cut="0.0000000000000000e+00" cType="1" res="-1.3246874732431024e-04" rms="4.7220814228057861e-01" purity="4.6903413534164429e-01" nType="-99"/>
        </Node>
      </Node>
    </BinaryTree>
    <BinaryTree type="DecisionTree" boostWeight="1.0000000000000000e+00" itree="328">
      <Node pos="s" depth="0" NCoef="0" IVar="3" Cut="2.3730123043060303e+00" cType="1" res="1.4677115250378847e-03" rms="4.5400533080101013e-01" purity="5.1070863008499146e-01" nType="0">
        <Node pos="l" depth="1" NCoef="0" IVar="1" Cut="4.3359107971191406e+01" cType="1" res="2.9523029923439026e-02" rms="4.6187955141067505e-01" purity="5.9448838233947754e-01" nType="0">
          <Node pos="l" depth="2" NCoef="0" IVar="-1" Cut="0.0000000000000000e+00" cType="1" res="-2.2253796923905611e-03" rms="4.3833452463150024e-01" purity="3.7641426920890808e-01" nType="-99"/>
          <Node pos="r" depth="2" NCoef="0" IVar="-1" Cut="0.0000000000000000e+00" cType="1" res="1.2206262908875942e-03" rms="4.6177414059638977e-01" purity="6.3450837135314941e-01" nType="-99"/>
        </Node>
        <Node pos="r" depth="1" NCoef="0" IVar="1" Cut="1.2329592895507812e+02" cType="1" res="-7.9944163560867310e-02" rms="4.1985854506492615e-01" purity="2.6759392023086548e-01" nType="0">
          <Node pos="l" depth="2" NCoef="0" IVar="-1" Cut="0.0000000000000000e+00" cType="1" res="-8.7876635370776057e-04" rms="4.2512127757072449e-01" purity="2.9264774918556213e-01" nType="-99"/>
          <Node pos="r" depth="2" NCoef="0" IVar="-1" Cut="0.0000000000000000e+00" cType="1" res="-3.9267619140446186e-03" rms="3.8371568918228149e-01" purity="1.9866818189620972e-01" nType="-99"/>
        </Node>
      </Node>
    </BinaryTree>
    <BinaryTree type="DecisionTree" boostWeight="1.0000000000000000e+00" itree="329">
      <Node pos="s" depth="0" NCoef="0" IVar="0" Cut="8.9295215606689453e+00" cType="1" res="-2.6416238397359848e-03" rms="4.4252547621726990e-01" purity="4.9076753854751587e-01" nType="0">
        <Node pos="l" depth="1" NCoef="0" IVar="5" Cut="4.2146044969558716e-01" cType="1" res="-1.3703531585633755e-02" rms="4.4769439101219177e-01" purity="4.6004924178123474e-01" nType="0">
          <Node pos="l" depth="2" NCoef="0" IVar="-1" Cut="0.0000000000000000e+00" cType="1" res="-1.2136226287111640e-03" rms="4.3852674961090088e-01" purity="3.6787569522857666e-01" nType="-99"/>
          <Node pos="r" depth="2" NCoef="0" IVar="-1" Cut="0.0000000000000000e+00" cType="1" res="8.4976898506283760e-04" rms="4.5344352722167969e-01" purity="5.7470709085464478e-01" nType="-99"/>
        </Node>
        <Node pos="r" depth="1" NCoef="0" IVar="-1" Cut="0.0000000000000000e+00" cType="1" res="3.3054810483008623e-03" rms="3.5582554340362549e-01" purity="8.3875584602355957e-01" nType="-99"/>
      </Node>
    </BinaryTree>
    <BinaryTree type="DecisionTree" boostWeight="1.0000000000000000e+00" itree="330">
      <Node pos="s" depth="0" NCoef="0" IVar="6" Cut="2.7956076049804688e+02" cType="1" res="1.0250311606796458e-04" rms="4.5280891656875610e-01" purity="5.0991749763488770e-01" nType="0">
        <Node pos="l" depth="1" NCoef="0" IVar="1" Cut="5.2047538757324219e+01" cType="1" res="-1.4072266221046448e-01" rms="3.8265073299407959e-01" purity="2.3918877542018890e-01" nType="0">
          <Node pos="l" depth="2" NCoef="0" IVar="-1" Cut="0.0000000000000000e+00" cType="1" res="-3.6771956365555525e-03" rms="3.5491129755973816e-01" purity="2.0099085569381714e-01" nType="-99"/>
          <Node pos="r" depth="2" NCoef="0" IVar="-1" Cut="0.0000000000000000e+00" cType="1" res="-2.2986249532550573e-03" rms="4.0732941031455994e-01" purity="2.7935558557510376e-01" nType="-99"/>
        </Node>
        <Node pos="r" depth="1" NCoef="0" IVar="6" Cut="7.7722387695312500e+02" cType="1" res="1.8203210085630417e-02" rms="4.5792260766029358e-01" purity="5.4471510648727417e-01" nType="0">
          <Node pos="l" depth="2" NCoef="0" IVar="-1" Cut="0.0000000000000000e+00" cType="1" res="2.1070605725981295e-04" rms="4.5881679654121399e-01" purity="5.3357613086700439e-01" nType="-99"/>
          <Node pos="r" depth="2" NCoef="0" IVar="-1" Cut="0.0000000000000000e+00" cType="1" res="3.1132607255131006e-03" rms="4.2653092741966248e-01" purity="7.0239919424057007e-01" nType="-99"/>
        </Node>
      </Node>
    </BinaryTree>
    <BinaryTree type="DecisionTree" boostWeight="1.0000000000000000e+00" itree="331">
      <Node pos="s" depth="0" NCoef="0" IVar="2" Cut="1.0683670043945312e+00" cType="1" res="-4.5691106468439102e-02" rms="4.4802415370941162e-01" purity="4.5185923576354980e-01" nType="0">
        <Node pos="l" depth="1" NCoef="0" IVar="3" Cut="1.8448497056961060e+00" cType="1" res="-1.3292244635522366e-02" rms="4.6549078822135925e-01" purity="5.8335363864898682e-01" nType="0">
          <Node pos="l" depth="2" NCoef="0" IVar="-1" Cut="0.0000000000000000e+00" cType="1" res="-2.2135439794510603e-03" rms="4.6235242486000061e-01" purity="4.7660508751869202e-01" nType="-99"/>
          <Node pos="r" depth="2" NCoef="0" IVar="-1" Cut="0.0000000000000000e+00" cType="1" res="1.3004877837374806e-04" rms="4.6382734179496765e-01" purity="6.0525768995285034e-01" nType="-99"/>
        </Node>
        <Node pos="r" depth="1" NCoef="0" IVar="5" Cut="1.5588949620723724e-01" cType="1" res="-8.8489703834056854e-02" rms="4.2003518342971802e-01" purity="2.7815622091293335e-01" nType="0">
          <Node pos="l" depth="2" NCoef="0" IVar="-1" Cut="0.0000000000000000e+00" cType="1" res="-2.1064137399662286e-05" rms="4.2735674977302551e-01" purity="3.2981559634208679e-01" nType="-99"/>
          <Node pos="r" depth="2" NCoef="0" IVar="-1" Cut="0.0000000000000000e+00" cType="1" res="-2.5070507545024157e-03" rms="4.1446861624717712e-01" purity="2.6323181390762329e-01" nType="-99"/>
        </Node>
      </Node>
    </BinaryTree>
    <BinaryTree type="DecisionTree" boostWeight="1.0000000000000000e+00" itree="332">
      <Node pos="s" depth="0" NCoef="0" IVar="3" Cut="2.4119272232055664e+00" cType="1" res="4.7721522860229015e-03" rms="4.4588649272918701e-01" purity="5.0614690780639648e-01" nType="0">
        <Node pos="l" depth="1" NCoef="0" IVar="1" Cut="4.4616046905517578e+01" cType="1" res="2.6347365230321884e-02" rms="4.5750039815902710e-01" purity="5.8322578668594360e-01" nType="0">
          <Node pos="l" depth="2" NCoef="0" IVar="-1" Cut="0.0000000000000000e+00" cType="1" res="-1.3340146979317069e-03" rms="4.5201861858367920e-01" purity="4.3491184711456299e-01" nType="-99"/>
          <Node pos="r" depth="2" NCoef="0" IVar="-1" Cut="0.0000000000000000e+00" cType="1" res="1.0086619295179844e-03" rms="4.5641151070594788e-01" purity="6.1405152082443237e-01" nType="-99"/>
        </Node>
        <Node pos="r" depth="1" NCoef="0" IVar="1" Cut="8.9408821105957031e+01" cType="1" res="-7.1032039821147919e-02" rms="3.9315393567085266e-01" purity="2.3533149063587189e-01" nType="0">
          <Node pos="l" depth="2" NCoef="0" IVar="-1" Cut="0.0000000000000000e+00" cType="1" res="-3.1274410430341959e-03" rms="3.2678839564323425e-01" purity="1.5163038671016693e-01" nType="-99"/>
          <Node pos="r" depth="2" NCoef="0" IVar="-1" Cut="0.0000000000000000e+00" cType="1" res="-8.8705547386780381e-04" rms="4.2867228388786316e-01" purity="2.9109901189804077e-01" nType="-99"/>
        </Node>
      </Node>
    </BinaryTree>
    <BinaryTree type="DecisionTree" boostWeight="1.0000000000000000e+00" itree="333">
      <Node pos="s" depth="0" NCoef="0" IVar="0" Cut="8.4917192459106445e+00" cType="1" res="-1.9598148763179779e-02" rms="4.4855123758316040e-01" purity="4.9915185570716858e-01" nType="0">
        <Node pos="l" depth="1" NCoef="0" IVar="2" Cut="6.3302183151245117e-01" cType="1" res="-4.3181650340557098e-02" rms="4.5654866099357605e-01" purity="4.4503128528594971e-01" nType="0">
          <Node pos="l" depth="2" NCoef="0" IVar="-1" Cut="0.0000000000000000e+00" cType="1" res="8.4457703633233905e-04" rms="4.5764562487602234e-01" purity="6.5862601995468140e-01" nType="-99"/>
          <Node pos="r" depth="2" NCoef="0" IVar="-1" Cut="0.0000000000000000e+00" cType="1" res="-1.3786058407276869e-03" rms="4.5402786135673523e-01" purity="3.9209377765655518e-01" nType="-99"/>
        </Node>
        <Node pos="r" depth="1" NCoef="0" IVar="4" Cut="6.8116416931152344e+01" cType="1" res="1.2307106703519821e-01" rms="3.6563605070114136e-01" purity="8.2655608654022217e-01" nType="0">
          <Node pos="l" depth="2" NCoef="0" IVar="-1" Cut="0.0000000000000000e+00" cType="1" res="1.3912307331338525e-03" rms="4.2578861117362976e-01" purity="7.6435655355453491e-01" nType="-99"/>
          <Node pos="r" depth="2" NCoef="0" IVar="-1" Cut="0.0000000000000000e+00" cType="1" res="4.5259608887135983e-03" rms="3.1440445780754089e-01" purity="8.6525833606719971e-01" nType="-99"/>
        </Node>
      </Node>
    </BinaryTree>
    <BinaryTree type="DecisionTree" boostWeight="1.0000000000000000e+00" itree="334">
      <Node pos="s" depth="0" NCoef="0" IVar="0" Cut="6.9787983894348145e+00" cType="1" res="-3.8094818592071533e-02" rms="4.5233473181724548e-01" purity="4.7529062628746033e-01" nType="0">
        <Node pos="l" depth="1" NCoef="0" IVar="0" Cut="6.4401435852050781e+00" cType="1" res="-7.4806489050388336e-02" rms="4.4963249564170837e-01" purity="3.3473512530326843e-01" nType="0">
          <Node pos="l" depth="2" NCoef="0" IVar="-1" Cut="0.0000000000000000e+00" cType="1" res="-8.9167512487620115e-04" rms="4.4164368510246277e-01" purity="3.2373586297035217e-01" nType="-99"/>
          <Node pos="r" depth="2" NCoef="0" IVar="-1" Cut="0.0000000000000000e+00" cType="1" res="-3.1043509952723980e-03" rms="4.5932817459106445e-01" purity="3.6231106519699097e-01" nType="-99"/>
        </Node>
        <Node pos="r" depth="1" NCoef="0" IVar="4" Cut="2.5480894470214844e+02" cType="1" res="7.8918440267443657e-03" rms="4.5150506496429443e-01" purity="6.5135669708251953e-01" nType="0">
          <Node pos="l" depth="2" NCoef="0" IVar="-1" Cut="0.0000000000000000e+00" cType="1" res="6.2172510661184788e-04" rms="4.4616886973381042e-01" purity="6.7012661695480347e-01" nType="-99"/>
          <Node pos="r" depth="2" NCoef="0" IVar="-1" Cut="0.0000000000000000e+00" cType="1" res="-2.7007390744984150e-03" rms="4.6902051568031311e-01" purity="5.2091771364212036e-01" nType="-99"/>
        </Node>
      </Node>
    </BinaryTree>
    <BinaryTree type="DecisionTree" boostWeight="1.0000000000000000e+00" itree="335">
      <Node pos="s" depth="0" NCoef="0" IVar="0" Cut="5.3063507080078125e+00" cType="1" res="2.3935269564390182e-02" rms="4.5103287696838379e-01" purity="5.2182745933532715e-01" nType="0">
        <Node pos="l" depth="1" NCoef="0" IVar="2" Cut="1.0960080623626709e+00" cType="1" res="-1.0584557056427002e-01" rms="3.8312643766403198e-01" purity="1.7850467562675476e-01" nType="0">
          <Node pos="l" depth="2" NCoef="0" IVar="-1" Cut="0.0000000000000000e+00" cType="1" res="-2.9130820184946060e-03" rms="4.0043160319328308e-01" purity="1.9619022309780121e-01" nType="-99"/>
          <Node pos="r" depth="2" NCoef="0" IVar="-1" Cut="0.0000000000000000e+00" cType="1" res="-1.4518683310598135e-03" rms="3.5757967829704285e-01" purity="1.6008277237415314e-01" nType="-99"/>
        </Node>
        <Node pos="r" depth="1" NCoef="0" IVar="1" Cut="8.9830291748046875e+01" cType="1" res="4.1842970997095108e-02" rms="4.5672965049743652e-01" purity="5.6920057535171509e-01" nType="0">
          <Node pos="l" depth="2" NCoef="0" IVar="-1" Cut="0.0000000000000000e+00" cType="1" res="1.3135299377609044e-04" rms="4.6820998191833496e-01" purity="5.1005685329437256e-01" nType="-99"/>
          <Node pos="r" depth="2" NCoef="0" IVar="-1" Cut="0.0000000000000000e+00" cType="1" res="2.4313330650329590e-03" rms="4.3006175756454468e-01" purity="6.6865891218185425e-01" nType="-99"/>
        </Node>
      </Node>
    </BinaryTree>
    <BinaryTree type="DecisionTree" boostWeight="1.0000000000000000e+00" itree="336">
      <Node pos="s" depth="0" NCoef="0" IVar="0" Cut="5.1063785552978516e+00" cType="1" res="1.3324458152055740e-02" rms="4.6089950203895569e-01" purity="5.2209538221359253e-01" nType="0">
        <Node pos="l" depth="1" NCoef="0" IVar="-1" Cut="0.0000000000000000e+00" cType="1" res="-2.0996606908738613e-03" rms="3.9022520184516907e-01" purity="2.1245807409286499e-01" nType="-99"/>
        <Node pos="r" depth="1" NCoef="0" IVar="2" Cut="7.6362252235412598e-01" cType="1" res="2.3923816159367561e-02" rms="4.6525701880455017e-01" purity="5.4989027976989746e-01" nType="0">
          <Node pos="l" depth="2" NCoef="0" IVar="-1" Cut="0.0000000000000000e+00" cType="1" res="-9.6492847660556436e-04" rms="4.6551421284675598e-01" purity="6.0236316919326782e-01" nType="-99"/>
          <Node pos="r" depth="2" NCoef="0" IVar="-1" Cut="0.0000000000000000e+00" cType="1" res="1.1635032715275884e-03" rms="4.6229201555252075e-01" purity="5.2769684791564941e-01" nType="-99"/>
        </Node>
      </Node>
    </BinaryTree>
    <BinaryTree type="DecisionTree" boostWeight="1.0000000000000000e+00" itree="337">
      <Node pos="s" depth="0" NCoef="0" IVar="1" Cut="8.6462173461914062e+01" cType="1" res="-1.8905935809016228e-02" rms="4.5386880636215210e-01" purity="4.8334318399429321e-01" nType="0">
        <Node pos="l" depth="1" NCoef="0" IVar="6" Cut="3.7838897705078125e+02" cType="1" res="-5.4965522140264511e-02" rms="4.6437567472457886e-01" purity="4.2631506919860840e-01" nType="0">
          <Node pos="l" depth="2" NCoef="0" IVar="-1" Cut="0.0000000000000000e+00" cType="1" res="-2.4303639656864107e-04" rms="4.5975971221923828e-01" purity="4.3599626421928406e-01" nType="-99"/>
          <Node pos="r" depth="2" NCoef="0" IVar="-1" Cut="0.0000000000000000e+00" cType="1" res="-2.3514244239777327e-03" rms="4.6395039558410645e-01" purity="4.1328212618827820e-01" nType="-99"/>
        </Node>
        <Node pos="r" depth="1" NCoef="0" IVar="3" Cut="2.3965365886688232e+00" cType="1" res="3.3214740455150604e-02" rms="4.3296161293983459e-01" purity="5.6577181816101074e-01" nType="0">
          <Node pos="l" depth="2" NCoef="0" IVar="-1" Cut="0.0000000000000000e+00" cType="1" res="2.0744940266013145e-03" rms="4.2519935965538025e-01" purity="6.9695532321929932e-01" nType="-99"/>
          <Node pos="r" depth="2" NCoef="0" IVar="-1" Cut="0.0000000000000000e+00" cType="1" res="-1.8985696369782090e-03" rms="4.2535114288330078e-01" purity="2.6554334163665771e-01" nType="-99"/>
        </Node>
      </Node>
    </BinaryTree>
    <BinaryTree type="DecisionTree" boostWeight="1.0000000000000000e+00" itree="338">
      <Node pos="s" depth="0" NCoef="0" IVar="0" Cut="6.9743356704711914e+00" cType="1" res="-1.8878586590290070e-02" rms="4.5166853070259094e-01" purity="4.8182997107505798e-01" nType="0">
        <Node pos="l" depth="1" NCoef="0" IVar="6" Cut="3.1462564086914062e+02" cType="1" res="-5.1627464592456818e-02" rms="4.4847211241722107e-01" purity="3.4938368201255798e-01" nType="0">
          <Node pos="l" depth="2" NCoef="0" IVar="-1" Cut="0.0000000000000000e+00" cType="1" res="-2.6540972758084536e-03" rms="4.0029093623161316e-01" purity="2.1655115485191345e-01" nType="-99"/>
          <Node pos="r" depth="2" NCoef="0" IVar="-1" Cut="0.0000000000000000e+00" cType="1" res="-5.3691136417910457e-04" rms="4.6124792098999023e-01" purity="3.9540857076644897e-01" nType="-99"/>
        </Node>
        <Node pos="r" depth="1" NCoef="0" IVar="6" Cut="4.6819302368164062e+02" cType="1" res="2.0076772198081017e-02" rms="4.5236459374427795e-01" purity="6.3937705755233765e-01" nType="0">
          <Node pos="l" depth="2" NCoef="0" IVar="-1" Cut="0.0000000000000000e+00" cType="1" res="1.5995017020031810e-03" rms="4.4250902533531189e-01" purity="6.6293650865554810e-01" nType="-99"/>
          <Node pos="r" depth="2" NCoef="0" IVar="-1" Cut="0.0000000000000000e+00" cType="1" res="-1.3067467371001840e-03" rms="4.5808613300323486e-01" purity="6.0085755586624146e-01" nType="-99"/>
        </Node>
      </Node>
    </BinaryTree>
    <BinaryTree type="DecisionTree" boostWeight="1.0000000000000000e+00" itree="339">
      <Node pos="s" depth="0" NCoef="0" IVar="3" Cut="1.7301143407821655e+00" cType="1" res="-1.8314739281777292e-04" rms="4.5875790715217590e-01" purity="5.0668907165527344e-01" nType="0">
        <Node pos="l" depth="1" NCoef="0" IVar="-1" Cut="0.0000000000000000e+00" cType="1" res="-3.6491332575678825e-03" rms="4.2052990198135376e-01" purity="3.9506030082702637e-01" nType="-99"/>
        <Node pos="r" depth="1" NCoef="0" IVar="1" Cut="1.5229130554199219e+02" cType="1" res="1.0581507347524166e-02" rms="4.5897278189659119e-01" purity="5.1378369331359863e-01" nType="0">
          <Node pos="l" depth="2" NCoef="0" IVar="-1" Cut="0.0000000000000000e+00" cType="1" res="4.4511677697300911e-04" rms="4.5609468221664429e-01" purity="5.2530342340469360e-01" nType="-99"/>
          <Node pos="r" depth="2" NCoef="0" IVar="-1" Cut="0.0000000000000000e+00" cType="1" res="-2.8581090737134218e-03" rms="4.7990417480468750e-01" purity="3.3619880676269531e-01" nType="-99"/>
        </Node>
      </Node>
    </BinaryTree>
    <BinaryTree type="DecisionTree" boostWeight="1.0000000000000000e+00" itree="340">
      <Node pos="s" depth="0" NCoef="0" IVar="5" Cut="6.7815101146697998e-01" cType="1" res="-1.4347879216074944e-02" rms="4.5236545801162720e-01" purity="4.8828071355819702e-01" nType="0">
        <Node pos="l" depth="1" NCoef="0" IVar="0" Cut="8.8602952957153320e+00" cType="1" res="-2.3981481790542603e-03" rms="4.4866713881492615e-01" purity="4.9539589881896973e-01" nType="0">
          <Node pos="l" depth="2" NCoef="0" IVar="-1" Cut="0.0000000000000000e+00" cType="1" res="-2.9901936068199575e-04" rms="4.5197400450706482e-01" purity="4.7030442953109741e-01" nType="-99"/>
          <Node pos="r" depth="2" NCoef="0" IVar="-1" Cut="0.0000000000000000e+00" cType="1" res="4.2152144014835358e-03" rms="3.6112907528877258e-01" purity="8.5761117935180664e-01" nType="-99"/>
        </Node>
        <Node pos="r" depth="1" NCoef="0" IVar="-1" Cut="0.0000000000000000e+00" cType="1" res="-3.2337992452085018e-03" rms="4.7162261605262756e-01" purity="4.0638157725334167e-01" nType="-99"/>
      </Node>
    </BinaryTree>
    <BinaryTree type="DecisionTree" boostWeight="1.0000000000000000e+00" itree="341">
      <Node pos="s" depth="0" NCoef="0" IVar="0" Cut="5.4116983413696289e+00" cType="1" res="1.0528468526899815e-02" rms="4.4883832335472107e-01" purity="5.2194607257843018e-01" nType="0">
        <Node pos="l" depth="1" NCoef="0" IVar="0" Cut="4.8974537849426270e+00" cType="1" res="-9.0730533003807068e-02" rms="4.0143215656280518e-01" purity="2.1956832706928253e-01" nType="0">
          <Node pos="l" depth="2" NCoef="0" IVar="-1" Cut="0.0000000000000000e+00" cType="1" res="-4.4912886805832386e-03" rms="2.7122813463211060e-01" purity="8.1539809703826904e-02" nType="-99"/>
          <Node pos="r" depth="2" NCoef="0" IVar="-1" Cut="0.0000000000000000e+00" cType="1" res="1.0683142318157479e-04" rms="4.5070990920066833e-01" purity="3.1994310021400452e-01" nType="-99"/>
        </Node>
        <Node pos="r" depth="1" NCoef="0" IVar="4" Cut="3.0687161254882812e+02" cType="1" res="2.9494743794202805e-02" rms="4.5467075705528259e-01" purity="5.7858276367187500e-01" nType="0">
          <Node pos="l" depth="2" NCoef="0" IVar="-1" Cut="0.0000000000000000e+00" cType="1" res="9.1830955352634192e-04" rms="4.5556369423866272e-01" purity="5.9231829643249512e-01" nType="-99"/>
          <Node pos="r" depth="2" NCoef="0" IVar="-1" Cut="0.0000000000000000e+00" cType="1" res="-2.7641279157251120e-03" rms="4.1465461254119873e-01" purity="3.9725589752197266e-01" nType="-99"/>
        </Node>
      </Node>
    </BinaryTree>
    <BinaryTree type="DecisionTree" boostWeight="1.0000000000000000e+00" itree="342">
      <Node pos="s" depth="0" NCoef="0" IVar="6" Cut="4.7939968872070312e+02" cType="1" res="-4.9326997250318527e-03" rms="4.5503154397010803e-01" purity="4.9342125654220581e-01" nType="0">
        <Node pos="l" depth="1" NCoef="0" IVar="1" Cut="5.2347213745117188e+01" cType="1" res="-3.1151527538895607e-02" rms="4.5536127686500549e-01" purity="4.4165658950805664e-01" nType="0">
          <Node pos="l" depth="2" NCoef="0" IVar="-1" Cut="0.0000000000000000e+00" cType="1" res="-2.1621126215904951e-03" rms="4.3140885233879089e-01" purity="3.4649786353111267e-01" nType="-99"/>
          <Node pos="r" depth="2" NCoef="0" IVar="-1" Cut="0.0000000000000000e+00" cType="1" res="1.2944509217049927e-04" rms="4.6298345923423767e-01" purity="4.9092656373977661e-01" nType="-99"/>
        </Node>
        <Node pos="r" depth="1" NCoef="0" IVar="4" Cut="2.3131326293945312e+02" cType="1" res="5.9895198792219162e-02" rms="4.4767069816589355e-01" purity="6.2141287326812744e-01" nType="0">
          <Node pos="l" depth="2" NCoef="0" IVar="-1" Cut="0.0000000000000000e+00" cType="1" res="2.0317726302891970e-03" rms="4.3799862265586853e-01" purity="6.6219484806060791e-01" nType="-99"/>
          <Node pos="r" depth="2" NCoef="0" IVar="-1" Cut="0.0000000000000000e+00" cType="1" res="-4.5751305879093707e-04" rms="4.6632713079452515e-01" purity="4.9983987212181091e-01" nType="-99"/>
        </Node>
      </Node>
    </BinaryTree>
    <BinaryTree type="DecisionTree" boostWeight="1.0000000000000000e+00" itree="343">
      <Node pos="s" depth="0" NCoef="0" IVar="3" Cut="2.3829295635223389e+00" cType="1" res="3.3010933548212051e-02" rms="4.5377990603446960e-01" purity="5.3984725475311279e-01" nType="0">
        <Node pos="l" depth="1" NCoef="0" IVar="1" Cut="1.0974105072021484e+02" cType="1" res="4.9404248595237732e-02" rms="4.6020278334617615e-01" purity="6.1499166488647461e-01" nType="0">
          <Node pos="l" depth="2" NCoef="0" IVar="-1" Cut="0.0000000000000000e+00" cType="1" res="6.9950707256793976e-04" rms="4.6783667802810669e-01" purity="5.7524943351745605e-01" nType="-99"/>
          <Node pos="r" depth="2" NCoef="0" IVar="-1" Cut="0.0000000000000000e+00" cType="1" res="2.9789784457534552e-03" rms="4.2209178209304810e-01" purity="7.7076399326324463e-01" nType="-99"/>
        </Node>
        <Node pos="r" depth="1" NCoef="0" IVar="0" Cut="7.6571159362792969e+00" cType="1" res="-1.7923749983310699e-02" rms="4.2924031615257263e-01" purity="3.0637064576148987e-01" nType="0">
          <Node pos="l" depth="2" NCoef="0" IVar="-1" Cut="0.0000000000000000e+00" cType="1" res="-1.0217127855867147e-03" rms="4.2002078890800476e-01" purity="2.3493139445781708e-01" nType="-99"/>
          <Node pos="r" depth="2" NCoef="0" IVar="-1" Cut="0.0000000000000000e+00" cType="1" res="1.3792599784210324e-03" rms="4.4873648881912231e-01" purity="5.4506057500839233e-01" nType="-99"/>
        </Node>
      </Node>
    </BinaryTree>
    <BinaryTree type="DecisionTree" boostWeight="1.0000000000000000e+00" itree="344">
      <Node pos="s" depth="0" NCoef="0" IVar="2" Cut="1.6894625425338745e+00" cType="1" res="2.3695548996329308e-02" rms="4.5552787184715271e-01" purity="5.2473700046539307e-01" nType="0">
        <Node pos="l" depth="1" NCoef="0" IVar="3" Cut="2.5511262416839600e+00" cType="1" res="3.3670689910650253e-02" rms="4.5998299121856689e-01" purity="5.5272263288497925e-01" nType="0">
          <Node pos="l" depth="2" NCoef="0" IVar="-1" Cut="0.0000000000000000e+00" cType="1" res="3.9629038656130433e-04" rms="4.5521882176399231e-01" purity="5.5783122777938843e-01" nType="-99"/>
          <Node pos="r" depth="2" NCoef="0" IVar="-1" Cut="0.0000000000000000e+00" cType="1" res="4.7914595343172550e-03" rms="4.7802960872650146e-01" purity="5.0124698877334595e-01" nType="-99"/>
        </Node>
        <Node pos="r" depth="1" NCoef="0" IVar="-1" Cut="0.0000000000000000e+00" cType="1" res="-2.7232784777879715e-03" rms="3.6636087298393250e-01" purity="1.5206125378608704e-01" nType="-99"/>
      </Node>
    </BinaryTree>
    <BinaryTree type="DecisionTree" boostWeight="1.0000000000000000e+00" itree="345">
      <Node pos="s" depth="0" NCoef="0" IVar="0" Cut="5.5276203155517578e+00" cType="1" res="1.1975991539657116e-02" rms="4.4910272955894470e-01" purity="5.2565813064575195e-01" nType="0">
        <Node pos="l" depth="1" NCoef="0" IVar="2" Cut="9.9153929948806763e-01" cType="1" res="-8.0514334142208099e-02" rms="4.0508264303207397e-01" purity="2.4659240245819092e-01" nType="0">
          <Node pos="l" depth="2" NCoef="0" IVar="-1" Cut="0.0000000000000000e+00" cType="1" res="-5.7328038383275270e-04" rms="4.6983435750007629e-01" purity="3.6491864919662476e-01" nType="-99"/>
          <Node pos="r" depth="2" NCoef="0" IVar="-1" Cut="0.0000000000000000e+00" cType="1" res="-3.1551849097013474e-03" rms="3.1357005238533020e-01" purity="1.2060632556676865e-01" nType="-99"/>
        </Node>
        <Node pos="r" depth="1" NCoef="0" IVar="1" Cut="7.4425880432128906e+01" cType="1" res="3.1502056866884232e-02" rms="4.5546045899391174e-01" purity="5.8457303047180176e-01" nType="0">
          <Node pos="l" depth="2" NCoef="0" IVar="-1" Cut="0.0000000000000000e+00" cType="1" res="-1.1523324064910412e-04" rms="4.5871561765670776e-01" purity="5.2339196205139160e-01" nType="-99"/>
          <Node pos="r" depth="2" NCoef="0" IVar="-1" Cut="0.0000000000000000e+00" cType="1" res="1.5306483255699277e-03" rms="4.4986826181411743e-01" purity="6.4042127132415771e-01" nType="-99"/>
        </Node>
      </Node>
    </BinaryTree>
    <BinaryTree type="DecisionTree" boostWeight="1.0000000000000000e+00" itree="346">
      <Node pos="s" depth="0" NCoef="0" IVar="5" Cut="4.2033377289772034e-01" cType="1" res="-8.2856658846139908e-03" rms="4.5254939794540405e-01" purity="4.8902893066406250e-01" nType="0">
        <Node pos="l" depth="1" NCoef="0" IVar="2" Cut="1.4191017150878906e+00" cType="1" res="3.4750662744045258e-02" rms="4.4349679350852966e-01" purity="4.9334645271301270e-01" nType="0">
          <Node pos="l" depth="2" NCoef="0" IVar="-1" Cut="0.0000000000000000e+00" cType="1" res="1.3679866679012775e-03" rms="4.5698997378349304e-01" purity="5.7255661487579346e-01" nType="-99"/>
          <Node pos="r" depth="2" NCoef="0" IVar="-1" Cut="0.0000000000000000e+00" cType="1" res="-1.3667109888046980e-03" rms="3.8157331943511963e-01" purity="2.2932083904743195e-01" nType="-99"/>
        </Node>
        <Node pos="r" depth="1" NCoef="0" IVar="0" Cut="6.8180232048034668e+00" cType="1" res="-5.5666945874691010e-02" rms="4.5765420794487000e-01" purity="4.8427551984786987e-01" nType="0">
          <Node pos="l" depth="2" NCoef="0" IVar="-1" Cut="0.0000000000000000e+00" cType="1" res="-2.1998258307576180e-03" rms="4.4753682613372803e-01" purity="3.1229135394096375e-01" nType="-99"/>
          <Node pos="r" depth="2" NCoef="0" IVar="-1" Cut="0.0000000000000000e+00" cType="1" res="4.6382123400690034e-05" rms="4.6031099557876587e-01" purity="6.5511763095855713e-01" nType="-99"/>
        </Node>
      </Node>
    </BinaryTree>
    <BinaryTree type="DecisionTree" boostWeight="1.0000000000000000e+00" itree="347">
      <Node pos="s" depth="0" NCoef="0" IVar="4" Cut="2.4394633483886719e+02" cType="1" res="-1.9162101671099663e-02" rms="4.5598891377449036e-01" purity="4.9720096588134766e-01" nType="0">
        <Node pos="l" depth="1" NCoef="0" IVar="1" Cut="1.2374859619140625e+02" cType="1" res="-3.2615282107144594e-03" rms="4.5763802528381348e-01" purity="5.1687669754028320e-01" nType="0">
          <Node pos="l" depth="2" NCoef="0" IVar="-1" Cut="0.0000000000000000e+00" cType="1" res="-4.1172397322952747e-04" rms="4.6011510491371155e-01" purity="4.9606162309646606e-01" nType="-99"/>
          <Node pos="r" depth="2" NCoef="0" IVar="-1" Cut="0.0000000000000000e+00" cType="1" res="2.5489784311503172e-03" rms="4.2329257726669312e-01" purity="6.6556459665298462e-01" nType="-99"/>
        </Node>
        <Node pos="r" depth="1" NCoef="0" IVar="1" Cut="9.1719848632812500e+01" cType="1" res="-1.0913156718015671e-01" rms="4.3574726581573486e-01" purity="3.8587045669555664e-01" nType="0">
          <Node pos="l" depth="2" NCoef="0" IVar="-1" Cut="0.0000000000000000e+00" cType="1" res="-4.7145830467343330e-03" rms="4.1671195626258850e-01" purity="2.6529002189636230e-01" nType="-99"/>
          <Node pos="r" depth="2" NCoef="0" IVar="-1" Cut="0.0000000000000000e+00" cType="1" res="-5.7202047901228070e-04" rms="4.3019884824752808e-01" purity="4.7482654452323914e-01" nType="-99"/>
        </Node>
      </Node>
    </BinaryTree>
    <BinaryTree type="DecisionTree" boostWeight="1.0000000000000000e+00" itree="348">
      <Node pos="s" depth="0" NCoef="0" IVar="3" Cut="1.8674635887145996e+00" cType="1" res="-1.5867572277784348e-02" rms="4.5911490917205811e-01" purity="4.9177953600883484e-01" nType="0">
        <Node pos="l" depth="1" NCoef="0" IVar="2" Cut="7.6861226558685303e-01" cType="1" res="5.3714126348495483e-02" rms="4.5735853910446167e-01" purity="6.2211304903030396e-01" nType="0">
          <Node pos="l" depth="2" NCoef="0" IVar="-1" Cut="0.0000000000000000e+00" cType="1" res="-3.5033599124290049e-04" rms="4.4817242026329041e-01" purity="6.1250627040863037e-01" nType="-99"/>
          <Node pos="r" depth="2" NCoef="0" IVar="-1" Cut="0.0000000000000000e+00" cType="1" res="2.9533687047660351e-03" rms="4.5436474680900574e-01" purity="6.3360136747360229e-01" nType="-99"/>
        </Node>
        <Node pos="r" depth="1" NCoef="0" IVar="5" Cut="6.8673735857009888e-01" cType="1" res="-2.6577420532703400e-02" rms="4.5844778418540955e-01" purity="4.7171887755393982e-01" nType="0">
          <Node pos="l" depth="2" NCoef="0" IVar="-1" Cut="0.0000000000000000e+00" cType="1" res="-7.5805670348927379e-04" rms="4.5743575692176819e-01" purity="4.5920902490615845e-01" nType="-99"/>
          <Node pos="r" depth="2" NCoef="0" IVar="-1" Cut="0.0000000000000000e+00" cType="1" res="1.5123391058295965e-03" rms="4.6083346009254456e-01" purity="6.2776142358779907e-01" nType="-99"/>
        </Node>
      </Node>
    </BinaryTree>
    <BinaryTree type="DecisionTree" boostWeight="1.0000000000000000e+00" itree="349">
      <Node pos="s" depth="0" NCoef="0" IVar="6" Cut="7.0117926025390625e+02" cType="1" res="1.2737284414470196e-02" rms="4.4803932309150696e-01" purity="5.1984477043151855e-01" nType="0">
        <Node pos="l" depth="1" NCoef="0" IVar="3" Cut="2.5699272155761719e+00" cType="1" res="1.3681687414646149e-03" rms="4.5143580436706543e-01" purity="5.0224047899246216e-01" nType="0">
          <Node pos="l" depth="2" NCoef="0" IVar="-1" Cut="0.0000000000000000e+00" cType="1" res="2.8385268524289131e-04" rms="4.5767587423324585e-01" purity="5.4309511184692383e-01" nType="-99"/>
          <Node pos="r" depth="2" NCoef="0" IVar="-1" Cut="0.0000000000000000e+00" cType="1" res="-2.1572627592831850e-03" rms="3.8918310403823853e-01" purity="1.8790726363658905e-01" nType="-99"/>
        </Node>
        <Node pos="r" depth="1" NCoef="0" IVar="-1" Cut="0.0000000000000000e+00" cType="1" res="3.8264847826212645e-03" rms="3.7213829159736633e-01" purity="7.4603539705276489e-01" nType="-99"/>
      </Node>
    </BinaryTree>
    <BinaryTree type="DecisionTree" boostWeight="1.0000000000000000e+00" itree="350">
      <Node pos="s" depth="0" NCoef="0" IVar="0" Cut="5.2093901634216309e+00" cType="1" res="-2.9024048708379269e-03" rms="4.4933825731277466e-01" purity="5.0823199748992920e-01" nType="0">
        <Node pos="l" depth="1" NCoef="0" IVar="-1" Cut="0.0000000000000000e+00" cType="1" res="-2.7331321034580469e-03" rms="3.7052085995674133e-01" purity="1.6783167421817780e-01" nType="-99"/>
        <Node pos="r" depth="1" NCoef="0" IVar="0" Cut="7.4523525238037109e+00" cType="1" res="1.1602350510656834e-02" rms="4.5544692873954773e-01" purity="5.4795330762863159e-01" nType="0">
          <Node pos="l" depth="2" NCoef="0" IVar="-1" Cut="0.0000000000000000e+00" cType="1" res="-3.8812175625935197e-04" rms="4.6803811192512512e-01" purity="4.3987101316452026e-01" nType="-99"/>
          <Node pos="r" depth="2" NCoef="0" IVar="-1" Cut="0.0000000000000000e+00" cType="1" res="1.4486099826171994e-03" rms="4.3128189444541931e-01" purity="7.1456176042556763e-01" nType="-99"/>
        </Node>
      </Node>
    </BinaryTree>
    <BinaryTree type="DecisionTree" boostWeight="1.0000000000000000e+00" itree="351">
      <Node pos="s" depth="0" NCoef="0" IVar="3" Cut="2.2287695407867432e+00" cType="1" res="-2.1964406594634056e-02" rms="4.4989114999771118e-01" purity="4.9236622452735901e-01" nType="0">
        <Node pos="l" depth="1" NCoef="0" IVar="1" Cut="3.9042297363281250e+01" cType="1" res="8.1641962751746178e-03" rms="4.5501056313514709e-01" purity="5.8561891317367554e-01" nType="0">
          <Node pos="l" depth="2" NCoef="0" IVar="-1" Cut="0.0000000000000000e+00" cType="1" res="-2.1095110569149256e-03" rms="4.5814448595046997e-01" purity="3.5930120944976807e-01" nType="-99"/>
          <Node pos="r" depth="2" NCoef="0" IVar="-1" Cut="0.0000000000000000e+00" cType="1" res="6.0171226505190134e-04" rms="4.5184221863746643e-01" purity="6.2341594696044922e-01" nType="-99"/>
        </Node>
        <Node pos="r" depth="1" NCoef="0" IVar="5" Cut="4.9389460682868958e-01" cType="1" res="-6.8210743367671967e-02" rms="4.3790313601493835e-01" purity="3.4922674298286438e-01" nType="0">
          <Node pos="l" depth="2" NCoef="0" IVar="-1" Cut="0.0000000000000000e+00" cType="1" res="-7.3324068216606975e-04" rms="4.4631302356719971e-01" purity="3.6464473605155945e-01" nType="-99"/>
          <Node pos="r" depth="2" NCoef="0" IVar="-1" Cut="0.0000000000000000e+00" cType="1" res="-3.5344166681170464e-03" rms="3.9755624532699585e-01" purity="3.0696314573287964e-01" nType="-99"/>
        </Node>
      </Node>
    </BinaryTree>
    <BinaryTree type="DecisionTree" boostWeight="1.0000000000000000e+00" itree="352">
      <Node pos="s" depth="0" NCoef="0" IVar="2" Cut="4.9949744343757629e-01" cType="1" res="-1.2135434895753860e-02" rms="4.5747816562652588e-01" purity="4.8920553922653198e-01" nType="0">
        <Node pos="l" depth="1" NCoef="0" IVar="-1" Cut="0.0000000000000000e+00" cType="1" res="4.0021995082497597e-03" rms="3.8793507218360901e-01" purity="8.2085978984832764e-01" nType="-99"/>
        <Node pos="r" depth="1" NCoef="0" IVar="1" Cut="4.2685569763183594e+01" cType="1" res="-2.4295505136251450e-02" rms="4.5970705151557922e-01" purity="4.6527773141860962e-01" nType="0">
          <Node pos="l" depth="2" NCoef="0" IVar="-1" Cut="0.0000000000000000e+00" cType="1" res="-2.3400085046887398e-03" rms="4.5704174041748047e-01" purity="3.2058078050613403e-01" nType="-99"/>
          <Node pos="r" depth="2" NCoef="0" IVar="-1" Cut="0.0000000000000000e+00" cType="1" res="-2.0502769621089101e-04" rms="4.5847845077514648e-01" purity="4.9035155773162842e-01" nType="-99"/>
        </Node>
      </Node>
    </BinaryTree>
    <BinaryTree type="DecisionTree" boostWeight="1.0000000000000000e+00" itree="353">
      <Node pos="s" depth="0" NCoef="0" IVar="1" Cut="3.8983451843261719e+01" cType="1" res="-4.3483017943799496e-03" rms="4.4790026545524597e-01" purity="5.0214338302612305e-01" nType="0">
        <Node pos="l" depth="1" NCoef="0" IVar="-1" Cut="0.0000000000000000e+00" cType="1" res="-3.6623072810471058e-03" rms="4.3481522798538208e-01" purity="2.5409632921218872e-01" nType="-99"/>
        <Node pos="r" depth="1" NCoef="0" IVar="5" Cut="6.2734335660934448e-01" cType="1" res="1.2363380752503872e-02" rms="4.4558611512184143e-01" purity="5.2602684497833252e-01" nType="0">
          <Node pos="l" depth="2" NCoef="0" IVar="-1" Cut="0.0000000000000000e+00" cType="1" res="-1.6767717897891998e-04" rms="4.4475635886192322e-01" purity="4.9727571010589600e-01" nType="-99"/>
          <Node pos="r" depth="2" NCoef="0" IVar="-1" Cut="0.0000000000000000e+00" cType="1" res="3.0809405725449324e-03" rms="4.3016490340232849e-01" purity="7.0738446712493896e-01" nType="-99"/>
        </Node>
      </Node>
    </BinaryTree>
    <BinaryTree type="DecisionTree" boostWeight="1.0000000000000000e+00" itree="354">
      <Node pos="s" depth="0" NCoef="0" IVar="5" Cut="2.9020106792449951e-01" cType="1" res="4.5269033871591091e-03" rms="4.5938390493392944e-01" purity="5.0458467006683350e-01" nType="0">
        <Node pos="l" depth="1" NCoef="0" IVar="0" Cut="7.6188726425170898e+00" cType="1" res="-5.8852225542068481e-02" rms="4.4596555829048157e-01" purity="3.6556375026702881e-01" nType="0">
          <Node pos="l" depth="2" NCoef="0" IVar="-1" Cut="0.0000000000000000e+00" cType="1" res="-2.2869030945003033e-03" rms="4.3298575282096863e-01" purity="2.7196711301803589e-01" nType="-99"/>
          <Node pos="r" depth="2" NCoef="0" IVar="-1" Cut="0.0000000000000000e+00" cType="1" res="2.4638280738145113e-03" rms="4.5499923825263977e-01" purity="6.9535851478576660e-01" nType="-99"/>
        </Node>
        <Node pos="r" depth="1" NCoef="0" IVar="4" Cut="2.8980944824218750e+02" cType="1" res="3.4736298024654388e-02" rms="4.6259781718254089e-01" purity="5.7084840536117554e-01" nType="0">
          <Node pos="l" depth="2" NCoef="0" IVar="-1" Cut="0.0000000000000000e+00" cType="1" res="9.6923555247485638e-04" rms="4.6136614680290222e-01" purity="5.7830244302749634e-01" nType="-99"/>
          <Node pos="r" depth="2" NCoef="0" IVar="-1" Cut="0.0000000000000000e+00" cType="1" res="-1.5143178170546889e-03" rms="4.6455562114715576e-01" purity="4.8172357678413391e-01" nType="-99"/>
        </Node>
      </Node>
    </BinaryTree>
    <BinaryTree type="DecisionTree" boostWeight="1.0000000000000000e+00" itree="355">
      <Node pos="s" depth="0" NCoef="0" IVar="0" Cut="9.0089721679687500e+00" cType="1" res="-3.1668640673160553e-02" rms="4.5593667030334473e-01" purity="4.7680294513702393e-01" nType="0">
        <Node pos="l" depth="1" NCoef="0" IVar="1" Cut="7.1066841125488281e+01" cType="1" res="-4.5337516814470291e-02" rms="4.6364697813987732e-01" purity="4.4305393099784851e-01" nType="0">
          <Node pos="l" depth="2" NCoef="0" IVar="-1" Cut="0.0000000000000000e+00" cType="1" res="-2.0207017660140991e-03" rms="4.5857739448547363e-01" purity="3.6521315574645996e-01" nType="-99"/>
          <Node pos="r" depth="2" NCoef="0" IVar="-1" Cut="0.0000000000000000e+00" cType="1" res="-2.1915124307270162e-05" rms="4.6361854672431946e-01" purity="5.1225167512893677e-01" nType="-99"/>
        </Node>
        <Node pos="r" depth="1" NCoef="0" IVar="-1" Cut="0.0000000000000000e+00" cType="1" res="3.4273762721568346e-03" rms="3.1672921776771545e-01" purity="8.6247795820236206e-01" nType="-99"/>
      </Node>
    </BinaryTree>
    <BinaryTree type="DecisionTree" boostWeight="1.0000000000000000e+00" itree="356">
      <Node pos="s" depth="0" NCoef="0" IVar="3" Cut="2.3128995895385742e+00" cType="1" res="-9.2456871643662453e-03" rms="4.5375204086303711e-01" purity="4.8721721768379211e-01" nType="0">
        <Node pos="l" depth="1" NCoef="0" IVar="5" Cut="4.9997755885124207e-01" cType="1" res="2.0072676241397858e-02" rms="4.6807098388671875e-01" purity="5.7614630460739136e-01" nType="0">
          <Node pos="l" depth="2" NCoef="0" IVar="-1" Cut="0.0000000000000000e+00" cType="1" res="-3.2174156513065100e-04" rms="4.7498404979705811e-01" purity="5.2931958436965942e-01" nType="-99"/>
          <Node pos="r" depth="2" NCoef="0" IVar="-1" Cut="0.0000000000000000e+00" cType="1" res="1.8784803105518222e-03" rms="4.4820812344551086e-01" purity="6.6163474321365356e-01" nType="-99"/>
        </Node>
        <Node pos="r" depth="1" NCoef="0" IVar="0" Cut="6.6517610549926758e+00" cType="1" res="-7.5607240200042725e-02" rms="4.1190356016159058e-01" purity="2.8592780232429504e-01" nType="0">
          <Node pos="l" depth="2" NCoef="0" IVar="-1" Cut="0.0000000000000000e+00" cType="1" res="-3.1115203164517879e-03" rms="3.4301075339317322e-01" purity="1.3482668995857239e-01" nType="-99"/>
          <Node pos="r" depth="2" NCoef="0" IVar="-1" Cut="0.0000000000000000e+00" cType="1" res="-5.1481643458828330e-04" rms="4.6299371123313904e-01" purity="4.3191498517990112e-01" nType="-99"/>
        </Node>
      </Node>
    </BinaryTree>
    <BinaryTree type="DecisionTree" boostWeight="1.0000000000000000e+00" itree="357">
      <Node pos="s" depth="0" NCoef="0" IVar="0" Cut="5.8165402412414551e+00" cType="1" res="3.0196800362318754e-03" rms="4.5630463957786560e-01" purity="4.9308717250823975e-01" nType="0">
        <Node pos="l" depth="1" NCoef="0" IVar="5" Cut="4.4902151823043823e-01" cType="1" res="-4.8651680350303650e-02" rms="4.2236533761024475e-01" purity="2.7672111988067627e-01" nType="0">
          <Node pos="l" depth="2" NCoef="0" IVar="-1" Cut="0.0000000000000000e+00" cType="1" res="-2.7096129488199949e-03" rms="3.4378683567047119e-01" purity="1.7674067616462708e-01" nType="-99"/>
          <Node pos="r" depth="2" NCoef="0" IVar="-1" Cut="0.0000000000000000e+00" cType="1" res="2.2318512201309204e-03" rms="5.0237488746643066e-01" purity="4.6450731158256531e-01" nType="-99"/>
        </Node>
        <Node pos="r" depth="1" NCoef="0" IVar="5" Cut="4.8484542965888977e-01" cType="1" res="2.1335210651159286e-02" rms="4.6637180447578430e-01" purity="5.6978064775466919e-01" nType="0">
          <Node pos="l" depth="2" NCoef="0" IVar="-1" Cut="0.0000000000000000e+00" cType="1" res="1.0217400267720222e-03" rms="4.6125635504722595e-01" purity="5.6266599893569946e-01" nType="-99"/>
          <Node pos="r" depth="2" NCoef="0" IVar="-1" Cut="0.0000000000000000e+00" cType="1" res="-6.1678205383941531e-04" rms="4.7258469462394714e-01" purity="5.8386147022247314e-01" nType="-99"/>
        </Node>
      </Node>
    </BinaryTree>
    <BinaryTree type="DecisionTree" boostWeight="1.0000000000000000e+00" itree="358">
      <Node pos="s" depth="0" NCoef="0" IVar="0" Cut="5.3758258819580078e+00" cType="1" res="4.3877220014110208e-04" rms="4.5566487312316895e-01" purity="5.1442825794219971e-01" nType="0">
        <Node pos="l" depth="1" NCoef="0" IVar="4" Cut="7.4849792480468750e+01" cType="1" res="-1.1868749558925629e-01" rms="3.8611710071563721e-01" purity="2.0207169651985168e-01" nType="0">
          <Node pos="l" depth="2" NCoef="0" IVar="-1" Cut="0.0000000000000000e+00" cType="1" res="-1.3024399522691965e-03" rms="4.4091233611106873e-01" purity="2.6740920543670654e-01" nType="-99"/>
          <Node pos="r" depth="2" NCoef="0" IVar="-1" Cut="0.0000000000000000e+00" cType="1" res="-3.6453346256166697e-03" rms="3.2046994566917419e-01" purity="1.4256452023983002e-01" nType="-99"/>
        </Node>
        <Node pos="r" depth="1" NCoef="0" IVar="1" Cut="8.7719314575195312e+01" cType="1" res="1.7582774162292480e-02" rms="4.6229815483093262e-01" purity="5.5938094854354858e-01" nType="0">
          <Node pos="l" depth="2" NCoef="0" IVar="-1" Cut="0.0000000000000000e+00" cType="1" res="-4.3029940570704639e-04" rms="4.6739175915718079e-01" purity="5.0095552206039429e-01" nType="-99"/>
          <Node pos="r" depth="2" NCoef="0" IVar="-1" Cut="0.0000000000000000e+00" cType="1" res="1.7456735949963331e-03" rms="4.4838121533393860e-01" purity="6.4845639467239380e-01" nType="-99"/>
        </Node>
      </Node>
    </BinaryTree>
    <BinaryTree type="DecisionTree" boostWeight="1.0000000000000000e+00" itree="359">
      <Node pos="s" depth="0" NCoef="0" IVar="1" Cut="7.1111457824707031e+01" cType="1" res="6.1770416796207428e-03" rms="4.4775593280792236e-01" purity="5.1270437240600586e-01" nType="0">
        <Node pos="l" depth="1" NCoef="0" IVar="5" Cut="4.1703373193740845e-01" cType="1" res="-4.7895491123199463e-02" rms="4.5326575636863708e-01" purity="4.2014899849891663e-01" nType="0">
          <Node pos="l" depth="2" NCoef="0" IVar="-1" Cut="0.0000000000000000e+00" cType="1" res="-2.4512049276381731e-03" rms="4.2558643221855164e-01" purity="3.1068143248558044e-01" nType="-99"/>
          <Node pos="r" depth="2" NCoef="0" IVar="-1" Cut="0.0000000000000000e+00" cType="1" res="5.2166753448545933e-04" rms="4.7226959466934204e-01" purity="5.4346519708633423e-01" nType="-99"/>
        </Node>
        <Node pos="r" depth="1" NCoef="0" IVar="2" Cut="1.2148722410202026e+00" cType="1" res="4.7268163412809372e-02" rms="4.3909269571304321e-01" purity="5.8303964138031006e-01" nType="0">
          <Node pos="l" depth="2" NCoef="0" IVar="-1" Cut="0.0000000000000000e+00" cType="1" res="1.7948001623153687e-03" rms="4.3142038583755493e-01" purity="6.9459033012390137e-01" nType="-99"/>
          <Node pos="r" depth="2" NCoef="0" IVar="-1" Cut="0.0000000000000000e+00" cType="1" res="-3.6556704435497522e-04" rms="4.4883972406387329e-01" purity="3.3974251151084900e-01" nType="-99"/>
        </Node>
      </Node>
    </BinaryTree>
    <BinaryTree type="DecisionTree" boostWeight="1.0000000000000000e+00" itree="360">
      <Node pos="s" depth="0" NCoef="0" IVar="0" Cut="9.2165708541870117e+00" cType="1" res="-2.0103670656681061e-02" rms="4.5142593979835510e-01" purity="4.8524695634841919e-01" nType="0">
        <Node pos="l" depth="1" NCoef="0" IVar="5" Cut="1.5717600286006927e-01" cType="1" res="-3.1857043504714966e-02" rms="4.5610395073890686e-01" purity="4.5940613746643066e-01" nType="0">
          <Node pos="l" depth="2" NCoef="0" IVar="-1" Cut="0.0000000000000000e+00" cType="1" res="-2.7387668378651142e-03" rms="3.7882518768310547e-01" purity="2.6867061853408813e-01" nType="-99"/>
          <Node pos="r" depth="2" NCoef="0" IVar="-1" Cut="0.0000000000000000e+00" cType="1" res="-4.3100246693938971e-04" rms="4.6401318907737732e-01" purity="4.8491176962852478e-01" nType="-99"/>
        </Node>
        <Node pos="r" depth="1" NCoef="0" IVar="-1" Cut="0.0000000000000000e+00" cType="1" res="4.5581599697470665e-03" rms="3.2240208983421326e-01" purity="8.8191992044448853e-01" nType="-99"/>
      </Node>
    </BinaryTree>
    <BinaryTree type="DecisionTree" boostWeight="1.0000000000000000e+00" itree="361">
      <Node pos="s" depth="0" NCoef="0" IVar="1" Cut="6.8842552185058594e+01" cType="1" res="-1.0970816016197205e-02" rms="4.5688503980636597e-01" purity="4.9157223105430603e-01" nType="0">
        <Node pos="l" depth="1" NCoef="0" IVar="6" Cut="4.2352206420898438e+02" cType="1" res="-5.7258125394582748e-02" rms="4.5684334635734558e-01" purity="4.1203033924102783e-01" nType="0">
          <Node pos="l" depth="2" NCoef="0" IVar="-1" Cut="0.0000000000000000e+00" cType="1" res="-6.4790697069838643e-04" rms="4.4949501752853394e-01" purity="4.2191624641418457e-01" nType="-99"/>
          <Node pos="r" depth="2" NCoef="0" IVar="-1" Cut="0.0000000000000000e+00" cType="1" res="-2.6749661192297935e-03" rms="4.6784394979476929e-01" purity="3.8692936301231384e-01" nType="-99"/>
        </Node>
        <Node pos="r" depth="1" NCoef="0" IVar="2" Cut="1.1032848358154297e+00" cType="1" res="2.8825497254729271e-02" rms="4.5315659046173096e-01" purity="5.5995970964431763e-01" nType="0">
          <Node pos="l" depth="2" NCoef="0" IVar="-1" Cut="0.0000000000000000e+00" cType="1" res="1.6156064812093973e-03" rms="4.5434424281120300e-01" purity="7.0792567729949951e-01" nType="-99"/>
          <Node pos="r" depth="2" NCoef="0" IVar="-1" Cut="0.0000000000000000e+00" cType="1" res="-5.7861080858856440e-04" rms="4.4570350646972656e-01" purity="3.6281114816665649e-01" nType="-99"/>
        </Node>
      </Node>
    </BinaryTree>
    <BinaryTree type="DecisionTree" boostWeight="1.0000000000000000e+00" itree="362">
      <Node pos="s" depth="0" NCoef="0" IVar="5" Cut="6.9858133792877197e-01" cType="1" res="2.3245043121278286e-03" rms="4.4524022936820984e-01" purity="5.0692319869995117e-01" nType="0">
        <Node pos="l" depth="1" NCoef="0" IVar="1" Cut="3.7980911254882812e+01" cType="1" res="-1.1541876941919327e-02" rms="4.4780421257019043e-01" purity="4.8554307222366333e-01" nType="0">
          <Node pos="l" depth="2" NCoef="0" IVar="-1" Cut="0.0000000000000000e+00" cType="1" res="-2.8967510443180799e-03" rms="4.3576502799987793e-01" purity="2.8865280747413635e-01" nType="-99"/>
          <Node pos="r" depth="2" NCoef="0" IVar="-1" Cut="0.0000000000000000e+00" cType="1" res="2.3573213184135966e-05" rms="4.4717690348625183e-01" purity="5.0616097450256348e-01" nType="-99"/>
        </Node>
        <Node pos="r" depth="1" NCoef="0" IVar="-1" Cut="0.0000000000000000e+00" cType="1" res="4.1325842030346394e-03" rms="3.6571583151817322e-01" purity="7.8409171104431152e-01" nType="-99"/>
      </Node>
    </BinaryTree>
    <BinaryTree type="DecisionTree" boostWeight="1.0000000000000000e+00" itree="363">
      <Node pos="s" depth="0" NCoef="0" IVar="4" Cut="3.0590975952148438e+02" cType="1" res="1.0276906192302704e-02" rms="4.5539155602455139e-01" purity="5.1019078493118286e-01" nType="0">
        <Node pos="l" depth="1" NCoef="0" IVar="0" Cut="5.6624946594238281e+00" cType="1" res="2.3794220760464668e-02" rms="4.6013393998146057e-01" purity="5.3025239706039429e-01" nType="0">
          <Node pos="l" depth="2" NCoef="0" IVar="-1" Cut="0.0000000000000000e+00" cType="1" res="-8.7358971359208226e-04" rms="4.4316539168357849e-01" purity="2.8368839621543884e-01" nType="-99"/>
          <Node pos="r" depth="2" NCoef="0" IVar="-1" Cut="0.0000000000000000e+00" cType="1" res="9.5223559765145183e-04" rms="4.6308639645576477e-01" purity="5.9784048795700073e-01" nType="-99"/>
        </Node>
        <Node pos="r" depth="1" NCoef="0" IVar="-1" Cut="0.0000000000000000e+00" cType="1" res="-2.8772454243153334e-03" rms="3.7815123796463013e-01" purity="3.0745398998260498e-01" nType="-99"/>
      </Node>
    </BinaryTree>
    <BinaryTree type="DecisionTree" boostWeight="1.0000000000000000e+00" itree="364">
      <Node pos="s" depth="0" NCoef="0" IVar="5" Cut="2.1890123188495636e-01" cType="1" res="6.7304936237633228e-03" rms="4.5340415835380554e-01" purity="5.0419551134109497e-01" nType="0">
        <Node pos="l" depth="1" NCoef="0" IVar="1" Cut="7.9034820556640625e+01" cType="1" res="-5.5910479277372360e-02" rms="4.4231221079826355e-01" purity="3.5424149036407471e-01" nType="0">
          <Node pos="l" depth="2" NCoef="0" IVar="-1" Cut="0.0000000000000000e+00" cType="1" res="-3.5147368907928467e-03" rms="3.8699313998222351e-01" purity="2.3344774544239044e-01" nType="-99"/>
          <Node pos="r" depth="2" NCoef="0" IVar="-1" Cut="0.0000000000000000e+00" cType="1" res="1.0658201063051820e-03" rms="4.7262355685234070e-01" purity="4.8202124238014221e-01" nType="-99"/>
        </Node>
        <Node pos="r" depth="1" NCoef="0" IVar="5" Cut="6.5463590621948242e-01" cType="1" res="2.3701209574937820e-02" rms="4.5488011837005615e-01" purity="5.4482114315032959e-01" nType="0">
          <Node pos="l" depth="2" NCoef="0" IVar="-1" Cut="0.0000000000000000e+00" cType="1" res="8.7973161134868860e-04" rms="4.5265603065490723e-01" purity="5.5220997333526611e-01" nType="-99"/>
          <Node pos="r" depth="2" NCoef="0" IVar="-1" Cut="0.0000000000000000e+00" cType="1" res="-1.7044316045939922e-03" rms="4.5626893639564514e-01" purity="4.9599224328994751e-01" nType="-99"/>
        </Node>
      </Node>
    </BinaryTree>
    <BinaryTree type="DecisionTree" boostWeight="1.0000000000000000e+00" itree="365">
      <Node pos="s" depth="0" NCoef="0" IVar="4" Cut="1.4044503784179688e+02" cType="1" res="6.5941046923398972e-03" rms="4.6168008446693420e-01" purity="5.1290702819824219e-01" nType="0">
        <Node pos="l" depth="1" NCoef="0" IVar="4" Cut="9.9053886413574219e+01" cType="1" res="3.3371422439813614e-02" rms="4.6770539879798889e-01" purity="5.4586207866668701e-01" nType="0">
          <Node pos="l" depth="2" NCoef="0" IVar="-1" Cut="0.0000000000000000e+00" cType="1" res="2.0221431623212993e-04" rms="4.7472745180130005e-01" purity="5.1585143804550171e-01" nType="-99"/>
          <Node pos="r" depth="2" NCoef="0" IVar="-1" Cut="0.0000000000000000e+00" cType="1" res="2.4270894937217236e-03" rms="4.3765842914581299e-01" purity="6.3698810338973999e-01" nType="-99"/>
        </Node>
        <Node pos="r" depth="1" NCoef="0" IVar="2" Cut="7.5124090909957886e-01" cType="1" res="-3.4925315529108047e-02" rms="4.4903239607810974e-01" purity="4.6180877089500427e-01" nType="0">
          <Node pos="l" depth="2" NCoef="0" IVar="-1" Cut="0.0000000000000000e+00" cType="1" res="1.3682799180969596e-03" rms="4.4427046179771423e-01" purity="7.1738266944885254e-01" nType="-99"/>
          <Node pos="r" depth="2" NCoef="0" IVar="-1" Cut="0.0000000000000000e+00" cType="1" res="-1.4097401872277260e-03" rms="4.4650915265083313e-01" purity="3.8389506936073303e-01" nType="-99"/>
        </Node>
      </Node>
    </BinaryTree>
    <BinaryTree type="DecisionTree" boostWeight="1.0000000000000000e+00" itree="366">
      <Node pos="s" depth="0" NCoef="0" IVar="4" Cut="3.0431610107421875e+02" cType="1" res="-3.0291995499283075e-03" rms="4.5356705784797668e-01" purity="5.0503808259963989e-01" nType="0">
        <Node pos="l" depth="1" NCoef="0" IVar="2" Cut="6.0293620824813843e-01" cType="1" res="1.0524888522922993e-02" rms="4.5703229308128357e-01" purity="5.2705901861190796e-01" nType="0">
          <Node pos="l" depth="2" NCoef="0" IVar="-1" Cut="0.0000000000000000e+00" cType="1" res="2.4242212530225515e-03" rms="3.9210796356201172e-01" purity="7.4210792779922485e-01" nType="-99"/>
          <Node pos="r" depth="2" NCoef="0" IVar="-1" Cut="0.0000000000000000e+00" cType="1" res="-8.6301697592716664e-05" rms="4.6468859910964966e-01" purity="4.9355033040046692e-01" nType="-99"/>
        </Node>
        <Node pos="r" depth="1" NCoef="0" IVar="-1" Cut="0.0000000000000000e+00" cType="1" res="-3.1573751475661993e-03" rms="3.9291158318519592e-01" purity="2.8614768385887146e-01" nType="-99"/>
      </Node>
    </BinaryTree>
    <BinaryTree type="DecisionTree" boostWeight="1.0000000000000000e+00" itree="367">
      <Node pos="s" depth="0" NCoef="0" IVar="1" Cut="7.7506523132324219e+01" cType="1" res="-1.4019166119396687e-02" rms="4.5774400234222412e-01" purity="4.9681213498115540e-01" nType="0">
        <Node pos="l" depth="1" NCoef="0" IVar="0" Cut="7.6050744056701660e+00" cType="1" res="-3.7609543651342392e-02" rms="4.5329084992408752e-01" purity="4.5502042770385742e-01" nType="0">
          <Node pos="l" depth="2" NCoef="0" IVar="-1" Cut="0.0000000000000000e+00" cType="1" res="-1.4033702900633216e-03" rms="4.5148134231567383e-01" purity="3.5492753982543945e-01" nType="-99"/>
          <Node pos="r" depth="2" NCoef="0" IVar="-1" Cut="0.0000000000000000e+00" cType="1" res="8.1346288789063692e-04" rms="4.4948771595954895e-01" purity="6.8291938304901123e-01" nType="-99"/>
        </Node>
        <Node pos="r" depth="1" NCoef="0" IVar="1" Cut="1.5050205993652344e+02" cType="1" res="1.2481894344091415e-02" rms="4.6125876903533936e-01" purity="5.4376035928726196e-01" nType="0">
          <Node pos="l" depth="2" NCoef="0" IVar="-1" Cut="0.0000000000000000e+00" cType="1" res="7.7471422264352441e-04" rms="4.5801615715026855e-01" purity="5.6730055809020996e-01" nType="-99"/>
          <Node pos="r" depth="2" NCoef="0" IVar="-1" Cut="0.0000000000000000e+00" cType="1" res="-3.2746833749115467e-03" rms="4.5445826649665833e-01" purity="3.6832976341247559e-01" nType="-99"/>
        </Node>
      </Node>
    </BinaryTree>
    <BinaryTree type="DecisionTree" boostWeight="1.0000000000000000e+00" itree="368">
      <Node pos="s" depth="0" NCoef="0" IVar="4" Cut="2.5380715942382812e+02" cType="1" res="1.3301394646987319e-03" rms="4.4952407479286194e-01" purity="5.0446021556854248e-01" nType="0">
        <Node pos="l" depth="1" NCoef="0" IVar="3" Cut="2.4541389942169189e+00" cType="1" res="1.7181968316435814e-02" rms="4.5169082283973694e-01" purity="5.2935075759887695e-01" nType="0">
          <Node pos="l" depth="2" NCoef="0" IVar="-1" Cut="0.0000000000000000e+00" cType="1" res="7.6018681284040213e-04" rms="4.5640945434570312e-01" purity="5.8930003643035889e-01" nType="-99"/>
          <Node pos="r" depth="2" NCoef="0" IVar="-1" Cut="0.0000000000000000e+00" cType="1" res="-1.4864448457956314e-03" rms="4.1966897249221802e-01" purity="2.4784041941165924e-01" nType="-99"/>
        </Node>
        <Node pos="r" depth="1" NCoef="0" IVar="5" Cut="2.9522365331649780e-01" cType="1" res="-1.1661166697740555e-01" rms="4.1444349288940430e-01" purity="3.1926825642585754e-01" nType="0">
          <Node pos="l" depth="2" NCoef="0" IVar="-1" Cut="0.0000000000000000e+00" cType="1" res="-1.5874548116698861e-03" rms="4.0371483564376831e-01" purity="3.1235381960868835e-01" nType="-99"/>
          <Node pos="r" depth="2" NCoef="0" IVar="-1" Cut="0.0000000000000000e+00" cType="1" res="-3.5004909150302410e-03" rms="4.1988140344619751e-01" purity="3.2556337118148804e-01" nType="-99"/>
        </Node>
      </Node>
    </BinaryTree>
    <BinaryTree type="DecisionTree" boostWeight="1.0000000000000000e+00" itree="369">
      <Node pos="s" depth="0" NCoef="0" IVar="0" Cut="8.5892829895019531e+00" cType="1" res="2.0389102399349213e-02" rms="4.5555290579795837e-01" purity="5.1847940683364868e-01" nType="0">
        <Node pos="l" depth="1" NCoef="0" IVar="0" Cut="7.5229320526123047e+00" cType="1" res="7.3827989399433136e-03" rms="4.6472018957138062e-01" purity="4.7584408521652222e-01" nType="0">
          <Node pos="l" depth="2" NCoef="0" IVar="-1" Cut="0.0000000000000000e+00" cType="1" res="5.4760585771873593e-04" rms="4.6461910009384155e-01" purity="4.5205798745155334e-01" nType="-99"/>
          <Node pos="r" depth="2" NCoef="0" IVar="-1" Cut="0.0000000000000000e+00" cType="1" res="-1.3320659054443240e-03" rms="4.5916551351547241e-01" purity="5.6230503320693970e-01" nType="-99"/>
        </Node>
        <Node pos="r" depth="1" NCoef="0" IVar="2" Cut="9.5009708404541016e-01" cType="1" res="1.1445879191160202e-01" rms="3.6937594413757324e-01" purity="8.2684457302093506e-01" nType="0">
          <Node pos="l" depth="2" NCoef="0" IVar="-1" Cut="0.0000000000000000e+00" cType="1" res="1.7457581125199795e-03" rms="3.6098927259445190e-01" purity="8.4042590856552124e-01" nType="-99"/>
          <Node pos="r" depth="2" NCoef="0" IVar="-1" Cut="0.0000000000000000e+00" cType="1" res="4.3141189962625504e-03" rms="3.6821269989013672e-01" purity="8.1282782554626465e-01" nType="-99"/>
        </Node>
      </Node>
    </BinaryTree>
    <BinaryTree type="DecisionTree" boostWeight="1.0000000000000000e+00" itree="370">
      <Node pos="s" depth="0" NCoef="0" IVar="2" Cut="1.0489358901977539e+00" cType="1" res="5.4886010475456715e-03" rms="4.5344069600105286e-01" purity="5.1715600490570068e-01" nType="0">
        <Node pos="l" depth="1" NCoef="0" IVar="1" Cut="8.8946212768554688e+01" cType="1" res="3.7149582058191299e-02" rms="4.5688730478286743e-01" purity="6.3297539949417114e-01" nType="0">
          <Node pos="l" depth="2" NCoef="0" IVar="-1" Cut="0.0000000000000000e+00" cType="1" res="-5.2130937547190115e-05" rms="4.7590476274490356e-01" purity="5.6482869386672974e-01" nType="-99"/>
          <Node pos="r" depth="2" NCoef="0" IVar="-1" Cut="0.0000000000000000e+00" cType="1" res="2.7984608896076679e-03" rms="4.0824291110038757e-01" purity="7.6177978515625000e-01" nType="-99"/>
        </Node>
        <Node pos="r" depth="1" NCoef="0" IVar="5" Cut="3.9640101790428162e-01" cType="1" res="-4.2304199188947678e-02" rms="4.4393128156661987e-01" purity="3.4232461452484131e-01" nType="0">
          <Node pos="l" depth="2" NCoef="0" IVar="-1" Cut="0.0000000000000000e+00" cType="1" res="-1.7517782980576158e-03" rms="4.1725432872772217e-01" purity="2.7577528357505798e-01" nType="-99"/>
          <Node pos="r" depth="2" NCoef="0" IVar="-1" Cut="0.0000000000000000e+00" cType="1" res="4.9785390729084611e-04" rms="4.7884583473205566e-01" purity="4.5515310764312744e-01" nType="-99"/>
        </Node>
      </Node>
    </BinaryTree>
    <BinaryTree type="DecisionTree" boostWeight="1.0000000000000000e+00" itree="371">
      <Node pos="s" depth="0" NCoef="0" IVar="5" Cut="3.6801388859748840e-01" cType="1" res="1.6038410831242800e-03" rms="4.4433298707008362e-01" purity="5.0720095634460449e-01" nType="0">
        <Node pos="l" depth="1" NCoef="0" IVar="0" Cut="8.4890604019165039e+00" cType="1" res="-4.9528732895851135e-02" rms="4.4132778048515320e-01" purity="4.1085767745971680e-01" nType="0">
          <Node pos="l" depth="2" NCoef="0" IVar="-1" Cut="0.0000000000000000e+00" cType="1" res="-1.5551408287137747e-03" rms="4.4101130962371826e-01" purity="3.4999555349349976e-01" nType="-99"/>
          <Node pos="r" depth="2" NCoef="0" IVar="-1" Cut="0.0000000000000000e+00" cType="1" res="2.0165857858955860e-03" rms="4.2147359251976013e-01" purity="7.6528871059417725e-01" nType="-99"/>
        </Node>
        <Node pos="r" depth="1" NCoef="0" IVar="0" Cut="6.4130239486694336e+00" cType="1" res="4.5451097190380096e-02" rms="4.4220986962318420e-01" purity="5.8981734514236450e-01" nType="0">
          <Node pos="l" depth="2" NCoef="0" IVar="-1" Cut="0.0000000000000000e+00" cType="1" res="-2.2688916942570359e-04" rms="4.6344295144081116e-01" purity="3.8511472940444946e-01" nType="-99"/>
          <Node pos="r" depth="2" NCoef="0" IVar="-1" Cut="0.0000000000000000e+00" cType="1" res="1.8363435519859195e-03" rms="4.2661258578300476e-01" purity="7.0431083440780640e-01" nType="-99"/>
        </Node>
      </Node>
    </BinaryTree>
    <BinaryTree type="DecisionTree" boostWeight="1.0000000000000000e+00" itree="372">
      <Node pos="s" depth="0" NCoef="0" IVar="0" Cut="8.9783353805541992e+00" cType="1" res="-5.5994708091020584e-03" rms="4.5146587491035461e-01" purity="4.9782305955886841e-01" nType="0">
        <Node pos="l" depth="1" NCoef="0" IVar="2" Cut="1.1087000370025635e+00" cType="1" res="-1.3204995542764664e-02" rms="4.5595657825469971e-01" purity="4.7123906016349792e-01" nType="0">
          <Node pos="l" depth="2" NCoef="0" IVar="-1" Cut="0.0000000000000000e+00" cType="1" res="2.2717005049344152e-04" rms="4.6674352884292603e-01" purity="5.9137302637100220e-01" nType="-99"/>
          <Node pos="r" depth="2" NCoef="0" IVar="-1" Cut="0.0000000000000000e+00" cType="1" res="-1.0434318101033568e-03" rms="4.3758544325828552e-01" purity="2.9688003659248352e-01" nType="-99"/>
        </Node>
        <Node pos="r" depth="1" NCoef="0" IVar="-1" Cut="0.0000000000000000e+00" cType="1" res="2.5432670954614878e-03" rms="3.8042294979095459e-01" purity="8.2248455286026001e-01" nType="-99"/>
      </Node>
    </BinaryTree>
    <BinaryTree type="DecisionTree" boostWeight="1.0000000000000000e+00" itree="373">
      <Node pos="s" depth="0" NCoef="0" IVar="6" Cut="2.7808456420898438e+02" cType="1" res="4.4837272725999355e-03" rms="4.4713184237480164e-01" purity="5.0679600238800049e-01" nType="0">
        <Node pos="l" depth="1" NCoef="0" IVar="5" Cut="4.4612607359886169e-01" cType="1" res="-1.3740012049674988e-01" rms="3.8137146830558777e-01" purity="2.4583917856216431e-01" nType="0">
          <Node pos="l" depth="2" NCoef="0" IVar="-1" Cut="0.0000000000000000e+00" cType="1" res="-3.7406506016850471e-03" rms="3.3811762928962708e-01" purity="1.8388588726520538e-01" nType="-99"/>
          <Node pos="r" depth="2" NCoef="0" IVar="-1" Cut="0.0000000000000000e+00" cType="1" res="-2.4024061858654022e-03" rms="4.1599655151367188e-01" purity="3.0287992954254150e-01" nType="-99"/>
        </Node>
        <Node pos="r" depth="1" NCoef="0" IVar="6" Cut="6.7557110595703125e+02" cType="1" res="2.3311041295528412e-02" rms="4.5180830359458923e-01" purity="5.4142373800277710e-01" nType="0">
          <Node pos="l" depth="2" NCoef="0" IVar="-1" Cut="0.0000000000000000e+00" cType="1" res="2.0570085325744003e-04" rms="4.5578286051750183e-01" purity="5.2090865373611450e-01" nType="-99"/>
          <Node pos="r" depth="2" NCoef="0" IVar="-1" Cut="0.0000000000000000e+00" cType="1" res="3.1789517961442471e-03" rms="4.0219122171401978e-01" purity="7.0239502191543579e-01" nType="-99"/>
        </Node>
      </Node>
    </BinaryTree>
    <BinaryTree type="DecisionTree" boostWeight="1.0000000000000000e+00" itree="374">
      <Node pos="s" depth="0" NCoef="0" IVar="1" Cut="3.9982044219970703e+01" cType="1" res="-1.2400520034134388e-02" rms="4.4860941171646118e-01" purity="4.8469018936157227e-01" nType="0">
        <Node pos="l" depth="1" NCoef="0" IVar="1" Cut="3.3053943634033203e+01" cType="1" res="-1.1992629617452621e-01" rms="4.2093670368194580e-01" purity="2.7338999509811401e-01" nType="0">
          <Node pos="l" depth="2" NCoef="0" IVar="-1" Cut="0.0000000000000000e+00" cType="1" res="-3.4132231958210468e-03" rms="4.0436118841171265e-01" purity="2.3810651898384094e-01" nType="-99"/>
          <Node pos="r" depth="2" NCoef="0" IVar="-1" Cut="0.0000000000000000e+00" cType="1" res="-2.0298615563660860e-03" rms="4.3155086040496826e-01" purity="3.0162310600280762e-01" nType="-99"/>
        </Node>
        <Node pos="r" depth="1" NCoef="0" IVar="0" Cut="6.2750329971313477e+00" cType="1" res="2.4645447265356779e-03" rms="4.5028617978096008e-01" purity="5.1390165090560913e-01" nType="0">
          <Node pos="l" depth="2" NCoef="0" IVar="-1" Cut="0.0000000000000000e+00" cType="1" res="-1.1313459835946560e-03" rms="4.4513660669326782e-01" purity="3.0842605233192444e-01" nType="-99"/>
          <Node pos="r" depth="2" NCoef="0" IVar="-1" Cut="0.0000000000000000e+00" cType="1" res="8.1530050374567509e-04" rms="4.5011746883392334e-01" purity="6.3100707530975342e-01" nType="-99"/>
        </Node>
      </Node>
    </BinaryTree>
    <BinaryTree type="DecisionTree" boostWeight="1.0000000000000000e+00" itree="375">
      <Node pos="s" depth="0" NCoef="0" IVar="1" Cut="4.7336109161376953e+01" cType="1" res="-9.9429637193679810e-03" rms="4.5184570550918579e-01" purity="4.9070435762405396e-01" nType="0">
        <Node pos="l" depth="1" NCoef="0" IVar="1" Cut="4.3216361999511719e+01" cType="1" res="-7.5398787856101990e-02" rms="4.5503786206245422e-01" purity="3.7015134096145630e-01" nType="0">
          <Node pos="l" depth="2" NCoef="0" IVar="-1" Cut="0.0000000000000000e+00" cType="1" res="-2.6823207736015320e-03" rms="4.4214758276939392e-01" purity="3.0447420477867126e-01" nType="-99"/>
          <Node pos="r" depth="2" NCoef="0" IVar="-1" Cut="0.0000000000000000e+00" cType="1" res="1.2403553118929267e-03" rms="4.6133783459663391e-01" purity="5.4237151145935059e-01" nType="-99"/>
        </Node>
        <Node pos="r" depth="1" NCoef="0" IVar="1" Cut="1.4470567321777344e+02" cType="1" res="6.8871909752488136e-03" rms="4.4948339462280273e-01" purity="5.2170121669769287e-01" nType="0">
          <Node pos="l" depth="2" NCoef="0" IVar="-1" Cut="0.0000000000000000e+00" cType="1" res="4.8999575665220618e-04" rms="4.4583988189697266e-01" purity="5.3493303060531616e-01" nType="-99"/>
          <Node pos="r" depth="2" NCoef="0" IVar="-1" Cut="0.0000000000000000e+00" cType="1" res="-3.9594615809619427e-03" rms="4.5312052965164185e-01" purity="3.5996824502944946e-01" nType="-99"/>
        </Node>
      </Node>
    </BinaryTree>
    <BinaryTree type="DecisionTree" boostWeight="1.0000000000000000e+00" itree="376">
      <Node pos="s" depth="0" NCoef="0" IVar="4" Cut="3.2301861572265625e+02" cType="1" res="1.9209684804081917e-02" rms="4.5284748077392578e-01" purity="5.2357971668243408e-01" nType="0">
        <Node pos="l" depth="1" NCoef="0" IVar="3" Cut="1.7935733795166016e+00" cType="1" res="2.9594210907816887e-02" rms="4.5475831627845764e-01" purity="5.4019260406494141e-01" nType="0">
          <Node pos="l" depth="2" NCoef="0" IVar="-1" Cut="0.0000000000000000e+00" cType="1" res="-1.5979327727109194e-03" rms="4.4523665308952332e-01" purity="4.5967760682106018e-01" nType="-99"/>
          <Node pos="r" depth="2" NCoef="0" IVar="-1" Cut="0.0000000000000000e+00" cType="1" res="9.0178067330271006e-04" rms="4.5439574122428894e-01" purity="5.4775601625442505e-01" nType="-99"/>
        </Node>
        <Node pos="r" depth="1" NCoef="0" IVar="-1" Cut="0.0000000000000000e+00" cType="1" res="-2.4516060948371887e-03" rms="4.0783283114433289e-01" purity="3.2009083032608032e-01" nType="-99"/>
      </Node>
    </BinaryTree>
    <BinaryTree type="DecisionTree" boostWeight="1.0000000000000000e+00" itree="377">
      <Node pos="s" depth="0" NCoef="0" IVar="6" Cut="3.0420120239257812e+02" cType="1" res="3.2583675347268581e-03" rms="4.5728546380996704e-01" purity="5.0057768821716309e-01" nType="0">
        <Node pos="l" depth="1" NCoef="0" IVar="3" Cut="2.0967228412628174e+00" cType="1" res="-6.9950424134731293e-02" rms="4.4716340303421021e-01" purity="3.2460647821426392e-01" nType="0">
          <Node pos="l" depth="2" NCoef="0" IVar="-1" Cut="0.0000000000000000e+00" cType="1" res="-3.4913315903395414e-03" rms="4.4058358669281006e-01" purity="3.1502842903137207e-01" nType="-99"/>
          <Node pos="r" depth="2" NCoef="0" IVar="-1" Cut="0.0000000000000000e+00" cType="1" res="4.3748710595536977e-05" rms="4.3598800897598267e-01" purity="3.3053690195083618e-01" nType="-99"/>
        </Node>
        <Node pos="r" depth="1" NCoef="0" IVar="2" Cut="1.4642465114593506e+00" cType="1" res="1.9940026104450226e-02" rms="4.5792633295059204e-01" purity="5.4067522287368774e-01" nType="0">
          <Node pos="l" depth="2" NCoef="0" IVar="-1" Cut="0.0000000000000000e+00" cType="1" res="7.3966151103377342e-04" rms="4.6452155709266663e-01" purity="5.8310556411743164e-01" nType="-99"/>
          <Node pos="r" depth="2" NCoef="0" IVar="-1" Cut="0.0000000000000000e+00" cType="1" res="-1.6127715352922678e-03" rms="4.0073636174201965e-01" purity="2.6176697015762329e-01" nType="-99"/>
        </Node>
      </Node>
    </BinaryTree>
    <BinaryTree type="DecisionTree" boostWeight="1.0000000000000000e+00" itree="378">
      <Node pos="s" depth="0" NCoef="0" IVar="3" Cut="2.0872840881347656e+00" cType="1" res="-5.3052403964102268e-03" rms="4.5394310355186462e-01" purity="5.0209218263626099e-01" nType="0">
        <Node pos="l" depth="1" NCoef="0" IVar="3" Cut="1.9865832328796387e+00" cType="1" res="4.2082648724317551e-02" rms="4.6012252569198608e-01" purity="6.2019467353820801e-01" nType="0">
          <Node pos="l" depth="2" NCoef="0" IVar="-1" Cut="0.0000000000000000e+00" cType="1" res="2.3308490926865488e-04" rms="4.7320735454559326e-01" purity="5.8437979221343994e-01" nType="-99"/>
          <Node pos="r" depth="2" NCoef="0" IVar="-1" Cut="0.0000000000000000e+00" cType="1" res="2.1562676411122084e-03" rms="4.3274351954460144e-01" purity="6.7907524108886719e-01" nType="-99"/>
        </Node>
        <Node pos="r" depth="1" NCoef="0" IVar="0" Cut="8.5550765991210938e+00" cType="1" res="-4.1262093931436539e-02" rms="4.4584935903549194e-01" purity="4.1247865557670593e-01" nType="0">
          <Node pos="l" depth="2" NCoef="0" IVar="-1" Cut="0.0000000000000000e+00" cType="1" res="-1.2578113237395883e-03" rms="4.4839814305305481e-01" purity="3.6748597025871277e-01" nType="-99"/>
          <Node pos="r" depth="2" NCoef="0" IVar="-1" Cut="0.0000000000000000e+00" cType="1" res="2.0190780051052570e-03" rms="4.0660443902015686e-01" purity="7.4612492322921753e-01" nType="-99"/>
        </Node>
      </Node>
    </BinaryTree>
    <BinaryTree type="DecisionTree" boostWeight="1.0000000000000000e+00" itree="379">
      <Node pos="s" depth="0" NCoef="0" IVar="1" Cut="1.4641168212890625e+02" cType="1" res="1.7604764550924301e-02" rms="4.4548276066780090e-01" purity="5.2605485916137695e-01" nType="0">
        <Node pos="l" depth="1" NCoef="0" IVar="0" Cut="6.6016921997070312e+00" cType="1" res="2.8858130797743797e-02" rms="4.4292742013931274e-01" purity="5.3576862812042236e-01" nType="0">
          <Node pos="l" depth="2" NCoef="0" IVar="-1" Cut="0.0000000000000000e+00" cType="1" res="-3.0702512594871223e-04" rms="4.4995561242103577e-01" purity="3.6363875865936279e-01" nType="-99"/>
          <Node pos="r" depth="2" NCoef="0" IVar="-1" Cut="0.0000000000000000e+00" cType="1" res="1.6001535113900900e-03" rms="4.3327820301055908e-01" purity="6.8422681093215942e-01" nType="-99"/>
        </Node>
        <Node pos="r" depth="1" NCoef="0" IVar="-1" Cut="0.0000000000000000e+00" cType="1" res="-3.7151062861084938e-03" rms="4.4643321633338928e-01" purity="3.6556991934776306e-01" nType="-99"/>
      </Node>
    </BinaryTree>
    <BinaryTree type="DecisionTree" boostWeight="1.0000000000000000e+00" itree="380">
      <Node pos="s" depth="0" NCoef="0" IVar="4" Cut="2.1090826416015625e+02" cType="1" res="-1.9189527258276939e-02" rms="4.5320123434066772e-01" purity="4.8763713240623474e-01" nType="0">
        <Node pos="l" depth="1" NCoef="0" IVar="5" Cut="3.1972014904022217e-01" cType="1" res="-4.6977680176496506e-03" rms="4.5215377211570740e-01" purity="5.0835853815078735e-01" nType="0">
          <Node pos="l" depth="2" NCoef="0" IVar="-1" Cut="0.0000000000000000e+00" cType="1" res="-1.3136090710759163e-03" rms="4.3953952193260193e-01" purity="3.9067780971527100e-01" nType="-99"/>
          <Node pos="r" depth="2" NCoef="0" IVar="-1" Cut="0.0000000000000000e+00" cType="1" res="5.1119836280122399e-04" rms="4.5598423480987549e-01" purity="5.6790721416473389e-01" nType="-99"/>
        </Node>
        <Node pos="r" depth="1" NCoef="0" IVar="1" Cut="1.0079650878906250e+02" cType="1" res="-7.5665943324565887e-02" rms="4.5285660028457642e-01" purity="4.0688303112983704e-01" nType="0">
          <Node pos="l" depth="2" NCoef="0" IVar="-1" Cut="0.0000000000000000e+00" cType="1" res="-3.0570118688046932e-03" rms="4.2845004796981812e-01" purity="3.1164208054542542e-01" nType="-99"/>
          <Node pos="r" depth="2" NCoef="0" IVar="-1" Cut="0.0000000000000000e+00" cType="1" res="9.0072042075917125e-04" rms="4.6479728817939758e-01" purity="5.5305325984954834e-01" nType="-99"/>
        </Node>
      </Node>
    </BinaryTree>
    <BinaryTree type="DecisionTree" boostWeight="1.0000000000000000e+00" itree="381">
      <Node pos="s" depth="0" NCoef="0" IVar="0" Cut="5.0027947425842285e+00" cType="1" res="-1.9368218258023262e-02" rms="4.5041042566299438e-01" purity="4.8027077317237854e-01" nType="0">
        <Node pos="l" depth="1" NCoef="0" IVar="-1" Cut="0.0000000000000000e+00" cType="1" res="-3.1694485805928707e-03" rms="3.2596230506896973e-01" purity="1.3706721365451813e-01" nType="-99"/>
        <Node pos="r" depth="1" NCoef="0" IVar="5" Cut="7.1332973241806030e-01" cType="1" res="-7.1616969071328640e-03" rms="4.5820567011833191e-01" purity="5.1173311471939087e-01" nType="0">
          <Node pos="l" depth="2" NCoef="0" IVar="-1" Cut="0.0000000000000000e+00" cType="1" res="-3.5408971598371863e-04" rms="4.5962908864021301e-01" purity="4.9717825651168823e-01" nType="-99"/>
          <Node pos="r" depth="2" NCoef="0" IVar="-1" Cut="0.0000000000000000e+00" cType="1" res="2.6411758735775948e-03" rms="4.1788741946220398e-01" purity="7.2175472974777222e-01" nType="-99"/>
        </Node>
      </Node>
    </BinaryTree>
    <BinaryTree type="DecisionTree" boostWeight="1.0000000000000000e+00" itree="382">
      <Node pos="s" depth="0" NCoef="0" IVar="2" Cut="1.0461164712905884e+00" cType="1" res="-2.7755439281463623e-02" rms="4.5722985267639160e-01" purity="4.6894547343254089e-01" nType="0">
        <Node pos="l" depth="1" NCoef="0" IVar="1" Cut="5.0134250640869141e+01" cType="1" res="3.5655167885124683e-03" rms="4.7296676039695740e-01" purity="5.9845310449600220e-01" nType="0">
          <Node pos="l" depth="2" NCoef="0" IVar="-1" Cut="0.0000000000000000e+00" cType="1" res="-1.9655537325888872e-03" rms="4.8578450083732605e-01" purity="4.6127384901046753e-01" nType="-99"/>
          <Node pos="r" depth="2" NCoef="0" IVar="-1" Cut="0.0000000000000000e+00" cType="1" res="8.1164971925318241e-04" rms="4.6426135301589966e-01" purity="6.4377045631408691e-01" nType="-99"/>
        </Node>
        <Node pos="r" depth="1" NCoef="0" IVar="1" Cut="6.7983833312988281e+01" cType="1" res="-6.5286792814731598e-02" rms="4.3466544151306152e-01" purity="3.1375876069068909e-01" nType="0">
          <Node pos="l" depth="2" NCoef="0" IVar="-1" Cut="0.0000000000000000e+00" cType="1" res="-3.9303986704908311e-04" rms="4.4717296957969666e-01" purity="3.2964840531349182e-01" nType="-99"/>
          <Node pos="r" depth="2" NCoef="0" IVar="-1" Cut="0.0000000000000000e+00" cType="1" res="-2.1933119278401136e-03" rms="4.2237231135368347e-01" purity="3.0257812142372131e-01" nType="-99"/>
        </Node>
      </Node>
    </BinaryTree>
    <BinaryTree type="DecisionTree" boostWeight="1.0000000000000000e+00" itree="383">
      <Node pos="s" depth="0" NCoef="0" IVar="0" Cut="6.1226611137390137e+00" cType="1" res="1.3905737549066544e-02" rms="4.5477542281150818e-01" purity="5.1156079769134521e-01" nType="0">
        <Node pos="l" depth="1" NCoef="0" IVar="6" Cut="4.3840988159179688e+02" cType="1" res="-3.1729299575090408e-02" rms="4.5044729113578796e-01" purity="3.1408491730690002e-01" nType="0">
          <Node pos="l" depth="2" NCoef="0" IVar="-1" Cut="0.0000000000000000e+00" cType="1" res="3.2409108825959265e-04" rms="4.5460459589958191e-01" purity="3.4848830103874207e-01" nType="-99"/>
          <Node pos="r" depth="2" NCoef="0" IVar="-1" Cut="0.0000000000000000e+00" cType="1" res="-2.4563863407820463e-03" rms="4.2794528603553772e-01" purity="2.4716365337371826e-01" nType="-99"/>
        </Node>
        <Node pos="r" depth="1" NCoef="0" IVar="6" Cut="4.6472979736328125e+02" cType="1" res="3.8792859762907028e-02" rms="4.5519474148750305e-01" purity="6.1925452947616577e-01" nType="0">
          <Node pos="l" depth="2" NCoef="0" IVar="-1" Cut="0.0000000000000000e+00" cType="1" res="4.0250411257147789e-04" rms="4.6154126524925232e-01" purity="5.7436132431030273e-01" nType="-99"/>
          <Node pos="r" depth="2" NCoef="0" IVar="-1" Cut="0.0000000000000000e+00" cType="1" res="1.9318049307912588e-03" rms="4.3979856371879578e-01" purity="7.0638889074325562e-01" nType="-99"/>
        </Node>
      </Node>
    </BinaryTree>
    <BinaryTree type="DecisionTree" boostWeight="1.0000000000000000e+00" itree="384">
      <Node pos="s" depth="0" NCoef="0" IVar="1" Cut="9.1214630126953125e+01" cType="1" res="3.9095184765756130e-03" rms="4.5971515774726868e-01" purity="5.1018816232681274e-01" nType="0">
        <Node pos="l" depth="1" NCoef="0" IVar="2" Cut="5.5296432971954346e-01" cType="1" res="-2.7592632919549942e-02" rms="4.5805579423904419e-01" purity="4.6320199966430664e-01" nType="0">
          <Node pos="l" depth="2" NCoef="0" IVar="-1" Cut="0.0000000000000000e+00" cType="1" res="2.4882813449949026e-03" rms="4.3891400098800659e-01" purity="7.2824901342391968e-01" nType="-99"/>
          <Node pos="r" depth="2" NCoef="0" IVar="-1" Cut="0.0000000000000000e+00" cType="1" res="-9.6574675990268588e-04" rms="4.5762997865676880e-01" purity="4.3354156613349915e-01" nType="-99"/>
        </Node>
        <Node pos="r" depth="1" NCoef="0" IVar="0" Cut="5.8857173919677734e+00" cType="1" res="6.0095578432083130e-02" rms="4.5730447769165039e-01" purity="5.9399092197418213e-01" nType="0">
          <Node pos="l" depth="2" NCoef="0" IVar="-1" Cut="0.0000000000000000e+00" cType="1" res="3.1766027677804232e-03" rms="4.6491676568984985e-01" purity="4.8800531029701233e-01" nType="-99"/>
          <Node pos="r" depth="2" NCoef="0" IVar="-1" Cut="0.0000000000000000e+00" cType="1" res="8.5870036855340004e-04" rms="4.5231515169143677e-01" purity="6.2531560659408569e-01" nType="-99"/>
        </Node>
      </Node>
    </BinaryTree>
    <BinaryTree type="DecisionTree" boostWeight="1.0000000000000000e+00" itree="385">
      <Node pos="s" depth="0" NCoef="0" IVar="3" Cut="2.7185478210449219e+00" cType="1" res="-2.6216790080070496e-02" rms="4.5652583241462708e-01" purity="4.6546387672424316e-01" nType="0">
        <Node pos="l" depth="1" NCoef="0" IVar="1" Cut="4.5268272399902344e+01" cType="1" res="-1.5428606420755386e-02" rms="4.6654969453811646e-01" purity="4.9610406160354614e-01" nType="0">
          <Node pos="l" depth="2" NCoef="0" IVar="-1" Cut="0.0000000000000000e+00" cType="1" res="-2.0379596389830112e-03" rms="4.4916787743568420e-01" purity="3.4847226738929749e-01" nType="-99"/>
          <Node pos="r" depth="2" NCoef="0" IVar="-1" Cut="0.0000000000000000e+00" cType="1" res="3.9732010918669403e-05" rms="4.6869266033172607e-01" purity="5.2958911657333374e-01" nType="-99"/>
        </Node>
        <Node pos="r" depth="1" NCoef="0" IVar="-1" Cut="0.0000000000000000e+00" cType="1" res="-4.1394736617803574e-03" rms="2.6658394932746887e-01" purity="7.7357180416584015e-02" nType="-99"/>
      </Node>
    </BinaryTree>
    <BinaryTree type="DecisionTree" boostWeight="1.0000000000000000e+00" itree="386">
      <Node pos="s" depth="0" NCoef="0" IVar="0" Cut="5.6068253517150879e+00" cType="1" res="-3.4340776503086090e-02" rms="4.4462320208549500e-01" purity="4.6965554356575012e-01" nType="0">
        <Node pos="l" depth="1" NCoef="0" IVar="0" Cut="5.1116595268249512e+00" cType="1" res="-1.2529361248016357e-01" rms="3.6731287837028503e-01" purity="1.8432483077049255e-01" nType="0">
          <Node pos="l" depth="2" NCoef="0" IVar="-1" Cut="0.0000000000000000e+00" cType="1" res="-3.7551561836153269e-03" rms="3.1668785214424133e-01" purity="1.1262290924787521e-01" nType="-99"/>
          <Node pos="r" depth="2" NCoef="0" IVar="-1" Cut="0.0000000000000000e+00" cType="1" res="-1.6056632157415152e-03" rms="4.0427836775779724e-01" purity="2.5426629185676575e-01" nType="-99"/>
        </Node>
        <Node pos="r" depth="1" NCoef="0" IVar="4" Cut="2.6240942382812500e+02" cType="1" res="-1.3634761795401573e-02" rms="4.5789521932601929e-01" purity="5.3461295366287231e-01" nType="0">
          <Node pos="l" depth="2" NCoef="0" IVar="-1" Cut="0.0000000000000000e+00" cType="1" res="2.2611395252170041e-05" rms="4.5956546068191528e-01" purity="5.5613982677459717e-01" nType="-99"/>
          <Node pos="r" depth="2" NCoef="0" IVar="-1" Cut="0.0000000000000000e+00" cType="1" res="-2.8605281841009855e-03" rms="4.2931455373764038e-01" purity="3.7223815917968750e-01" nType="-99"/>
        </Node>
      </Node>
    </BinaryTree>
    <BinaryTree type="DecisionTree" boostWeight="1.0000000000000000e+00" itree="387">
      <Node pos="s" depth="0" NCoef="0" IVar="0" Cut="7.9261674880981445e+00" cType="1" res="1.8167551606893539e-02" rms="4.4902598857879639e-01" purity="5.2103638648986816e-01" nType="0">
        <Node pos="l" depth="1" NCoef="0" IVar="3" Cut="1.8168427944183350e+00" cType="1" res="-6.8057939643040299e-04" rms="4.6171277761459351e-01" purity="4.4836559891700745e-01" nType="0">
          <Node pos="l" depth="2" NCoef="0" IVar="-1" Cut="0.0000000000000000e+00" cType="1" res="-2.3750369437038898e-03" rms="4.6389979124069214e-01" purity="3.9203640818595886e-01" nType="-99"/>
          <Node pos="r" depth="2" NCoef="0" IVar="-1" Cut="0.0000000000000000e+00" cType="1" res="3.0281610088422894e-04" rms="4.5934969186782837e-01" purity="4.5533061027526855e-01" nType="-99"/>
        </Node>
        <Node pos="r" depth="1" NCoef="0" IVar="2" Cut="1.2180827856063843e+00" cType="1" res="8.0212287604808807e-02" rms="3.9820897579193115e-01" purity="7.6025569438934326e-01" nType="0">
          <Node pos="l" depth="2" NCoef="0" IVar="-1" Cut="0.0000000000000000e+00" cType="1" res="2.8894268907606602e-03" rms="3.6871990561485291e-01" purity="8.3812403678894043e-01" nType="-99"/>
          <Node pos="r" depth="2" NCoef="0" IVar="-1" Cut="0.0000000000000000e+00" cType="1" res="-6.6668403633229900e-06" rms="4.7500514984130859e-01" purity="5.0035649538040161e-01" nType="-99"/>
        </Node>
      </Node>
    </BinaryTree>
    <BinaryTree type="DecisionTree" boostWeight="1.0000000000000000e+00" itree="388">
      <Node pos="s" depth="0" NCoef="0" IVar="4" Cut="9.9979812622070312e+01" cType="1" res="1.6393758356571198e-02" rms="4.5330008864402771e-01" purity="5.2710914611816406e-01" nType="0">
        <Node pos="l" depth="1" NCoef="0" IVar="6" Cut="2.7388858032226562e+02" cType="1" res="-2.9089549556374550e-02" rms="4.4881436228752136e-01" purity="4.7354274988174438e-01" nType="0">
          <Node pos="l" depth="2" NCoef="0" IVar="-1" Cut="0.0000000000000000e+00" cType="1" res="-2.3529794998466969e-03" rms="4.2672294378280640e-01" purity="2.8650781512260437e-01" nType="-99"/>
          <Node pos="r" depth="2" NCoef="0" IVar="-1" Cut="0.0000000000000000e+00" cType="1" res="-3.5284258774481714e-04" rms="4.5100140571594238e-01" purity="5.0495278835296631e-01" nType="-99"/>
        </Node>
        <Node pos="r" depth="1" NCoef="0" IVar="5" Cut="1.6226983070373535e-01" cType="1" res="6.0879178345203400e-02" rms="4.5325109362602234e-01" purity="5.7950031757354736e-01" nType="0">
          <Node pos="l" depth="2" NCoef="0" IVar="-1" Cut="0.0000000000000000e+00" cType="1" res="-1.7026825807988644e-03" rms="4.0103846788406372e-01" purity="3.2872581481933594e-01" nType="-99"/>
          <Node pos="r" depth="2" NCoef="0" IVar="-1" Cut="0.0000000000000000e+00" cType="1" res="1.8671561265364289e-03" rms="4.5700237154960632e-01" purity="6.1522394418716431e-01" nType="-99"/>
        </Node>
      </Node>
    </BinaryTree>
    <BinaryTree type="DecisionTree" boostWeight="1.0000000000000000e+00" itree="389">
      <Node pos="s" depth="0" NCoef="0" IVar="5" Cut="4.1878238320350647e-01" cType="1" res="2.0317997783422470e-02" rms="4.5695695281028748e-01" purity="5.2214562892913818e-01" nType="0">
        <Node pos="l" depth="1" NCoef="0" IVar="1" Cut="4.3172183990478516e+01" cType="1" res="-1.4054290018975735e-02" rms="4.5123118162155151e-01" purity="4.3980506062507629e-01" nType="0">
          <Node pos="l" depth="2" NCoef="0" IVar="-1" Cut="0.0000000000000000e+00" cType="1" res="-2.0772817078977823e-03" rms="4.1781231760978699e-01" purity="3.0055561661720276e-01" nType="-99"/>
          <Node pos="r" depth="2" NCoef="0" IVar="-1" Cut="0.0000000000000000e+00" cType="1" res="7.6176329457666725e-05" rms="4.5598095655441284e-01" purity="4.6889835596084595e-01" nType="-99"/>
        </Node>
        <Node pos="r" depth="1" NCoef="0" IVar="3" Cut="2.2825691699981689e+00" cType="1" res="6.0199245810508728e-02" rms="4.6030625700950623e-01" purity="6.1768323183059692e-01" nType="0">
          <Node pos="l" depth="2" NCoef="0" IVar="-1" Cut="0.0000000000000000e+00" cType="1" res="7.4396136915311217e-04" rms="4.5396226644515991e-01" purity="6.2822932004928589e-01" nType="-99"/>
          <Node pos="r" depth="2" NCoef="0" IVar="-1" Cut="0.0000000000000000e+00" cType="1" res="3.2010599970817566e-03" rms="4.6972578763961792e-01" purity="5.8501619100570679e-01" nType="-99"/>
        </Node>
      </Node>
    </BinaryTree>
    <BinaryTree type="DecisionTree" boostWeight="1.0000000000000000e+00" itree="390">
      <Node pos="s" depth="0" NCoef="0" IVar="5" Cut="6.9497889280319214e-01" cType="1" res="-6.5759229473769665e-03" rms="4.5391201972961426e-01" purity="5.0800359249114990e-01" nType="0">
        <Node pos="l" depth="1" NCoef="0" IVar="3" Cut="2.5336430072784424e+00" cType="1" res="-1.9315667450428009e-02" rms="4.5449191331863403e-01" purity="4.8779824376106262e-01" nType="0">
          <Node pos="l" depth="2" NCoef="0" IVar="-1" Cut="0.0000000000000000e+00" cType="1" res="-1.0768982610898092e-04" rms="4.6609711647033691e-01" purity="5.3385579586029053e-01" nType="-99"/>
          <Node pos="r" depth="2" NCoef="0" IVar="-1" Cut="0.0000000000000000e+00" cType="1" res="-3.0892891809344292e-03" rms="3.4079322218894958e-01" purity="1.5212365984916687e-01" nType="-99"/>
        </Node>
        <Node pos="r" depth="1" NCoef="0" IVar="-1" Cut="0.0000000000000000e+00" cType="1" res="3.2248157076537609e-03" rms="4.2210122942924500e-01" purity="7.3332011699676514e-01" nType="-99"/>
      </Node>
    </BinaryTree>
    <BinaryTree type="DecisionTree" boostWeight="1.0000000000000000e+00" itree="391">
      <Node pos="s" depth="0" NCoef="0" IVar="2" Cut="5.9320646524429321e-01" cType="1" res="1.9151471555233002e-02" rms="4.4850036501884460e-01" purity="5.0874775648117065e-01" nType="0">
        <Node pos="l" depth="1" NCoef="0" IVar="3" Cut="1.9374395608901978e+00" cType="1" res="1.3741035759449005e-01" rms="4.0771642327308655e-01" purity="7.7609312534332275e-01" nType="0">
          <Node pos="l" depth="2" NCoef="0" IVar="-1" Cut="0.0000000000000000e+00" cType="1" res="4.1997018270194530e-03" rms="3.9354413747787476e-01" purity="8.0270403623580933e-01" nType="-99"/>
          <Node pos="r" depth="2" NCoef="0" IVar="-1" Cut="0.0000000000000000e+00" cType="1" res="2.0197418052703142e-03" rms="4.1713771224021912e-01" purity="7.4519973993301392e-01" nType="-99"/>
        </Node>
        <Node pos="r" depth="1" NCoef="0" IVar="1" Cut="1.5342944335937500e+02" cType="1" res="5.7702255435287952e-04" rms="4.5176953077316284e-01" purity="4.6675691008567810e-01" nType="0">
          <Node pos="l" depth="2" NCoef="0" IVar="-1" Cut="0.0000000000000000e+00" cType="1" res="1.7047028813976794e-04" rms="4.5210331678390503e-01" purity="4.7222128510475159e-01" nType="-99"/>
          <Node pos="r" depth="2" NCoef="0" IVar="-1" Cut="0.0000000000000000e+00" cType="1" res="-2.1560089662671089e-03" rms="4.3695643544197083e-01" purity="3.9481592178344727e-01" nType="-99"/>
        </Node>
      </Node>
    </BinaryTree>
    <BinaryTree type="DecisionTree" boostWeight="1.0000000000000000e+00" itree="392">
      <Node pos="s" depth="0" NCoef="0" IVar="1" Cut="1.0539473724365234e+02" cType="1" res="-2.8926059603691101e-03" rms="4.5794132351875305e-01" purity="4.9440059065818787e-01" nType="0">
        <Node pos="l" depth="1" NCoef="0" IVar="4" Cut="2.0779412841796875e+02" cType="1" res="-3.0664967373013496e-02" rms="4.5754119753837585e-01" purity="4.5198804140090942e-01" nType="0">
          <Node pos="l" depth="2" NCoef="0" IVar="-1" Cut="0.0000000000000000e+00" cType="1" res="-1.7865997506305575e-04" rms="4.5660227537155151e-01" purity="4.8258748650550842e-01" nType="-99"/>
          <Node pos="r" depth="2" NCoef="0" IVar="-1" Cut="0.0000000000000000e+00" cType="1" res="-3.1782514415681362e-03" rms="4.4515770673751831e-01" purity="2.9853790998458862e-01" nType="-99"/>
        </Node>
        <Node pos="r" depth="1" NCoef="0" IVar="5" Cut="4.0540146827697754e-01" cType="1" res="8.2201033830642700e-02" rms="4.4858491420745850e-01" purity="6.2435108423233032e-01" nType="0">
          <Node pos="l" depth="2" NCoef="0" IVar="-1" Cut="0.0000000000000000e+00" cType="1" res="3.5414723679423332e-03" rms="4.2097878456115723e-01" purity="6.3215118646621704e-01" nType="-99"/>
          <Node pos="r" depth="2" NCoef="0" IVar="-1" Cut="0.0000000000000000e+00" cType="1" res="1.5094792615855113e-06" rms="4.6948251128196716e-01" purity="6.1423456668853760e-01" nType="-99"/>
        </Node>
      </Node>
    </BinaryTree>
    <BinaryTree type="DecisionTree" boostWeight="1.0000000000000000e+00" itree="393">
      <Node pos="s" depth="0" NCoef="0" IVar="1" Cut="1.0809571838378906e+02" cType="1" res="-6.7214081063866615e-03" rms="4.6105206012725830e-01" purity="4.9469915032386780e-01" nType="0">
        <Node pos="l" depth="1" NCoef="0" IVar="4" Cut="9.6817192077636719e+01" cType="1" res="-3.8402248173952103e-02" rms="4.5882701873779297e-01" purity="4.5061138272285461e-01" nType="0">
          <Node pos="l" depth="2" NCoef="0" IVar="-1" Cut="0.0000000000000000e+00" cType="1" res="-1.7972029745578766e-03" rms="4.5024222135543823e-01" purity="4.0774017572402954e-01" nType="-99"/>
          <Node pos="r" depth="2" NCoef="0" IVar="-1" Cut="0.0000000000000000e+00" cType="1" res="1.0431992268422619e-04" rms="4.6316787600517273e-01" purity="4.9308308959007263e-01" nType="-99"/>
        </Node>
        <Node pos="r" depth="1" NCoef="0" IVar="5" Cut="2.6739910244941711e-01" cType="1" res="1.0078193992376328e-01" rms="4.5227378606796265e-01" purity="6.4430314302444458e-01" nType="0">
          <Node pos="l" depth="2" NCoef="0" IVar="-1" Cut="0.0000000000000000e+00" cType="1" res="5.2698673680424690e-03" rms="4.1618496179580688e-01" purity="6.9313186407089233e-01" nType="-99"/>
          <Node pos="r" depth="2" NCoef="0" IVar="-1" Cut="0.0000000000000000e+00" cType="1" res="8.7990227621048689e-04" rms="4.5768037438392639e-01" purity="6.1791014671325684e-01" nType="-99"/>
        </Node>
      </Node>
    </BinaryTree>
    <BinaryTree type="DecisionTree" boostWeight="1.0000000000000000e+00" itree="394">
      <Node pos="s" depth="0" NCoef="0" IVar="5" Cut="1.6161927580833435e-01" cType="1" res="-6.9774622097611427e-03" rms="4.5645177364349365e-01" purity="4.9434146285057068e-01" nType="0">
        <Node pos="l" depth="1" NCoef="0" IVar="6" Cut="5.0585269165039062e+02" cType="1" res="-1.2434979528188705e-01" rms="3.9862409234046936e-01" purity="2.8510218858718872e-01" nType="0">
          <Node pos="l" depth="2" NCoef="0" IVar="-1" Cut="0.0000000000000000e+00" cType="1" res="-3.8875136524438858e-03" rms="3.5841205716133118e-01" purity="1.9052098691463470e-01" nType="-99"/>
          <Node pos="r" depth="2" NCoef="0" IVar="-1" Cut="0.0000000000000000e+00" cType="1" res="-1.1646517086774111e-03" rms="4.3723905086517334e-01" purity="4.1360101103782654e-01" nType="-99"/>
        </Node>
        <Node pos="r" depth="1" NCoef="0" IVar="4" Cut="2.7375497436523438e+02" cType="1" res="9.0702548623085022e-03" rms="4.6148434281349182e-01" purity="5.2294969558715820e-01" nType="0">
          <Node pos="l" depth="2" NCoef="0" IVar="-1" Cut="0.0000000000000000e+00" cType="1" res="5.1928916946053505e-04" rms="4.5948559045791626e-01" purity="5.4057615995407104e-01" nType="-99"/>
          <Node pos="r" depth="2" NCoef="0" IVar="-1" Cut="0.0000000000000000e+00" cType="1" res="-2.2031173575669527e-03" rms="4.6285390853881836e-01" purity="3.9074209332466125e-01" nType="-99"/>
        </Node>
      </Node>
    </BinaryTree>
    <BinaryTree type="DecisionTree" boostWeight="1.0000000000000000e+00" itree="395">
      <Node pos="s" depth="0" NCoef="0" IVar="3" Cut="2.1297075748443604e+00" cType="1" res="6.6004893742501736e-03" rms="4.4991061091423035e-01" purity="5.1287686824798584e-01" nType="0">
        <Node pos="l" depth="1" NCoef="0" IVar="2" Cut="1.0052694082260132e+00" cType="1" res="3.7294536828994751e-02" rms="4.3577530980110168e-01" purity="6.1676263809204102e-01" nType="0">
          <Node pos="l" depth="2" NCoef="0" IVar="-1" Cut="0.0000000000000000e+00" cType="1" res="1.7716446891427040e-03" rms="4.3659228086471558e-01" purity="6.9793254137039185e-01" nType="-99"/>
          <Node pos="r" depth="2" NCoef="0" IVar="-1" Cut="0.0000000000000000e+00" cType="1" res="-1.7693433910608292e-03" rms="4.0938284993171692e-01" purity="3.5064390301704407e-01" nType="-99"/>
        </Node>
        <Node pos="r" depth="1" NCoef="0" IVar="5" Cut="6.2975972890853882e-01" cType="1" res="-1.8816325813531876e-02" rms="4.5973947644233704e-01" purity="4.2685204744338989e-01" nType="0">
          <Node pos="l" depth="2" NCoef="0" IVar="-1" Cut="0.0000000000000000e+00" cType="1" res="-6.4506614580750465e-04" rms="4.6017432212829590e-01" purity="4.0857520699501038e-01" nType="-99"/>
          <Node pos="r" depth="2" NCoef="0" IVar="-1" Cut="0.0000000000000000e+00" cType="1" res="1.2108453083783388e-03" rms="4.4952902197837830e-01" purity="5.6726038455963135e-01" nType="-99"/>
        </Node>
      </Node>
    </BinaryTree>
    <BinaryTree type="DecisionTree" boostWeight="1.0000000000000000e+00" itree="396">
      <Node pos="s" depth="0" NCoef="0" IVar="2" Cut="5.7468003034591675e-01" cType="1" res="-8.6011914536356926e-03" rms="4.4751891493797302e-01" purity="4.9481418728828430e-01" nType="0">
        <Node pos="l" depth="1" NCoef="0" IVar="4" Cut="7.4233283996582031e+01" cType="1" res="1.2261618673801422e-01" rms="4.1388973593711853e-01" purity="7.6778131723403931e-01" nType="0">
          <Node pos="l" depth="2" NCoef="0" IVar="-1" Cut="0.0000000000000000e+00" cType="1" res="4.4068195857107639e-03" rms="3.5667341947555542e-01" purity="8.2367211580276489e-01" nType="-99"/>
          <Node pos="r" depth="2" NCoef="0" IVar="-1" Cut="0.0000000000000000e+00" cType="1" res="1.4549732441082597e-03" rms="4.5334216952323914e-01" purity="7.1395146846771240e-01" nType="-99"/>
        </Node>
        <Node pos="r" depth="1" NCoef="0" IVar="1" Cut="4.3885383605957031e+01" cType="1" res="-2.4002175778150558e-02" rms="4.4879299402236938e-01" purity="4.6277603507041931e-01" nType="0">
          <Node pos="l" depth="2" NCoef="0" IVar="-1" Cut="0.0000000000000000e+00" cType="1" res="-2.7446660678833723e-03" rms="4.2449891567230225e-01" purity="3.0630883574485779e-01" nType="-99"/>
          <Node pos="r" depth="2" NCoef="0" IVar="-1" Cut="0.0000000000000000e+00" cType="1" res="-1.7272526747547090e-04" rms="4.5060598850250244e-01" purity="4.8870813846588135e-01" nType="-99"/>
        </Node>
      </Node>
    </BinaryTree>
    <BinaryTree type="DecisionTree" boostWeight="1.0000000000000000e+00" itree="397">
      <Node pos="s" depth="0" NCoef="0" IVar="1" Cut="4.9860427856445312e+01" cType="1" res="-5.0129992887377739e-03" rms="4.6438327431678772e-01" purity="5.1114583015441895e-01" nType="0">
        <Node pos="l" depth="1" NCoef="0" IVar="2" Cut="7.7639782428741455e-01" cType="1" res="-6.0628063976764679e-02" rms="4.5439285039901733e-01" purity="3.9961183071136475e-01" nType="0">
          <Node pos="l" depth="2" NCoef="0" IVar="-1" Cut="0.0000000000000000e+00" cType="1" res="1.6064969531726092e-04" rms="4.8119866847991943e-01" purity="5.5848383903503418e-01" nType="-99"/>
          <Node pos="r" depth="2" NCoef="0" IVar="-1" Cut="0.0000000000000000e+00" cType="1" res="-2.3078967351466417e-03" rms="4.3211406469345093e-01" purity="3.0323275923728943e-01" nType="-99"/>
        </Node>
        <Node pos="r" depth="1" NCoef="0" IVar="5" Cut="4.3138700723648071e-01" cType="1" res="1.2088729068636894e-02" rms="4.6608024835586548e-01" purity="5.4544275999069214e-01" nType="0">
          <Node pos="l" depth="2" NCoef="0" IVar="-1" Cut="0.0000000000000000e+00" cType="1" res="1.0227718157693744e-03" rms="4.7045859694480896e-01" purity="5.2286368608474731e-01" nType="-99"/>
          <Node pos="r" depth="2" NCoef="0" IVar="-1" Cut="0.0000000000000000e+00" cType="1" res="-5.3543300600722432e-04" rms="4.5862638950347900e-01" purity="5.7031458616256714e-01" nType="-99"/>
        </Node>
      </Node>
    </BinaryTree>
    <BinaryTree type="DecisionTree" boostWeight="1.0000000000000000e+00" itree="398">
      <Node pos="s" depth="0" NCoef="0" IVar="2" Cut="1.5007110834121704e+00" cType="1" res="1.5698734670877457e-02" rms="4.4679740071296692e-01" purity="5.2693873643875122e-01" nType="0">
        <Node pos="l" depth="1" NCoef="0" IVar="6" Cut="2.8656054687500000e+02" cType="1" res="3.1258553266525269e-02" rms="4.5591497421264648e-01" purity="5.7809227705001831e-01" nType="0">
          <Node pos="l" depth="2" NCoef="0" IVar="-1" Cut="0.0000000000000000e+00" cType="1" res="-1.9107768312096596e-03" rms="4.5692947506904602e-01" purity="3.3918049931526184e-01" nType="-99"/>
          <Node pos="r" depth="2" NCoef="0" IVar="-1" Cut="0.0000000000000000e+00" cType="1" res="1.1225293856114149e-03" rms="4.5294427871704102e-01" purity="6.1370998620986938e-01" nType="-99"/>
        </Node>
        <Node pos="r" depth="1" NCoef="0" IVar="1" Cut="8.0941665649414062e+01" cType="1" res="-8.9809089899063110e-02" rms="3.6200106143951416e-01" purity="1.8007740378379822e-01" nType="0">
          <Node pos="l" depth="2" NCoef="0" IVar="-1" Cut="0.0000000000000000e+00" cType="1" res="-4.4236383400857449e-03" rms="2.6893323659896851e-01" purity="6.2702454626560211e-02" nType="-99"/>
          <Node pos="r" depth="2" NCoef="0" IVar="-1" Cut="0.0000000000000000e+00" cType="1" res="-3.8948311703279614e-04" rms="4.0706089138984680e-01" purity="2.7370342612266541e-01" nType="-99"/>
        </Node>
      </Node>
    </BinaryTree>
    <BinaryTree type="DecisionTree" boostWeight="1.0000000000000000e+00" itree="399">
      <Node pos="s" depth="0" NCoef="0" IVar="3" Cut="2.4861254692077637e+00" cType="1" res="2.0640172064304352e-02" rms="4.4237709045410156e-01" purity="5.2919310331344604e-01" nType="0">
        <Node pos="l" depth="1" NCoef="0" IVar="1" Cut="1.1414601898193359e+02" cType="1" res="4.2580816894769669e-02" rms="4.4844269752502441e-01" purity="5.9210938215255737e-01" nType="0">
          <Node pos="l" depth="2" NCoef="0" IVar="-1" Cut="0.0000000000000000e+00" cType="1" res="5.1927566528320312e-04" rms="4.5652824640274048e-01" purity="5.5690133571624756e-01" nType="-99"/>
          <Node pos="r" depth="2" NCoef="0" IVar="-1" Cut="0.0000000000000000e+00" cType="1" res="3.9674700237810612e-03" rms="3.7742108106613159e-01" purity="8.0230331420898438e-01" nType="-99"/>
        </Node>
        <Node pos="r" depth="1" NCoef="0" IVar="0" Cut="6.7757835388183594e+00" cType="1" res="-9.2680841684341431e-02" rms="3.9046353101730347e-01" purity="2.0423737168312073e-01" nType="0">
          <Node pos="l" depth="2" NCoef="0" IVar="-1" Cut="0.0000000000000000e+00" cType="1" res="-1.1158433044329286e-03" rms="3.6754971742630005e-01" purity="1.7840129137039185e-01" nType="-99"/>
          <Node pos="r" depth="2" NCoef="0" IVar="-1" Cut="0.0000000000000000e+00" cType="1" res="-2.8341719880700111e-03" rms="4.0428963303565979e-01" purity="2.2730103135108948e-01" nType="-99"/>
        </Node>
      </Node>
    </BinaryTree>
    <BinaryTree type="DecisionTree" boostWeight="1.0000000000000000e+00" itree="400">
      <Node pos="s" depth="0" NCoef="0" IVar="0" Cut="6.1454668045043945e+00" cType="1" res="3.5161818377673626e-03" rms="4.4216716289520264e-01" purity="5.1750165224075317e-01" nType="0">
        <Node pos="l" depth="1" NCoef="0" IVar="5" Cut="5.9946024417877197e-01" cType="1" res="-5.0648879259824753e-02" rms="4.3706181645393372e-01" purity="3.1164941191673279e-01" nType="0">
          <Node pos="l" depth="2" NCoef="0" IVar="-1" Cut="0.0000000000000000e+00" cType="1" res="-1.5400347765535116e-03" rms="4.2762899398803711e-01" purity="2.7991539239883423e-01" nType="-99"/>
          <Node pos="r" depth="2" NCoef="0" IVar="-1" Cut="0.0000000000000000e+00" cType="1" res="1.2805436272174120e-03" rms="4.6551629900932312e-01" purity="4.7081181406974792e-01" nType="-99"/>
        </Node>
        <Node pos="r" depth="1" NCoef="0" IVar="5" Cut="2.2945170104503632e-01" cType="1" res="3.1243206933140755e-02" rms="4.4219785928726196e-01" purity="6.2287712097167969e-01" nType="0">
          <Node pos="l" depth="2" NCoef="0" IVar="-1" Cut="0.0000000000000000e+00" cType="1" res="-1.1230435920879245e-03" rms="4.2601615190505981e-01" purity="4.3315315246582031e-01" nType="-99"/>
          <Node pos="r" depth="2" NCoef="0" IVar="-1" Cut="0.0000000000000000e+00" cType="1" res="1.2008607154712081e-03" rms="4.4391298294067383e-01" purity="6.6810458898544312e-01" nType="-99"/>
        </Node>
      </Node>
    </BinaryTree>
    <BinaryTree type="DecisionTree" boostWeight="1.0000000000000000e+00" itree="401">
      <Node pos="s" depth="0" NCoef="0" IVar="5" Cut="3.4480983018875122e-01" cType="1" res="-1.7170002683997154e-02" rms="4.5391848683357239e-01" purity="4.8330599069595337e-01" nType="0">
        <Node pos="l" depth="1" NCoef="0" IVar="0" Cut="8.2785377502441406e+00" cType="1" res="-5.9858325868844986e-02" rms="4.2521396279335022e-01" purity="3.7198078632354736e-01" nType="0">
          <Node pos="l" depth="2" NCoef="0" IVar="-1" Cut="0.0000000000000000e+00" cType="1" res="-1.9817589782178402e-03" rms="4.2000421881675720e-01" purity="3.0959793925285339e-01" nType="-99"/>
          <Node pos="r" depth="2" NCoef="0" IVar="-1" Cut="0.0000000000000000e+00" cType="1" res="2.8040513861924410e-03" rms="4.1442847251892090e-01" purity="7.4176973104476929e-01" nType="-99"/>
        </Node>
        <Node pos="r" depth="1" NCoef="0" IVar="4" Cut="2.5543547058105469e+02" cType="1" res="1.1998551897704601e-02" rms="4.7030726075172424e-01" purity="5.5937349796295166e-01" nType="0">
          <Node pos="l" depth="2" NCoef="0" IVar="-1" Cut="0.0000000000000000e+00" cType="1" res="5.9609574964269996e-04" rms="4.7176620364189148e-01" purity="5.7902455329895020e-01" nType="-99"/>
          <Node pos="r" depth="2" NCoef="0" IVar="-1" Cut="0.0000000000000000e+00" cType="1" res="-2.8117627371102571e-03" rms="4.3377560377120972e-01" purity="3.7695625424385071e-01" nType="-99"/>
        </Node>
      </Node>
    </BinaryTree>
    <BinaryTree type="DecisionTree" boostWeight="1.0000000000000000e+00" itree="402">
      <Node pos="s" depth="0" NCoef="0" IVar="1" Cut="1.0327365875244141e+02" cType="1" res="-6.1105806380510330e-03" rms="4.5893535017967224e-01" purity="5.0405299663543701e-01" nType="0">
        <Node pos="l" depth="1" NCoef="0" IVar="6" Cut="4.8934494018554688e+02" cType="1" res="-2.4039359763264656e-02" rms="4.6338385343551636e-01" purity="4.7136193513870239e-01" nType="0">
          <Node pos="l" depth="2" NCoef="0" IVar="-1" Cut="0.0000000000000000e+00" cType="1" res="-1.1444178380770609e-04" rms="4.6186545491218567e-01" purity="4.7254386544227600e-01" nType="-99"/>
          <Node pos="r" depth="2" NCoef="0" IVar="-1" Cut="0.0000000000000000e+00" cType="1" res="-1.8970201490446925e-03" rms="4.6292346715927124e-01" purity="4.6748742461204529e-01" nType="-99"/>
        </Node>
        <Node pos="r" depth="1" NCoef="0" IVar="5" Cut="2.6234155893325806e-01" cType="1" res="4.5538537204265594e-02" rms="4.4182386994361877e-01" purity="5.9822922945022583e-01" nType="0">
          <Node pos="l" depth="2" NCoef="0" IVar="-1" Cut="0.0000000000000000e+00" cType="1" res="-1.5377664240077138e-03" rms="4.4923618435859680e-01" purity="4.1168501973152161e-01" nType="-99"/>
          <Node pos="r" depth="2" NCoef="0" IVar="-1" Cut="0.0000000000000000e+00" cType="1" res="2.1842881105840206e-03" rms="4.3039348721504211e-01" purity="6.7292076349258423e-01" nType="-99"/>
        </Node>
      </Node>
    </BinaryTree>
    <BinaryTree type="DecisionTree" boostWeight="1.0000000000000000e+00" itree="403">
      <Node pos="s" depth="0" NCoef="0" IVar="5" Cut="6.8497091531753540e-01" cType="1" res="1.3676430098712444e-02" rms="4.5471063256263733e-01" purity="5.2127718925476074e-01" nType="0">
        <Node pos="l" depth="1" NCoef="0" IVar="4" Cut="1.9998384094238281e+02" cType="1" res="5.7723300415091217e-06" rms="4.5504638552665710e-01" purity="5.0161635875701904e-01" nType="0">
          <Node pos="l" depth="2" NCoef="0" IVar="-1" Cut="0.0000000000000000e+00" cType="1" res="3.8537420914508402e-04" rms="4.5345959067344666e-01" purity="5.2379167079925537e-01" nType="-99"/>
          <Node pos="r" depth="2" NCoef="0" IVar="-1" Cut="0.0000000000000000e+00" cType="1" res="-1.4082917477935553e-03" rms="4.5542368292808533e-01" purity="4.2071077227592468e-01" nType="-99"/>
        </Node>
        <Node pos="r" depth="1" NCoef="0" IVar="-1" Cut="0.0000000000000000e+00" cType="1" res="4.6945181675255299e-03" rms="4.0236824750900269e-01" purity="8.0109208822250366e-01" nType="-99"/>
      </Node>
    </BinaryTree>
    <BinaryTree type="DecisionTree" boostWeight="1.0000000000000000e+00" itree="404">
      <Node pos="s" depth="0" NCoef="0" IVar="4" Cut="3.7783535766601562e+02" cType="1" res="-1.1325632221996784e-02" rms="4.5242598652839661e-01" purity="4.9331960082054138e-01" nType="0">
        <Node pos="l" depth="1" NCoef="0" IVar="1" Cut="1.3635702514648438e+02" cType="1" res="-3.1359486747533083e-03" rms="4.5513811707496643e-01" purity="5.0639522075653076e-01" nType="0">
          <Node pos="l" depth="2" NCoef="0" IVar="-1" Cut="0.0000000000000000e+00" cType="1" res="2.0952425256837159e-04" rms="4.5452895760536194e-01" purity="5.1696664094924927e-01" nType="-99"/>
          <Node pos="r" depth="2" NCoef="0" IVar="-1" Cut="0.0000000000000000e+00" cType="1" res="-2.4694525636732578e-03" rms="4.4621065258979797e-01" purity="4.1483613848686218e-01" nType="-99"/>
        </Node>
        <Node pos="r" depth="1" NCoef="0" IVar="-1" Cut="0.0000000000000000e+00" cType="1" res="-3.7549971602857113e-03" rms="3.7416681647300720e-01" purity="2.6476714015007019e-01" nType="-99"/>
      </Node>
    </BinaryTree>
    <BinaryTree type="DecisionTree" boostWeight="1.0000000000000000e+00" itree="405">
      <Node pos="s" depth="0" NCoef="0" IVar="1" Cut="5.0055255889892578e+01" cType="1" res="-1.1372317560017109e-02" rms="4.5601221919059753e-01" purity="5.0068831443786621e-01" nType="0">
        <Node pos="l" depth="1" NCoef="0" IVar="4" Cut="1.4905567932128906e+02" cType="1" res="-9.9952489137649536e-02" rms="4.4184216856956482e-01" purity="3.7092337012290955e-01" nType="0">
          <Node pos="l" depth="2" NCoef="0" IVar="-1" Cut="0.0000000000000000e+00" cType="1" res="-1.2013359228149056e-03" rms="4.5731481909751892e-01" purity="4.2679175734519958e-01" nType="-99"/>
          <Node pos="r" depth="2" NCoef="0" IVar="-1" Cut="0.0000000000000000e+00" cType="1" res="-5.2473023533821106e-03" rms="3.6360165476799011e-01" purity="2.0921860635280609e-01" nType="-99"/>
        </Node>
        <Node pos="r" depth="1" NCoef="0" IVar="6" Cut="5.8501623535156250e+02" cType="1" res="1.4990713447332382e-02" rms="4.5684066414833069e-01" purity="5.3930866718292236e-01" nType="0">
          <Node pos="l" depth="2" NCoef="0" IVar="-1" Cut="0.0000000000000000e+00" cType="1" res="-3.7594239984173328e-05" rms="4.5420393347740173e-01" purity="5.1072895526885986e-01" nType="-99"/>
          <Node pos="r" depth="2" NCoef="0" IVar="-1" Cut="0.0000000000000000e+00" cType="1" res="2.1470333449542522e-03" rms="4.6120092272758484e-01" purity="6.6582834720611572e-01" nType="-99"/>
        </Node>
      </Node>
    </BinaryTree>
    <BinaryTree type="DecisionTree" boostWeight="1.0000000000000000e+00" itree="406">
      <Node pos="s" depth="0" NCoef="0" IVar="1" Cut="8.4347320556640625e+01" cType="1" res="6.2600715318694711e-04" rms="4.5053386688232422e-01" purity="5.1014906167984009e-01" nType="0">
        <Node pos="l" depth="1" NCoef="0" IVar="3" Cut="1.7587822675704956e+00" cType="1" res="-2.6766380295157433e-02" rms="4.6350225806236267e-01" purity="4.7010189294815063e-01" nType="0">
          <Node pos="l" depth="2" NCoef="0" IVar="-1" Cut="0.0000000000000000e+00" cType="1" res="-3.6436656955629587e-03" rms="4.4036936759948730e-01" purity="3.3151328563690186e-01" nType="-99"/>
          <Node pos="r" depth="2" NCoef="0" IVar="-1" Cut="0.0000000000000000e+00" cType="1" res="-1.6354165563825518e-04" rms="4.6282979846000671e-01" purity="4.8783218860626221e-01" nType="-99"/>
        </Node>
        <Node pos="r" depth="1" NCoef="0" IVar="3" Cut="2.4528892040252686e+00" cType="1" res="3.9155729115009308e-02" rms="4.2868137359619141e-01" purity="5.6647884845733643e-01" nType="0">
          <Node pos="l" depth="2" NCoef="0" IVar="-1" Cut="0.0000000000000000e+00" cType="1" res="2.1413024514913559e-03" rms="4.2719307541847229e-01" purity="7.0021724700927734e-01" nType="-99"/>
          <Node pos="r" depth="2" NCoef="0" IVar="-1" Cut="0.0000000000000000e+00" cType="1" res="-1.7174716340377927e-03" rms="4.1012695431709290e-01" purity="2.6479247212409973e-01" nType="-99"/>
        </Node>
      </Node>
    </BinaryTree>
    <BinaryTree type="DecisionTree" boostWeight="1.0000000000000000e+00" itree="407">
      <Node pos="s" depth="0" NCoef="0" IVar="0" Cut="6.4868001937866211e+00" cType="1" res="-2.2018907591700554e-02" rms="4.4545271992683411e-01" purity="4.7787103056907654e-01" nType="0">
        <Node pos="l" depth="1" NCoef="0" IVar="1" Cut="1.0239504241943359e+02" cType="1" res="-7.3875032365322113e-02" rms="4.2675492167472839e-01" purity="2.8531554341316223e-01" nType="0">
          <Node pos="l" depth="2" NCoef="0" IVar="-1" Cut="0.0000000000000000e+00" cType="1" res="-2.3858125787228346e-03" rms="4.1065347194671631e-01" purity="2.3428556323051453e-01" nType="-99"/>
          <Node pos="r" depth="2" NCoef="0" IVar="-1" Cut="0.0000000000000000e+00" cType="1" res="3.1941861379891634e-04" rms="4.5129200816154480e-01" purity="4.0927875041961670e-01" nType="-99"/>
        </Node>
        <Node pos="r" depth="1" NCoef="0" IVar="5" Cut="3.0212399363517761e-01" cType="1" res="1.4546780847012997e-02" rms="4.5463675260543823e-01" purity="6.1364912986755371e-01" nType="0">
          <Node pos="l" depth="2" NCoef="0" IVar="-1" Cut="0.0000000000000000e+00" cType="1" res="-1.0086806723847985e-03" rms="4.6690741181373596e-01" purity="4.7103658318519592e-01" nType="-99"/>
          <Node pos="r" depth="2" NCoef="0" IVar="-1" Cut="0.0000000000000000e+00" cType="1" res="1.0842459741979837e-03" rms="4.4523486495018005e-01" purity="6.8612051010131836e-01" nType="-99"/>
        </Node>
      </Node>
    </BinaryTree>
    <BinaryTree type="DecisionTree" boostWeight="1.0000000000000000e+00" itree="408">
      <Node pos="s" depth="0" NCoef="0" IVar="2" Cut="7.4233847856521606e-01" cType="1" res="-2.2230850532650948e-02" rms="4.5285561680793762e-01" purity="4.8999050259590149e-01" nType="0">
        <Node pos="l" depth="1" NCoef="0" IVar="1" Cut="6.8466339111328125e+01" cType="1" res="-7.9201437532901764e-02" rms="4.7498106956481934e-01" purity="5.7413393259048462e-01" nType="0">
          <Node pos="l" depth="2" NCoef="0" IVar="-1" Cut="0.0000000000000000e+00" cType="1" res="-3.3966400660574436e-03" rms="4.7840720415115356e-01" purity="4.4427528977394104e-01" nType="-99"/>
          <Node pos="r" depth="2" NCoef="0" IVar="-1" Cut="0.0000000000000000e+00" cType="1" res="-1.2717476056423038e-04" rms="4.5949742197990417e-01" purity="6.9574034214019775e-01" nType="-99"/>
        </Node>
        <Node pos="r" depth="1" NCoef="0" IVar="5" Cut="1.6733239591121674e-01" cType="1" res="-3.4946545492857695e-03" rms="4.4374355673789978e-01" purity="4.6231782436370850e-01" nType="0">
          <Node pos="l" depth="2" NCoef="0" IVar="-1" Cut="0.0000000000000000e+00" cType="1" res="-2.2280835546553135e-03" rms="3.9069014787673950e-01" purity="2.5734639167785645e-01" nType="-99"/>
          <Node pos="r" depth="2" NCoef="0" IVar="-1" Cut="0.0000000000000000e+00" cType="1" res="2.8004331397823989e-04" rms="4.5050102472305298e-01" purity="4.9827381968498230e-01" nType="-99"/>
        </Node>
      </Node>
    </BinaryTree>
    <BinaryTree type="DecisionTree" boostWeight="1.0000000000000000e+00" itree="409">
      <Node pos="s" depth="0" NCoef="0" IVar="2" Cut="1.4124505519866943e+00" cType="1" res="8.6109405383467674e-03" rms="4.4676893949508667e-01" purity="5.0527679920196533e-01" nType="0">
        <Node pos="l" depth="1" NCoef="0" IVar="5" Cut="2.9839542508125305e-01" cType="1" res="2.6842679828405380e-02" rms="4.5730024576187134e-01" purity="5.6296080350875854e-01" nType="0">
          <Node pos="l" depth="2" NCoef="0" IVar="-1" Cut="0.0000000000000000e+00" cType="1" res="-6.2379951123148203e-04" rms="4.6127110719680786e-01" purity="4.7828826308250427e-01" nType="-99"/>
          <Node pos="r" depth="2" NCoef="0" IVar="-1" Cut="0.0000000000000000e+00" cType="1" res="1.1167777702212334e-03" rms="4.5372891426086426e-01" purity="5.9776461124420166e-01" nType="-99"/>
        </Node>
        <Node pos="r" depth="1" NCoef="0" IVar="1" Cut="9.9909942626953125e+01" cType="1" res="-8.6445264518260956e-02" rms="3.7308615446090698e-01" purity="2.0452564954757690e-01" nType="0">
          <Node pos="l" depth="2" NCoef="0" IVar="-1" Cut="0.0000000000000000e+00" cType="1" res="-3.4381509758532047e-03" rms="3.1927534937858582e-01" purity="1.3750134408473969e-01" nType="-99"/>
          <Node pos="r" depth="2" NCoef="0" IVar="-1" Cut="0.0000000000000000e+00" cType="1" res="3.8290375960059464e-04" rms="4.3011438846588135e-01" purity="3.1699556112289429e-01" nType="-99"/>
        </Node>
      </Node>
    </BinaryTree>
    <BinaryTree type="DecisionTree" boostWeight="1.0000000000000000e+00" itree="410">
      <Node pos="s" depth="0" NCoef="0" IVar="1" Cut="4.6596862792968750e+01" cType="1" res="2.1078011021018028e-02" rms="4.4878694415092468e-01" purity="5.2585697174072266e-01" nType="0">
        <Node pos="l" depth="1" NCoef="0" IVar="5" Cut="3.5685271024703979e-01" cType="1" res="-5.7986743748188019e-02" rms="4.3508026003837585e-01" purity="3.6649644374847412e-01" nType="0">
          <Node pos="l" depth="2" NCoef="0" IVar="-1" Cut="0.0000000000000000e+00" cType="1" res="-4.2900452390313148e-03" rms="3.6355555057525635e-01" purity="1.6350927948951721e-01" nType="-99"/>
          <Node pos="r" depth="2" NCoef="0" IVar="-1" Cut="0.0000000000000000e+00" cType="1" res="1.1975975940003991e-03" rms="4.5785844326019287e-01" purity="5.3836750984191895e-01" nType="-99"/>
        </Node>
        <Node pos="r" depth="1" NCoef="0" IVar="3" Cut="2.0131721496582031e+00" cType="1" res="4.0609844028949738e-02" rms="4.4997417926788330e-01" purity="5.6522470712661743e-01" nType="0">
          <Node pos="l" depth="2" NCoef="0" IVar="-1" Cut="0.0000000000000000e+00" cType="1" res="2.5952814612537622e-03" rms="4.2151376605033875e-01" purity="7.2859609127044678e-01" nType="-99"/>
          <Node pos="r" depth="2" NCoef="0" IVar="-1" Cut="0.0000000000000000e+00" cType="1" res="3.1963235232979059e-04" rms="4.5694482326507568e-01" purity="5.0592511892318726e-01" nType="-99"/>
        </Node>
      </Node>
    </BinaryTree>
    <BinaryTree type="DecisionTree" boostWeight="1.0000000000000000e+00" itree="411">
      <Node pos="s" depth="0" NCoef="0" IVar="0" Cut="5.6446223258972168e+00" cType="1" res="1.3378135627135634e-03" rms="4.3902429938316345e-01" purity="5.0864714384078979e-01" nType="0">
        <Node pos="l" depth="1" NCoef="0" IVar="4" Cut="1.0737871551513672e+02" cType="1" res="-9.7883224487304688e-02" rms="3.9750060439109802e-01" purity="2.1886649727821350e-01" nType="0">
          <Node pos="l" depth="2" NCoef="0" IVar="-1" Cut="0.0000000000000000e+00" cType="1" res="-9.7462534904479980e-04" rms="4.2988583445549011e-01" purity="2.7394908666610718e-01" nType="-99"/>
          <Node pos="r" depth="2" NCoef="0" IVar="-1" Cut="0.0000000000000000e+00" cType="1" res="-3.3457684330642223e-03" rms="3.4796130657196045e-01" purity="1.5673427283763885e-01" nType="-99"/>
        </Node>
        <Node pos="r" depth="1" NCoef="0" IVar="3" Cut="2.3878724575042725e+00" cType="1" res="2.5169277563691139e-02" rms="4.4514358043670654e-01" purity="5.7824826240539551e-01" nType="0">
          <Node pos="l" depth="2" NCoef="0" IVar="-1" Cut="0.0000000000000000e+00" cType="1" res="1.1371457949280739e-03" rms="4.4873684644699097e-01" purity="6.5788376331329346e-01" nType="-99"/>
          <Node pos="r" depth="2" NCoef="0" IVar="-1" Cut="0.0000000000000000e+00" cType="1" res="-1.3174215564504266e-03" rms="4.2171338200569153e-01" purity="3.0507162213325500e-01" nType="-99"/>
        </Node>
      </Node>
    </BinaryTree>
    <BinaryTree type="DecisionTree" boostWeight="1.0000000000000000e+00" itree="412">
      <Node pos="s" depth="0" NCoef="0" IVar="0" Cut="7.3965806961059570e+00" cType="1" res="1.0888681281358004e-03" rms="4.4410040974617004e-01" purity="5.1370692253112793e-01" nType="0">
        <Node pos="l" depth="1" NCoef="0" IVar="2" Cut="1.5381772518157959e+00" cType="1" res="-2.7074107900261879e-02" rms="4.5470127463340759e-01" purity="3.9056155085563660e-01" nType="0">
          <Node pos="l" depth="2" NCoef="0" IVar="-1" Cut="0.0000000000000000e+00" cType="1" res="-2.5409276713617146e-04" rms="4.7285532951354980e-01" purity="4.3577626347541809e-01" nType="-99"/>
          <Node pos="r" depth="2" NCoef="0" IVar="-1" Cut="0.0000000000000000e+00" cType="1" res="-3.3421204425394535e-03" rms="2.9210507869720459e-01" purity="9.3993984162807465e-02" nType="-99"/>
        </Node>
        <Node pos="r" depth="1" NCoef="0" IVar="6" Cut="4.5288677978515625e+02" cType="1" res="4.8753984272480011e-02" rms="4.2128944396972656e-01" purity="7.2212731838226318e-01" nType="0">
          <Node pos="l" depth="2" NCoef="0" IVar="-1" Cut="0.0000000000000000e+00" cType="1" res="2.2865862119942904e-03" rms="4.0627014636993408e-01" purity="7.3751759529113770e-01" nType="-99"/>
          <Node pos="r" depth="2" NCoef="0" IVar="-1" Cut="0.0000000000000000e+00" cType="1" res="-2.5390728842467070e-04" rms="4.3497705459594727e-01" purity="7.0045596361160278e-01" nType="-99"/>
        </Node>
      </Node>
    </BinaryTree>
    <BinaryTree type="DecisionTree" boostWeight="1.0000000000000000e+00" itree="413">
      <Node pos="s" depth="0" NCoef="0" IVar="1" Cut="8.9475158691406250e+01" cType="1" res="-3.6320574581623077e-02" rms="4.4212937355041504e-01" purity="4.7083878517150879e-01" nType="0">
        <Node pos="l" depth="1" NCoef="0" IVar="4" Cut="9.4964538574218750e+01" cType="1" res="-6.8435914814472198e-02" rms="4.4637319445610046e-01" purity="4.1074380278587341e-01" nType="0">
          <Node pos="l" depth="2" NCoef="0" IVar="-1" Cut="0.0000000000000000e+00" cType="1" res="-2.1924152970314026e-03" rms="4.5784801244735718e-01" purity="3.9707508683204651e-01" nType="-99"/>
          <Node pos="r" depth="2" NCoef="0" IVar="-1" Cut="0.0000000000000000e+00" cType="1" res="-6.7349133314564824e-04" rms="4.2890211939811707e-01" purity="4.2715802788734436e-01" nType="-99"/>
        </Node>
        <Node pos="r" depth="1" NCoef="0" IVar="3" Cut="2.4735054969787598e+00" cType="1" res="1.8299959599971771e-02" rms="4.2933422327041626e-01" purity="5.7304602861404419e-01" nType="0">
          <Node pos="l" depth="2" NCoef="0" IVar="-1" Cut="0.0000000000000000e+00" cType="1" res="1.2519590090960264e-03" rms="4.3518173694610596e-01" purity="6.8106019496917725e-01" nType="-99"/>
          <Node pos="r" depth="2" NCoef="0" IVar="-1" Cut="0.0000000000000000e+00" cType="1" res="-2.2148659918457270e-03" rms="3.8677692413330078e-01" purity="2.0678773522377014e-01" nType="-99"/>
        </Node>
      </Node>
    </BinaryTree>
    <BinaryTree type="DecisionTree" boostWeight="1.0000000000000000e+00" itree="414">
      <Node pos="s" depth="0" NCoef="0" IVar="3" Cut="1.7516134977340698e+00" cType="1" res="-6.7320684902369976e-03" rms="4.5879158377647400e-01" purity="4.9793955683708191e-01" nType="0">
        <Node pos="l" depth="1" NCoef="0" IVar="-1" Cut="0.0000000000000000e+00" cType="1" res="-3.5574883222579956e-03" rms="4.4600245356559753e-01" purity="3.8730239868164062e-01" nType="-99"/>
        <Node pos="r" depth="1" NCoef="0" IVar="0" Cut="5.2702469825744629e+00" cType="1" res="3.4661882091313601e-03" rms="4.5775204896926880e-01" purity="5.0512832403182983e-01" nType="0">
          <Node pos="l" depth="2" NCoef="0" IVar="-1" Cut="0.0000000000000000e+00" cType="1" res="-1.8528791842982173e-03" rms="3.8892504572868347e-01" purity="1.9023314118385315e-01" nType="-99"/>
          <Node pos="r" depth="2" NCoef="0" IVar="-1" Cut="0.0000000000000000e+00" cType="1" res="3.1913994462229311e-04" rms="4.6458196640014648e-01" purity="5.4464107751846313e-01" nType="-99"/>
        </Node>
      </Node>
    </BinaryTree>
    <BinaryTree type="DecisionTree" boostWeight="1.0000000000000000e+00" itree="415">
      <Node pos="s" depth="0" NCoef="0" IVar="5" Cut="6.8140262365341187e-01" cType="1" res="1.8598224967718124e-02" rms="4.5394942164421082e-01" purity="5.2618050575256348e-01" nType="0">
        <Node pos="l" depth="1" NCoef="0" IVar="1" Cut="1.1617787933349609e+02" cType="1" res="7.7285002917051315e-03" rms="4.5701470971107483e-01" purity="5.0753885507583618e-01" nType="0">
          <Node pos="l" depth="2" NCoef="0" IVar="-1" Cut="0.0000000000000000e+00" cType="1" res="-3.0569266527891159e-04" rms="4.6419063210487366e-01" purity="4.7880998253822327e-01" nType="-99"/>
          <Node pos="r" depth="2" NCoef="0" IVar="-1" Cut="0.0000000000000000e+00" cType="1" res="2.2338090930134058e-03" rms="4.1636592149734497e-01" purity="6.2251853942871094e-01" nType="-99"/>
        </Node>
        <Node pos="r" depth="1" NCoef="0" IVar="-1" Cut="0.0000000000000000e+00" cType="1" res="3.2526289578527212e-03" rms="4.0040376782417297e-01" purity="7.2932219505310059e-01" nType="-99"/>
      </Node>
    </BinaryTree>
    <BinaryTree type="DecisionTree" boostWeight="1.0000000000000000e+00" itree="416">
      <Node pos="s" depth="0" NCoef="0" IVar="1" Cut="7.4425880432128906e+01" cType="1" res="-7.8111784532666206e-03" rms="4.4352874159812927e-01" purity="4.8977643251419067e-01" nType="0">
        <Node pos="l" depth="1" NCoef="0" IVar="4" Cut="1.7483763122558594e+02" cType="1" res="-3.9762485772371292e-02" rms="4.4727692008018494e-01" purity="4.2321699857711792e-01" nType="0">
          <Node pos="l" depth="2" NCoef="0" IVar="-1" Cut="0.0000000000000000e+00" cType="1" res="-3.9116255356930196e-04" rms="4.4814914464950562e-01" purity="4.5388874411582947e-01" nType="-99"/>
          <Node pos="r" depth="2" NCoef="0" IVar="-1" Cut="0.0000000000000000e+00" cType="1" res="-3.0238188337534666e-03" rms="4.3070968985557556e-01" purity="2.9038918018341064e-01" nType="-99"/>
        </Node>
        <Node pos="r" depth="1" NCoef="0" IVar="1" Cut="1.4810679626464844e+02" cType="1" res="2.7464671060442924e-02" rms="4.3664625287055969e-01" purity="5.6326133012771606e-01" nType="0">
          <Node pos="l" depth="2" NCoef="0" IVar="-1" Cut="0.0000000000000000e+00" cType="1" res="1.1720769107341766e-03" rms="4.3530955910682678e-01" purity="5.9608674049377441e-01" nType="-99"/>
          <Node pos="r" depth="2" NCoef="0" IVar="-1" Cut="0.0000000000000000e+00" cType="1" res="-2.4567528162151575e-03" rms="4.1999277472496033e-01" purity="3.6475157737731934e-01" nType="-99"/>
        </Node>
      </Node>
    </BinaryTree>
    <BinaryTree type="DecisionTree" boostWeight="1.0000000000000000e+00" itree="417">
      <Node pos="s" depth="0" NCoef="0" IVar="6" Cut="6.6372436523437500e+02" cType="1" res="1.3708036392927170e-02" rms="4.5072945952415466e-01" purity="5.1642215251922607e-01" nType="0">
        <Node pos="l" depth="1" NCoef="0" IVar="6" Cut="2.6588983154296875e+02" cType="1" res="5.8815797092393041e-04" rms="4.5254221558570862e-01" purity="4.9178278446197510e-01" nType="0">
          <Node pos="l" depth="2" NCoef="0" IVar="-1" Cut="0.0000000000000000e+00" cType="1" res="-3.5537225194275379e-03" rms="3.7579032778739929e-01" purity="2.1339531242847443e-01" nType="-99"/>
          <Node pos="r" depth="2" NCoef="0" IVar="-1" Cut="0.0000000000000000e+00" cType="1" res="2.7620937908068299e-04" rms="4.5567497611045837e-01" purity="5.1285433769226074e-01" nType="-99"/>
        </Node>
        <Node pos="r" depth="1" NCoef="0" IVar="-1" Cut="0.0000000000000000e+00" cType="1" res="3.2558755483478308e-03" rms="4.1421020030975342e-01" purity="7.4493092298507690e-01" nType="-99"/>
      </Node>
    </BinaryTree>
    <BinaryTree type="DecisionTree" boostWeight="1.0000000000000000e+00" itree="418">
      <Node pos="s" depth="0" NCoef="0" IVar="5" Cut="1.7049865424633026e-01" cType="1" res="-1.0988718830049038e-02" rms="4.4357815384864807e-01" purity="4.9895173311233521e-01" nType="0">
        <Node pos="l" depth="1" NCoef="0" IVar="5" Cut="1.2838239967823029e-01" cType="1" res="-8.2141146063804626e-02" rms="4.1169211268424988e-01" purity="2.8781056404113770e-01" nType="0">
          <Node pos="l" depth="2" NCoef="0" IVar="-1" Cut="0.0000000000000000e+00" cType="1" res="-1.4832220040261745e-04" rms="4.3852281570434570e-01" purity="3.5424718260765076e-01" nType="-99"/>
          <Node pos="r" depth="2" NCoef="0" IVar="-1" Cut="0.0000000000000000e+00" cType="1" res="-4.1305585764348507e-03" rms="3.5191258788108826e-01" purity="2.0349931716918945e-01" nType="-99"/>
        </Node>
        <Node pos="r" depth="1" NCoef="0" IVar="0" Cut="7.2514495849609375e+00" cType="1" res="-6.4861337887123227e-04" rms="4.4708171486854553e-01" purity="5.2963548898696899e-01" nType="0">
          <Node pos="l" depth="2" NCoef="0" IVar="-1" Cut="0.0000000000000000e+00" cType="1" res="-4.7692505177110434e-04" rms="4.5609283447265625e-01" purity="4.0685108304023743e-01" nType="-99"/>
          <Node pos="r" depth="2" NCoef="0" IVar="-1" Cut="0.0000000000000000e+00" cType="1" res="7.0900871651247144e-04" rms="4.3297737836837769e-01" purity="6.9466423988342285e-01" nType="-99"/>
        </Node>
      </Node>
    </BinaryTree>
    <BinaryTree type="DecisionTree" boostWeight="1.0000000000000000e+00" itree="419">
      <Node pos="s" depth="0" NCoef="0" IVar="5" Cut="6.1763924360275269e-01" cType="1" res="9.2217605561017990e-03" rms="4.4960686564445496e-01" purity="5.1724576950073242e-01" nType="0">
        <Node pos="l" depth="1" NCoef="0" IVar="3" Cut="1.9658091068267822e+00" cType="1" res="-5.5534313432872295e-03" rms="4.4955843687057495e-01" purity="4.8544275760650635e-01" nType="0">
          <Node pos="l" depth="2" NCoef="0" IVar="-1" Cut="0.0000000000000000e+00" cType="1" res="1.4614746905863285e-03" rms="4.3895101547241211e-01" purity="6.4436203241348267e-01" nType="-99"/>
          <Node pos="r" depth="2" NCoef="0" IVar="-1" Cut="0.0000000000000000e+00" cType="1" res="-5.6276319082826376e-04" rms="4.5056888461112976e-01" purity="4.4224137067794800e-01" nType="-99"/>
        </Node>
        <Node pos="r" depth="1" NCoef="0" IVar="6" Cut="3.3744659423828125e+02" cType="1" res="8.8427133858203888e-02" rms="4.4151559472084045e-01" purity="6.8773216009140015e-01" nType="0">
          <Node pos="l" depth="2" NCoef="0" IVar="-1" Cut="0.0000000000000000e+00" cType="1" res="3.0609271489083767e-03" rms="4.6744239330291748e-01" purity="6.8478614091873169e-01" nType="-99"/>
          <Node pos="r" depth="2" NCoef="0" IVar="-1" Cut="0.0000000000000000e+00" cType="1" res="1.2158862082287669e-03" rms="4.1658329963684082e-01" purity="6.8994909524917603e-01" nType="-99"/>
        </Node>
      </Node>
    </BinaryTree>
    <BinaryTree type="DecisionTree" boostWeight="1.0000000000000000e+00" itree="420">
      <Node pos="s" depth="0" NCoef="0" IVar="5" Cut="3.6598545312881470e-01" cType="1" res="-4.8306817188858986e-03" rms="4.5031389594078064e-01" purity="4.9186757206916809e-01" nType="0">
        <Node pos="l" depth="1" NCoef="0" IVar="6" Cut="6.1572784423828125e+02" cType="1" res="-4.1579511016607285e-02" rms="4.3768361210823059e-01" purity="3.9708182215690613e-01" nType="0">
          <Node pos="l" depth="2" NCoef="0" IVar="-1" Cut="0.0000000000000000e+00" cType="1" res="-1.4219731092453003e-03" rms="4.2886328697204590e-01" purity="3.5965812206268311e-01" nType="-99"/>
          <Node pos="r" depth="2" NCoef="0" IVar="-1" Cut="0.0000000000000000e+00" cType="1" res="1.7799458000808954e-03" rms="4.6726539731025696e-01" purity="6.0900861024856567e-01" nType="-99"/>
        </Node>
        <Node pos="r" depth="1" NCoef="0" IVar="4" Cut="1.6828674316406250e+02" cType="1" res="2.6590615510940552e-02" rms="4.5850878953933716e-01" purity="5.7291209697723389e-01" nType="0">
          <Node pos="l" depth="2" NCoef="0" IVar="-1" Cut="0.0000000000000000e+00" cType="1" res="1.2481416342779994e-03" rms="4.5878767967224121e-01" purity="6.0198891162872314e-01" nType="-99"/>
          <Node pos="r" depth="2" NCoef="0" IVar="-1" Cut="0.0000000000000000e+00" cType="1" res="-1.3433548156172037e-03" rms="4.4656595587730408e-01" purity="4.8277273774147034e-01" nType="-99"/>
        </Node>
      </Node>
    </BinaryTree>
    <BinaryTree type="DecisionTree" boostWeight="1.0000000000000000e+00" itree="421">
      <Node pos="s" depth="0" NCoef="0" IVar="4" Cut="3.2411016845703125e+02" cType="1" res="1.5824900940060616e-02" rms="4.4285154342651367e-01" purity="5.2090042829513550e-01" nType="0">
        <Node pos="l" depth="1" NCoef="0" IVar="0" Cut="5.7831192016601562e+00" cType="1" res="2.5936964899301529e-02" rms="4.4343170523643494e-01" purity="5.3532010316848755e-01" nType="0">
          <Node pos="l" depth="2" NCoef="0" IVar="-1" Cut="0.0000000000000000e+00" cType="1" res="-9.4072840875014663e-04" rms="4.2160251736640930e-01" purity="2.6456013321876526e-01" nType="-99"/>
          <Node pos="r" depth="2" NCoef="0" IVar="-1" Cut="0.0000000000000000e+00" cType="1" res="1.0854788124561310e-03" rms="4.4811943173408508e-01" purity="6.2218958139419556e-01" nType="-99"/>
        </Node>
        <Node pos="r" depth="1" NCoef="0" IVar="-1" Cut="0.0000000000000000e+00" cType="1" res="-2.8891041874885559e-03" rms="4.1098788380622864e-01" purity="3.2517650723457336e-01" nType="-99"/>
      </Node>
    </BinaryTree>
    <BinaryTree type="DecisionTree" boostWeight="1.0000000000000000e+00" itree="422">
      <Node pos="s" depth="0" NCoef="0" IVar="3" Cut="2.6213798522949219e+00" cType="1" res="4.7118831425905228e-03" rms="4.4405871629714966e-01" purity="4.9620985984802246e-01" nType="0">
        <Node pos="l" depth="1" NCoef="0" IVar="5" Cut="6.2747919559478760e-01" cType="1" res="1.7238225787878036e-02" rms="4.5349761843681335e-01" purity="5.3718900680541992e-01" nType="0">
          <Node pos="l" depth="2" NCoef="0" IVar="-1" Cut="0.0000000000000000e+00" cType="1" res="7.8110482718329877e-05" rms="4.5427292585372925e-01" purity="5.1472109556198120e-01" nType="-99"/>
          <Node pos="r" depth="2" NCoef="0" IVar="-1" Cut="0.0000000000000000e+00" cType="1" res="2.2069476544857025e-03" rms="4.4029799103736877e-01" purity="6.6916686296463013e-01" nType="-99"/>
        </Node>
        <Node pos="r" depth="1" NCoef="0" IVar="2" Cut="1.6388325691223145e+00" cType="1" res="-1.0367530584335327e-01" rms="3.3283182978630066e-01" purity="1.4162780344486237e-01" nType="0">
          <Node pos="l" depth="2" NCoef="0" IVar="-1" Cut="0.0000000000000000e+00" cType="1" res="-3.0255510937422514e-03" rms="3.5481083393096924e-01" purity="1.6119387745857239e-01" nType="-99"/>
          <Node pos="r" depth="2" NCoef="0" IVar="-1" Cut="0.0000000000000000e+00" cType="1" res="-2.5035797152668238e-03" rms="3.0749434232711792e-01" purity="1.2149624526500702e-01" nType="-99"/>
        </Node>
      </Node>
    </BinaryTree>
    <BinaryTree type="DecisionTree" boostWeight="1.0000000000000000e+00" itree="423">
      <Node pos="s" depth="0" NCoef="0" IVar="0" Cut="5.8512048721313477e+00" cType="1" res="1.0009578429162502e-02" rms="4.4888743758201599e-01" purity="4.9774509668350220e-01" nType="0">
        <Node pos="l" depth="1" NCoef="0" IVar="3" Cut="2.2057764530181885e+00" cType="1" res="-5.2182983607053757e-02" rms="4.0303885936737061e-01" purity="2.5052905082702637e-01" nType="0">
          <Node pos="l" depth="2" NCoef="0" IVar="-1" Cut="0.0000000000000000e+00" cType="1" res="-1.1479188833618537e-04" rms="4.6188157796859741e-01" purity="3.6943995952606201e-01" nType="-99"/>
          <Node pos="r" depth="2" NCoef="0" IVar="-1" Cut="0.0000000000000000e+00" cType="1" res="-2.5769132189452648e-03" rms="3.2906889915466309e-01" purity="1.3378953933715820e-01" nType="-99"/>
        </Node>
        <Node pos="r" depth="1" NCoef="0" IVar="1" Cut="1.4031138610839844e+02" cType="1" res="3.0004398897290230e-02" rms="4.6088415384292603e-01" purity="5.7722467184066772e-01" nType="0">
          <Node pos="l" depth="2" NCoef="0" IVar="-1" Cut="0.0000000000000000e+00" cType="1" res="9.9501956719905138e-04" rms="4.5829823613166809e-01" purity="5.8962756395339966e-01" nType="-99"/>
          <Node pos="r" depth="2" NCoef="0" IVar="-1" Cut="0.0000000000000000e+00" cType="1" res="-2.9353124555200338e-03" rms="4.6002823114395142e-01" purity="4.3610176444053650e-01" nType="-99"/>
        </Node>
      </Node>
    </BinaryTree>
    <BinaryTree type="DecisionTree" boostWeight="1.0000000000000000e+00" itree="424">
      <Node pos="s" depth="0" NCoef="0" IVar="3" Cut="2.1627683639526367e+00" cType="1" res="-4.8080938868224621e-03" rms="4.5702263712882996e-01" purity="4.9237686395645142e-01" nType="0">
        <Node pos="l" depth="1" NCoef="0" IVar="0" Cut="7.6343541145324707e+00" cType="1" res="3.2981395721435547e-02" rms="4.6086660027503967e-01" purity="6.1619049310684204e-01" nType="0">
          <Node pos="l" depth="2" NCoef="0" IVar="-1" Cut="0.0000000000000000e+00" cType="1" res="1.8246805993840098e-03" rms="4.5472568273544312e-01" purity="5.8758711814880371e-01" nType="-99"/>
          <Node pos="r" depth="2" NCoef="0" IVar="-1" Cut="0.0000000000000000e+00" cType="1" res="-1.7858769278973341e-03" rms="4.5567220449447632e-01" purity="6.6991710662841797e-01" nType="-99"/>
        </Node>
        <Node pos="r" depth="1" NCoef="0" IVar="3" Cut="2.4854226112365723e+00" cType="1" res="-4.2228326201438904e-02" rms="4.5006832480430603e-01" purity="3.6977314949035645e-01" nType="0">
          <Node pos="l" depth="2" NCoef="0" IVar="-1" Cut="0.0000000000000000e+00" cType="1" res="-1.5961846802383661e-03" rms="4.5256507396697998e-01" purity="4.0540075302124023e-01" nType="-99"/>
          <Node pos="r" depth="2" NCoef="0" IVar="-1" Cut="0.0000000000000000e+00" cType="1" res="4.0432723471894860e-04" rms="4.3938100337982178e-01" purity="3.0204838514328003e-01" nType="-99"/>
        </Node>
      </Node>
    </BinaryTree>
    <BinaryTree type="DecisionTree" boostWeight="1.0000000000000000e+00" itree="425">
      <Node pos="s" depth="0" NCoef="0" IVar="4" Cut="1.7241783142089844e+02" cType="1" res="1.3276249170303345e-02" rms="4.5451742410659790e-01" purity="5.1269859075546265e-01" nType="0">
        <Node pos="l" depth="1" NCoef="0" IVar="0" Cut="5.0473117828369141e+00" cType="1" res="3.9434943348169327e-02" rms="4.5206776261329651e-01" purity="5.4305070638656616e-01" nType="0">
          <Node pos="l" depth="2" NCoef="0" IVar="-1" Cut="0.0000000000000000e+00" cType="1" res="-1.2377768289297819e-03" rms="4.3580880761146545e-01" purity="2.4191406369209290e-01" nType="-99"/>
          <Node pos="r" depth="2" NCoef="0" IVar="-1" Cut="0.0000000000000000e+00" cType="1" res="1.1479847598820925e-03" rms="4.5255088806152344e-01" purity="5.7818645238876343e-01" nType="-99"/>
        </Node>
        <Node pos="r" depth="1" NCoef="0" IVar="6" Cut="4.5836825561523438e+02" cType="1" res="-6.3768044114112854e-02" rms="4.5296344161033630e-01" purity="4.2330375313758850e-01" nType="0">
          <Node pos="l" depth="2" NCoef="0" IVar="-1" Cut="0.0000000000000000e+00" cType="1" res="-3.3384091220796108e-03" rms="4.4853216409683228e-01" purity="2.9010337591171265e-01" nType="-99"/>
          <Node pos="r" depth="2" NCoef="0" IVar="-1" Cut="0.0000000000000000e+00" cType="1" res="9.6393009880557656e-04" rms="4.3618157505989075e-01" purity="5.8458685874938965e-01" nType="-99"/>
        </Node>
      </Node>
    </BinaryTree>
    <BinaryTree type="DecisionTree" boostWeight="1.0000000000000000e+00" itree="426">
      <Node pos="s" depth="0" NCoef="0" IVar="3" Cut="1.7551163434982300e+00" cType="1" res="1.4186661690473557e-02" rms="4.5366469025611877e-01" purity="5.2225250005722046e-01" nType="0">
        <Node pos="l" depth="1" NCoef="0" IVar="-1" Cut="0.0000000000000000e+00" cType="1" res="-2.3934282362461090e-03" rms="4.7234311699867249e-01" purity="3.8816404342651367e-01" nType="-99"/>
        <Node pos="r" depth="1" NCoef="0" IVar="3" Cut="2.1147339344024658e+00" cType="1" res="2.3161955177783966e-02" rms="4.5096567273139954e-01" purity="5.3126496076583862e-01" nType="0">
          <Node pos="l" depth="2" NCoef="0" IVar="-1" Cut="0.0000000000000000e+00" cType="1" res="1.7666940111666918e-03" rms="4.5810487866401672e-01" purity="6.7579787969589233e-01" nType="-99"/>
          <Node pos="r" depth="2" NCoef="0" IVar="-1" Cut="0.0000000000000000e+00" cType="1" res="-3.2171848579309881e-04" rms="4.4207119941711426e-01" purity="4.2895865440368652e-01" nType="-99"/>
        </Node>
      </Node>
    </BinaryTree>
    <BinaryTree type="DecisionTree" boostWeight="1.0000000000000000e+00" itree="427">
      <Node pos="s" depth="0" NCoef="0" IVar="0" Cut="8.4361667633056641e+00" cType="1" res="-7.1053062565624714e-03" rms="4.5127335190773010e-01" purity="4.8819673061370850e-01" nType="0">
        <Node pos="l" depth="1" NCoef="0" IVar="2" Cut="9.2155629396438599e-01" cType="1" res="-1.9359575584530830e-02" rms="4.5734575390815735e-01" purity="4.4512924551963806e-01" nType="0">
          <Node pos="l" depth="2" NCoef="0" IVar="-1" Cut="0.0000000000000000e+00" cType="1" res="3.8580974796786904e-04" rms="4.7281378507614136e-01" purity="6.0161536931991577e-01" nType="-99"/>
          <Node pos="r" depth="2" NCoef="0" IVar="-1" Cut="0.0000000000000000e+00" cType="1" res="-1.0038252221420407e-03" rms="4.4457802176475525e-01" purity="3.3697378635406494e-01" nType="-99"/>
        </Node>
        <Node pos="r" depth="1" NCoef="0" IVar="1" Cut="7.1308921813964844e+01" cType="1" res="7.8176431357860565e-02" rms="3.9614579081535339e-01" purity="7.8791862726211548e-01" nType="0">
          <Node pos="l" depth="2" NCoef="0" IVar="-1" Cut="0.0000000000000000e+00" cType="1" res="8.2297330664005131e-05" rms="4.3820211291313171e-01" purity="7.0570635795593262e-01" nType="-99"/>
          <Node pos="r" depth="2" NCoef="0" IVar="-1" Cut="0.0000000000000000e+00" cType="1" res="4.1360943578183651e-03" rms="3.4104257822036743e-01" purity="8.6099076271057129e-01" nType="-99"/>
        </Node>
      </Node>
    </BinaryTree>
    <BinaryTree type="DecisionTree" boostWeight="1.0000000000000000e+00" itree="428">
      <Node pos="s" depth="0" NCoef="0" IVar="0" Cut="5.9765238761901855e+00" cType="1" res="-1.1012078262865543e-02" rms="4.5575729012489319e-01" purity="4.9325764179229736e-01" nType="0">
        <Node pos="l" depth="1" NCoef="0" IVar="4" Cut="1.0322428131103516e+02" cType="1" res="-5.2992302924394608e-02" rms="4.2783612012863159e-01" purity="2.8083056211471558e-01" nType="0">
          <Node pos="l" depth="2" NCoef="0" IVar="-1" Cut="0.0000000000000000e+00" cType="1" res="1.0838387970579788e-04" rms="4.4185996055603027e-01" purity="3.4307354688644409e-01" nType="-99"/>
          <Node pos="r" depth="2" NCoef="0" IVar="-1" Cut="0.0000000000000000e+00" cType="1" res="-2.6883548125624657e-03" rms="3.9902862906455994e-01" purity="2.0542466640472412e-01" nType="-99"/>
        </Node>
        <Node pos="r" depth="1" NCoef="0" IVar="5" Cut="5.4189777374267578e-01" cType="1" res="5.1591601222753525e-03" rms="4.6505680680274963e-01" purity="5.7508683204650879e-01" nType="0">
          <Node pos="l" depth="2" NCoef="0" IVar="-1" Cut="0.0000000000000000e+00" cType="1" res="6.7980150924995542e-04" rms="4.5627063512802124e-01" purity="5.7340401411056519e-01" nType="-99"/>
          <Node pos="r" depth="2" NCoef="0" IVar="-1" Cut="0.0000000000000000e+00" cType="1" res="-1.3669490581378341e-03" rms="4.8143178224563599e-01" purity="5.7948684692382812e-01" nType="-99"/>
        </Node>
      </Node>
    </BinaryTree>
    <BinaryTree type="DecisionTree" boostWeight="1.0000000000000000e+00" itree="429">
      <Node pos="s" depth="0" NCoef="0" IVar="3" Cut="2.7261431217193604e+00" cType="1" res="-9.1055035591125488e-03" rms="4.5232227444648743e-01" purity="4.8615929484367371e-01" nType="0">
        <Node pos="l" depth="1" NCoef="0" IVar="1" Cut="4.2483428955078125e+01" cType="1" res="-3.1073861755430698e-03" rms="4.5790404081344604e-01" purity="5.0680166482925415e-01" nType="0">
          <Node pos="l" depth="2" NCoef="0" IVar="-1" Cut="0.0000000000000000e+00" cType="1" res="-1.1781606590375304e-03" rms="4.3866622447967529e-01" purity="3.6375695466995239e-01" nType="-99"/>
          <Node pos="r" depth="2" NCoef="0" IVar="-1" Cut="0.0000000000000000e+00" cType="1" res="1.8651691789273173e-04" rms="4.6122080087661743e-01" purity="5.3806543350219727e-01" nType="-99"/>
        </Node>
        <Node pos="r" depth="1" NCoef="0" IVar="-1" Cut="0.0000000000000000e+00" cType="1" res="-3.0349369626492262e-03" rms="3.2836902141571045e-01" purity="1.3723237812519073e-01" nType="-99"/>
      </Node>
    </BinaryTree>
    <BinaryTree type="DecisionTree" boostWeight="1.0000000000000000e+00" itree="430">
      <Node pos="s" depth="0" NCoef="0" IVar="3" Cut="2.2481632232666016e+00" cType="1" res="4.1791773401200771e-03" rms="4.5509290695190430e-01" purity="5.0342869758605957e-01" nType="0">
        <Node pos="l" depth="1" NCoef="0" IVar="3" Cut="1.7502006292343140e+00" cType="1" res="3.6253735423088074e-02" rms="4.5852282643318176e-01" purity="6.0906690359115601e-01" nType="0">
          <Node pos="l" depth="2" NCoef="0" IVar="-1" Cut="0.0000000000000000e+00" cType="1" res="-2.3237105924636126e-03" rms="4.2714974284172058e-01" purity="4.2274168133735657e-01" nType="-99"/>
          <Node pos="r" depth="2" NCoef="0" IVar="-1" Cut="0.0000000000000000e+00" cType="1" res="1.1388664133846760e-03" rms="4.5904782414436340e-01" purity="6.2722599506378174e-01" nType="-99"/>
        </Node>
        <Node pos="r" depth="1" NCoef="0" IVar="1" Cut="7.3098770141601562e+01" cType="1" res="-4.3996386229991913e-02" rms="4.4557467103004456e-01" purity="3.4476146101951599e-01" nType="0">
          <Node pos="l" depth="2" NCoef="0" IVar="-1" Cut="0.0000000000000000e+00" cType="1" res="-2.9635217506438494e-03" rms="3.7495526671409607e-01" purity="2.0919847488403320e-01" nType="-99"/>
          <Node pos="r" depth="2" NCoef="0" IVar="-1" Cut="0.0000000000000000e+00" cType="1" res="7.3944269388448447e-05" rms="4.7441983222961426e-01" purity="4.2131447792053223e-01" nType="-99"/>
        </Node>
      </Node>
    </BinaryTree>
    <BinaryTree type="DecisionTree" boostWeight="1.0000000000000000e+00" itree="431">
      <Node pos="s" depth="0" NCoef="0" IVar="0" Cut="7.4080471992492676e+00" cType="1" res="-1.3404189608991146e-02" rms="4.5318678021430969e-01" purity="4.9167713522911072e-01" nType="0">
        <Node pos="l" depth="1" NCoef="0" IVar="0" Cut="6.1916146278381348e+00" cType="1" res="-4.0676202625036240e-02" rms="4.5545399188995361e-01" purity="3.8032406568527222e-01" nType="0">
          <Node pos="l" depth="2" NCoef="0" IVar="-1" Cut="0.0000000000000000e+00" cType="1" res="-1.2656561739277095e-04" rms="4.4991543889045715e-01" purity="3.4191638231277466e-01" nType="-99"/>
          <Node pos="r" depth="2" NCoef="0" IVar="-1" Cut="0.0000000000000000e+00" cType="1" res="-1.5690375585108995e-03" rms="4.5824339985847473e-01" purity="4.1785073280334473e-01" nType="-99"/>
        </Node>
        <Node pos="r" depth="1" NCoef="0" IVar="2" Cut="1.2498906850814819e+00" cType="1" res="3.6747325211763382e-02" rms="4.4464254379272461e-01" purity="6.9644850492477417e-01" nType="0">
          <Node pos="l" depth="2" NCoef="0" IVar="-1" Cut="0.0000000000000000e+00" cType="1" res="3.2717338763177395e-04" rms="4.3077719211578369e-01" purity="7.3045170307159424e-01" nType="-99"/>
          <Node pos="r" depth="2" NCoef="0" IVar="-1" Cut="0.0000000000000000e+00" cType="1" res="2.5095688179135323e-03" rms="4.7868913412094116e-01" purity="5.8481228351593018e-01" nType="-99"/>
        </Node>
      </Node>
    </BinaryTree>
    <BinaryTree type="DecisionTree" boostWeight="1.0000000000000000e+00" itree="432">
      <Node pos="s" depth="0" NCoef="0" IVar="2" Cut="7.0356476306915283e-01" cType="1" res="-3.7661736132577062e-04" rms="4.5652505755424500e-01" purity="5.1225978136062622e-01" nType="0">
        <Node pos="l" depth="1" NCoef="0" IVar="0" Cut="8.0142736434936523e+00" cType="1" res="-7.1143962442874908e-02" rms="4.5987471938133240e-01" purity="5.7646024227142334e-01" nType="0">
          <Node pos="l" depth="2" NCoef="0" IVar="-1" Cut="0.0000000000000000e+00" cType="1" res="-2.6422543451189995e-03" rms="4.8297068476676941e-01" purity="4.7102633118629456e-01" nType="-99"/>
          <Node pos="r" depth="2" NCoef="0" IVar="-1" Cut="0.0000000000000000e+00" cType="1" res="2.2962065413594246e-03" rms="3.5478180646896362e-01" purity="8.5483747720718384e-01" nType="-99"/>
        </Node>
        <Node pos="r" depth="1" NCoef="0" IVar="2" Cut="1.2483925819396973e+00" cType="1" res="2.0590478554368019e-02" rms="4.5341178774833679e-01" purity="4.9323827028274536e-01" nType="0">
          <Node pos="l" depth="2" NCoef="0" IVar="-1" Cut="0.0000000000000000e+00" cType="1" res="9.9891284480690956e-04" rms="4.5836338400840759e-01" purity="5.8792209625244141e-01" nType="-99"/>
          <Node pos="r" depth="2" NCoef="0" IVar="-1" Cut="0.0000000000000000e+00" cType="1" res="-7.0065847830846906e-04" rms="4.3820568919181824e-01" purity="2.8963539004325867e-01" nType="-99"/>
        </Node>
      </Node>
    </BinaryTree>
    <BinaryTree type="DecisionTree" boostWeight="1.0000000000000000e+00" itree="433">
      <Node pos="s" depth="0" NCoef="0" IVar="2" Cut="7.5815558433532715e-01" cType="1" res="1.0257801972329617e-02" rms="4.5752319693565369e-01" purity="5.0441712141036987e-01" nType="0">
        <Node pos="l" depth="1" NCoef="0" IVar="2" Cut="6.7901581525802612e-01" cType="1" res="-5.5925223976373672e-02" rms="4.5880708098411560e-01" purity="5.6678283214569092e-01" nType="0">
          <Node pos="l" depth="2" NCoef="0" IVar="-1" Cut="0.0000000000000000e+00" cType="1" res="-5.3509935969486833e-04" rms="4.5374375581741333e-01" purity="6.0676413774490356e-01" nType="-99"/>
          <Node pos="r" depth="2" NCoef="0" IVar="-1" Cut="0.0000000000000000e+00" cType="1" res="-2.7901038993149996e-03" rms="4.6183770895004272e-01" purity="4.8361256718635559e-01" nType="-99"/>
        </Node>
        <Node pos="r" depth="1" NCoef="0" IVar="3" Cut="2.7032780647277832e+00" cType="1" res="3.3771470189094543e-02" rms="4.5475313067436218e-01" purity="4.8225969076156616e-01" nType="0">
          <Node pos="l" depth="2" NCoef="0" IVar="-1" Cut="0.0000000000000000e+00" cType="1" res="1.0418873280286789e-03" rms="4.6234223246574402e-01" purity="5.1418882608413696e-01" nType="-99"/>
          <Node pos="r" depth="2" NCoef="0" IVar="-1" Cut="0.0000000000000000e+00" cType="1" res="-2.6357094757258892e-03" rms="3.3784687519073486e-01" purity="1.4436668157577515e-01" nType="-99"/>
        </Node>
      </Node>
    </BinaryTree>
    <BinaryTree type="DecisionTree" boostWeight="1.0000000000000000e+00" itree="434">
      <Node pos="s" depth="0" NCoef="0" IVar="3" Cut="2.4165024757385254e+00" cType="1" res="-8.6461789906024933e-03" rms="4.5091405510902405e-01" purity="5.0087976455688477e-01" nType="0">
        <Node pos="l" depth="1" NCoef="0" IVar="0" Cut="9.1309480667114258e+00" cType="1" res="9.7917653620243073e-03" rms="4.6133825182914734e-01" purity="5.6994110345840454e-01" nType="0">
          <Node pos="l" depth="2" NCoef="0" IVar="-1" Cut="0.0000000000000000e+00" cType="1" res="4.9414398381486535e-04" rms="4.5710155367851257e-01" purity="5.6364142894744873e-01" nType="-99"/>
          <Node pos="r" depth="2" NCoef="0" IVar="-1" Cut="0.0000000000000000e+00" cType="1" res="-4.0963315404951572e-03" rms="4.8434433341026306e-01" purity="6.4509576559066772e-01" nType="-99"/>
        </Node>
        <Node pos="r" depth="1" NCoef="0" IVar="4" Cut="2.0510676574707031e+02" cType="1" res="-8.3555661141872406e-02" rms="3.9710929989814758e-01" purity="2.2029834985733032e-01" nType="0">
          <Node pos="l" depth="2" NCoef="0" IVar="-1" Cut="0.0000000000000000e+00" cType="1" res="-1.1062471894547343e-03" rms="4.2374703288078308e-01" purity="2.6264852285385132e-01" nType="-99"/>
          <Node pos="r" depth="2" NCoef="0" IVar="-1" Cut="0.0000000000000000e+00" cType="1" res="-4.2046606540679932e-03" rms="3.2098612189292908e-01" purity="1.3281883299350739e-01" nType="-99"/>
        </Node>
      </Node>
    </BinaryTree>
    <BinaryTree type="DecisionTree" boostWeight="1.0000000000000000e+00" itree="435">
      <Node pos="s" depth="0" NCoef="0" IVar="6" Cut="6.0908972167968750e+02" cType="1" res="3.6901410203427076e-03" rms="4.4452857971191406e-01" purity="5.2035534381866455e-01" nType="0">
        <Node pos="l" depth="1" NCoef="0" IVar="5" Cut="7.1423935890197754e-01" cType="1" res="-1.6760809347033501e-02" rms="4.4870620965957642e-01" purity="4.8691764473915100e-01" nType="0">
          <Node pos="l" depth="2" NCoef="0" IVar="-1" Cut="0.0000000000000000e+00" cType="1" res="-6.8599916994571686e-04" rms="4.5128846168518066e-01" purity="4.6789279580116272e-01" nType="-99"/>
          <Node pos="r" depth="2" NCoef="0" IVar="-1" Cut="0.0000000000000000e+00" cType="1" res="3.6665773950517178e-03" rms="3.7544330954551697e-01" purity="7.1936249732971191e-01" nType="-99"/>
        </Node>
        <Node pos="r" depth="1" NCoef="0" IVar="3" Cut="2.1266958713531494e+00" cType="1" res="1.3283027708530426e-01" rms="3.9334931969642639e-01" purity="7.3150175809860229e-01" nType="0">
          <Node pos="l" depth="2" NCoef="0" IVar="-1" Cut="0.0000000000000000e+00" cType="1" res="5.8390516787767410e-03" rms="3.3641070127487183e-01" purity="9.0044873952865601e-01" nType="-99"/>
          <Node pos="r" depth="2" NCoef="0" IVar="-1" Cut="0.0000000000000000e+00" cType="1" res="1.0013744467869401e-03" rms="4.2832803726196289e-01" purity="5.5253165960311890e-01" nType="-99"/>
        </Node>
      </Node>
    </BinaryTree>
    <BinaryTree type="DecisionTree" boostWeight="1.0000000000000000e+00" itree="436">
      <Node pos="s" depth="0" NCoef="0" IVar="6" Cut="2.9354797363281250e+02" cType="1" res="-2.8309840708971024e-02" rms="4.5892789959907532e-01" purity="4.8564952611923218e-01" nType="0">
        <Node pos="l" depth="1" NCoef="0" IVar="2" Cut="1.1021933555603027e+00" cType="1" res="-1.2147692590951920e-01" rms="3.8545358180999756e-01" purity="2.7594330906867981e-01" nType="0">
          <Node pos="l" depth="2" NCoef="0" IVar="-1" Cut="0.0000000000000000e+00" cType="1" res="-1.7098196549341083e-03" rms="4.2424198985099792e-01" purity="4.0266659855842590e-01" nType="-99"/>
          <Node pos="r" depth="2" NCoef="0" IVar="-1" Cut="0.0000000000000000e+00" cType="1" res="-4.1654966771602631e-03" rms="3.3575448393821716e-01" purity="1.4323669672012329e-01" nType="-99"/>
        </Node>
        <Node pos="r" depth="1" NCoef="0" IVar="3" Cut="2.5669672489166260e+00" cType="1" res="-1.6423529013991356e-02" rms="4.6613436937332153e-01" purity="5.1240402460098267e-01" nType="0">
          <Node pos="l" depth="2" NCoef="0" IVar="-1" Cut="0.0000000000000000e+00" cType="1" res="-5.9992837486788630e-04" rms="4.6394273638725281e-01" purity="5.2593785524368286e-01" nType="-99"/>
          <Node pos="r" depth="2" NCoef="0" IVar="-1" Cut="0.0000000000000000e+00" cType="1" res="2.3176830727607012e-03" rms="4.7531425952911377e-01" purity="3.7086901068687439e-01" nType="-99"/>
        </Node>
      </Node>
    </BinaryTree>
    <BinaryTree type="DecisionTree" boostWeight="1.0000000000000000e+00" itree="437">
      <Node pos="s" depth="0" NCoef="0" IVar="0" Cut="4.9410896301269531e+00" cType="1" res="-5.9412303380668163e-03" rms="4.4907519221305847e-01" purity="5.0243860483169556e-01" nType="0">
        <Node pos="l" depth="1" NCoef="0" IVar="-1" Cut="0.0000000000000000e+00" cType="1" res="-3.2266615889966488e-03" rms="3.6113050580024719e-01" purity="1.5005825459957123e-01" nType="-99"/>
        <Node pos="r" depth="1" NCoef="0" IVar="0" Cut="9.3152637481689453e+00" cType="1" res="6.8943346850574017e-03" rms="4.5313441753387451e-01" purity="5.3130954504013062e-01" nType="0">
          <Node pos="l" depth="2" NCoef="0" IVar="-1" Cut="0.0000000000000000e+00" cType="1" res="-1.1167547199875116e-04" rms="4.5947054028511047e-01" purity="5.0758904218673706e-01" nType="-99"/>
          <Node pos="r" depth="2" NCoef="0" IVar="-1" Cut="0.0000000000000000e+00" cType="1" res="5.8291945606470108e-03" rms="2.6334112882614136e-01" purity="9.2297214269638062e-01" nType="-99"/>
        </Node>
      </Node>
    </BinaryTree>
    <BinaryTree type="DecisionTree" boostWeight="1.0000000000000000e+00" itree="438">
      <Node pos="s" depth="0" NCoef="0" IVar="2" Cut="6.0327136516571045e-01" cType="1" res="-2.8486605733633041e-03" rms="4.4890141487121582e-01" purity="4.9562451243400574e-01" nType="0">
        <Node pos="l" depth="1" NCoef="0" IVar="2" Cut="4.8093825578689575e-01" cType="1" res="9.3357391655445099e-02" rms="4.2882266640663147e-01" purity="7.3879039287567139e-01" nType="0">
          <Node pos="l" depth="2" NCoef="0" IVar="-1" Cut="0.0000000000000000e+00" cType="1" res="-3.6367069697007537e-04" rms="4.7173473238945007e-01" purity="6.5450829267501831e-01" nType="-99"/>
          <Node pos="r" depth="2" NCoef="0" IVar="-1" Cut="0.0000000000000000e+00" cType="1" res="3.8658422417938709e-03" rms="3.7989005446434021e-01" purity="7.9605662822723389e-01" nType="-99"/>
        </Node>
        <Node pos="r" depth="1" NCoef="0" IVar="4" Cut="6.9173538208007812e+01" cType="1" res="-1.8837857991456985e-02" rms="4.5016396045684814e-01" purity="4.5521095395088196e-01" nType="0">
          <Node pos="l" depth="2" NCoef="0" IVar="-1" Cut="0.0000000000000000e+00" cType="1" res="-1.4104864094406366e-03" rms="4.4853451848030090e-01" purity="4.1545149683952332e-01" nType="-99"/>
          <Node pos="r" depth="2" NCoef="0" IVar="-1" Cut="0.0000000000000000e+00" cType="1" res="2.1863757865503430e-04" rms="4.4893279671669006e-01" purity="4.8064437508583069e-01" nType="-99"/>
        </Node>
      </Node>
    </BinaryTree>
    <BinaryTree type="DecisionTree" boostWeight="1.0000000000000000e+00" itree="439">
      <Node pos="s" depth="0" NCoef="0" IVar="1" Cut="6.4888832092285156e+01" cType="1" res="4.7889936831779778e-04" rms="4.6078053116798401e-01" purity="5.0274920463562012e-01" nType="0">
        <Node pos="l" depth="1" NCoef="0" IVar="5" Cut="3.4043544530868530e-01" cType="1" res="-5.6780938059091568e-02" rms="4.7385269403457642e-01" purity="4.0938705205917358e-01" nType="0">
          <Node pos="l" depth="2" NCoef="0" IVar="-1" Cut="0.0000000000000000e+00" cType="1" res="4.1704901377670467e-04" rms="4.8041379451751709e-01" purity="4.3768644332885742e-01" nType="-99"/>
          <Node pos="r" depth="2" NCoef="0" IVar="-1" Cut="0.0000000000000000e+00" cType="1" res="-2.2537393961101770e-03" rms="4.6322196722030640e-01" purity="3.9132311940193176e-01" nType="-99"/>
        </Node>
        <Node pos="r" depth="1" NCoef="0" IVar="5" Cut="4.2170920968055725e-01" cType="1" res="3.7212438881397247e-02" rms="4.4836151599884033e-01" purity="5.6264317035675049e-01" nType="0">
          <Node pos="l" depth="2" NCoef="0" IVar="-1" Cut="0.0000000000000000e+00" cType="1" res="-7.1079135523177683e-05" rms="4.5522058010101318e-01" purity="4.7651821374893188e-01" nType="-99"/>
          <Node pos="r" depth="2" NCoef="0" IVar="-1" Cut="0.0000000000000000e+00" cType="1" res="2.1249128039926291e-03" rms="4.3405568599700928e-01" purity="6.7244350910186768e-01" nType="-99"/>
        </Node>
      </Node>
    </BinaryTree>
    <BinaryTree type="DecisionTree" boostWeight="1.0000000000000000e+00" itree="440">
      <Node pos="s" depth="0" NCoef="0" IVar="4" Cut="1.9667590332031250e+02" cType="1" res="-2.1267436444759369e-02" rms="4.4662770628929138e-01" purity="4.7859698534011841e-01" nType="0">
        <Node pos="l" depth="1" NCoef="0" IVar="6" Cut="2.7356250000000000e+02" cType="1" res="2.3916773498058319e-03" rms="4.4815003871917725e-01" purity="5.0695353746414185e-01" nType="0">
          <Node pos="l" depth="2" NCoef="0" IVar="-1" Cut="0.0000000000000000e+00" cType="1" res="-2.6907490100711584e-03" rms="4.1407793760299683e-01" purity="2.6263624429702759e-01" nType="-99"/>
          <Node pos="r" depth="2" NCoef="0" IVar="-1" Cut="0.0000000000000000e+00" cType="1" res="4.8430520109832287e-04" rms="4.5013195276260376e-01" purity="5.4375398159027100e-01" nType="-99"/>
        </Node>
        <Node pos="r" depth="1" NCoef="0" IVar="5" Cut="3.1403076648712158e-01" cType="1" res="-1.1264140903949738e-01" rms="4.2860761284828186e-01" purity="3.6908107995986938e-01" nType="0">
          <Node pos="l" depth="2" NCoef="0" IVar="-1" Cut="0.0000000000000000e+00" cType="1" res="-8.5742579540237784e-04" rms="3.9110785722732544e-01" purity="3.8382425904273987e-01" nType="-99"/>
          <Node pos="r" depth="2" NCoef="0" IVar="-1" Cut="0.0000000000000000e+00" cType="1" res="-3.5227239131927490e-03" rms="4.4395464658737183e-01" purity="3.5983926057815552e-01" nType="-99"/>
        </Node>
      </Node>
    </BinaryTree>
    <BinaryTree type="DecisionTree" boostWeight="1.0000000000000000e+00" itree="441">
      <Node pos="s" depth="0" NCoef="0" IVar="4" Cut="3.0224453735351562e+02" cType="1" res="-2.8450224548578262e-02" rms="4.5960080623626709e-01" purity="4.7993314266204834e-01" nType="0">
        <Node pos="l" depth="1" NCoef="0" IVar="1" Cut="7.2991127014160156e+01" cType="1" res="-3.5401780158281326e-02" rms="4.6045166254043579e-01" purity="4.7877308726310730e-01" nType="0">
          <Node pos="l" depth="2" NCoef="0" IVar="-1" Cut="0.0000000000000000e+00" cType="1" res="-2.1207233658060431e-04" rms="4.6435055136680603e-01" purity="4.6382492780685425e-01" nType="-99"/>
          <Node pos="r" depth="2" NCoef="0" IVar="-1" Cut="0.0000000000000000e+00" cType="1" res="-1.3785437913611531e-03" rms="4.5543488860130310e-01" purity="4.9281516671180725e-01" nType="-99"/>
        </Node>
        <Node pos="r" depth="1" NCoef="0" IVar="-1" Cut="0.0000000000000000e+00" cType="1" res="1.1958393733948469e-03" rms="4.4257327914237976e-01" purity="4.9291941523551941e-01" nType="-99"/>
      </Node>
    </BinaryTree>
    <BinaryTree type="DecisionTree" boostWeight="1.0000000000000000e+00" itree="442">
      <Node pos="s" depth="0" NCoef="0" IVar="1" Cut="1.0136511230468750e+02" cType="1" res="2.5378687307238579e-02" rms="4.5893576741218567e-01" purity="5.2929419279098511e-01" nType="0">
        <Node pos="l" depth="1" NCoef="0" IVar="2" Cut="6.2094497680664062e-01" cType="1" res="6.5294122323393822e-03" rms="4.6061933040618896e-01" purity="4.9821034073829651e-01" nType="0">
          <Node pos="l" depth="2" NCoef="0" IVar="-1" Cut="0.0000000000000000e+00" cType="1" res="2.5350379291921854e-03" rms="4.1391688585281372e-01" purity="7.2270697355270386e-01" nType="-99"/>
          <Node pos="r" depth="2" NCoef="0" IVar="-1" Cut="0.0000000000000000e+00" cType="1" res="-3.6316530895419419e-04" rms="4.6706500649452209e-01" purity="4.4940346479415894e-01" nType="-99"/>
        </Node>
        <Node pos="r" depth="1" NCoef="0" IVar="3" Cut="2.3188219070434570e+00" cType="1" res="7.7504195272922516e-02" rms="4.5015689730644226e-01" purity="6.1525291204452515e-01" nType="0">
          <Node pos="l" depth="2" NCoef="0" IVar="-1" Cut="0.0000000000000000e+00" cType="1" res="7.0997624425217509e-04" rms="4.3651011586189270e-01" purity="6.8068432807922363e-01" nType="-99"/>
          <Node pos="r" depth="2" NCoef="0" IVar="-1" Cut="0.0000000000000000e+00" cType="1" res="3.1371046788990498e-03" rms="4.5973122119903564e-01" purity="5.3473103046417236e-01" nType="-99"/>
        </Node>
      </Node>
    </BinaryTree>
    <BinaryTree type="DecisionTree" boostWeight="1.0000000000000000e+00" itree="443">
      <Node pos="s" depth="0" NCoef="0" IVar="0" Cut="5.1032123565673828e+00" cType="1" res="-2.7913257479667664e-02" rms="4.4484797120094299e-01" purity="4.7325873374938965e-01" nType="0">
        <Node pos="l" depth="1" NCoef="0" IVar="-1" Cut="0.0000000000000000e+00" cType="1" res="-3.5399980843067169e-03" rms="3.0471000075340271e-01" purity="1.0409338027238846e-01" nType="-99"/>
        <Node pos="r" depth="1" NCoef="0" IVar="1" Cut="9.6364387512207031e+01" cType="1" res="-1.7625549808144569e-02" rms="4.5317435264587402e-01" purity="5.0432884693145752e-01" nType="0">
          <Node pos="l" depth="2" NCoef="0" IVar="-1" Cut="0.0000000000000000e+00" cType="1" res="-8.8129984214901924e-04" rms="4.5509532094001770e-01" purity="4.6632948517799377e-01" nType="-99"/>
          <Node pos="r" depth="2" NCoef="0" IVar="-1" Cut="0.0000000000000000e+00" cType="1" res="7.3569896630942822e-04" rms="4.4501772522926331e-01" purity="5.8920711278915405e-01" nType="-99"/>
        </Node>
      </Node>
    </BinaryTree>
    <BinaryTree type="DecisionTree" boostWeight="1.0000000000000000e+00" itree="444">
      <Node pos="s" depth="0" NCoef="0" IVar="1" Cut="7.4134902954101562e+01" cType="1" res="-1.8419945612549782e-02" rms="4.4914326071739197e-01" purity="4.8100370168685913e-01" nType="0">
        <Node pos="l" depth="1" NCoef="0" IVar="0" Cut="6.9267930984497070e+00" cType="1" res="-5.1690597087144852e-02" rms="4.5408526062965393e-01" purity="4.2123916745185852e-01" nType="0">
          <Node pos="l" depth="2" NCoef="0" IVar="-1" Cut="0.0000000000000000e+00" cType="1" res="-1.6436796868219972e-03" rms="4.4342556595802307e-01" purity="3.0801934003829956e-01" nType="-99"/>
          <Node pos="r" depth="2" NCoef="0" IVar="-1" Cut="0.0000000000000000e+00" cType="1" res="-3.7042968324385583e-04" rms="4.6610152721405029e-01" purity="5.7844036817550659e-01" nType="-99"/>
        </Node>
        <Node pos="r" depth="1" NCoef="0" IVar="3" Cut="1.9438757896423340e+00" cType="1" res="1.3253730721771717e-02" rms="4.4206690788269043e-01" purity="5.3789961338043213e-01" nType="0">
          <Node pos="l" depth="2" NCoef="0" IVar="-1" Cut="0.0000000000000000e+00" cType="1" res="3.4295984078198671e-03" rms="3.8635295629501343e-01" purity="7.9155755043029785e-01" nType="-99"/>
          <Node pos="r" depth="2" NCoef="0" IVar="-1" Cut="0.0000000000000000e+00" cType="1" res="-6.3641957240179181e-05" rms="4.4635105133056641e-01" purity="5.0484526157379150e-01" nType="-99"/>
        </Node>
      </Node>
    </BinaryTree>
    <BinaryTree type="DecisionTree" boostWeight="1.0000000000000000e+00" itree="445">
      <Node pos="s" depth="0" NCoef="0" IVar="0" Cut="5.0165009498596191e+00" cType="1" res="-2.2800380829721689e-03" rms="4.5676675438880920e-01" purity="5.0183129310607910e-01" nType="0">
        <Node pos="l" depth="1" NCoef="0" IVar="-1" Cut="0.0000000000000000e+00" cType="1" res="-3.6107359919697046e-03" rms="2.9996284842491150e-01" purity="1.0635418444871902e-01" nType="-99"/>
        <Node pos="r" depth="1" NCoef="0" IVar="1" Cut="5.0087524414062500e+01" cType="1" res="1.1396487243473530e-02" rms="4.6512439846992493e-01" purity="5.3546470403671265e-01" nType="0">
          <Node pos="l" depth="2" NCoef="0" IVar="-1" Cut="0.0000000000000000e+00" cType="1" res="-1.2562238844111562e-03" rms="4.7732633352279663e-01" purity="4.1729962825775146e-01" nType="-99"/>
          <Node pos="r" depth="2" NCoef="0" IVar="-1" Cut="0.0000000000000000e+00" cType="1" res="7.3904573218896985e-04" rms="4.5938235521316528e-01" purity="5.7059925794601440e-01" nType="-99"/>
        </Node>
      </Node>
    </BinaryTree>
    <BinaryTree type="DecisionTree" boostWeight="1.0000000000000000e+00" itree="446">
      <Node pos="s" depth="0" NCoef="0" IVar="1" Cut="8.6767318725585938e+01" cType="1" res="-1.8712807446718216e-02" rms="4.5237001776695251e-01" purity="4.7966837882995605e-01" nType="0">
        <Node pos="l" depth="1" NCoef="0" IVar="6" Cut="4.5293383789062500e+02" cType="1" res="-4.9913357943296432e-02" rms="4.5173308253288269e-01" purity="4.2852434515953064e-01" nType="0">
          <Node pos="l" depth="2" NCoef="0" IVar="-1" Cut="0.0000000000000000e+00" cType="1" res="-5.4935051593929529e-04" rms="4.4583207368850708e-01" purity="4.3602836132049561e-01" nType="-99"/>
          <Node pos="r" depth="2" NCoef="0" IVar="-1" Cut="0.0000000000000000e+00" cType="1" res="-2.9852923471480608e-03" rms="4.6039915084838867e-01" purity="4.0324732661247253e-01" nType="-99"/>
        </Node>
        <Node pos="r" depth="1" NCoef="0" IVar="1" Cut="1.4088624572753906e+02" cType="1" res="3.2029367983341217e-02" rms="4.4879528880119324e-01" purity="5.6284517049789429e-01" nType="0">
          <Node pos="l" depth="2" NCoef="0" IVar="-1" Cut="0.0000000000000000e+00" cType="1" res="1.3996659545227885e-03" rms="4.4878497719764709e-01" purity="5.8698022365570068e-01" nType="-99"/>
          <Node pos="r" depth="2" NCoef="0" IVar="-1" Cut="0.0000000000000000e+00" cType="1" res="-1.7443475080654025e-03" rms="4.3275868892669678e-01" purity="4.6492567658424377e-01" nType="-99"/>
        </Node>
      </Node>
    </BinaryTree>
    <BinaryTree type="DecisionTree" boostWeight="1.0000000000000000e+00" itree="447">
      <Node pos="s" depth="0" NCoef="0" IVar="5" Cut="1.5977600216865540e-01" cType="1" res="-2.1086031571030617e-02" rms="4.5317816734313965e-01" purity="4.8166453838348389e-01" nType="0">
        <Node pos="l" depth="1" NCoef="0" IVar="6" Cut="4.7785110473632812e+02" cType="1" res="6.0476720333099365e-02" rms="4.2501738667488098e-01" purity="4.4635891914367676e-01" nType="0">
          <Node pos="l" depth="2" NCoef="0" IVar="-1" Cut="0.0000000000000000e+00" cType="1" res="-1.0284897871315479e-03" rms="3.8225504755973816e-01" purity="2.5894707441329956e-01" nType="-99"/>
          <Node pos="r" depth="2" NCoef="0" IVar="-1" Cut="0.0000000000000000e+00" cType="1" res="4.1900086216628551e-03" rms="4.4031226634979248e-01" purity="6.6173171997070312e-01" nType="-99"/>
        </Node>
        <Node pos="r" depth="1" NCoef="0" IVar="6" Cut="7.4611944580078125e+02" cType="1" res="-3.1898908317089081e-02" rms="4.5568647980690002e-01" purity="4.8634502291679382e-01" nType="0">
          <Node pos="l" depth="2" NCoef="0" IVar="-1" Cut="0.0000000000000000e+00" cType="1" res="-8.6777802789583802e-04" rms="4.5568960905075073e-01" purity="4.7109329700469971e-01" nType="-99"/>
          <Node pos="r" depth="2" NCoef="0" IVar="-1" Cut="0.0000000000000000e+00" cType="1" res="1.6502230428159237e-03" rms="4.4319877028465271e-01" purity="7.1345376968383789e-01" nType="-99"/>
        </Node>
      </Node>
    </BinaryTree>
    <BinaryTree type="DecisionTree" boostWeight="1.0000000000000000e+00" itree="448">
      <Node pos="s" depth="0" NCoef="0" IVar="2" Cut="9.1002726554870605e-01" cType="1" res="1.2277920031920075e-03" rms="4.5114707946777344e-01" purity="4.9129146337509155e-01" nType="0">
        <Node pos="l" depth="1" NCoef="0" IVar="1" Cut="1.0383596801757812e+02" cType="1" res="5.4699845612049103e-02" rms="4.5154073834419250e-01" purity="6.7207121849060059e-01" nType="0">
          <Node pos="l" depth="2" NCoef="0" IVar="-1" Cut="0.0000000000000000e+00" cType="1" res="7.1086216485127807e-04" rms="4.7182387113571167e-01" purity="6.2924546003341675e-01" nType="-99"/>
          <Node pos="r" depth="2" NCoef="0" IVar="-1" Cut="0.0000000000000000e+00" cType="1" res="3.6903875879943371e-03" rms="3.4955281019210815e-01" purity="8.3601355552673340e-01" nType="-99"/>
        </Node>
        <Node pos="r" depth="1" NCoef="0" IVar="3" Cut="2.0140690803527832e+00" cType="1" res="-3.2644424587488174e-02" rms="4.4760474562644958e-01" purity="3.7677532434463501e-01" nType="0">
          <Node pos="l" depth="2" NCoef="0" IVar="-1" Cut="0.0000000000000000e+00" cType="1" res="2.0709647797048092e-03" rms="4.8693355917930603e-01" purity="5.5927312374114990e-01" nType="-99"/>
          <Node pos="r" depth="2" NCoef="0" IVar="-1" Cut="0.0000000000000000e+00" cType="1" res="-1.2145870132371783e-03" rms="4.3818962574005127e-01" purity="3.4946665167808533e-01" nType="-99"/>
        </Node>
      </Node>
    </BinaryTree>
    <BinaryTree type="DecisionTree" boostWeight="1.0000000000000000e+00" itree="449">
      <Node pos="s" depth="0" NCoef="0" IVar="1" Cut="1.3281088256835938e+02" cType="1" res="-8.8776433840394020e-03" rms="4.5375305414199829e-01" purity="4.9930495023727417e-01" nType="0">
        <Node pos="l" depth="1" NCoef="0" IVar="2" Cut="6.4186531305313110e-01" cType="1" res="-1.9158447161316872e-02" rms="4.5504006743431091e-01" purity="4.8544183373451233e-01" nType="0">
          <Node pos="l" depth="2" NCoef="0" IVar="-1" Cut="0.0000000000000000e+00" cType="1" res="1.0443654609844089e-03" rms="4.2761576175689697e-01" purity="6.8781024217605591e-01" nType="-99"/>
          <Node pos="r" depth="2" NCoef="0" IVar="-1" Cut="0.0000000000000000e+00" cType="1" res="-7.6212774729356170e-04" rms="4.5986953377723694e-01" purity="4.3863940238952637e-01" nType="-99"/>
        </Node>
        <Node pos="r" depth="1" NCoef="0" IVar="6" Cut="5.2337475585937500e+02" cType="1" res="7.3481813073158264e-02" rms="4.3461722135543823e-01" purity="6.1036247014999390e-01" nType="0">
          <Node pos="l" depth="2" NCoef="0" IVar="-1" Cut="0.0000000000000000e+00" cType="1" res="2.5274913059547544e-04" rms="4.2470034956932068e-01" purity="4.7785779833793640e-01" nType="-99"/>
          <Node pos="r" depth="2" NCoef="0" IVar="-1" Cut="0.0000000000000000e+00" cType="1" res="2.9602029826492071e-03" rms="4.3564903736114502e-01" purity="7.2693657875061035e-01" nType="-99"/>
        </Node>
      </Node>
    </BinaryTree>
    <BinaryTree type="DecisionTree" boostWeight="1.0000000000000000e+00" itree="450">
      <Node pos="s" depth="0" NCoef="0" IVar="0" Cut="7.5115313529968262e+00" cType="1" res="-1.1008250527083874e-02" rms="4.4297823309898376e-01" purity="5.0429153442382812e-01" nType="0">
        <Node pos="l" depth="1" NCoef="0" IVar="4" Cut="9.6443092346191406e+01" cType="1" res="-5.0181914120912552e-02" rms="4.5919132232666016e-01" purity="3.7709733843803406e-01" nType="0">
          <Node pos="l" depth="2" NCoef="0" IVar="-1" Cut="0.0000000000000000e+00" cType="1" res="-2.3823858646210283e-04" rms="4.7263959050178528e-01" purity="4.2898529767990112e-01" nType="-99"/>
          <Node pos="r" depth="2" NCoef="0" IVar="-1" Cut="0.0000000000000000e+00" cType="1" res="-1.9256795058026910e-03" rms="4.4194230437278748e-01" purity="3.2529333233833313e-01" nType="-99"/>
        </Node>
        <Node pos="r" depth="1" NCoef="0" IVar="3" Cut="2.2767195701599121e+00" cType="1" res="5.7943705469369888e-02" rms="4.0376776456832886e-01" purity="7.2817373275756836e-01" nType="0">
          <Node pos="l" depth="2" NCoef="0" IVar="-1" Cut="0.0000000000000000e+00" cType="1" res="2.4517267011106014e-03" rms="3.7757521867752075e-01" purity="8.1640017032623291e-01" nType="-99"/>
          <Node pos="r" depth="2" NCoef="0" IVar="-1" Cut="0.0000000000000000e+00" cType="1" res="-2.6210132637061179e-04" rms="4.5203775167465210e-01" purity="5.2055251598358154e-01" nType="-99"/>
        </Node>
      </Node>
    </BinaryTree>
    <BinaryTree type="DecisionTree" boostWeight="1.0000000000000000e+00" itree="451">
      <Node pos="s" depth="0" NCoef="0" IVar="5" Cut="2.8919020295143127e-01" cType="1" res="-3.0290702357888222e-02" rms="4.5155870914459229e-01" purity="4.7292646765708923e-01" nType="0">
        <Node pos="l" depth="1" NCoef="0" IVar="5" Cut="2.2794665396213531e-01" cType="1" res="-8.0560788512229919e-02" rms="4.3573206663131714e-01" purity="3.4652251005172729e-01" nType="0">
          <Node pos="l" depth="2" NCoef="0" IVar="-1" Cut="0.0000000000000000e+00" cType="1" res="-3.2666063634678721e-04" rms="4.3392190337181091e-01" purity="3.8281005620956421e-01" nType="-99"/>
          <Node pos="r" depth="2" NCoef="0" IVar="-1" Cut="0.0000000000000000e+00" cType="1" res="-4.4653434306383133e-03" rms="4.0996876358985901e-01" purity="2.7655851840972900e-01" nType="-99"/>
        </Node>
        <Node pos="r" depth="1" NCoef="0" IVar="5" Cut="5.1569056510925293e-01" cType="1" res="-6.7095486447215080e-03" rms="4.5689287781715393e-01" purity="5.3222125768661499e-01" nType="0">
          <Node pos="l" depth="2" NCoef="0" IVar="-1" Cut="0.0000000000000000e+00" cType="1" res="6.3239946030080318e-04" rms="4.4392719864845276e-01" purity="5.4697167873382568e-01" nType="-99"/>
          <Node pos="r" depth="2" NCoef="0" IVar="-1" Cut="0.0000000000000000e+00" cType="1" res="-1.1633124668151140e-03" rms="4.6961277723312378e-01" purity="5.1277595758438110e-01" nType="-99"/>
        </Node>
      </Node>
    </BinaryTree>
    <BinaryTree type="DecisionTree" boostWeight="1.0000000000000000e+00" itree="452">
      <Node pos="s" depth="0" NCoef="0" IVar="0" Cut="6.7991390228271484e+00" cType="1" res="-8.8368551805615425e-03" rms="4.6437975764274597e-01" purity="5.0250840187072754e-01" nType="0">
        <Node pos="l" depth="1" NCoef="0" IVar="0" Cut="5.6681981086730957e+00" cType="1" res="4.3168902397155762e-02" rms="4.6227127313613892e-01" purity="4.3196544051170349e-01" nType="0">
          <Node pos="l" depth="2" NCoef="0" IVar="-1" Cut="0.0000000000000000e+00" cType="1" res="-1.4871770690660924e-04" rms="4.3793892860412598e-01" purity="3.0102223157882690e-01" nType="-99"/>
          <Node pos="r" depth="2" NCoef="0" IVar="-1" Cut="0.0000000000000000e+00" cType="1" res="1.6825161874294281e-03" rms="4.7532176971435547e-01" purity="5.2244412899017334e-01" nType="-99"/>
        </Node>
        <Node pos="r" depth="1" NCoef="0" IVar="0" Cut="8.2330312728881836e+00" cType="1" res="-5.7498600333929062e-02" rms="4.6106189489364624e-01" purity="5.6851547956466675e-01" nType="0">
          <Node pos="l" depth="2" NCoef="0" IVar="-1" Cut="0.0000000000000000e+00" cType="1" res="-2.4096712004393339e-03" rms="4.6683454513549805e-01" purity="4.8040470480918884e-01" nType="-99"/>
          <Node pos="r" depth="2" NCoef="0" IVar="-1" Cut="0.0000000000000000e+00" cType="1" res="1.1715992586687207e-03" rms="4.3239185214042664e-01" purity="7.4442899227142334e-01" nType="-99"/>
        </Node>
      </Node>
    </BinaryTree>
    <BinaryTree type="DecisionTree" boostWeight="1.0000000000000000e+00" itree="453">
      <Node pos="s" depth="0" NCoef="0" IVar="0" Cut="6.4571151733398438e+00" cType="1" res="-2.0751724019646645e-02" rms="4.4812035560607910e-01" purity="4.7408947348594666e-01" nType="0">
        <Node pos="l" depth="1" NCoef="0" IVar="5" Cut="4.0665251016616821e-01" cType="1" res="-6.2224101275205612e-02" rms="4.3490025401115417e-01" purity="2.9774326086044312e-01" nType="0">
          <Node pos="l" depth="2" NCoef="0" IVar="-1" Cut="0.0000000000000000e+00" cType="1" res="-8.4785383660346270e-04" rms="4.1670748591423035e-01" purity="2.8808781504631042e-01" nType="-99"/>
          <Node pos="r" depth="2" NCoef="0" IVar="-1" Cut="0.0000000000000000e+00" cType="1" res="-1.7777594039216638e-03" rms="4.5367947220802307e-01" purity="3.0899783968925476e-01" nType="-99"/>
        </Node>
        <Node pos="r" depth="1" NCoef="0" IVar="5" Cut="4.2574799060821533e-01" cType="1" res="9.9613759666681290e-03" rms="4.5523610711097717e-01" purity="6.0468578338623047e-01" nType="0">
          <Node pos="l" depth="2" NCoef="0" IVar="-1" Cut="0.0000000000000000e+00" cType="1" res="8.9375051902607083e-04" rms="4.4560131430625916e-01" purity="5.8604627847671509e-01" nType="-99"/>
          <Node pos="r" depth="2" NCoef="0" IVar="-1" Cut="0.0000000000000000e+00" cType="1" res="-7.2625634493306279e-04" rms="4.6552866697311401e-01" purity="6.3094621896743774e-01" nType="-99"/>
        </Node>
      </Node>
    </BinaryTree>
    <BinaryTree type="DecisionTree" boostWeight="1.0000000000000000e+00" itree="454">
      <Node pos="s" depth="0" NCoef="0" IVar="4" Cut="3.1218463134765625e+02" cType="1" res="-3.4275015350431204e-03" rms="4.6668252348899841e-01" purity="5.0180023908615112e-01" nType="0">
        <Node pos="l" depth="1" NCoef="0" IVar="0" Cut="6.0269274711608887e+00" cType="1" res="9.9405422806739807e-03" rms="4.6764180064201355e-01" purity="5.2104365825653076e-01" nType="0">
          <Node pos="l" depth="2" NCoef="0" IVar="-1" Cut="0.0000000000000000e+00" cType="1" res="1.6327449120581150e-03" rms="4.7590008378028870e-01" purity="4.1070473194122314e-01" nType="-99"/>
          <Node pos="r" depth="2" NCoef="0" IVar="-1" Cut="0.0000000000000000e+00" cType="1" res="-3.9775390177965164e-04" rms="4.6140858530998230e-01" purity="5.6802272796630859e-01" nType="-99"/>
        </Node>
        <Node pos="r" depth="1" NCoef="0" IVar="-1" Cut="0.0000000000000000e+00" cType="1" res="-3.1946867238730192e-03" rms="4.3224939703941345e-01" purity="2.9988935589790344e-01" nType="-99"/>
      </Node>
    </BinaryTree>
    <BinaryTree type="DecisionTree" boostWeight="1.0000000000000000e+00" itree="455">
      <Node pos="s" depth="0" NCoef="0" IVar="0" Cut="7.6404895782470703e+00" cType="1" res="-7.9357270151376724e-03" rms="4.3836897611618042e-01" purity="4.9447631835937500e-01" nType="0">
        <Node pos="l" depth="1" NCoef="0" IVar="5" Cut="2.2581920027732849e-01" cType="1" res="-3.0988195911049843e-02" rms="4.4396317005157471e-01" purity="4.0259653329849243e-01" nType="0">
          <Node pos="l" depth="2" NCoef="0" IVar="-1" Cut="0.0000000000000000e+00" cType="1" res="-2.3418175987899303e-03" rms="4.0368896722793579e-01" purity="2.4458406865596771e-01" nType="-99"/>
          <Node pos="r" depth="2" NCoef="0" IVar="-1" Cut="0.0000000000000000e+00" cType="1" res="-2.1637522149831057e-04" rms="4.5288398861885071e-01" purity="4.4868224859237671e-01" nType="-99"/>
        </Node>
        <Node pos="r" depth="1" NCoef="0" IVar="1" Cut="6.2709609985351562e+01" cType="1" res="4.5066948980093002e-02" rms="4.2046096920967102e-01" purity="7.0572811365127563e-01" nType="0">
          <Node pos="l" depth="2" NCoef="0" IVar="-1" Cut="0.0000000000000000e+00" cType="1" res="-4.6773679787293077e-04" rms="4.6168208122253418e-01" purity="6.0547953844070435e-01" nType="-99"/>
          <Node pos="r" depth="2" NCoef="0" IVar="-1" Cut="0.0000000000000000e+00" cType="1" res="2.1771402098238468e-03" rms="3.9156410098075867e-01" purity="7.6065057516098022e-01" nType="-99"/>
        </Node>
      </Node>
    </BinaryTree>
    <BinaryTree type="DecisionTree" boostWeight="1.0000000000000000e+00" itree="456">
      <Node pos="s" depth="0" NCoef="0" IVar="0" Cut="5.0518198013305664e+00" cType="1" res="-1.7387982457876205e-02" rms="4.5530486106872559e-01" purity="4.9051207304000854e-01" nType="0">
        <Node pos="l" depth="1" NCoef="0" IVar="-1" Cut="0.0000000000000000e+00" cType="1" res="-3.4274542704224586e-03" rms="3.4158557653427124e-01" purity="1.3737358152866364e-01" nType="-99"/>
        <Node pos="r" depth="1" NCoef="0" IVar="2" Cut="1.1555523872375488e+00" cType="1" res="-6.9262161850929260e-03" rms="4.6141824126243591e-01" purity="5.1821446418762207e-01" nType="0">
          <Node pos="l" depth="2" NCoef="0" IVar="-1" Cut="0.0000000000000000e+00" cType="1" res="-7.2155182715505362e-04" rms="4.6595874428749084e-01" purity="5.7946485280990601e-01" nType="-99"/>
          <Node pos="r" depth="2" NCoef="0" IVar="-1" Cut="0.0000000000000000e+00" cType="1" res="9.3636527890339494e-04" rms="4.4827342033386230e-01" purity="3.9615306258201599e-01" nType="-99"/>
        </Node>
      </Node>
    </BinaryTree>
    <BinaryTree type="DecisionTree" boostWeight="1.0000000000000000e+00" itree="457">
      <Node pos="s" depth="0" NCoef="0" IVar="4" Cut="3.3823690795898438e+02" cType="1" res="-5.1033394411206245e-03" rms="4.5027196407318115e-01" purity="4.9513620138168335e-01" nType="0">
        <Node pos="l" depth="1" NCoef="0" IVar="1" Cut="8.8188568115234375e+01" cType="1" res="2.8509302064776421e-03" rms="4.5449692010879517e-01" purity="5.0960385799407959e-01" nType="0">
          <Node pos="l" depth="2" NCoef="0" IVar="-1" Cut="0.0000000000000000e+00" cType="1" res="-4.4303864706307650e-04" rms="4.6320542693138123e-01" purity="4.6232846379280090e-01" nType="-99"/>
          <Node pos="r" depth="2" NCoef="0" IVar="-1" Cut="0.0000000000000000e+00" cType="1" res="1.0193455964326859e-03" rms="4.3602743744850159e-01" purity="5.9223669767379761e-01" nType="-99"/>
        </Node>
        <Node pos="r" depth="1" NCoef="0" IVar="-1" Cut="0.0000000000000000e+00" cType="1" res="-3.1123266089707613e-03" rms="3.5626995563507080e-01" purity="2.6993739604949951e-01" nType="-99"/>
      </Node>
    </BinaryTree>
    <BinaryTree type="DecisionTree" boostWeight="1.0000000000000000e+00" itree="458">
      <Node pos="s" depth="0" NCoef="0" IVar="0" Cut="5.1035995483398438e+00" cType="1" res="1.1190384626388550e-02" rms="4.5168396830558777e-01" purity="5.2121257781982422e-01" nType="0">
        <Node pos="l" depth="1" NCoef="0" IVar="-1" Cut="0.0000000000000000e+00" cType="1" res="-3.0071306973695755e-03" rms="3.1648030877113342e-01" purity="1.2762494385242462e-01" nType="-99"/>
        <Node pos="r" depth="1" NCoef="0" IVar="2" Cut="1.3389128446578979e+00" cType="1" res="2.2109817713499069e-02" rms="4.5905530452728271e-01" purity="5.5274569988250732e-01" nType="0">
          <Node pos="l" depth="2" NCoef="0" IVar="-1" Cut="0.0000000000000000e+00" cType="1" res="1.1096079106209800e-04" rms="4.5468690991401672e-01" purity="5.8859139680862427e-01" nType="-99"/>
          <Node pos="r" depth="2" NCoef="0" IVar="-1" Cut="0.0000000000000000e+00" cType="1" res="2.1607901435345411e-03" rms="4.6956807374954224e-01" purity="4.1592299938201904e-01" nType="-99"/>
        </Node>
      </Node>
    </BinaryTree>
    <BinaryTree type="DecisionTree" boostWeight="1.0000000000000000e+00" itree="459">
      <Node pos="s" depth="0" NCoef="0" IVar="2" Cut="5.2527666091918945e-01" cType="1" res="-2.0957684144377708e-02" rms="4.4388172030448914e-01" purity="4.9034342169761658e-01" nType="0">
        <Node pos="l" depth="1" NCoef="0" IVar="-1" Cut="0.0000000000000000e+00" cType="1" res="2.4673421867191792e-03" rms="3.9449933171272278e-01" purity="7.6671576499938965e-01" nType="-99"/>
        <Node pos="r" depth="1" NCoef="0" IVar="5" Cut="1.6098001599311829e-01" cType="1" res="-3.2791607081890106e-02" rms="4.4665482640266418e-01" purity="4.6335142850875854e-01" nType="0">
          <Node pos="l" depth="2" NCoef="0" IVar="-1" Cut="0.0000000000000000e+00" cType="1" res="-2.7707356493920088e-03" rms="3.9176020026206970e-01" purity="2.3184184730052948e-01" nType="-99"/>
          <Node pos="r" depth="2" NCoef="0" IVar="-1" Cut="0.0000000000000000e+00" cType="1" res="-4.8637189320288599e-04" rms="4.5182633399963379e-01" purity="4.9269264936447144e-01" nType="-99"/>
        </Node>
      </Node>
    </BinaryTree>
    <BinaryTree type="DecisionTree" boostWeight="1.0000000000000000e+00" itree="460">
      <Node pos="s" depth="0" NCoef="0" IVar="2" Cut="1.5147252082824707e+00" cType="1" res="-2.5866977870464325e-02" rms="4.4459459185600281e-01" purity="4.8065257072448730e-01" nType="0">
        <Node pos="l" depth="1" NCoef="0" IVar="2" Cut="5.9750968217849731e-01" cType="1" res="-1.5461287461221218e-02" rms="4.5634624361991882e-01" purity="5.2430653572082520e-01" nType="0">
          <Node pos="l" depth="2" NCoef="0" IVar="-1" Cut="0.0000000000000000e+00" cType="1" res="1.8680159701034427e-03" rms="4.2550325393676758e-01" purity="7.3345196247100830e-01" nType="-99"/>
          <Node pos="r" depth="2" NCoef="0" IVar="-1" Cut="0.0000000000000000e+00" cType="1" res="-7.6312036253511906e-04" rms="4.6012017130851746e-01" purity="4.8189646005630493e-01" nType="-99"/>
        </Node>
        <Node pos="r" depth="1" NCoef="0" IVar="3" Cut="2.6006646156311035e+00" cType="1" res="-1.0447449982166290e-01" rms="3.3269503712654114e-01" purity="1.5087799727916718e-01" nType="0">
          <Node pos="l" depth="2" NCoef="0" IVar="-1" Cut="0.0000000000000000e+00" cType="1" res="-3.4521254710853100e-03" rms="3.2328775525093079e-01" purity="1.6077092289924622e-01" nType="-99"/>
          <Node pos="r" depth="2" NCoef="0" IVar="-1" Cut="0.0000000000000000e+00" cType="1" res="-1.8902522278949618e-03" rms="3.3748480677604675e-01" purity="1.4032959938049316e-01" nType="-99"/>
        </Node>
      </Node>
    </BinaryTree>
    <BinaryTree type="DecisionTree" boostWeight="1.0000000000000000e+00" itree="461">
      <Node pos="s" depth="0" NCoef="0" IVar="0" Cut="5.0516619682312012e+00" cType="1" res="-1.1822314932942390e-02" rms="4.4517096877098083e-01" purity="4.9389392137527466e-01" nType="0">
        <Node pos="l" depth="1" NCoef="0" IVar="-1" Cut="0.0000000000000000e+00" cType="1" res="-3.3056281972676516e-03" rms="3.2921832799911499e-01" purity="1.1949927359819412e-01" nType="-99"/>
        <Node pos="r" depth="1" NCoef="0" IVar="1" Cut="4.3369323730468750e+01" cType="1" res="-3.1688442686572671e-04" rms="4.5201277732849121e-01" purity="5.2639764547348022e-01" nType="0">
          <Node pos="l" depth="2" NCoef="0" IVar="-1" Cut="0.0000000000000000e+00" cType="1" res="-2.5144179817289114e-03" rms="4.2612701654434204e-01" purity="3.2702970504760742e-01" nType="-99"/>
          <Node pos="r" depth="2" NCoef="0" IVar="-1" Cut="0.0000000000000000e+00" cType="1" res="4.0950474794954062e-04" rms="4.5332291722297668e-01" purity="5.5777013301849365e-01" nType="-99"/>
        </Node>
      </Node>
    </BinaryTree>
    <BinaryTree type="DecisionTree" boostWeight="1.0000000000000000e+00" itree="462">
      <Node pos="s" depth="0" NCoef="0" IVar="2" Cut="9.1002726554870605e-01" cType="1" res="-3.7189841270446777e-02" rms="4.5701581239700317e-01" purity="4.5795866847038269e-01" nType="0">
        <Node pos="l" depth="1" NCoef="0" IVar="4" Cut="1.3522305297851562e+02" cType="1" res="-7.1860916912555695e-02" rms="4.7024765610694885e-01" purity="5.3271096944808960e-01" nType="0">
          <Node pos="l" depth="2" NCoef="0" IVar="-1" Cut="0.0000000000000000e+00" cType="1" res="-1.0013005230575800e-03" rms="4.6789938211441040e-01" purity="5.4728507995605469e-01" nType="-99"/>
          <Node pos="r" depth="2" NCoef="0" IVar="-1" Cut="0.0000000000000000e+00" cType="1" res="-3.0729991849511862e-03" rms="4.6965524554252625e-01" purity="4.9816846847534180e-01" nType="-99"/>
        </Node>
        <Node pos="r" depth="1" NCoef="0" IVar="6" Cut="4.3080261230468750e+02" cType="1" res="-1.0196072049438953e-02" rms="4.4457429647445679e-01" purity="3.9975902438163757e-01" nType="0">
          <Node pos="l" depth="2" NCoef="0" IVar="-1" Cut="0.0000000000000000e+00" cType="1" res="4.2361798114143312e-04" rms="4.3125554919242859e-01" purity="3.9797222614288330e-01" nType="-99"/>
          <Node pos="r" depth="2" NCoef="0" IVar="-1" Cut="0.0000000000000000e+00" cType="1" res="-1.2960635358467698e-03" rms="4.6213749051094055e-01" purity="4.0275022387504578e-01" nType="-99"/>
        </Node>
      </Node>
    </BinaryTree>
    <BinaryTree type="DecisionTree" boostWeight="1.0000000000000000e+00" itree="463">
      <Node pos="s" depth="0" NCoef="0" IVar="0" Cut="7.2411403656005859e+00" cType="1" res="-8.4479916840791702e-03" rms="4.3520221114158630e-01" purity="4.9986043572425842e-01" nType="0">
        <Node pos="l" depth="1" NCoef="0" IVar="2" Cut="1.3237298727035522e+00" cType="1" res="-4.4655062258243561e-02" rms="4.3971535563468933e-01" purity="3.7378644943237305e-01" nType="0">
          <Node pos="l" depth="2" NCoef="0" IVar="-1" Cut="0.0000000000000000e+00" cType="1" res="-2.5940689374692738e-04" rms="4.7752740979194641e-01" purity="4.7115355730056763e-01" nType="-99"/>
          <Node pos="r" depth="2" NCoef="0" IVar="-1" Cut="0.0000000000000000e+00" cType="1" res="-3.5000962670892477e-03" rms="2.9143968224525452e-01" purity="1.0051081329584122e-01" nType="-99"/>
        </Node>
        <Node pos="r" depth="1" NCoef="0" IVar="3" Cut="2.4845931529998779e+00" cType="1" res="4.8681128770112991e-02" rms="4.2170891165733337e-01" purity="6.9878560304641724e-01" nType="0">
          <Node pos="l" depth="2" NCoef="0" IVar="-1" Cut="0.0000000000000000e+00" cType="1" res="1.8233031732961535e-03" rms="4.1233628988265991e-01" purity="7.6329100131988525e-01" nType="-99"/>
          <Node pos="r" depth="2" NCoef="0" IVar="-1" Cut="0.0000000000000000e+00" cType="1" res="-1.6812458634376526e-03" rms="4.5371913909912109e-01" purity="3.2318469882011414e-01" nType="-99"/>
        </Node>
      </Node>
    </BinaryTree>
    <BinaryTree type="DecisionTree" boostWeight="1.0000000000000000e+00" itree="464">
      <Node pos="s" depth="0" NCoef="0" IVar="4" Cut="1.6997599792480469e+02" cType="1" res="2.1683489903807640e-03" rms="4.5065063238143921e-01" purity="5.0896912813186646e-01" nType="0">
        <Node pos="l" depth="1" NCoef="0" IVar="3" Cut="1.8196849822998047e+00" cType="1" res="2.9138632118701935e-02" rms="4.4680202007293701e-01" purity="5.4210996627807617e-01" nType="0">
          <Node pos="l" depth="2" NCoef="0" IVar="-1" Cut="0.0000000000000000e+00" cType="1" res="-1.6774608520790935e-03" rms="4.5464712381362915e-01" purity="4.5100411772727966e-01" nType="-99"/>
          <Node pos="r" depth="2" NCoef="0" IVar="-1" Cut="0.0000000000000000e+00" cType="1" res="1.0250514606013894e-03" rms="4.4357100129127502e-01" purity="5.5457091331481934e-01" nType="-99"/>
        </Node>
        <Node pos="r" depth="1" NCoef="0" IVar="1" Cut="1.1528633880615234e+02" cType="1" res="-7.1166373789310455e-02" rms="4.5290371775627136e-01" purity="4.1885587573051453e-01" nType="0">
          <Node pos="l" depth="2" NCoef="0" IVar="-1" Cut="0.0000000000000000e+00" cType="1" res="-2.2082126233726740e-03" rms="4.5226210355758667e-01" purity="3.6860394477844238e-01" nType="-99"/>
          <Node pos="r" depth="2" NCoef="0" IVar="-1" Cut="0.0000000000000000e+00" cType="1" res="4.1244743624702096e-04" rms="4.4348555803298950e-01" purity="5.6619608402252197e-01" nType="-99"/>
        </Node>
      </Node>
    </BinaryTree>
    <BinaryTree type="DecisionTree" boostWeight="1.0000000000000000e+00" itree="465">
      <Node pos="s" depth="0" NCoef="0" IVar="5" Cut="6.7658597230911255e-01" cType="1" res="-1.0205338709056377e-02" rms="4.5177805423736572e-01" purity="4.9522647261619568e-01" nType="0">
        <Node pos="l" depth="1" NCoef="0" IVar="4" Cut="2.8049011230468750e+02" cType="1" res="8.8571794331073761e-03" rms="4.4622564315795898e-01" purity="5.0450307130813599e-01" nType="0">
          <Node pos="l" depth="2" NCoef="0" IVar="-1" Cut="0.0000000000000000e+00" cType="1" res="5.7959178229793906e-04" rms="4.4566965103149414e-01" purity="5.2848130464553833e-01" nType="-99"/>
          <Node pos="r" depth="2" NCoef="0" IVar="-1" Cut="0.0000000000000000e+00" cType="1" res="-2.6695437263697386e-03" rms="4.3057316541671753e-01" purity="3.2518941164016724e-01" nType="-99"/>
        </Node>
        <Node pos="r" depth="1" NCoef="0" IVar="-1" Cut="0.0000000000000000e+00" cType="1" res="-4.1225329041481018e-03" rms="4.6405985951423645e-01" purity="4.0762209892272949e-01" nType="-99"/>
      </Node>
    </BinaryTree>
    <BinaryTree type="DecisionTree" boostWeight="1.0000000000000000e+00" itree="466">
      <Node pos="s" depth="0" NCoef="0" IVar="4" Cut="2.7758578491210938e+02" cType="1" res="-1.2895400635898113e-02" rms="4.4497665762901306e-01" purity="4.7672471404075623e-01" nType="0">
        <Node pos="l" depth="1" NCoef="0" IVar="0" Cut="6.7359666824340820e+00" cType="1" res="2.9421227518469095e-03" rms="4.4524914026260376e-01" purity="4.9750202894210815e-01" nType="0">
          <Node pos="l" depth="2" NCoef="0" IVar="-1" Cut="0.0000000000000000e+00" cType="1" res="-5.9209973551332951e-04" rms="4.4479650259017944e-01" purity="3.3816751837730408e-01" nType="-99"/>
          <Node pos="r" depth="2" NCoef="0" IVar="-1" Cut="0.0000000000000000e+00" cType="1" res="8.7113963672891259e-04" rms="4.4340214133262634e-01" purity="6.6401481628417969e-01" nType="-99"/>
        </Node>
        <Node pos="r" depth="1" NCoef="0" IVar="3" Cut="2.2352447509765625e+00" cType="1" res="-1.3811305165290833e-01" rms="4.2240235209465027e-01" purity="3.1245118379592896e-01" nType="0">
          <Node pos="l" depth="2" NCoef="0" IVar="-1" Cut="0.0000000000000000e+00" cType="1" res="-3.6017687525600195e-03" rms="4.5895799994468689e-01" purity="4.1755342483520508e-01" nType="-99"/>
          <Node pos="r" depth="2" NCoef="0" IVar="-1" Cut="0.0000000000000000e+00" cType="1" res="-2.3581646382808685e-03" rms="3.8300976157188416e-01" purity="2.1853320300579071e-01" nType="-99"/>
        </Node>
      </Node>
    </BinaryTree>
    <BinaryTree type="DecisionTree" boostWeight="1.0000000000000000e+00" itree="467">
      <Node pos="s" depth="0" NCoef="0" IVar="5" Cut="6.2982660531997681e-01" cType="1" res="1.8167681992053986e-02" rms="4.5472487807273865e-01" purity="5.2494072914123535e-01" nType="0">
        <Node pos="l" depth="1" NCoef="0" IVar="5" Cut="3.9844328165054321e-01" cType="1" res="1.8565870122984052e-03" rms="4.5379814505577087e-01" purity="4.9116137623786926e-01" nType="0">
          <Node pos="l" depth="2" NCoef="0" IVar="-1" Cut="0.0000000000000000e+00" cType="1" res="7.4358581332489848e-04" rms="4.5371666550636292e-01" purity="4.8429578542709351e-01" nType="-99"/>
          <Node pos="r" depth="2" NCoef="0" IVar="-1" Cut="0.0000000000000000e+00" cType="1" res="-1.0383568005636334e-03" rms="4.4980451464653015e-01" purity="5.0210320949554443e-01" nType="-99"/>
        </Node>
        <Node pos="r" depth="1" NCoef="0" IVar="4" Cut="7.3748954772949219e+01" cType="1" res="1.0281716287136078e-01" rms="4.5010885596275330e-01" purity="7.0024538040161133e-01" nType="0">
          <Node pos="l" depth="2" NCoef="0" IVar="-1" Cut="0.0000000000000000e+00" cType="1" res="1.1556904064491391e-03" rms="4.6436870098114014e-01" purity="6.5234959125518799e-01" nType="-99"/>
          <Node pos="r" depth="2" NCoef="0" IVar="-1" Cut="0.0000000000000000e+00" cType="1" res="3.7163845263421535e-03" rms="4.2913177609443665e-01" purity="7.4818527698516846e-01" nType="-99"/>
        </Node>
      </Node>
    </BinaryTree>
    <BinaryTree type="DecisionTree" boostWeight="1.0000000000000000e+00" itree="468">
      <Node pos="s" depth="0" NCoef="0" IVar="5" Cut="6.8046230077743530e-01" cType="1" res="-8.6001964518800378e-04" rms="4.4773590564727783e-01" purity="4.9228486418724060e-01" nType="0">
        <Node pos="l" depth="1" NCoef="0" IVar="0" Cut="8.9021768569946289e+00" cType="1" res="-8.9596416801214218e-03" rms="4.5018982887268066e-01" purity="4.7737118601799011e-01" nType="0">
          <Node pos="l" depth="2" NCoef="0" IVar="-1" Cut="0.0000000000000000e+00" cType="1" res="-3.8036721525713801e-04" rms="4.5549720525741577e-01" purity="4.4533243775367737e-01" nType="-99"/>
          <Node pos="r" depth="2" NCoef="0" IVar="-1" Cut="0.0000000000000000e+00" cType="1" res="1.9037472084164619e-03" rms="3.8731223344802856e-01" purity="7.8496336936950684e-01" nType="-99"/>
        </Node>
        <Node pos="r" depth="1" NCoef="0" IVar="-1" Cut="0.0000000000000000e+00" cType="1" res="2.2279075346887112e-03" rms="4.0358018875122070e-01" purity="6.7478418350219727e-01" nType="-99"/>
      </Node>
    </BinaryTree>
    <BinaryTree type="DecisionTree" boostWeight="1.0000000000000000e+00" itree="469">
      <Node pos="s" depth="0" NCoef="0" IVar="4" Cut="2.2068739318847656e+02" cType="1" res="-1.7858060076832771e-02" rms="4.5980039238929749e-01" purity="4.9181324243545532e-01" nType="0">
        <Node pos="l" depth="1" NCoef="0" IVar="4" Cut="2.4890134811401367e+01" cType="1" res="-2.7525952085852623e-02" rms="4.6711209416389465e-01" purity="4.9035626649856567e-01" nType="0">
          <Node pos="l" depth="2" NCoef="0" IVar="-1" Cut="0.0000000000000000e+00" cType="1" res="1.4436908531934023e-03" rms="4.3340724706649780e-01" purity="5.3957110643386841e-01" nType="-99"/>
          <Node pos="r" depth="2" NCoef="0" IVar="-1" Cut="0.0000000000000000e+00" cType="1" res="-8.1629969645291567e-04" rms="4.6901291608810425e-01" purity="4.8606297373771667e-01" nType="-99"/>
        </Node>
        <Node pos="r" depth="1" NCoef="0" IVar="0" Cut="6.4556555747985840e+00" cType="1" res="3.2320834696292877e-02" rms="4.1621774435043335e-01" purity="4.9937531352043152e-01" nType="0">
          <Node pos="l" depth="2" NCoef="0" IVar="-1" Cut="0.0000000000000000e+00" cType="1" res="-1.1303270002827048e-03" rms="3.9730978012084961e-01" purity="2.5282955169677734e-01" nType="-99"/>
          <Node pos="r" depth="2" NCoef="0" IVar="-1" Cut="0.0000000000000000e+00" cType="1" res="2.0914003252983093e-03" rms="4.2020565271377563e-01" purity="6.6496360301971436e-01" nType="-99"/>
        </Node>
      </Node>
    </BinaryTree>
    <BinaryTree type="DecisionTree" boostWeight="1.0000000000000000e+00" itree="470">
      <Node pos="s" depth="0" NCoef="0" IVar="4" Cut="2.0584634399414062e+02" cType="1" res="1.5231845900416374e-02" rms="4.5698183774948120e-01" purity="5.1392287015914917e-01" nType="0">
        <Node pos="l" depth="1" NCoef="0" IVar="4" Cut="1.4512626647949219e+02" cType="1" res="2.9399342834949493e-02" rms="4.5352160930633545e-01" purity="5.3244239091873169e-01" nType="0">
          <Node pos="l" depth="2" NCoef="0" IVar="-1" Cut="0.0000000000000000e+00" cType="1" res="1.1614015093073249e-03" rms="4.5084169507026672e-01" purity="5.5161190032958984e-01" nType="-99"/>
          <Node pos="r" depth="2" NCoef="0" IVar="-1" Cut="0.0000000000000000e+00" cType="1" res="-1.6844904748722911e-03" rms="4.5262059569358826e-01" purity="4.3472063541412354e-01" nType="-99"/>
        </Node>
        <Node pos="r" depth="1" NCoef="0" IVar="0" Cut="6.7604012489318848e+00" cType="1" res="-4.2412612587213516e-02" rms="4.6638163924217224e-01" purity="4.3857115507125854e-01" nType="0">
          <Node pos="l" depth="2" NCoef="0" IVar="-1" Cut="0.0000000000000000e+00" cType="1" res="2.9343034839257598e-04" rms="4.5516774058341980e-01" purity="3.2316434383392334e-01" nType="-99"/>
          <Node pos="r" depth="2" NCoef="0" IVar="-1" Cut="0.0000000000000000e+00" cType="1" res="-1.9305716268718243e-03" rms="4.7036930918693542e-01" purity="5.2347427606582642e-01" nType="-99"/>
        </Node>
      </Node>
    </BinaryTree>
    <BinaryTree type="DecisionTree" boostWeight="1.0000000000000000e+00" itree="471">
      <Node pos="s" depth="0" NCoef="0" IVar="5" Cut="5.6056511402130127e-01" cType="1" res="-3.0002174898982048e-02" rms="4.4369634985923767e-01" purity="4.6758365631103516e-01" nType="0">
        <Node pos="l" depth="1" NCoef="0" IVar="0" Cut="5.3559184074401855e+00" cType="1" res="-5.2259571850299835e-02" rms="4.4091197848320007e-01" purity="4.2339524626731873e-01" nType="0">
          <Node pos="l" depth="2" NCoef="0" IVar="-1" Cut="0.0000000000000000e+00" cType="1" res="-3.4873676486313343e-03" rms="3.1945639848709106e-01" purity="1.2571211159229279e-01" nType="-99"/>
          <Node pos="r" depth="2" NCoef="0" IVar="-1" Cut="0.0000000000000000e+00" cType="1" res="-8.1810855772346258e-04" rms="4.5592308044433594e-01" purity="4.7279345989227295e-01" nType="-99"/>
        </Node>
        <Node pos="r" depth="1" NCoef="0" IVar="1" Cut="1.0259765625000000e+02" cType="1" res="4.8859849572181702e-02" rms="4.4454365968704224e-01" purity="6.2415117025375366e-01" nType="0">
          <Node pos="l" depth="2" NCoef="0" IVar="-1" Cut="0.0000000000000000e+00" cType="1" res="2.0268301013857126e-03" rms="4.3638512492179871e-01" purity="6.5149414539337158e-01" nType="-99"/>
          <Node pos="r" depth="2" NCoef="0" IVar="-1" Cut="0.0000000000000000e+00" cType="1" res="-1.6851234249770641e-03" rms="4.4735845923423767e-01" purity="5.4258042573928833e-01" nType="-99"/>
        </Node>
      </Node>
    </BinaryTree>
    <BinaryTree type="DecisionTree" boostWeight="1.0000000000000000e+00" itree="472">
      <Node pos="s" depth="0" NCoef="0" IVar="2" Cut="1.1163449287414551e+00" cType="1" res="-1.5768328681588173e-02" rms="4.4373738765716553e-01" purity="4.8975294828414917e-01" nType="0">
        <Node pos="l" depth="1" NCoef="0" IVar="1" Cut="9.0080757141113281e+01" cType="1" res="2.3340318351984024e-02" rms="4.5393252372741699e-01" purity="6.1565148830413818e-01" nType="0">
          <Node pos="l" depth="2" NCoef="0" IVar="-1" Cut="0.0000000000000000e+00" cType="1" res="-2.2588876890949905e-04" rms="4.6998578310012817e-01" purity="5.4653275012969971e-01" nType="-99"/>
          <Node pos="r" depth="2" NCoef="0" IVar="-1" Cut="0.0000000000000000e+00" cType="1" res="2.4551807437092066e-03" rms="4.0692520141601562e-01" purity="7.6698327064514160e-01" nType="-99"/>
        </Node>
        <Node pos="r" depth="1" NCoef="0" IVar="4" Cut="7.6096214294433594e+01" cType="1" res="-8.2523904740810394e-02" rms="4.1738983988761902e-01" purity="2.7485337853431702e-01" nType="0">
          <Node pos="l" depth="2" NCoef="0" IVar="-1" Cut="0.0000000000000000e+00" cType="1" res="-3.1509436666965485e-03" rms="3.8098114728927612e-01" purity="2.2046805918216705e-01" nType="-99"/>
          <Node pos="r" depth="2" NCoef="0" IVar="-1" Cut="0.0000000000000000e+00" cType="1" res="-8.7257177801802754e-04" rms="4.3684515357017517e-01" purity="3.1501179933547974e-01" nType="-99"/>
        </Node>
      </Node>
    </BinaryTree>
    <BinaryTree type="DecisionTree" boostWeight="1.0000000000000000e+00" itree="473">
      <Node pos="s" depth="0" NCoef="0" IVar="4" Cut="1.8549415588378906e+02" cType="1" res="-7.3571284301578999e-03" rms="4.4895574450492859e-01" purity="4.8879280686378479e-01" nType="0">
        <Node pos="l" depth="1" NCoef="0" IVar="1" Cut="7.4258102416992188e+01" cType="1" res="1.1215685866773129e-02" rms="4.5448434352874756e-01" purity="5.1720196008682251e-01" nType="0">
          <Node pos="l" depth="2" NCoef="0" IVar="-1" Cut="0.0000000000000000e+00" cType="1" res="-6.0169730568304658e-04" rms="4.5417955517768860e-01" purity="4.4187539815902710e-01" nType="-99"/>
          <Node pos="r" depth="2" NCoef="0" IVar="-1" Cut="0.0000000000000000e+00" cType="1" res="1.3111534062772989e-03" rms="4.5071664452552795e-01" purity="6.0512775182723999e-01" nType="-99"/>
        </Node>
        <Node pos="r" depth="1" NCoef="0" IVar="3" Cut="2.2777183055877686e+00" cType="1" res="-7.1347765624523163e-02" rms="4.2316552996635437e-01" purity="3.9091205596923828e-01" nType="0">
          <Node pos="l" depth="2" NCoef="0" IVar="-1" Cut="0.0000000000000000e+00" cType="1" res="4.0536423330195248e-04" rms="4.4517576694488525e-01" purity="6.1226308345794678e-01" nType="-99"/>
          <Node pos="r" depth="2" NCoef="0" IVar="-1" Cut="0.0000000000000000e+00" cType="1" res="-4.0636789053678513e-03" rms="3.7225815653800964e-01" purity="1.4262692630290985e-01" nType="-99"/>
        </Node>
      </Node>
    </BinaryTree>
    <BinaryTree type="DecisionTree" boostWeight="1.0000000000000000e+00" itree="474">
      <Node pos="s" depth="0" NCoef="0" IVar="4" Cut="1.0262841796875000e+02" cType="1" res="-2.2236237302422523e-02" rms="4.5594999194145203e-01" purity="4.8796442151069641e-01" nType="0">
        <Node pos="l" depth="1" NCoef="0" IVar="4" Cut="8.1258964538574219e+01" cType="1" res="-5.4999612271785736e-02" rms="4.5214384794235229e-01" purity="4.6637326478958130e-01" nType="0">
          <Node pos="l" depth="2" NCoef="0" IVar="-1" Cut="0.0000000000000000e+00" cType="1" res="-1.6099865315482020e-03" rms="4.5457810163497925e-01" purity="4.4379380345344543e-01" nType="-99"/>
          <Node pos="r" depth="2" NCoef="0" IVar="-1" Cut="0.0000000000000000e+00" cType="1" res="1.4613935491070151e-03" rms="4.1693556308746338e-01" purity="6.1728268861770630e-01" nType="-99"/>
        </Node>
        <Node pos="r" depth="1" NCoef="0" IVar="0" Cut="6.0343999862670898e+00" cType="1" res="8.5977129638195038e-03" rms="4.5736441016197205e-01" purity="5.0828409194946289e-01" nType="0">
          <Node pos="l" depth="2" NCoef="0" IVar="-1" Cut="0.0000000000000000e+00" cType="1" res="-1.4011516468599439e-03" rms="4.2600226402282715e-01" purity="2.6500350236892700e-01" nType="-99"/>
          <Node pos="r" depth="2" NCoef="0" IVar="-1" Cut="0.0000000000000000e+00" cType="1" res="7.9904193989932537e-04" rms="4.6539914608001709e-01" purity="5.9499537944793701e-01" nType="-99"/>
        </Node>
      </Node>
    </BinaryTree>
    <BinaryTree type="DecisionTree" boostWeight="1.0000000000000000e+00" itree="475">
      <Node pos="s" depth="0" NCoef="0" IVar="0" Cut="6.8137817382812500e+00" cType="1" res="6.0465262504294515e-04" rms="4.4638141989707947e-01" purity="4.9511575698852539e-01" nType="0">
        <Node pos="l" depth="1" NCoef="0" IVar="3" Cut="1.8943901062011719e+00" cType="1" res="-3.6027964204549789e-02" rms="4.4788503646850586e-01" purity="3.3617299795150757e-01" nType="0">
          <Node pos="l" depth="2" NCoef="0" IVar="-1" Cut="0.0000000000000000e+00" cType="1" res="1.5601299237459898e-03" rms="4.7088721394538879e-01" purity="5.2633416652679443e-01" nType="-99"/>
          <Node pos="r" depth="2" NCoef="0" IVar="-1" Cut="0.0000000000000000e+00" cType="1" res="-1.2236945331096649e-03" rms="4.4065085053443909e-01" purity="3.0285760760307312e-01" nType="-99"/>
        </Node>
        <Node pos="r" depth="1" NCoef="0" IVar="5" Cut="6.1661797761917114e-01" cType="1" res="3.6442808806896210e-02" rms="4.4197702407836914e-01" purity="6.5061151981353760e-01" nType="0">
          <Node pos="l" depth="2" NCoef="0" IVar="-1" Cut="0.0000000000000000e+00" cType="1" res="6.2235922086983919e-04" rms="4.4827255606651306e-01" purity="6.2956893444061279e-01" nType="-99"/>
          <Node pos="r" depth="2" NCoef="0" IVar="-1" Cut="0.0000000000000000e+00" cType="1" res="2.8828890062868595e-03" rms="3.9044350385665894e-01" purity="7.8995412588119507e-01" nType="-99"/>
        </Node>
      </Node>
    </BinaryTree>
    <BinaryTree type="DecisionTree" boostWeight="1.0000000000000000e+00" itree="476">
      <Node pos="s" depth="0" NCoef="0" IVar="2" Cut="1.4544614553451538e+00" cType="1" res="-1.5410399064421654e-02" rms="4.4568160176277161e-01" purity="4.8228859901428223e-01" nType="0">
        <Node pos="l" depth="1" NCoef="0" IVar="5" Cut="6.2108176946640015e-01" cType="1" res="-2.9548946768045425e-03" rms="4.5866984128952026e-01" purity="5.3544837236404419e-01" nType="0">
          <Node pos="l" depth="2" NCoef="0" IVar="-1" Cut="0.0000000000000000e+00" cType="1" res="-3.6019849358126521e-04" rms="4.6247616410255432e-01" purity="5.1757854223251343e-01" nType="-99"/>
          <Node pos="r" depth="2" NCoef="0" IVar="-1" Cut="0.0000000000000000e+00" cType="1" res="1.4666828792542219e-03" rms="4.3234726786613464e-01" purity="6.2762796878814697e-01" nType="-99"/>
        </Node>
        <Node pos="r" depth="1" NCoef="0" IVar="3" Cut="2.6059627532958984e+00" cType="1" res="-9.1599874198436737e-02" rms="3.4645208716392517e-01" purity="1.5711398422718048e-01" nType="0">
          <Node pos="l" depth="2" NCoef="0" IVar="-1" Cut="0.0000000000000000e+00" cType="1" res="-3.2812289427965879e-03" rms="3.3181303739547729e-01" purity="1.5010285377502441e-01" nType="-99"/>
          <Node pos="r" depth="2" NCoef="0" IVar="-1" Cut="0.0000000000000000e+00" cType="1" res="-1.6572534805163741e-03" rms="3.5387033224105835e-01" purity="1.6245114803314209e-01" nType="-99"/>
        </Node>
      </Node>
    </BinaryTree>
    <BinaryTree type="DecisionTree" boostWeight="1.0000000000000000e+00" itree="477">
      <Node pos="s" depth="0" NCoef="0" IVar="1" Cut="1.3586044311523438e+02" cType="1" res="-9.4078658148646355e-03" rms="4.5019054412841797e-01" purity="4.9113294482231140e-01" nType="0">
        <Node pos="l" depth="1" NCoef="0" IVar="1" Cut="1.0774566650390625e+02" cType="1" res="3.2932420726865530e-03" rms="4.5073997974395752e-01" purity="5.0435578823089600e-01" nType="0">
          <Node pos="l" depth="2" NCoef="0" IVar="-1" Cut="0.0000000000000000e+00" cType="1" res="-2.8914975700899959e-04" rms="4.5699039101600647e-01" purity="4.7619372606277466e-01" nType="-99"/>
          <Node pos="r" depth="2" NCoef="0" IVar="-1" Cut="0.0000000000000000e+00" cType="1" res="2.4163476191461086e-03" rms="3.9999514818191528e-01" purity="6.6760939359664917e-01" nType="-99"/>
        </Node>
        <Node pos="r" depth="1" NCoef="0" IVar="-1" Cut="0.0000000000000000e+00" cType="1" res="-3.5807101521641016e-03" rms="4.1659063100814819e-01" purity="3.3833876252174377e-01" nType="-99"/>
      </Node>
    </BinaryTree>
    <BinaryTree type="DecisionTree" boostWeight="1.0000000000000000e+00" itree="478">
      <Node pos="s" depth="0" NCoef="0" IVar="4" Cut="8.8117317199707031e+01" cType="1" res="1.5096112620085478e-03" rms="4.5072385668754578e-01" purity="5.0115835666656494e-01" nType="0">
        <Node pos="l" depth="1" NCoef="0" IVar="2" Cut="6.9124740362167358e-01" cType="1" res="4.4835112988948822e-02" rms="4.5266196131706238e-01" purity="5.5037903785705566e-01" nType="0">
          <Node pos="l" depth="2" NCoef="0" IVar="-1" Cut="0.0000000000000000e+00" cType="1" res="2.9505621641874313e-03" rms="4.1009175777435303e-01" purity="7.6486432552337646e-01" nType="-99"/>
          <Node pos="r" depth="2" NCoef="0" IVar="-1" Cut="0.0000000000000000e+00" cType="1" res="4.6575846499763429e-04" rms="4.6186110377311707e-01" purity="4.8665228486061096e-01" nType="-99"/>
        </Node>
        <Node pos="r" depth="1" NCoef="0" IVar="1" Cut="6.9588317871093750e+01" cType="1" res="-3.3080447465181351e-02" rms="4.4616034626960754e-01" purity="4.6186178922653198e-01" nType="0">
          <Node pos="l" depth="2" NCoef="0" IVar="-1" Cut="0.0000000000000000e+00" cType="1" res="-2.2917906753718853e-03" rms="4.4640731811523438e-01" purity="3.5827577114105225e-01" nType="-99"/>
          <Node pos="r" depth="2" NCoef="0" IVar="-1" Cut="0.0000000000000000e+00" cType="1" res="3.9162332541309297e-04" rms="4.3926832079887390e-01" purity="5.3541129827499390e-01" nType="-99"/>
        </Node>
      </Node>
    </BinaryTree>
    <BinaryTree type="DecisionTree" boostWeight="1.0000000000000000e+00" itree="479">
      <Node pos="s" depth="0" NCoef="0" IVar="4" Cut="2.9136160278320312e+02" cType="1" res="1.3609440997242928e-02" rms="4.6435555815696716e-01" purity="5.0830769538879395e-01" nType="0">
        <Node pos="l" depth="1" NCoef="0" IVar="5" Cut="6.8419450521469116e-01" cType="1" res="2.5273159146308899e-02" rms="4.6530523896217346e-01" purity="5.2748328447341919e-01" nType="0">
          <Node pos="l" depth="2" NCoef="0" IVar="-1" Cut="0.0000000000000000e+00" cType="1" res="8.2296575419604778e-04" rms="4.6615433692932129e-01" purity="5.3314316272735596e-01" nType="-99"/>
          <Node pos="r" depth="2" NCoef="0" IVar="-1" Cut="0.0000000000000000e+00" cType="1" res="-1.6996570629999042e-03" rms="4.4374257326126099e-01" purity="4.7240224480628967e-01" nType="-99"/>
        </Node>
        <Node pos="r" depth="1" NCoef="0" IVar="-1" Cut="0.0000000000000000e+00" cType="1" res="-2.2664868738502264e-03" rms="4.3965986371040344e-01" purity="3.2419094443321228e-01" nType="-99"/>
      </Node>
    </BinaryTree>
    <BinaryTree type="DecisionTree" boostWeight="1.0000000000000000e+00" itree="480">
      <Node pos="s" depth="0" NCoef="0" IVar="2" Cut="5.1040852069854736e-01" cType="1" res="2.0790953189134598e-02" rms="4.4263848662376404e-01" purity="5.1214730739593506e-01" nType="0">
        <Node pos="l" depth="1" NCoef="0" IVar="-1" Cut="0.0000000000000000e+00" cType="1" res="3.6794724874198437e-03" rms="3.3857855200767517e-01" purity="8.3652287721633911e-01" nType="-99"/>
        <Node pos="r" depth="1" NCoef="0" IVar="0" Cut="4.9007873535156250e+00" cType="1" res="1.2044913135468960e-02" rms="4.4817104935646057e-01" purity="4.8806533217430115e-01" nType="0">
          <Node pos="l" depth="2" NCoef="0" IVar="-1" Cut="0.0000000000000000e+00" cType="1" res="-1.8108086660504341e-03" rms="3.7533628940582275e-01" purity="1.8008282780647278e-01" nType="-99"/>
          <Node pos="r" depth="2" NCoef="0" IVar="-1" Cut="0.0000000000000000e+00" cType="1" res="4.2386932182125747e-04" rms="4.5218399167060852e-01" purity="5.1010149717330933e-01" nType="-99"/>
        </Node>
      </Node>
    </BinaryTree>
    <BinaryTree type="DecisionTree" boostWeight="1.0000000000000000e+00" itree="481">
      <Node pos="s" depth="0" NCoef="0" IVar="2" Cut="5.9280687570571899e-01" cType="1" res="-2.0842026919126511e-02" rms="4.4990676641464233e-01" purity="4.7950607538223267e-01" nType="0">
        <Node pos="l" depth="1" NCoef="0" IVar="2" Cut="4.9191468954086304e-01" cType="1" res="1.0473516583442688e-01" rms="4.0027302503585815e-01" purity="7.7461344003677368e-01" nType="0">
          <Node pos="l" depth="2" NCoef="0" IVar="-1" Cut="0.0000000000000000e+00" cType="1" res="1.6110535943880677e-03" rms="4.2197293043136597e-01" purity="7.4054843187332153e-01" nType="-99"/>
          <Node pos="r" depth="2" NCoef="0" IVar="-1" Cut="0.0000000000000000e+00" cType="1" res="3.5754640121012926e-03" rms="3.7027889490127563e-01" purity="8.1159961223602295e-01" nType="-99"/>
        </Node>
        <Node pos="r" depth="1" NCoef="0" IVar="5" Cut="6.8393594026565552e-01" cType="1" res="-3.7467166781425476e-02" rms="4.5347380638122559e-01" purity="4.4043692946434021e-01" nType="0">
          <Node pos="l" depth="2" NCoef="0" IVar="-1" Cut="0.0000000000000000e+00" cType="1" res="-1.0796126443892717e-03" rms="4.5508459210395813e-01" purity="4.2036598920822144e-01" nType="-99"/>
          <Node pos="r" depth="2" NCoef="0" IVar="-1" Cut="0.0000000000000000e+00" cType="1" res="2.0810980349779129e-03" rms="4.1438326239585876e-01" purity="6.8126308917999268e-01" nType="-99"/>
        </Node>
      </Node>
    </BinaryTree>
    <BinaryTree type="DecisionTree" boostWeight="1.0000000000000000e+00" itree="482">
      <Node pos="s" depth="0" NCoef="0" IVar="6" Cut="3.0352514648437500e+02" cType="1" res="9.6214720979332924e-03" rms="4.4869592785835266e-01" purity="5.1494175195693970e-01" nType="0">
        <Node pos="l" depth="1" NCoef="0" IVar="6" Cut="2.8648767089843750e+02" cType="1" res="-5.4866753518581390e-02" rms="4.2313835024833679e-01" purity="3.1091743707656860e-01" nType="0">
          <Node pos="l" depth="2" NCoef="0" IVar="-1" Cut="0.0000000000000000e+00" cType="1" res="-2.1210059057921171e-03" rms="3.9616870880126953e-01" purity="2.4360322952270508e-01" nType="-99"/>
          <Node pos="r" depth="2" NCoef="0" IVar="-1" Cut="0.0000000000000000e+00" cType="1" res="7.5599795673042536e-04" rms="4.6426200866699219e-01" purity="4.5647048950195312e-01" nType="-99"/>
        </Node>
        <Node pos="r" depth="1" NCoef="0" IVar="3" Cut="1.8067148923873901e+00" cType="1" res="2.6353467255830765e-02" rms="4.5359706878662109e-01" purity="5.6787747144699097e-01" nType="0">
          <Node pos="l" depth="2" NCoef="0" IVar="-1" Cut="0.0000000000000000e+00" cType="1" res="3.6307363770902157e-03" rms="4.1324809193611145e-01" purity="7.6028174161911011e-01" nType="-99"/>
          <Node pos="r" depth="2" NCoef="0" IVar="-1" Cut="0.0000000000000000e+00" cType="1" res="3.6343125975690782e-04" rms="4.5493176579475403e-01" purity="5.5287671089172363e-01" nType="-99"/>
        </Node>
      </Node>
    </BinaryTree>
    <BinaryTree type="DecisionTree" boostWeight="1.0000000000000000e+00" itree="483">
      <Node pos="s" depth="0" NCoef="0" IVar="0" Cut="5.9458742141723633e+00" cType="1" res="-3.4987512044608593e-03" rms="4.4895765185356140e-01" purity="4.9673080444335938e-01" nType="0">
        <Node pos="l" depth="1" NCoef="0" IVar="0" Cut="5.2171664237976074e+00" cType="1" res="-6.5639771521091461e-02" rms="4.1946339607238770e-01" purity="2.5220158696174622e-01" nType="0">
          <Node pos="l" depth="2" NCoef="0" IVar="-1" Cut="0.0000000000000000e+00" cType="1" res="1.4794789603911340e-04" rms="4.4011750817298889e-01" purity="2.8208869695663452e-01" nType="-99"/>
          <Node pos="r" depth="2" NCoef="0" IVar="-1" Cut="0.0000000000000000e+00" cType="1" res="-2.4671386927366257e-03" rms="3.9868146181106567e-01" purity="2.3289695382118225e-01" nType="-99"/>
        </Node>
        <Node pos="r" depth="1" NCoef="0" IVar="0" Cut="6.3592696189880371e+00" cType="1" res="1.8890619277954102e-02" rms="4.5705458521842957e-01" purity="5.8483451604843140e-01" nType="0">
          <Node pos="l" depth="2" NCoef="0" IVar="-1" Cut="0.0000000000000000e+00" cType="1" res="3.3139609731733799e-03" rms="4.5476716756820679e-01" purity="5.6592833995819092e-01" nType="-99"/>
          <Node pos="r" depth="2" NCoef="0" IVar="-1" Cut="0.0000000000000000e+00" cType="1" res="-1.0779270087368786e-04" rms="4.5336848497390747e-01" purity="5.8810418844223022e-01" nType="-99"/>
        </Node>
      </Node>
    </BinaryTree>
    <BinaryTree type="DecisionTree" boostWeight="1.0000000000000000e+00" itree="484">
      <Node pos="s" depth="0" NCoef="0" IVar="4" Cut="3.2450988769531250e+02" cType="1" res="6.5640462562441826e-03" rms="4.5005893707275391e-01" purity="5.0770515203475952e-01" nType="0">
        <Node pos="l" depth="1" NCoef="0" IVar="0" Cut="5.2027878761291504e+00" cType="1" res="1.6431018710136414e-02" rms="4.5090794563293457e-01" purity="5.2485227584838867e-01" nType="0">
          <Node pos="l" depth="2" NCoef="0" IVar="-1" Cut="0.0000000000000000e+00" cType="1" res="-2.1164698991924524e-03" rms="3.8164040446281433e-01" purity="1.9611139595508575e-01" nType="-99"/>
          <Node pos="r" depth="2" NCoef="0" IVar="-1" Cut="0.0000000000000000e+00" cType="1" res="6.7090126685798168e-04" rms="4.5619642734527588e-01" purity="5.6179457902908325e-01" nType="-99"/>
        </Node>
        <Node pos="r" depth="1" NCoef="0" IVar="-1" Cut="0.0000000000000000e+00" cType="1" res="-2.9802094213664532e-03" rms="4.1726970672607422e-01" purity="2.8089621663093567e-01" nType="-99"/>
      </Node>
    </BinaryTree>
    <BinaryTree type="DecisionTree" boostWeight="1.0000000000000000e+00" itree="485">
      <Node pos="s" depth="0" NCoef="0" IVar="2" Cut="1.0785700082778931e+00" cType="1" res="-9.3491813167929649e-03" rms="4.5205128192901611e-01" purity="5.0172024965286255e-01" nType="0">
        <Node pos="l" depth="1" NCoef="0" IVar="2" Cut="4.7728434205055237e-01" cType="1" res="1.6323814168572426e-02" rms="4.4880995154380798e-01" purity="6.1658203601837158e-01" nType="0">
          <Node pos="l" depth="2" NCoef="0" IVar="-1" Cut="0.0000000000000000e+00" cType="1" res="-2.8432414401322603e-03" rms="4.6726870536804199e-01" purity="5.4107427597045898e-01" nType="-99"/>
          <Node pos="r" depth="2" NCoef="0" IVar="-1" Cut="0.0000000000000000e+00" cType="1" res="6.3901924295350909e-04" rms="4.4517943263053894e-01" purity="6.2346756458282471e-01" nType="-99"/>
        </Node>
        <Node pos="r" depth="1" NCoef="0" IVar="0" Cut="6.2710862159729004e+00" cType="1" res="-5.0503794103860855e-02" rms="4.5418158173561096e-01" purity="3.1759342551231384e-01" nType="0">
          <Node pos="l" depth="2" NCoef="0" IVar="-1" Cut="0.0000000000000000e+00" cType="1" res="1.2176394229754806e-03" rms="4.4817015528678894e-01" purity="2.9109808802604675e-01" nType="-99"/>
          <Node pos="r" depth="2" NCoef="0" IVar="-1" Cut="0.0000000000000000e+00" cType="1" res="-2.3154211230576038e-03" rms="4.4772225618362427e-01" purity="3.3351525664329529e-01" nType="-99"/>
        </Node>
      </Node>
    </BinaryTree>
    <BinaryTree type="DecisionTree" boostWeight="1.0000000000000000e+00" itree="486">
      <Node pos="s" depth="0" NCoef="0" IVar="4" Cut="2.1980082702636719e+02" cType="1" res="-8.3592087030410767e-03" rms="4.4626533985137939e-01" purity="4.8426550626754761e-01" nType="0">
        <Node pos="l" depth="1" NCoef="0" IVar="0" Cut="6.6139760017395020e+00" cType="1" res="9.9832052364945412e-03" rms="4.4343057274818420e-01" purity="5.1041334867477417e-01" nType="0">
          <Node pos="l" depth="2" NCoef="0" IVar="-1" Cut="0.0000000000000000e+00" cType="1" res="-7.2643713792786002e-04" rms="4.5247945189476013e-01" purity="3.3187186717987061e-01" nType="-99"/>
          <Node pos="r" depth="2" NCoef="0" IVar="-1" Cut="0.0000000000000000e+00" cType="1" res="1.2042224407196045e-03" rms="4.3123924732208252e-01" purity="6.7126256227493286e-01" nType="-99"/>
        </Node>
        <Node pos="r" depth="1" NCoef="0" IVar="5" Cut="4.2537680268287659e-01" cType="1" res="-9.9644884467124939e-02" rms="4.4910702109336853e-01" purity="3.5413396358489990e-01" nType="0">
          <Node pos="l" depth="2" NCoef="0" IVar="-1" Cut="0.0000000000000000e+00" cType="1" res="-9.3718327116221189e-04" rms="4.3156024813652039e-01" purity="3.9683270454406738e-01" nType="-99"/>
          <Node pos="r" depth="2" NCoef="0" IVar="-1" Cut="0.0000000000000000e+00" cType="1" res="-4.6025961637496948e-03" rms="4.5958399772644043e-01" purity="2.7564623951911926e-01" nType="-99"/>
        </Node>
      </Node>
    </BinaryTree>
    <BinaryTree type="DecisionTree" boostWeight="1.0000000000000000e+00" itree="487">
      <Node pos="s" depth="0" NCoef="0" IVar="5" Cut="4.3569231033325195e-01" cType="1" res="-1.3892755378037691e-03" rms="4.4890478253364563e-01" purity="5.0893318653106689e-01" nType="0">
        <Node pos="l" depth="1" NCoef="0" IVar="3" Cut="1.8458917140960693e+00" cType="1" res="-3.4455515444278717e-02" rms="4.4712832570075989e-01" purity="4.3779352307319641e-01" nType="0">
          <Node pos="l" depth="2" NCoef="0" IVar="-1" Cut="0.0000000000000000e+00" cType="1" res="-2.7660571504384279e-03" rms="4.7051253914833069e-01" purity="4.3036928772926331e-01" nType="-99"/>
          <Node pos="r" depth="2" NCoef="0" IVar="-1" Cut="0.0000000000000000e+00" cType="1" res="-5.4126797476783395e-04" rms="4.4305148720741272e-01" purity="4.3863686919212341e-01" nType="-99"/>
        </Node>
        <Node pos="r" depth="1" NCoef="0" IVar="6" Cut="4.8836077880859375e+02" cType="1" res="4.1425511240959167e-02" rms="4.4757983088493347e-01" purity="6.0104614496231079e-01" nType="0">
          <Node pos="l" depth="2" NCoef="0" IVar="-1" Cut="0.0000000000000000e+00" cType="1" res="1.5274054603651166e-03" rms="4.3780291080474854e-01" purity="6.0482800006866455e-01" nType="-99"/>
          <Node pos="r" depth="2" NCoef="0" IVar="-1" Cut="0.0000000000000000e+00" cType="1" res="-1.4232291141524911e-03" rms="4.7142821550369263e-01" purity="5.8591586351394653e-01" nType="-99"/>
        </Node>
      </Node>
    </BinaryTree>
    <BinaryTree type="DecisionTree" boostWeight="1.0000000000000000e+00" itree="488">
      <Node pos="s" depth="0" NCoef="0" IVar="2" Cut="1.5158118009567261e+00" cType="1" res="8.4276907145977020e-03" rms="4.4705507159233093e-01" purity="5.2239978313446045e-01" nType="0">
        <Node pos="l" depth="1" NCoef="0" IVar="5" Cut="4.2462641000747681e-01" cType="1" res="2.1711517125368118e-02" rms="4.5599022507667542e-01" purity="5.6892812252044678e-01" nType="0">
          <Node pos="l" depth="2" NCoef="0" IVar="-1" Cut="0.0000000000000000e+00" cType="1" res="1.3307642657309771e-03" rms="4.5057728886604309e-01" purity="5.6562346220016479e-01" nType="-99"/>
          <Node pos="r" depth="2" NCoef="0" IVar="-1" Cut="0.0000000000000000e+00" cType="1" res="-3.4077055170200765e-04" rms="4.5853435993194580e-01" purity="5.7229399681091309e-01" nType="-99"/>
        </Node>
        <Node pos="r" depth="1" NCoef="0" IVar="3" Cut="2.6802241802215576e+00" cType="1" res="-9.5896743237972260e-02" rms="3.5244876146316528e-01" purity="1.5699021518230438e-01" nType="0">
          <Node pos="l" depth="2" NCoef="0" IVar="-1" Cut="0.0000000000000000e+00" cType="1" res="-1.4169286005198956e-03" rms="4.1970428824424744e-01" purity="2.3997882008552551e-01" nType="-99"/>
          <Node pos="r" depth="2" NCoef="0" IVar="-1" Cut="0.0000000000000000e+00" cType="1" res="-4.0733329951763153e-03" rms="2.5435373187065125e-01" purity="6.6900409758090973e-02" nType="-99"/>
        </Node>
      </Node>
    </BinaryTree>
    <BinaryTree type="DecisionTree" boostWeight="1.0000000000000000e+00" itree="489">
      <Node pos="s" depth="0" NCoef="0" IVar="2" Cut="6.4580810070037842e-01" cType="1" res="-7.0139142917469144e-04" rms="4.4400706887245178e-01" purity="4.9512994289398193e-01" nType="0">
        <Node pos="l" depth="1" NCoef="0" IVar="5" Cut="4.2955759167671204e-01" cType="1" res="5.9025105088949203e-02" rms="4.2596253752708435e-01" purity="7.1176183223724365e-01" nType="0">
          <Node pos="l" depth="2" NCoef="0" IVar="-1" Cut="0.0000000000000000e+00" cType="1" res="-2.5159024517051876e-04" rms="4.5235359668731689e-01" purity="6.2464749813079834e-01" nType="-99"/>
          <Node pos="r" depth="2" NCoef="0" IVar="-1" Cut="0.0000000000000000e+00" cType="1" res="2.8563044033944607e-03" rms="3.9380446076393127e-01" purity="7.8331899642944336e-01" nType="-99"/>
        </Node>
        <Node pos="r" depth="1" NCoef="0" IVar="2" Cut="1.4286057949066162e+00" cType="1" res="-1.2524858117103577e-02" rms="4.4654667377471924e-01" purity="4.5224541425704956e-01" nType="0">
          <Node pos="l" depth="2" NCoef="0" IVar="-1" Cut="0.0000000000000000e+00" cType="1" res="5.1680181059055030e-05" rms="4.6298453211784363e-01" purity="5.1948022842407227e-01" nType="-99"/>
          <Node pos="r" depth="2" NCoef="0" IVar="-1" Cut="0.0000000000000000e+00" cType="1" res="-1.7759003676474094e-03" rms="3.7109324336051941e-01" purity="1.9327199459075928e-01" nType="-99"/>
        </Node>
      </Node>
    </BinaryTree>
    <BinaryTree type="DecisionTree" boostWeight="1.0000000000000000e+00" itree="490">
      <Node pos="s" depth="0" NCoef="0" IVar="3" Cut="2.4944012165069580e+00" cType="1" res="3.6332376301288605e-02" rms="4.4636964797973633e-01" purity="5.3670370578765869e-01" nType="0">
        <Node pos="l" depth="1" NCoef="0" IVar="1" Cut="1.1528508758544922e+02" cType="1" res="5.9621538966894150e-02" rms="4.5193156599998474e-01" purity="6.0560017824172974e-01" nType="0">
          <Node pos="l" depth="2" NCoef="0" IVar="-1" Cut="0.0000000000000000e+00" cType="1" res="8.7820179760456085e-04" rms="4.6172240376472473e-01" purity="5.6649249792098999e-01" nType="-99"/>
          <Node pos="r" depth="2" NCoef="0" IVar="-1" Cut="0.0000000000000000e+00" cType="1" res="4.5070233754813671e-03" rms="3.7146374583244324e-01" purity="8.2819372415542603e-01" nType="-99"/>
        </Node>
        <Node pos="r" depth="1" NCoef="0" IVar="2" Cut="1.4892909526824951e+00" cType="1" res="-7.9127803444862366e-02" rms="3.9806517958641052e-01" purity="1.9513720273971558e-01" nType="0">
          <Node pos="l" depth="2" NCoef="0" IVar="-1" Cut="0.0000000000000000e+00" cType="1" res="-3.3790271263569593e-03" rms="3.9241617918014526e-01" purity="1.8242490291595459e-01" nType="-99"/>
          <Node pos="r" depth="2" NCoef="0" IVar="-1" Cut="0.0000000000000000e+00" cType="1" res="-8.4962864639237523e-04" rms="3.9553251862525940e-01" purity="2.0479649305343628e-01" nType="-99"/>
        </Node>
      </Node>
    </BinaryTree>
    <BinaryTree type="DecisionTree" boostWeight="1.0000000000000000e+00" itree="491">
      <Node pos="s" depth="0" NCoef="0" IVar="1" Cut="1.5327920532226562e+02" cType="1" res="-1.7488358542323112e-02" rms="4.3781197071075439e-01" purity="4.8660030961036682e-01" nType="0">
        <Node pos="l" depth="1" NCoef="0" IVar="1" Cut="5.0277626037597656e+01" cType="1" res="-6.9094048812985420e-03" rms="4.3665221333503723e-01" purity="4.9732694029808044e-01" nType="0">
          <Node pos="l" depth="2" NCoef="0" IVar="-1" Cut="0.0000000000000000e+00" cType="1" res="-1.4245455386117101e-03" rms="4.2532405257225037e-01" purity="3.8232392072677612e-01" nType="-99"/>
          <Node pos="r" depth="2" NCoef="0" IVar="-1" Cut="0.0000000000000000e+00" cType="1" res="3.0811151373200119e-04" rms="4.3874156475067139e-01" purity="5.3700035810470581e-01" nType="-99"/>
        </Node>
        <Node pos="r" depth="1" NCoef="0" IVar="-1" Cut="0.0000000000000000e+00" cType="1" res="-4.3508145026862621e-03" rms="4.1573739051818848e-01" purity="2.9761898517608643e-01" nType="-99"/>
      </Node>
    </BinaryTree>
    <BinaryTree type="DecisionTree" boostWeight="1.0000000000000000e+00" itree="492">
      <Node pos="s" depth="0" NCoef="0" IVar="6" Cut="3.2277453613281250e+02" cType="1" res="-9.8134251311421394e-03" rms="4.5131576061248779e-01" purity="4.9206468462944031e-01" nType="0">
        <Node pos="l" depth="1" NCoef="0" IVar="1" Cut="5.5547119140625000e+01" cType="1" res="6.1937164515256882e-02" rms="4.4141864776611328e-01" purity="4.7690248489379883e-01" nType="0">
          <Node pos="l" depth="2" NCoef="0" IVar="-1" Cut="0.0000000000000000e+00" cType="1" res="-2.0399059576448053e-04" rms="4.2226713895797729e-01" purity="3.8422021269798279e-01" nType="-99"/>
          <Node pos="r" depth="2" NCoef="0" IVar="-1" Cut="0.0000000000000000e+00" cType="1" res="2.9673227109014988e-03" rms="4.4871690869331360e-01" purity="5.6613945960998535e-01" nType="-99"/>
        </Node>
        <Node pos="r" depth="1" NCoef="0" IVar="5" Cut="4.0428549051284790e-01" cType="1" res="-3.3856663852930069e-02" rms="4.5204362273216248e-01" purity="4.9714544415473938e-01" nType="0">
          <Node pos="l" depth="2" NCoef="0" IVar="-1" Cut="0.0000000000000000e+00" cType="1" res="-1.3580684317275882e-03" rms="4.4582140445709229e-01" purity="4.1113951802253723e-01" nType="-99"/>
          <Node pos="r" depth="2" NCoef="0" IVar="-1" Cut="0.0000000000000000e+00" cType="1" res="-1.0008241224568337e-04" rms="4.5728671550750732e-01" purity="5.9580153226852417e-01" nType="-99"/>
        </Node>
      </Node>
    </BinaryTree>
    <BinaryTree type="DecisionTree" boostWeight="1.0000000000000000e+00" itree="493">
      <Node pos="s" depth="0" NCoef="0" IVar="1" Cut="4.6482086181640625e+01" cType="1" res="9.4266645610332489e-03" rms="4.4365707039833069e-01" purity="5.2418065071105957e-01" nType="0">
        <Node pos="l" depth="1" NCoef="0" IVar="2" Cut="1.0153892040252686e+00" cType="1" res="-7.7335722744464874e-02" rms="4.1698321700096130e-01" purity="3.5080128908157349e-01" nType="0">
          <Node pos="l" depth="2" NCoef="0" IVar="-1" Cut="0.0000000000000000e+00" cType="1" res="-2.4813896743580699e-04" rms="4.5721042156219482e-01" purity="5.2066338062286377e-01" nType="-99"/>
          <Node pos="r" depth="2" NCoef="0" IVar="-1" Cut="0.0000000000000000e+00" cType="1" res="-3.5218785051256418e-03" rms="3.5599336028099060e-01" purity="1.6959048807621002e-01" nType="-99"/>
        </Node>
        <Node pos="r" depth="1" NCoef="0" IVar="3" Cut="2.6759085655212402e+00" cType="1" res="2.6223184540867805e-02" rms="4.4669494032859802e-01" purity="5.5774551630020142e-01" nType="0">
          <Node pos="l" depth="2" NCoef="0" IVar="-1" Cut="0.0000000000000000e+00" cType="1" res="7.9518218990415335e-04" rms="4.5084753632545471e-01" purity="5.9058225154876709e-01" nType="-99"/>
          <Node pos="r" depth="2" NCoef="0" IVar="-1" Cut="0.0000000000000000e+00" cType="1" res="-1.7465889686718583e-03" rms="3.8339790701866150e-01" purity="1.7226786911487579e-01" nType="-99"/>
        </Node>
      </Node>
    </BinaryTree>
    <BinaryTree type="DecisionTree" boostWeight="1.0000000000000000e+00" itree="494">
      <Node pos="s" depth="0" NCoef="0" IVar="1" Cut="1.4923280334472656e+02" cType="1" res="-1.2924299808219075e-03" rms="4.5680204033851624e-01" purity="4.9697867035865784e-01" nType="0">
        <Node pos="l" depth="1" NCoef="0" IVar="1" Cut="9.8898468017578125e+01" cType="1" res="7.1179587393999100e-03" rms="4.5220780372619629e-01" purity="5.0402647256851196e-01" nType="0">
          <Node pos="l" depth="2" NCoef="0" IVar="-1" Cut="0.0000000000000000e+00" cType="1" res="-2.8854765696451068e-04" rms="4.6058526635169983e-01" purity="4.6497336030006409e-01" nType="-99"/>
          <Node pos="r" depth="2" NCoef="0" IVar="-1" Cut="0.0000000000000000e+00" cType="1" res="1.7622484592720866e-03" rms="4.1655471920967102e-01" purity="6.3331681489944458e-01" nType="-99"/>
        </Node>
        <Node pos="r" depth="1" NCoef="0" IVar="-1" Cut="0.0000000000000000e+00" cType="1" res="-3.1970944255590439e-03" rms="5.0555872917175293e-01" purity="3.8669681549072266e-01" nType="-99"/>
      </Node>
    </BinaryTree>
    <BinaryTree type="DecisionTree" boostWeight="1.0000000000000000e+00" itree="495">
      <Node pos="s" depth="0" NCoef="0" IVar="3" Cut="2.2490909099578857e+00" cType="1" res="7.9251034185290337e-03" rms="4.5394602417945862e-01" purity="5.0718504190444946e-01" nType="0">
        <Node pos="l" depth="1" NCoef="0" IVar="2" Cut="1.0727243423461914e+00" cType="1" res="3.3888291567564011e-02" rms="4.6022272109985352e-01" purity="5.9780615568161011e-01" nType="0">
          <Node pos="l" depth="2" NCoef="0" IVar="-1" Cut="0.0000000000000000e+00" cType="1" res="3.4740075352601707e-04" rms="4.5966452360153198e-01" purity="6.1115968227386475e-01" nType="-99"/>
          <Node pos="r" depth="2" NCoef="0" IVar="-1" Cut="0.0000000000000000e+00" cType="1" res="2.3509827442467213e-03" rms="4.5468315482139587e-01" purity="5.4343295097351074e-01" nType="-99"/>
        </Node>
        <Node pos="r" depth="1" NCoef="0" IVar="3" Cut="2.5909404754638672e+00" cType="1" res="-3.9534065872430801e-02" rms="4.3828499317169189e-01" purity="3.4153497219085693e-01" nType="0">
          <Node pos="l" depth="2" NCoef="0" IVar="-1" Cut="0.0000000000000000e+00" cType="1" res="-1.4929218450561166e-03" rms="4.4112113118171692e-01" purity="3.6685574054718018e-01" nType="-99"/>
          <Node pos="r" depth="2" NCoef="0" IVar="-1" Cut="0.0000000000000000e+00" cType="1" res="7.8921951353549957e-04" rms="4.2331013083457947e-01" purity="2.7582404017448425e-01" nType="-99"/>
        </Node>
      </Node>
    </BinaryTree>
    <BinaryTree type="DecisionTree" boostWeight="1.0000000000000000e+00" itree="496">
      <Node pos="s" depth="0" NCoef="0" IVar="1" Cut="9.7943672180175781e+01" cType="1" res="-1.6991438344120979e-02" rms="4.5295736193656921e-01" purity="4.8106244206428528e-01" nType="0">
        <Node pos="l" depth="1" NCoef="0" IVar="4" Cut="2.0385148620605469e+02" cType="1" res="-3.7417583167552948e-02" rms="4.5375496149063110e-01" purity="4.3986588716506958e-01" nType="0">
          <Node pos="l" depth="2" NCoef="0" IVar="-1" Cut="0.0000000000000000e+00" cType="1" res="-4.7601616824977100e-04" rms="4.5898446440696716e-01" purity="4.6618577837944031e-01" nType="-99"/>
          <Node pos="r" depth="2" NCoef="0" IVar="-1" Cut="0.0000000000000000e+00" cType="1" res="-2.5772391818463802e-03" rms="4.1963443160057068e-01" purity="3.1472587585449219e-01" nType="-99"/>
        </Node>
        <Node pos="r" depth="1" NCoef="0" IVar="3" Cut="2.4482226371765137e+00" cType="1" res="3.2239858061075211e-02" rms="4.4721138477325439e-01" purity="5.8035492897033691e-01" nType="0">
          <Node pos="l" depth="2" NCoef="0" IVar="-1" Cut="0.0000000000000000e+00" cType="1" res="1.7620945582166314e-03" rms="4.3828845024108887e-01" purity="7.0609581470489502e-01" nType="-99"/>
          <Node pos="r" depth="2" NCoef="0" IVar="-1" Cut="0.0000000000000000e+00" cType="1" res="-1.5020987484604120e-03" rms="4.5381629467010498e-01" purity="2.7437886595726013e-01" nType="-99"/>
        </Node>
      </Node>
    </BinaryTree>
    <BinaryTree type="DecisionTree" boostWeight="1.0000000000000000e+00" itree="497">
      <Node pos="s" depth="0" NCoef="0" IVar="0" Cut="6.0901412963867188e+00" cType="1" res="-1.5407395549118519e-02" rms="4.4080242514610291e-01" purity="4.8009151220321655e-01" nType="0">
        <Node pos="l" depth="1" NCoef="0" IVar="0" Cut="5.5745239257812500e+00" cType="1" res="-6.5285906195640564e-02" rms="4.1274559497833252e-01" purity="2.5511705875396729e-01" nType="0">
          <Node pos="l" depth="2" NCoef="0" IVar="-1" Cut="0.0000000000000000e+00" cType="1" res="-1.8825376173481345e-03" rms="3.9006659388542175e-01" purity="2.0559807121753693e-01" nType="-99"/>
          <Node pos="r" depth="2" NCoef="0" IVar="-1" Cut="0.0000000000000000e+00" cType="1" res="-7.9184514470398426e-04" rms="4.4000667333602905e-01" purity="3.2205799221992493e-01" nType="-99"/>
        </Node>
        <Node pos="r" depth="1" NCoef="0" IVar="1" Cut="3.8807975769042969e+01" cType="1" res="6.1934120021760464e-03" rms="4.5070371031761169e-01" purity="5.7752084732055664e-01" nType="0">
          <Node pos="l" depth="2" NCoef="0" IVar="-1" Cut="0.0000000000000000e+00" cType="1" res="-2.1435751114040613e-03" rms="4.7730943560600281e-01" purity="3.7774816155433655e-01" nType="-99"/>
          <Node pos="r" depth="2" NCoef="0" IVar="-1" Cut="0.0000000000000000e+00" cType="1" res="4.4836284359917045e-04" rms="4.4573989510536194e-01" purity="6.0060900449752808e-01" nType="-99"/>
        </Node>
      </Node>
    </BinaryTree>
    <BinaryTree type="DecisionTree" boostWeight="1.0000000000000000e+00" itree="498">
      <Node pos="s" depth="0" NCoef="0" IVar="0" Cut="5.7821750640869141e+00" cType="1" res="1.3317494653165340e-02" rms="4.4119319319725037e-01" purity="5.1753681898117065e-01" nType="0">
        <Node pos="l" depth="1" NCoef="0" IVar="1" Cut="9.7356903076171875e+01" cType="1" res="-7.2650656104087830e-02" rms="4.1407564282417297e-01" purity="2.4413353204727173e-01" nType="0">
          <Node pos="l" depth="2" NCoef="0" IVar="-1" Cut="0.0000000000000000e+00" cType="1" res="-2.1630064584314823e-03" rms="3.9989396929740906e-01" purity="2.0677694678306580e-01" nType="-99"/>
          <Node pos="r" depth="2" NCoef="0" IVar="-1" Cut="0.0000000000000000e+00" cType="1" res="3.6153543624095619e-04" rms="4.4301700592041016e-01" purity="3.5845589637756348e-01" nType="-99"/>
        </Node>
        <Node pos="r" depth="1" NCoef="0" IVar="3" Cut="2.1823766231536865e+00" cType="1" res="3.8611821830272675e-02" rms="4.4571414589881897e-01" purity="5.9797996282577515e-01" nType="0">
          <Node pos="l" depth="2" NCoef="0" IVar="-1" Cut="0.0000000000000000e+00" cType="1" res="1.8497544806450605e-03" rms="4.2945373058319092e-01" purity="7.1677821874618530e-01" nType="-99"/>
          <Node pos="r" depth="2" NCoef="0" IVar="-1" Cut="0.0000000000000000e+00" cType="1" res="-1.9307949696667492e-04" rms="4.6052041649818420e-01" purity="4.5247215032577515e-01" nType="-99"/>
        </Node>
      </Node>
    </BinaryTree>
    <BinaryTree type="DecisionTree" boostWeight="1.0000000000000000e+00" itree="499">
      <Node pos="s" depth="0" NCoef="0" IVar="1" Cut="7.4428245544433594e+01" cType="1" res="1.5826586168259382e-03" rms="4.4812694191932678e-01" purity="4.9830338358879089e-01" nType="0">
        <Node pos="l" depth="1" NCoef="0" IVar="2" Cut="1.0182662010192871e+00" cType="1" res="-2.6605619117617607e-02" rms="4.5194709300994873e-01" purity="4.4928154349327087e-01" nType="0">
          <Node pos="l" depth="2" NCoef="0" IVar="-1" Cut="0.0000000000000000e+00" cType="1" res="1.3812079851049930e-04" rms="4.6022135019302368e-01" purity="5.6833308935165405e-01" nType="-99"/>
          <Node pos="r" depth="2" NCoef="0" IVar="-1" Cut="0.0000000000000000e+00" cType="1" res="-1.6668323660269380e-03" rms="4.3550768494606018e-01" purity="2.7908861637115479e-01" nType="-99"/>
        </Node>
        <Node pos="r" depth="1" NCoef="0" IVar="2" Cut="6.1835056543350220e-01" cType="1" res="2.9676772654056549e-02" rms="4.4250378012657166e-01" purity="5.4716145992279053e-01" nType="0">
          <Node pos="l" depth="2" NCoef="0" IVar="-1" Cut="0.0000000000000000e+00" cType="1" res="3.8741289172321558e-03" rms="3.2819443941116333e-01" purity="8.6868548393249512e-01" nType="-99"/>
          <Node pos="r" depth="2" NCoef="0" IVar="-1" Cut="0.0000000000000000e+00" cType="1" res="3.6977516720071435e-04" rms="4.5318797230720520e-01" purity="5.0605636835098267e-01" nType="-99"/>
        </Node>
      </Node>
    </BinaryTree>
    <BinaryTree type="DecisionTree" boostWeight="1.0000000000000000e+00" itree="500">
      <Node pos="s" depth="0" NCoef="0" IVar="2" Cut="1.4823286533355713e+00" cType="1" res="-1.2167329899966717e-02" rms="4.3394735455513000e-01" purity="4.8834058642387390e-01" nType="0">
        <Node pos="l" depth="1" NCoef="0" IVar="6" Cut="4.5435675048828125e+02" cType="1" res="6.7702964879572392e-03" rms="4.4586920738220215e-01" purity="5.4791086912155151e-01" nType="0">
          <Node pos="l" depth="2" NCoef="0" IVar="-1" Cut="0.0000000000000000e+00" cType="1" res="7.6917844126001000e-04" rms="4.4689920544624329e-01" purity="5.4561775922775269e-01" nType="-99"/>
          <Node pos="r" depth="2" NCoef="0" IVar="-1" Cut="0.0000000000000000e+00" cType="1" res="-1.0172119364142418e-03" rms="4.3969050049781799e-01" purity="5.5201029777526855e-01" nType="-99"/>
        </Node>
        <Node pos="r" depth="1" NCoef="0" IVar="3" Cut="2.6102426052093506e+00" cType="1" res="-1.2662726640701294e-01" rms="3.3112734556198120e-01" purity="1.2829536199569702e-01" nType="0">
          <Node pos="l" depth="2" NCoef="0" IVar="-1" Cut="0.0000000000000000e+00" cType="1" res="-4.4052326120436192e-03" rms="3.0841541290283203e-01" purity="1.1055121570825577e-01" nType="-99"/>
          <Node pos="r" depth="2" NCoef="0" IVar="-1" Cut="0.0000000000000000e+00" cType="1" res="-2.2012563422322273e-03" rms="3.4143525362014771e-01" purity="1.4269134402275085e-01" nType="-99"/>
        </Node>
      </Node>
    </BinaryTree>
    <BinaryTree type="DecisionTree" boostWeight="1.0000000000000000e+00" itree="501">
      <Node pos="s" depth="0" NCoef="0" IVar="5" Cut="4.2170962691307068e-01" cType="1" res="-1.1103133670985699e-02" rms="4.4717064499855042e-01" purity="4.9116697907447815e-01" nType="0">
        <Node pos="l" depth="1" NCoef="0" IVar="0" Cut="7.5835704803466797e+00" cType="1" res="-4.0887519717216492e-02" rms="4.3780466914176941e-01" purity="4.1203710436820984e-01" nType="0">
          <Node pos="l" depth="2" NCoef="0" IVar="-1" Cut="0.0000000000000000e+00" cType="1" res="-1.5110124368220568e-03" rms="4.3414416909217834e-01" purity="3.1751900911331177e-01" nType="-99"/>
          <Node pos="r" depth="2" NCoef="0" IVar="-1" Cut="0.0000000000000000e+00" cType="1" res="6.2564708059653640e-04" rms="4.3991065025329590e-01" purity="6.4996314048767090e-01" nType="-99"/>
        </Node>
        <Node pos="r" depth="1" NCoef="0" IVar="1" Cut="7.8389610290527344e+01" cType="1" res="2.5100378319621086e-02" rms="4.5568367838859558e-01" purity="5.8735078573226929e-01" nType="0">
          <Node pos="l" depth="2" NCoef="0" IVar="-1" Cut="0.0000000000000000e+00" cType="1" res="-7.5329118408262730e-04" rms="4.6165969967842102e-01" purity="5.0436180830001831e-01" nType="-99"/>
          <Node pos="r" depth="2" NCoef="0" IVar="-1" Cut="0.0000000000000000e+00" cType="1" res="2.0637505222111940e-03" rms="4.4132623076438904e-01" purity="6.7303365468978882e-01" nType="-99"/>
        </Node>
      </Node>
    </BinaryTree>
    <BinaryTree type="DecisionTree" boostWeight="1.0000000000000000e+00" itree="502">
      <Node pos="s" depth="0" NCoef="0" IVar="0" Cut="7.9720363616943359e+00" cType="1" res="-1.7985453829169273e-02" rms="4.4219249486923218e-01" purity="4.8227238655090332e-01" nType="0">
        <Node pos="l" depth="1" NCoef="0" IVar="4" Cut="1.1668321990966797e+02" cType="1" res="-3.7732250988483429e-02" rms="4.4766685366630554e-01" purity="4.0431550145149231e-01" nType="0">
          <Node pos="l" depth="2" NCoef="0" IVar="-1" Cut="0.0000000000000000e+00" cType="1" res="-1.5372750349342823e-03" rms="4.4563713669776917e-01" purity="3.8757848739624023e-01" nType="-99"/>
          <Node pos="r" depth="2" NCoef="0" IVar="-1" Cut="0.0000000000000000e+00" cType="1" res="1.9394780974835157e-04" rms="4.4633686542510986e-01" purity="4.2732992768287659e-01" nType="-99"/>
        </Node>
        <Node pos="r" depth="1" NCoef="0" IVar="6" Cut="3.4014932250976562e+02" cType="1" res="4.6972643584012985e-02" rms="4.1714170575141907e-01" purity="7.3871541023254395e-01" nType="0">
          <Node pos="l" depth="2" NCoef="0" IVar="-1" Cut="0.0000000000000000e+00" cType="1" res="4.7672246582806110e-03" rms="3.8690039515495300e-01" purity="8.0116510391235352e-01" nType="-99"/>
          <Node pos="r" depth="2" NCoef="0" IVar="-1" Cut="0.0000000000000000e+00" cType="1" res="1.8081773305311799e-04" rms="4.1669607162475586e-01" purity="7.2086966037750244e-01" nType="-99"/>
        </Node>
      </Node>
    </BinaryTree>
    <BinaryTree type="DecisionTree" boostWeight="1.0000000000000000e+00" itree="503">
      <Node pos="s" depth="0" NCoef="0" IVar="6" Cut="2.8481784057617188e+02" cType="1" res="1.5658197924494743e-02" rms="4.4817706942558289e-01" purity="5.1652747392654419e-01" nType="0">
        <Node pos="l" depth="1" NCoef="0" IVar="5" Cut="5.2052581310272217e-01" cType="1" res="-1.0710188001394272e-01" rms="3.9602571725845337e-01" purity="2.8354924917221069e-01" nType="0">
          <Node pos="l" depth="2" NCoef="0" IVar="-1" Cut="0.0000000000000000e+00" cType="1" res="-3.6545679904520512e-03" rms="3.5893362760543823e-01" purity="1.8381538987159729e-01" nType="-99"/>
          <Node pos="r" depth="2" NCoef="0" IVar="-1" Cut="0.0000000000000000e+00" cType="1" res="-1.2755885254591703e-03" rms="4.2509782314300537e-01" purity="3.8498792052268982e-01" nType="-99"/>
        </Node>
        <Node pos="r" depth="1" NCoef="0" IVar="4" Cut="2.2274728393554688e+02" cType="1" res="3.3885788172483444e-02" rms="4.5258137583732605e-01" purity="5.5112040042877197e-01" nType="0">
          <Node pos="l" depth="2" NCoef="0" IVar="-1" Cut="0.0000000000000000e+00" cType="1" res="1.2762797996401787e-03" rms="4.5127224922180176e-01" purity="5.8584254980087280e-01" nType="-99"/>
          <Node pos="r" depth="2" NCoef="0" IVar="-1" Cut="0.0000000000000000e+00" cType="1" res="-1.3257400132715702e-03" rms="4.4655713438987732e-01" purity="4.0765097737312317e-01" nType="-99"/>
        </Node>
      </Node>
    </BinaryTree>
    <BinaryTree type="DecisionTree" boostWeight="1.0000000000000000e+00" itree="504">
      <Node pos="s" depth="0" NCoef="0" IVar="6" Cut="2.6901834106445312e+02" cType="1" res="-2.2770401090383530e-02" rms="4.4653734564781189e-01" purity="4.7117003798484802e-01" nType="0">
        <Node pos="l" depth="1" NCoef="0" IVar="-1" Cut="0.0000000000000000e+00" cType="1" res="-4.5017944648861885e-03" rms="3.2786139845848083e-01" purity="1.5877558290958405e-01" nType="-99"/>
        <Node pos="r" depth="1" NCoef="0" IVar="0" Cut="8.6034383773803711e+00" cType="1" res="-4.5096138492226601e-03" rms="4.5388948917388916e-01" purity="5.0520902872085571e-01" nType="0">
          <Node pos="l" depth="2" NCoef="0" IVar="-1" Cut="0.0000000000000000e+00" cType="1" res="1.8257026385981590e-04" rms="4.5380336046218872e-01" purity="4.8151153326034546e-01" nType="-99"/>
          <Node pos="r" depth="2" NCoef="0" IVar="-1" Cut="0.0000000000000000e+00" cType="1" res="-2.3509503807872534e-03" rms="4.4676402211189270e-01" purity="6.5130001306533813e-01" nType="-99"/>
        </Node>
      </Node>
    </BinaryTree>
    <BinaryTree type="DecisionTree" boostWeight="1.0000000000000000e+00" itree="505">
      <Node pos="s" depth="0" NCoef="0" IVar="3" Cut="2.1712880134582520e+00" cType="1" res="2.4372106418013573e-03" rms="4.4709280133247375e-01" purity="4.9779582023620605e-01" nType="0">
        <Node pos="l" depth="1" NCoef="0" IVar="3" Cut="1.7606608867645264e+00" cType="1" res="3.1324785202741623e-02" rms="4.5494845509529114e-01" purity="6.2055188417434692e-01" nType="0">
          <Node pos="l" depth="2" NCoef="0" IVar="-1" Cut="0.0000000000000000e+00" cType="1" res="-1.4746922533959150e-03" rms="4.6363872289657593e-01" purity="4.9772223830223083e-01" nType="-99"/>
          <Node pos="r" depth="2" NCoef="0" IVar="-1" Cut="0.0000000000000000e+00" cType="1" res="1.1303285136818886e-03" rms="4.5136260986328125e-01" purity="6.4168381690979004e-01" nType="-99"/>
        </Node>
        <Node pos="r" depth="1" NCoef="0" IVar="4" Cut="1.0170061492919922e+02" cType="1" res="-2.9077755287289619e-02" rms="4.3618544936180115e-01" purity="3.6387479305267334e-01" nType="0">
          <Node pos="l" depth="2" NCoef="0" IVar="-1" Cut="0.0000000000000000e+00" cType="1" res="-1.6086018877103925e-03" rms="4.4056722521781921e-01" purity="3.4133830666542053e-01" nType="-99"/>
          <Node pos="r" depth="2" NCoef="0" IVar="-1" Cut="0.0000000000000000e+00" cType="1" res="7.1830494562163949e-05" rms="4.3002212047576904e-01" purity="3.8140845298767090e-01" nType="-99"/>
        </Node>
      </Node>
    </BinaryTree>
    <BinaryTree type="DecisionTree" boostWeight="1.0000000000000000e+00" itree="506">
      <Node pos="s" depth="0" NCoef="0" IVar="2" Cut="4.9203908443450928e-01" cType="1" res="-2.5024455040693283e-02" rms="4.4675338268280029e-01" purity="4.7039031982421875e-01" nType="0">
        <Node pos="l" depth="1" NCoef="0" IVar="-1" Cut="0.0000000000000000e+00" cType="1" res="3.5771236289292574e-03" rms="3.7541130185127258e-01" purity="7.9692351818084717e-01" nType="-99"/>
        <Node pos="r" depth="1" NCoef="0" IVar="4" Cut="1.3652622985839844e+02" cType="1" res="-3.6019191145896912e-02" rms="4.4912794232368469e-01" purity="4.4804182648658752e-01" nType="0">
          <Node pos="l" depth="2" NCoef="0" IVar="-1" Cut="0.0000000000000000e+00" cType="1" res="-4.9035854317480698e-05" rms="4.5237582921981812e-01" purity="4.9295204877853394e-01" nType="-99"/>
          <Node pos="r" depth="2" NCoef="0" IVar="-1" Cut="0.0000000000000000e+00" cType="1" res="-2.1936516277492046e-03" rms="4.3681991100311279e-01" purity="3.6796513199806213e-01" nType="-99"/>
        </Node>
      </Node>
    </BinaryTree>
    <BinaryTree type="DecisionTree" boostWeight="1.0000000000000000e+00" itree="507">
      <Node pos="s" depth="0" NCoef="0" IVar="0" Cut="4.9993267059326172e+00" cType="1" res="-1.4969052746891975e-02" rms="4.4737082719802856e-01" purity="4.7870060801506042e-01" nType="0">
        <Node pos="l" depth="1" NCoef="0" IVar="-1" Cut="0.0000000000000000e+00" cType="1" res="-2.8885065112262964e-03" rms="3.5294324159622192e-01" purity="1.3266468048095703e-01" nType="-99"/>
        <Node pos="r" depth="1" NCoef="0" IVar="5" Cut="4.9601575732231140e-01" cType="1" res="-5.8869579806923866e-03" rms="4.5247536897659302e-01" purity="5.0506728887557983e-01" nType="0">
          <Node pos="l" depth="2" NCoef="0" IVar="-1" Cut="0.0000000000000000e+00" cType="1" res="-6.0845160624012351e-04" rms="4.4541120529174805e-01" purity="4.5191958546638489e-01" nType="-99"/>
          <Node pos="r" depth="2" NCoef="0" IVar="-1" Cut="0.0000000000000000e+00" cType="1" res="9.2812627553939819e-04" rms="4.6436861157417297e-01" purity="6.2258863449096680e-01" nType="-99"/>
        </Node>
      </Node>
    </BinaryTree>
    <BinaryTree type="DecisionTree" boostWeight="1.0000000000000000e+00" itree="508">
      <Node pos="s" depth="0" NCoef="0" IVar="5" Cut="6.2427246570587158e-01" cType="1" res="3.7821251899003983e-03" rms="4.4254142045974731e-01" purity="5.0115573406219482e-01" nType="0">
        <Node pos="l" depth="1" NCoef="0" IVar="3" Cut="2.7554266452789307e+00" cType="1" res="-8.9141521602869034e-03" rms="4.4364240765571594e-01" purity="4.7718492150306702e-01" nType="0">
          <Node pos="l" depth="2" NCoef="0" IVar="-1" Cut="0.0000000000000000e+00" cType="1" res="-5.6794560805428773e-06" rms="4.5286583900451660e-01" purity="5.1323091983795166e-01" nType="-99"/>
          <Node pos="r" depth="2" NCoef="0" IVar="-1" Cut="0.0000000000000000e+00" cType="1" res="-2.6449062861502171e-03" rms="3.2392278313636780e-01" purity="1.1328221112489700e-01" nType="-99"/>
        </Node>
        <Node pos="r" depth="1" NCoef="0" IVar="0" Cut="6.8614635467529297e+00" cType="1" res="8.1687912344932556e-02" rms="4.2754846811294556e-01" purity="6.4824342727661133e-01" nType="0">
          <Node pos="l" depth="2" NCoef="0" IVar="-1" Cut="0.0000000000000000e+00" cType="1" res="2.7325467672199011e-03" rms="4.4171896576881409e-01" purity="5.8916217088699341e-01" nType="-99"/>
          <Node pos="r" depth="2" NCoef="0" IVar="-1" Cut="0.0000000000000000e+00" cType="1" res="4.0062764310277998e-04" rms="3.9913016557693481e-01" purity="7.2323006391525269e-01" nType="-99"/>
        </Node>
      </Node>
    </BinaryTree>
    <BinaryTree type="DecisionTree" boostWeight="1.0000000000000000e+00" itree="509">
      <Node pos="s" depth="0" NCoef="0" IVar="5" Cut="6.4492613077163696e-01" cType="1" res="-4.9861785955727100e-03" rms="4.5515191555023193e-01" purity="4.9414756894111633e-01" nType="0">
        <Node pos="l" depth="1" NCoef="0" IVar="1" Cut="4.8850101470947266e+01" cType="1" res="-1.4638042077422142e-02" rms="4.5406109094619751e-01" purity="4.7561693191528320e-01" nType="0">
          <Node pos="l" depth="2" NCoef="0" IVar="-1" Cut="0.0000000000000000e+00" cType="1" res="-1.5808311291038990e-03" rms="4.4178727269172668e-01" purity="3.7740975618362427e-01" nType="-99"/>
          <Node pos="r" depth="2" NCoef="0" IVar="-1" Cut="0.0000000000000000e+00" cType="1" res="-5.0199378165416420e-05" rms="4.5576447248458862e-01" purity="4.9721017479896545e-01" nType="-99"/>
        </Node>
        <Node pos="r" depth="1" NCoef="0" IVar="3" Cut="2.0496356487274170e+00" cType="1" res="7.1762673556804657e-02" rms="4.5652875304222107e-01" purity="6.4149761199951172e-01" nType="0">
          <Node pos="l" depth="2" NCoef="0" IVar="-1" Cut="0.0000000000000000e+00" cType="1" res="-1.6740782302804291e-04" rms="4.4099938869476318e-01" purity="6.2143397331237793e-01" nType="-99"/>
          <Node pos="r" depth="2" NCoef="0" IVar="-1" Cut="0.0000000000000000e+00" cType="1" res="3.1597455963492393e-03" rms="4.5881316065788269e-01" purity="6.5855115652084351e-01" nType="-99"/>
        </Node>
      </Node>
    </BinaryTree>
    <BinaryTree type="DecisionTree" boostWeight="1.0000000000000000e+00" itree="510">
      <Node pos="s" depth="0" NCoef="0" IVar="5" Cut="5.4864323139190674e-01" cType="1" res="-5.7197548449039459e-03" rms="4.4855433702468872e-01" purity="4.9213191866874695e-01" nType="0">
        <Node pos="l" depth="1" NCoef="0" IVar="2" Cut="5.6362873315811157e-01" cType="1" res="-2.8326770290732384e-02" rms="4.4344404339790344e-01" purity="4.3954333662986755e-01" nType="0">
          <Node pos="l" depth="2" NCoef="0" IVar="-1" Cut="0.0000000000000000e+00" cType="1" res="2.7594505809247494e-03" rms="4.3068945407867432e-01" purity="7.4806058406829834e-01" nType="-99"/>
          <Node pos="r" depth="2" NCoef="0" IVar="-1" Cut="0.0000000000000000e+00" cType="1" res="-9.8767131567001343e-04" rms="4.4207662343978882e-01" purity="4.0884801745414734e-01" nType="-99"/>
        </Node>
        <Node pos="r" depth="1" NCoef="0" IVar="1" Cut="1.0567688751220703e+02" cType="1" res="5.3679700940847397e-02" rms="4.5640647411346436e-01" purity="6.3030731678009033e-01" nType="0">
          <Node pos="l" depth="2" NCoef="0" IVar="-1" Cut="0.0000000000000000e+00" cType="1" res="2.0085945725440979e-03" rms="4.5160022377967834e-01" purity="6.4006501436233521e-01" nType="-99"/>
          <Node pos="r" depth="2" NCoef="0" IVar="-1" Cut="0.0000000000000000e+00" cType="1" res="-1.7449005972594023e-03" rms="4.5158949494361877e-01" purity="5.9536838531494141e-01" nType="-99"/>
        </Node>
      </Node>
    </BinaryTree>
    <BinaryTree type="DecisionTree" boostWeight="1.0000000000000000e+00" itree="511">
      <Node pos="s" depth="0" NCoef="0" IVar="0" Cut="4.8252658843994141e+00" cType="1" res="-8.8373087346553802e-03" rms="4.5752522349357605e-01" purity="4.8379477858543396e-01" nType="0">
        <Node pos="l" depth="1" NCoef="0" IVar="-1" Cut="0.0000000000000000e+00" cType="1" res="-3.6320814397186041e-03" rms="2.9899093508720398e-01" purity="9.1850444674491882e-02" nType="-99"/>
        <Node pos="r" depth="1" NCoef="0" IVar="6" Cut="6.3150329589843750e+02" cType="1" res="1.0919638443738222e-03" rms="4.6445298194885254e-01" purity="5.0983923673629761e-01" nType="0">
          <Node pos="l" depth="2" NCoef="0" IVar="-1" Cut="0.0000000000000000e+00" cType="1" res="3.7944523501209915e-04" rms="4.6171355247497559e-01" purity="5.1162016391754150e-01" nType="-99"/>
          <Node pos="r" depth="2" NCoef="0" IVar="-1" Cut="0.0000000000000000e+00" cType="1" res="-2.3614594247192144e-03" rms="4.6911716461181641e-01" purity="4.9819844961166382e-01" nType="-99"/>
        </Node>
      </Node>
    </BinaryTree>
    <BinaryTree type="DecisionTree" boostWeight="1.0000000000000000e+00" itree="512">
      <Node pos="s" depth="0" NCoef="0" IVar="1" Cut="4.2646629333496094e+01" cType="1" res="6.1669116839766502e-03" rms="4.5018741488456726e-01" purity="5.0835120677947998e-01" nType="0">
        <Node pos="l" depth="1" NCoef="0" IVar="1" Cut="3.7175701141357422e+01" cType="1" res="-9.3195207417011261e-02" rms="4.1495108604431152e-01" purity="3.1638228893280029e-01" nType="0">
          <Node pos="l" depth="2" NCoef="0" IVar="-1" Cut="0.0000000000000000e+00" cType="1" res="-3.7697507068514824e-03" rms="4.0257728099822998e-01" purity="2.2349587082862854e-01" nType="-99"/>
          <Node pos="r" depth="2" NCoef="0" IVar="-1" Cut="0.0000000000000000e+00" cType="1" res="8.9675933122634888e-04" rms="3.9994880557060242e-01" purity="4.6408995985984802e-01" nType="-99"/>
        </Node>
        <Node pos="r" depth="1" NCoef="0" IVar="0" Cut="9.2447538375854492e+00" cType="1" res="2.3169158026576042e-02" rms="4.5376926660537720e-01" purity="5.4119980335235596e-01" nType="0">
          <Node pos="l" depth="2" NCoef="0" IVar="-1" Cut="0.0000000000000000e+00" cType="1" res="3.4474142012186348e-04" rms="4.6073129773139954e-01" purity="5.1714444160461426e-01" nType="-99"/>
          <Node pos="r" depth="2" NCoef="0" IVar="-1" Cut="0.0000000000000000e+00" cType="1" res="4.2202565819025040e-03" rms="3.1858974695205688e-01" purity="8.8201636075973511e-01" nType="-99"/>
        </Node>
      </Node>
    </BinaryTree>
    <BinaryTree type="DecisionTree" boostWeight="1.0000000000000000e+00" itree="513">
      <Node pos="s" depth="0" NCoef="0" IVar="6" Cut="6.6141540527343750e+02" cType="1" res="4.5165112242102623e-03" rms="4.5305091142654419e-01" purity="5.0951594114303589e-01" nType="0">
        <Node pos="l" depth="1" NCoef="0" IVar="4" Cut="7.6186218261718750e+01" cType="1" res="-7.3094484396278858e-03" rms="4.5568904280662537e-01" purity="4.9003127217292786e-01" nType="0">
          <Node pos="l" depth="2" NCoef="0" IVar="-1" Cut="0.0000000000000000e+00" cType="1" res="8.2936970284208655e-04" rms="4.5085090398788452e-01" purity="5.4296958446502686e-01" nType="-99"/>
          <Node pos="r" depth="2" NCoef="0" IVar="-1" Cut="0.0000000000000000e+00" cType="1" res="-8.1053405301645398e-04" rms="4.5653370022773743e-01" purity="4.5495361089706421e-01" nType="-99"/>
        </Node>
        <Node pos="r" depth="1" NCoef="0" IVar="-1" Cut="0.0000000000000000e+00" cType="1" res="2.6397588662803173e-03" rms="4.1369974613189697e-01" purity="6.8466305732727051e-01" nType="-99"/>
      </Node>
    </BinaryTree>
    <BinaryTree type="DecisionTree" boostWeight="1.0000000000000000e+00" itree="514">
      <Node pos="s" depth="0" NCoef="0" IVar="5" Cut="3.6266681551933289e-01" cType="1" res="-2.4553120136260986e-02" rms="4.5450454950332642e-01" purity="4.7672328352928162e-01" nType="0">
        <Node pos="l" depth="1" NCoef="0" IVar="6" Cut="6.9260870361328125e+02" cType="1" res="4.0161004289984703e-03" rms="4.4984477758407593e-01" purity="4.4251516461372375e-01" nType="0">
          <Node pos="l" depth="2" NCoef="0" IVar="-1" Cut="0.0000000000000000e+00" cType="1" res="4.9327942542731762e-04" rms="4.4135236740112305e-01" purity="4.3918371200561523e-01" nType="-99"/>
          <Node pos="r" depth="2" NCoef="0" IVar="-1" Cut="0.0000000000000000e+00" cType="1" res="-2.9363711364567280e-03" rms="4.9103447794914246e-01" purity="4.6804502606391907e-01" nType="-99"/>
        </Node>
        <Node pos="r" depth="1" NCoef="0" IVar="5" Cut="6.4778065681457520e-01" cType="1" res="-4.7547720372676849e-02" rms="4.5692503452301025e-01" purity="5.0425648689270020e-01" nType="0">
          <Node pos="l" depth="2" NCoef="0" IVar="-1" Cut="0.0000000000000000e+00" cType="1" res="-1.6222756821662188e-03" rms="4.6452769637107849e-01" purity="4.7796505689620972e-01" nType="-99"/>
          <Node pos="r" depth="2" NCoef="0" IVar="-1" Cut="0.0000000000000000e+00" cType="1" res="6.6374777816236019e-04" rms="4.2140793800354004e-01" purity="5.9219807386398315e-01" nType="-99"/>
        </Node>
      </Node>
    </BinaryTree>
    <BinaryTree type="DecisionTree" boostWeight="1.0000000000000000e+00" itree="515">
      <Node pos="s" depth="0" NCoef="0" IVar="6" Cut="4.3670657348632812e+02" cType="1" res="-4.2693279683589935e-03" rms="4.5123338699340820e-01" purity="4.9045616388320923e-01" nType="0">
        <Node pos="l" depth="1" NCoef="0" IVar="0" Cut="8.5574579238891602e+00" cType="1" res="-3.3905968070030212e-02" rms="4.4370493292808533e-01" purity="4.3925157189369202e-01" nType="0">
          <Node pos="l" depth="2" NCoef="0" IVar="-1" Cut="0.0000000000000000e+00" cType="1" res="-1.0545980185270309e-03" rms="4.4991558790206909e-01" purity="3.9488616585731506e-01" nType="-99"/>
          <Node pos="r" depth="2" NCoef="0" IVar="-1" Cut="0.0000000000000000e+00" cType="1" res="1.9920326303690672e-03" rms="3.7742882966995239e-01" purity="7.7985602617263794e-01" nType="-99"/>
        </Node>
        <Node pos="r" depth="1" NCoef="0" IVar="1" Cut="8.0582717895507812e+01" cType="1" res="4.4689506292343140e-02" rms="4.5923176407814026e-01" purity="5.7504457235336304e-01" nType="0">
          <Node pos="l" depth="2" NCoef="0" IVar="-1" Cut="0.0000000000000000e+00" cType="1" res="-5.5714795598760247e-04" rms="4.5103371143341064e-01" purity="4.6709847450256348e-01" nType="-99"/>
          <Node pos="r" depth="2" NCoef="0" IVar="-1" Cut="0.0000000000000000e+00" cType="1" res="2.1603254135698080e-03" rms="4.5885622501373291e-01" purity="6.4458787441253662e-01" nType="-99"/>
        </Node>
      </Node>
    </BinaryTree>
    <BinaryTree type="DecisionTree" boostWeight="1.0000000000000000e+00" itree="516">
      <Node pos="s" depth="0" NCoef="0" IVar="4" Cut="1.5217828369140625e+02" cType="1" res="3.2492789905518293e-03" rms="4.4833919405937195e-01" purity="5.0438058376312256e-01" nType="0">
        <Node pos="l" depth="1" NCoef="0" IVar="1" Cut="5.8238990783691406e+01" cType="1" res="2.3471407592296600e-02" rms="4.4573631882667542e-01" purity="5.3935033082962036e-01" nType="0">
          <Node pos="l" depth="2" NCoef="0" IVar="-1" Cut="0.0000000000000000e+00" cType="1" res="-5.3882860811427236e-04" rms="4.4993409514427185e-01" purity="4.4419193267822266e-01" nType="-99"/>
          <Node pos="r" depth="2" NCoef="0" IVar="-1" Cut="0.0000000000000000e+00" cType="1" res="1.1661060852929950e-03" rms="4.4122236967086792e-01" purity="5.9147810935974121e-01" nType="-99"/>
        </Node>
        <Node pos="r" depth="1" NCoef="0" IVar="5" Cut="5.4528570175170898e-01" cType="1" res="-4.1036009788513184e-02" rms="4.5082998275756836e-01" purity="4.2779877781867981e-01" nType="0">
          <Node pos="l" depth="2" NCoef="0" IVar="-1" Cut="0.0000000000000000e+00" cType="1" res="-3.2379414187744260e-04" rms="4.5197692513465881e-01" purity="4.3573871254920959e-01" nType="-99"/>
          <Node pos="r" depth="2" NCoef="0" IVar="-1" Cut="0.0000000000000000e+00" cType="1" res="-3.8699826691299677e-03" rms="4.2273911833763123e-01" purity="3.9061862230300903e-01" nType="-99"/>
        </Node>
      </Node>
    </BinaryTree>
    <BinaryTree type="DecisionTree" boostWeight="1.0000000000000000e+00" itree="517">
      <Node pos="s" depth="0" NCoef="0" IVar="5" Cut="6.8800961971282959e-01" cType="1" res="-1.8576264381408691e-02" rms="4.5230343937873840e-01" purity="4.9440887570381165e-01" nType="0">
        <Node pos="l" depth="1" NCoef="0" IVar="1" Cut="4.5787887573242188e+01" cType="1" res="-2.5873109698295593e-02" rms="4.5064005255699158e-01" purity="4.7979584336280823e-01" nType="0">
          <Node pos="l" depth="2" NCoef="0" IVar="-1" Cut="0.0000000000000000e+00" cType="1" res="-2.2059488110244274e-03" rms="4.4442477822303772e-01" purity="3.4723392128944397e-01" nType="-99"/>
          <Node pos="r" depth="2" NCoef="0" IVar="-1" Cut="0.0000000000000000e+00" cType="1" res="-2.8114113956689835e-04" rms="4.5046347379684448e-01" purity="5.0456154346466064e-01" nType="-99"/>
        </Node>
        <Node pos="r" depth="1" NCoef="0" IVar="-1" Cut="0.0000000000000000e+00" cType="1" res="2.1557959262281656e-03" rms="4.6301206946372986e-01" purity="7.0775967836380005e-01" nType="-99"/>
      </Node>
    </BinaryTree>
    <BinaryTree type="DecisionTree" boostWeight="1.0000000000000000e+00" itree="518">
      <Node pos="s" depth="0" NCoef="0" IVar="0" Cut="5.0495491027832031e+00" cType="1" res="3.3154932316392660e-03" rms="4.4097027182579041e-01" purity="4.9514439702033997e-01" nType="0">
        <Node pos="l" depth="1" NCoef="0" IVar="-1" Cut="0.0000000000000000e+00" cType="1" res="-3.0942356679588556e-03" rms="3.1807795166969299e-01" purity="1.0862872004508972e-01" nType="-99"/>
        <Node pos="r" depth="1" NCoef="0" IVar="5" Cut="5.6469690799713135e-01" cType="1" res="1.6455680131912231e-02" rms="4.4865092635154724e-01" purity="5.3173059225082397e-01" nType="0">
          <Node pos="l" depth="2" NCoef="0" IVar="-1" Cut="0.0000000000000000e+00" cType="1" res="-1.7306333757005632e-04" rms="4.4425615668296814e-01" purity="4.9068415164947510e-01" nType="-99"/>
          <Node pos="r" depth="2" NCoef="0" IVar="-1" Cut="0.0000000000000000e+00" cType="1" res="2.2908211685717106e-03" rms="4.5389500260353088e-01" purity="6.7224669456481934e-01" nType="-99"/>
        </Node>
      </Node>
    </BinaryTree>
    <BinaryTree type="DecisionTree" boostWeight="1.0000000000000000e+00" itree="519">
      <Node pos="s" depth="0" NCoef="0" IVar="2" Cut="6.7199599742889404e-01" cType="1" res="-9.6243061125278473e-03" rms="4.4651183485984802e-01" purity="4.9716633558273315e-01" nType="0">
        <Node pos="l" depth="1" NCoef="0" IVar="5" Cut="3.2219079136848450e-01" cType="1" res="5.1132380962371826e-02" rms="4.3317231535911560e-01" purity="7.0022350549697876e-01" nType="0">
          <Node pos="l" depth="2" NCoef="0" IVar="-1" Cut="0.0000000000000000e+00" cType="1" res="-1.6727409092709422e-03" rms="4.6056282520294189e-01" purity="5.3201651573181152e-01" nType="-99"/>
          <Node pos="r" depth="2" NCoef="0" IVar="-1" Cut="0.0000000000000000e+00" cType="1" res="2.5123006198555231e-03" rms="4.1065341234207153e-01" purity="7.6947844028472900e-01" nType="-99"/>
        </Node>
        <Node pos="r" depth="1" NCoef="0" IVar="6" Cut="6.5916320800781250e+02" cType="1" res="-2.5106491521000862e-02" rms="4.4853395223617554e-01" purity="4.4542279839515686e-01" nType="0">
          <Node pos="l" depth="2" NCoef="0" IVar="-1" Cut="0.0000000000000000e+00" cType="1" res="-3.4881258034147322e-04" rms="4.4632565975189209e-01" purity="4.4735869765281677e-01" nType="-99"/>
          <Node pos="r" depth="2" NCoef="0" IVar="-1" Cut="0.0000000000000000e+00" cType="1" res="-2.5479183532297611e-03" rms="4.5831778645515442e-01" purity="4.2836931347846985e-01" nType="-99"/>
        </Node>
      </Node>
    </BinaryTree>
    <BinaryTree type="DecisionTree" boostWeight="1.0000000000000000e+00" itree="520">
      <Node pos="s" depth="0" NCoef="0" IVar="1" Cut="1.2199641418457031e+02" cType="1" res="3.6836431827396154e-03" rms="4.4527888298034668e-01" purity="5.1224315166473389e-01" nType="0">
        <Node pos="l" depth="1" NCoef="0" IVar="5" Cut="6.7972874641418457e-01" cType="1" res="-9.1541148722171783e-03" rms="4.5013245940208435e-01" purity="4.9434441328048706e-01" nType="0">
          <Node pos="l" depth="2" NCoef="0" IVar="-1" Cut="0.0000000000000000e+00" cType="1" res="-4.4590642210096121e-04" rms="4.5208531618118286e-01" purity="4.7211772203445435e-01" nType="-99"/>
          <Node pos="r" depth="2" NCoef="0" IVar="-1" Cut="0.0000000000000000e+00" cType="1" res="1.9707819446921349e-03" rms="4.2049354314804077e-01" purity="6.9632905721664429e-01" nType="-99"/>
        </Node>
        <Node pos="r" depth="1" NCoef="0" IVar="4" Cut="9.0100128173828125e+01" cType="1" res="8.2316756248474121e-02" rms="4.0553796291351318e-01" purity="6.2187576293945312e-01" nType="0">
          <Node pos="l" depth="2" NCoef="0" IVar="-1" Cut="0.0000000000000000e+00" cType="1" res="-5.9766910271719098e-04" rms="4.0139827132225037e-01" purity="5.2111643552780151e-01" nType="-99"/>
          <Node pos="r" depth="2" NCoef="0" IVar="-1" Cut="0.0000000000000000e+00" cType="1" res="3.8083575200289488e-03" rms="3.9098867774009705e-01" purity="6.9497358798980713e-01" nType="-99"/>
        </Node>
      </Node>
    </BinaryTree>
    <BinaryTree type="DecisionTree" boostWeight="1.0000000000000000e+00" itree="521">
      <Node pos="s" depth="0" NCoef="0" IVar="6" Cut="4.5520114135742188e+02" cType="1" res="1.2456875294446945e-02" rms="4.4926521182060242e-01" purity="5.1110064983367920e-01" nType="0">
        <Node pos="l" depth="1" NCoef="0" IVar="6" Cut="2.6123291015625000e+02" cType="1" res="4.6713665127754211e-02" rms="4.3968105316162109e-01" purity="5.1176005601882935e-01" nType="0">
          <Node pos="l" depth="2" NCoef="0" IVar="-1" Cut="0.0000000000000000e+00" cType="1" res="-2.9881692025810480e-03" rms="3.6449307203292847e-01" purity="2.1917280554771423e-01" nType="-99"/>
          <Node pos="r" depth="2" NCoef="0" IVar="-1" Cut="0.0000000000000000e+00" cType="1" res="1.4883313560858369e-03" rms="4.4250395894050598e-01" purity="5.3908902406692505e-01" nType="-99"/>
        </Node>
        <Node pos="r" depth="1" NCoef="0" IVar="2" Cut="7.8718918561935425e-01" cType="1" res="-5.6082665920257568e-02" rms="4.6026048064231873e-01" purity="5.0978142023086548e-01" nType="0">
          <Node pos="l" depth="2" NCoef="0" IVar="-1" Cut="0.0000000000000000e+00" cType="1" res="8.5657615272793919e-05" rms="4.4093903899192810e-01" purity="6.9436973333358765e-01" nType="-99"/>
          <Node pos="r" depth="2" NCoef="0" IVar="-1" Cut="0.0000000000000000e+00" cType="1" res="-1.8382845446467400e-03" rms="4.6665796637535095e-01" purity="4.1967624425888062e-01" nType="-99"/>
        </Node>
      </Node>
    </BinaryTree>
    <BinaryTree type="DecisionTree" boostWeight="1.0000000000000000e+00" itree="522">
      <Node pos="s" depth="0" NCoef="0" IVar="2" Cut="1.6253355741500854e+00" cType="1" res="1.9533410668373108e-02" rms="4.4528183341026306e-01" purity="5.3508394956588745e-01" nType="0">
        <Node pos="l" depth="1" NCoef="0" IVar="2" Cut="1.3909425735473633e+00" cType="1" res="2.7522888034582138e-02" rms="4.5433595776557922e-01" purity="5.6923753023147583e-01" nType="0">
          <Node pos="l" depth="2" NCoef="0" IVar="-1" Cut="0.0000000000000000e+00" cType="1" res="4.0343787986785173e-04" rms="4.5523545145988464e-01" purity="5.8296734094619751e-01" nType="-99"/>
          <Node pos="r" depth="2" NCoef="0" IVar="-1" Cut="0.0000000000000000e+00" cType="1" res="2.8396677225828171e-03" rms="4.3579846620559692e-01" purity="4.4380661845207214e-01" nType="-99"/>
        </Node>
        <Node pos="r" depth="1" NCoef="0" IVar="-1" Cut="0.0000000000000000e+00" cType="1" res="-2.0157841499894857e-03" rms="3.1469014286994934e-01" purity="1.5505501627922058e-01" nType="-99"/>
      </Node>
    </BinaryTree>
    <BinaryTree type="DecisionTree" boostWeight="1.0000000000000000e+00" itree="523">
      <Node pos="s" depth="0" NCoef="0" IVar="2" Cut="8.9257395267486572e-01" cType="1" res="2.5757881812751293e-03" rms="4.4271549582481384e-01" purity="4.9522417783737183e-01" nType="0">
        <Node pos="l" depth="1" NCoef="0" IVar="3" Cut="1.8363987207412720e+00" cType="1" res="5.3355544805526733e-02" rms="4.3924236297607422e-01" purity="6.7561465501785278e-01" nType="0">
          <Node pos="l" depth="2" NCoef="0" IVar="-1" Cut="0.0000000000000000e+00" cType="1" res="3.4444851335138083e-03" rms="3.9616301655769348e-01" purity="7.5436055660247803e-01" nType="-99"/>
          <Node pos="r" depth="2" NCoef="0" IVar="-1" Cut="0.0000000000000000e+00" cType="1" res="6.9084583083167672e-04" rms="4.4626113772392273e-01" purity="6.5555614233016968e-01" nType="-99"/>
        </Node>
        <Node pos="r" depth="1" NCoef="0" IVar="5" Cut="4.9566754698753357e-01" cType="1" res="-3.0019359663128853e-02" rms="4.4186607003211975e-01" purity="3.7943291664123535e-01" nType="0">
          <Node pos="l" depth="2" NCoef="0" IVar="-1" Cut="0.0000000000000000e+00" cType="1" res="-1.4175340766087174e-03" rms="4.3035989999771118e-01" purity="3.2422965764999390e-01" nType="-99"/>
          <Node pos="r" depth="2" NCoef="0" IVar="-1" Cut="0.0000000000000000e+00" cType="1" res="1.5479725552722812e-03" rms="4.6200931072235107e-01" purity="5.4915010929107666e-01" nType="-99"/>
        </Node>
      </Node>
    </BinaryTree>
    <BinaryTree type="DecisionTree" boostWeight="1.0000000000000000e+00" itree="524">
      <Node pos="s" depth="0" NCoef="0" IVar="3" Cut="2.5817654132843018e+00" cType="1" res="-1.1667613871395588e-02" rms="4.4911229610443115e-01" purity="4.9281379580497742e-01" nType="0">
        <Node pos="l" depth="1" NCoef="0" IVar="2" Cut="5.1353919506072998e-01" cType="1" res="-2.1408416330814362e-02" rms="4.5180058479309082e-01" purity="5.1620399951934814e-01" nType="0">
          <Node pos="l" depth="2" NCoef="0" IVar="-1" Cut="0.0000000000000000e+00" cType="1" res="3.2075275667011738e-03" rms="3.6736541986465454e-01" purity="8.0796653032302856e-01" nType="-99"/>
          <Node pos="r" depth="2" NCoef="0" IVar="-1" Cut="0.0000000000000000e+00" cType="1" res="-8.3803315646946430e-04" rms="4.5723640918731689e-01" purity="4.8466783761978149e-01" nType="-99"/>
        </Node>
        <Node pos="r" depth="1" NCoef="0" IVar="5" Cut="2.5511646270751953e-01" cType="1" res="6.6862568259239197e-02" rms="4.1862204670906067e-01" purity="3.0424240231513977e-01" nType="0">
          <Node pos="l" depth="2" NCoef="0" IVar="-1" Cut="0.0000000000000000e+00" cType="1" res="-4.8186859930865467e-04" rms="3.5455378890037537e-01" purity="1.9967624545097351e-01" nType="-99"/>
          <Node pos="r" depth="2" NCoef="0" IVar="-1" Cut="0.0000000000000000e+00" cType="1" res="3.8651616778224707e-03" rms="4.5911714434623718e-01" purity="4.0797838568687439e-01" nType="-99"/>
        </Node>
      </Node>
    </BinaryTree>
    <BinaryTree type="DecisionTree" boostWeight="1.0000000000000000e+00" itree="525">
      <Node pos="s" depth="0" NCoef="0" IVar="1" Cut="7.5946929931640625e+01" cType="1" res="3.8248174823820591e-03" rms="4.5744779706001282e-01" purity="5.0940328836441040e-01" nType="0">
        <Node pos="l" depth="1" NCoef="0" IVar="6" Cut="4.3110308837890625e+02" cType="1" res="-3.0562100932002068e-02" rms="4.6445652842521667e-01" purity="4.5354408025741577e-01" nType="0">
          <Node pos="l" depth="2" NCoef="0" IVar="-1" Cut="0.0000000000000000e+00" cType="1" res="4.6809502237010747e-05" rms="4.5437836647033691e-01" purity="4.8114991188049316e-01" nType="-99"/>
          <Node pos="r" depth="2" NCoef="0" IVar="-1" Cut="0.0000000000000000e+00" cType="1" res="-2.6843126397579908e-03" rms="4.7987869381904602e-01" purity="3.7675404548645020e-01" nType="-99"/>
        </Node>
        <Node pos="r" depth="1" NCoef="0" IVar="5" Cut="4.9023339152336121e-01" cType="1" res="4.2027525603771210e-02" rms="4.4643807411193848e-01" purity="5.7146090269088745e-01" nType="0">
          <Node pos="l" depth="2" NCoef="0" IVar="-1" Cut="0.0000000000000000e+00" cType="1" res="1.6553100431337953e-03" rms="4.4699993729591370e-01" purity="5.6837582588195801e-01" nType="-99"/>
          <Node pos="r" depth="2" NCoef="0" IVar="-1" Cut="0.0000000000000000e+00" cType="1" res="-5.0866598030552268e-04" rms="4.3868339061737061e-01" purity="5.7860797643661499e-01" nType="-99"/>
        </Node>
      </Node>
    </BinaryTree>
    <BinaryTree type="DecisionTree" boostWeight="1.0000000000000000e+00" itree="526">
      <Node pos="s" depth="0" NCoef="0" IVar="2" Cut="7.0116001367568970e-01" cType="1" res="1.4584632590413094e-02" rms="4.3792152404785156e-01" purity="5.1342934370040894e-01" nType="0">
        <Node pos="l" depth="1" NCoef="0" IVar="0" Cut="7.4731235504150391e+00" cType="1" res="1.0313035547733307e-01" rms="4.0946084260940552e-01" purity="7.5304377079010010e-01" nType="0">
          <Node pos="l" depth="2" NCoef="0" IVar="-1" Cut="0.0000000000000000e+00" cType="1" res="1.5268342103809118e-03" rms="4.6660482883453369e-01" purity="6.5638613700866699e-01" nType="-99"/>
          <Node pos="r" depth="2" NCoef="0" IVar="-1" Cut="0.0000000000000000e+00" cType="1" res="4.5946459285914898e-03" rms="2.8567257523536682e-01" purity="9.1009283065795898e-01" nType="-99"/>
        </Node>
        <Node pos="r" depth="1" NCoef="0" IVar="1" Cut="7.3473167419433594e+01" cType="1" res="-8.3915051072835922e-03" rms="4.4212090969085693e-01" purity="4.5125335454940796e-01" nType="0">
          <Node pos="l" depth="2" NCoef="0" IVar="-1" Cut="0.0000000000000000e+00" cType="1" res="-1.1242771288380027e-03" rms="4.3722066283226013e-01" purity="3.7442046403884888e-01" nType="-99"/>
          <Node pos="r" depth="2" NCoef="0" IVar="-1" Cut="0.0000000000000000e+00" cType="1" res="7.5914349872618914e-04" rms="4.4324374198913574e-01" purity="5.2960753440856934e-01" nType="-99"/>
        </Node>
      </Node>
    </BinaryTree>
    <BinaryTree type="DecisionTree" boostWeight="1.0000000000000000e+00" itree="527">
      <Node pos="s" depth="0" NCoef="0" IVar="2" Cut="4.7607418894767761e-01" cType="1" res="-4.1682535083964467e-04" rms="4.6105384826660156e-01" purity="5.0458693504333496e-01" nType="0">
        <Node pos="l" depth="1" NCoef="0" IVar="-1" Cut="0.0000000000000000e+00" cType="1" res="2.9988244641572237e-03" rms="3.9095336198806763e-01" purity="7.8025454282760620e-01" nType="-99"/>
        <Node pos="r" depth="1" NCoef="0" IVar="1" Cut="1.4960682678222656e+02" cType="1" res="-8.9930165559053421e-03" rms="4.6440953016281128e-01" purity="4.8510912060737610e-01" nType="0">
          <Node pos="l" depth="2" NCoef="0" IVar="-1" Cut="0.0000000000000000e+00" cType="1" res="1.6418232917203568e-05" rms="4.6380600333213806e-01" purity="4.9475929141044617e-01" nType="-99"/>
          <Node pos="r" depth="2" NCoef="0" IVar="-1" Cut="0.0000000000000000e+00" cType="1" res="-3.5016562324017286e-03" rms="4.4870290160179138e-01" purity="3.3986145257949829e-01" nType="-99"/>
        </Node>
      </Node>
    </BinaryTree>
    <BinaryTree type="DecisionTree" boostWeight="1.0000000000000000e+00" itree="528">
      <Node pos="s" depth="0" NCoef="0" IVar="2" Cut="5.9071177244186401e-01" cType="1" res="-2.7985540218651295e-03" rms="4.4871044158935547e-01" purity="4.9483883380889893e-01" nType="0">
        <Node pos="l" depth="1" NCoef="0" IVar="2" Cut="4.7410345077514648e-01" cType="1" res="9.3092910945415497e-02" rms="3.9833748340606689e-01" purity="7.4470710754394531e-01" nType="0">
          <Node pos="l" depth="2" NCoef="0" IVar="-1" Cut="0.0000000000000000e+00" cType="1" res="4.9440021393820643e-04" rms="4.2288547754287720e-01" purity="6.8646848201751709e-01" nType="-99"/>
          <Node pos="r" depth="2" NCoef="0" IVar="-1" Cut="0.0000000000000000e+00" cType="1" res="3.4759198315441608e-03" rms="3.6713519692420959e-01" purity="7.9165011644363403e-01" nType="-99"/>
        </Node>
        <Node pos="r" depth="1" NCoef="0" IVar="4" Cut="1.0796899414062500e+02" cType="1" res="-1.6623921692371368e-02" rms="4.5384576916694641e-01" purity="4.5881351828575134e-01" nType="0">
          <Node pos="l" depth="2" NCoef="0" IVar="-1" Cut="0.0000000000000000e+00" cType="1" res="-1.0796563001349568e-03" rms="4.5308741927146912e-01" purity="4.3947651982307434e-01" nType="-99"/>
          <Node pos="r" depth="2" NCoef="0" IVar="-1" Cut="0.0000000000000000e+00" cType="1" res="5.2721705287694931e-04" rms="4.5165252685546875e-01" purity="4.8250529170036316e-01" nType="-99"/>
        </Node>
      </Node>
    </BinaryTree>
    <BinaryTree type="DecisionTree" boostWeight="1.0000000000000000e+00" itree="529">
      <Node pos="s" depth="0" NCoef="0" IVar="1" Cut="7.1700927734375000e+01" cType="1" res="-1.5130928717553616e-02" rms="4.4873866438865662e-01" purity="4.9288126826286316e-01" nType="0">
        <Node pos="l" depth="1" NCoef="0" IVar="5" Cut="5.8243680000305176e-01" cType="1" res="-5.0188519060611725e-02" rms="4.4989553093910217e-01" purity="4.1827890276908875e-01" nType="0">
          <Node pos="l" depth="2" NCoef="0" IVar="-1" Cut="0.0000000000000000e+00" cType="1" res="-1.8784686690196395e-03" rms="4.3846574425697327e-01" purity="3.6225277185440063e-01" nType="-99"/>
          <Node pos="r" depth="2" NCoef="0" IVar="-1" Cut="0.0000000000000000e+00" cType="1" res="1.2300518574193120e-03" rms="4.7083958983421326e-01" purity="6.0615426301956177e-01" nType="-99"/>
        </Node>
        <Node pos="r" depth="1" NCoef="0" IVar="5" Cut="1.7153923213481903e-01" cType="1" res="1.4515876770019531e-02" rms="4.4561076164245605e-01" purity="5.5596953630447388e-01" nType="0">
          <Node pos="l" depth="2" NCoef="0" IVar="-1" Cut="0.0000000000000000e+00" cType="1" res="2.7289579156786203e-03" rms="4.4079720973968506e-01" purity="5.3530472517013550e-01" nType="-99"/>
          <Node pos="r" depth="2" NCoef="0" IVar="-1" Cut="0.0000000000000000e+00" cType="1" res="8.2684193330351263e-05" rms="4.4489222764968872e-01" purity="5.5843347311019897e-01" nType="-99"/>
        </Node>
      </Node>
    </BinaryTree>
    <BinaryTree type="DecisionTree" boostWeight="1.0000000000000000e+00" itree="530">
      <Node pos="s" depth="0" NCoef="0" IVar="2" Cut="1.3654896020889282e+00" cType="1" res="4.8440448008477688e-03" rms="4.6298173069953918e-01" purity="5.1470911502838135e-01" nType="0">
        <Node pos="l" depth="1" NCoef="0" IVar="2" Cut="5.7419055700302124e-01" cType="1" res="-1.1751412414014339e-02" rms="4.6181327104568481e-01" purity="5.4929059743881226e-01" nType="0">
          <Node pos="l" depth="2" NCoef="0" IVar="-1" Cut="0.0000000000000000e+00" cType="1" res="2.3976305965334177e-03" rms="3.8955053687095642e-01" purity="7.7921110391616821e-01" nType="-99"/>
          <Node pos="r" depth="2" NCoef="0" IVar="-1" Cut="0.0000000000000000e+00" cType="1" res="-7.1648351149633527e-04" rms="4.7117966413497925e-01" purity="5.0693333148956299e-01" nType="-99"/>
        </Node>
        <Node pos="r" depth="1" NCoef="0" IVar="1" Cut="8.8068954467773438e+01" cType="1" res="7.4864223599433899e-02" rms="4.6135291457176208e-01" purity="3.6880153417587280e-01" nType="0">
          <Node pos="l" depth="2" NCoef="0" IVar="-1" Cut="0.0000000000000000e+00" cType="1" res="-1.5070295194163918e-04" rms="4.3355211615562439e-01" purity="2.7403482794761658e-01" nType="-99"/>
          <Node pos="r" depth="2" NCoef="0" IVar="-1" Cut="0.0000000000000000e+00" cType="1" res="4.3366141617298126e-03" rms="4.7495487332344055e-01" purity="4.9080392718315125e-01" nType="-99"/>
        </Node>
      </Node>
    </BinaryTree>
    <BinaryTree type="DecisionTree" boostWeight="1.0000000000000000e+00" itree="531">
      <Node pos="s" depth="0" NCoef="0" IVar="6" Cut="5.4354071044921875e+02" cType="1" res="-1.2048815377056599e-02" rms="4.6392357349395752e-01" purity="4.8458215594291687e-01" nType="0">
        <Node pos="l" depth="1" NCoef="0" IVar="3" Cut="1.7486174106597900e+00" cType="1" res="4.8800241202116013e-03" rms="4.6034923195838928e-01" purity="4.8165759444236755e-01" nType="0">
          <Node pos="l" depth="2" NCoef="0" IVar="-1" Cut="0.0000000000000000e+00" cType="1" res="-3.4774425439536572e-03" rms="4.6166738867759705e-01" purity="3.6196127533912659e-01" nType="-99"/>
          <Node pos="r" depth="2" NCoef="0" IVar="-1" Cut="0.0000000000000000e+00" cType="1" res="4.1683457675389946e-04" rms="4.5764550566673279e-01" purity="4.9097219109535217e-01" nType="-99"/>
        </Node>
        <Node pos="r" depth="1" NCoef="0" IVar="1" Cut="9.3354530334472656e+01" cType="1" res="-8.0361254513263702e-02" rms="4.7194629907608032e-01" purity="4.9638354778289795e-01" nType="0">
          <Node pos="l" depth="2" NCoef="0" IVar="-1" Cut="0.0000000000000000e+00" cType="1" res="-3.5675161052495241e-03" rms="4.7309261560440063e-01" purity="3.3637318015098572e-01" nType="-99"/>
          <Node pos="r" depth="2" NCoef="0" IVar="-1" Cut="0.0000000000000000e+00" cType="1" res="-5.8770092437043786e-04" rms="4.6251657605171204e-01" purity="6.0199004411697388e-01" nType="-99"/>
        </Node>
      </Node>
    </BinaryTree>
    <BinaryTree type="DecisionTree" boostWeight="1.0000000000000000e+00" itree="532">
      <Node pos="s" depth="0" NCoef="0" IVar="0" Cut="7.1161408424377441e+00" cType="1" res="-9.5285316929221153e-03" rms="4.6391552686691284e-01" purity="5.1287984848022461e-01" nType="0">
        <Node pos="l" depth="1" NCoef="0" IVar="6" Cut="5.6032672119140625e+02" cType="1" res="2.3570252582430840e-02" rms="4.5555818080902100e-01" purity="4.4247978925704956e-01" nType="0">
          <Node pos="l" depth="2" NCoef="0" IVar="-1" Cut="0.0000000000000000e+00" cType="1" res="5.1028951020271052e-06" rms="4.5818939805030823e-01" purity="4.0248769521713257e-01" nType="-99"/>
          <Node pos="r" depth="2" NCoef="0" IVar="-1" Cut="0.0000000000000000e+00" cType="1" res="3.4380469005554914e-03" rms="4.1951346397399902e-01" purity="6.5723860263824463e-01" nType="-99"/>
        </Node>
        <Node pos="r" depth="1" NCoef="0" IVar="3" Cut="2.0617220401763916e+00" cType="1" res="-5.1847044378519058e-02" rms="4.7101050615310669e-01" purity="6.0289001464843750e-01" nType="0">
          <Node pos="l" depth="2" NCoef="0" IVar="-1" Cut="0.0000000000000000e+00" cType="1" res="-3.1848605722188950e-03" rms="4.8070076107978821e-01" purity="6.1262744665145874e-01" nType="-99"/>
          <Node pos="r" depth="2" NCoef="0" IVar="-1" Cut="0.0000000000000000e+00" cType="1" res="-9.7866817668545991e-05" rms="4.5804080367088318e-01" purity="5.9597808122634888e-01" nType="-99"/>
        </Node>
      </Node>
    </BinaryTree>
    <BinaryTree type="DecisionTree" boostWeight="1.0000000000000000e+00" itree="533">
      <Node pos="s" depth="0" NCoef="0" IVar="5" Cut="4.8059409856796265e-01" cType="1" res="-8.0189378932118416e-03" rms="4.5082515478134155e-01" purity="4.9262750148773193e-01" nType="0">
        <Node pos="l" depth="1" NCoef="0" IVar="3" Cut="2.3793077468872070e+00" cType="1" res="-3.7580162286758423e-02" rms="4.5704814791679382e-01" purity="4.2274740338325500e-01" nType="0">
          <Node pos="l" depth="2" NCoef="0" IVar="-1" Cut="0.0000000000000000e+00" cType="1" res="-1.6034899745136499e-03" rms="4.5805475115776062e-01" purity="4.6051135659217834e-01" nType="-99"/>
          <Node pos="r" depth="2" NCoef="0" IVar="-1" Cut="0.0000000000000000e+00" cType="1" res="1.1265833163633943e-03" rms="4.4386127591133118e-01" purity="3.3233064413070679e-01" nType="-99"/>
        </Node>
        <Node pos="r" depth="1" NCoef="0" IVar="0" Cut="6.6786217689514160e+00" cType="1" res="4.5453496277332306e-02" rms="4.3426230549812317e-01" purity="6.1903160810470581e-01" nType="0">
          <Node pos="l" depth="2" NCoef="0" IVar="-1" Cut="0.0000000000000000e+00" cType="1" res="-1.5507046191487461e-04" rms="4.7041499614715576e-01" purity="4.2765250802040100e-01" nType="-99"/>
          <Node pos="r" depth="2" NCoef="0" IVar="-1" Cut="0.0000000000000000e+00" cType="1" res="2.2117441985756159e-03" rms="3.9959478378295898e-01" purity="7.6592111587524414e-01" nType="-99"/>
        </Node>
      </Node>
    </BinaryTree>
    <BinaryTree type="DecisionTree" boostWeight="1.0000000000000000e+00" itree="534">
      <Node pos="s" depth="0" NCoef="0" IVar="3" Cut="1.7620116472244263e+00" cType="1" res="4.3223565444350243e-03" rms="4.4833543896675110e-01" purity="5.0244772434234619e-01" nType="0">
        <Node pos="l" depth="1" NCoef="0" IVar="-1" Cut="0.0000000000000000e+00" cType="1" res="-1.9894568249583244e-03" rms="4.8614606261253357e-01" purity="4.2495641112327576e-01" nType="-99"/>
        <Node pos="r" depth="1" NCoef="0" IVar="3" Cut="1.9915961027145386e+00" cType="1" res="1.1775765568017960e-02" rms="4.4449564814567566e-01" purity="5.0820469856262207e-01" nType="0">
          <Node pos="l" depth="2" NCoef="0" IVar="-1" Cut="0.0000000000000000e+00" cType="1" res="2.0106225274503231e-03" rms="4.3955519795417786e-01" purity="6.8449151515960693e-01" nType="-99"/>
          <Node pos="r" depth="2" NCoef="0" IVar="-1" Cut="0.0000000000000000e+00" cType="1" res="-2.2100681962911040e-04" rms="4.4362419843673706e-01" purity="4.5775493979454041e-01" nType="-99"/>
        </Node>
      </Node>
    </BinaryTree>
    <BinaryTree type="DecisionTree" boostWeight="1.0000000000000000e+00" itree="535">
      <Node pos="s" depth="0" NCoef="0" IVar="4" Cut="9.1548171997070312e+01" cType="1" res="1.1598553508520126e-02" rms="4.5083144307136536e-01" purity="5.1475316286087036e-01" nType="0">
        <Node pos="l" depth="1" NCoef="0" IVar="0" Cut="7.1704196929931641e+00" cType="1" res="-3.0257621780037880e-02" rms="4.6425059437751770e-01" purity="4.7579818964004517e-01" nType="0">
          <Node pos="l" depth="2" NCoef="0" IVar="-1" Cut="0.0000000000000000e+00" cType="1" res="3.6664784420281649e-04" rms="4.4984173774719238e-01" purity="4.2148381471633911e-01" nType="-99"/>
          <Node pos="r" depth="2" NCoef="0" IVar="-1" Cut="0.0000000000000000e+00" cType="1" res="-2.4290294386446476e-03" rms="4.7635966539382935e-01" purity="5.5573916435241699e-01" nType="-99"/>
        </Node>
        <Node pos="r" depth="1" NCoef="0" IVar="2" Cut="9.2648798227310181e-01" cType="1" res="4.7123845666646957e-02" rms="4.3597903847694397e-01" purity="5.4781609773635864e-01" nType="0">
          <Node pos="l" depth="2" NCoef="0" IVar="-1" Cut="0.0000000000000000e+00" cType="1" res="2.3716508876532316e-03" rms="4.2275694012641907e-01" purity="7.2569090127944946e-01" nType="-99"/>
          <Node pos="r" depth="2" NCoef="0" IVar="-1" Cut="0.0000000000000000e+00" cType="1" res="1.5393414651043713e-04" rms="4.4222539663314819e-01" purity="4.0440049767494202e-01" nType="-99"/>
        </Node>
      </Node>
    </BinaryTree>
    <BinaryTree type="DecisionTree" boostWeight="1.0000000000000000e+00" itree="536">
      <Node pos="s" depth="0" NCoef="0" IVar="1" Cut="4.0384426116943359e+01" cType="1" res="-9.8352236673235893e-03" rms="4.4634708762168884e-01" purity="4.8236867785453796e-01" nType="0">
        <Node pos="l" depth="1" NCoef="0" IVar="0" Cut="6.2044892311096191e+00" cType="1" res="-1.5295828878879547e-01" rms="3.9599400758743286e-01" purity="2.2870844602584839e-01" nType="0">
          <Node pos="l" depth="2" NCoef="0" IVar="-1" Cut="0.0000000000000000e+00" cType="1" res="-3.0512395314872265e-03" rms="3.1556698679924011e-01" purity="1.2739975750446320e-01" nType="-99"/>
          <Node pos="r" depth="2" NCoef="0" IVar="-1" Cut="0.0000000000000000e+00" cType="1" res="-3.8252300582826138e-03" rms="4.5062056183815002e-01" purity="3.1318685412406921e-01" nType="-99"/>
        </Node>
        <Node pos="r" depth="1" NCoef="0" IVar="5" Cut="1.6607068479061127e-01" cType="1" res="9.0682217851281166e-03" rms="4.4918245077133179e-01" purity="5.1587170362472534e-01" nType="0">
          <Node pos="l" depth="2" NCoef="0" IVar="-1" Cut="0.0000000000000000e+00" cType="1" res="-1.9379151053726673e-03" rms="4.2694908380508423e-01" purity="2.9444536566734314e-01" nType="-99"/>
          <Node pos="r" depth="2" NCoef="0" IVar="-1" Cut="0.0000000000000000e+00" cType="1" res="4.9380486598238349e-04" rms="4.5060512423515320e-01" purity="5.4528588056564331e-01" nType="-99"/>
        </Node>
      </Node>
    </BinaryTree>
    <BinaryTree type="DecisionTree" boostWeight="1.0000000000000000e+00" itree="537">
      <Node pos="s" depth="0" NCoef="0" IVar="1" Cut="1.4751788330078125e+02" cType="1" res="-1.1040246114134789e-02" rms="4.4761851429939270e-01" purity="4.9445104598999023e-01" nType="0">
        <Node pos="l" depth="1" NCoef="0" IVar="0" Cut="8.7885236740112305e+00" cType="1" res="-4.4350180542096496e-04" rms="4.4672232866287231e-01" purity="5.0576430559158325e-01" nType="0">
          <Node pos="l" depth="2" NCoef="0" IVar="-1" Cut="0.0000000000000000e+00" cType="1" res="-2.5246100267395377e-04" rms="4.5474234223365784e-01" purity="4.6950182318687439e-01" nType="-99"/>
          <Node pos="r" depth="2" NCoef="0" IVar="-1" Cut="0.0000000000000000e+00" cType="1" res="3.2175811938941479e-03" rms="3.4136030077934265e-01" purity="8.6004656553268433e-01" nType="-99"/>
        </Node>
        <Node pos="r" depth="1" NCoef="0" IVar="-1" Cut="0.0000000000000000e+00" cType="1" res="-4.0563629008829594e-03" rms="4.2980861663818359e-01" purity="3.2183083891868591e-01" nType="-99"/>
      </Node>
    </BinaryTree>
    <BinaryTree type="DecisionTree" boostWeight="1.0000000000000000e+00" itree="538">
      <Node pos="s" depth="0" NCoef="0" IVar="5" Cut="5.0653016567230225e-01" cType="1" res="-4.2120323632843792e-04" rms="4.5568963885307312e-01" purity="4.8963677883148193e-01" nType="0">
        <Node pos="l" depth="1" NCoef="0" IVar="5" Cut="1.3669282197952271e-01" cType="1" res="-2.3567818105220795e-02" rms="4.5072484016418457e-01" purity="4.3497076630592346e-01" nType="0">
          <Node pos="l" depth="2" NCoef="0" IVar="-1" Cut="0.0000000000000000e+00" cType="1" res="2.4152100086212158e-03" rms="4.7552663087844849e-01" purity="4.3743783235549927e-01" nType="-99"/>
          <Node pos="r" depth="2" NCoef="0" IVar="-1" Cut="0.0000000000000000e+00" cType="1" res="-9.2149444390088320e-04" rms="4.4479435682296753e-01" purity="4.3464204668998718e-01" nType="-99"/>
        </Node>
        <Node pos="r" depth="1" NCoef="0" IVar="4" Cut="1.5669560241699219e+02" cType="1" res="5.8619417250156403e-02" rms="4.6290311217308044e-01" purity="6.2907469272613525e-01" nType="0">
          <Node pos="l" depth="2" NCoef="0" IVar="-1" Cut="0.0000000000000000e+00" cType="1" res="2.4805408902466297e-03" rms="4.4902306795120239e-01" purity="6.8134319782257080e-01" nType="-99"/>
          <Node pos="r" depth="2" NCoef="0" IVar="-1" Cut="0.0000000000000000e+00" cType="1" res="-2.4711880832910538e-03" rms="4.7178673744201660e-01" purity="4.3992766737937927e-01" nType="-99"/>
        </Node>
      </Node>
    </BinaryTree>
    <BinaryTree type="DecisionTree" boostWeight="1.0000000000000000e+00" itree="539">
      <Node pos="s" depth="0" NCoef="0" IVar="5" Cut="3.6661899089813232e-01" cType="1" res="1.2759425677359104e-02" rms="4.4793051481246948e-01" purity="5.1368767023086548e-01" nType="0">
        <Node pos="l" depth="1" NCoef="0" IVar="2" Cut="7.4672442674636841e-01" cType="1" res="-2.3947108536958694e-02" rms="4.4768062233924866e-01" purity="4.0555047988891602e-01" nType="0">
          <Node pos="l" depth="2" NCoef="0" IVar="-1" Cut="0.0000000000000000e+00" cType="1" res="-2.6201987639069557e-03" rms="4.7460791468620300e-01" purity="4.8215630650520325e-01" nType="-99"/>
          <Node pos="r" depth="2" NCoef="0" IVar="-1" Cut="0.0000000000000000e+00" cType="1" res="1.0467127140145749e-04" rms="4.3553864955902100e-01" purity="3.8348013162612915e-01" nType="-99"/>
        </Node>
        <Node pos="r" depth="1" NCoef="0" IVar="3" Cut="2.2143168449401855e+00" cType="1" res="4.3234892189502716e-02" rms="4.4584769010543823e-01" purity="6.0346817970275879e-01" nType="0">
          <Node pos="l" depth="2" NCoef="0" IVar="-1" Cut="0.0000000000000000e+00" cType="1" res="1.8902444280683994e-03" rms="4.3467861413955688e-01" purity="6.9012188911437988e-01" nType="-99"/>
          <Node pos="r" depth="2" NCoef="0" IVar="-1" Cut="0.0000000000000000e+00" cType="1" res="-7.0379802491515875e-04" rms="4.5794090628623962e-01" purity="4.3312999606132507e-01" nType="-99"/>
        </Node>
      </Node>
    </BinaryTree>
    <BinaryTree type="DecisionTree" boostWeight="1.0000000000000000e+00" itree="540">
      <Node pos="s" depth="0" NCoef="0" IVar="3" Cut="1.8141857385635376e+00" cType="1" res="-3.4128848463296890e-02" rms="4.5168489217758179e-01" purity="4.6758663654327393e-01" nType="0">
        <Node pos="l" depth="1" NCoef="0" IVar="-1" Cut="0.0000000000000000e+00" cType="1" res="-2.5662581901997328e-03" rms="4.3371677398681641e-01" purity="4.1059580445289612e-01" nType="-99"/>
        <Node pos="r" depth="1" NCoef="0" IVar="5" Cut="3.0018514394760132e-01" cType="1" res="-2.4747390300035477e-02" rms="4.5277950167655945e-01" purity="4.7417560219764709e-01" nType="0">
          <Node pos="l" depth="2" NCoef="0" IVar="-1" Cut="0.0000000000000000e+00" cType="1" res="6.4599415054544806e-04" rms="4.4278892874717712e-01" purity="4.5347955822944641e-01" nType="-99"/>
          <Node pos="r" depth="2" NCoef="0" IVar="-1" Cut="0.0000000000000000e+00" cType="1" res="-1.1382240336388350e-03" rms="4.5543938875198364e-01" purity="4.8410561680793762e-01" nType="-99"/>
        </Node>
      </Node>
    </BinaryTree>
    <BinaryTree type="DecisionTree" boostWeight="1.0000000000000000e+00" itree="541">
      <Node pos="s" depth="0" NCoef="0" IVar="2" Cut="1.2317487001419067e+00" cType="1" res="-1.0633210651576519e-02" rms="4.4335222244262695e-01" purity="4.8316851258277893e-01" nType="0">
        <Node pos="l" depth="1" NCoef="0" IVar="1" Cut="5.2931808471679688e+01" cType="1" res="9.1146361082792282e-03" rms="4.5569300651550293e-01" purity="5.7418376207351685e-01" nType="0">
          <Node pos="l" depth="2" NCoef="0" IVar="-1" Cut="0.0000000000000000e+00" cType="1" res="-1.0327060008421540e-03" rms="4.7237148880958557e-01" purity="4.4852909445762634e-01" nType="-99"/>
          <Node pos="r" depth="2" NCoef="0" IVar="-1" Cut="0.0000000000000000e+00" cType="1" res="7.1643950650468469e-04" rms="4.4709107279777527e-01" purity="6.2343633174896240e-01" nType="-99"/>
        </Node>
        <Node pos="r" depth="1" NCoef="0" IVar="3" Cut="2.6104218959808350e+00" cType="1" res="-5.9164013713598251e-02" rms="4.0740832686424255e-01" purity="2.5949645042419434e-01" nType="0">
          <Node pos="l" depth="2" NCoef="0" IVar="-1" Cut="0.0000000000000000e+00" cType="1" res="-7.7567546395584941e-04" rms="4.3372517824172974e-01" purity="3.1998920440673828e-01" nType="-99"/>
          <Node pos="r" depth="2" NCoef="0" IVar="-1" Cut="0.0000000000000000e+00" cType="1" res="-3.2306376378983259e-03" rms="3.2341426610946655e-01" purity="1.0738676786422729e-01" nType="-99"/>
        </Node>
      </Node>
    </BinaryTree>
    <BinaryTree type="DecisionTree" boostWeight="1.0000000000000000e+00" itree="542">
      <Node pos="s" depth="0" NCoef="0" IVar="2" Cut="5.8902764320373535e-01" cType="1" res="-3.1824298202991486e-02" rms="4.5051896572113037e-01" purity="4.6533906459808350e-01" nType="0">
        <Node pos="l" depth="1" NCoef="0" IVar="5" Cut="4.6826240420341492e-01" cType="1" res="4.6672064810991287e-02" rms="4.3370792269706726e-01" purity="7.0664399862289429e-01" nType="0">
          <Node pos="l" depth="2" NCoef="0" IVar="-1" Cut="0.0000000000000000e+00" cType="1" res="2.6132941711694002e-03" rms="4.2284271121025085e-01" purity="7.6825755834579468e-01" nType="-99"/>
          <Node pos="r" depth="2" NCoef="0" IVar="-1" Cut="0.0000000000000000e+00" cType="1" res="-6.7533634137362242e-04" rms="4.3507507443428040e-01" purity="6.3284242153167725e-01" nType="-99"/>
        </Node>
        <Node pos="r" depth="1" NCoef="0" IVar="3" Cut="1.8826180696487427e+00" cType="1" res="-4.2222123593091965e-02" rms="4.5167693495750427e-01" purity="4.3337517976760864e-01" nType="0">
          <Node pos="l" depth="2" NCoef="0" IVar="-1" Cut="0.0000000000000000e+00" cType="1" res="-3.0769796576350927e-03" rms="4.6628710627555847e-01" purity="4.1253861784934998e-01" nType="-99"/>
          <Node pos="r" depth="2" NCoef="0" IVar="-1" Cut="0.0000000000000000e+00" cType="1" res="-6.9806043757125735e-04" rms="4.4829249382019043e-01" purity="4.3605938553810120e-01" nType="-99"/>
        </Node>
      </Node>
    </BinaryTree>
    <BinaryTree type="DecisionTree" boostWeight="1.0000000000000000e+00" itree="543">
      <Node pos="s" depth="0" NCoef="0" IVar="6" Cut="6.5523779296875000e+02" cType="1" res="-4.4426671229302883e-03" rms="4.4812497496604919e-01" purity="5.0163882970809937e-01" nType="0">
        <Node pos="l" depth="1" NCoef="0" IVar="4" Cut="1.4226075744628906e+02" cType="1" res="-1.3807510957121849e-02" rms="4.4921720027923584e-01" purity="4.7819986939430237e-01" nType="0">
          <Node pos="l" depth="2" NCoef="0" IVar="-1" Cut="0.0000000000000000e+00" cType="1" res="2.4316359485965222e-04" rms="4.4385290145874023e-01" purity="4.9902090430259705e-01" nType="-99"/>
          <Node pos="r" depth="2" NCoef="0" IVar="-1" Cut="0.0000000000000000e+00" cType="1" res="-1.5148080419749022e-03" rms="4.5601055026054382e-01" purity="4.3481126427650452e-01" nType="-99"/>
        </Node>
        <Node pos="r" depth="1" NCoef="0" IVar="5" Cut="2.8865531086921692e-01" cType="1" res="7.4406109750270844e-02" rms="4.3082278966903687e-01" purity="6.9898688793182373e-01" nType="0">
          <Node pos="l" depth="2" NCoef="0" IVar="-1" Cut="0.0000000000000000e+00" cType="1" res="3.7854979746043682e-03" rms="3.8369923830032349e-01" purity="7.6485896110534668e-01" nType="-99"/>
          <Node pos="r" depth="2" NCoef="0" IVar="-1" Cut="0.0000000000000000e+00" cType="1" res="-6.1943253967911005e-04" rms="4.5625796914100647e-01" purity="6.2865132093429565e-01" nType="-99"/>
        </Node>
      </Node>
    </BinaryTree>
    <BinaryTree type="DecisionTree" boostWeight="1.0000000000000000e+00" itree="544">
      <Node pos="s" depth="0" NCoef="0" IVar="1" Cut="4.5361736297607422e+01" cType="1" res="5.9459591284394264e-03" rms="4.4149631261825562e-01" purity="5.1813250780105591e-01" nType="0">
        <Node pos="l" depth="1" NCoef="0" IVar="4" Cut="1.0258250427246094e+02" cType="1" res="-6.9321766495704651e-02" rms="4.2534324526786804e-01" purity="3.6669942736625671e-01" nType="0">
          <Node pos="l" depth="2" NCoef="0" IVar="-1" Cut="0.0000000000000000e+00" cType="1" res="-6.0828129062429070e-04" rms="4.3120789527893066e-01" purity="4.0489983558654785e-01" nType="-99"/>
          <Node pos="r" depth="2" NCoef="0" IVar="-1" Cut="0.0000000000000000e+00" cType="1" res="-2.5728703476488590e-03" rms="4.1355589032173157e-01" purity="3.2329133152961731e-01" nType="-99"/>
        </Node>
        <Node pos="r" depth="1" NCoef="0" IVar="3" Cut="2.6097157001495361e+00" cType="1" res="2.1572809666395187e-02" rms="4.4317680597305298e-01" purity="5.4957258701324463e-01" nType="0">
          <Node pos="l" depth="2" NCoef="0" IVar="-1" Cut="0.0000000000000000e+00" cType="1" res="7.8417657641693950e-04" rms="4.5217546820640564e-01" purity="5.9392631053924561e-01" nType="-99"/>
          <Node pos="r" depth="2" NCoef="0" IVar="-1" Cut="0.0000000000000000e+00" cType="1" res="-2.1418319083750248e-03" rms="3.3851525187492371e-01" purity="1.6726487874984741e-01" nType="-99"/>
        </Node>
      </Node>
    </BinaryTree>
    <BinaryTree type="DecisionTree" boostWeight="1.0000000000000000e+00" itree="545">
      <Node pos="s" depth="0" NCoef="0" IVar="0" Cut="8.7941255569458008e+00" cType="1" res="-1.7558012157678604e-02" rms="4.5172309875488281e-01" purity="4.7469404339790344e-01" nType="0">
        <Node pos="l" depth="1" NCoef="0" IVar="4" Cut="3.0649816894531250e+02" cType="1" res="-2.9026575386524200e-02" rms="4.5926117897033691e-01" purity="4.3903428316116333e-01" nType="0">
          <Node pos="l" depth="2" NCoef="0" IVar="-1" Cut="0.0000000000000000e+00" cType="1" res="-3.9377354551106691e-04" rms="4.6171656250953674e-01" purity="4.5409637689590454e-01" nType="-99"/>
          <Node pos="r" depth="2" NCoef="0" IVar="-1" Cut="0.0000000000000000e+00" cType="1" res="-3.2450046855956316e-03" rms="4.1289475560188293e-01" purity="2.7990117669105530e-01" nType="-99"/>
        </Node>
        <Node pos="r" depth="1" NCoef="0" IVar="-1" Cut="0.0000000000000000e+00" cType="1" res="2.6619515847414732e-03" rms="3.5724449157714844e-01" purity="8.0620706081390381e-01" nType="-99"/>
      </Node>
    </BinaryTree>
    <BinaryTree type="DecisionTree" boostWeight="1.0000000000000000e+00" itree="546">
      <Node pos="s" depth="0" NCoef="0" IVar="0" Cut="8.0682182312011719e+00" cType="1" res="1.4733136631548405e-03" rms="4.4822490215301514e-01" purity="5.0324851274490356e-01" nType="0">
        <Node pos="l" depth="1" NCoef="0" IVar="0" Cut="6.6369733810424805e+00" cType="1" res="-1.6452457755804062e-02" rms="4.5748254656791687e-01" purity="4.3395882844924927e-01" nType="0">
          <Node pos="l" depth="2" NCoef="0" IVar="-1" Cut="0.0000000000000000e+00" cType="1" res="4.4523665565066040e-04" rms="4.5399001240730286e-01" purity="3.7262222170829773e-01" nType="-99"/>
          <Node pos="r" depth="2" NCoef="0" IVar="-1" Cut="0.0000000000000000e+00" cType="1" res="-1.3830508105456829e-03" rms="4.5776897668838501e-01" purity="5.1048904657363892e-01" nType="-99"/>
        </Node>
        <Node pos="r" depth="1" NCoef="0" IVar="6" Cut="4.5554888916015625e+02" cType="1" res="6.9552533328533173e-02" rms="4.0398836135864258e-01" purity="7.6639968156814575e-01" nType="0">
          <Node pos="l" depth="2" NCoef="0" IVar="-1" Cut="0.0000000000000000e+00" cType="1" res="3.5163520369678736e-03" rms="3.7444451451301575e-01" purity="8.0849939584732056e-01" nType="-99"/>
          <Node pos="r" depth="2" NCoef="0" IVar="-1" Cut="0.0000000000000000e+00" cType="1" res="-9.5222122035920620e-04" rms="4.3107542395591736e-01" purity="6.9377285242080688e-01" nType="-99"/>
        </Node>
      </Node>
    </BinaryTree>
    <BinaryTree type="DecisionTree" boostWeight="1.0000000000000000e+00" itree="547">
      <Node pos="s" depth="0" NCoef="0" IVar="3" Cut="2.0371823310852051e+00" cType="1" res="6.8014953285455704e-03" rms="4.6309792995452881e-01" purity="5.0807905197143555e-01" nType="0">
        <Node pos="l" depth="1" NCoef="0" IVar="1" Cut="5.8504039764404297e+01" cType="1" res="-3.9767522364854813e-02" rms="4.7996443510055542e-01" purity="5.3985351324081421e-01" nType="0">
          <Node pos="l" depth="2" NCoef="0" IVar="-1" Cut="0.0000000000000000e+00" cType="1" res="9.3438389012590051e-04" rms="4.6245554089546204e-01" purity="5.5949181318283081e-01" nType="-99"/>
          <Node pos="r" depth="2" NCoef="0" IVar="-1" Cut="0.0000000000000000e+00" cType="1" res="-2.4307335261255503e-03" rms="4.8371234536170959e-01" purity="5.2398163080215454e-01" nType="-99"/>
        </Node>
        <Node pos="r" depth="1" NCoef="0" IVar="1" Cut="1.4050550842285156e+02" cType="1" res="3.1475152820348740e-02" rms="4.5196714997291565e-01" purity="4.9124404788017273e-01" nType="0">
          <Node pos="l" depth="2" NCoef="0" IVar="-1" Cut="0.0000000000000000e+00" cType="1" res="1.0194437345489860e-03" rms="4.5147216320037842e-01" purity="5.0123125314712524e-01" nType="-99"/>
          <Node pos="r" depth="2" NCoef="0" IVar="-1" Cut="0.0000000000000000e+00" cType="1" res="-1.8008784390985966e-03" rms="4.4150894880294800e-01" purity="4.0969571471214294e-01" nType="-99"/>
        </Node>
      </Node>
    </BinaryTree>
    <BinaryTree type="DecisionTree" boostWeight="1.0000000000000000e+00" itree="548">
      <Node pos="s" depth="0" NCoef="0" IVar="0" Cut="5.1623377799987793e+00" cType="1" res="-3.9029344916343689e-03" rms="4.5155593752861023e-01" purity="4.9245944619178772e-01" nType="0">
        <Node pos="l" depth="1" NCoef="0" IVar="3" Cut="2.2121133804321289e+00" cType="1" res="-8.8761419057846069e-02" rms="3.7904369831085205e-01" purity="1.6823337972164154e-01" nType="0">
          <Node pos="l" depth="2" NCoef="0" IVar="-1" Cut="0.0000000000000000e+00" cType="1" res="-2.7187375817447901e-03" rms="4.0157505869865417e-01" purity="1.8750752508640289e-01" nType="-99"/>
          <Node pos="r" depth="2" NCoef="0" IVar="-1" Cut="0.0000000000000000e+00" cType="1" res="-1.1908024316653609e-03" rms="3.4729492664337158e-01" purity="1.4771302044391632e-01" nType="-99"/>
        </Node>
        <Node pos="r" depth="1" NCoef="0" IVar="0" Cut="7.0393123626708984e+00" cType="1" res="7.7448203228414059e-03" rms="4.5939710736274719e-01" purity="5.3696304559707642e-01" nType="0">
          <Node pos="l" depth="2" NCoef="0" IVar="-1" Cut="0.0000000000000000e+00" cType="1" res="8.6973601719364524e-04" rms="4.7107860445976257e-01" purity="4.5367515087127686e-01" nType="-99"/>
          <Node pos="r" depth="2" NCoef="0" IVar="-1" Cut="0.0000000000000000e+00" cType="1" res="-5.7134096277877688e-04" rms="4.4556316733360291e-01" purity="6.1816954612731934e-01" nType="-99"/>
        </Node>
      </Node>
    </BinaryTree>
    <BinaryTree type="DecisionTree" boostWeight="1.0000000000000000e+00" itree="549">
      <Node pos="s" depth="0" NCoef="0" IVar="3" Cut="1.6857119798660278e+00" cType="1" res="1.1457510991021991e-03" rms="4.5865646004676819e-01" purity="5.0376820564270020e-01" nType="0">
        <Node pos="l" depth="1" NCoef="0" IVar="-1" Cut="0.0000000000000000e+00" cType="1" res="-2.9257468413561583e-03" rms="4.6652942895889282e-01" purity="3.7987226247787476e-01" nType="-99"/>
        <Node pos="r" depth="1" NCoef="0" IVar="5" Cut="6.8104594945907593e-01" cType="1" res="1.0182950645685196e-02" rms="4.5669272541999817e-01" purity="5.1197087764739990e-01" nType="0">
          <Node pos="l" depth="2" NCoef="0" IVar="-1" Cut="0.0000000000000000e+00" cType="1" res="-2.9836079193046317e-05" rms="4.5675250887870789e-01" purity="4.9259650707244873e-01" nType="-99"/>
          <Node pos="r" depth="2" NCoef="0" IVar="-1" Cut="0.0000000000000000e+00" cType="1" res="3.0824167188256979e-03" rms="4.3772432208061218e-01" purity="7.1858513355255127e-01" nType="-99"/>
        </Node>
      </Node>
    </BinaryTree>
    <BinaryTree type="DecisionTree" boostWeight="1.0000000000000000e+00" itree="550">
      <Node pos="s" depth="0" NCoef="0" IVar="1" Cut="9.0488960266113281e+01" cType="1" res="-1.4742963947355747e-02" rms="4.5010435581207275e-01" purity="4.7576740384101868e-01" nType="0">
        <Node pos="l" depth="1" NCoef="0" IVar="0" Cut="5.4122219085693359e+00" cType="1" res="-5.5402334779500961e-02" rms="4.5264154672622681e-01" purity="4.0388807654380798e-01" nType="0">
          <Node pos="l" depth="2" NCoef="0" IVar="-1" Cut="0.0000000000000000e+00" cType="1" res="8.3197356434538960e-04" rms="4.3539354205131531e-01" purity="2.7577319741249084e-01" nType="-99"/>
          <Node pos="r" depth="2" NCoef="0" IVar="-1" Cut="0.0000000000000000e+00" cType="1" res="-1.6968371346592903e-03" rms="4.5406049489974976e-01" purity="4.3149158358573914e-01" nType="-99"/>
        </Node>
        <Node pos="r" depth="1" NCoef="0" IVar="1" Cut="1.0880083465576172e+02" cType="1" res="5.2167583256959915e-02" rms="4.3775242567062378e-01" purity="5.9405463933944702e-01" nType="0">
          <Node pos="l" depth="2" NCoef="0" IVar="-1" Cut="0.0000000000000000e+00" cType="1" res="2.7316485065966845e-03" rms="4.2805024981498718e-01" purity="6.3646060228347778e-01" nType="-99"/>
          <Node pos="r" depth="2" NCoef="0" IVar="-1" Cut="0.0000000000000000e+00" cType="1" res="3.0370362219400704e-04" rms="4.3844789266586304e-01" purity="5.6930005550384521e-01" nType="-99"/>
        </Node>
      </Node>
    </BinaryTree>
    <BinaryTree type="DecisionTree" boostWeight="1.0000000000000000e+00" itree="551">
      <Node pos="s" depth="0" NCoef="0" IVar="3" Cut="1.7551163434982300e+00" cType="1" res="-2.3727126419544220e-02" rms="4.4547933340072632e-01" purity="4.7246012091636658e-01" nType="0">
        <Node pos="l" depth="1" NCoef="0" IVar="-1" Cut="0.0000000000000000e+00" cType="1" res="-2.6595606468617916e-03" rms="4.4426953792572021e-01" purity="3.6196258664131165e-01" nType="-99"/>
        <Node pos="r" depth="1" NCoef="0" IVar="3" Cut="2.2357091903686523e+00" cType="1" res="-1.5783352777361870e-02" rms="4.4454413652420044e-01" purity="4.8067075014114380e-01" nType="0">
          <Node pos="l" depth="2" NCoef="0" IVar="-1" Cut="0.0000000000000000e+00" cType="1" res="2.0348615362308919e-04" rms="4.4989091157913208e-01" purity="5.8577066659927368e-01" nType="-99"/>
          <Node pos="r" depth="2" NCoef="0" IVar="-1" Cut="0.0000000000000000e+00" cType="1" res="-1.1550844646990299e-03" rms="4.3480369448661804e-01" purity="3.3611056208610535e-01" nType="-99"/>
        </Node>
      </Node>
    </BinaryTree>
    <BinaryTree type="DecisionTree" boostWeight="1.0000000000000000e+00" itree="552">
      <Node pos="s" depth="0" NCoef="0" IVar="6" Cut="6.8876733398437500e+02" cType="1" res="-9.3854628503322601e-03" rms="4.4707703590393066e-01" purity="4.8127010464668274e-01" nType="0">
        <Node pos="l" depth="1" NCoef="0" IVar="3" Cut="1.7896616458892822e+00" cType="1" res="-2.1682253107428551e-02" rms="4.4993075728416443e-01" purity="4.6283385157585144e-01" nType="0">
          <Node pos="l" depth="2" NCoef="0" IVar="-1" Cut="0.0000000000000000e+00" cType="1" res="-2.8590676374733448e-03" rms="4.7636061906814575e-01" purity="3.6054357886314392e-01" nType="-99"/>
          <Node pos="r" depth="2" NCoef="0" IVar="-1" Cut="0.0000000000000000e+00" cType="1" res="-2.7763738762587309e-04" rms="4.4633439183235168e-01" purity="4.7127366065979004e-01" nType="-99"/>
        </Node>
        <Node pos="r" depth="1" NCoef="0" IVar="-1" Cut="0.0000000000000000e+00" cType="1" res="3.4447384532541037e-03" rms="3.7987241148948669e-01" purity="7.0617538690567017e-01" nType="-99"/>
      </Node>
    </BinaryTree>
    <BinaryTree type="DecisionTree" boostWeight="1.0000000000000000e+00" itree="553">
      <Node pos="s" depth="0" NCoef="0" IVar="1" Cut="1.3823908996582031e+02" cType="1" res="3.9084419608116150e-02" rms="4.5509937405586243e-01" purity="5.3531640768051147e-01" nType="0">
        <Node pos="l" depth="1" NCoef="0" IVar="1" Cut="1.0115357971191406e+02" cType="1" res="5.0115633755922318e-02" rms="4.5395529270172119e-01" purity="5.4769819974899292e-01" nType="0">
          <Node pos="l" depth="2" NCoef="0" IVar="-1" Cut="0.0000000000000000e+00" cType="1" res="8.1526185385882854e-04" rms="4.5900994539260864e-01" purity="5.1638489961624146e-01" nType="-99"/>
          <Node pos="r" depth="2" NCoef="0" IVar="-1" Cut="0.0000000000000000e+00" cType="1" res="2.4397703818976879e-03" rms="4.3115440011024475e-01" purity="6.6021221876144409e-01" nType="-99"/>
        </Node>
        <Node pos="r" depth="1" NCoef="0" IVar="-1" Cut="0.0000000000000000e+00" cType="1" res="-2.7587139047682285e-03" rms="4.4234070181846619e-01" purity="3.5972127318382263e-01" nType="-99"/>
      </Node>
    </BinaryTree>
    <BinaryTree type="DecisionTree" boostWeight="1.0000000000000000e+00" itree="554">
      <Node pos="s" depth="0" NCoef="0" IVar="5" Cut="5.4861873388290405e-01" cType="1" res="1.3722880976274610e-03" rms="4.5597240328788757e-01" purity="4.9278742074966431e-01" nType="0">
        <Node pos="l" depth="1" NCoef="0" IVar="1" Cut="7.7394470214843750e+01" cType="1" res="1.5628559514880180e-02" rms="4.5084714889526367e-01" purity="4.7982734441757202e-01" nType="0">
          <Node pos="l" depth="2" NCoef="0" IVar="-1" Cut="0.0000000000000000e+00" cType="1" res="-3.3202968188561499e-04" rms="4.4848689436912537e-01" purity="4.1615241765975952e-01" nType="-99"/>
          <Node pos="r" depth="2" NCoef="0" IVar="-1" Cut="0.0000000000000000e+00" cType="1" res="1.1506022419780493e-03" rms="4.5113453269004822e-01" purity="5.4760849475860596e-01" nType="-99"/>
        </Node>
        <Node pos="r" depth="1" NCoef="0" IVar="6" Cut="3.2860983276367188e+02" cType="1" res="-4.6893112361431122e-02" rms="4.6971073746681213e-01" purity="5.3666442632675171e-01" nType="0">
          <Node pos="l" depth="2" NCoef="0" IVar="-1" Cut="0.0000000000000000e+00" cType="1" res="1.3250588672235608e-03" rms="4.5750898122787476e-01" purity="5.4769122600555420e-01" nType="-99"/>
          <Node pos="r" depth="2" NCoef="0" IVar="-1" Cut="0.0000000000000000e+00" cType="1" res="-2.3729079402983189e-03" rms="4.6614453196525574e-01" purity="5.3086513280868530e-01" nType="-99"/>
        </Node>
      </Node>
    </BinaryTree>
    <BinaryTree type="DecisionTree" boostWeight="1.0000000000000000e+00" itree="555">
      <Node pos="s" depth="0" NCoef="0" IVar="6" Cut="6.7668139648437500e+02" cType="1" res="-2.5723219732753932e-04" rms="4.5391231775283813e-01" purity="4.9728330969810486e-01" nType="0">
        <Node pos="l" depth="1" NCoef="0" IVar="0" Cut="8.6098747253417969e+00" cType="1" res="-1.0940633714199066e-02" rms="4.5624172687530518e-01" purity="4.7734725475311279e-01" nType="0">
          <Node pos="l" depth="2" NCoef="0" IVar="-1" Cut="0.0000000000000000e+00" cType="1" res="-4.8418002552352846e-04" rms="4.6271809935569763e-01" purity="4.3213775753974915e-01" nType="-99"/>
          <Node pos="r" depth="2" NCoef="0" IVar="-1" Cut="0.0000000000000000e+00" cType="1" res="2.0013004541397095e-03" rms="3.9854428172111511e-01" purity="7.9924815893173218e-01" nType="-99"/>
        </Node>
        <Node pos="r" depth="1" NCoef="0" IVar="-1" Cut="0.0000000000000000e+00" cType="1" res="3.1261653639376163e-03" rms="4.0618851780891418e-01" purity="7.2760897874832153e-01" nType="-99"/>
      </Node>
    </BinaryTree>
    <BinaryTree type="DecisionTree" boostWeight="1.0000000000000000e+00" itree="556">
      <Node pos="s" depth="0" NCoef="0" IVar="0" Cut="7.0834693908691406e+00" cType="1" res="-8.7709054350852966e-03" rms="4.6043974161148071e-01" purity="4.8806315660476685e-01" nType="0">
        <Node pos="l" depth="1" NCoef="0" IVar="0" Cut="6.0164513587951660e+00" cType="1" res="1.6390118747949600e-02" rms="4.4907322525978088e-01" purity="4.1363269090652466e-01" nType="0">
          <Node pos="l" depth="2" NCoef="0" IVar="-1" Cut="0.0000000000000000e+00" cType="1" res="-9.0775644639506936e-04" rms="4.2885279655456543e-01" purity="2.7844348549842834e-01" nType="-99"/>
          <Node pos="r" depth="2" NCoef="0" IVar="-1" Cut="0.0000000000000000e+00" cType="1" res="1.6245127189904451e-03" rms="4.6110191941261292e-01" purity="5.4896646738052368e-01" nType="-99"/>
        </Node>
        <Node pos="r" depth="1" NCoef="0" IVar="5" Cut="2.9598501324653625e-01" cType="1" res="-4.2655564844608307e-02" rms="4.7320854663848877e-01" purity="5.8829963207244873e-01" nType="0">
          <Node pos="l" depth="2" NCoef="0" IVar="-1" Cut="0.0000000000000000e+00" cType="1" res="8.2758028293028474e-04" rms="4.5333695411682129e-01" purity="5.7810300588607788e-01" nType="-99"/>
          <Node pos="r" depth="2" NCoef="0" IVar="-1" Cut="0.0000000000000000e+00" cType="1" res="-1.9184282282367349e-03" rms="4.7745302319526672e-01" purity="5.9260129928588867e-01" nType="-99"/>
        </Node>
      </Node>
    </BinaryTree>
    <BinaryTree type="DecisionTree" boostWeight="1.0000000000000000e+00" itree="557">
      <Node pos="s" depth="0" NCoef="0" IVar="0" Cut="5.9468665122985840e+00" cType="1" res="-1.0462761856615543e-02" rms="4.4510266184806824e-01" purity="4.8442739248275757e-01" nType="0">
        <Node pos="l" depth="1" NCoef="0" IVar="6" Cut="4.4361901855468750e+02" cType="1" res="-6.8509034812450409e-02" rms="4.0136796236038208e-01" purity="2.4806015193462372e-01" nType="0">
          <Node pos="l" depth="2" NCoef="0" IVar="-1" Cut="0.0000000000000000e+00" cType="1" res="-2.4588017258793116e-03" rms="3.6365139484405518e-01" purity="1.7817877233028412e-01" nType="-99"/>
          <Node pos="r" depth="2" NCoef="0" IVar="-1" Cut="0.0000000000000000e+00" cType="1" res="5.5241526570171118e-04" rms="4.6578463912010193e-01" purity="4.1454365849494934e-01" nType="-99"/>
        </Node>
        <Node pos="r" depth="1" NCoef="0" IVar="1" Cut="1.1920454406738281e+02" cType="1" res="1.2755377218127251e-02" rms="4.5938804745674133e-01" purity="5.7897275686264038e-01" nType="0">
          <Node pos="l" depth="2" NCoef="0" IVar="-1" Cut="0.0000000000000000e+00" cType="1" res="7.2404922684654593e-04" rms="4.6220591664314270e-01" purity="5.8903878927230835e-01" nType="-99"/>
          <Node pos="r" depth="2" NCoef="0" IVar="-1" Cut="0.0000000000000000e+00" cType="1" res="-1.7586514586582780e-03" rms="4.3542709946632385e-01" purity="5.3165787458419800e-01" nType="-99"/>
        </Node>
      </Node>
    </BinaryTree>
    <BinaryTree type="DecisionTree" boostWeight="1.0000000000000000e+00" itree="558">
      <Node pos="s" depth="0" NCoef="0" IVar="0" Cut="7.1516890525817871e+00" cType="1" res="7.8736298019066453e-04" rms="4.4017979502677917e-01" purity="5.0657153129577637e-01" nType="0">
        <Node pos="l" depth="1" NCoef="0" IVar="6" Cut="3.2808193969726562e+02" cType="1" res="-3.5075183957815170e-02" rms="4.5138126611709595e-01" purity="3.5934069752693176e-01" nType="0">
          <Node pos="l" depth="2" NCoef="0" IVar="-1" Cut="0.0000000000000000e+00" cType="1" res="-2.5399248115718365e-03" rms="4.0981054306030273e-01" purity="2.2248116135597229e-01" nType="-99"/>
          <Node pos="r" depth="2" NCoef="0" IVar="-1" Cut="0.0000000000000000e+00" cType="1" res="2.5437810108996928e-05" rms="4.6556380391120911e-01" purity="4.2460316419601440e-01" nType="-99"/>
        </Node>
        <Node pos="r" depth="1" NCoef="0" IVar="3" Cut="2.2345881462097168e+00" cType="1" res="5.1101792603731155e-02" rms="4.1882100701332092e-01" purity="7.1313345432281494e-01" nType="0">
          <Node pos="l" depth="2" NCoef="0" IVar="-1" Cut="0.0000000000000000e+00" cType="1" res="2.5159120559692383e-03" rms="3.8494494557380676e-01" purity="8.1842595338821411e-01" nType="-99"/>
          <Node pos="r" depth="2" NCoef="0" IVar="-1" Cut="0.0000000000000000e+00" cType="1" res="-4.6466756612062454e-04" rms="4.6761572360992432e-01" purity="5.1519775390625000e-01" nType="-99"/>
        </Node>
      </Node>
    </BinaryTree>
    <BinaryTree type="DecisionTree" boostWeight="1.0000000000000000e+00" itree="559">
      <Node pos="s" depth="0" NCoef="0" IVar="0" Cut="8.4307832717895508e+00" cType="1" res="-1.0735922493040562e-02" rms="4.5201867818832397e-01" purity="4.8291641473770142e-01" nType="0">
        <Node pos="l" depth="1" NCoef="0" IVar="0" Cut="7.3715291023254395e+00" cType="1" res="-2.3389851674437523e-02" rms="4.5759809017181396e-01" purity="4.3495133519172668e-01" nType="0">
          <Node pos="l" depth="2" NCoef="0" IVar="-1" Cut="0.0000000000000000e+00" cType="1" res="-1.0708704940043390e-04" rms="4.5406436920166016e-01" purity="3.9921039342880249e-01" nType="-99"/>
          <Node pos="r" depth="2" NCoef="0" IVar="-1" Cut="0.0000000000000000e+00" cType="1" res="-1.8936146516352892e-03" rms="4.6369457244873047e-01" purity="5.4404443502426147e-01" nType="-99"/>
        </Node>
        <Node pos="r" depth="1" NCoef="0" IVar="5" Cut="3.5743120312690735e-01" cType="1" res="6.6888719797134399e-02" rms="4.0765172243118286e-01" purity="7.7715474367141724e-01" nType="0">
          <Node pos="l" depth="2" NCoef="0" IVar="-1" Cut="0.0000000000000000e+00" cType="1" res="4.0469029918313026e-03" rms="3.5927131772041321e-01" purity="8.3137565851211548e-01" nType="-99"/>
          <Node pos="r" depth="2" NCoef="0" IVar="-1" Cut="0.0000000000000000e+00" cType="1" res="4.9610149289947003e-05" rms="4.2877659201622009e-01" purity="7.3678708076477051e-01" nType="-99"/>
        </Node>
      </Node>
    </BinaryTree>
    <BinaryTree type="DecisionTree" boostWeight="1.0000000000000000e+00" itree="560">
      <Node pos="s" depth="0" NCoef="0" IVar="6" Cut="3.1578451538085938e+02" cType="1" res="5.7374127209186554e-03" rms="4.5546108484268188e-01" purity="5.0081908702850342e-01" nType="0">
        <Node pos="l" depth="1" NCoef="0" IVar="0" Cut="5.7585687637329102e+00" cType="1" res="5.1691465079784393e-02" rms="4.4160827994346619e-01" purity="4.5671248435974121e-01" nType="0">
          <Node pos="l" depth="2" NCoef="0" IVar="-1" Cut="0.0000000000000000e+00" cType="1" res="-1.3932251604273915e-03" rms="3.8306859135627747e-01" purity="1.9379077851772308e-01" nType="-99"/>
          <Node pos="r" depth="2" NCoef="0" IVar="-1" Cut="0.0000000000000000e+00" cType="1" res="2.2191354073584080e-03" rms="4.5599311590194702e-01" purity="5.6357806921005249e-01" nType="-99"/>
        </Node>
        <Node pos="r" depth="1" NCoef="0" IVar="3" Cut="1.7612020969390869e+00" cType="1" res="-8.9578675106167793e-03" rms="4.5883271098136902e-01" purity="5.1492357254028320e-01" nType="0">
          <Node pos="l" depth="2" NCoef="0" IVar="-1" Cut="0.0000000000000000e+00" cType="1" res="1.8443480366840959e-03" rms="4.5766210556030273e-01" purity="6.5306305885314941e-01" nType="-99"/>
          <Node pos="r" depth="2" NCoef="0" IVar="-1" Cut="0.0000000000000000e+00" cType="1" res="-4.2731966823339462e-04" rms="4.5792230963706970e-01" purity="5.0126218795776367e-01" nType="-99"/>
        </Node>
      </Node>
    </BinaryTree>
    <BinaryTree type="DecisionTree" boostWeight="1.0000000000000000e+00" itree="561">
      <Node pos="s" depth="0" NCoef="0" IVar="0" Cut="9.4562454223632812e+00" cType="1" res="-1.2308799661695957e-02" rms="4.6079298853874207e-01" purity="4.9733293056488037e-01" nType="0">
        <Node pos="l" depth="1" NCoef="0" IVar="1" Cut="4.3702415466308594e+01" cType="1" res="-2.0181259140372276e-02" rms="4.6671429276466370e-01" purity="4.7749796509742737e-01" nType="0">
          <Node pos="l" depth="2" NCoef="0" IVar="-1" Cut="0.0000000000000000e+00" cType="1" res="1.4048736775293946e-03" rms="4.8428124189376831e-01" purity="4.7257974743843079e-01" nType="-99"/>
          <Node pos="r" depth="2" NCoef="0" IVar="-1" Cut="0.0000000000000000e+00" cType="1" res="-8.0755405360832810e-04" rms="4.6180310845375061e-01" purity="4.7839662432670593e-01" nType="-99"/>
        </Node>
        <Node pos="r" depth="1" NCoef="0" IVar="-1" Cut="0.0000000000000000e+00" cType="1" res="3.7537582684308290e-03" rms="3.0113607645034790e-01" purity="8.5841906070709229e-01" nType="-99"/>
      </Node>
    </BinaryTree>
    <BinaryTree type="DecisionTree" boostWeight="1.0000000000000000e+00" itree="562">
      <Node pos="s" depth="0" NCoef="0" IVar="5" Cut="2.9775273799896240e-01" cType="1" res="1.2725551612675190e-02" rms="4.5034846663475037e-01" purity="5.1699405908584595e-01" nType="0">
        <Node pos="l" depth="1" NCoef="0" IVar="2" Cut="9.5533812046051025e-01" cType="1" res="5.6983832269906998e-02" rms="4.3738397955894470e-01" purity="4.7123375535011292e-01" nType="0">
          <Node pos="l" depth="2" NCoef="0" IVar="-1" Cut="0.0000000000000000e+00" cType="1" res="3.6022821441292763e-03" rms="4.3993079662322998e-01" purity="7.2591662406921387e-01" nType="-99"/>
          <Node pos="r" depth="2" NCoef="0" IVar="-1" Cut="0.0000000000000000e+00" cType="1" res="2.2070424165576696e-04" rms="4.2815032601356506e-01" purity="3.4107965230941772e-01" nType="-99"/>
        </Node>
        <Node pos="r" depth="1" NCoef="0" IVar="0" Cut="5.1169219017028809e+00" cType="1" res="-7.6992842368781567e-03" rms="4.5475697517395020e-01" purity="5.3811204433441162e-01" nType="0">
          <Node pos="l" depth="2" NCoef="0" IVar="-1" Cut="0.0000000000000000e+00" cType="1" res="-2.5714258663356304e-03" rms="3.7217745184898376e-01" purity="1.5612357854843140e-01" nType="-99"/>
          <Node pos="r" depth="2" NCoef="0" IVar="-1" Cut="0.0000000000000000e+00" cType="1" res="1.0498346091480926e-04" rms="4.6121585369110107e-01" purity="5.7972347736358643e-01" nType="-99"/>
        </Node>
      </Node>
    </BinaryTree>
    <BinaryTree type="DecisionTree" boostWeight="1.0000000000000000e+00" itree="563">
      <Node pos="s" depth="0" NCoef="0" IVar="5" Cut="3.6925593018531799e-01" cType="1" res="1.3045454397797585e-02" rms="4.5137974619865417e-01" purity="5.1657932996749878e-01" nType="0">
        <Node pos="l" depth="1" NCoef="0" IVar="4" Cut="1.0975852966308594e+02" cType="1" res="-1.8353248015046120e-02" rms="4.4413208961486816e-01" purity="4.3190509080886841e-01" nType="0">
          <Node pos="l" depth="2" NCoef="0" IVar="-1" Cut="0.0000000000000000e+00" cType="1" res="-1.9105860264971852e-03" rms="4.4746261835098267e-01" purity="3.8863494992256165e-01" nType="-99"/>
          <Node pos="r" depth="2" NCoef="0" IVar="-1" Cut="0.0000000000000000e+00" cType="1" res="1.3582893880084157e-03" rms="4.2871078848838806e-01" purity="4.8141819238662720e-01" nType="-99"/>
        </Node>
        <Node pos="r" depth="1" NCoef="0" IVar="2" Cut="1.2156888246536255e+00" cType="1" res="4.2779948562383652e-02" rms="4.5614936947822571e-01" purity="5.9676563739776611e-01" nType="0">
          <Node pos="l" depth="2" NCoef="0" IVar="-1" Cut="0.0000000000000000e+00" cType="1" res="6.2758714193478227e-04" rms="4.4767233729362488e-01" purity="6.3274419307708740e-01" nType="-99"/>
          <Node pos="r" depth="2" NCoef="0" IVar="-1" Cut="0.0000000000000000e+00" cType="1" res="2.5111755821853876e-03" rms="4.8226159811019897e-01" purity="4.5737782120704651e-01" nType="-99"/>
        </Node>
      </Node>
    </BinaryTree>
    <BinaryTree type="DecisionTree" boostWeight="1.0000000000000000e+00" itree="564">
      <Node pos="s" depth="0" NCoef="0" IVar="3" Cut="1.8330365419387817e+00" cType="1" res="3.7665136624127626e-03" rms="4.5127770304679871e-01" purity="5.1100951433181763e-01" nType="0">
        <Node pos="l" depth="1" NCoef="0" IVar="1" Cut="5.6931194305419922e+01" cType="1" res="-9.1780506074428558e-02" rms="4.6306326985359192e-01" purity="4.7497618198394775e-01" nType="0">
          <Node pos="l" depth="2" NCoef="0" IVar="-1" Cut="0.0000000000000000e+00" cType="1" res="-3.6793558392673731e-03" rms="4.2988654971122742e-01" purity="3.4860977530479431e-01" nType="-99"/>
          <Node pos="r" depth="2" NCoef="0" IVar="-1" Cut="0.0000000000000000e+00" cType="1" res="-3.7826210609637201e-04" rms="4.8173803091049194e-01" purity="5.9893518686294556e-01" nType="-99"/>
        </Node>
        <Node pos="r" depth="1" NCoef="0" IVar="2" Cut="1.0593044757843018e+00" cType="1" res="1.7057975754141808e-02" rms="4.4800209999084473e-01" purity="5.1602208614349365e-01" nType="0">
          <Node pos="l" depth="2" NCoef="0" IVar="-1" Cut="0.0000000000000000e+00" cType="1" res="9.0677390107885003e-04" rms="4.4152694940567017e-01" purity="6.6642379760742188e-01" nType="-99"/>
          <Node pos="r" depth="2" NCoef="0" IVar="-1" Cut="0.0000000000000000e+00" cType="1" res="-1.0341595043428242e-04" rms="4.5366585254669189e-01" purity="3.5912007093429565e-01" nType="-99"/>
        </Node>
      </Node>
    </BinaryTree>
    <BinaryTree type="DecisionTree" boostWeight="1.0000000000000000e+00" itree="565">
      <Node pos="s" depth="0" NCoef="0" IVar="1" Cut="6.6726890563964844e+01" cType="1" res="5.4878892842680216e-04" rms="4.5143359899520874e-01" purity="5.0711750984191895e-01" nType="0">
        <Node pos="l" depth="1" NCoef="0" IVar="5" Cut="2.2390848398208618e-01" cType="1" res="-3.0390731990337372e-02" rms="4.5397225022315979e-01" purity="4.3394687771797180e-01" nType="0">
          <Node pos="l" depth="2" NCoef="0" IVar="-1" Cut="0.0000000000000000e+00" cType="1" res="1.1344883823767304e-03" rms="4.2617303133010864e-01" purity="3.7988725304603577e-01" nType="-99"/>
          <Node pos="r" depth="2" NCoef="0" IVar="-1" Cut="0.0000000000000000e+00" cType="1" res="-1.0396799771115184e-03" rms="4.5816338062286377e-01" purity="4.4576907157897949e-01" nType="-99"/>
        </Node>
        <Node pos="r" depth="1" NCoef="0" IVar="4" Cut="1.0869356536865234e+02" cType="1" res="2.0569125190377235e-02" rms="4.4864764809608459e-01" purity="5.5446463823318481e-01" nType="0">
          <Node pos="l" depth="2" NCoef="0" IVar="-1" Cut="0.0000000000000000e+00" cType="1" res="1.5536162536591291e-03" rms="4.5153015851974487e-01" purity="6.3029623031616211e-01" nType="-99"/>
          <Node pos="r" depth="2" NCoef="0" IVar="-1" Cut="0.0000000000000000e+00" cType="1" res="-7.4896152364090085e-04" rms="4.3977168202400208e-01" purity="4.6942394971847534e-01" nType="-99"/>
        </Node>
      </Node>
    </BinaryTree>
    <BinaryTree type="DecisionTree" boostWeight="1.0000000000000000e+00" itree="566">
      <Node pos="s" depth="0" NCoef="0" IVar="1" Cut="4.3729740142822266e+01" cType="1" res="-2.9317231848835945e-02" rms="4.4688662886619568e-01" purity="4.7488322854042053e-01" nType="0">
        <Node pos="l" depth="1" NCoef="0" IVar="5" Cut="4.3443050980567932e-01" cType="1" res="-1.3178846240043640e-01" rms="4.0939399600028992e-01" purity="3.1457704305648804e-01" nType="0">
          <Node pos="l" depth="2" NCoef="0" IVar="-1" Cut="0.0000000000000000e+00" cType="1" res="-4.2190472595393658e-03" rms="3.5824158787727356e-01" purity="1.9414314627647400e-01" nType="-99"/>
          <Node pos="r" depth="2" NCoef="0" IVar="-1" Cut="0.0000000000000000e+00" cType="1" res="-8.4384903311729431e-04" rms="4.5500278472900391e-01" purity="4.8018872737884521e-01" nType="-99"/>
        </Node>
        <Node pos="r" depth="1" NCoef="0" IVar="4" Cut="1.8598321533203125e+02" cType="1" res="-1.2896806001663208e-02" rms="4.5044413208961487e-01" purity="5.0057137012481689e-01" nType="0">
          <Node pos="l" depth="2" NCoef="0" IVar="-1" Cut="0.0000000000000000e+00" cType="1" res="1.8263168749399483e-04" rms="4.5432940125465393e-01" purity="5.3634303808212280e-01" nType="-99"/>
          <Node pos="r" depth="2" NCoef="0" IVar="-1" Cut="0.0000000000000000e+00" cType="1" res="-1.6497164033353329e-03" rms="4.3435543775558472e-01" purity="4.0154519677162170e-01" nType="-99"/>
        </Node>
      </Node>
    </BinaryTree>
    <BinaryTree type="DecisionTree" boostWeight="1.0000000000000000e+00" itree="567">
      <Node pos="s" depth="0" NCoef="0" IVar="0" Cut="9.0763616561889648e+00" cType="1" res="1.8671607598662376e-02" rms="4.5558679103851318e-01" purity="5.2408212423324585e-01" nType="0">
        <Node pos="l" depth="1" NCoef="0" IVar="0" Cut="5.6941275596618652e+00" cType="1" res="8.2923565059900284e-03" rms="4.6257051825523376e-01" purity="4.9335005879402161e-01" nType="0">
          <Node pos="l" depth="2" NCoef="0" IVar="-1" Cut="0.0000000000000000e+00" cType="1" res="-1.2482333695515990e-03" rms="4.1858407855033875e-01" purity="2.5442653894424438e-01" nType="-99"/>
          <Node pos="r" depth="2" NCoef="0" IVar="-1" Cut="0.0000000000000000e+00" cType="1" res="5.7129393098875880e-04" rms="4.7202217578887939e-01" purity="5.5591475963592529e-01" nType="-99"/>
        </Node>
        <Node pos="r" depth="1" NCoef="0" IVar="-1" Cut="0.0000000000000000e+00" cType="1" res="4.2732167057693005e-03" rms="3.3653458952903748e-01" purity="8.9472919702529907e-01" nType="-99"/>
      </Node>
    </BinaryTree>
    <BinaryTree type="DecisionTree" boostWeight="1.0000000000000000e+00" itree="568">
      <Node pos="s" depth="0" NCoef="0" IVar="4" Cut="1.7387902832031250e+02" cType="1" res="8.9703369885683060e-03" rms="4.4389015436172485e-01" purity="5.1000314950942993e-01" nType="0">
        <Node pos="l" depth="1" NCoef="0" IVar="0" Cut="5.8389182090759277e+00" cType="1" res="2.6193354278802872e-02" rms="4.4638612866401672e-01" purity="5.3752583265304565e-01" nType="0">
          <Node pos="l" depth="2" NCoef="0" IVar="-1" Cut="0.0000000000000000e+00" cType="1" res="-9.3087321147322655e-04" rms="4.3190968036651611e-01" purity="2.7704989910125732e-01" nType="-99"/>
          <Node pos="r" depth="2" NCoef="0" IVar="-1" Cut="0.0000000000000000e+00" cType="1" res="1.1561908759176731e-03" rms="4.4876456260681152e-01" purity="6.2519156932830811e-01" nType="-99"/>
        </Node>
        <Node pos="r" depth="1" NCoef="0" IVar="0" Cut="7.5638031959533691e+00" cType="1" res="-4.0976725518703461e-02" rms="4.3271169066429138e-01" purity="4.3018680810928345e-01" nType="0">
          <Node pos="l" depth="2" NCoef="0" IVar="-1" Cut="0.0000000000000000e+00" cType="1" res="-1.5407195314764977e-03" rms="4.3375372886657715e-01" purity="3.3599203824996948e-01" nType="-99"/>
          <Node pos="r" depth="2" NCoef="0" IVar="-1" Cut="0.0000000000000000e+00" cType="1" res="5.5691594025120139e-04" rms="4.2349711060523987e-01" purity="6.4660346508026123e-01" nType="-99"/>
        </Node>
      </Node>
    </BinaryTree>
    <BinaryTree type="DecisionTree" boostWeight="1.0000000000000000e+00" itree="569">
      <Node pos="s" depth="0" NCoef="0" IVar="0" Cut="6.0608344078063965e+00" cType="1" res="-1.8894374370574951e-02" rms="4.4836831092834473e-01" purity="4.7922670841217041e-01" nType="0">
        <Node pos="l" depth="1" NCoef="0" IVar="4" Cut="1.1071471405029297e+02" cType="1" res="-7.1678116917610168e-02" rms="4.1116890311241150e-01" purity="2.5375235080718994e-01" nType="0">
          <Node pos="l" depth="2" NCoef="0" IVar="-1" Cut="0.0000000000000000e+00" cType="1" res="-7.2935287607833743e-04" rms="4.2931446433067322e-01" purity="3.0287140607833862e-01" nType="-99"/>
          <Node pos="r" depth="2" NCoef="0" IVar="-1" Cut="0.0000000000000000e+00" cType="1" res="-2.6601529680192471e-03" rms="3.8042321801185608e-01" purity="1.8924099206924438e-01" nType="-99"/>
        </Node>
        <Node pos="r" depth="1" NCoef="0" IVar="2" Cut="4.9752882122993469e-01" cType="1" res="5.4353917948901653e-03" rms="4.6248891949653625e-01" purity="5.8315521478652954e-01" nType="0">
          <Node pos="l" depth="2" NCoef="0" IVar="-1" Cut="0.0000000000000000e+00" cType="1" res="-3.5245432518422604e-03" rms="4.9188056588172913e-01" purity="6.2040823698043823e-01" nType="-99"/>
          <Node pos="r" depth="2" NCoef="0" IVar="-1" Cut="0.0000000000000000e+00" cType="1" res="4.2517710244283080e-04" rms="4.5754376053810120e-01" purity="5.7954907417297363e-01" nType="-99"/>
        </Node>
      </Node>
    </BinaryTree>
    <BinaryTree type="DecisionTree" boostWeight="1.0000000000000000e+00" itree="570">
      <Node pos="s" depth="0" NCoef="0" IVar="1" Cut="1.2682656860351562e+02" cType="1" res="-1.3432994484901428e-02" rms="4.5575523376464844e-01" purity="4.9723365902900696e-01" nType="0">
        <Node pos="l" depth="1" NCoef="0" IVar="0" Cut="8.5571737289428711e+00" cType="1" res="1.8356601940467954e-03" rms="4.5474117994308472e-01" purity="5.0962722301483154e-01" nType="0">
          <Node pos="l" depth="2" NCoef="0" IVar="-1" Cut="0.0000000000000000e+00" cType="1" res="-3.5156821832060814e-04" rms="4.6519511938095093e-01" purity="4.5362722873687744e-01" nType="-99"/>
          <Node pos="r" depth="2" NCoef="0" IVar="-1" Cut="0.0000000000000000e+00" cType="1" res="2.7231883723288774e-03" rms="3.7876337766647339e-01" purity="8.1563884019851685e-01" nType="-99"/>
        </Node>
        <Node pos="r" depth="1" NCoef="0" IVar="0" Cut="7.1349229812622070e+00" cType="1" res="-1.1773216724395752e-01" rms="4.4894203543663025e-01" purity="4.1257381439208984e-01" nType="0">
          <Node pos="l" depth="2" NCoef="0" IVar="-1" Cut="0.0000000000000000e+00" cType="1" res="-1.6814759001135826e-03" rms="4.2276152968406677e-01" purity="3.2665425539016724e-01" nType="-99"/>
          <Node pos="r" depth="2" NCoef="0" IVar="-1" Cut="0.0000000000000000e+00" cType="1" res="-4.1936901398003101e-03" rms="4.7589871287345886e-01" purity="5.2059817314147949e-01" nType="-99"/>
        </Node>
      </Node>
    </BinaryTree>
    <BinaryTree type="DecisionTree" boostWeight="1.0000000000000000e+00" itree="571">
      <Node pos="s" depth="0" NCoef="0" IVar="6" Cut="6.6938751220703125e+02" cType="1" res="-3.0348824802786112e-03" rms="4.5774611830711365e-01" purity="4.9105799198150635e-01" nType="0">
        <Node pos="l" depth="1" NCoef="0" IVar="0" Cut="7.2561478614807129e+00" cType="1" res="-1.3968317769467831e-02" rms="4.5950594544410706e-01" purity="4.6907764673233032e-01" nType="0">
          <Node pos="l" depth="2" NCoef="0" IVar="-1" Cut="0.0000000000000000e+00" cType="1" res="2.9451717273332179e-04" rms="4.5657959580421448e-01" purity="3.9976641535758972e-01" nType="-99"/>
          <Node pos="r" depth="2" NCoef="0" IVar="-1" Cut="0.0000000000000000e+00" cType="1" res="-1.4393760357052088e-03" rms="4.6085017919540405e-01" purity="5.8217680454254150e-01" nType="-99"/>
        </Node>
        <Node pos="r" depth="1" NCoef="0" IVar="-1" Cut="0.0000000000000000e+00" cType="1" res="2.7546891942620277e-03" rms="4.2294985055923462e-01" purity="7.1800708770751953e-01" nType="-99"/>
      </Node>
    </BinaryTree>
    <BinaryTree type="DecisionTree" boostWeight="1.0000000000000000e+00" itree="572">
      <Node pos="s" depth="0" NCoef="0" IVar="0" Cut="7.7624788284301758e+00" cType="1" res="-2.1739661693572998e-02" rms="4.5475724339485168e-01" purity="4.7825029492378235e-01" nType="0">
        <Node pos="l" depth="1" NCoef="0" IVar="0" Cut="5.8388557434082031e+00" cType="1" res="-4.4426773674786091e-03" rms="4.5223864912986755e-01" purity="4.2285406589508057e-01" nType="0">
          <Node pos="l" depth="2" NCoef="0" IVar="-1" Cut="0.0000000000000000e+00" cType="1" res="9.6630095504224300e-04" rms="4.3961808085441589e-01" purity="3.4129616618156433e-01" nType="-99"/>
          <Node pos="r" depth="2" NCoef="0" IVar="-1" Cut="0.0000000000000000e+00" cType="1" res="-6.5646949224174023e-04" rms="4.5712611079216003e-01" purity="4.6820569038391113e-01" nType="-99"/>
        </Node>
        <Node pos="r" depth="1" NCoef="0" IVar="1" Cut="7.8269264221191406e+01" cType="1" res="-6.3696622848510742e-02" rms="4.5810386538505554e-01" purity="6.1262369155883789e-01" nType="0">
          <Node pos="l" depth="2" NCoef="0" IVar="-1" Cut="0.0000000000000000e+00" cType="1" res="-2.8511036653071642e-03" rms="4.8113140463829041e-01" purity="5.3583914041519165e-01" nType="-99"/>
          <Node pos="r" depth="2" NCoef="0" IVar="-1" Cut="0.0000000000000000e+00" cType="1" res="-4.5981246512383223e-04" rms="4.3080228567123413e-01" purity="6.8236845731735229e-01" nType="-99"/>
        </Node>
      </Node>
    </BinaryTree>
    <BinaryTree type="DecisionTree" boostWeight="1.0000000000000000e+00" itree="573">
      <Node pos="s" depth="0" NCoef="0" IVar="4" Cut="2.9136160278320312e+02" cType="1" res="8.7596988305449486e-03" rms="4.5289966464042664e-01" purity="5.0657916069030762e-01" nType="0">
        <Node pos="l" depth="1" NCoef="0" IVar="4" Cut="2.0415438842773438e+02" cType="1" res="1.7996393144130707e-02" rms="4.5616215467453003e-01" purity="5.2508258819580078e-01" nType="0">
          <Node pos="l" depth="2" NCoef="0" IVar="-1" Cut="0.0000000000000000e+00" cType="1" res="1.0129166184924543e-04" rms="4.5532146096229553e-01" purity="5.1538783311843872e-01" nType="-99"/>
          <Node pos="r" depth="2" NCoef="0" IVar="-1" Cut="0.0000000000000000e+00" cType="1" res="3.0734122265130281e-03" rms="4.4784188270568848e-01" purity="6.0416471958160400e-01" nType="-99"/>
        </Node>
        <Node pos="r" depth="1" NCoef="0" IVar="-1" Cut="0.0000000000000000e+00" cType="1" res="-1.9364686449989676e-03" rms="4.0814685821533203e-01" purity="3.2352629303932190e-01" nType="-99"/>
      </Node>
    </BinaryTree>
    <BinaryTree type="DecisionTree" boostWeight="1.0000000000000000e+00" itree="574">
      <Node pos="s" depth="0" NCoef="0" IVar="6" Cut="4.8544201660156250e+02" cType="1" res="1.0150673799216747e-02" rms="4.5861032605171204e-01" purity="5.1743561029434204e-01" nType="0">
        <Node pos="l" depth="1" NCoef="0" IVar="5" Cut="6.9191032648086548e-01" cType="1" res="2.8972160071134567e-02" rms="4.6168982982635498e-01" purity="5.0960546731948853e-01" nType="0">
          <Node pos="l" depth="2" NCoef="0" IVar="-1" Cut="0.0000000000000000e+00" cType="1" res="1.0150388116016984e-03" rms="4.5679840445518494e-01" purity="5.1090538501739502e-01" nType="-99"/>
          <Node pos="r" depth="2" NCoef="0" IVar="-1" Cut="0.0000000000000000e+00" cType="1" res="-2.3276512511074543e-03" rms="4.8422497510910034e-01" purity="4.9778124690055847e-01" nType="-99"/>
        </Node>
        <Node pos="r" depth="1" NCoef="0" IVar="1" Cut="1.1597349548339844e+02" cType="1" res="-3.6896262317895889e-02" rms="4.4737046957015991e-01" purity="5.3700822591781616e-01" nType="0">
          <Node pos="l" depth="2" NCoef="0" IVar="-1" Cut="0.0000000000000000e+00" cType="1" res="-1.5958128497004509e-03" rms="4.6364960074424744e-01" purity="4.8495417833328247e-01" nType="-99"/>
          <Node pos="r" depth="2" NCoef="0" IVar="-1" Cut="0.0000000000000000e+00" cType="1" res="5.5142672499641776e-04" rms="4.0827885270118713e-01" purity="6.3627648353576660e-01" nType="-99"/>
        </Node>
      </Node>
    </BinaryTree>
    <BinaryTree type="DecisionTree" boostWeight="1.0000000000000000e+00" itree="575">
      <Node pos="s" depth="0" NCoef="0" IVar="1" Cut="9.9011940002441406e+01" cType="1" res="7.7124070376157761e-03" rms="4.5718672871589661e-01" purity="5.1829957962036133e-01" nType="0">
        <Node pos="l" depth="1" NCoef="0" IVar="5" Cut="6.1570280790328979e-01" cType="1" res="-1.5309557318687439e-02" rms="4.6003353595733643e-01" purity="4.7333958745002747e-01" nType="0">
          <Node pos="l" depth="2" NCoef="0" IVar="-1" Cut="0.0000000000000000e+00" cType="1" res="-7.7786581823602319e-04" rms="4.5503747463226318e-01" purity="4.4225329160690308e-01" nType="-99"/>
          <Node pos="r" depth="2" NCoef="0" IVar="-1" Cut="0.0000000000000000e+00" cType="1" res="2.3405812680721283e-03" rms="4.7266617417335510e-01" purity="6.6291576623916626e-01" nType="-99"/>
        </Node>
        <Node pos="r" depth="1" NCoef="0" IVar="1" Cut="1.4029013061523438e+02" cType="1" res="5.8689489960670471e-02" rms="4.4661575555801392e-01" purity="6.1785364151000977e-01" nType="0">
          <Node pos="l" depth="2" NCoef="0" IVar="-1" Cut="0.0000000000000000e+00" cType="1" res="2.3037779610604048e-03" rms="4.3472322821617126e-01" purity="6.6841965913772583e-01" nType="-99"/>
          <Node pos="r" depth="2" NCoef="0" IVar="-1" Cut="0.0000000000000000e+00" cType="1" res="-4.6326569281518459e-04" rms="4.6500718593597412e-01" purity="4.9382674694061279e-01" nType="-99"/>
        </Node>
      </Node>
    </BinaryTree>
    <BinaryTree type="DecisionTree" boostWeight="1.0000000000000000e+00" itree="576">
      <Node pos="s" depth="0" NCoef="0" IVar="1" Cut="6.6981330871582031e+01" cType="1" res="-5.0527690909802914e-03" rms="4.5642483234405518e-01" purity="5.0289893150329590e-01" nType="0">
        <Node pos="l" depth="1" NCoef="0" IVar="1" Cut="5.6482902526855469e+01" cType="1" res="4.1847482323646545e-02" rms="4.5689928531646729e-01" purity="5.0027585029602051e-01" nType="0">
          <Node pos="l" depth="2" NCoef="0" IVar="-1" Cut="0.0000000000000000e+00" cType="1" res="3.1111817224882543e-04" rms="4.5526030659675598e-01" purity="4.6864485740661621e-01" nType="-99"/>
          <Node pos="r" depth="2" NCoef="0" IVar="-1" Cut="0.0000000000000000e+00" cType="1" res="2.9708459042012691e-03" rms="4.5090764760971069e-01" purity="5.9897178411483765e-01" nType="-99"/>
        </Node>
        <Node pos="r" depth="1" NCoef="0" IVar="1" Cut="8.6220596313476562e+01" cType="1" res="-3.9176005870103836e-02" rms="4.5303815603256226e-01" purity="5.0480741262435913e-01" nType="0">
          <Node pos="l" depth="2" NCoef="0" IVar="-1" Cut="0.0000000000000000e+00" cType="1" res="-2.4528785143047571e-03" rms="4.4017067551612854e-01" purity="4.1009724140167236e-01" nType="-99"/>
          <Node pos="r" depth="2" NCoef="0" IVar="-1" Cut="0.0000000000000000e+00" cType="1" res="-2.8386109624989331e-04" rms="4.5550274848937988e-01" purity="5.4417210817337036e-01" nType="-99"/>
        </Node>
      </Node>
    </BinaryTree>
    <BinaryTree type="DecisionTree" boostWeight="1.0000000000000000e+00" itree="577">
      <Node pos="s" depth="0" NCoef="0" IVar="1" Cut="4.6557735443115234e+01" cType="1" res="1.8260844051837921e-02" rms="4.4508808851242065e-01" purity="5.2228802442550659e-01" nType="0">
        <Node pos="l" depth="1" NCoef="0" IVar="6" Cut="3.6862820434570312e+02" cType="1" res="-4.4209700077772141e-02" rms="4.4582343101501465e-01" purity="3.9298391342163086e-01" nType="0">
          <Node pos="l" depth="2" NCoef="0" IVar="-1" Cut="0.0000000000000000e+00" cType="1" res="-2.2301527205854654e-03" rms="4.1044014692306519e-01" purity="3.3010801672935486e-01" nType="-99"/>
          <Node pos="r" depth="2" NCoef="0" IVar="-1" Cut="0.0000000000000000e+00" cType="1" res="1.8513670656830072e-03" rms="4.9671015143394470e-01" purity="5.4035192728042603e-01" nType="-99"/>
        </Node>
        <Node pos="r" depth="1" NCoef="0" IVar="5" Cut="2.8704100847244263e-01" cType="1" res="3.3229589462280273e-02" rms="4.4360709190368652e-01" purity="5.5327099561691284e-01" nType="0">
          <Node pos="l" depth="2" NCoef="0" IVar="-1" Cut="0.0000000000000000e+00" cType="1" res="1.8740453524515033e-03" rms="4.4496098160743713e-01" purity="5.1424640417098999e-01" nType="-99"/>
          <Node pos="r" depth="2" NCoef="0" IVar="-1" Cut="0.0000000000000000e+00" cType="1" res="2.5139449280686677e-04" rms="4.4117885828018188e-01" purity="5.7215023040771484e-01" nType="-99"/>
        </Node>
      </Node>
    </BinaryTree>
    <BinaryTree type="DecisionTree" boostWeight="1.0000000000000000e+00" itree="578">
      <Node pos="s" depth="0" NCoef="0" IVar="5" Cut="5.5764627456665039e-01" cType="1" res="1.3446349650621414e-02" rms="4.5730802416801453e-01" purity="5.1351112127304077e-01" nType="0">
        <Node pos="l" depth="1" NCoef="0" IVar="5" Cut="4.3428134918212891e-01" cType="1" res="2.9076328501105309e-02" rms="4.5520508289337158e-01" purity="5.0848525762557983e-01" nType="0">
          <Node pos="l" depth="2" NCoef="0" IVar="-1" Cut="0.0000000000000000e+00" cType="1" res="1.6444432549178600e-04" rms="4.5361405611038208e-01" purity="4.6280509233474731e-01" nType="-99"/>
          <Node pos="r" depth="2" NCoef="0" IVar="-1" Cut="0.0000000000000000e+00" cType="1" res="2.2019583266228437e-03" rms="4.5370748639106750e-01" purity="6.4212787151336670e-01" nType="-99"/>
        </Node>
        <Node pos="r" depth="1" NCoef="0" IVar="4" Cut="4.7928886413574219e+01" cType="1" res="-4.9252912402153015e-02" rms="4.6034476161003113e-01" purity="5.3367233276367188e-01" nType="0">
          <Node pos="l" depth="2" NCoef="0" IVar="-1" Cut="0.0000000000000000e+00" cType="1" res="1.7375637544319034e-03" rms="4.0357303619384766e-01" purity="6.6472446918487549e-01" nType="-99"/>
          <Node pos="r" depth="2" NCoef="0" IVar="-1" Cut="0.0000000000000000e+00" cType="1" res="-2.8169739525765181e-03" rms="4.7651454806327820e-01" purity="4.5183584094047546e-01" nType="-99"/>
        </Node>
      </Node>
    </BinaryTree>
    <BinaryTree type="DecisionTree" boostWeight="1.0000000000000000e+00" itree="579">
      <Node pos="s" depth="0" NCoef="0" IVar="4" Cut="8.9567382812500000e+01" cType="1" res="6.1157275922596455e-03" rms="4.5773002505302429e-01" purity="5.0507128238677979e-01" nType="0">
        <Node pos="l" depth="1" NCoef="0" IVar="1" Cut="8.7780181884765625e+01" cType="1" res="2.9302140697836876e-02" rms="4.4755679368972778e-01" purity="5.2399659156799316e-01" nType="0">
          <Node pos="l" depth="2" NCoef="0" IVar="-1" Cut="0.0000000000000000e+00" cType="1" res="5.1779647037619725e-05" rms="4.4764849543571472e-01" purity="4.7420567274093628e-01" nType="-99"/>
          <Node pos="r" depth="2" NCoef="0" IVar="-1" Cut="0.0000000000000000e+00" cType="1" res="2.2211999166756868e-03" rms="4.4139215350151062e-01" purity="6.3558864593505859e-01" nType="-99"/>
        </Node>
        <Node pos="r" depth="1" NCoef="0" IVar="4" Cut="3.1404043579101562e+02" cType="1" res="-1.4271868392825127e-02" rms="4.6553885936737061e-01" purity="4.8843044042587280e-01" nType="0">
          <Node pos="l" depth="2" NCoef="0" IVar="-1" Cut="0.0000000000000000e+00" cType="1" res="-6.9213943788781762e-04" rms="4.6664685010910034e-01" purity="4.8339030146598816e-01" nType="-99"/>
          <Node pos="r" depth="2" NCoef="0" IVar="-1" Cut="0.0000000000000000e+00" cType="1" res="1.6672891797497869e-03" rms="4.5028558373451233e-01" purity="5.1438415050506592e-01" nType="-99"/>
        </Node>
      </Node>
    </BinaryTree>
    <BinaryTree type="DecisionTree" boostWeight="1.0000000000000000e+00" itree="580">
      <Node pos="s" depth="0" NCoef="0" IVar="2" Cut="1.0856956243515015e+00" cType="1" res="1.9017277285456657e-02" rms="4.4675925374031067e-01" purity="5.2704685926437378e-01" nType="0">
        <Node pos="l" depth="1" NCoef="0" IVar="6" Cut="6.5268072509765625e+02" cType="1" res="3.9222668856382370e-02" rms="4.4547811150550842e-01" purity="6.5341567993164062e-01" nType="0">
          <Node pos="l" depth="2" NCoef="0" IVar="-1" Cut="0.0000000000000000e+00" cType="1" res="5.6962278904393315e-04" rms="4.5069330930709839e-01" purity="6.3416433334350586e-01" nType="-99"/>
          <Node pos="r" depth="2" NCoef="0" IVar="-1" Cut="0.0000000000000000e+00" cType="1" res="4.1465684771537781e-03" rms="3.7513348460197449e-01" purity="8.1857866048812866e-01" nType="-99"/>
        </Node>
        <Node pos="r" depth="1" NCoef="0" IVar="5" Cut="2.0863012969493866e-01" cType="1" res="-1.1028062552213669e-02" rms="4.4697180390357971e-01" purity="3.3913692831993103e-01" nType="0">
          <Node pos="l" depth="2" NCoef="0" IVar="-1" Cut="0.0000000000000000e+00" cType="1" res="1.7094200011342764e-03" rms="4.6165931224822998e-01" purity="3.5899373888969421e-01" nType="-99"/>
          <Node pos="r" depth="2" NCoef="0" IVar="-1" Cut="0.0000000000000000e+00" cType="1" res="-9.5640594372525811e-04" rms="4.3766474723815918e-01" purity="3.3171135187149048e-01" nType="-99"/>
        </Node>
      </Node>
    </BinaryTree>
    <BinaryTree type="DecisionTree" boostWeight="1.0000000000000000e+00" itree="581">
      <Node pos="s" depth="0" NCoef="0" IVar="3" Cut="2.3234853744506836e+00" cType="1" res="-1.9375462085008621e-02" rms="4.5306339859962463e-01" purity="4.7765505313873291e-01" nType="0">
        <Node pos="l" depth="1" NCoef="0" IVar="3" Cut="2.2270927429199219e+00" cType="1" res="-4.0101110935211182e-02" rms="4.6302664279937744e-01" purity="5.2783751487731934e-01" nType="0">
          <Node pos="l" depth="2" NCoef="0" IVar="-1" Cut="0.0000000000000000e+00" cType="1" res="-3.3516736584715545e-04" rms="4.6441727876663208e-01" purity="5.6542539596557617e-01" nType="-99"/>
          <Node pos="r" depth="2" NCoef="0" IVar="-1" Cut="0.0000000000000000e+00" cType="1" res="-3.7764301523566246e-03" rms="4.3084257841110229e-01" purity="3.2835689187049866e-01" nType="-99"/>
        </Node>
        <Node pos="r" depth="1" NCoef="0" IVar="0" Cut="6.1410760879516602e+00" cType="1" res="2.5237340480089188e-02" rms="4.2743983864784241e-01" purity="3.6963522434234619e-01" nType="0">
          <Node pos="l" depth="2" NCoef="0" IVar="-1" Cut="0.0000000000000000e+00" cType="1" res="-1.3544311514124274e-03" rms="3.6208671331405640e-01" purity="1.6744162142276764e-01" nType="-99"/>
          <Node pos="r" depth="2" NCoef="0" IVar="-1" Cut="0.0000000000000000e+00" cType="1" res="1.7909937305375934e-03" rms="4.5896837115287781e-01" purity="5.0407505035400391e-01" nType="-99"/>
        </Node>
      </Node>
    </BinaryTree>
    <BinaryTree type="DecisionTree" boostWeight="1.0000000000000000e+00" itree="582">
      <Node pos="s" depth="0" NCoef="0" IVar="5" Cut="4.1588133573532104e-01" cType="1" res="2.3979362100362778e-02" rms="4.4955527782440186e-01" purity="5.1958620548248291e-01" nType="0">
        <Node pos="l" depth="1" NCoef="0" IVar="6" Cut="3.2050439453125000e+02" cType="1" res="-1.3150593265891075e-02" rms="4.5725744962692261e-01" purity="4.2924803495407104e-01" nType="0">
          <Node pos="l" depth="2" NCoef="0" IVar="-1" Cut="0.0000000000000000e+00" cType="1" res="-2.5837062858045101e-03" rms="4.0719321370124817e-01" purity="2.1431006491184235e-01" nType="-99"/>
          <Node pos="r" depth="2" NCoef="0" IVar="-1" Cut="0.0000000000000000e+00" cType="1" res="1.8394218932371587e-04" rms="4.6483695507049561e-01" purity="4.7635632753372192e-01" nType="-99"/>
        </Node>
        <Node pos="r" depth="1" NCoef="0" IVar="1" Cut="8.2924049377441406e+01" cType="1" res="6.6521629691123962e-02" rms="4.3670120835304260e-01" purity="6.2309271097183228e-01" nType="0">
          <Node pos="l" depth="2" NCoef="0" IVar="-1" Cut="0.0000000000000000e+00" cType="1" res="7.3960761073976755e-04" rms="4.4877287745475769e-01" purity="5.6293404102325439e-01" nType="-99"/>
          <Node pos="r" depth="2" NCoef="0" IVar="-1" Cut="0.0000000000000000e+00" cType="1" res="3.1913376878947020e-03" rms="4.0782675147056580e-01" purity="7.2920519113540649e-01" nType="-99"/>
        </Node>
      </Node>
    </BinaryTree>
    <BinaryTree type="DecisionTree" boostWeight="1.0000000000000000e+00" itree="583">
      <Node pos="s" depth="0" NCoef="0" IVar="1" Cut="1.0225099945068359e+02" cType="1" res="-3.1465070787817240e-03" rms="4.4206619262695312e-01" purity="4.8799210786819458e-01" nType="0">
        <Node pos="l" depth="1" NCoef="0" IVar="5" Cut="4.1425925493240356e-01" cType="1" res="-2.5520622730255127e-02" rms="4.4099456071853638e-01" purity="4.4884234666824341e-01" nType="0">
          <Node pos="l" depth="2" NCoef="0" IVar="-1" Cut="0.0000000000000000e+00" cType="1" res="-1.3175876811146736e-03" rms="4.3158113956451416e-01" purity="3.6126899719238281e-01" nType="-99"/>
          <Node pos="r" depth="2" NCoef="0" IVar="-1" Cut="0.0000000000000000e+00" cType="1" res="2.7359140221960843e-04" rms="4.4849181175231934e-01" purity="5.4833376407623291e-01" nType="-99"/>
        </Node>
        <Node pos="r" depth="1" NCoef="0" IVar="1" Cut="1.4369396972656250e+02" cType="1" res="5.2951730787754059e-02" rms="4.3976482748985291e-01" purity="5.8615159988403320e-01" nType="0">
          <Node pos="l" depth="2" NCoef="0" IVar="-1" Cut="0.0000000000000000e+00" cType="1" res="2.0800600759685040e-03" rms="4.3004649877548218e-01" purity="6.2533611059188843e-01" nType="-99"/>
          <Node pos="r" depth="2" NCoef="0" IVar="-1" Cut="0.0000000000000000e+00" cType="1" res="-1.3477554311975837e-03" rms="4.5526674389839172e-01" purity="4.4790819287300110e-01" nType="-99"/>
        </Node>
      </Node>
    </BinaryTree>
    <BinaryTree type="DecisionTree" boostWeight="1.0000000000000000e+00" itree="584">
      <Node pos="s" depth="0" NCoef="0" IVar="0" Cut="6.2061944007873535e+00" cType="1" res="-2.2651189938187599e-03" rms="4.4687736034393311e-01" purity="4.9315002560615540e-01" nType="0">
        <Node pos="l" depth="1" NCoef="0" IVar="6" Cut="5.1562524414062500e+02" cType="1" res="-5.5003620684146881e-02" rms="4.3360334634780884e-01" purity="2.8794226050376892e-01" nType="0">
          <Node pos="l" depth="2" NCoef="0" IVar="-1" Cut="0.0000000000000000e+00" cType="1" res="-5.1637453725561500e-04" rms="4.3960332870483398e-01" purity="2.9630094766616821e-01" nType="-99"/>
          <Node pos="r" depth="2" NCoef="0" IVar="-1" Cut="0.0000000000000000e+00" cType="1" res="-2.8955447487533092e-03" rms="4.0421766042709351e-01" purity="2.6515355706214905e-01" nType="-99"/>
        </Node>
        <Node pos="r" depth="1" NCoef="0" IVar="0" Cut="9.0346889495849609e+00" cType="1" res="2.7413167059421539e-02" rms="4.5147588849067688e-01" purity="6.0862940549850464e-01" nType="0">
          <Node pos="l" depth="2" NCoef="0" IVar="-1" Cut="0.0000000000000000e+00" cType="1" res="9.4976805849000812e-04" rms="4.4985616207122803e-01" purity="5.9988665580749512e-01" nType="-99"/>
          <Node pos="r" depth="2" NCoef="0" IVar="-1" Cut="0.0000000000000000e+00" cType="1" res="-2.0200100261718035e-03" rms="4.5103132724761963e-01" purity="6.7202413082122803e-01" nType="-99"/>
        </Node>
      </Node>
    </BinaryTree>
    <BinaryTree type="DecisionTree" boostWeight="1.0000000000000000e+00" itree="585">
      <Node pos="s" depth="0" NCoef="0" IVar="4" Cut="3.0719528198242188e+02" cType="1" res="2.6181984692811966e-02" rms="4.5719268918037415e-01" purity="5.2638047933578491e-01" nType="0">
        <Node pos="l" depth="1" NCoef="0" IVar="1" Cut="3.9913253784179688e+01" cType="1" res="3.7616405636072159e-02" rms="4.5672225952148438e-01" purity="5.4634290933609009e-01" nType="0">
          <Node pos="l" depth="2" NCoef="0" IVar="-1" Cut="0.0000000000000000e+00" cType="1" res="-1.7681166063994169e-03" rms="4.1243442893028259e-01" purity="3.0197265744209290e-01" nType="-99"/>
          <Node pos="r" depth="2" NCoef="0" IVar="-1" Cut="0.0000000000000000e+00" cType="1" res="1.2247842969372869e-03" rms="4.5999947190284729e-01" purity="5.7803744077682495e-01" nType="-99"/>
        </Node>
        <Node pos="r" depth="1" NCoef="0" IVar="-1" Cut="0.0000000000000000e+00" cType="1" res="-1.7568616895005107e-03" rms="4.4888263940811157e-01" purity="3.5033750534057617e-01" nType="-99"/>
      </Node>
    </BinaryTree>
    <BinaryTree type="DecisionTree" boostWeight="1.0000000000000000e+00" itree="586">
      <Node pos="s" depth="0" NCoef="0" IVar="0" Cut="7.1029362678527832e+00" cType="1" res="-1.2447439134120941e-02" rms="4.5488262176513672e-01" purity="4.7993391752243042e-01" nType="0">
        <Node pos="l" depth="1" NCoef="0" IVar="6" Cut="5.1530291748046875e+02" cType="1" res="1.2233532033860683e-02" rms="4.5573395490646362e-01" purity="4.0015122294425964e-01" nType="0">
          <Node pos="l" depth="2" NCoef="0" IVar="-1" Cut="0.0000000000000000e+00" cType="1" res="-1.2459661229513586e-04" rms="4.5838963985443115e-01" purity="3.5801535844802856e-01" nType="-99"/>
          <Node pos="r" depth="2" NCoef="0" IVar="-1" Cut="0.0000000000000000e+00" cType="1" res="1.6088450793176889e-03" rms="4.4050812721252441e-01" purity="5.4928171634674072e-01" nType="-99"/>
        </Node>
        <Node pos="r" depth="1" NCoef="0" IVar="1" Cut="4.5798145294189453e+01" cType="1" res="-4.9380667507648468e-02" rms="4.5109033584594727e-01" purity="5.9932273626327515e-01" nType="0">
          <Node pos="l" depth="2" NCoef="0" IVar="-1" Cut="0.0000000000000000e+00" cType="1" res="-3.4818560816347599e-03" rms="4.6990767121315002e-01" purity="4.3724277615547180e-01" nType="-99"/>
          <Node pos="r" depth="2" NCoef="0" IVar="-1" Cut="0.0000000000000000e+00" cType="1" res="-7.4024568311870098e-04" rms="4.4445487856864929e-01" purity="6.3314914703369141e-01" nType="-99"/>
        </Node>
      </Node>
    </BinaryTree>
    <BinaryTree type="DecisionTree" boostWeight="1.0000000000000000e+00" itree="587">
      <Node pos="s" depth="0" NCoef="0" IVar="1" Cut="6.9398284912109375e+01" cType="1" res="-1.8296230584383011e-02" rms="4.5077660679817200e-01" purity="4.8634797334671021e-01" nType="0">
        <Node pos="l" depth="1" NCoef="0" IVar="1" Cut="3.8521598815917969e+01" cType="1" res="3.3335633575916290e-02" rms="4.5142152905464172e-01" purity="5.0354492664337158e-01" nType="0">
          <Node pos="l" depth="2" NCoef="0" IVar="-1" Cut="0.0000000000000000e+00" cType="1" res="-7.2431837907060981e-04" rms="4.4719877839088440e-01" purity="3.7534016370773315e-01" nType="-99"/>
          <Node pos="r" depth="2" NCoef="0" IVar="-1" Cut="0.0000000000000000e+00" cType="1" res="1.2032287195324898e-03" rms="4.5089831948280334e-01" purity="5.4173934459686279e-01" nType="-99"/>
        </Node>
        <Node pos="r" depth="1" NCoef="0" IVar="4" Cut="9.7531005859375000e+01" cType="1" res="-5.7497493922710419e-02" rms="4.4631490111351013e-01" purity="4.7329130768775940e-01" nType="0">
          <Node pos="l" depth="2" NCoef="0" IVar="-1" Cut="0.0000000000000000e+00" cType="1" res="-2.1489164792001247e-03" rms="4.3109887838363647e-01" purity="4.3439635634422302e-01" nType="-99"/>
          <Node pos="r" depth="2" NCoef="0" IVar="-1" Cut="0.0000000000000000e+00" cType="1" res="-7.8677095007151365e-04" rms="4.5536419749259949e-01" purity="5.0123327970504761e-01" nType="-99"/>
        </Node>
      </Node>
    </BinaryTree>
    <BinaryTree type="DecisionTree" boostWeight="1.0000000000000000e+00" itree="588">
      <Node pos="s" depth="0" NCoef="0" IVar="1" Cut="5.0813877105712891e+01" cType="1" res="1.0677158832550049e-02" rms="4.4631865620613098e-01" purity="5.1255005598068237e-01" nType="0">
        <Node pos="l" depth="1" NCoef="0" IVar="0" Cut="7.9443325996398926e+00" cType="1" res="-5.3744699805974960e-02" rms="4.5124483108520508e-01" purity="3.9122200012207031e-01" nType="0">
          <Node pos="l" depth="2" NCoef="0" IVar="-1" Cut="0.0000000000000000e+00" cType="1" res="-2.4481319996993989e-05" rms="4.3735244870185852e-01" purity="3.9657935500144958e-01" nType="-99"/>
          <Node pos="r" depth="2" NCoef="0" IVar="-1" Cut="0.0000000000000000e+00" cType="1" res="-5.2011739462614059e-03" rms="4.5327159762382507e-01" purity="3.7379685044288635e-01" nType="-99"/>
        </Node>
        <Node pos="r" depth="1" NCoef="0" IVar="3" Cut="2.4861254692077637e+00" cType="1" res="2.9375365003943443e-02" rms="4.4312843680381775e-01" purity="5.4776507616043091e-01" nType="0">
          <Node pos="l" depth="2" NCoef="0" IVar="-1" Cut="0.0000000000000000e+00" cType="1" res="1.0450850240886211e-03" rms="4.5254099369049072e-01" purity="6.1955386400222778e-01" nType="-99"/>
          <Node pos="r" depth="2" NCoef="0" IVar="-1" Cut="0.0000000000000000e+00" cType="1" res="-9.6607429441064596e-04" rms="3.9221614599227905e-01" purity="2.3269867897033691e-01" nType="-99"/>
        </Node>
      </Node>
    </BinaryTree>
    <BinaryTree type="DecisionTree" boostWeight="1.0000000000000000e+00" itree="589">
      <Node pos="s" depth="0" NCoef="0" IVar="1" Cut="9.6819702148437500e+01" cType="1" res="6.4561874605715275e-03" rms="4.5337548851966858e-01" purity="5.0689131021499634e-01" nType="0">
        <Node pos="l" depth="1" NCoef="0" IVar="5" Cut="6.4353370666503906e-01" cType="1" res="-1.3290643692016602e-02" rms="4.5594424009323120e-01" purity="4.6711969375610352e-01" nType="0">
          <Node pos="l" depth="2" NCoef="0" IVar="-1" Cut="0.0000000000000000e+00" cType="1" res="-5.9075973695144057e-04" rms="4.5677244663238525e-01" purity="4.4057989120483398e-01" nType="-99"/>
          <Node pos="r" depth="2" NCoef="0" IVar="-1" Cut="0.0000000000000000e+00" cType="1" res="1.5358224045485258e-03" rms="4.4213363528251648e-01" purity="6.3512670993804932e-01" nType="-99"/>
        </Node>
        <Node pos="r" depth="1" NCoef="0" IVar="1" Cut="1.1667034912109375e+02" cType="1" res="4.7438528388738632e-02" rms="4.4521096348762512e-01" purity="5.8943301439285278e-01" nType="0">
          <Node pos="l" depth="2" NCoef="0" IVar="-1" Cut="0.0000000000000000e+00" cType="1" res="2.3202579468488693e-03" rms="4.5375934243202209e-01" purity="6.6334921121597290e-01" nType="-99"/>
          <Node pos="r" depth="2" NCoef="0" IVar="-1" Cut="0.0000000000000000e+00" cType="1" res="3.1765381572768092e-04" rms="4.3542483448982239e-01" purity="5.3319466114044189e-01" nType="-99"/>
        </Node>
      </Node>
    </BinaryTree>
    <BinaryTree type="DecisionTree" boostWeight="1.0000000000000000e+00" itree="590">
      <Node pos="s" depth="0" NCoef="0" IVar="5" Cut="5.0757634639739990e-01" cType="1" res="1.5852805227041245e-03" rms="4.4835415482521057e-01" purity="4.9669772386550903e-01" nType="0">
        <Node pos="l" depth="1" NCoef="0" IVar="0" Cut="7.2878036499023438e+00" cType="1" res="2.1825106814503670e-02" rms="4.4998309016227722e-01" purity="4.8672771453857422e-01" nType="0">
          <Node pos="l" depth="2" NCoef="0" IVar="-1" Cut="0.0000000000000000e+00" cType="1" res="1.1570849455893040e-03" rms="4.4706234335899353e-01" purity="4.2944300174713135e-01" nType="-99"/>
          <Node pos="r" depth="2" NCoef="0" IVar="-1" Cut="0.0000000000000000e+00" cType="1" res="-8.0785091267898679e-04" rms="4.5053014159202576e-01" purity="5.9682655334472656e-01" nType="-99"/>
        </Node>
        <Node pos="r" depth="1" NCoef="0" IVar="5" Cut="6.9732397794723511e-01" cType="1" res="-4.9293871968984604e-02" rms="4.4014132022857666e-01" purity="5.2176058292388916e-01" nType="0">
          <Node pos="l" depth="2" NCoef="0" IVar="-1" Cut="0.0000000000000000e+00" cType="1" res="-2.1372246555984020e-03" rms="4.3969157338142395e-01" purity="4.7406402230262756e-01" nType="-99"/>
          <Node pos="r" depth="2" NCoef="0" IVar="-1" Cut="0.0000000000000000e+00" cType="1" res="3.0517706181854010e-03" rms="3.9152979850769043e-01" purity="7.2489547729492188e-01" nType="-99"/>
        </Node>
      </Node>
    </BinaryTree>
    <BinaryTree type="DecisionTree" boostWeight="1.0000000000000000e+00" itree="591">
      <Node pos="s" depth="0" NCoef="0" IVar="3" Cut="2.6912596225738525e+00" cType="1" res="-9.8441857844591141e-03" rms="4.5190846920013428e-01" purity="4.8021465539932251e-01" nType="0">
        <Node pos="l" depth="1" NCoef="0" IVar="1" Cut="8.2801834106445312e+01" cType="1" res="1.0847710072994232e-03" rms="4.6113324165344238e-01" purity="5.0917476415634155e-01" nType="0">
          <Node pos="l" depth="2" NCoef="0" IVar="-1" Cut="0.0000000000000000e+00" cType="1" res="-4.9854855751618743e-04" rms="4.5955553650856018e-01" purity="4.5051985979080200e-01" nType="-99"/>
          <Node pos="r" depth="2" NCoef="0" IVar="-1" Cut="0.0000000000000000e+00" cType="1" res="8.9154479792341590e-04" rms="4.6116361021995544e-01" purity="6.0193407535552979e-01" nType="-99"/>
        </Node>
        <Node pos="r" depth="1" NCoef="0" IVar="-1" Cut="0.0000000000000000e+00" cType="1" res="-4.4215889647603035e-03" rms="2.4677482247352600e-01" purity="7.3983334004878998e-02" nType="-99"/>
      </Node>
    </BinaryTree>
    <BinaryTree type="DecisionTree" boostWeight="1.0000000000000000e+00" itree="592">
      <Node pos="s" depth="0" NCoef="0" IVar="3" Cut="1.7154386043548584e+00" cType="1" res="-7.8361609485000372e-04" rms="4.5292228460311890e-01" purity="4.9059042334556580e-01" nType="0">
        <Node pos="l" depth="1" NCoef="0" IVar="-1" Cut="0.0000000000000000e+00" cType="1" res="-2.1732000168412924e-03" rms="4.1681233048439026e-01" purity="4.1469147801399231e-01" nType="-99"/>
        <Node pos="r" depth="1" NCoef="0" IVar="4" Cut="3.3337936401367188e+02" cType="1" res="6.2290164642035961e-03" rms="4.5434877276420593e-01" purity="4.9562767148017883e-01" nType="0">
          <Node pos="l" depth="2" NCoef="0" IVar="-1" Cut="0.0000000000000000e+00" cType="1" res="3.1309088808484375e-04" rms="4.5770129561424255e-01" purity="5.0853914022445679e-01" nType="-99"/>
          <Node pos="r" depth="2" NCoef="0" IVar="-1" Cut="0.0000000000000000e+00" cType="1" res="-1.8749107839539647e-03" rms="3.9979845285415649e-01" purity="3.3525055646896362e-01" nType="-99"/>
        </Node>
      </Node>
    </BinaryTree>
    <BinaryTree type="DecisionTree" boostWeight="1.0000000000000000e+00" itree="593">
      <Node pos="s" depth="0" NCoef="0" IVar="3" Cut="1.8171865940093994e+00" cType="1" res="-1.5536202117800713e-02" rms="4.5828628540039062e-01" purity="4.8169603943824768e-01" nType="0">
        <Node pos="l" depth="1" NCoef="0" IVar="6" Cut="3.8778356933593750e+02" cType="1" res="-1.3655540347099304e-01" rms="4.4421249628067017e-01" purity="3.8948401808738708e-01" nType="0">
          <Node pos="l" depth="2" NCoef="0" IVar="-1" Cut="0.0000000000000000e+00" cType="1" res="-2.2639350499957800e-03" rms="4.5528432726860046e-01" purity="3.6298450827598572e-01" nType="-99"/>
          <Node pos="r" depth="2" NCoef="0" IVar="-1" Cut="0.0000000000000000e+00" cType="1" res="-3.7465333007276058e-03" rms="4.3107604980468750e-01" purity="4.1608712077140808e-01" nType="-99"/>
        </Node>
        <Node pos="r" depth="1" NCoef="0" IVar="5" Cut="5.6462520360946655e-01" cType="1" res="-3.4775483072735369e-04" rms="4.5776811242103577e-01" purity="4.9326905608177185e-01" nType="0">
          <Node pos="l" depth="2" NCoef="0" IVar="-1" Cut="0.0000000000000000e+00" cType="1" res="4.3203757377341390e-04" rms="4.5522448420524597e-01" purity="4.8597937822341919e-01" nType="-99"/>
          <Node pos="r" depth="2" NCoef="0" IVar="-1" Cut="0.0000000000000000e+00" cType="1" res="-1.4506609877571464e-03" rms="4.6076342463493347e-01" purity="5.1769179105758667e-01" nType="-99"/>
        </Node>
      </Node>
    </BinaryTree>
    <BinaryTree type="DecisionTree" boostWeight="1.0000000000000000e+00" itree="594">
      <Node pos="s" depth="0" NCoef="0" IVar="0" Cut="5.6737036705017090e+00" cType="1" res="-8.3920722827315331e-03" rms="4.3905812501907349e-01" purity="4.9234691262245178e-01" nType="0">
        <Node pos="l" depth="1" NCoef="0" IVar="2" Cut="1.1276135444641113e+00" cType="1" res="-6.8936884403228760e-02" rms="4.0762680768966675e-01" purity="2.2753195464611053e-01" nType="0">
          <Node pos="l" depth="2" NCoef="0" IVar="-1" Cut="0.0000000000000000e+00" cType="1" res="-2.3468034341931343e-03" rms="4.2420586943626404e-01" purity="2.4929809570312500e-01" nType="-99"/>
          <Node pos="r" depth="2" NCoef="0" IVar="-1" Cut="0.0000000000000000e+00" cType="1" res="2.7414926444180310e-04" rms="3.6821964383125305e-01" purity="1.9529503583908081e-01" nType="-99"/>
        </Node>
        <Node pos="r" depth="1" NCoef="0" IVar="1" Cut="4.2702651977539062e+01" cType="1" res="7.2406008839607239e-03" rms="4.4548007845878601e-01" purity="5.6072211265563965e-01" nType="0">
          <Node pos="l" depth="2" NCoef="0" IVar="-1" Cut="0.0000000000000000e+00" cType="1" res="-2.1190559491515160e-03" rms="4.7862374782562256e-01" purity="3.8483670353889465e-01" nType="-99"/>
          <Node pos="r" depth="2" NCoef="0" IVar="-1" Cut="0.0000000000000000e+00" cType="1" res="5.3917337208986282e-04" rms="4.3811520934104919e-01" purity="5.8767539262771606e-01" nType="-99"/>
        </Node>
      </Node>
    </BinaryTree>
    <BinaryTree type="DecisionTree" boostWeight="1.0000000000000000e+00" itree="595">
      <Node pos="s" depth="0" NCoef="0" IVar="3" Cut="2.6368792057037354e+00" cType="1" res="4.4995197094976902e-04" rms="4.4275990128517151e-01" purity="5.0389069318771362e-01" nType="0">
        <Node pos="l" depth="1" NCoef="0" IVar="1" Cut="1.0179366302490234e+02" cType="1" res="1.1281113140285015e-02" rms="4.5403811335563660e-01" purity="5.4387587308883667e-01" nType="0">
          <Node pos="l" depth="2" NCoef="0" IVar="-1" Cut="0.0000000000000000e+00" cType="1" res="-4.2204625060549006e-05" rms="4.6084120869636536e-01" purity="5.0152134895324707e-01" nType="-99"/>
          <Node pos="r" depth="2" NCoef="0" IVar="-1" Cut="0.0000000000000000e+00" cType="1" res="1.2869606725871563e-03" rms="4.3054947257041931e-01" purity="6.7112189531326294e-01" nType="-99"/>
        </Node>
        <Node pos="r" depth="1" NCoef="0" IVar="-1" Cut="0.0000000000000000e+00" cType="1" res="-2.8203336987644434e-03" rms="3.0002304911613464e-01" purity="1.2970381975173950e-01" nType="-99"/>
      </Node>
    </BinaryTree>
    <BinaryTree type="DecisionTree" boostWeight="1.0000000000000000e+00" itree="596">
      <Node pos="s" depth="0" NCoef="0" IVar="5" Cut="5.9279078245162964e-01" cType="1" res="5.4719415493309498e-03" rms="4.5096898078918457e-01" purity="5.0754946470260620e-01" nType="0">
        <Node pos="l" depth="1" NCoef="0" IVar="0" Cut="8.2691345214843750e+00" cType="1" res="-1.2455720454454422e-02" rms="4.5317190885543823e-01" purity="4.6981850266456604e-01" nType="0">
          <Node pos="l" depth="2" NCoef="0" IVar="-1" Cut="0.0000000000000000e+00" cType="1" res="-5.8179193729301915e-05" rms="4.5462599396705627e-01" purity="4.3759870529174805e-01" nType="-99"/>
          <Node pos="r" depth="2" NCoef="0" IVar="-1" Cut="0.0000000000000000e+00" cType="1" res="-1.7174354288727045e-03" rms="4.4181969761848450e-01" purity="6.3934397697448730e-01" nType="-99"/>
        </Node>
        <Node pos="r" depth="1" NCoef="0" IVar="2" Cut="9.8457646369934082e-01" cType="1" res="8.5006028413772583e-02" rms="4.3218672275543213e-01" purity="6.7493867874145508e-01" nType="0">
          <Node pos="l" depth="2" NCoef="0" IVar="-1" Cut="0.0000000000000000e+00" cType="1" res="9.5971266273409128e-04" rms="4.3257939815521240e-01" purity="6.6668987274169922e-01" nType="-99"/>
          <Node pos="r" depth="2" NCoef="0" IVar="-1" Cut="0.0000000000000000e+00" cType="1" res="4.7913012094795704e-03" rms="4.0671375393867493e-01" purity="6.9734263420104980e-01" nType="-99"/>
        </Node>
      </Node>
    </BinaryTree>
    <BinaryTree type="DecisionTree" boostWeight="1.0000000000000000e+00" itree="597">
      <Node pos="s" depth="0" NCoef="0" IVar="6" Cut="4.0193704223632812e+02" cType="1" res="1.3687364757061005e-02" rms="4.4617295265197754e-01" purity="5.0615394115447998e-01" nType="0">
        <Node pos="l" depth="1" NCoef="0" IVar="5" Cut="6.8650799989700317e-01" cType="1" res="-1.8691999837756157e-02" rms="4.4134297966957092e-01" purity="4.2454391717910767e-01" nType="0">
          <Node pos="l" depth="2" NCoef="0" IVar="-1" Cut="0.0000000000000000e+00" cType="1" res="-7.8859907807782292e-04" rms="4.4190657138824463e-01" purity="3.9434510469436646e-01" nType="-99"/>
          <Node pos="r" depth="2" NCoef="0" IVar="-1" Cut="0.0000000000000000e+00" cType="1" res="2.5198985822498798e-03" rms="4.1610047221183777e-01" purity="6.6641390323638916e-01" nType="-99"/>
        </Node>
        <Node pos="r" depth="1" NCoef="0" IVar="4" Cut="3.3539477539062500e+02" cType="1" res="4.6224191784858704e-02" rms="4.4862639904022217e-01" purity="5.8816081285476685e-01" nType="0">
          <Node pos="l" depth="2" NCoef="0" IVar="-1" Cut="0.0000000000000000e+00" cType="1" res="7.6902605360373855e-04" rms="4.4986245036125183e-01" purity="5.8708578348159790e-01" nType="-99"/>
          <Node pos="r" depth="2" NCoef="0" IVar="-1" Cut="0.0000000000000000e+00" cType="1" res="4.0625804103910923e-03" rms="4.2135727405548096e-01" purity="5.9708243608474731e-01" nType="-99"/>
        </Node>
      </Node>
    </BinaryTree>
    <BinaryTree type="DecisionTree" boostWeight="1.0000000000000000e+00" itree="598">
      <Node pos="s" depth="0" NCoef="0" IVar="1" Cut="1.0143782043457031e+02" cType="1" res="-7.1626459248363972e-03" rms="4.5182314515113831e-01" purity="5.0324654579162598e-01" nType="0">
        <Node pos="l" depth="1" NCoef="0" IVar="4" Cut="8.6006790161132812e+01" cType="1" res="-2.9077507555484772e-02" rms="4.5757991075515747e-01" purity="4.5901384949684143e-01" nType="0">
          <Node pos="l" depth="2" NCoef="0" IVar="-1" Cut="0.0000000000000000e+00" cType="1" res="-1.4422634849324822e-03" rms="4.4297608733177185e-01" purity="4.3498978018760681e-01" nType="-99"/>
          <Node pos="r" depth="2" NCoef="0" IVar="-1" Cut="0.0000000000000000e+00" cType="1" res="1.0254771041218191e-04" rms="4.6849560737609863e-01" purity="4.8170924186706543e-01" nType="-99"/>
        </Node>
        <Node pos="r" depth="1" NCoef="0" IVar="1" Cut="1.1541845703125000e+02" cType="1" res="5.1708426326513290e-02" rms="4.3049338459968567e-01" purity="6.2207132577896118e-01" nType="0">
          <Node pos="l" depth="2" NCoef="0" IVar="-1" Cut="0.0000000000000000e+00" cType="1" res="3.6262697540223598e-03" rms="4.1550377011299133e-01" purity="7.2899049520492554e-01" nType="-99"/>
          <Node pos="r" depth="2" NCoef="0" IVar="-1" Cut="0.0000000000000000e+00" cType="1" res="-4.9442427553003654e-05" rms="4.2993327975273132e-01" purity="5.5992782115936279e-01" nType="-99"/>
        </Node>
      </Node>
    </BinaryTree>
    <BinaryTree type="DecisionTree" boostWeight="1.0000000000000000e+00" itree="599">
      <Node pos="s" depth="0" NCoef="0" IVar="0" Cut="7.8971567153930664e+00" cType="1" res="-6.7647420801222324e-03" rms="4.4220307469367981e-01" purity="4.8701316118240356e-01" nType="0">
        <Node pos="l" depth="1" NCoef="0" IVar="2" Cut="5.5514532327651978e-01" cType="1" res="-2.6833726093173027e-02" rms="4.4507580995559692e-01" purity="4.0593433380126953e-01" nType="0">
          <Node pos="l" depth="2" NCoef="0" IVar="-1" Cut="0.0000000000000000e+00" cType="1" res="1.6826678765937686e-03" rms="4.2194372415542603e-01" purity="6.8180221319198608e-01" nType="-99"/>
          <Node pos="r" depth="2" NCoef="0" IVar="-1" Cut="0.0000000000000000e+00" cType="1" res="-9.3403778737410903e-04" rms="4.4642642140388489e-01" purity="3.6717170476913452e-01" nType="-99"/>
        </Node>
        <Node pos="r" depth="1" NCoef="0" IVar="5" Cut="3.0784812569618225e-01" cType="1" res="5.4966427385807037e-02" rms="4.2738002538681030e-01" purity="7.3640757799148560e-01" nType="0">
          <Node pos="l" depth="2" NCoef="0" IVar="-1" Cut="0.0000000000000000e+00" cType="1" res="3.0688005499541759e-03" rms="4.1765174269676208e-01" purity="7.5034505128860474e-01" nType="-99"/>
          <Node pos="r" depth="2" NCoef="0" IVar="-1" Cut="0.0000000000000000e+00" cType="1" res="3.9728739648126066e-04" rms="4.2771217226982117e-01" purity="7.2835206985473633e-01" nType="-99"/>
        </Node>
      </Node>
    </BinaryTree>
    <BinaryTree type="DecisionTree" boostWeight="1.0000000000000000e+00" itree="600">
      <Node pos="s" depth="0" NCoef="0" IVar="4" Cut="1.6899273681640625e+02" cType="1" res="-1.7368922010064125e-02" rms="4.4978505373001099e-01" purity="4.7744676470756531e-01" nType="0">
        <Node pos="l" depth="1" NCoef="0" IVar="4" Cut="2.4773797988891602e+01" cType="1" res="-1.8319614173378795e-04" rms="4.4861757755279541e-01" purity="5.0378239154815674e-01" nType="0">
          <Node pos="l" depth="2" NCoef="0" IVar="-1" Cut="0.0000000000000000e+00" cType="1" res="2.5550033897161484e-03" rms="4.1573104262351990e-01" purity="5.3628623485565186e-01" nType="-99"/>
          <Node pos="r" depth="2" NCoef="0" IVar="-1" Cut="0.0000000000000000e+00" cType="1" res="-2.0255470008123666e-04" rms="4.5005494356155396e-01" purity="5.0116568803787231e-01" nType="-99"/>
        </Node>
        <Node pos="r" depth="1" NCoef="0" IVar="5" Cut="4.0241858363151550e-01" cType="1" res="-6.9861181080341339e-02" rms="4.4928020238876343e-01" purity="3.9700695872306824e-01" nType="0">
          <Node pos="l" depth="2" NCoef="0" IVar="-1" Cut="0.0000000000000000e+00" cType="1" res="-5.3494540043175220e-04" rms="4.4846317172050476e-01" purity="4.0190958976745605e-01" nType="-99"/>
          <Node pos="r" depth="2" NCoef="0" IVar="-1" Cut="0.0000000000000000e+00" cType="1" res="-3.1291127670556307e-03" rms="4.4039872288703918e-01" purity="3.8952419161796570e-01" nType="-99"/>
        </Node>
      </Node>
    </BinaryTree>
    <BinaryTree type="DecisionTree" boostWeight="1.0000000000000000e+00" itree="601">
      <Node pos="s" depth="0" NCoef="0" IVar="2" Cut="7.4663788080215454e-01" cType="1" res="1.1621558107435703e-02" rms="4.5177635550498962e-01" purity="5.2620840072631836e-01" nType="0">
        <Node pos="l" depth="1" NCoef="0" IVar="1" Cut="9.5834854125976562e+01" cType="1" res="-4.3180081993341446e-02" rms="4.7220021486282349e-01" purity="5.9740573167800903e-01" nType="0">
          <Node pos="l" depth="2" NCoef="0" IVar="-1" Cut="0.0000000000000000e+00" cType="1" res="-1.5537238505203277e-04" rms="4.6586614847183228e-01" purity="5.9968119859695435e-01" nType="-99"/>
          <Node pos="r" depth="2" NCoef="0" IVar="-1" Cut="0.0000000000000000e+00" cType="1" res="-4.0632691234350204e-03" rms="4.7474503517150879e-01" purity="5.9077781438827515e-01" nType="-99"/>
        </Node>
        <Node pos="r" depth="1" NCoef="0" IVar="2" Cut="1.1617981195449829e+00" cType="1" res="3.4531421959400177e-02" rms="4.4094491004943848e-01" purity="4.9644434452056885e-01" nType="0">
          <Node pos="l" depth="2" NCoef="0" IVar="-1" Cut="0.0000000000000000e+00" cType="1" res="1.6802944010123610e-03" rms="4.4268903136253357e-01" purity="6.4426243305206299e-01" nType="-99"/>
          <Node pos="r" depth="2" NCoef="0" IVar="-1" Cut="0.0000000000000000e+00" cType="1" res="-2.0790676353499293e-04" rms="4.3494412302970886e-01" purity="3.2470491528511047e-01" nType="-99"/>
        </Node>
      </Node>
    </BinaryTree>
    <BinaryTree type="DecisionTree" boostWeight="1.0000000000000000e+00" itree="602">
      <Node pos="s" depth="0" NCoef="0" IVar="0" Cut="5.2259020805358887e+00" cType="1" res="-9.9795293062925339e-03" rms="4.5594954490661621e-01" purity="4.8761114478111267e-01" nType="0">
        <Node pos="l" depth="1" NCoef="0" IVar="2" Cut="1.0043324232101440e+00" cType="1" res="-1.1796125024557114e-01" rms="3.8291752338409424e-01" purity="1.6605480015277863e-01" nType="0">
          <Node pos="l" depth="2" NCoef="0" IVar="-1" Cut="0.0000000000000000e+00" cType="1" res="-3.3368212170898914e-03" rms="3.8944995403289795e-01" purity="1.6487996280193329e-01" nType="-99"/>
          <Node pos="r" depth="2" NCoef="0" IVar="-1" Cut="0.0000000000000000e+00" cType="1" res="-1.0716971009969711e-03" rms="3.5935202240943909e-01" purity="1.6749046742916107e-01" nType="-99"/>
        </Node>
        <Node pos="r" depth="1" NCoef="0" IVar="2" Cut="9.2536950111389160e-01" cType="1" res="5.4588965140283108e-03" rms="4.6340444684028625e-01" purity="5.3358489274978638e-01" nType="0">
          <Node pos="l" depth="2" NCoef="0" IVar="-1" Cut="0.0000000000000000e+00" cType="1" res="-6.0408021090552211e-04" rms="4.6255230903625488e-01" purity="6.1238521337509155e-01" nType="-99"/>
          <Node pos="r" depth="2" NCoef="0" IVar="-1" Cut="0.0000000000000000e+00" cType="1" res="7.4745836900547147e-04" rms="4.6241080760955811e-01" purity="4.6498143672943115e-01" nType="-99"/>
        </Node>
      </Node>
    </BinaryTree>
    <BinaryTree type="DecisionTree" boostWeight="1.0000000000000000e+00" itree="603">
      <Node pos="s" depth="0" NCoef="0" IVar="0" Cut="5.7612595558166504e+00" cType="1" res="1.4121660031378269e-02" rms="4.3956723809242249e-01" purity="5.2287709712982178e-01" nType="0">
        <Node pos="l" depth="1" NCoef="0" IVar="5" Cut="3.8725394010543823e-01" cType="1" res="-5.2130438387393951e-02" rms="3.9717698097229004e-01" purity="2.4021035432815552e-01" nType="0">
          <Node pos="l" depth="2" NCoef="0" IVar="-1" Cut="0.0000000000000000e+00" cType="1" res="-2.6562788989394903e-03" rms="3.3554938435554504e-01" purity="1.5415228903293610e-01" nType="-99"/>
          <Node pos="r" depth="2" NCoef="0" IVar="-1" Cut="0.0000000000000000e+00" cType="1" res="3.1809188658371568e-04" rms="4.5349225401878357e-01" purity="3.4693732857704163e-01" nType="-99"/>
        </Node>
        <Node pos="r" depth="1" NCoef="0" IVar="2" Cut="9.7763186693191528e-01" cType="1" res="3.1482804566621780e-02" rms="4.4839990139007568e-01" purity="5.9694898128509521e-01" nType="0">
          <Node pos="l" depth="2" NCoef="0" IVar="-1" Cut="0.0000000000000000e+00" cType="1" res="1.0829099483089522e-04" rms="4.3893012404441833e-01" purity="6.8588638305664062e-01" nType="-99"/>
          <Node pos="r" depth="2" NCoef="0" IVar="-1" Cut="0.0000000000000000e+00" cType="1" res="1.4138896949589252e-03" rms="4.5684316754341125e-01" purity="4.9760097265243530e-01" nType="-99"/>
        </Node>
      </Node>
    </BinaryTree>
    <BinaryTree type="DecisionTree" boostWeight="1.0000000000000000e+00" itree="604">
      <Node pos="s" depth="0" NCoef="0" IVar="6" Cut="6.8115637207031250e+02" cType="1" res="-4.7122631222009659e-03" rms="4.5172011852264404e-01" purity="4.9198281764984131e-01" nType="0">
        <Node pos="l" depth="1" NCoef="0" IVar="5" Cut="2.3102347552776337e-01" cType="1" res="-1.3521542772650719e-02" rms="4.5499435067176819e-01" purity="4.7509148716926575e-01" nType="0">
          <Node pos="l" depth="2" NCoef="0" IVar="-1" Cut="0.0000000000000000e+00" cType="1" res="-1.5536858700215816e-03" rms="4.5020350813865662e-01" purity="3.1053340435028076e-01" nType="-99"/>
          <Node pos="r" depth="2" NCoef="0" IVar="-1" Cut="0.0000000000000000e+00" cType="1" res="2.6893158064922318e-05" rms="4.5524531602859497e-01" purity="5.2116537094116211e-01" nType="-99"/>
        </Node>
        <Node pos="r" depth="1" NCoef="0" IVar="-1" Cut="0.0000000000000000e+00" cType="1" res="1.9277760293334723e-03" rms="4.0993100404739380e-01" purity="6.5268665552139282e-01" nType="-99"/>
      </Node>
    </BinaryTree>
    <BinaryTree type="DecisionTree" boostWeight="1.0000000000000000e+00" itree="605">
      <Node pos="s" depth="0" NCoef="0" IVar="1" Cut="1.0652518463134766e+02" cType="1" res="1.8729260191321373e-02" rms="4.4652357697486877e-01" purity="5.1293545961380005e-01" nType="0">
        <Node pos="l" depth="1" NCoef="0" IVar="1" Cut="8.6775985717773438e+01" cType="1" res="3.3593595027923584e-02" rms="4.4823926687240601e-01" purity="5.1590955257415771e-01" nType="0">
          <Node pos="l" depth="2" NCoef="0" IVar="-1" Cut="0.0000000000000000e+00" cType="1" res="2.7020942070521414e-04" rms="4.4516098499298096e-01" purity="4.7891235351562500e-01" nType="-99"/>
          <Node pos="r" depth="2" NCoef="0" IVar="-1" Cut="0.0000000000000000e+00" cType="1" res="2.9685257468372583e-03" rms="4.4951587915420532e-01" purity="6.6866838932037354e-01" nType="-99"/>
        </Node>
        <Node pos="r" depth="1" NCoef="0" IVar="1" Cut="1.5072750854492188e+02" cType="1" res="-2.6941938325762749e-02" rms="4.3806603550910950e-01" purity="5.0379741191864014e-01" nType="0">
          <Node pos="l" depth="2" NCoef="0" IVar="-1" Cut="0.0000000000000000e+00" cType="1" res="-6.5507636463735253e-05" rms="4.3441221117973328e-01" purity="5.3864181041717529e-01" nType="-99"/>
          <Node pos="r" depth="2" NCoef="0" IVar="-1" Cut="0.0000000000000000e+00" cType="1" res="-2.6188767515122890e-03" rms="4.4025367498397827e-01" purity="3.8289973139762878e-01" nType="-99"/>
        </Node>
      </Node>
    </BinaryTree>
    <BinaryTree type="DecisionTree" boostWeight="1.0000000000000000e+00" itree="606">
      <Node pos="s" depth="0" NCoef="0" IVar="5" Cut="7.1288776397705078e-01" cType="1" res="-1.1736234650015831e-02" rms="4.5650556683540344e-01" purity="4.9118220806121826e-01" nType="0">
        <Node pos="l" depth="1" NCoef="0" IVar="5" Cut="2.9063066840171814e-01" cType="1" res="-1.9749902188777924e-02" rms="4.5878276228904724e-01" purity="4.7643619775772095e-01" nType="0">
          <Node pos="l" depth="2" NCoef="0" IVar="-1" Cut="0.0000000000000000e+00" cType="1" res="-1.2769231107085943e-03" rms="4.4303935766220093e-01" purity="3.6569446325302124e-01" nType="-99"/>
          <Node pos="r" depth="2" NCoef="0" IVar="-1" Cut="0.0000000000000000e+00" cType="1" res="7.1788290370022878e-06" rms="4.6613204479217529e-01" purity="5.3822344541549683e-01" nType="-99"/>
        </Node>
        <Node pos="r" depth="1" NCoef="0" IVar="-1" Cut="0.0000000000000000e+00" cType="1" res="2.4032776709645987e-03" rms="4.0527349710464478e-01" purity="7.0314043760299683e-01" nType="-99"/>
      </Node>
    </BinaryTree>
    <BinaryTree type="DecisionTree" boostWeight="1.0000000000000000e+00" itree="607">
      <Node pos="s" depth="0" NCoef="0" IVar="5" Cut="2.1928460896015167e-01" cType="1" res="7.9190172255039215e-03" rms="4.4477242231369019e-01" purity="5.0596320629119873e-01" nType="0">
        <Node pos="l" depth="1" NCoef="0" IVar="2" Cut="1.0160481929779053e+00" cType="1" res="-6.9316677749156952e-02" rms="4.2513099312782288e-01" purity="3.1579196453094482e-01" nType="0">
          <Node pos="l" depth="2" NCoef="0" IVar="-1" Cut="0.0000000000000000e+00" cType="1" res="-3.0169386882334948e-03" rms="4.7881814837455750e-01" purity="4.5865830779075623e-01" nType="-99"/>
          <Node pos="r" depth="2" NCoef="0" IVar="-1" Cut="0.0000000000000000e+00" cType="1" res="-9.9352479446679354e-04" rms="3.9758697152137756e-01" purity="2.5714465975761414e-01" nType="-99"/>
        </Node>
        <Node pos="r" depth="1" NCoef="0" IVar="0" Cut="6.8614854812622070e+00" cType="1" res="2.8561985120177269e-02" rms="4.4762560725212097e-01" purity="5.5679064989089966e-01" nType="0">
          <Node pos="l" depth="2" NCoef="0" IVar="-1" Cut="0.0000000000000000e+00" cType="1" res="-1.8462394655216485e-04" rms="4.6431788802146912e-01" purity="3.9164328575134277e-01" nType="-99"/>
          <Node pos="r" depth="2" NCoef="0" IVar="-1" Cut="0.0000000000000000e+00" cType="1" res="1.7695293063297868e-03" rms="4.2537811398506165e-01" purity="7.3418742418289185e-01" nType="-99"/>
        </Node>
      </Node>
    </BinaryTree>
    <BinaryTree type="DecisionTree" boostWeight="1.0000000000000000e+00" itree="608">
      <Node pos="s" depth="0" NCoef="0" IVar="2" Cut="7.5608056783676147e-01" cType="1" res="1.3615937903523445e-02" rms="4.5260888338088989e-01" purity="5.0878661870956421e-01" nType="0">
        <Node pos="l" depth="1" NCoef="0" IVar="0" Cut="7.6503791809082031e+00" cType="1" res="6.0580071061849594e-02" rms="4.5014634728431702e-01" purity="6.9832450151443481e-01" nType="0">
          <Node pos="l" depth="2" NCoef="0" IVar="-1" Cut="0.0000000000000000e+00" cType="1" res="2.2268113680183887e-03" rms="4.6167501807212830e-01" purity="6.6276597976684570e-01" nType="-99"/>
          <Node pos="r" depth="2" NCoef="0" IVar="-1" Cut="0.0000000000000000e+00" cType="1" res="-6.4124993514269590e-04" rms="4.1606757044792175e-01" purity="7.6427555084228516e-01" nType="-99"/>
        </Node>
        <Node pos="r" depth="1" NCoef="0" IVar="6" Cut="6.7086065673828125e+02" cType="1" res="-2.8791814111173153e-03" rms="4.5231494307518005e-01" purity="4.4221556186676025e-01" nType="0">
          <Node pos="l" depth="2" NCoef="0" IVar="-1" Cut="0.0000000000000000e+00" cType="1" res="-2.6540679391473532e-04" rms="4.5273074507713318e-01" purity="4.2661324143409729e-01" nType="-99"/>
          <Node pos="r" depth="2" NCoef="0" IVar="-1" Cut="0.0000000000000000e+00" cType="1" res="2.3312075063586235e-03" rms="4.3348982930183411e-01" purity="6.3186460733413696e-01" nType="-99"/>
        </Node>
      </Node>
    </BinaryTree>
    <BinaryTree type="DecisionTree" boostWeight="1.0000000000000000e+00" itree="609">
      <Node pos="s" depth="0" NCoef="0" IVar="1" Cut="9.8656806945800781e+01" cType="1" res="-1.7641112208366394e-02" rms="4.5278391242027283e-01" purity="4.7591304779052734e-01" nType="0">
        <Node pos="l" depth="1" NCoef="0" IVar="3" Cut="1.9250218868255615e+00" cType="1" res="-4.4584892690181732e-02" rms="4.5310387015342712e-01" purity="4.2450681328773499e-01" nType="0">
          <Node pos="l" depth="2" NCoef="0" IVar="-1" Cut="0.0000000000000000e+00" cType="1" res="7.9142750473693013e-04" rms="4.8670822381973267e-01" purity="5.9628427028656006e-01" nType="-99"/>
          <Node pos="r" depth="2" NCoef="0" IVar="-1" Cut="0.0000000000000000e+00" cType="1" res="-1.5300560044124722e-03" rms="4.4206395745277405e-01" purity="3.8146004080772400e-01" nType="-99"/>
        </Node>
        <Node pos="r" depth="1" NCoef="0" IVar="3" Cut="2.1504726409912109e+00" cType="1" res="4.3152898550033569e-02" rms="4.4612252712249756e-01" purity="5.9190225601196289e-01" nType="0">
          <Node pos="l" depth="2" NCoef="0" IVar="-1" Cut="0.0000000000000000e+00" cType="1" res="-8.9883990585803986e-04" rms="4.4015491008758545e-01" purity="6.9299441576004028e-01" nType="-99"/>
          <Node pos="r" depth="2" NCoef="0" IVar="-1" Cut="0.0000000000000000e+00" cType="1" res="2.0279616583138704e-03" rms="4.4373875856399536e-01" purity="5.3435409069061279e-01" nType="-99"/>
        </Node>
      </Node>
    </BinaryTree>
    <BinaryTree type="DecisionTree" boostWeight="1.0000000000000000e+00" itree="610">
      <Node pos="s" depth="0" NCoef="0" IVar="0" Cut="6.5805826187133789e+00" cType="1" res="7.2888513095676899e-03" rms="4.4873344898223877e-01" purity="5.0915187597274780e-01" nType="0">
        <Node pos="l" depth="1" NCoef="0" IVar="4" Cut="1.0642051696777344e+02" cType="1" res="-2.9945770278573036e-02" rms="4.4496589899063110e-01" purity="3.3712786436080933e-01" nType="0">
          <Node pos="l" depth="2" NCoef="0" IVar="-1" Cut="0.0000000000000000e+00" cType="1" res="6.3508843595627695e-05" rms="4.5306473970413208e-01" purity="3.7537083029747009e-01" nType="-99"/>
          <Node pos="r" depth="2" NCoef="0" IVar="-1" Cut="0.0000000000000000e+00" cType="1" res="-1.5127542428672314e-03" rms="4.3157821893692017e-01" purity="2.9071018099784851e-01" nType="-99"/>
        </Node>
        <Node pos="r" depth="1" NCoef="0" IVar="6" Cut="3.5741873168945312e+02" cType="1" res="3.5679522901773453e-02" rms="4.4951739907264709e-01" purity="6.4031666517257690e-01" nType="0">
          <Node pos="l" depth="2" NCoef="0" IVar="-1" Cut="0.0000000000000000e+00" cType="1" res="2.3600365966558456e-03" rms="4.3215417861938477e-01" purity="6.6377413272857666e-01" nType="-99"/>
          <Node pos="r" depth="2" NCoef="0" IVar="-1" Cut="0.0000000000000000e+00" cType="1" res="2.1412748537841253e-05" rms="4.5482844114303589e-01" purity="6.2766045331954956e-01" nType="-99"/>
        </Node>
      </Node>
    </BinaryTree>
    <BinaryTree type="DecisionTree" boostWeight="1.0000000000000000e+00" itree="611">
      <Node pos="s" depth="0" NCoef="0" IVar="4" Cut="2.4394633483886719e+02" cType="1" res="2.3712428286671638e-02" rms="4.5880189538002014e-01" purity="5.1975113153457642e-01" nType="0">
        <Node pos="l" depth="1" NCoef="0" IVar="2" Cut="1.2560242414474487e+00" cType="1" res="3.6753196269273758e-02" rms="4.5876228809356689e-01" purity="5.3896707296371460e-01" nType="0">
          <Node pos="l" depth="2" NCoef="0" IVar="-1" Cut="0.0000000000000000e+00" cType="1" res="4.2448172462172806e-04" rms="4.5955109596252441e-01" purity="5.8415424823760986e-01" nType="-99"/>
          <Node pos="r" depth="2" NCoef="0" IVar="-1" Cut="0.0000000000000000e+00" cType="1" res="2.2674810606986284e-03" rms="4.5213013887405396e-01" purity="4.0565758943557739e-01" nType="-99"/>
        </Node>
        <Node pos="r" depth="1" NCoef="0" IVar="0" Cut="7.3330554962158203e+00" cType="1" res="-4.8662666231393814e-02" rms="4.5223751664161682e-01" purity="4.1310426592826843e-01" nType="0">
          <Node pos="l" depth="2" NCoef="0" IVar="-1" Cut="0.0000000000000000e+00" cType="1" res="4.2279280023649335e-04" rms="4.1667681932449341e-01" purity="3.8059276342391968e-01" nType="-99"/>
          <Node pos="r" depth="2" NCoef="0" IVar="-1" Cut="0.0000000000000000e+00" cType="1" res="-3.4803603775799274e-03" rms="4.8384538292884827e-01" purity="4.6054676175117493e-01" nType="-99"/>
        </Node>
      </Node>
    </BinaryTree>
    <BinaryTree type="DecisionTree" boostWeight="1.0000000000000000e+00" itree="612">
      <Node pos="s" depth="0" NCoef="0" IVar="0" Cut="6.3987455368041992e+00" cType="1" res="9.4866370782256126e-03" rms="4.3923065066337585e-01" purity="5.2067661285400391e-01" nType="0">
        <Node pos="l" depth="1" NCoef="0" IVar="5" Cut="5.0211197137832642e-01" cType="1" res="-2.9959527775645256e-02" rms="4.4613933563232422e-01" purity="3.1884717941284180e-01" nType="0">
          <Node pos="l" depth="2" NCoef="0" IVar="-1" Cut="0.0000000000000000e+00" cType="1" res="4.8748956032795832e-05" rms="4.4959312677383423e-01" purity="3.2746979594230652e-01" nType="-99"/>
          <Node pos="r" depth="2" NCoef="0" IVar="-1" Cut="0.0000000000000000e+00" cType="1" res="-2.1297214552760124e-03" rms="4.2944109439849854e-01" purity="2.9930645227432251e-01" nType="-99"/>
        </Node>
        <Node pos="r" depth="1" NCoef="0" IVar="3" Cut="2.1951394081115723e+00" cType="1" res="3.2880760729312897e-02" rms="4.3338876962661743e-01" purity="6.4037454128265381e-01" nType="0">
          <Node pos="l" depth="2" NCoef="0" IVar="-1" Cut="0.0000000000000000e+00" cType="1" res="1.7828928539529443e-03" rms="4.0234780311584473e-01" purity="7.5299239158630371e-01" nType="-99"/>
          <Node pos="r" depth="2" NCoef="0" IVar="-1" Cut="0.0000000000000000e+00" cType="1" res="-3.9432212361134589e-04" rms="4.6742457151412964e-01" purity="4.8833546042442322e-01" nType="-99"/>
        </Node>
      </Node>
    </BinaryTree>
    <BinaryTree type="DecisionTree" boostWeight="1.0000000000000000e+00" itree="613">
      <Node pos="s" depth="0" NCoef="0" IVar="4" Cut="2.1603340148925781e+02" cType="1" res="-3.2359886914491653e-02" rms="4.4470542669296265e-01" purity="4.6768084168434143e-01" nType="0">
        <Node pos="l" depth="1" NCoef="0" IVar="5" Cut="5.0744915008544922e-01" cType="1" res="-4.6089749783277512e-02" rms="4.4946810603141785e-01" purity="4.6487292647361755e-01" nType="0">
          <Node pos="l" depth="2" NCoef="0" IVar="-1" Cut="0.0000000000000000e+00" cType="1" res="-1.5932861715555191e-03" rms="4.4658941030502319e-01" purity="4.0320092439651489e-01" nType="-99"/>
          <Node pos="r" depth="2" NCoef="0" IVar="-1" Cut="0.0000000000000000e+00" cType="1" res="3.4495165891712531e-05" rms="4.5149394869804382e-01" purity="5.8941638469696045e-01" nType="-99"/>
        </Node>
        <Node pos="r" depth="1" NCoef="0" IVar="1" Cut="8.4881469726562500e+01" cType="1" res="2.9460599645972252e-02" rms="4.1703373193740845e-01" purity="4.8032388091087341e-01" nType="0">
          <Node pos="l" depth="2" NCoef="0" IVar="-1" Cut="0.0000000000000000e+00" cType="1" res="-1.8484017346054316e-03" rms="4.0271162986755371e-01" purity="3.1904277205467224e-01" nType="-99"/>
          <Node pos="r" depth="2" NCoef="0" IVar="-1" Cut="0.0000000000000000e+00" cType="1" res="2.1835346706211567e-03" rms="4.1409331560134888e-01" purity="5.6911790370941162e-01" nType="-99"/>
        </Node>
      </Node>
    </BinaryTree>
    <BinaryTree type="DecisionTree" boostWeight="1.0000000000000000e+00" itree="614">
      <Node pos="s" depth="0" NCoef="0" IVar="2" Cut="1.1984922885894775e+00" cType="1" res="1.2132877018302679e-03" rms="4.4016945362091064e-01" purity="4.9838972091674805e-01" nType="0">
        <Node pos="l" depth="1" NCoef="0" IVar="2" Cut="4.9239778518676758e-01" cType="1" res="2.6822434738278389e-02" rms="4.5640838146209717e-01" purity="6.1242991685867310e-01" nType="0">
          <Node pos="l" depth="2" NCoef="0" IVar="-1" Cut="0.0000000000000000e+00" cType="1" res="-1.9952594302594662e-03" rms="4.8180842399597168e-01" purity="5.8702641725540161e-01" nType="-99"/>
          <Node pos="r" depth="2" NCoef="0" IVar="-1" Cut="0.0000000000000000e+00" cType="1" res="9.4438379164785147e-04" rms="4.5096215605735779e-01" purity="6.1586761474609375e-01" nType="-99"/>
        </Node>
        <Node pos="r" depth="1" NCoef="0" IVar="1" Cut="7.1883209228515625e+01" cType="1" res="-4.9448173493146896e-02" rms="4.0135127305984497e-01" purity="2.7278897166252136e-01" nType="0">
          <Node pos="l" depth="2" NCoef="0" IVar="-1" Cut="0.0000000000000000e+00" cType="1" res="-3.1644662376493216e-03" rms="3.3294087648391724e-01" purity="1.4983193576335907e-01" nType="-99"/>
          <Node pos="r" depth="2" NCoef="0" IVar="-1" Cut="0.0000000000000000e+00" cType="1" res="-1.7802181537263095e-04" rms="4.3116956949234009e-01" purity="3.4514966607093811e-01" nType="-99"/>
        </Node>
      </Node>
    </BinaryTree>
    <BinaryTree type="DecisionTree" boostWeight="1.0000000000000000e+00" itree="615">
      <Node pos="s" depth="0" NCoef="0" IVar="4" Cut="3.6310144042968750e+02" cType="1" res="-4.5735491439700127e-03" rms="4.5257401466369629e-01" purity="4.8266991972923279e-01" nType="0">
        <Node pos="l" depth="1" NCoef="0" IVar="5" Cut="6.8703299760818481e-01" cType="1" res="-1.2097215279936790e-02" rms="4.5407971739768982e-01" purity="4.7932147979736328e-01" nType="0">
          <Node pos="l" depth="2" NCoef="0" IVar="-1" Cut="0.0000000000000000e+00" cType="1" res="-4.5217288425192237e-04" rms="4.5617377758026123e-01" purity="4.6568766236305237e-01" nType="-99"/>
          <Node pos="r" depth="2" NCoef="0" IVar="-1" Cut="0.0000000000000000e+00" cType="1" res="2.1278746426105499e-03" rms="4.1128945350646973e-01" purity="6.6389626264572144e-01" nType="-99"/>
        </Node>
        <Node pos="r" depth="1" NCoef="0" IVar="-1" Cut="0.0000000000000000e+00" cType="1" res="3.4606044646352530e-03" rms="3.9842399954795837e-01" purity="5.4500114917755127e-01" nType="-99"/>
      </Node>
    </BinaryTree>
    <BinaryTree type="DecisionTree" boostWeight="1.0000000000000000e+00" itree="616">
      <Node pos="s" depth="0" NCoef="0" IVar="6" Cut="6.1738073730468750e+02" cType="1" res="2.1722583100199699e-02" rms="4.5298919081687927e-01" purity="5.3128480911254883e-01" nType="0">
        <Node pos="l" depth="1" NCoef="0" IVar="1" Cut="9.2926879882812500e+01" cType="1" res="8.9300405234098434e-03" rms="4.6128928661346436e-01" purity="5.0303286314010620e-01" nType="0">
          <Node pos="l" depth="2" NCoef="0" IVar="-1" Cut="0.0000000000000000e+00" cType="1" res="-1.5681223885621876e-04" rms="4.6612700819969177e-01" purity="4.7034892439842224e-01" nType="-99"/>
          <Node pos="r" depth="2" NCoef="0" IVar="-1" Cut="0.0000000000000000e+00" cType="1" res="1.1596498079597950e-03" rms="4.4652000069618225e-01" purity="5.8455473184585571e-01" nType="-99"/>
        </Node>
        <Node pos="r" depth="1" NCoef="0" IVar="6" Cut="7.2158691406250000e+02" cType="1" res="1.0039878636598587e-01" rms="3.8901361823081970e-01" purity="7.0503908395767212e-01" nType="0">
          <Node pos="l" depth="2" NCoef="0" IVar="-1" Cut="0.0000000000000000e+00" cType="1" res="4.5438976958394051e-03" rms="3.8907650113105774e-01" purity="7.4801820516586304e-01" nType="-99"/>
          <Node pos="r" depth="2" NCoef="0" IVar="-1" Cut="0.0000000000000000e+00" cType="1" res="1.2338076485320926e-03" rms="3.8004398345947266e-01" purity="6.7485678195953369e-01" nType="-99"/>
        </Node>
      </Node>
    </BinaryTree>
    <BinaryTree type="DecisionTree" boostWeight="1.0000000000000000e+00" itree="617">
      <Node pos="s" depth="0" NCoef="0" IVar="0" Cut="7.2869882583618164e+00" cType="1" res="1.3790201395750046e-02" rms="4.5871463418006897e-01" purity="5.1139438152313232e-01" nType="0">
        <Node pos="l" depth="1" NCoef="0" IVar="6" Cut="5.5106323242187500e+02" cType="1" res="4.0175620466470718e-02" rms="4.5753961801528931e-01" purity="4.4153976440429688e-01" nType="0">
          <Node pos="l" depth="2" NCoef="0" IVar="-1" Cut="0.0000000000000000e+00" cType="1" res="3.4290528856217861e-04" rms="4.5884576439857483e-01" purity="4.0120533108711243e-01" nType="-99"/>
          <Node pos="r" depth="2" NCoef="0" IVar="-1" Cut="0.0000000000000000e+00" cType="1" res="3.5355521831661463e-03" rms="4.3186420202255249e-01" purity="6.3323104381561279e-01" nType="-99"/>
        </Node>
        <Node pos="r" depth="1" NCoef="0" IVar="1" Cut="4.4745223999023438e+01" cType="1" res="-3.0089821666479111e-02" rms="4.5730328559875488e-01" purity="6.2756532430648804e-01" nType="0">
          <Node pos="l" depth="2" NCoef="0" IVar="-1" Cut="0.0000000000000000e+00" cType="1" res="-3.4292687196284533e-03" rms="4.8697653412818909e-01" purity="4.0963354706764221e-01" nType="-99"/>
          <Node pos="r" depth="2" NCoef="0" IVar="-1" Cut="0.0000000000000000e+00" cType="1" res="-1.8209073459729552e-04" rms="4.4775253534317017e-01" purity="6.6846847534179688e-01" nType="-99"/>
        </Node>
      </Node>
    </BinaryTree>
    <BinaryTree type="DecisionTree" boostWeight="1.0000000000000000e+00" itree="618">
      <Node pos="s" depth="0" NCoef="0" IVar="6" Cut="4.0747662353515625e+02" cType="1" res="9.6408864483237267e-03" rms="4.5135164260864258e-01" purity="5.0873583555221558e-01" nType="0">
        <Node pos="l" depth="1" NCoef="0" IVar="1" Cut="9.7395423889160156e+01" cType="1" res="-3.2830849289894104e-02" rms="4.4737586379051208e-01" purity="4.2934587597846985e-01" nType="0">
          <Node pos="l" depth="2" NCoef="0" IVar="-1" Cut="0.0000000000000000e+00" cType="1" res="-3.3310803701169789e-04" rms="4.4764712452888489e-01" purity="4.4208279252052307e-01" nType="-99"/>
          <Node pos="r" depth="2" NCoef="0" IVar="-1" Cut="0.0000000000000000e+00" cType="1" res="-2.6804632507264614e-03" rms="4.3617177009582520e-01" purity="3.7046366930007935e-01" nType="-99"/>
        </Node>
        <Node pos="r" depth="1" NCoef="0" IVar="2" Cut="8.0908477306365967e-01" cType="1" res="6.4531520009040833e-02" rms="4.5054632425308228e-01" purity="6.1133974790573120e-01" nType="0">
          <Node pos="l" depth="2" NCoef="0" IVar="-1" Cut="0.0000000000000000e+00" cType="1" res="1.3051053974777460e-04" rms="4.4388061761856079e-01" purity="6.8281131982803345e-01" nType="-99"/>
          <Node pos="r" depth="2" NCoef="0" IVar="-1" Cut="0.0000000000000000e+00" cType="1" res="2.1679943893104792e-03" rms="4.5089948177337646e-01" purity="5.7381790876388550e-01" nType="-99"/>
        </Node>
      </Node>
    </BinaryTree>
    <BinaryTree type="DecisionTree" boostWeight="1.0000000000000000e+00" itree="619">
      <Node pos="s" depth="0" NCoef="0" IVar="1" Cut="9.9351417541503906e+01" cType="1" res="-1.3184591662138700e-03" rms="4.4411668181419373e-01" purity="4.9083840847015381e-01" nType="0">
        <Node pos="l" depth="1" NCoef="0" IVar="4" Cut="1.6762074279785156e+02" cType="1" res="-1.6882915049791336e-02" rms="4.4433608651161194e-01" purity="4.5261362195014954e-01" nType="0">
          <Node pos="l" depth="2" NCoef="0" IVar="-1" Cut="0.0000000000000000e+00" cType="1" res="-8.8263378711417317e-04" rms="4.4896173477172852e-01" purity="4.4327694177627563e-01" nType="-99"/>
          <Node pos="r" depth="2" NCoef="0" IVar="-1" Cut="0.0000000000000000e+00" cType="1" res="1.6159442020580173e-03" rms="4.1675317287445068e-01" purity="4.8660218715667725e-01" nType="-99"/>
        </Node>
        <Node pos="r" depth="1" NCoef="0" IVar="4" Cut="3.1591659545898438e+02" cType="1" res="3.7859205156564713e-02" rms="4.4113975763320923e-01" purity="5.8705496788024902e-01" nType="0">
          <Node pos="l" depth="2" NCoef="0" IVar="-1" Cut="0.0000000000000000e+00" cType="1" res="1.5333245974034071e-03" rms="4.4676929712295532e-01" purity="6.2094509601593018e-01" nType="-99"/>
          <Node pos="r" depth="2" NCoef="0" IVar="-1" Cut="0.0000000000000000e+00" cType="1" res="-2.1135283168405294e-03" rms="3.9264789223670959e-01" purity="4.2908439040184021e-01" nType="-99"/>
        </Node>
      </Node>
    </BinaryTree>
    <BinaryTree type="DecisionTree" boostWeight="1.0000000000000000e+00" itree="620">
      <Node pos="s" depth="0" NCoef="0" IVar="6" Cut="3.7442330932617188e+02" cType="1" res="-1.0165524668991566e-02" rms="4.4514882564544678e-01" purity="4.8904100060462952e-01" nType="0">
        <Node pos="l" depth="1" NCoef="0" IVar="5" Cut="6.0340547561645508e-01" cType="1" res="4.0367566049098969e-02" rms="4.4563561677932739e-01" purity="4.8452159762382507e-01" nType="0">
          <Node pos="l" depth="2" NCoef="0" IVar="-1" Cut="0.0000000000000000e+00" cType="1" res="2.2958246700000018e-04" rms="4.4846174120903015e-01" purity="4.2071825265884399e-01" nType="-99"/>
          <Node pos="r" depth="2" NCoef="0" IVar="-1" Cut="0.0000000000000000e+00" cType="1" res="3.0620447359979153e-03" rms="4.2366629838943481e-01" purity="6.7887252569198608e-01" nType="-99"/>
        </Node>
        <Node pos="r" depth="1" NCoef="0" IVar="2" Cut="6.7611730098724365e-01" cType="1" res="-4.6420462429523468e-02" rms="4.4124805927276611e-01" purity="4.9228337407112122e-01" nType="0">
          <Node pos="l" depth="2" NCoef="0" IVar="-1" Cut="0.0000000000000000e+00" cType="1" res="4.4767075451090932e-04" rms="4.2793530225753784e-01" purity="7.1271312236785889e-01" nType="-99"/>
          <Node pos="r" depth="2" NCoef="0" IVar="-1" Cut="0.0000000000000000e+00" cType="1" res="-1.4828827697783709e-03" rms="4.4337791204452515e-01" purity="4.2529752850532532e-01" nType="-99"/>
        </Node>
      </Node>
    </BinaryTree>
    <BinaryTree type="DecisionTree" boostWeight="1.0000000000000000e+00" itree="621">
      <Node pos="s" depth="0" NCoef="0" IVar="3" Cut="2.2254769802093506e+00" cType="1" res="-2.2789712995290756e-02" rms="4.4832623004913330e-01" purity="4.8069423437118530e-01" nType="0">
        <Node pos="l" depth="1" NCoef="0" IVar="1" Cut="8.7206031799316406e+01" cType="1" res="3.1523364596068859e-03" rms="4.4764342904090881e-01" purity="5.8761495351791382e-01" nType="0">
          <Node pos="l" depth="2" NCoef="0" IVar="-1" Cut="0.0000000000000000e+00" cType="1" res="7.3902081931009889e-04" rms="4.4048643112182617e-01" purity="5.7132548093795776e-01" nType="-99"/>
          <Node pos="r" depth="2" NCoef="0" IVar="-1" Cut="0.0000000000000000e+00" cType="1" res="-1.3819833984598517e-03" rms="4.5576259493827820e-01" purity="6.2018793821334839e-01" nType="-99"/>
        </Node>
        <Node pos="r" depth="1" NCoef="0" IVar="2" Cut="1.0406311750411987e+00" cType="1" res="-6.3141703605651855e-02" rms="4.4639989733695984e-01" purity="3.1438276171684265e-01" nType="0">
          <Node pos="l" depth="2" NCoef="0" IVar="-1" Cut="0.0000000000000000e+00" cType="1" res="-4.7549824230372906e-03" rms="4.4826990365982056e-01" purity="3.6100807785987854e-01" nType="-99"/>
          <Node pos="r" depth="2" NCoef="0" IVar="-1" Cut="0.0000000000000000e+00" cType="1" res="-4.9046240746974945e-04" rms="4.3621078133583069e-01" purity="3.0135706067085266e-01" nType="-99"/>
        </Node>
      </Node>
    </BinaryTree>
    <BinaryTree type="DecisionTree" boostWeight="1.0000000000000000e+00" itree="622">
      <Node pos="s" depth="0" NCoef="0" IVar="6" Cut="6.3026678466796875e+02" cType="1" res="1.1093971319496632e-02" rms="4.4181084632873535e-01" purity="5.0798916816711426e-01" nType="0">
        <Node pos="l" depth="1" NCoef="0" IVar="0" Cut="5.4091601371765137e+00" cType="1" res="-5.1557477563619614e-03" rms="4.4410273432731628e-01" purity="4.7557201981544495e-01" nType="0">
          <Node pos="l" depth="2" NCoef="0" IVar="-1" Cut="0.0000000000000000e+00" cType="1" res="-1.8397597596049309e-03" rms="4.0242367982864380e-01" purity="1.9116471707820892e-01" nType="-99"/>
          <Node pos="r" depth="2" NCoef="0" IVar="-1" Cut="0.0000000000000000e+00" cType="1" res="2.1476515394169837e-04" rms="4.5023694634437561e-01" purity="5.3016406297683716e-01" nType="-99"/>
        </Node>
        <Node pos="r" depth="1" NCoef="0" IVar="1" Cut="1.0320247650146484e+02" cType="1" res="1.2859332561492920e-01" rms="4.0595519542694092e-01" purity="7.4239271879196167e-01" nType="0">
          <Node pos="l" depth="2" NCoef="0" IVar="-1" Cut="0.0000000000000000e+00" cType="1" res="9.7553915111348033e-04" rms="4.7186642885208130e-01" purity="6.3435113430023193e-01" nType="-99"/>
          <Node pos="r" depth="2" NCoef="0" IVar="-1" Cut="0.0000000000000000e+00" cType="1" res="5.1717036403715611e-03" rms="3.3410918712615967e-01" purity="8.2315391302108765e-01" nType="-99"/>
        </Node>
      </Node>
    </BinaryTree>
    <BinaryTree type="DecisionTree" boostWeight="1.0000000000000000e+00" itree="623">
      <Node pos="s" depth="0" NCoef="0" IVar="4" Cut="3.2596386718750000e+02" cType="1" res="1.3438062742352486e-02" rms="4.4703131914138794e-01" purity="5.0140959024429321e-01" nType="0">
        <Node pos="l" depth="1" NCoef="0" IVar="4" Cut="1.1012715148925781e+02" cType="1" res="2.1770095452666283e-02" rms="4.5090621709823608e-01" purity="5.1629000902175903e-01" nType="0">
          <Node pos="l" depth="2" NCoef="0" IVar="-1" Cut="0.0000000000000000e+00" cType="1" res="-1.1598465789575130e-04" rms="4.4406402111053467e-01" purity="4.9883809685707092e-01" nType="-99"/>
          <Node pos="r" depth="2" NCoef="0" IVar="-1" Cut="0.0000000000000000e+00" cType="1" res="1.3811015523970127e-03" rms="4.5749890804290771e-01" purity="5.3975772857666016e-01" nType="-99"/>
        </Node>
        <Node pos="r" depth="1" NCoef="0" IVar="-1" Cut="0.0000000000000000e+00" cType="1" res="-2.6315120048820972e-03" rms="3.6166203022003174e-01" purity="2.7771571278572083e-01" nType="-99"/>
      </Node>
    </BinaryTree>
    <BinaryTree type="DecisionTree" boostWeight="1.0000000000000000e+00" itree="624">
      <Node pos="s" depth="0" NCoef="0" IVar="2" Cut="1.5042970180511475e+00" cType="1" res="7.1108737029135227e-03" rms="4.5302855968475342e-01" purity="5.0593096017837524e-01" nType="0">
        <Node pos="l" depth="1" NCoef="0" IVar="3" Cut="2.3975806236267090e+00" cType="1" res="-6.8924680817872286e-04" rms="4.5577505230903625e-01" purity="5.3164070844650269e-01" nType="0">
          <Node pos="l" depth="2" NCoef="0" IVar="-1" Cut="0.0000000000000000e+00" cType="1" res="2.1756388014182448e-04" rms="4.6104469895362854e-01" purity="5.7391971349716187e-01" nType="-99"/>
          <Node pos="r" depth="2" NCoef="0" IVar="-1" Cut="0.0000000000000000e+00" cType="1" res="-1.3979389332234859e-03" rms="4.1919225454330444e-01" purity="2.8743666410446167e-01" nType="-99"/>
        </Node>
        <Node pos="r" depth="1" NCoef="0" IVar="1" Cut="7.7862991333007812e+01" cType="1" res="6.7565970122814178e-02" rms="4.2633679509162903e-01" purity="3.0666682124137878e-01" nType="0">
          <Node pos="l" depth="2" NCoef="0" IVar="-1" Cut="0.0000000000000000e+00" cType="1" res="-1.2229335261508822e-03" rms="3.6912211775779724e-01" purity="1.7490264773368835e-01" nType="-99"/>
          <Node pos="r" depth="2" NCoef="0" IVar="-1" Cut="0.0000000000000000e+00" cType="1" res="5.5496958084404469e-03" rms="4.5370379090309143e-01" purity="4.7816172242164612e-01" nType="-99"/>
        </Node>
      </Node>
    </BinaryTree>
    <BinaryTree type="DecisionTree" boostWeight="1.0000000000000000e+00" itree="625">
      <Node pos="s" depth="0" NCoef="0" IVar="1" Cut="7.9851791381835938e+01" cType="1" res="-1.3618765398859978e-02" rms="4.4024932384490967e-01" purity="4.8915034532546997e-01" nType="0">
        <Node pos="l" depth="1" NCoef="0" IVar="1" Cut="3.3890193939208984e+01" cType="1" res="-4.7521855682134628e-02" rms="4.3430349230766296e-01" purity="4.0181937813758850e-01" nType="0">
          <Node pos="l" depth="2" NCoef="0" IVar="-1" Cut="0.0000000000000000e+00" cType="1" res="-3.8178856484591961e-03" rms="3.9722850918769836e-01" purity="1.9865591824054718e-01" nType="-99"/>
          <Node pos="r" depth="2" NCoef="0" IVar="-1" Cut="0.0000000000000000e+00" cType="1" res="-6.9880357477813959e-04" rms="4.3626663088798523e-01" purity="4.2916724085807800e-01" nType="-99"/>
        </Node>
        <Node pos="r" depth="1" NCoef="0" IVar="5" Cut="1.7810444533824921e-01" cType="1" res="2.6891367509961128e-02" rms="4.4386741518974304e-01" purity="5.9350049495697021e-01" nType="0">
          <Node pos="l" depth="2" NCoef="0" IVar="-1" Cut="0.0000000000000000e+00" cType="1" res="3.0096175614744425e-03" rms="4.0720546245574951e-01" purity="5.6814968585968018e-01" nType="-99"/>
          <Node pos="r" depth="2" NCoef="0" IVar="-1" Cut="0.0000000000000000e+00" cType="1" res="2.0997613319195807e-04" rms="4.4835710525512695e-01" purity="5.9845656156539917e-01" nType="-99"/>
        </Node>
      </Node>
    </BinaryTree>
    <BinaryTree type="DecisionTree" boostWeight="1.0000000000000000e+00" itree="626">
      <Node pos="s" depth="0" NCoef="0" IVar="4" Cut="1.1501868438720703e+02" cType="1" res="-1.9113988382741809e-03" rms="4.5254087448120117e-01" purity="5.0302070379257202e-01" nType="0">
        <Node pos="l" depth="1" NCoef="0" IVar="4" Cut="9.8867996215820312e+01" cType="1" res="-3.7211477756500244e-02" rms="4.4959086179733276e-01" purity="4.7274446487426758e-01" nType="0">
          <Node pos="l" depth="2" NCoef="0" IVar="-1" Cut="0.0000000000000000e+00" cType="1" res="-1.1603962630033493e-03" rms="4.5498853921890259e-01" purity="4.6192803978919983e-01" nType="-99"/>
          <Node pos="r" depth="2" NCoef="0" IVar="-1" Cut="0.0000000000000000e+00" cType="1" res="1.4735400909557939e-03" rms="3.9323270320892334e-01" purity="5.5440843105316162e-01" nType="-99"/>
        </Node>
        <Node pos="r" depth="1" NCoef="0" IVar="4" Cut="3.0753591918945312e+02" cType="1" res="4.3022219091653824e-02" rms="4.5230039954185486e-01" purity="5.4155951738357544e-01" nType="0">
          <Node pos="l" depth="2" NCoef="0" IVar="-1" Cut="0.0000000000000000e+00" cType="1" res="1.5912918606773019e-03" rms="4.5874518156051636e-01" purity="5.8865523338317871e-01" nType="-99"/>
          <Node pos="r" depth="2" NCoef="0" IVar="-1" Cut="0.0000000000000000e+00" cType="1" res="-7.9715735046193004e-04" rms="4.2034891247749329e-01" purity="3.7944799661636353e-01" nType="-99"/>
        </Node>
      </Node>
    </BinaryTree>
    <BinaryTree type="DecisionTree" boostWeight="1.0000000000000000e+00" itree="627">
      <Node pos="s" depth="0" NCoef="0" IVar="0" Cut="9.2998762130737305e+00" cType="1" res="1.2729448499158025e-03" rms="4.4685089588165283e-01" purity="4.9961358308792114e-01" nType="0">
        <Node pos="l" depth="1" NCoef="0" IVar="6" Cut="3.0888742065429688e+02" cType="1" res="1.1032760143280029e-02" rms="4.4154781103134155e-01" purity="4.9495339393615723e-01" nType="0">
          <Node pos="l" depth="2" NCoef="0" IVar="-1" Cut="0.0000000000000000e+00" cType="1" res="-1.4893852639943361e-03" rms="4.1783455014228821e-01" purity="3.2853373885154724e-01" nType="-99"/>
          <Node pos="r" depth="2" NCoef="0" IVar="-1" Cut="0.0000000000000000e+00" cType="1" res="7.8957644291222095e-04" rms="4.4594359397888184e-01" purity="5.4526197910308838e-01" nType="-99"/>
        </Node>
        <Node pos="r" depth="1" NCoef="0" IVar="-1" Cut="0.0000000000000000e+00" cType="1" res="-3.9958809502422810e-03" rms="4.9886417388916016e-01" purity="5.7334965467453003e-01" nType="-99"/>
      </Node>
    </BinaryTree>
    <BinaryTree type="DecisionTree" boostWeight="1.0000000000000000e+00" itree="628">
      <Node pos="s" depth="0" NCoef="0" IVar="1" Cut="1.5401173400878906e+02" cType="1" res="-1.2092334218323231e-02" rms="4.4171592593193054e-01" purity="4.7499549388885498e-01" nType="0">
        <Node pos="l" depth="1" NCoef="0" IVar="1" Cut="3.8697700500488281e+01" cType="1" res="-3.7584486417472363e-03" rms="4.4209119677543640e-01" purity="4.8450535535812378e-01" nType="0">
          <Node pos="l" depth="2" NCoef="0" IVar="-1" Cut="0.0000000000000000e+00" cType="1" res="-2.5662258267402649e-03" rms="4.1563868522644043e-01" purity="2.6637741923332214e-01" nType="-99"/>
          <Node pos="r" depth="2" NCoef="0" IVar="-1" Cut="0.0000000000000000e+00" cType="1" res="2.0614829554688185e-04" rms="4.4322824478149414e-01" purity="5.0917667150497437e-01" nType="-99"/>
        </Node>
        <Node pos="r" depth="1" NCoef="0" IVar="-1" Cut="0.0000000000000000e+00" cType="1" res="-3.8123945705592632e-03" rms="4.0418666601181030e-01" purity="2.9729431867599487e-01" nType="-99"/>
      </Node>
    </BinaryTree>
    <BinaryTree type="DecisionTree" boostWeight="1.0000000000000000e+00" itree="629">
      <Node pos="s" depth="0" NCoef="0" IVar="5" Cut="6.9020122289657593e-01" cType="1" res="6.8904678337275982e-03" rms="4.4724875688552856e-01" purity="5.0721806287765503e-01" nType="0">
        <Node pos="l" depth="1" NCoef="0" IVar="5" Cut="3.7666171789169312e-01" cType="1" res="-6.0536982491612434e-03" rms="4.4913697242736816e-01" purity="4.8857221007347107e-01" nType="0">
          <Node pos="l" depth="2" NCoef="0" IVar="-1" Cut="0.0000000000000000e+00" cType="1" res="-8.3484186325222254e-04" rms="4.4085511565208435e-01" purity="4.0601345896720886e-01" nType="-99"/>
          <Node pos="r" depth="2" NCoef="0" IVar="-1" Cut="0.0000000000000000e+00" cType="1" res="6.1647017719224095e-04" rms="4.5587152242660522e-01" purity="5.7952511310577393e-01" nType="-99"/>
        </Node>
        <Node pos="r" depth="1" NCoef="0" IVar="-1" Cut="0.0000000000000000e+00" cType="1" res="3.7956724409013987e-03" rms="3.9482271671295166e-01" purity="7.2358608245849609e-01" nType="-99"/>
      </Node>
    </BinaryTree>
    <BinaryTree type="DecisionTree" boostWeight="1.0000000000000000e+00" itree="630">
      <Node pos="s" depth="0" NCoef="0" IVar="0" Cut="7.7962169647216797e+00" cType="1" res="-2.1453440189361572e-02" rms="4.5201781392097473e-01" purity="4.7663447260856628e-01" nType="0">
        <Node pos="l" depth="1" NCoef="0" IVar="0" Cut="5.6897783279418945e+00" cType="1" res="2.9276190325617790e-03" rms="4.4245639443397522e-01" purity="4.2757996916770935e-01" nType="0">
          <Node pos="l" depth="2" NCoef="0" IVar="-1" Cut="0.0000000000000000e+00" cType="1" res="-1.3032688293606043e-03" rms="3.9425498247146606e-01" purity="2.3320245742797852e-01" nType="-99"/>
          <Node pos="r" depth="2" NCoef="0" IVar="-1" Cut="0.0000000000000000e+00" cType="1" res="6.7411363124847412e-04" rms="4.6129134297370911e-01" purity="5.2099221944808960e-01" nType="-99"/>
        </Node>
        <Node pos="r" depth="1" NCoef="0" IVar="5" Cut="5.6845414638519287e-01" cType="1" res="-8.2205548882484436e-02" rms="4.6953052282333374e-01" purity="5.9886717796325684e-01" nType="0">
          <Node pos="l" depth="2" NCoef="0" IVar="-1" Cut="0.0000000000000000e+00" cType="1" res="-1.3596053468063474e-03" rms="4.6346646547317505e-01" purity="6.1404246091842651e-01" nType="-99"/>
          <Node pos="r" depth="2" NCoef="0" IVar="-1" Cut="0.0000000000000000e+00" cType="1" res="-5.3218728862702847e-03" rms="4.7642326354980469e-01" purity="5.4164922237396240e-01" nType="-99"/>
        </Node>
      </Node>
    </BinaryTree>
    <BinaryTree type="DecisionTree" boostWeight="1.0000000000000000e+00" itree="631">
      <Node pos="s" depth="0" NCoef="0" IVar="3" Cut="2.1650309562683105e+00" cType="1" res="-1.9570922013372183e-03" rms="4.5575147867202759e-01" purity="5.1204091310501099e-01" nType="0">
        <Node pos="l" depth="1" NCoef="0" IVar="2" Cut="5.3104174137115479e-01" cType="1" res="2.6307355612516403e-02" rms="4.7349393367767334e-01" purity="6.1255979537963867e-01" nType="0">
          <Node pos="l" depth="2" NCoef="0" IVar="-1" Cut="0.0000000000000000e+00" cType="1" res="-1.8371031619608402e-03" rms="4.5867887139320374e-01" purity="6.0002130270004272e-01" nType="-99"/>
          <Node pos="r" depth="2" NCoef="0" IVar="-1" Cut="0.0000000000000000e+00" cType="1" res="1.1438812362030149e-03" rms="4.7364154458045959e-01" purity="6.1542361974716187e-01" nType="-99"/>
        </Node>
        <Node pos="r" depth="1" NCoef="0" IVar="1" Cut="9.0131507873535156e+01" cType="1" res="-3.5031016916036606e-02" rms="4.3172696232795715e-01" purity="3.9441779255867004e-01" nType="0">
          <Node pos="l" depth="2" NCoef="0" IVar="-1" Cut="0.0000000000000000e+00" cType="1" res="-2.5445998180657625e-03" rms="4.2120888829231262e-01" purity="2.8145551681518555e-01" nType="-99"/>
          <Node pos="r" depth="2" NCoef="0" IVar="-1" Cut="0.0000000000000000e+00" cType="1" res="9.7028055461123586e-04" rms="4.3002671003341675e-01" purity="5.1715809106826782e-01" nType="-99"/>
        </Node>
      </Node>
    </BinaryTree>
    <BinaryTree type="DecisionTree" boostWeight="1.0000000000000000e+00" itree="632">
      <Node pos="s" depth="0" NCoef="0" IVar="5" Cut="4.9743461608886719e-01" cType="1" res="2.1610645577311516e-02" rms="4.4912233948707581e-01" purity="5.1794064044952393e-01" nType="0">
        <Node pos="l" depth="1" NCoef="0" IVar="2" Cut="1.6662592887878418e+00" cType="1" res="4.8699665814638138e-02" rms="4.3893679976463318e-01" purity="5.0685304403305054e-01" nType="0">
          <Node pos="l" depth="2" NCoef="0" IVar="-1" Cut="0.0000000000000000e+00" cType="1" res="1.5204402152448893e-03" rms="4.4724959135055542e-01" purity="5.5171740055084229e-01" nType="-99"/>
          <Node pos="r" depth="2" NCoef="0" IVar="-1" Cut="0.0000000000000000e+00" cType="1" res="-2.1938709542155266e-03" rms="3.3730760216712952e-01" purity="1.4574629068374634e-01" nType="-99"/>
        </Node>
        <Node pos="r" depth="1" NCoef="0" IVar="2" Cut="1.0893596410751343e+00" cType="1" res="-3.5045329481363297e-02" rms="4.6463355422019958e-01" purity="5.4113006591796875e-01" nType="0">
          <Node pos="l" depth="2" NCoef="0" IVar="-1" Cut="0.0000000000000000e+00" cType="1" res="-1.7203991301357746e-03" rms="4.6201145648956299e-01" purity="5.4571795463562012e-01" nType="-99"/>
          <Node pos="r" depth="2" NCoef="0" IVar="-1" Cut="0.0000000000000000e+00" cType="1" res="1.8005231395363808e-03" rms="4.5276167988777161e-01" purity="5.2829700708389282e-01" nType="-99"/>
        </Node>
      </Node>
    </BinaryTree>
    <BinaryTree type="DecisionTree" boostWeight="1.0000000000000000e+00" itree="633">
      <Node pos="s" depth="0" NCoef="0" IVar="0" Cut="5.1584353446960449e+00" cType="1" res="-7.5258419383317232e-04" rms="4.4847008585929871e-01" purity="5.0902992486953735e-01" nType="0">
        <Node pos="l" depth="1" NCoef="0" IVar="-1" Cut="0.0000000000000000e+00" cType="1" res="-1.9787566270679235e-03" rms="3.7516781687736511e-01" purity="1.7171688377857208e-01" nType="-99"/>
        <Node pos="r" depth="1" NCoef="0" IVar="1" Cut="7.3275604248046875e+01" cType="1" res="8.0154649913311005e-03" rms="4.5463418960571289e-01" purity="5.4463088512420654e-01" nType="0">
          <Node pos="l" depth="2" NCoef="0" IVar="-1" Cut="0.0000000000000000e+00" cType="1" res="-6.3597486587241292e-04" rms="4.6549701690673828e-01" purity="4.5478135347366333e-01" nType="-99"/>
          <Node pos="r" depth="2" NCoef="0" IVar="-1" Cut="0.0000000000000000e+00" cType="1" res="1.0402697371318936e-03" rms="4.4131094217300415e-01" purity="6.3013017177581787e-01" nType="-99"/>
        </Node>
      </Node>
    </BinaryTree>
    <BinaryTree type="DecisionTree" boostWeight="1.0000000000000000e+00" itree="634">
      <Node pos="s" depth="0" NCoef="0" IVar="5" Cut="1.5482838451862335e-01" cType="1" res="-1.8465783447027206e-02" rms="4.4962328672409058e-01" purity="4.8128777742385864e-01" nType="0">
        <Node pos="l" depth="1" NCoef="0" IVar="2" Cut="1.1332137584686279e+00" cType="1" res="7.3045819997787476e-02" rms="4.0810579061508179e-01" purity="4.4527015089988708e-01" nType="0">
          <Node pos="l" depth="2" NCoef="0" IVar="-1" Cut="0.0000000000000000e+00" cType="1" res="3.5595968365669250e-03" rms="4.0407007932662964e-01" purity="6.4344942569732666e-01" nType="-99"/>
          <Node pos="r" depth="2" NCoef="0" IVar="-1" Cut="0.0000000000000000e+00" cType="1" res="3.0454827356152236e-04" rms="4.0049847960472107e-01" purity="2.9545414447784424e-01" nType="-99"/>
        </Node>
        <Node pos="r" depth="1" NCoef="0" IVar="4" Cut="2.6243151855468750e+02" cType="1" res="-3.0674954876303673e-02" rms="4.5348188281059265e-01" purity="4.8609313368797302e-01" nType="0">
          <Node pos="l" depth="2" NCoef="0" IVar="-1" Cut="0.0000000000000000e+00" cType="1" res="-9.9918444175273180e-04" rms="4.5442581176757812e-01" purity="4.7914138436317444e-01" nType="-99"/>
          <Node pos="r" depth="2" NCoef="0" IVar="-1" Cut="0.0000000000000000e+00" cType="1" res="2.1100488957017660e-03" rms="4.2907261848449707e-01" purity="5.4666632413864136e-01" nType="-99"/>
        </Node>
      </Node>
    </BinaryTree>
    <BinaryTree type="DecisionTree" boostWeight="1.0000000000000000e+00" itree="635">
      <Node pos="s" depth="0" NCoef="0" IVar="0" Cut="7.6679930686950684e+00" cType="1" res="6.2227528542280197e-03" rms="4.5269474387168884e-01" purity="5.0450307130813599e-01" nType="0">
        <Node pos="l" depth="1" NCoef="0" IVar="5" Cut="3.7204551696777344e-01" cType="1" res="-1.1561945080757141e-02" rms="4.6367385983467102e-01" purity="4.1361716389656067e-01" nType="0">
          <Node pos="l" depth="2" NCoef="0" IVar="-1" Cut="0.0000000000000000e+00" cType="1" res="-1.1850200826302171e-03" rms="4.4740504026412964e-01" purity="3.1699770689010620e-01" nType="-99"/>
          <Node pos="r" depth="2" NCoef="0" IVar="-1" Cut="0.0000000000000000e+00" cType="1" res="5.3785886848345399e-04" rms="4.7479054331779480e-01" purity="4.9997162818908691e-01" nType="-99"/>
        </Node>
        <Node pos="r" depth="1" NCoef="0" IVar="1" Cut="7.7620750427246094e+01" cType="1" res="4.8917956650257111e-02" rms="4.2213433980941772e-01" purity="7.2269022464752197e-01" nType="0">
          <Node pos="l" depth="2" NCoef="0" IVar="-1" Cut="0.0000000000000000e+00" cType="1" res="-3.6435158108361065e-04" rms="4.4766178727149963e-01" purity="6.1187005043029785e-01" nType="-99"/>
          <Node pos="r" depth="2" NCoef="0" IVar="-1" Cut="0.0000000000000000e+00" cType="1" res="2.8094707522541285e-03" rms="3.9335885643959045e-01" purity="8.1052631139755249e-01" nType="-99"/>
        </Node>
      </Node>
    </BinaryTree>
    <BinaryTree type="DecisionTree" boostWeight="1.0000000000000000e+00" itree="636">
      <Node pos="s" depth="0" NCoef="0" IVar="2" Cut="7.3365366458892822e-01" cType="1" res="-7.1462658233940601e-03" rms="4.6158239245414734e-01" purity="5.0923842191696167e-01" nType="0">
        <Node pos="l" depth="1" NCoef="0" IVar="1" Cut="6.6933891296386719e+01" cType="1" res="-5.8022480458021164e-02" rms="4.6762216091156006e-01" purity="5.8342188596725464e-01" nType="0">
          <Node pos="l" depth="2" NCoef="0" IVar="-1" Cut="0.0000000000000000e+00" cType="1" res="3.5915357875637710e-04" rms="4.5281422138214111e-01" purity="5.8586204051971436e-01" nType="-99"/>
          <Node pos="r" depth="2" NCoef="0" IVar="-1" Cut="0.0000000000000000e+00" cType="1" res="-3.2873614691197872e-03" rms="4.7052809596061707e-01" purity="5.8114415407180786e-01" nType="-99"/>
        </Node>
        <Node pos="r" depth="1" NCoef="0" IVar="5" Cut="1.5082584321498871e-01" cType="1" res="1.1013484559953213e-02" rms="4.5804086327552795e-01" purity="4.8275938630104065e-01" nType="0">
          <Node pos="l" depth="2" NCoef="0" IVar="-1" Cut="0.0000000000000000e+00" cType="1" res="2.7349677402526140e-03" rms="4.4057497382164001e-01" purity="4.9772420525550842e-01" nType="-99"/>
          <Node pos="r" depth="2" NCoef="0" IVar="-1" Cut="0.0000000000000000e+00" cType="1" res="-4.7550471208523959e-05" rms="4.5870134234428406e-01" purity="4.8078718781471252e-01" nType="-99"/>
        </Node>
      </Node>
    </BinaryTree>
    <BinaryTree type="DecisionTree" boostWeight="1.0000000000000000e+00" itree="637">
      <Node pos="s" depth="0" NCoef="0" IVar="2" Cut="1.0514127016067505e+00" cType="1" res="-1.1182725429534912e-02" rms="4.4400343298912048e-01" purity="4.9430605769157410e-01" nType="0">
        <Node pos="l" depth="1" NCoef="0" IVar="1" Cut="1.1325930786132812e+02" cType="1" res="1.7675509676337242e-02" rms="4.5164036750793457e-01" purity="6.2225550413131714e-01" nType="0">
          <Node pos="l" depth="2" NCoef="0" IVar="-1" Cut="0.0000000000000000e+00" cType="1" res="1.6959495042101480e-05" rms="4.6619164943695068e-01" purity="5.8902907371520996e-01" nType="-99"/>
          <Node pos="r" depth="2" NCoef="0" IVar="-1" Cut="0.0000000000000000e+00" cType="1" res="3.0809103045612574e-03" rms="3.4283384680747986e-01" purity="8.1045776605606079e-01" nType="-99"/>
        </Node>
        <Node pos="r" depth="1" NCoef="0" IVar="4" Cut="2.2845812988281250e+02" cType="1" res="-5.3301315754652023e-02" rms="4.2914640903472900e-01" purity="3.0756390094757080e-01" nType="0">
          <Node pos="l" depth="2" NCoef="0" IVar="-1" Cut="0.0000000000000000e+00" cType="1" res="-7.4283330468460917e-04" rms="4.5145887136459351e-01" purity="3.4096282720565796e-01" nType="-99"/>
          <Node pos="r" depth="2" NCoef="0" IVar="-1" Cut="0.0000000000000000e+00" cType="1" res="-3.3970470540225506e-03" rms="3.1695765256881714e-01" purity="1.8019899725914001e-01" nType="-99"/>
        </Node>
      </Node>
    </BinaryTree>
    <BinaryTree type="DecisionTree" boostWeight="1.0000000000000000e+00" itree="638">
      <Node pos="s" depth="0" NCoef="0" IVar="5" Cut="4.1688865423202515e-01" cType="1" res="-7.7424463815987110e-03" rms="4.5702156424522400e-01" purity="4.9473169445991516e-01" nType="0">
        <Node pos="l" depth="1" NCoef="0" IVar="5" Cut="3.5596603155136108e-01" cType="1" res="2.8124229982495308e-02" rms="4.5038717985153198e-01" purity="4.6712696552276611e-01" nType="0">
          <Node pos="l" depth="2" NCoef="0" IVar="-1" Cut="0.0000000000000000e+00" cType="1" res="2.8648943407461047e-04" rms="4.4391188025474548e-01" purity="4.3483611941337585e-01" nType="-99"/>
          <Node pos="r" depth="2" NCoef="0" IVar="-1" Cut="0.0000000000000000e+00" cType="1" res="2.4424728471785784e-03" rms="4.7189968824386597e-01" purity="6.1504590511322021e-01" nType="-99"/>
        </Node>
        <Node pos="r" depth="1" NCoef="0" IVar="1" Cut="1.2836749267578125e+02" cType="1" res="-4.6827230602502823e-02" rms="4.6097666025161743e-01" purity="5.2481323480606079e-01" nType="0">
          <Node pos="l" depth="2" NCoef="0" IVar="-1" Cut="0.0000000000000000e+00" cType="1" res="-7.5021071825176477e-04" rms="4.6412941813468933e-01" purity="5.4118150472640991e-01" nType="-99"/>
          <Node pos="r" depth="2" NCoef="0" IVar="-1" Cut="0.0000000000000000e+00" cType="1" res="-3.2805663067847490e-03" rms="4.2454385757446289e-01" purity="4.0617108345031738e-01" nType="-99"/>
        </Node>
      </Node>
    </BinaryTree>
    <BinaryTree type="DecisionTree" boostWeight="1.0000000000000000e+00" itree="639">
      <Node pos="s" depth="0" NCoef="0" IVar="0" Cut="6.4399280548095703e+00" cType="1" res="5.2032433450222015e-03" rms="4.4212725758552551e-01" purity="5.0569969415664673e-01" nType="0">
        <Node pos="l" depth="1" NCoef="0" IVar="3" Cut="1.9701875448226929e+00" cType="1" res="-2.4763464927673340e-02" rms="4.3958806991577148e-01" purity="3.1798353791236877e-01" nType="0">
          <Node pos="l" depth="2" NCoef="0" IVar="-1" Cut="0.0000000000000000e+00" cType="1" res="1.2537416769191623e-03" rms="4.6050959825515747e-01" purity="4.7023898363113403e-01" nType="-99"/>
          <Node pos="r" depth="2" NCoef="0" IVar="-1" Cut="0.0000000000000000e+00" cType="1" res="-1.0942678200080991e-03" rms="4.3082901835441589e-01" purity="2.7685496211051941e-01" nType="-99"/>
        </Node>
        <Node pos="r" depth="1" NCoef="0" IVar="4" Cut="1.7350396728515625e+02" cType="1" res="2.5754677131772041e-02" rms="4.4268921017646790e-01" purity="6.3443702459335327e-01" nType="0">
          <Node pos="l" depth="2" NCoef="0" IVar="-1" Cut="0.0000000000000000e+00" cType="1" res="1.2662882218137383e-03" rms="4.3235993385314941e-01" purity="6.7309594154357910e-01" nType="-99"/>
          <Node pos="r" depth="2" NCoef="0" IVar="-1" Cut="0.0000000000000000e+00" cType="1" res="-1.1279084719717503e-03" rms="4.6337941288948059e-01" purity="5.2404439449310303e-01" nType="-99"/>
        </Node>
      </Node>
    </BinaryTree>
    <BinaryTree type="DecisionTree" boostWeight="1.0000000000000000e+00" itree="640">
      <Node pos="s" depth="0" NCoef="0" IVar="0" Cut="5.0128169059753418e+00" cType="1" res="-1.3298559002578259e-02" rms="4.4372701644897461e-01" purity="4.9466103315353394e-01" nType="0">
        <Node pos="l" depth="1" NCoef="0" IVar="-1" Cut="0.0000000000000000e+00" cType="1" res="-3.4007248468697071e-03" rms="3.2034111022949219e-01" purity="1.0269080847501755e-01" nType="-99"/>
        <Node pos="r" depth="1" NCoef="0" IVar="3" Cut="1.9964833259582520e+00" cType="1" res="-5.0152242183685303e-03" rms="4.4934359192848206e-01" purity="5.2018284797668457e-01" nType="0">
          <Node pos="l" depth="2" NCoef="0" IVar="-1" Cut="0.0000000000000000e+00" cType="1" res="-1.3378371950238943e-03" rms="4.6703469753265381e-01" purity="5.5051285028457642e-01" nType="-99"/>
          <Node pos="r" depth="2" NCoef="0" IVar="-1" Cut="0.0000000000000000e+00" cType="1" res="3.7290321779437363e-04" rms="4.4052639603614807e-01" purity="5.0840431451797485e-01" nType="-99"/>
        </Node>
      </Node>
    </BinaryTree>
    <BinaryTree type="DecisionTree" boostWeight="1.0000000000000000e+00" itree="641">
      <Node pos="s" depth="0" NCoef="0" IVar="1" Cut="1.1279572296142578e+02" cType="1" res="3.5545241553336382e-03" rms="4.4315615296363831e-01" purity="5.0215023756027222e-01" nType="0">
        <Node pos="l" depth="1" NCoef="0" IVar="1" Cut="1.0562596893310547e+02" cType="1" res="-8.7457410991191864e-03" rms="4.4872033596038818e-01" purity="4.7691208124160767e-01" nType="0">
          <Node pos="l" depth="2" NCoef="0" IVar="-1" Cut="0.0000000000000000e+00" cType="1" res="-4.3349436600692570e-04" rms="4.4607460498809814e-01" purity="4.6532729268074036e-01" nType="-99"/>
          <Node pos="r" depth="2" NCoef="0" IVar="-1" Cut="0.0000000000000000e+00" cType="1" res="3.0304326210170984e-03" rms="4.6249547600746155e-01" purity="6.3479429483413696e-01" nType="-99"/>
        </Node>
        <Node pos="r" depth="1" NCoef="0" IVar="5" Cut="5.1655107736587524e-01" cType="1" res="4.8892084509134293e-02" rms="4.1890656948089600e-01" purity="5.9517556428909302e-01" nType="0">
          <Node pos="l" depth="2" NCoef="0" IVar="-1" Cut="0.0000000000000000e+00" cType="1" res="2.0454141777008772e-03" rms="4.1809132695198059e-01" purity="6.0629242658615112e-01" nType="-99"/>
          <Node pos="r" depth="2" NCoef="0" IVar="-1" Cut="0.0000000000000000e+00" cType="1" res="-1.2275772169232368e-03" rms="4.0507856011390686e-01" purity="5.6139880418777466e-01" nType="-99"/>
        </Node>
      </Node>
    </BinaryTree>
    <BinaryTree type="DecisionTree" boostWeight="1.0000000000000000e+00" itree="642">
      <Node pos="s" depth="0" NCoef="0" IVar="0" Cut="7.1841130256652832e+00" cType="1" res="-6.4266128465533257e-03" rms="4.4986945390701294e-01" purity="5.0199580192565918e-01" nType="0">
        <Node pos="l" depth="1" NCoef="0" IVar="5" Cut="6.3574898242950439e-01" cType="1" res="1.7087806016206741e-02" rms="4.5057806372642517e-01" purity="4.1163781285285950e-01" nType="0">
          <Node pos="l" depth="2" NCoef="0" IVar="-1" Cut="0.0000000000000000e+00" cType="1" res="8.1546913133934140e-04" rms="4.4931796193122864e-01" purity="4.1777181625366211e-01" nType="-99"/>
          <Node pos="r" depth="2" NCoef="0" IVar="-1" Cut="0.0000000000000000e+00" cType="1" res="-1.8290005391463637e-03" rms="4.4288957118988037e-01" purity="3.7690028548240662e-01" nType="-99"/>
        </Node>
        <Node pos="r" depth="1" NCoef="0" IVar="6" Cut="4.2132479858398438e+02" cType="1" res="-3.9468284696340561e-02" rms="4.4678544998168945e-01" purity="6.2896388769149780e-01" nType="0">
          <Node pos="l" depth="2" NCoef="0" IVar="-1" Cut="0.0000000000000000e+00" cType="1" res="1.1367637489456683e-04" rms="4.3268653750419617e-01" purity="6.6174769401550293e-01" nType="-99"/>
          <Node pos="r" depth="2" NCoef="0" IVar="-1" Cut="0.0000000000000000e+00" cType="1" res="-2.2873815614730120e-03" rms="4.5701053738594055e-01" purity="5.9261530637741089e-01" nType="-99"/>
        </Node>
      </Node>
    </BinaryTree>
    <BinaryTree type="DecisionTree" boostWeight="1.0000000000000000e+00" itree="643">
      <Node pos="s" depth="0" NCoef="0" IVar="1" Cut="1.5226910400390625e+02" cType="1" res="1.6106532886624336e-02" rms="4.5234432816505432e-01" purity="5.2750808000564575e-01" nType="0">
        <Node pos="l" depth="1" NCoef="0" IVar="6" Cut="3.6790316772460938e+02" cType="1" res="2.2735290229320526e-02" rms="4.5196440815925598e-01" purity="5.3023773431777954e-01" nType="0">
          <Node pos="l" depth="2" NCoef="0" IVar="-1" Cut="0.0000000000000000e+00" cType="1" res="-4.5590111403726041e-04" rms="4.5369026064872742e-01" purity="4.2902788519859314e-01" nType="-99"/>
          <Node pos="r" depth="2" NCoef="0" IVar="-1" Cut="0.0000000000000000e+00" cType="1" res="1.3018167810514569e-03" rms="4.4794243574142456e-01" purity="6.0751628875732422e-01" nType="-99"/>
        </Node>
        <Node pos="r" depth="1" NCoef="0" IVar="-1" Cut="0.0000000000000000e+00" cType="1" res="-2.0143329165875912e-03" rms="4.4555395841598511e-01" purity="4.8472756147384644e-01" nType="-99"/>
      </Node>
    </BinaryTree>
    <BinaryTree type="DecisionTree" boostWeight="1.0000000000000000e+00" itree="644">
      <Node pos="s" depth="0" NCoef="0" IVar="2" Cut="7.1303832530975342e-01" cType="1" res="5.0557279027998447e-03" rms="4.5441415905952454e-01" purity="5.1562249660491943e-01" nType="0">
        <Node pos="l" depth="1" NCoef="0" IVar="5" Cut="4.3287089467048645e-01" cType="1" res="-6.7039117217063904e-02" rms="4.6911585330963135e-01" purity="5.7625663280487061e-01" nType="0">
          <Node pos="l" depth="2" NCoef="0" IVar="-1" Cut="0.0000000000000000e+00" cType="1" res="-3.3541291486471891e-03" rms="4.7138065099716187e-01" purity="4.7527018189430237e-01" nType="-99"/>
          <Node pos="r" depth="2" NCoef="0" IVar="-1" Cut="0.0000000000000000e+00" cType="1" res="-2.8841351740993559e-04" rms="4.5956763625144958e-01" purity="6.4737194776535034e-01" nType="-99"/>
        </Node>
        <Node pos="r" depth="1" NCoef="0" IVar="0" Cut="7.8083801269531250e+00" cType="1" res="3.0618341639637947e-02" rms="4.4629776477813721e-01" purity="4.9412348866462708e-01" nType="0">
          <Node pos="l" depth="2" NCoef="0" IVar="-1" Cut="0.0000000000000000e+00" cType="1" res="1.2378623068798333e-04" rms="4.6402129530906677e-01" purity="4.0580525994300842e-01" nType="-99"/>
          <Node pos="r" depth="2" NCoef="0" IVar="-1" Cut="0.0000000000000000e+00" cType="1" res="2.6845275424420834e-03" rms="3.8081866502761841e-01" purity="7.5088137388229370e-01" nType="-99"/>
        </Node>
      </Node>
    </BinaryTree>
    <BinaryTree type="DecisionTree" boostWeight="1.0000000000000000e+00" itree="645">
      <Node pos="s" depth="0" NCoef="0" IVar="5" Cut="6.0716784000396729e-01" cType="1" res="-1.4945361763238907e-02" rms="4.4399219751358032e-01" purity="4.8211070895195007e-01" nType="0">
        <Node pos="l" depth="1" NCoef="0" IVar="3" Cut="2.2863810062408447e+00" cType="1" res="5.1134256646037102e-03" rms="4.3437168002128601e-01" purity="4.8256057500839233e-01" nType="0">
          <Node pos="l" depth="2" NCoef="0" IVar="-1" Cut="0.0000000000000000e+00" cType="1" res="1.0065193055197597e-03" rms="4.4558617472648621e-01" purity="5.9854507446289062e-01" nType="-99"/>
          <Node pos="r" depth="2" NCoef="0" IVar="-1" Cut="0.0000000000000000e+00" cType="1" res="-1.4847784768790007e-03" rms="4.0667873620986938e-01" purity="2.8826585412025452e-01" nType="-99"/>
        </Node>
        <Node pos="r" depth="1" NCoef="0" IVar="5" Cut="7.0614087581634521e-01" cType="1" res="-1.1149046570062637e-01" rms="4.7596624493598938e-01" purity="4.7994551062583923e-01" nType="0">
          <Node pos="l" depth="2" NCoef="0" IVar="-1" Cut="0.0000000000000000e+00" cType="1" res="-3.5276450216770172e-03" rms="4.6126800775527954e-01" purity="4.2777422070503235e-01" nType="-99"/>
          <Node pos="r" depth="2" NCoef="0" IVar="-1" Cut="0.0000000000000000e+00" cType="1" res="-1.0810050880536437e-03" rms="4.8926913738250732e-01" purity="5.5505084991455078e-01" nType="-99"/>
        </Node>
      </Node>
    </BinaryTree>
    <BinaryTree type="DecisionTree" boostWeight="1.0000000000000000e+00" itree="646">
      <Node pos="s" depth="0" NCoef="0" IVar="5" Cut="2.3458364605903625e-01" cType="1" res="4.9179564230144024e-03" rms="4.5015782117843628e-01" purity="5.0056105852127075e-01" nType="0">
        <Node pos="l" depth="1" NCoef="0" IVar="5" Cut="2.0396886765956879e-01" cType="1" res="9.4578020274639130e-02" rms="4.5037326216697693e-01" purity="4.7913941740989685e-01" nType="0">
          <Node pos="l" depth="2" NCoef="0" IVar="-1" Cut="0.0000000000000000e+00" cType="1" res="1.4659067383036017e-03" rms="4.3309161067008972e-01" purity="4.3967074155807495e-01" nType="-99"/>
          <Node pos="r" depth="2" NCoef="0" IVar="-1" Cut="0.0000000000000000e+00" cType="1" res="5.3022685460746288e-03" rms="4.8465481400489807e-01" purity="6.0443854331970215e-01" nType="-99"/>
        </Node>
        <Node pos="r" depth="1" NCoef="0" IVar="0" Cut="5.4202308654785156e+00" cType="1" res="-2.1267222240567207e-02" rms="4.4671240448951721e-01" purity="5.0681722164154053e-01" nType="0">
          <Node pos="l" depth="2" NCoef="0" IVar="-1" Cut="0.0000000000000000e+00" cType="1" res="-2.5541349314153194e-03" rms="3.6305713653564453e-01" purity="1.7412430047988892e-01" nType="-99"/>
          <Node pos="r" depth="2" NCoef="0" IVar="-1" Cut="0.0000000000000000e+00" cType="1" res="-1.5998032176867127e-04" rms="4.5576021075248718e-01" purity="5.5497384071350098e-01" nType="-99"/>
        </Node>
      </Node>
    </BinaryTree>
    <BinaryTree type="DecisionTree" boostWeight="1.0000000000000000e+00" itree="647">
      <Node pos="s" depth="0" NCoef="0" IVar="1" Cut="1.3588934326171875e+02" cType="1" res="-6.5406109206378460e-03" rms="4.4874438643455505e-01" purity="4.8657229542732239e-01" nType="0">
        <Node pos="l" depth="1" NCoef="0" IVar="0" Cut="7.3942227363586426e+00" cType="1" res="8.2694841548800468e-03" rms="4.4550091028213501e-01" purity="4.9635985493659973e-01" nType="0">
          <Node pos="l" depth="2" NCoef="0" IVar="-1" Cut="0.0000000000000000e+00" cType="1" res="-4.1673539089970291e-04" rms="4.6044796705245972e-01" purity="3.8350114226341248e-01" nType="-99"/>
          <Node pos="r" depth="2" NCoef="0" IVar="-1" Cut="0.0000000000000000e+00" cType="1" res="1.6667173476889729e-03" rms="4.0763890743255615e-01" purity="7.2824656963348389e-01" nType="-99"/>
        </Node>
        <Node pos="r" depth="1" NCoef="0" IVar="-1" Cut="0.0000000000000000e+00" cType="1" res="-3.4586442634463310e-03" rms="4.5488122105598450e-01" purity="3.9274594187736511e-01" nType="-99"/>
      </Node>
    </BinaryTree>
    <BinaryTree type="DecisionTree" boostWeight="1.0000000000000000e+00" itree="648">
      <Node pos="s" depth="0" NCoef="0" IVar="3" Cut="2.1828496456146240e+00" cType="1" res="7.6646786183118820e-03" rms="4.4803118705749512e-01" purity="5.1990050077438354e-01" nType="0">
        <Node pos="l" depth="1" NCoef="0" IVar="3" Cut="1.7517871856689453e+00" cType="1" res="3.1683977693319321e-02" rms="4.5047041773796082e-01" purity="6.2099415063858032e-01" nType="0">
          <Node pos="l" depth="2" NCoef="0" IVar="-1" Cut="0.0000000000000000e+00" cType="1" res="-1.9255831139162183e-03" rms="4.4190743565559387e-01" purity="4.2060884833335876e-01" nType="-99"/>
          <Node pos="r" depth="2" NCoef="0" IVar="-1" Cut="0.0000000000000000e+00" cType="1" res="1.1605711188167334e-03" rms="4.4895702600479126e-01" purity="6.4832526445388794e-01" nType="-99"/>
        </Node>
        <Node pos="r" depth="1" NCoef="0" IVar="1" Cut="7.5457008361816406e+01" cType="1" res="-2.3491911590099335e-02" rms="4.4291076064109802e-01" purity="3.8876712322235107e-01" nType="0">
          <Node pos="l" depth="2" NCoef="0" IVar="-1" Cut="0.0000000000000000e+00" cType="1" res="-1.6772315138950944e-03" rms="4.1795137524604797e-01" purity="2.7757680416107178e-01" nType="-99"/>
          <Node pos="r" depth="2" NCoef="0" IVar="-1" Cut="0.0000000000000000e+00" cType="1" res="2.2824093321105465e-05" rms="4.5350894331932068e-01" purity="4.4695818424224854e-01" nType="-99"/>
        </Node>
      </Node>
    </BinaryTree>
    <BinaryTree type="DecisionTree" boostWeight="1.0000000000000000e+00" itree="649">
      <Node pos="s" depth="0" NCoef="0" IVar="0" Cut="8.7577028274536133e+00" cType="1" res="1.0661905631422997e-02" rms="4.4393217563629150e-01" purity="5.0688934326171875e-01" nType="0">
        <Node pos="l" depth="1" NCoef="0" IVar="6" Cut="6.6126757812500000e+02" cType="1" res="-1.9258058164268732e-03" rms="4.5241567492485046e-01" purity="4.6405771374702454e-01" nType="0">
          <Node pos="l" depth="2" NCoef="0" IVar="-1" Cut="0.0000000000000000e+00" cType="1" res="-2.5306027964688838e-04" rms="4.5121771097183228e-01" purity="4.4571170210838318e-01" nType="-99"/>
          <Node pos="r" depth="2" NCoef="0" IVar="-1" Cut="0.0000000000000000e+00" cType="1" res="2.7399787213653326e-03" rms="4.5205304026603699e-01" purity="6.8281388282775879e-01" nType="-99"/>
        </Node>
        <Node pos="r" depth="1" NCoef="0" IVar="5" Cut="4.1644161939620972e-01" cType="1" res="1.0284619778394699e-01" rms="3.6294540762901306e-01" purity="8.2056057453155518e-01" nType="0">
          <Node pos="l" depth="2" NCoef="0" IVar="-1" Cut="0.0000000000000000e+00" cType="1" res="1.3120863586664200e-03" rms="4.1366973519325256e-01" purity="7.3259633779525757e-01" nType="-99"/>
          <Node pos="r" depth="2" NCoef="0" IVar="-1" Cut="0.0000000000000000e+00" cType="1" res="5.0691501237452030e-03" rms="2.8235125541687012e-01" purity="9.1993504762649536e-01" nType="-99"/>
        </Node>
      </Node>
    </BinaryTree>
    <BinaryTree type="DecisionTree" boostWeight="1.0000000000000000e+00" itree="650">
      <Node pos="s" depth="0" NCoef="0" IVar="5" Cut="6.8835842609405518e-01" cType="1" res="-1.3960868120193481e-02" rms="4.5842674374580383e-01" purity="4.9494349956512451e-01" nType="0">
        <Node pos="l" depth="1" NCoef="0" IVar="0" Cut="8.4772882461547852e+00" cType="1" res="-2.6709498837590218e-02" rms="4.5925614237785339e-01" purity="4.7273311018943787e-01" nType="0">
          <Node pos="l" depth="2" NCoef="0" IVar="-1" Cut="0.0000000000000000e+00" cType="1" res="-2.4588825181126595e-04" rms="4.5506709814071655e-01" purity="4.5036107301712036e-01" nType="-99"/>
          <Node pos="r" depth="2" NCoef="0" IVar="-1" Cut="0.0000000000000000e+00" cType="1" res="-3.4170451108366251e-03" rms="4.7271892428398132e-01" purity="6.0922807455062866e-01" nType="-99"/>
        </Node>
        <Node pos="r" depth="1" NCoef="0" IVar="-1" Cut="0.0000000000000000e+00" cType="1" res="3.5098732914775610e-03" rms="4.1651302576065063e-01" purity="7.7137392759323120e-01" nType="-99"/>
      </Node>
    </BinaryTree>
    <BinaryTree type="DecisionTree" boostWeight="1.0000000000000000e+00" itree="651">
      <Node pos="s" depth="0" NCoef="0" IVar="3" Cut="2.3262391090393066e+00" cType="1" res="-2.6581404730677605e-02" rms="4.5209735631942749e-01" purity="4.6675559878349304e-01" nType="0">
        <Node pos="l" depth="1" NCoef="0" IVar="5" Cut="6.8843221664428711e-01" cType="1" res="-4.8874821513891220e-02" rms="4.6018451452255249e-01" purity="5.2261090278625488e-01" nType="0">
          <Node pos="l" depth="2" NCoef="0" IVar="-1" Cut="0.0000000000000000e+00" cType="1" res="-8.5139233851805329e-04" rms="4.5780429244041443e-01" purity="5.2966475486755371e-01" nType="-99"/>
          <Node pos="r" depth="2" NCoef="0" IVar="-1" Cut="0.0000000000000000e+00" cType="1" res="-3.8124609272927046e-03" rms="4.6731385588645935e-01" purity="4.5800098776817322e-01" nType="-99"/>
        </Node>
        <Node pos="r" depth="1" NCoef="0" IVar="6" Cut="3.4263278198242188e+02" cType="1" res="2.5143768638372421e-02" rms="4.2830544710159302e-01" purity="3.3716005086898804e-01" nType="0">
          <Node pos="l" depth="2" NCoef="0" IVar="-1" Cut="0.0000000000000000e+00" cType="1" res="3.2306103967130184e-03" rms="4.3212899565696716e-01" purity="3.8550594449043274e-01" nType="-99"/>
          <Node pos="r" depth="2" NCoef="0" IVar="-1" Cut="0.0000000000000000e+00" cType="1" res="-3.3320276997983456e-04" rms="4.2067307233810425e-01" purity="3.1544083356857300e-01" nType="-99"/>
        </Node>
      </Node>
    </BinaryTree>
    <BinaryTree type="DecisionTree" boostWeight="1.0000000000000000e+00" itree="652">
      <Node pos="s" depth="0" NCoef="0" IVar="6" Cut="2.8576953125000000e+02" cType="1" res="5.4836678318679333e-03" rms="4.4414392113685608e-01" purity="5.1104730367660522e-01" nType="0">
        <Node pos="l" depth="1" NCoef="0" IVar="0" Cut="6.3552842140197754e+00" cType="1" res="-8.0770194530487061e-02" rms="3.7392762303352356e-01" purity="2.7231845259666443e-01" nType="0">
          <Node pos="l" depth="2" NCoef="0" IVar="-1" Cut="0.0000000000000000e+00" cType="1" res="-3.5808186512440443e-03" rms="3.1631928682327271e-01" purity="1.1095884442329407e-01" nType="-99"/>
          <Node pos="r" depth="2" NCoef="0" IVar="-1" Cut="0.0000000000000000e+00" cType="1" res="4.2594561818987131e-04" rms="4.1340881586074829e-01" purity="4.6902245283126831e-01" nType="-99"/>
        </Node>
        <Node pos="r" depth="1" NCoef="0" IVar="5" Cut="6.1622840166091919e-01" cType="1" res="1.8570488318800926e-02" rms="4.5241478085517883e-01" purity="5.4726827144622803e-01" nType="0">
          <Node pos="l" depth="2" NCoef="0" IVar="-1" Cut="0.0000000000000000e+00" cType="1" res="1.0152492177439854e-04" rms="4.5511397719383240e-01" purity="5.2009952068328857e-01" nType="-99"/>
          <Node pos="r" depth="2" NCoef="0" IVar="-1" Cut="0.0000000000000000e+00" cType="1" res="3.0564141925424337e-03" rms="4.1815057396888733e-01" purity="7.4430614709854126e-01" nType="-99"/>
        </Node>
      </Node>
    </BinaryTree>
    <BinaryTree type="DecisionTree" boostWeight="1.0000000000000000e+00" itree="653">
      <Node pos="s" depth="0" NCoef="0" IVar="5" Cut="2.2876012325286865e-01" cType="1" res="-4.1146099567413330e-02" rms="4.5964965224266052e-01" purity="4.6506747603416443e-01" nType="0">
        <Node pos="l" depth="1" NCoef="0" IVar="2" Cut="1.1216337680816650e+00" cType="1" res="1.2120747938752174e-02" rms="4.5223253965377808e-01" purity="3.9847832918167114e-01" nType="0">
          <Node pos="l" depth="2" NCoef="0" IVar="-1" Cut="0.0000000000000000e+00" cType="1" res="-1.0686434106901288e-03" rms="4.4750821590423584e-01" purity="4.7136476635932922e-01" nType="-99"/>
          <Node pos="r" depth="2" NCoef="0" IVar="-1" Cut="0.0000000000000000e+00" cType="1" res="1.6196834621950984e-03" rms="4.4991499185562134e-01" purity="3.4059056639671326e-01" nType="-99"/>
        </Node>
        <Node pos="r" depth="1" NCoef="0" IVar="0" Cut="8.4044675827026367e+00" cType="1" res="-5.7724002748727798e-02" rms="4.6067872643470764e-01" purity="4.8579159379005432e-01" nType="0">
          <Node pos="l" depth="2" NCoef="0" IVar="-1" Cut="0.0000000000000000e+00" cType="1" res="-9.6857355674728751e-04" rms="4.6075075864791870e-01" purity="4.6014714241027832e-01" nType="-99"/>
          <Node pos="r" depth="2" NCoef="0" IVar="-1" Cut="0.0000000000000000e+00" cType="1" res="-3.7043595220893621e-03" rms="4.5353224873542786e-01" purity="6.1152744293212891e-01" nType="-99"/>
        </Node>
      </Node>
    </BinaryTree>
    <BinaryTree type="DecisionTree" boostWeight="1.0000000000000000e+00" itree="654">
      <Node pos="s" depth="0" NCoef="0" IVar="5" Cut="7.3072665929794312e-01" cType="1" res="-8.4824291989207268e-03" rms="4.4604682922363281e-01" purity="4.9117776751518250e-01" nType="0">
        <Node pos="l" depth="1" NCoef="0" IVar="0" Cut="6.5079312324523926e+00" cType="1" res="-1.9423699006438255e-02" rms="4.4754523038864136e-01" purity="4.7346463799476624e-01" nType="0">
          <Node pos="l" depth="2" NCoef="0" IVar="-1" Cut="0.0000000000000000e+00" cType="1" res="-1.1227452196180820e-03" rms="4.3152529001235962e-01" purity="3.0429607629776001e-01" nType="-99"/>
          <Node pos="r" depth="2" NCoef="0" IVar="-1" Cut="0.0000000000000000e+00" cType="1" res="9.0681511210277677e-05" rms="4.5742845535278320e-01" purity="5.9628564119338989e-01" nType="-99"/>
        </Node>
        <Node pos="r" depth="1" NCoef="0" IVar="-1" Cut="0.0000000000000000e+00" cType="1" res="4.4449265114963055e-03" rms="3.7192592024803162e-01" purity="7.9623734951019287e-01" nType="-99"/>
      </Node>
    </BinaryTree>
    <BinaryTree type="DecisionTree" boostWeight="1.0000000000000000e+00" itree="655">
      <Node pos="s" depth="0" NCoef="0" IVar="6" Cut="4.6419198608398438e+02" cType="1" res="-1.2531466782093048e-02" rms="4.5203176140785217e-01" purity="4.9669647216796875e-01" nType="0">
        <Node pos="l" depth="1" NCoef="0" IVar="1" Cut="6.7071823120117188e+01" cType="1" res="-3.5973306745290756e-02" rms="4.5265248417854309e-01" purity="4.4206374883651733e-01" nType="0">
          <Node pos="l" depth="2" NCoef="0" IVar="-1" Cut="0.0000000000000000e+00" cType="1" res="2.7136795688420534e-04" rms="4.5575317740440369e-01" purity="4.5894527435302734e-01" nType="-99"/>
          <Node pos="r" depth="2" NCoef="0" IVar="-1" Cut="0.0000000000000000e+00" cType="1" res="-1.9132816232740879e-03" rms="4.4407695531845093e-01" purity="4.2473259568214417e-01" nType="-99"/>
        </Node>
        <Node pos="r" depth="1" NCoef="0" IVar="0" Cut="6.3445734977722168e+00" cType="1" res="3.8389362394809723e-02" rms="4.4645974040031433e-01" purity="6.1537069082260132e-01" nType="0">
          <Node pos="l" depth="2" NCoef="0" IVar="-1" Cut="0.0000000000000000e+00" cType="1" res="2.7009546756744385e-03" rms="4.7234895825386047e-01" purity="5.2394944429397583e-01" nType="-99"/>
          <Node pos="r" depth="2" NCoef="0" IVar="-1" Cut="0.0000000000000000e+00" cType="1" res="5.3883690270595253e-05" rms="4.2957967519760132e-01" purity="6.5565609931945801e-01" nType="-99"/>
        </Node>
      </Node>
    </BinaryTree>
    <BinaryTree type="DecisionTree" boostWeight="1.0000000000000000e+00" itree="656">
      <Node pos="s" depth="0" NCoef="0" IVar="0" Cut="8.4509468078613281e+00" cType="1" res="-5.6290789507329464e-03" rms="4.4440904259681702e-01" purity="4.9513724446296692e-01" nType="0">
        <Node pos="l" depth="1" NCoef="0" IVar="1" Cut="5.0087524414062500e+01" cType="1" res="-2.2153224796056747e-02" rms="4.5581573247909546e-01" purity="4.4196838140487671e-01" nType="0">
          <Node pos="l" depth="2" NCoef="0" IVar="-1" Cut="0.0000000000000000e+00" cType="1" res="-1.9110586727038026e-03" rms="4.1794756054878235e-01" purity="3.0540689826011658e-01" nType="-99"/>
          <Node pos="r" depth="2" NCoef="0" IVar="-1" Cut="0.0000000000000000e+00" cType="1" res="-3.2057789212558419e-05" rms="4.6568548679351807e-01" purity="4.8670250177383423e-01" nType="-99"/>
        </Node>
        <Node pos="r" depth="1" NCoef="0" IVar="5" Cut="4.4380182027816772e-01" cType="1" res="9.4074636697769165e-02" rms="3.5206845402717590e-01" purity="8.1594854593276978e-01" nType="0">
          <Node pos="l" depth="2" NCoef="0" IVar="-1" Cut="0.0000000000000000e+00" cType="1" res="3.3890455961227417e-03" rms="3.3273649215698242e-01" purity="8.2575988769531250e-01" nType="-99"/>
          <Node pos="r" depth="2" NCoef="0" IVar="-1" Cut="0.0000000000000000e+00" cType="1" res="1.4542669523507357e-03" rms="3.7516492605209351e-01" purity="8.0077993869781494e-01" nType="-99"/>
        </Node>
      </Node>
    </BinaryTree>
    <BinaryTree type="DecisionTree" boostWeight="1.0000000000000000e+00" itree="657">
      <Node pos="s" depth="0" NCoef="0" IVar="2" Cut="1.4703432321548462e+00" cType="1" res="2.2294239606708288e-03" rms="4.4552466273307800e-01" purity="5.0169306993484497e-01" nType="0">
        <Node pos="l" depth="1" NCoef="0" IVar="5" Cut="1.6356252133846283e-01" cType="1" res="1.6939319670200348e-02" rms="4.5903229713439941e-01" purity="5.6179636716842651e-01" nType="0">
          <Node pos="l" depth="2" NCoef="0" IVar="-1" Cut="0.0000000000000000e+00" cType="1" res="3.4975998569279909e-03" rms="4.5477530360221863e-01" purity="5.9593528509140015e-01" nType="-99"/>
          <Node pos="r" depth="2" NCoef="0" IVar="-1" Cut="0.0000000000000000e+00" cType="1" res="1.0411167022539303e-04" rms="4.5742923021316528e-01" purity="5.5866825580596924e-01" nType="-99"/>
        </Node>
        <Node pos="r" depth="1" NCoef="0" IVar="4" Cut="2.2589869689941406e+02" cType="1" res="-7.9677879810333252e-02" rms="3.5006332397460938e-01" purity="1.6702745854854584e-01" nType="0">
          <Node pos="l" depth="2" NCoef="0" IVar="-1" Cut="0.0000000000000000e+00" cType="1" res="-3.7266558501869440e-03" rms="3.0708575248718262e-01" purity="1.1537036299705505e-01" nType="-99"/>
          <Node pos="r" depth="2" NCoef="0" IVar="-1" Cut="0.0000000000000000e+00" cType="1" res="8.9793937513604760e-04" rms="3.9077210426330566e-01" purity="2.5666204094886780e-01" nType="-99"/>
        </Node>
      </Node>
    </BinaryTree>
    <BinaryTree type="DecisionTree" boostWeight="1.0000000000000000e+00" itree="658">
      <Node pos="s" depth="0" NCoef="0" IVar="1" Cut="1.5518646240234375e+02" cType="1" res="-4.9718357622623444e-03" rms="4.4406107068061829e-01" purity="5.0236868858337402e-01" nType="0">
        <Node pos="l" depth="1" NCoef="0" IVar="0" Cut="7.1516652107238770e+00" cType="1" res="2.3034070618450642e-03" rms="4.4050586223602295e-01" purity="5.0745540857315063e-01" nType="0">
          <Node pos="l" depth="2" NCoef="0" IVar="-1" Cut="0.0000000000000000e+00" cType="1" res="-5.1813031313940883e-04" rms="4.5192340016365051e-01" purity="3.6737868189811707e-01" nType="-99"/>
          <Node pos="r" depth="2" NCoef="0" IVar="-1" Cut="0.0000000000000000e+00" cType="1" res="1.0592229664325714e-03" rms="4.2087644338607788e-01" purity="7.0841532945632935e-01" nType="-99"/>
        </Node>
        <Node pos="r" depth="1" NCoef="0" IVar="-1" Cut="0.0000000000000000e+00" cType="1" res="-3.1518051400780678e-03" rms="4.8518866300582886e-01" purity="4.1202613711357117e-01" nType="-99"/>
      </Node>
    </BinaryTree>
    <BinaryTree type="DecisionTree" boostWeight="1.0000000000000000e+00" itree="659">
      <Node pos="s" depth="0" NCoef="0" IVar="3" Cut="1.7557100057601929e+00" cType="1" res="-1.9546346738934517e-02" rms="4.5592272281646729e-01" purity="4.8410812020301819e-01" nType="0">
        <Node pos="l" depth="1" NCoef="0" IVar="-1" Cut="0.0000000000000000e+00" cType="1" res="-2.9706740751862526e-03" rms="5.0176405906677246e-01" purity="3.9607536792755127e-01" nType="-99"/>
        <Node pos="r" depth="1" NCoef="0" IVar="6" Cut="5.3035046386718750e+02" cType="1" res="-9.6695106476545334e-03" rms="4.5046111941337585e-01" purity="4.9151369929313660e-01" nType="0">
          <Node pos="l" depth="2" NCoef="0" IVar="-1" Cut="0.0000000000000000e+00" cType="1" res="-7.0744892582297325e-04" rms="4.5107766985893250e-01" purity="4.4376564025878906e-01" nType="-99"/>
          <Node pos="r" depth="2" NCoef="0" IVar="-1" Cut="0.0000000000000000e+00" cType="1" res="1.7711251275613904e-03" rms="4.3846130371093750e-01" purity="6.7800414562225342e-01" nType="-99"/>
        </Node>
      </Node>
    </BinaryTree>
    <BinaryTree type="DecisionTree" boostWeight="1.0000000000000000e+00" itree="660">
      <Node pos="s" depth="0" NCoef="0" IVar="3" Cut="1.7573727369308472e+00" cType="1" res="-1.5506237745285034e-02" rms="4.5335689187049866e-01" purity="4.9402225017547607e-01" nType="0">
        <Node pos="l" depth="1" NCoef="0" IVar="-1" Cut="0.0000000000000000e+00" cType="1" res="-2.7698308695107698e-03" rms="4.4948950409889221e-01" purity="4.2963674664497375e-01" nType="-99"/>
        <Node pos="r" depth="1" NCoef="0" IVar="3" Cut="2.2122192382812500e+00" cType="1" res="-7.7842301689088345e-03" rms="4.5265758037567139e-01" purity="4.9867025017738342e-01" nType="0">
          <Node pos="l" depth="2" NCoef="0" IVar="-1" Cut="0.0000000000000000e+00" cType="1" res="5.6037248577922583e-04" rms="4.5059040188789368e-01" purity="6.1904937028884888e-01" nType="-99"/>
          <Node pos="r" depth="2" NCoef="0" IVar="-1" Cut="0.0000000000000000e+00" cType="1" res="-1.0886264499276876e-03" rms="4.5223146677017212e-01" purity="3.5503748059272766e-01" nType="-99"/>
        </Node>
      </Node>
    </BinaryTree>
    <BinaryTree type="DecisionTree" boostWeight="1.0000000000000000e+00" itree="661">
      <Node pos="s" depth="0" NCoef="0" IVar="1" Cut="4.2909584045410156e+01" cType="1" res="-5.0508351996541023e-03" rms="4.5817068219184875e-01" purity="5.0026190280914307e-01" nType="0">
        <Node pos="l" depth="1" NCoef="0" IVar="0" Cut="6.2250781059265137e+00" cType="1" res="-7.9333581030368805e-02" rms="4.4553834199905396e-01" purity="3.1070360541343689e-01" nType="0">
          <Node pos="l" depth="2" NCoef="0" IVar="-1" Cut="0.0000000000000000e+00" cType="1" res="1.2871461221948266e-03" rms="4.4434726238250732e-01" purity="3.1584039330482483e-01" nType="-99"/>
          <Node pos="r" depth="2" NCoef="0" IVar="-1" Cut="0.0000000000000000e+00" cType="1" res="-3.4571988508105278e-03" rms="4.2376264929771423e-01" purity="3.0728271603584290e-01" nType="-99"/>
        </Node>
        <Node pos="r" depth="1" NCoef="0" IVar="5" Cut="6.3998788595199585e-01" cType="1" res="7.7897654846310616e-03" rms="4.5910242199897766e-01" purity="5.3302913904190063e-01" nType="0">
          <Node pos="l" depth="2" NCoef="0" IVar="-1" Cut="0.0000000000000000e+00" cType="1" res="-1.1665657802950591e-04" rms="4.5913383364677429e-01" purity="5.0884890556335449e-01" nType="-99"/>
          <Node pos="r" depth="2" NCoef="0" IVar="-1" Cut="0.0000000000000000e+00" cType="1" res="2.3320929612964392e-03" rms="4.4843873381614685e-01" purity="7.0531773567199707e-01" nType="-99"/>
        </Node>
      </Node>
    </BinaryTree>
    <BinaryTree type="DecisionTree" boostWeight="1.0000000000000000e+00" itree="662">
      <Node pos="s" depth="0" NCoef="0" IVar="3" Cut="2.0956821441650391e+00" cType="1" res="1.2654721736907959e-02" rms="4.4516342878341675e-01" purity="5.0840878486633301e-01" nType="0">
        <Node pos="l" depth="1" NCoef="0" IVar="5" Cut="4.2389148473739624e-01" cType="1" res="5.6794755160808563e-02" rms="4.4698441028594971e-01" purity="6.6566562652587891e-01" nType="0">
          <Node pos="l" depth="2" NCoef="0" IVar="-1" Cut="0.0000000000000000e+00" cType="1" res="2.9444943647831678e-03" rms="4.2877227067947388e-01" purity="7.0550799369812012e-01" nType="-99"/>
          <Node pos="r" depth="2" NCoef="0" IVar="-1" Cut="0.0000000000000000e+00" cType="1" res="-2.9410445131361485e-04" rms="4.5392778515815735e-01" purity="6.2611037492752075e-01" nType="-99"/>
        </Node>
        <Node pos="r" depth="1" NCoef="0" IVar="2" Cut="1.3118178844451904e+00" cType="1" res="-1.7837610095739365e-02" rms="4.4133037328720093e-01" purity="3.9977443218231201e-01" nType="0">
          <Node pos="l" depth="2" NCoef="0" IVar="-1" Cut="0.0000000000000000e+00" cType="1" res="-8.5055938689038157e-04" rms="4.5244073867797852e-01" purity="4.5720767974853516e-01" nType="-99"/>
          <Node pos="r" depth="2" NCoef="0" IVar="-1" Cut="0.0000000000000000e+00" cType="1" res="4.8448253073729575e-04" rms="4.1901591420173645e-01" purity="3.0090022087097168e-01" nType="-99"/>
        </Node>
      </Node>
    </BinaryTree>
    <BinaryTree type="DecisionTree" boostWeight="1.0000000000000000e+00" itree="663">
      <Node pos="s" depth="0" NCoef="0" IVar="5" Cut="2.8263011574745178e-01" cType="1" res="-1.3111567124724388e-02" rms="4.5268312096595764e-01" purity="4.9080225825309753e-01" nType="0">
        <Node pos="l" depth="1" NCoef="0" IVar="0" Cut="7.0418195724487305e+00" cType="1" res="-6.3987828791141510e-02" rms="4.3365296721458435e-01" purity="3.4249839186668396e-01" nType="0">
          <Node pos="l" depth="2" NCoef="0" IVar="-1" Cut="0.0000000000000000e+00" cType="1" res="-7.0337398210540414e-04" rms="4.1397333145141602e-01" purity="2.8525981307029724e-01" nType="-99"/>
          <Node pos="r" depth="2" NCoef="0" IVar="-1" Cut="0.0000000000000000e+00" cType="1" res="-2.8308962937444448e-03" rms="4.5737296342849731e-01" purity="4.3271404504776001e-01" nType="-99"/>
        </Node>
        <Node pos="r" depth="1" NCoef="0" IVar="3" Cut="1.8428348302841187e+00" cType="1" res="8.7965810671448708e-03" rms="4.5890161395072937e-01" purity="5.5466425418853760e-01" nType="0">
          <Node pos="l" depth="2" NCoef="0" IVar="-1" Cut="0.0000000000000000e+00" cType="1" res="2.3292428813874722e-03" rms="4.5387056469917297e-01" purity="6.2413763999938965e-01" nType="-99"/>
          <Node pos="r" depth="2" NCoef="0" IVar="-1" Cut="0.0000000000000000e+00" cType="1" res="-6.2470891862176359e-05" rms="4.5816358923912048e-01" purity="5.4633802175521851e-01" nType="-99"/>
        </Node>
      </Node>
    </BinaryTree>
    <BinaryTree type="DecisionTree" boostWeight="1.0000000000000000e+00" itree="664">
      <Node pos="s" depth="0" NCoef="0" IVar="5" Cut="2.2745326161384583e-01" cType="1" res="8.4820454940199852e-03" rms="4.5303252339363098e-01" purity="4.9244850873947144e-01" nType="0">
        <Node pos="l" depth="1" NCoef="0" IVar="5" Cut="1.8048340082168579e-01" cType="1" res="-3.8133922964334488e-02" rms="4.2096519470214844e-01" purity="3.4044393897056580e-01" nType="0">
          <Node pos="l" depth="2" NCoef="0" IVar="-1" Cut="0.0000000000000000e+00" cType="1" res="-1.6873148269951344e-03" rms="4.1768971085548401e-01" purity="2.8142797946929932e-01" nType="-99"/>
          <Node pos="r" depth="2" NCoef="0" IVar="-1" Cut="0.0000000000000000e+00" cType="1" res="6.0862302780151367e-04" rms="4.1968682408332825e-01" purity="4.4794464111328125e-01" nType="-99"/>
        </Node>
        <Node pos="r" depth="1" NCoef="0" IVar="2" Cut="1.2339437007904053e+00" cType="1" res="2.1320790052413940e-02" rms="4.6064534783363342e-01" purity="5.3431290388107300e-01" nType="0">
          <Node pos="l" depth="2" NCoef="0" IVar="-1" Cut="0.0000000000000000e+00" cType="1" res="1.8326116332900710e-05" rms="4.5812097191810608e-01" purity="5.7725250720977783e-01" nType="-99"/>
          <Node pos="r" depth="2" NCoef="0" IVar="-1" Cut="0.0000000000000000e+00" cType="1" res="2.0014881156384945e-03" rms="4.6273615956306458e-01" purity="4.0766471624374390e-01" nType="-99"/>
        </Node>
      </Node>
    </BinaryTree>
    <BinaryTree type="DecisionTree" boostWeight="1.0000000000000000e+00" itree="665">
      <Node pos="s" depth="0" NCoef="0" IVar="1" Cut="1.4972915649414062e+02" cType="1" res="-9.1911656782031059e-03" rms="4.5425200462341309e-01" purity="4.8804065585136414e-01" nType="0">
        <Node pos="l" depth="1" NCoef="0" IVar="4" Cut="3.0580169677734375e+02" cType="1" res="1.1372673325240612e-03" rms="4.5250061154365540e-01" purity="4.9775737524032593e-01" nType="0">
          <Node pos="l" depth="2" NCoef="0" IVar="-1" Cut="0.0000000000000000e+00" cType="1" res="2.1958295837976038e-04" rms="4.5662423968315125e-01" purity="5.1126021146774292e-01" nType="-99"/>
          <Node pos="r" depth="2" NCoef="0" IVar="-1" Cut="0.0000000000000000e+00" cType="1" res="-2.2847624495625496e-03" rms="3.8160282373428345e-01" purity="3.2676506042480469e-01" nType="-99"/>
        </Node>
        <Node pos="r" depth="1" NCoef="0" IVar="-1" Cut="0.0000000000000000e+00" cType="1" res="-4.0925834327936172e-03" rms="4.5036453008651733e-01" purity="3.3302664756774902e-01" nType="-99"/>
      </Node>
    </BinaryTree>
    <BinaryTree type="DecisionTree" boostWeight="1.0000000000000000e+00" itree="666">
      <Node pos="s" depth="0" NCoef="0" IVar="1" Cut="6.3816928863525391e+01" cType="1" res="-1.6715452075004578e-02" rms="4.5997595787048340e-01" purity="4.8052182793617249e-01" nType="0">
        <Node pos="l" depth="1" NCoef="0" IVar="4" Cut="1.3165702819824219e+02" cType="1" res="3.6211833357810974e-02" rms="4.6591982245445251e-01" purity="4.9020090699195862e-01" nType="0">
          <Node pos="l" depth="2" NCoef="0" IVar="-1" Cut="0.0000000000000000e+00" cType="1" res="1.6806811327114701e-03" rms="4.7054946422576904e-01" purity="5.3604871034622192e-01" nType="-99"/>
          <Node pos="r" depth="2" NCoef="0" IVar="-1" Cut="0.0000000000000000e+00" cType="1" res="-1.2925765477120876e-03" rms="4.4081473350524902e-01" purity="3.7641245126724243e-01" nType="-99"/>
        </Node>
        <Node pos="r" depth="1" NCoef="0" IVar="1" Cut="1.0166301727294922e+02" cType="1" res="-5.1757782697677612e-02" rms="4.5260521769523621e-01" purity="4.7411349415779114e-01" nType="0">
          <Node pos="l" depth="2" NCoef="0" IVar="-1" Cut="0.0000000000000000e+00" cType="1" res="-2.2979329805821180e-03" rms="4.5933082699775696e-01" purity="4.0622603893280029e-01" nType="-99"/>
          <Node pos="r" depth="2" NCoef="0" IVar="-1" Cut="0.0000000000000000e+00" cType="1" res="5.6031614803941920e-05" rms="4.3883645534515381e-01" purity="5.4786854982376099e-01" nType="-99"/>
        </Node>
      </Node>
    </BinaryTree>
    <BinaryTree type="DecisionTree" boostWeight="1.0000000000000000e+00" itree="667">
      <Node pos="s" depth="0" NCoef="0" IVar="0" Cut="7.7841300964355469e+00" cType="1" res="-1.7150383442640305e-02" rms="4.6614044904708862e-01" purity="4.8935958743095398e-01" nType="0">
        <Node pos="l" depth="1" NCoef="0" IVar="5" Cut="6.3326323032379150e-01" cType="1" res="6.6562416031956673e-03" rms="4.6565607190132141e-01" purity="4.4291394948959351e-01" nType="0">
          <Node pos="l" depth="2" NCoef="0" IVar="-1" Cut="0.0000000000000000e+00" cType="1" res="4.6109830145724118e-04" rms="4.6364077925682068e-01" purity="4.4255197048187256e-01" nType="-99"/>
          <Node pos="r" depth="2" NCoef="0" IVar="-1" Cut="0.0000000000000000e+00" cType="1" res="-1.7291954718530178e-03" rms="4.6870377659797668e-01" purity="4.4522196054458618e-01" nType="-99"/>
        </Node>
        <Node pos="r" depth="1" NCoef="0" IVar="1" Cut="5.1881790161132812e+01" cType="1" res="-8.1530652940273285e-02" rms="4.6133500337600708e-01" purity="6.1496245861053467e-01" nType="0">
          <Node pos="l" depth="2" NCoef="0" IVar="-1" Cut="0.0000000000000000e+00" cType="1" res="-4.4666058383882046e-03" rms="4.8439970612525940e-01" purity="4.2570200562477112e-01" nType="-99"/>
          <Node pos="r" depth="2" NCoef="0" IVar="-1" Cut="0.0000000000000000e+00" cType="1" res="-1.1577346595004201e-03" rms="4.4582471251487732e-01" purity="6.8244409561157227e-01" nType="-99"/>
        </Node>
      </Node>
    </BinaryTree>
    <BinaryTree type="DecisionTree" boostWeight="1.0000000000000000e+00" itree="668">
      <Node pos="s" depth="0" NCoef="0" IVar="6" Cut="4.7528765869140625e+02" cType="1" res="-6.6305105574429035e-03" rms="4.5324924588203430e-01" purity="4.9575987458229065e-01" nType="0">
        <Node pos="l" depth="1" NCoef="0" IVar="4" Cut="1.2056856536865234e+02" cType="1" res="1.4997595921158791e-02" rms="4.5263364911079407e-01" purity="4.8365613818168640e-01" nType="0">
          <Node pos="l" depth="2" NCoef="0" IVar="-1" Cut="0.0000000000000000e+00" cType="1" res="-5.7057698722928762e-04" rms="4.4903820753097534e-01" purity="4.6428737044334412e-01" nType="-99"/>
          <Node pos="r" depth="2" NCoef="0" IVar="-1" Cut="0.0000000000000000e+00" cType="1" res="1.8226845422759652e-03" rms="4.5114335417747498e-01" purity="5.1349759101867676e-01" nType="-99"/>
        </Node>
        <Node pos="r" depth="1" NCoef="0" IVar="0" Cut="6.7233505249023438e+00" cType="1" res="-5.6885063648223877e-02" rms="4.5068636536598206e-01" purity="5.2388393878936768e-01" nType="0">
          <Node pos="l" depth="2" NCoef="0" IVar="-1" Cut="0.0000000000000000e+00" cType="1" res="-2.3729712702333927e-03" rms="4.4375097751617432e-01" purity="3.2532814145088196e-01" nType="-99"/>
          <Node pos="r" depth="2" NCoef="0" IVar="-1" Cut="0.0000000000000000e+00" cType="1" res="-5.4840225493535399e-04" rms="4.5153671503067017e-01" purity="6.5275180339813232e-01" nType="-99"/>
        </Node>
      </Node>
    </BinaryTree>
    <BinaryTree type="DecisionTree" boostWeight="1.0000000000000000e+00" itree="669">
      <Node pos="s" depth="0" NCoef="0" IVar="3" Cut="2.0576200485229492e+00" cType="1" res="-6.9856280460953712e-03" rms="4.5342063903808594e-01" purity="4.8968726396560669e-01" nType="0">
        <Node pos="l" depth="1" NCoef="0" IVar="4" Cut="1.1948007965087891e+02" cType="1" res="-4.7885123640298843e-02" rms="4.6013942360877991e-01" purity="5.2747184038162231e-01" nType="0">
          <Node pos="l" depth="2" NCoef="0" IVar="-1" Cut="0.0000000000000000e+00" cType="1" res="-1.2864662858191878e-04" rms="4.5877262949943542e-01" purity="5.7092636823654175e-01" nType="-99"/>
          <Node pos="r" depth="2" NCoef="0" IVar="-1" Cut="0.0000000000000000e+00" cType="1" res="-2.7993235271424055e-03" rms="4.5223903656005859e-01" purity="4.4651055335998535e-01" nType="-99"/>
        </Node>
        <Node pos="r" depth="1" NCoef="0" IVar="3" Cut="2.1663289070129395e+00" cType="1" res="1.5226298943161964e-02" rms="4.4816848635673523e-01" purity="4.6916696429252625e-01" nType="0">
          <Node pos="l" depth="2" NCoef="0" IVar="-1" Cut="0.0000000000000000e+00" cType="1" res="2.3791491985321045e-03" rms="4.2584624886512756e-01" purity="6.4555054903030396e-01" nType="-99"/>
          <Node pos="r" depth="2" NCoef="0" IVar="-1" Cut="0.0000000000000000e+00" cType="1" res="-3.4323392901569605e-04" rms="4.5135700702667236e-01" purity="4.1067323088645935e-01" nType="-99"/>
        </Node>
      </Node>
    </BinaryTree>
    <BinaryTree type="DecisionTree" boostWeight="1.0000000000000000e+00" itree="670">
      <Node pos="s" depth="0" NCoef="0" IVar="0" Cut="4.9428620338439941e+00" cType="1" res="2.0422725006937981e-02" rms="4.4984695315361023e-01" purity="5.2928763628005981e-01" nType="0">
        <Node pos="l" depth="1" NCoef="0" IVar="-1" Cut="0.0000000000000000e+00" cType="1" res="-2.1166370715945959e-03" rms="3.7122890353202820e-01" purity="1.7703513801097870e-01" nType="-99"/>
        <Node pos="r" depth="1" NCoef="0" IVar="0" Cut="5.9485712051391602e+00" cType="1" res="2.9110180214047432e-02" rms="4.5423090457916260e-01" purity="5.5663299560546875e-01" nType="0">
          <Node pos="l" depth="2" NCoef="0" IVar="-1" Cut="0.0000000000000000e+00" cType="1" res="3.1559476628899574e-03" rms="4.5864805579185486e-01" purity="4.8099216818809509e-01" nType="-99"/>
          <Node pos="r" depth="2" NCoef="0" IVar="-1" Cut="0.0000000000000000e+00" cType="1" res="1.2657415936701000e-04" rms="4.4978946447372437e-01" purity="5.7343405485153198e-01" nType="-99"/>
        </Node>
      </Node>
    </BinaryTree>
    <BinaryTree type="DecisionTree" boostWeight="1.0000000000000000e+00" itree="671">
      <Node pos="s" depth="0" NCoef="0" IVar="6" Cut="4.6915103149414062e+02" cType="1" res="-2.5349244475364685e-02" rms="4.4211483001708984e-01" purity="4.6383106708526611e-01" nType="0">
        <Node pos="l" depth="1" NCoef="0" IVar="5" Cut="6.2967497110366821e-01" cType="1" res="-3.3662200439721346e-03" rms="4.3755280971527100e-01" purity="4.5184341073036194e-01" nType="0">
          <Node pos="l" depth="2" NCoef="0" IVar="-1" Cut="0.0000000000000000e+00" cType="1" res="4.0390013600699604e-04" rms="4.2849045991897583e-01" purity="4.4772514700889587e-01" nType="-99"/>
          <Node pos="r" depth="2" NCoef="0" IVar="-1" Cut="0.0000000000000000e+00" cType="1" res="-2.0613796077668667e-03" rms="4.6406194567680359e-01" purity="4.6917140483856201e-01" nType="-99"/>
        </Node>
        <Node pos="r" depth="1" NCoef="0" IVar="0" Cut="5.7805113792419434e+00" cType="1" res="-7.3896996676921844e-02" rms="4.4822308421134949e-01" purity="4.9030476808547974e-01" nType="0">
          <Node pos="l" depth="2" NCoef="0" IVar="-1" Cut="0.0000000000000000e+00" cType="1" res="6.4644397934898734e-04" rms="4.5893451571464539e-01" purity="3.9446634054183960e-01" nType="-99"/>
          <Node pos="r" depth="2" NCoef="0" IVar="-1" Cut="0.0000000000000000e+00" cType="1" res="-2.4149147793650627e-03" rms="4.4189038872718811e-01" purity="5.1396590471267700e-01" nType="-99"/>
        </Node>
      </Node>
    </BinaryTree>
    <BinaryTree type="DecisionTree" boostWeight="1.0000000000000000e+00" itree="672">
      <Node pos="s" depth="0" NCoef="0" IVar="2" Cut="1.4789776802062988e+00" cType="1" res="8.2864589057862759e-04" rms="4.3134650588035583e-01" purity="4.8788830637931824e-01" nType="0">
        <Node pos="l" depth="1" NCoef="0" IVar="0" Cut="6.1516809463500977e+00" cType="1" res="1.7309430986642838e-02" rms="4.4144392013549805e-01" purity="5.4668396711349487e-01" nType="0">
          <Node pos="l" depth="2" NCoef="0" IVar="-1" Cut="0.0000000000000000e+00" cType="1" res="-1.0208204621449113e-03" rms="4.4558987021446228e-01" purity="3.0938538908958435e-01" nType="-99"/>
          <Node pos="r" depth="2" NCoef="0" IVar="-1" Cut="0.0000000000000000e+00" cType="1" res="1.2591785052791238e-03" rms="4.3518760800361633e-01" purity="6.7134582996368408e-01" nType="-99"/>
        </Node>
        <Node pos="r" depth="1" NCoef="0" IVar="0" Cut="6.3482799530029297e+00" cType="1" res="-9.5447733998298645e-02" rms="3.5174006223678589e-01" purity="1.4441940188407898e-01" nType="0">
          <Node pos="l" depth="2" NCoef="0" IVar="-1" Cut="0.0000000000000000e+00" cType="1" res="-7.9735642066225410e-04" rms="3.3169725537300110e-01" purity="1.4246799051761627e-01" nType="-99"/>
          <Node pos="r" depth="2" NCoef="0" IVar="-1" Cut="0.0000000000000000e+00" cType="1" res="-3.9136437699198723e-03" rms="3.5644817352294922e-01" purity="1.4652046561241150e-01" nType="-99"/>
        </Node>
      </Node>
    </BinaryTree>
    <BinaryTree type="DecisionTree" boostWeight="1.0000000000000000e+00" itree="673">
      <Node pos="s" depth="0" NCoef="0" IVar="2" Cut="1.4439170360565186e+00" cType="1" res="-1.2789418688043952e-03" rms="4.5772334933280945e-01" purity="5.0199830532073975e-01" nType="0">
        <Node pos="l" depth="1" NCoef="0" IVar="2" Cut="8.4953510761260986e-01" cType="1" res="-1.3968785293400288e-02" rms="4.6078431606292725e-01" purity="5.3042584657669067e-01" nType="0">
          <Node pos="l" depth="2" NCoef="0" IVar="-1" Cut="0.0000000000000000e+00" cType="1" res="6.8660854594781995e-04" rms="4.4498720765113831e-01" purity="6.6019546985626221e-01" nType="-99"/>
          <Node pos="r" depth="2" NCoef="0" IVar="-1" Cut="0.0000000000000000e+00" cType="1" res="-9.5951312687247992e-04" rms="4.6888357400894165e-01" purity="4.4356146454811096e-01" nType="-99"/>
        </Node>
        <Node pos="r" depth="1" NCoef="0" IVar="0" Cut="7.0755205154418945e+00" cType="1" res="7.1371912956237793e-02" rms="4.3268269300460815e-01" purity="3.3924725651741028e-01" nType="0">
          <Node pos="l" depth="2" NCoef="0" IVar="-1" Cut="0.0000000000000000e+00" cType="1" res="6.1457231640815735e-04" rms="4.0645274519920349e-01" purity="2.3330849409103394e-01" nType="-99"/>
          <Node pos="r" depth="2" NCoef="0" IVar="-1" Cut="0.0000000000000000e+00" cType="1" res="3.4923297353088856e-03" rms="4.5972326397895813e-01" purity="5.0203025341033936e-01" nType="-99"/>
        </Node>
      </Node>
    </BinaryTree>
    <BinaryTree type="DecisionTree" boostWeight="1.0000000000000000e+00" itree="674">
      <Node pos="s" depth="0" NCoef="0" IVar="4" Cut="3.4266720581054688e+02" cType="1" res="1.0194603353738785e-02" rms="4.4891554117202759e-01" purity="5.2401232719421387e-01" nType="0">
        <Node pos="l" depth="1" NCoef="0" IVar="4" Cut="3.9948417663574219e+01" cType="1" res="3.1293372157961130e-03" rms="4.4687536358833313e-01" purity="5.2140259742736816e-01" nType="0">
          <Node pos="l" depth="2" NCoef="0" IVar="-1" Cut="0.0000000000000000e+00" cType="1" res="1.4022971736267209e-03" rms="4.0991017222404480e-01" purity="5.6248015165328979e-01" nType="-99"/>
          <Node pos="r" depth="2" NCoef="0" IVar="-1" Cut="0.0000000000000000e+00" cType="1" res="-3.6478979745879769e-04" rms="4.5689100027084351e-01" purity="5.0785225629806519e-01" nType="-99"/>
        </Node>
        <Node pos="r" depth="1" NCoef="0" IVar="-1" Cut="0.0000000000000000e+00" cType="1" res="2.8275456279516220e-03" rms="4.6580830216407776e-01" purity="5.6333523988723755e-01" nType="-99"/>
      </Node>
    </BinaryTree>
    <BinaryTree type="DecisionTree" boostWeight="1.0000000000000000e+00" itree="675">
      <Node pos="s" depth="0" NCoef="0" IVar="3" Cut="2.3285262584686279e+00" cType="1" res="3.8992173504084349e-03" rms="4.4821500778198242e-01" purity="4.9545535445213318e-01" nType="0">
        <Node pos="l" depth="1" NCoef="0" IVar="4" Cut="2.9332638549804688e+02" cType="1" res="1.9343638792634010e-02" rms="4.6519199013710022e-01" purity="5.7480770349502563e-01" nType="0">
          <Node pos="l" depth="2" NCoef="0" IVar="-1" Cut="0.0000000000000000e+00" cType="1" res="1.9218066881876439e-04" rms="4.6321669220924377e-01" purity="5.6406199932098389e-01" nType="-99"/>
          <Node pos="r" depth="2" NCoef="0" IVar="-1" Cut="0.0000000000000000e+00" cType="1" res="2.8908706735819578e-03" rms="4.7074380517005920e-01" purity="6.8482249975204468e-01" nType="-99"/>
        </Node>
        <Node pos="r" depth="1" NCoef="0" IVar="0" Cut="7.1658201217651367e+00" cType="1" res="-3.2062936574220657e-02" rms="4.0365877747535706e-01" purity="3.1068420410156250e-01" nType="0">
          <Node pos="l" depth="2" NCoef="0" IVar="-1" Cut="0.0000000000000000e+00" cType="1" res="-2.4747936986386776e-03" rms="3.5145449638366699e-01" purity="1.6321577131748199e-01" nType="-99"/>
          <Node pos="r" depth="2" NCoef="0" IVar="-1" Cut="0.0000000000000000e+00" cType="1" res="1.8024678574874997e-03" rms="4.5795997977256775e-01" purity="5.5840259790420532e-01" nType="-99"/>
        </Node>
      </Node>
    </BinaryTree>
    <BinaryTree type="DecisionTree" boostWeight="1.0000000000000000e+00" itree="676">
      <Node pos="s" depth="0" NCoef="0" IVar="4" Cut="2.0766206359863281e+02" cType="1" res="-4.4547100551426411e-03" rms="4.4523504376411438e-01" purity="5.0110387802124023e-01" nType="0">
        <Node pos="l" depth="1" NCoef="0" IVar="4" Cut="2.5938928604125977e+01" cType="1" res="1.0712071321904659e-02" rms="4.4731092453002930e-01" purity="5.2104979753494263e-01" nType="0">
          <Node pos="l" depth="2" NCoef="0" IVar="-1" Cut="0.0000000000000000e+00" cType="1" res="2.8220280073583126e-03" rms="4.3590116500854492e-01" purity="6.2436747550964355e-01" nType="-99"/>
          <Node pos="r" depth="2" NCoef="0" IVar="-1" Cut="0.0000000000000000e+00" cType="1" res="-6.2078324845060706e-05" rms="4.4663816690444946e-01" purity="5.0925821065902710e-01" nType="-99"/>
        </Node>
        <Node pos="r" depth="1" NCoef="0" IVar="1" Cut="9.7923774719238281e+01" cType="1" res="-6.7351356148719788e-02" rms="4.3086043000221252e-01" purity="4.1838788986206055e-01" nType="0">
          <Node pos="l" depth="2" NCoef="0" IVar="-1" Cut="0.0000000000000000e+00" cType="1" res="-2.4344411212950945e-03" rms="4.3882691860198975e-01" purity="3.2619947195053101e-01" nType="-99"/>
          <Node pos="r" depth="2" NCoef="0" IVar="-1" Cut="0.0000000000000000e+00" cType="1" res="-9.9319753644522280e-05" rms="4.1128769516944885e-01" purity="5.4485535621643066e-01" nType="-99"/>
        </Node>
      </Node>
    </BinaryTree>
    <BinaryTree type="DecisionTree" boostWeight="1.0000000000000000e+00" itree="677">
      <Node pos="s" depth="0" NCoef="0" IVar="4" Cut="1.9412930297851562e+02" cType="1" res="2.5035034865140915e-02" rms="4.5822611451148987e-01" purity="5.2410298585891724e-01" nType="0">
        <Node pos="l" depth="1" NCoef="0" IVar="5" Cut="5.5554747581481934e-01" cType="1" res="4.4136792421340942e-02" rms="4.5238304138183594e-01" purity="5.5604779720306396e-01" nType="0">
          <Node pos="l" depth="2" NCoef="0" IVar="-1" Cut="0.0000000000000000e+00" cType="1" res="1.5699325595051050e-03" rms="4.5642787218093872e-01" purity="5.4916256666183472e-01" nType="-99"/>
          <Node pos="r" depth="2" NCoef="0" IVar="-1" Cut="0.0000000000000000e+00" cType="1" res="-3.6577132414095104e-04" rms="4.3550947308540344e-01" purity="5.7502502202987671e-01" nType="-99"/>
        </Node>
        <Node pos="r" depth="1" NCoef="0" IVar="2" Cut="8.8539952039718628e-01" cType="1" res="-4.3701708316802979e-02" rms="4.7231340408325195e-01" purity="4.0915092825889587e-01" nType="0">
          <Node pos="l" depth="2" NCoef="0" IVar="-1" Cut="0.0000000000000000e+00" cType="1" res="-5.1808557473123074e-03" rms="4.4232550263404846e-01" purity="4.0844327211380005e-01" nType="-99"/>
          <Node pos="r" depth="2" NCoef="0" IVar="-1" Cut="0.0000000000000000e+00" cType="1" res="7.4460607720538974e-04" rms="4.6287840604782104e-01" purity="4.0943598747253418e-01" nType="-99"/>
        </Node>
      </Node>
    </BinaryTree>
    <BinaryTree type="DecisionTree" boostWeight="1.0000000000000000e+00" itree="678">
      <Node pos="s" depth="0" NCoef="0" IVar="5" Cut="2.1664366126060486e-01" cType="1" res="-1.1972712818533182e-03" rms="4.5541262626647949e-01" purity="5.0071203708648682e-01" nType="0">
        <Node pos="l" depth="1" NCoef="0" IVar="6" Cut="4.3371551513671875e+02" cType="1" res="-7.8250683844089508e-02" rms="4.4935780763626099e-01" purity="3.4337335824966431e-01" nType="0">
          <Node pos="l" depth="2" NCoef="0" IVar="-1" Cut="0.0000000000000000e+00" cType="1" res="-1.3943175144959241e-04" rms="4.2947286367416382e-01" purity="3.4314131736755371e-01" nType="-99"/>
          <Node pos="r" depth="2" NCoef="0" IVar="-1" Cut="0.0000000000000000e+00" cType="1" res="-3.4124923404306173e-03" rms="4.5715171098709106e-01" purity="3.4361806511878967e-01" nType="-99"/>
        </Node>
        <Node pos="r" depth="1" NCoef="0" IVar="3" Cut="2.2772219181060791e+00" cType="1" res="1.8905960023403168e-02" rms="4.5483708381652832e-01" purity="5.4176169633865356e-01" nType="0">
          <Node pos="l" depth="2" NCoef="0" IVar="-1" Cut="0.0000000000000000e+00" cType="1" res="9.4564293976873159e-04" rms="4.5349422097206116e-01" purity="6.3632196187973022e-01" nType="-99"/>
          <Node pos="r" depth="2" NCoef="0" IVar="-1" Cut="0.0000000000000000e+00" cType="1" res="-5.9896154562011361e-04" rms="4.5440074801445007e-01" purity="3.4303084015846252e-01" nType="-99"/>
        </Node>
      </Node>
    </BinaryTree>
    <BinaryTree type="DecisionTree" boostWeight="1.0000000000000000e+00" itree="679">
      <Node pos="s" depth="0" NCoef="0" IVar="5" Cut="1.6450321674346924e-01" cType="1" res="-9.2526869848370552e-03" rms="4.5816996693611145e-01" purity="4.8375901579856873e-01" nType="0">
        <Node pos="l" depth="1" NCoef="0" IVar="1" Cut="8.1482513427734375e+01" cType="1" res="1.5258535742759705e-01" rms="4.5928359031677246e-01" purity="5.1951432228088379e-01" nType="0">
          <Node pos="l" depth="2" NCoef="0" IVar="-1" Cut="0.0000000000000000e+00" cType="1" res="5.9464252553880215e-03" rms="4.8022708296775818e-01" purity="4.7990348935127258e-01" nType="-99"/>
          <Node pos="r" depth="2" NCoef="0" IVar="-1" Cut="0.0000000000000000e+00" cType="1" res="2.2366214543581009e-03" rms="4.3079417943954468e-01" purity="5.5983674526214600e-01" nType="-99"/>
        </Node>
        <Node pos="r" depth="1" NCoef="0" IVar="0" Cut="8.2804889678955078e+00" cType="1" res="-2.8451004996895790e-02" rms="4.5422783493995667e-01" purity="4.7951748967170715e-01" nType="0">
          <Node pos="l" depth="2" NCoef="0" IVar="-1" Cut="0.0000000000000000e+00" cType="1" res="-8.7131466716527939e-04" rms="4.6123528480529785e-01" purity="4.2526298761367798e-01" nType="-99"/>
          <Node pos="r" depth="2" NCoef="0" IVar="-1" Cut="0.0000000000000000e+00" cType="1" res="7.1598659269511700e-04" rms="4.1402381658554077e-01" purity="7.4432909488677979e-01" nType="-99"/>
        </Node>
      </Node>
    </BinaryTree>
    <BinaryTree type="DecisionTree" boostWeight="1.0000000000000000e+00" itree="680">
      <Node pos="s" depth="0" NCoef="0" IVar="6" Cut="3.0564767456054688e+02" cType="1" res="-2.1549107506871223e-02" rms="4.4918069243431091e-01" purity="4.7134444117546082e-01" nType="0">
        <Node pos="l" depth="1" NCoef="0" IVar="2" Cut="1.1663488149642944e+00" cType="1" res="-7.0945277810096741e-02" rms="4.4017294049263000e-01" purity="2.9863640666007996e-01" nType="0">
          <Node pos="l" depth="2" NCoef="0" IVar="-1" Cut="0.0000000000000000e+00" cType="1" res="-2.7023302391171455e-03" rms="4.5235717296600342e-01" purity="3.2460388541221619e-01" nType="-99"/>
          <Node pos="r" depth="2" NCoef="0" IVar="-1" Cut="0.0000000000000000e+00" cType="1" res="4.3533215648494661e-04" rms="4.0688234567642212e-01" purity="2.6229810714721680e-01" nType="-99"/>
        </Node>
        <Node pos="r" depth="1" NCoef="0" IVar="5" Cut="4.2328545451164246e-01" cType="1" res="-8.6873099207878113e-03" rms="4.5060902833938599e-01" purity="5.1631426811218262e-01" nType="0">
          <Node pos="l" depth="2" NCoef="0" IVar="-1" Cut="0.0000000000000000e+00" cType="1" res="1.5533852274529636e-04" rms="4.5367211103439331e-01" purity="4.8719993233680725e-01" nType="-99"/>
          <Node pos="r" depth="2" NCoef="0" IVar="-1" Cut="0.0000000000000000e+00" cType="1" res="-7.9570681555196643e-04" rms="4.4438314437866211e-01" purity="5.6405460834503174e-01" nType="-99"/>
        </Node>
      </Node>
    </BinaryTree>
    <BinaryTree type="DecisionTree" boostWeight="1.0000000000000000e+00" itree="681">
      <Node pos="s" depth="0" NCoef="0" IVar="1" Cut="4.6525211334228516e+01" cType="1" res="-1.5342994593083858e-02" rms="4.4203823804855347e-01" purity="4.8107811808586121e-01" nType="0">
        <Node pos="l" depth="1" NCoef="0" IVar="4" Cut="9.9491821289062500e+01" cType="1" res="-8.2926720380783081e-02" rms="4.4257897138595581e-01" purity="3.5220548510551453e-01" nType="0">
          <Node pos="l" depth="2" NCoef="0" IVar="-1" Cut="0.0000000000000000e+00" cType="1" res="-2.8044732753187418e-03" rms="4.3146580457687378e-01" purity="3.0956038832664490e-01" nType="-99"/>
          <Node pos="r" depth="2" NCoef="0" IVar="-1" Cut="0.0000000000000000e+00" cType="1" res="-6.0741207562386990e-04" rms="4.4982206821441650e-01" purity="4.0632694959640503e-01" nType="-99"/>
        </Node>
        <Node pos="r" depth="1" NCoef="0" IVar="0" Cut="5.3344449996948242e+00" cType="1" res="-6.8009417736902833e-04" rms="4.4055423140525818e-01" purity="5.0903826951980591e-01" nType="0">
          <Node pos="l" depth="2" NCoef="0" IVar="-1" Cut="0.0000000000000000e+00" cType="1" res="-2.2087662946432829e-03" rms="3.3806693553924561e-01" purity="1.5692549943923950e-01" nType="-99"/>
          <Node pos="r" depth="2" NCoef="0" IVar="-1" Cut="0.0000000000000000e+00" cType="1" res="2.9009630088694394e-04" rms="4.5204660296440125e-01" purity="5.6021952629089355e-01" nType="-99"/>
        </Node>
      </Node>
    </BinaryTree>
    <BinaryTree type="DecisionTree" boostWeight="1.0000000000000000e+00" itree="682">
      <Node pos="s" depth="0" NCoef="0" IVar="3" Cut="1.7333762645721436e+00" cType="1" res="-8.7678078562021255e-03" rms="4.4811373949050903e-01" purity="4.9103629589080811e-01" nType="0">
        <Node pos="l" depth="1" NCoef="0" IVar="-1" Cut="0.0000000000000000e+00" cType="1" res="-2.5286341551691294e-03" rms="4.4060486555099487e-01" purity="3.7775006890296936e-01" nType="-99"/>
        <Node pos="r" depth="1" NCoef="0" IVar="6" Cut="5.6060021972656250e+02" cType="1" res="-1.2568831443786621e-03" rms="4.4760224223136902e-01" purity="4.9858620762825012e-01" nType="0">
          <Node pos="l" depth="2" NCoef="0" IVar="-1" Cut="0.0000000000000000e+00" cType="1" res="3.2931854366324842e-04" rms="4.4766443967819214e-01" purity="4.9047917127609253e-01" nType="-99"/>
          <Node pos="r" depth="2" NCoef="0" IVar="-1" Cut="0.0000000000000000e+00" cType="1" res="-1.4961328124627471e-03" rms="4.4165009260177612e-01" purity="5.3288197517395020e-01" nType="-99"/>
        </Node>
      </Node>
    </BinaryTree>
    <BinaryTree type="DecisionTree" boostWeight="1.0000000000000000e+00" itree="683">
      <Node pos="s" depth="0" NCoef="0" IVar="1" Cut="1.4768153381347656e+02" cType="1" res="-7.7277346281334758e-04" rms="4.4994124770164490e-01" purity="5.0639414787292480e-01" nType="0">
        <Node pos="l" depth="1" NCoef="0" IVar="0" Cut="5.6330947875976562e+00" cType="1" res="1.3972487300634384e-02" rms="4.4978424906730652e-01" purity="5.2073836326599121e-01" nType="0">
          <Node pos="l" depth="2" NCoef="0" IVar="-1" Cut="0.0000000000000000e+00" cType="1" res="-1.6594167100265622e-03" rms="3.8495597243309021e-01" purity="2.1839249134063721e-01" nType="-99"/>
          <Node pos="r" depth="2" NCoef="0" IVar="-1" Cut="0.0000000000000000e+00" cType="1" res="8.1526930443942547e-04" rms="4.6117746829986572e-01" purity="5.9128713607788086e-01" nType="-99"/>
        </Node>
        <Node pos="r" depth="1" NCoef="0" IVar="-1" Cut="0.0000000000000000e+00" cType="1" res="-4.7909324057400227e-03" rms="4.0010595321655273e-01" purity="3.0866754055023193e-01" nType="-99"/>
      </Node>
    </BinaryTree>
    <BinaryTree type="DecisionTree" boostWeight="1.0000000000000000e+00" itree="684">
      <Node pos="s" depth="0" NCoef="0" IVar="3" Cut="1.9048136472702026e+00" cType="1" res="-1.7377047333866358e-03" rms="4.5025277137756348e-01" purity="5.0077259540557861e-01" nType="0">
        <Node pos="l" depth="1" NCoef="0" IVar="5" Cut="3.4034651517868042e-01" cType="1" res="8.0686315894126892e-02" rms="4.3295636773109436e-01" purity="6.4160549640655518e-01" nType="0">
          <Node pos="l" depth="2" NCoef="0" IVar="-1" Cut="0.0000000000000000e+00" cType="1" res="5.7338102487847209e-04" rms="4.4173049926757812e-01" purity="5.4667776823043823e-01" nType="-99"/>
          <Node pos="r" depth="2" NCoef="0" IVar="-1" Cut="0.0000000000000000e+00" cType="1" res="2.8770149219781160e-03" rms="4.2166775465011597e-01" purity="7.1127820014953613e-01" nType="-99"/>
        </Node>
        <Node pos="r" depth="1" NCoef="0" IVar="1" Cut="1.0773168945312500e+02" cType="1" res="-1.8420808017253876e-02" rms="4.5184749364852905e-01" purity="4.7226718068122864e-01" nType="0">
          <Node pos="l" depth="2" NCoef="0" IVar="-1" Cut="0.0000000000000000e+00" cType="1" res="-1.1115761008113623e-03" rms="4.5346295833587646e-01" purity="4.2879077792167664e-01" nType="-99"/>
          <Node pos="r" depth="2" NCoef="0" IVar="-1" Cut="0.0000000000000000e+00" cType="1" res="1.2942061293870211e-03" rms="4.3922820687294006e-01" purity="5.8435952663421631e-01" nType="-99"/>
        </Node>
      </Node>
    </BinaryTree>
    <BinaryTree type="DecisionTree" boostWeight="1.0000000000000000e+00" itree="685">
      <Node pos="s" depth="0" NCoef="0" IVar="3" Cut="1.8721626996994019e+00" cType="1" res="-4.1057476773858070e-03" rms="4.5226663351058960e-01" purity="5.0196129083633423e-01" nType="0">
        <Node pos="l" depth="1" NCoef="0" IVar="3" Cut="1.7087094783782959e+00" cType="1" res="-7.4636749923229218e-02" rms="4.8217144608497620e-01" purity="4.7394564747810364e-01" nType="0">
          <Node pos="l" depth="2" NCoef="0" IVar="-1" Cut="0.0000000000000000e+00" cType="1" res="1.9313261145725846e-04" rms="4.7408923506736755e-01" purity="5.2767479419708252e-01" nType="-99"/>
          <Node pos="r" depth="2" NCoef="0" IVar="-1" Cut="0.0000000000000000e+00" cType="1" res="-2.8677829541265965e-03" rms="4.7931900620460510e-01" purity="4.3734043836593628e-01" nType="-99"/>
        </Node>
        <Node pos="r" depth="1" NCoef="0" IVar="2" Cut="8.3823776245117188e-01" cType="1" res="8.0240648239850998e-03" rms="4.4579887390136719e-01" purity="5.0677937269210815e-01" nType="0">
          <Node pos="l" depth="2" NCoef="0" IVar="-1" Cut="0.0000000000000000e+00" cType="1" res="1.4297260204330087e-03" rms="4.2725786566734314e-01" purity="6.9937288761138916e-01" nType="-99"/>
          <Node pos="r" depth="2" NCoef="0" IVar="-1" Cut="0.0000000000000000e+00" cType="1" res="-4.1246676119044423e-04" rms="4.5268884301185608e-01" purity="4.0987899899482727e-01" nType="-99"/>
        </Node>
      </Node>
    </BinaryTree>
    <BinaryTree type="DecisionTree" boostWeight="1.0000000000000000e+00" itree="686">
      <Node pos="s" depth="0" NCoef="0" IVar="5" Cut="6.6573643684387207e-01" cType="1" res="2.2398523986339569e-02" rms="4.5370525121688843e-01" purity="5.2801614999771118e-01" nType="0">
        <Node pos="l" depth="1" NCoef="0" IVar="6" Cut="3.1681988525390625e+02" cType="1" res="3.1886927783489227e-02" rms="4.5240464806556702e-01" purity="5.2903842926025391e-01" nType="0">
          <Node pos="l" depth="2" NCoef="0" IVar="-1" Cut="0.0000000000000000e+00" cType="1" res="2.4797273799777031e-03" rms="4.6270850300788879e-01" purity="4.7282549738883972e-01" nType="-99"/>
          <Node pos="r" depth="2" NCoef="0" IVar="-1" Cut="0.0000000000000000e+00" cType="1" res="3.2834781450219452e-04" rms="4.4796293973922729e-01" purity="5.4351437091827393e-01" nType="-99"/>
        </Node>
        <Node pos="r" depth="1" NCoef="0" IVar="-1" Cut="0.0000000000000000e+00" cType="1" res="-1.4505413128063083e-03" rms="4.5651838183403015e-01" purity="5.1892679929733276e-01" nType="-99"/>
      </Node>
    </BinaryTree>
    <BinaryTree type="DecisionTree" boostWeight="1.0000000000000000e+00" itree="687">
      <Node pos="s" depth="0" NCoef="0" IVar="6" Cut="5.2988311767578125e+02" cType="1" res="2.1353052929043770e-02" rms="4.5139810442924500e-01" purity="5.2980732917785645e-01" nType="0">
        <Node pos="l" depth="1" NCoef="0" IVar="3" Cut="2.3005273342132568e+00" cType="1" res="2.3060219828039408e-03" rms="4.5748803019523621e-01" purity="4.9170926213264465e-01" nType="0">
          <Node pos="l" depth="2" NCoef="0" IVar="-1" Cut="0.0000000000000000e+00" cType="1" res="-6.6389126004651189e-04" rms="4.6143534779548645e-01" purity="5.3131854534149170e-01" nType="-99"/>
          <Node pos="r" depth="2" NCoef="0" IVar="-1" Cut="0.0000000000000000e+00" cType="1" res="1.7064323183149099e-03" rms="4.4234564900398254e-01" purity="4.1127726435661316e-01" nType="-99"/>
        </Node>
        <Node pos="r" depth="1" NCoef="0" IVar="2" Cut="8.8134819269180298e-01" cType="1" res="8.8320843875408173e-02" rms="4.2253902554512024e-01" purity="6.6375690698623657e-01" nType="0">
          <Node pos="l" depth="2" NCoef="0" IVar="-1" Cut="0.0000000000000000e+00" cType="1" res="3.9735934697091579e-03" rms="3.6101737618446350e-01" purity="8.4297549724578857e-01" nType="-99"/>
          <Node pos="r" depth="2" NCoef="0" IVar="-1" Cut="0.0000000000000000e+00" cType="1" res="9.0852269204333425e-04" rms="4.5978632569313049e-01" purity="5.2124398946762085e-01" nType="-99"/>
        </Node>
      </Node>
    </BinaryTree>
    <BinaryTree type="DecisionTree" boostWeight="1.0000000000000000e+00" itree="688">
      <Node pos="s" depth="0" NCoef="0" IVar="0" Cut="8.9140510559082031e+00" cType="1" res="-1.2147817760705948e-02" rms="4.4961544871330261e-01" purity="4.9770653247833252e-01" nType="0">
        <Node pos="l" depth="1" NCoef="0" IVar="1" Cut="1.2120189666748047e+02" cType="1" res="-2.1373054012656212e-02" rms="4.5757505297660828e-01" purity="4.6100863814353943e-01" nType="0">
          <Node pos="l" depth="2" NCoef="0" IVar="-1" Cut="0.0000000000000000e+00" cType="1" res="-1.9078224431723356e-04" rms="4.5832639932632446e-01" purity="4.6786323189735413e-01" nType="-99"/>
          <Node pos="r" depth="2" NCoef="0" IVar="-1" Cut="0.0000000000000000e+00" cType="1" res="-2.2627345751971006e-03" rms="4.4589990377426147e-01" purity="4.2159080505371094e-01" nType="-99"/>
        </Node>
        <Node pos="r" depth="1" NCoef="0" IVar="-1" Cut="0.0000000000000000e+00" cType="1" res="2.1261682268232107e-03" rms="3.6213973164558411e-01" purity="8.2117253541946411e-01" nType="-99"/>
      </Node>
    </BinaryTree>
    <BinaryTree type="DecisionTree" boostWeight="1.0000000000000000e+00" itree="689">
      <Node pos="s" depth="0" NCoef="0" IVar="5" Cut="2.9896849393844604e-01" cType="1" res="-1.9406544044613838e-02" rms="4.5467105507850647e-01" purity="4.7500088810920715e-01" nType="0">
        <Node pos="l" depth="1" NCoef="0" IVar="0" Cut="5.8039078712463379e+00" cType="1" res="2.0411500707268715e-02" rms="4.5181578397750854e-01" purity="4.3028679490089417e-01" nType="0">
          <Node pos="l" depth="2" NCoef="0" IVar="-1" Cut="0.0000000000000000e+00" cType="1" res="3.2789018005132675e-03" rms="4.2599740624427795e-01" purity="4.0105214715003967e-01" nType="-99"/>
          <Node pos="r" depth="2" NCoef="0" IVar="-1" Cut="0.0000000000000000e+00" cType="1" res="-4.0881021413952112e-04" rms="4.5495969057083130e-01" purity="4.4104725122451782e-01" nType="-99"/>
        </Node>
        <Node pos="r" depth="1" NCoef="0" IVar="4" Cut="1.9007662963867188e+02" cType="1" res="-3.9718344807624817e-02" rms="4.5477986335754395e-01" purity="4.9781027436256409e-01" nType="0">
          <Node pos="l" depth="2" NCoef="0" IVar="-1" Cut="0.0000000000000000e+00" cType="1" res="-3.3624065690673888e-04" rms="4.5303583145141602e-01" purity="5.3450191020965576e-01" nType="-99"/>
          <Node pos="r" depth="2" NCoef="0" IVar="-1" Cut="0.0000000000000000e+00" cType="1" res="-3.1135354656726122e-03" rms="4.4874858856201172e-01" purity="3.5974353551864624e-01" nType="-99"/>
        </Node>
      </Node>
    </BinaryTree>
    <BinaryTree type="DecisionTree" boostWeight="1.0000000000000000e+00" itree="690">
      <Node pos="s" depth="0" NCoef="0" IVar="1" Cut="1.0495826721191406e+02" cType="1" res="-1.4057665131986141e-02" rms="4.5259606838226318e-01" purity="4.8403650522232056e-01" nType="0">
        <Node pos="l" depth="1" NCoef="0" IVar="6" Cut="4.1364257812500000e+02" cType="1" res="-3.3168625086545944e-02" rms="4.5817765593528748e-01" purity="4.4873860478401184e-01" nType="0">
          <Node pos="l" depth="2" NCoef="0" IVar="-1" Cut="0.0000000000000000e+00" cType="1" res="-1.3431039405986667e-04" rms="4.4697049260139465e-01" purity="4.4643333554267883e-01" nType="-99"/>
          <Node pos="r" depth="2" NCoef="0" IVar="-1" Cut="0.0000000000000000e+00" cType="1" res="-1.8254612805321813e-03" rms="4.7347587347030640e-01" purity="4.5280450582504272e-01" nType="-99"/>
        </Node>
        <Node pos="r" depth="1" NCoef="0" IVar="1" Cut="1.2720145416259766e+02" cType="1" res="5.1506847143173218e-02" rms="4.2644011974334717e-01" purity="6.0513401031494141e-01" nType="0">
          <Node pos="l" depth="2" NCoef="0" IVar="-1" Cut="0.0000000000000000e+00" cType="1" res="2.8051619883626699e-03" rms="4.0844935178756714e-01" purity="6.8752133846282959e-01" nType="-99"/>
          <Node pos="r" depth="2" NCoef="0" IVar="-1" Cut="0.0000000000000000e+00" cType="1" res="-1.6352214151993394e-04" rms="4.3726113438606262e-01" purity="5.1798832416534424e-01" nType="-99"/>
        </Node>
      </Node>
    </BinaryTree>
    <BinaryTree type="DecisionTree" boostWeight="1.0000000000000000e+00" itree="691">
      <Node pos="s" depth="0" NCoef="0" IVar="2" Cut="1.2746886014938354e+00" cType="1" res="2.6656799018383026e-03" rms="4.5943689346313477e-01" purity="5.0580006837844849e-01" nType="0">
        <Node pos="l" depth="1" NCoef="0" IVar="5" Cut="2.3862189054489136e-01" cType="1" res="-2.5188185274600983e-02" rms="4.5841792225837708e-01" purity="5.4363459348678589e-01" nType="0">
          <Node pos="l" depth="2" NCoef="0" IVar="-1" Cut="0.0000000000000000e+00" cType="1" res="-1.9240546971559525e-03" rms="4.4333195686340332e-01" purity="3.8869023323059082e-01" nType="-99"/>
          <Node pos="r" depth="2" NCoef="0" IVar="-1" Cut="0.0000000000000000e+00" cType="1" res="-2.4687428958714008e-04" rms="4.6050146222114563e-01" purity="5.7850247621536255e-01" nType="-99"/>
        </Node>
        <Node pos="r" depth="1" NCoef="0" IVar="5" Cut="2.0897047221660614e-01" cType="1" res="8.4128886461257935e-02" rms="4.5267239212989807e-01" purity="3.9514702558517456e-01" nType="0">
          <Node pos="l" depth="2" NCoef="0" IVar="-1" Cut="0.0000000000000000e+00" cType="1" res="2.6700683520175517e-04" rms="4.2750501632690430e-01" purity="2.8765553236007690e-01" nType="-99"/>
          <Node pos="r" depth="2" NCoef="0" IVar="-1" Cut="0.0000000000000000e+00" cType="1" res="3.3085294999182224e-03" rms="4.6256616711616516e-01" purity="4.6991288661956787e-01" nType="-99"/>
        </Node>
      </Node>
    </BinaryTree>
    <BinaryTree type="DecisionTree" boostWeight="1.0000000000000000e+00" itree="692">
      <Node pos="s" depth="0" NCoef="0" IVar="0" Cut="7.6623053550720215e+00" cType="1" res="-9.3887420371174812e-03" rms="4.4688031077384949e-01" purity="5.0729602575302124e-01" nType="0">
        <Node pos="l" depth="1" NCoef="0" IVar="3" Cut="1.8636716604232788e+00" cType="1" res="-2.9445977881550789e-02" rms="4.5372849702835083e-01" purity="4.0904620289802551e-01" nType="0">
          <Node pos="l" depth="2" NCoef="0" IVar="-1" Cut="0.0000000000000000e+00" cType="1" res="1.7792251892387867e-03" rms="4.4950792193412781e-01" purity="5.5587375164031982e-01" nType="-99"/>
          <Node pos="r" depth="2" NCoef="0" IVar="-1" Cut="0.0000000000000000e+00" cType="1" res="-1.0307155316695571e-03" rms="4.5203042030334473e-01" purity="3.8695213198661804e-01" nType="-99"/>
        </Node>
        <Node pos="r" depth="1" NCoef="0" IVar="2" Cut="1.1571660041809082e+00" cType="1" res="3.6143328994512558e-02" rms="4.2745125293731689e-01" purity="7.3033344745635986e-01" nType="0">
          <Node pos="l" depth="2" NCoef="0" IVar="-1" Cut="0.0000000000000000e+00" cType="1" res="-2.4721832596696913e-04" rms="4.1584604978561401e-01" purity="7.4838781356811523e-01" nType="-99"/>
          <Node pos="r" depth="2" NCoef="0" IVar="-1" Cut="0.0000000000000000e+00" cType="1" res="3.6310707218945026e-03" rms="4.3496674299240112e-01" purity="6.8094658851623535e-01" nType="-99"/>
        </Node>
      </Node>
    </BinaryTree>
    <BinaryTree type="DecisionTree" boostWeight="1.0000000000000000e+00" itree="693">
      <Node pos="s" depth="0" NCoef="0" IVar="0" Cut="9.0329036712646484e+00" cType="1" res="1.8410908058285713e-02" rms="4.5104870200157166e-01" purity="5.2042382955551147e-01" nType="0">
        <Node pos="l" depth="1" NCoef="0" IVar="2" Cut="1.3270684480667114e+00" cType="1" res="2.7879199013113976e-02" rms="4.4917494058609009e-01" purity="5.1007789373397827e-01" nType="0">
          <Node pos="l" depth="2" NCoef="0" IVar="-1" Cut="0.0000000000000000e+00" cType="1" res="9.8407024051994085e-04" rms="4.5803081989288330e-01" purity="5.8070760965347290e-01" nType="-99"/>
          <Node pos="r" depth="2" NCoef="0" IVar="-1" Cut="0.0000000000000000e+00" cType="1" res="-8.5158977890387177e-04" rms="4.0840679407119751e-01" purity="2.4367345869541168e-01" nType="-99"/>
        </Node>
        <Node pos="r" depth="1" NCoef="0" IVar="-1" Cut="0.0000000000000000e+00" cType="1" res="-3.3313354942947626e-03" rms="4.5706066489219666e-01" purity="6.5702575445175171e-01" nType="-99"/>
      </Node>
    </BinaryTree>
    <BinaryTree type="DecisionTree" boostWeight="1.0000000000000000e+00" itree="694">
      <Node pos="s" depth="0" NCoef="0" IVar="6" Cut="2.9658636474609375e+02" cType="1" res="-3.9525527507066727e-02" rms="4.4420105218887329e-01" purity="4.5912203192710876e-01" nType="0">
        <Node pos="l" depth="1" NCoef="0" IVar="6" Cut="2.7476470947265625e+02" cType="1" res="4.8132829368114471e-02" rms="4.4514694809913635e-01" purity="4.3102142214775085e-01" nType="0">
          <Node pos="l" depth="2" NCoef="0" IVar="-1" Cut="0.0000000000000000e+00" cType="1" res="-8.7134586647152901e-04" rms="4.2080438137054443e-01" purity="3.0976730585098267e-01" nType="-99"/>
          <Node pos="r" depth="2" NCoef="0" IVar="-1" Cut="0.0000000000000000e+00" cType="1" res="4.4615571387112141e-03" rms="4.4687166810035706e-01" purity="6.4278197288513184e-01" nType="-99"/>
        </Node>
        <Node pos="r" depth="1" NCoef="0" IVar="3" Cut="2.0262985229492188e+00" cType="1" res="-5.6112080812454224e-02" rms="4.4207051396369934e-01" purity="4.6443915367126465e-01" nType="0">
          <Node pos="l" depth="2" NCoef="0" IVar="-1" Cut="0.0000000000000000e+00" cType="1" res="-6.7368273448664695e-05" rms="4.4145542383193970e-01" purity="6.0820341110229492e-01" nType="-99"/>
          <Node pos="r" depth="2" NCoef="0" IVar="-1" Cut="0.0000000000000000e+00" cType="1" res="-1.8531113164499402e-03" rms="4.4031658768653870e-01" purity="4.0152296423912048e-01" nType="-99"/>
        </Node>
      </Node>
    </BinaryTree>
    <BinaryTree type="DecisionTree" boostWeight="1.0000000000000000e+00" itree="695">
      <Node pos="s" depth="0" NCoef="0" IVar="2" Cut="5.2389276027679443e-01" cType="1" res="-5.4430859163403511e-03" rms="4.4253149628639221e-01" purity="4.8987901210784912e-01" nType="0">
        <Node pos="l" depth="1" NCoef="0" IVar="-1" Cut="0.0000000000000000e+00" cType="1" res="2.3764229845255613e-03" rms="4.1955253481864929e-01" purity="7.3304128646850586e-01" nType="-99"/>
        <Node pos="r" depth="1" NCoef="0" IVar="1" Cut="7.7299949645996094e+01" cType="1" res="-1.6590274870395660e-02" rms="4.4349497556686401e-01" purity="4.6370503306388855e-01" nType="0">
          <Node pos="l" depth="2" NCoef="0" IVar="-1" Cut="0.0000000000000000e+00" cType="1" res="-9.6980988746508956e-04" rms="4.3449911475181580e-01" purity="3.9104151725769043e-01" nType="-99"/>
          <Node pos="r" depth="2" NCoef="0" IVar="-1" Cut="0.0000000000000000e+00" cType="1" res="2.5356994592584670e-04" rms="4.5116955041885376e-01" purity="5.4032528400421143e-01" nType="-99"/>
        </Node>
      </Node>
    </BinaryTree>
    <BinaryTree type="DecisionTree" boostWeight="1.0000000000000000e+00" itree="696">
      <Node pos="s" depth="0" NCoef="0" IVar="6" Cut="2.9455325317382812e+02" cType="1" res="-8.3326306194067001e-03" rms="4.5414078235626221e-01" purity="4.9051538109779358e-01" nType="0">
        <Node pos="l" depth="1" NCoef="0" IVar="1" Cut="5.2839992523193359e+01" cType="1" res="5.1899615675210953e-02" rms="4.4984659552574158e-01" purity="4.1142198443412781e-01" nType="0">
          <Node pos="l" depth="2" NCoef="0" IVar="-1" Cut="0.0000000000000000e+00" cType="1" res="-2.7665580273605883e-04" rms="4.4287377595901489e-01" purity="3.6134144663810730e-01" nType="-99"/>
          <Node pos="r" depth="2" NCoef="0" IVar="-1" Cut="0.0000000000000000e+00" cType="1" res="3.3196343574672937e-03" rms="4.4566121697425842e-01" purity="4.7473150491714478e-01" nType="-99"/>
        </Node>
        <Node pos="r" depth="1" NCoef="0" IVar="0" Cut="5.9421806335449219e+00" cType="1" res="-1.8369477242231369e-02" rms="4.5407646894454956e-01" purity="5.0369518995285034e-01" nType="0">
          <Node pos="l" depth="2" NCoef="0" IVar="-1" Cut="0.0000000000000000e+00" cType="1" res="7.4333912925794721e-04" rms="4.6442192792892456e-01" purity="3.7459391355514526e-01" nType="-99"/>
          <Node pos="r" depth="2" NCoef="0" IVar="-1" Cut="0.0000000000000000e+00" cType="1" res="-8.3923694910481572e-04" rms="4.4916069507598877e-01" purity="5.4725337028503418e-01" nType="-99"/>
        </Node>
      </Node>
    </BinaryTree>
    <BinaryTree type="DecisionTree" boostWeight="1.0000000000000000e+00" itree="697">
      <Node pos="s" depth="0" NCoef="0" IVar="6" Cut="6.6370019531250000e+02" cType="1" res="-5.5791712366044521e-03" rms="4.4963955879211426e-01" purity="4.9337831139564514e-01" nType="0">
        <Node pos="l" depth="1" NCoef="0" IVar="6" Cut="2.6795550537109375e+02" cType="1" res="-1.6609407961368561e-02" rms="4.5156440138816833e-01" purity="4.7227630019187927e-01" nType="0">
          <Node pos="l" depth="2" NCoef="0" IVar="-1" Cut="0.0000000000000000e+00" cType="1" res="-3.1072387937456369e-03" rms="3.8712021708488464e-01" purity="2.0530688762664795e-01" nType="-99"/>
          <Node pos="r" depth="2" NCoef="0" IVar="-1" Cut="0.0000000000000000e+00" cType="1" res="-1.5632130089215934e-04" rms="4.5599949359893799e-01" purity="4.9763426184654236e-01" nType="-99"/>
        </Node>
        <Node pos="r" depth="1" NCoef="0" IVar="-1" Cut="0.0000000000000000e+00" cType="1" res="2.7878098189830780e-03" rms="4.1291627287864685e-01" purity="7.0902264118194580e-01" nType="-99"/>
      </Node>
    </BinaryTree>
    <BinaryTree type="DecisionTree" boostWeight="1.0000000000000000e+00" itree="698">
      <Node pos="s" depth="0" NCoef="0" IVar="5" Cut="2.2514937818050385e-01" cType="1" res="-7.8794453293085098e-03" rms="4.4809952378273010e-01" purity="4.9043107032775879e-01" nType="0">
        <Node pos="l" depth="1" NCoef="0" IVar="5" Cut="1.9410945475101471e-01" cType="1" res="-6.9625250995159149e-02" rms="4.3357077240943909e-01" purity="3.2784742116928101e-01" nType="0">
          <Node pos="l" depth="2" NCoef="0" IVar="-1" Cut="0.0000000000000000e+00" cType="1" res="-2.9087156872265041e-04" rms="4.4978961348533630e-01" purity="3.7405666708946228e-01" nType="-99"/>
          <Node pos="r" depth="2" NCoef="0" IVar="-1" Cut="0.0000000000000000e+00" cType="1" res="-4.2869797907769680e-03" rms="3.7370127439498901e-01" purity="2.3556861281394958e-01" nType="-99"/>
        </Node>
        <Node pos="r" depth="1" NCoef="0" IVar="0" Cut="5.0174570083618164e+00" cType="1" res="8.3654951304197311e-03" rms="4.5044016838073730e-01" purity="5.3320586681365967e-01" nType="0">
          <Node pos="l" depth="2" NCoef="0" IVar="-1" Cut="0.0000000000000000e+00" cType="1" res="-2.6331492699682713e-03" rms="3.4716495871543884e-01" purity="1.4427867531776428e-01" nType="-99"/>
          <Node pos="r" depth="2" NCoef="0" IVar="-1" Cut="0.0000000000000000e+00" cType="1" res="4.6155805466696620e-04" rms="4.5713022351264954e-01" purity="5.6900531053543091e-01" nType="-99"/>
        </Node>
      </Node>
    </BinaryTree>
    <BinaryTree type="DecisionTree" boostWeight="1.0000000000000000e+00" itree="699">
      <Node pos="s" depth="0" NCoef="0" IVar="5" Cut="6.0272866487503052e-01" cType="1" res="-1.8535021692514420e-02" rms="4.5383220911026001e-01" purity="4.7237941622734070e-01" nType="0">
        <Node pos="l" depth="1" NCoef="0" IVar="2" Cut="8.3402419090270996e-01" cType="1" res="-3.2112028449773788e-02" rms="4.5177397131919861e-01" purity="4.4434806704521179e-01" nType="0">
          <Node pos="l" depth="2" NCoef="0" IVar="-1" Cut="0.0000000000000000e+00" cType="1" res="-1.8254546448588371e-03" rms="4.6827691793441772e-01" purity="5.5630749464035034e-01" nType="-99"/>
          <Node pos="r" depth="2" NCoef="0" IVar="-1" Cut="0.0000000000000000e+00" cType="1" res="-1.9566698756534606e-04" rms="4.4112834334373474e-01" purity="3.8644075393676758e-01" nType="-99"/>
        </Node>
        <Node pos="r" depth="1" NCoef="0" IVar="2" Cut="9.0517479181289673e-01" cType="1" res="5.9367772191762924e-02" rms="4.5774698257446289e-01" purity="6.3321906328201294e-01" nType="0">
          <Node pos="l" depth="2" NCoef="0" IVar="-1" Cut="0.0000000000000000e+00" cType="1" res="2.3028913419693708e-03" rms="4.4141492247581482e-01" purity="7.1647536754608154e-01" nType="-99"/>
          <Node pos="r" depth="2" NCoef="0" IVar="-1" Cut="0.0000000000000000e+00" cType="1" res="3.8305664202198386e-04" rms="4.7145867347717285e-01" purity="5.4234158992767334e-01" nType="-99"/>
        </Node>
      </Node>
    </BinaryTree>
    <BinaryTree type="DecisionTree" boostWeight="1.0000000000000000e+00" itree="700">
      <Node pos="s" depth="0" NCoef="0" IVar="1" Cut="8.9830291748046875e+01" cType="1" res="-3.5433704033493996e-03" rms="4.4728758931159973e-01" purity="4.9882453680038452e-01" nType="0">
        <Node pos="l" depth="1" NCoef="0" IVar="2" Cut="1.2653142213821411e+00" cType="1" res="-2.6287136599421501e-02" rms="4.4404739141464233e-01" purity="4.4501036405563354e-01" nType="0">
          <Node pos="l" depth="2" NCoef="0" IVar="-1" Cut="0.0000000000000000e+00" cType="1" res="-1.0218556417385116e-04" rms="4.6822330355644226e-01" purity="5.2145880460739136e-01" nType="-99"/>
          <Node pos="r" depth="2" NCoef="0" IVar="-1" Cut="0.0000000000000000e+00" cType="1" res="-2.9203437734395266e-03" rms="3.1927058100700378e-01" purity="1.4602659642696381e-01" nType="-99"/>
        </Node>
        <Node pos="r" depth="1" NCoef="0" IVar="1" Cut="1.2635331726074219e+02" cType="1" res="3.2004330307245255e-02" rms="4.5000898838043213e-01" purity="5.8293414115905762e-01" nType="0">
          <Node pos="l" depth="2" NCoef="0" IVar="-1" Cut="0.0000000000000000e+00" cType="1" res="1.7737665912136436e-03" rms="4.5238333940505981e-01" purity="6.2603622674942017e-01" nType="-99"/>
          <Node pos="r" depth="2" NCoef="0" IVar="-1" Cut="0.0000000000000000e+00" cType="1" res="-9.6267659682780504e-04" rms="4.3637779355049133e-01" purity="5.0651013851165771e-01" nType="-99"/>
        </Node>
      </Node>
    </BinaryTree>
    <BinaryTree type="DecisionTree" boostWeight="1.0000000000000000e+00" itree="701">
      <Node pos="s" depth="0" NCoef="0" IVar="4" Cut="1.1032144165039062e+02" cType="1" res="-5.1060067489743233e-03" rms="4.4665479660034180e-01" purity="4.9619719386100769e-01" nType="0">
        <Node pos="l" depth="1" NCoef="0" IVar="1" Cut="6.7675964355468750e+01" cType="1" res="2.3662753403186798e-02" rms="4.4950732588768005e-01" purity="5.2801674604415894e-01" nType="0">
          <Node pos="l" depth="2" NCoef="0" IVar="-1" Cut="0.0000000000000000e+00" cType="1" res="1.9482796778902411e-03" rms="4.4718325138092041e-01" purity="5.3685623407363892e-01" nType="-99"/>
          <Node pos="r" depth="2" NCoef="0" IVar="-1" Cut="0.0000000000000000e+00" cType="1" res="-6.6057022195309401e-04" rms="4.4516673684120178e-01" purity="5.2025079727172852e-01" nType="-99"/>
        </Node>
        <Node pos="r" depth="1" NCoef="0" IVar="1" Cut="7.7998397827148438e+01" cType="1" res="-4.1514445096254349e-02" rms="4.4033205509185791e-01" purity="4.5592775940895081e-01" nType="0">
          <Node pos="l" depth="2" NCoef="0" IVar="-1" Cut="0.0000000000000000e+00" cType="1" res="-2.0765811204910278e-03" rms="4.2486593127250671e-01" purity="3.5572320222854614e-01" nType="-99"/>
          <Node pos="r" depth="2" NCoef="0" IVar="-1" Cut="0.0000000000000000e+00" cType="1" res="1.5623385843355209e-04" rms="4.4926297664642334e-01" purity="5.5064237117767334e-01" nType="-99"/>
        </Node>
      </Node>
    </BinaryTree>
    <BinaryTree type="DecisionTree" boostWeight="1.0000000000000000e+00" itree="702">
      <Node pos="s" depth="0" NCoef="0" IVar="3" Cut="2.4002945423126221e+00" cType="1" res="-1.6267979517579079e-02" rms="4.4937255978584290e-01" purity="4.8228442668914795e-01" nType="0">
        <Node pos="l" depth="1" NCoef="0" IVar="4" Cut="6.3724098205566406e+01" cType="1" res="-4.6952825505286455e-04" rms="4.6629589796066284e-01" purity="5.5403143167495728e-01" nType="0">
          <Node pos="l" depth="2" NCoef="0" IVar="-1" Cut="0.0000000000000000e+00" cType="1" res="1.1350568383932114e-03" rms="4.6488401293754578e-01" purity="6.0907721519470215e-01" nType="-99"/>
          <Node pos="r" depth="2" NCoef="0" IVar="-1" Cut="0.0000000000000000e+00" cType="1" res="-7.0323742693290114e-04" rms="4.6462959051132202e-01" purity="5.2058172225952148e-01" nType="-99"/>
        </Node>
        <Node pos="r" depth="1" NCoef="0" IVar="4" Cut="2.0621748352050781e+02" cType="1" res="-7.2578601539134979e-02" rms="3.7767979502677917e-01" purity="2.2655561566352844e-01" nType="0">
          <Node pos="l" depth="2" NCoef="0" IVar="-1" Cut="0.0000000000000000e+00" cType="1" res="-2.6395739987492561e-03" rms="3.5259294509887695e-01" purity="1.9957402348518372e-01" nType="-99"/>
          <Node pos="r" depth="2" NCoef="0" IVar="-1" Cut="0.0000000000000000e+00" cType="1" res="2.3582467110827565e-04" rms="4.1529020667076111e-01" purity="2.8506159782409668e-01" nType="-99"/>
        </Node>
      </Node>
    </BinaryTree>
    <BinaryTree type="DecisionTree" boostWeight="1.0000000000000000e+00" itree="703">
      <Node pos="s" depth="0" NCoef="0" IVar="0" Cut="8.5289468765258789e+00" cType="1" res="1.9409750821068883e-03" rms="4.4322890043258667e-01" purity="4.9632558226585388e-01" nType="0">
        <Node pos="l" depth="1" NCoef="0" IVar="0" Cut="7.4431476593017578e+00" cType="1" res="-7.6953633688390255e-03" rms="4.5151671767234802e-01" purity="4.4907575845718384e-01" nType="0">
          <Node pos="l" depth="2" NCoef="0" IVar="-1" Cut="0.0000000000000000e+00" cType="1" res="2.1424957958515733e-04" rms="4.4881200790405273e-01" purity="4.1041737794876099e-01" nType="-99"/>
          <Node pos="r" depth="2" NCoef="0" IVar="-1" Cut="0.0000000000000000e+00" cType="1" res="-1.4859983930364251e-03" rms="4.5575907826423645e-01" purity="5.6837964057922363e-01" nType="-99"/>
        </Node>
        <Node pos="r" depth="1" NCoef="0" IVar="5" Cut="3.7670484185218811e-01" cType="1" res="6.2673360109329224e-02" rms="3.8136947154998779e-01" purity="7.9411441087722778e-01" nType="0">
          <Node pos="l" depth="2" NCoef="0" IVar="-1" Cut="0.0000000000000000e+00" cType="1" res="3.2330462709069252e-03" rms="3.6937701702117920e-01" purity="8.0008846521377563e-01" nType="-99"/>
          <Node pos="r" depth="2" NCoef="0" IVar="-1" Cut="0.0000000000000000e+00" cType="1" res="8.6395640391856432e-04" rms="3.8584071397781372e-01" purity="7.8984481096267700e-01" nType="-99"/>
        </Node>
      </Node>
    </BinaryTree>
    <BinaryTree type="DecisionTree" boostWeight="1.0000000000000000e+00" itree="704">
      <Node pos="s" depth="0" NCoef="0" IVar="3" Cut="2.1126980781555176e+00" cType="1" res="1.7096333205699921e-02" rms="4.4853860139846802e-01" purity="5.0958907604217529e-01" nType="0">
        <Node pos="l" depth="1" NCoef="0" IVar="1" Cut="4.0311920166015625e+01" cType="1" res="5.7712480425834656e-02" rms="4.4802096486091614e-01" purity="6.4066255092620850e-01" nType="0">
          <Node pos="l" depth="2" NCoef="0" IVar="-1" Cut="0.0000000000000000e+00" cType="1" res="-1.1870574671775103e-03" rms="4.8661479353904724e-01" purity="4.0567445755004883e-01" nType="-99"/>
          <Node pos="r" depth="2" NCoef="0" IVar="-1" Cut="0.0000000000000000e+00" cType="1" res="1.9297783728688955e-03" rms="4.3607926368713379e-01" purity="6.8869292736053467e-01" nType="-99"/>
        </Node>
        <Node pos="r" depth="1" NCoef="0" IVar="6" Cut="3.8792449951171875e+02" cType="1" res="-1.1699790135025978e-02" rms="4.4667339324951172e-01" purity="4.1666033864021301e-01" nType="0">
          <Node pos="l" depth="2" NCoef="0" IVar="-1" Cut="0.0000000000000000e+00" cType="1" res="-1.0809939121827483e-03" rms="4.3338266015052795e-01" purity="3.4600669145584106e-01" nType="-99"/>
          <Node pos="r" depth="2" NCoef="0" IVar="-1" Cut="0.0000000000000000e+00" cType="1" res="5.9732247609645128e-04" rms="4.5750737190246582e-01" purity="4.9190571904182434e-01" nType="-99"/>
        </Node>
      </Node>
    </BinaryTree>
    <BinaryTree type="DecisionTree" boostWeight="1.0000000000000000e+00" itree="705">
      <Node pos="s" depth="0" NCoef="0" IVar="1" Cut="6.2388778686523438e+01" cType="1" res="3.8224928081035614e-02" rms="4.5154145359992981e-01" purity="5.3658461570739746e-01" nType="0">
        <Node pos="l" depth="1" NCoef="0" IVar="1" Cut="5.5596103668212891e+01" cType="1" res="8.4806596860289574e-03" rms="4.4366520643234253e-01" purity="4.6864342689514160e-01" nType="0">
          <Node pos="l" depth="2" NCoef="0" IVar="-1" Cut="0.0000000000000000e+00" cType="1" res="-4.9736478831619024e-04" rms="4.4970151782035828e-01" purity="4.3293634057044983e-01" nType="-99"/>
          <Node pos="r" depth="2" NCoef="0" IVar="-1" Cut="0.0000000000000000e+00" cType="1" res="2.3369465488940477e-03" rms="4.0936863422393799e-01" purity="5.8034473657608032e-01" nType="-99"/>
        </Node>
        <Node pos="r" depth="1" NCoef="0" IVar="2" Cut="5.7466483116149902e-01" cType="1" res="5.5761288851499557e-02" rms="4.5521154999732971e-01" purity="5.7664072513580322e-01" nType="0">
          <Node pos="l" depth="2" NCoef="0" IVar="-1" Cut="0.0000000000000000e+00" cType="1" res="-1.2217124458402395e-03" rms="4.7024020552635193e-01" purity="6.6518849134445190e-01" nType="-99"/>
          <Node pos="r" depth="2" NCoef="0" IVar="-1" Cut="0.0000000000000000e+00" cType="1" res="1.6049407422542572e-03" rms="4.5179831981658936e-01" purity="5.6597375869750977e-01" nType="-99"/>
        </Node>
      </Node>
    </BinaryTree>
    <BinaryTree type="DecisionTree" boostWeight="1.0000000000000000e+00" itree="706">
      <Node pos="s" depth="0" NCoef="0" IVar="0" Cut="5.3559184074401855e+00" cType="1" res="2.0476588979363441e-02" rms="4.5685127377510071e-01" purity="5.2281785011291504e-01" nType="0">
        <Node pos="l" depth="1" NCoef="0" IVar="0" Cut="4.9335947036743164e+00" cType="1" res="1.4512103796005249e-01" rms="4.5262554287910461e-01" purity="4.2775309085845947e-01" nType="0">
          <Node pos="l" depth="2" NCoef="0" IVar="-1" Cut="0.0000000000000000e+00" cType="1" res="9.7080256091430783e-04" rms="4.2703047394752502e-01" purity="2.9254609346389771e-01" nType="-99"/>
          <Node pos="r" depth="2" NCoef="0" IVar="-1" Cut="0.0000000000000000e+00" cType="1" res="6.0220919549465179e-03" rms="4.5264068245887756e-01" purity="5.6529939174652100e-01" nType="-99"/>
        </Node>
        <Node pos="r" depth="1" NCoef="0" IVar="0" Cut="8.5331039428710938e+00" cType="1" res="2.2693544160574675e-03" rms="4.5461359620094299e-01" purity="5.3670424222946167e-01" nType="0">
          <Node pos="l" depth="2" NCoef="0" IVar="-1" Cut="0.0000000000000000e+00" cType="1" res="-3.1347651383839548e-04" rms="4.6720761060714722e-01" purity="4.8588275909423828e-01" nType="-99"/>
          <Node pos="r" depth="2" NCoef="0" IVar="-1" Cut="0.0000000000000000e+00" cType="1" res="2.5904087815433741e-03" rms="3.6609140038490295e-01" purity="8.1435489654541016e-01" nType="-99"/>
        </Node>
      </Node>
    </BinaryTree>
    <BinaryTree type="DecisionTree" boostWeight="1.0000000000000000e+00" itree="707">
      <Node pos="s" depth="0" NCoef="0" IVar="6" Cut="3.9555862426757812e+02" cType="1" res="3.6902553983964026e-04" rms="4.5274269580841064e-01" purity="5.0388556718826294e-01" nType="0">
        <Node pos="l" depth="1" NCoef="0" IVar="0" Cut="7.0247168540954590e+00" cType="1" res="3.7916757166385651e-02" rms="4.3500220775604248e-01" purity="4.9730506539344788e-01" nType="0">
          <Node pos="l" depth="2" NCoef="0" IVar="-1" Cut="0.0000000000000000e+00" cType="1" res="1.9970651919720694e-05" rms="4.4880232214927673e-01" purity="3.4933450818061829e-01" nType="-99"/>
          <Node pos="r" depth="2" NCoef="0" IVar="-1" Cut="0.0000000000000000e+00" cType="1" res="2.1363154519349337e-03" rms="4.0993693470954895e-01" purity="7.0014756917953491e-01" nType="-99"/>
        </Node>
        <Node pos="r" depth="1" NCoef="0" IVar="0" Cut="7.1495809555053711e+00" cType="1" res="-3.7754792720079422e-02" rms="4.6699216961860657e-01" purity="5.1056700944900513e-01" nType="0">
          <Node pos="l" depth="2" NCoef="0" IVar="-1" Cut="0.0000000000000000e+00" cType="1" res="1.4372044824995100e-04" rms="4.7272479534149170e-01" purity="4.4765305519104004e-01" nType="-99"/>
          <Node pos="r" depth="2" NCoef="0" IVar="-1" Cut="0.0000000000000000e+00" cType="1" res="-2.6050268206745386e-03" rms="4.5244768261909485e-01" purity="5.9470266103744507e-01" nType="-99"/>
        </Node>
      </Node>
    </BinaryTree>
    <BinaryTree type="DecisionTree" boostWeight="1.0000000000000000e+00" itree="708">
      <Node pos="s" depth="0" NCoef="0" IVar="5" Cut="7.1050095558166504e-01" cType="1" res="-7.3841278208419681e-04" rms="4.4943368434906006e-01" purity="5.0613796710968018e-01" nType="0">
        <Node pos="l" depth="1" NCoef="0" IVar="2" Cut="1.6331839561462402e+00" cType="1" res="6.0848426073789597e-03" rms="4.4665938615798950e-01" purity="5.0332731008529663e-01" nType="0">
          <Node pos="l" depth="2" NCoef="0" IVar="-1" Cut="0.0000000000000000e+00" cType="1" res="3.5479493089951575e-04" rms="4.5472443103790283e-01" purity="5.3676444292068481e-01" nType="-99"/>
          <Node pos="r" depth="2" NCoef="0" IVar="-1" Cut="0.0000000000000000e+00" cType="1" res="-2.5572597514837980e-03" rms="3.3259022235870361e-01" purity="1.4288254082202911e-01" nType="-99"/>
        </Node>
        <Node pos="r" depth="1" NCoef="0" IVar="-1" Cut="0.0000000000000000e+00" cType="1" res="-2.5935773737728596e-03" rms="4.7824025154113770e-01" purity="5.4997682571411133e-01" nType="-99"/>
      </Node>
    </BinaryTree>
    <BinaryTree type="DecisionTree" boostWeight="1.0000000000000000e+00" itree="709">
      <Node pos="s" depth="0" NCoef="0" IVar="5" Cut="2.2677272558212280e-01" cType="1" res="-2.6412392035126686e-02" rms="4.5616093277931213e-01" purity="4.7469431161880493e-01" nType="0">
        <Node pos="l" depth="1" NCoef="0" IVar="4" Cut="1.4813404846191406e+02" cType="1" res="5.7790499180555344e-02" rms="4.4544127583503723e-01" purity="4.4670885801315308e-01" nType="0">
          <Node pos="l" depth="2" NCoef="0" IVar="-1" Cut="0.0000000000000000e+00" cType="1" res="5.3873751312494278e-04" rms="4.4691428542137146e-01" purity="4.1780310869216919e-01" nType="-99"/>
          <Node pos="r" depth="2" NCoef="0" IVar="-1" Cut="0.0000000000000000e+00" cType="1" res="3.3183644991368055e-03" rms="4.3417340517044067e-01" purity="5.0380355119705200e-01" nType="-99"/>
        </Node>
        <Node pos="r" depth="1" NCoef="0" IVar="4" Cut="1.0579693603515625e+02" cType="1" res="-4.8231102526187897e-02" rms="4.5637035369873047e-01" purity="4.8194590210914612e-01" nType="0">
          <Node pos="l" depth="2" NCoef="0" IVar="-1" Cut="0.0000000000000000e+00" cType="1" res="-2.8531259158626199e-04" rms="4.5827797055244446e-01" purity="5.2683222293853760e-01" nType="-99"/>
          <Node pos="r" depth="2" NCoef="0" IVar="-1" Cut="0.0000000000000000e+00" cType="1" res="-2.2026419173926115e-03" rms="4.4938004016876221e-01" purity="4.2222815752029419e-01" nType="-99"/>
        </Node>
      </Node>
    </BinaryTree>
    <BinaryTree type="DecisionTree" boostWeight="1.0000000000000000e+00" itree="710">
      <Node pos="s" depth="0" NCoef="0" IVar="3" Cut="1.8525190353393555e+00" cType="1" res="4.5645567588508129e-03" rms="4.4458109140396118e-01" purity="5.1037907600402832e-01" nType="0">
        <Node pos="l" depth="1" NCoef="0" IVar="0" Cut="6.7519969940185547e+00" cType="1" res="6.9853842258453369e-02" rms="4.3450441956520081e-01" purity="6.2046116590499878e-01" nType="0">
          <Node pos="l" depth="2" NCoef="0" IVar="-1" Cut="0.0000000000000000e+00" cType="1" res="4.0175527101382613e-04" rms="4.5991072058677673e-01" purity="4.5666939020156860e-01" nType="-99"/>
          <Node pos="r" depth="2" NCoef="0" IVar="-1" Cut="0.0000000000000000e+00" cType="1" res="3.0827652662992477e-03" rms="4.0004721283912659e-01" purity="7.8981566429138184e-01" nType="-99"/>
        </Node>
        <Node pos="r" depth="1" NCoef="0" IVar="5" Cut="4.2121067643165588e-01" cType="1" res="-5.5630472488701344e-03" rms="4.4526693224906921e-01" purity="4.9330329895019531e-01" nType="0">
          <Node pos="l" depth="2" NCoef="0" IVar="-1" Cut="0.0000000000000000e+00" cType="1" res="5.6218542158603668e-04" rms="4.3873587250709534e-01" purity="4.8025047779083252e-01" nType="-99"/>
          <Node pos="r" depth="2" NCoef="0" IVar="-1" Cut="0.0000000000000000e+00" cType="1" res="-9.8335172515362501e-04" rms="4.5084476470947266e-01" purity="5.1032280921936035e-01" nType="-99"/>
        </Node>
      </Node>
    </BinaryTree>
    <BinaryTree type="DecisionTree" boostWeight="1.0000000000000000e+00" itree="711">
      <Node pos="s" depth="0" NCoef="0" IVar="1" Cut="1.1896124267578125e+02" cType="1" res="1.0145345702767372e-02" rms="4.4410988688468933e-01" purity="5.0952202081680298e-01" nType="0">
        <Node pos="l" depth="1" NCoef="0" IVar="5" Cut="5.5661433935165405e-01" cType="1" res="-7.6962108723819256e-03" rms="4.4889017939567566e-01" purity="4.8165944218635559e-01" nType="0">
          <Node pos="l" depth="2" NCoef="0" IVar="-1" Cut="0.0000000000000000e+00" cType="1" res="-7.4896041769534349e-04" rms="4.4838789105415344e-01" purity="4.3642398715019226e-01" nType="-99"/>
          <Node pos="r" depth="2" NCoef="0" IVar="-1" Cut="0.0000000000000000e+00" cType="1" res="1.9428123487159610e-03" rms="4.3941402435302734e-01" purity="6.4203721284866333e-01" nType="-99"/>
        </Node>
        <Node pos="r" depth="1" NCoef="0" IVar="3" Cut="2.2099602222442627e+00" cType="1" res="9.8405875265598297e-02" rms="4.0835228562355042e-01" purity="6.4735561609268188e-01" nType="0">
          <Node pos="l" depth="2" NCoef="0" IVar="-1" Cut="0.0000000000000000e+00" cType="1" res="4.5365323312580585e-03" rms="3.1552138924598694e-01" purity="8.7583458423614502e-01" nType="-99"/>
          <Node pos="r" depth="2" NCoef="0" IVar="-1" Cut="0.0000000000000000e+00" cType="1" res="1.4376083854585886e-03" rms="4.5370969176292419e-01" purity="5.0040578842163086e-01" nType="-99"/>
        </Node>
      </Node>
    </BinaryTree>
    <BinaryTree type="DecisionTree" boostWeight="1.0000000000000000e+00" itree="712">
      <Node pos="s" depth="0" NCoef="0" IVar="0" Cut="5.0952086448669434e+00" cType="1" res="2.5095790624618530e-02" rms="4.5213630795478821e-01" purity="5.2548670768737793e-01" nType="0">
        <Node pos="l" depth="1" NCoef="0" IVar="-1" Cut="0.0000000000000000e+00" cType="1" res="-1.6802174504846334e-03" rms="3.5442709922790527e-01" purity="1.6591469943523407e-01" nType="-99"/>
        <Node pos="r" depth="1" NCoef="0" IVar="2" Cut="7.8627133369445801e-01" cType="1" res="3.3259157091379166e-02" rms="4.5873445272445679e-01" purity="5.5671334266662598e-01" nType="0">
          <Node pos="l" depth="2" NCoef="0" IVar="-1" Cut="0.0000000000000000e+00" cType="1" res="-5.2702560788020492e-04" rms="4.5604225993156433e-01" purity="6.4362370967864990e-01" nType="-99"/>
          <Node pos="r" depth="2" NCoef="0" IVar="-1" Cut="0.0000000000000000e+00" cType="1" res="1.3327192282304168e-03" rms="4.5783409476280212e-01" purity="5.1863700151443481e-01" nType="-99"/>
        </Node>
      </Node>
    </BinaryTree>
    <BinaryTree type="DecisionTree" boostWeight="1.0000000000000000e+00" itree="713">
      <Node pos="s" depth="0" NCoef="0" IVar="4" Cut="2.0767955017089844e+02" cType="1" res="-6.9803888909518719e-03" rms="4.5449632406234741e-01" purity="4.9344614148139954e-01" nType="0">
        <Node pos="l" depth="1" NCoef="0" IVar="2" Cut="1.0195671319961548e+00" cType="1" res="1.0447618551552296e-02" rms="4.5971438288688660e-01" purity="5.1630496978759766e-01" nType="0">
          <Node pos="l" depth="2" NCoef="0" IVar="-1" Cut="0.0000000000000000e+00" cType="1" res="-4.5691552804782987e-04" rms="4.6801102161407471e-01" purity="5.9019809961318970e-01" nType="-99"/>
          <Node pos="r" depth="2" NCoef="0" IVar="-1" Cut="0.0000000000000000e+00" cType="1" res="1.2411866337060928e-03" rms="4.4520914554595947e-01" purity="4.1798487305641174e-01" nType="-99"/>
        </Node>
        <Node pos="r" depth="1" NCoef="0" IVar="3" Cut="2.1749505996704102e+00" cType="1" res="-7.9930715262889862e-02" rms="4.2427077889442444e-01" purity="3.9776360988616943e-01" nType="0">
          <Node pos="l" depth="2" NCoef="0" IVar="-1" Cut="0.0000000000000000e+00" cType="1" res="-3.2801255583763123e-03" rms="4.6199139952659607e-01" purity="4.9704697728157043e-01" nType="-99"/>
          <Node pos="r" depth="2" NCoef="0" IVar="-1" Cut="0.0000000000000000e+00" cType="1" res="-9.5909449737519026e-04" rms="3.9201301336288452e-01" purity="3.3308798074722290e-01" nType="-99"/>
        </Node>
      </Node>
    </BinaryTree>
    <BinaryTree type="DecisionTree" boostWeight="1.0000000000000000e+00" itree="714">
      <Node pos="s" depth="0" NCoef="0" IVar="1" Cut="9.9273750305175781e+01" cType="1" res="-1.4247372746467590e-02" rms="4.4437846541404724e-01" purity="4.9024200439453125e-01" nType="0">
        <Node pos="l" depth="1" NCoef="0" IVar="1" Cut="6.2729873657226562e+01" cType="1" res="-4.0520571172237396e-02" rms="4.4118571281433105e-01" purity="4.3925657868385315e-01" nType="0">
          <Node pos="l" depth="2" NCoef="0" IVar="-1" Cut="0.0000000000000000e+00" cType="1" res="-2.1288891730364412e-04" rms="4.4969388842582703e-01" purity="4.4489431381225586e-01" nType="-99"/>
          <Node pos="r" depth="2" NCoef="0" IVar="-1" Cut="0.0000000000000000e+00" cType="1" res="-1.7195745604112744e-03" rms="4.2889049649238586e-01" purity="4.3300658464431763e-01" nType="-99"/>
        </Node>
        <Node pos="r" depth="1" NCoef="0" IVar="6" Cut="6.0388671875000000e+02" cType="1" res="5.0807595252990723e-02" rms="4.4556900858879089e-01" purity="6.1648690700531006e-01" nType="0">
          <Node pos="l" depth="2" NCoef="0" IVar="-1" Cut="0.0000000000000000e+00" cType="1" res="5.8035709662362933e-04" rms="4.5562756061553955e-01" purity="5.5878055095672607e-01" nType="-99"/>
          <Node pos="r" depth="2" NCoef="0" IVar="-1" Cut="0.0000000000000000e+00" cType="1" res="2.8185385745018721e-03" rms="4.1650065779685974e-01" purity="7.4373298883438110e-01" nType="-99"/>
        </Node>
      </Node>
    </BinaryTree>
    <BinaryTree type="DecisionTree" boostWeight="1.0000000000000000e+00" itree="715">
      <Node pos="s" depth="0" NCoef="0" IVar="2" Cut="6.7274600267410278e-01" cType="1" res="2.9605147428810596e-03" rms="4.4611421227455139e-01" purity="5.0744765996932983e-01" nType="0">
        <Node pos="l" depth="1" NCoef="0" IVar="6" Cut="4.4185369873046875e+02" cType="1" res="5.9787932783365250e-02" rms="4.1034832596778870e-01" purity="6.9652432203292847e-01" nType="0">
          <Node pos="l" depth="2" NCoef="0" IVar="-1" Cut="0.0000000000000000e+00" cType="1" res="2.7457270771265030e-03" rms="3.8729619979858398e-01" purity="7.1815997362136841e-01" nType="-99"/>
          <Node pos="r" depth="2" NCoef="0" IVar="-1" Cut="0.0000000000000000e+00" cType="1" res="-2.2897669987287372e-04" rms="4.2787569761276245e-01" purity="6.6921710968017578e-01" nType="-99"/>
        </Node>
        <Node pos="r" depth="1" NCoef="0" IVar="6" Cut="6.6372436523437500e+02" cType="1" res="-1.0990999639034271e-02" rms="4.5337712764739990e-01" purity="4.6102806925773621e-01" nType="0">
          <Node pos="l" depth="2" NCoef="0" IVar="-1" Cut="0.0000000000000000e+00" cType="1" res="-3.8676129770465195e-04" rms="4.5636573433876038e-01" purity="4.4154942035675049e-01" nType="-99"/>
          <Node pos="r" depth="2" NCoef="0" IVar="-1" Cut="0.0000000000000000e+00" cType="1" res="1.1492656776681542e-03" rms="4.1853988170623779e-01" purity="6.5327841043472290e-01" nType="-99"/>
        </Node>
      </Node>
    </BinaryTree>
    <BinaryTree type="DecisionTree" boostWeight="1.0000000000000000e+00" itree="716">
      <Node pos="s" depth="0" NCoef="0" IVar="5" Cut="1.6345080733299255e-01" cType="1" res="2.5381762534379959e-03" rms="4.4165703654289246e-01" purity="5.0809502601623535e-01" nType="0">
        <Node pos="l" depth="1" NCoef="0" IVar="5" Cut="1.2139074504375458e-01" cType="1" res="-9.9759712815284729e-02" rms="3.9923787117004395e-01" purity="2.6674342155456543e-01" nType="0">
          <Node pos="l" depth="2" NCoef="0" IVar="-1" Cut="0.0000000000000000e+00" cType="1" res="-2.8711722698062658e-03" rms="4.0469211339950562e-01" purity="2.5073736906051636e-01" nType="-99"/>
          <Node pos="r" depth="2" NCoef="0" IVar="-1" Cut="0.0000000000000000e+00" cType="1" res="-1.6930642304942012e-03" rms="3.9112916588783264e-01" purity="2.8343799710273743e-01" nType="-99"/>
        </Node>
        <Node pos="r" depth="1" NCoef="0" IVar="5" Cut="5.6684023141860962e-01" cType="1" res="1.6433464363217354e-02" rms="4.4529938697814941e-01" purity="5.4087817668914795e-01" nType="0">
          <Node pos="l" depth="2" NCoef="0" IVar="-1" Cut="0.0000000000000000e+00" cType="1" res="9.2624407261610031e-04" rms="4.4051781296730042e-01" purity="5.4725104570388794e-01" nType="-99"/>
          <Node pos="r" depth="2" NCoef="0" IVar="-1" Cut="0.0000000000000000e+00" cType="1" res="-1.1750884586945176e-03" rms="4.5250004529953003e-01" purity="5.2196127176284790e-01" nType="-99"/>
        </Node>
      </Node>
    </BinaryTree>
    <BinaryTree type="DecisionTree" boostWeight="1.0000000000000000e+00" itree="717">
      <Node pos="s" depth="0" NCoef="0" IVar="3" Cut="1.9792619943618774e+00" cType="1" res="-1.3408432714641094e-03" rms="4.5037707686424255e-01" purity="4.9140995740890503e-01" nType="0">
        <Node pos="l" depth="1" NCoef="0" IVar="2" Cut="8.2009220123291016e-01" cType="1" res="4.7935288399457932e-02" rms="4.4740089774131775e-01" purity="6.2773174047470093e-01" nType="0">
          <Node pos="l" depth="2" NCoef="0" IVar="-1" Cut="0.0000000000000000e+00" cType="1" res="2.2890802938491106e-03" rms="4.2127224802970886e-01" purity="7.3530864715576172e-01" nType="-99"/>
          <Node pos="r" depth="2" NCoef="0" IVar="-1" Cut="0.0000000000000000e+00" cType="1" res="-7.1575114270672202e-04" rms="4.7749131917953491e-01" purity="4.4953733682632446e-01" nType="-99"/>
        </Node>
        <Node pos="r" depth="1" NCoef="0" IVar="5" Cut="5.6280469894409180e-01" cType="1" res="-1.8673593178391457e-02" rms="4.5013865828514099e-01" purity="4.4345915317535400e-01" nType="0">
          <Node pos="l" depth="2" NCoef="0" IVar="-1" Cut="0.0000000000000000e+00" cType="1" res="-1.6073501683422364e-05" rms="4.4454506039619446e-01" purity="4.3596962094306946e-01" nType="-99"/>
          <Node pos="r" depth="2" NCoef="0" IVar="-1" Cut="0.0000000000000000e+00" cType="1" res="-1.8267193809151649e-03" rms="4.6391680836677551e-01" purity="4.7023916244506836e-01" nType="-99"/>
        </Node>
      </Node>
    </BinaryTree>
    <BinaryTree type="DecisionTree" boostWeight="1.0000000000000000e+00" itree="718">
      <Node pos="s" depth="0" NCoef="0" IVar="1" Cut="4.6525211334228516e+01" cType="1" res="-1.9704747945070267e-02" rms="4.4895029067993164e-01" purity="4.7384175658226013e-01" nType="0">
        <Node pos="l" depth="1" NCoef="0" IVar="0" Cut="7.1947612762451172e+00" cType="1" res="-8.8564090430736542e-02" rms="4.1553544998168945e-01" purity="3.2229709625244141e-01" nType="0">
          <Node pos="l" depth="2" NCoef="0" IVar="-1" Cut="0.0000000000000000e+00" cType="1" res="-2.7406637091189623e-03" rms="3.9141938090324402e-01" purity="2.0911400020122528e-01" nType="-99"/>
          <Node pos="r" depth="2" NCoef="0" IVar="-1" Cut="0.0000000000000000e+00" cType="1" res="-2.0152547222096473e-04" rms="4.5250442624092102e-01" purity="5.6314504146575928e-01" nType="-99"/>
        </Node>
        <Node pos="r" depth="1" NCoef="0" IVar="0" Cut="8.0784034729003906e+00" cType="1" res="-3.4371172077953815e-03" rms="4.5496797561645508e-01" purity="5.0964337587356567e-01" nType="0">
          <Node pos="l" depth="2" NCoef="0" IVar="-1" Cut="0.0000000000000000e+00" cType="1" res="4.6984633081592619e-04" rms="4.5064759254455566e-01" purity="4.8019409179687500e-01" nType="-99"/>
          <Node pos="r" depth="2" NCoef="0" IVar="-1" Cut="0.0000000000000000e+00" cType="1" res="-2.4450642522424459e-03" rms="4.5975229144096375e-01" purity="6.1268121004104614e-01" nType="-99"/>
        </Node>
      </Node>
    </BinaryTree>
    <BinaryTree type="DecisionTree" boostWeight="1.0000000000000000e+00" itree="719">
      <Node pos="s" depth="0" NCoef="0" IVar="5" Cut="5.7614207267761230e-01" cType="1" res="1.1726731434464455e-02" rms="4.5254725217819214e-01" purity="5.0874745845794678e-01" nType="0">
        <Node pos="l" depth="1" NCoef="0" IVar="6" Cut="6.5138500976562500e+02" cType="1" res="2.8644790872931480e-02" rms="4.4424372911453247e-01" purity="5.0096571445465088e-01" nType="0">
          <Node pos="l" depth="2" NCoef="0" IVar="-1" Cut="0.0000000000000000e+00" cType="1" res="9.1413519112393260e-04" rms="4.4163316488265991e-01" purity="4.9833962321281433e-01" nType="-99"/>
          <Node pos="r" depth="2" NCoef="0" IVar="-1" Cut="0.0000000000000000e+00" cType="1" res="-1.4479755191132426e-03" rms="4.5722007751464844e-01" purity="5.2520012855529785e-01" nType="-99"/>
        </Node>
        <Node pos="r" depth="1" NCoef="0" IVar="5" Cut="7.3427271842956543e-01" cType="1" res="-4.7804664820432663e-02" rms="4.7586840391159058e-01" purity="5.3612983226776123e-01" nType="0">
          <Node pos="l" depth="2" NCoef="0" IVar="-1" Cut="0.0000000000000000e+00" cType="1" res="-2.1591901313513517e-03" rms="4.7419649362564087e-01" purity="4.9347352981567383e-01" nType="-99"/>
          <Node pos="r" depth="2" NCoef="0" IVar="-1" Cut="0.0000000000000000e+00" cType="1" res="2.4527700152248144e-03" rms="4.4647142291069031e-01" purity="6.7574077844619751e-01" nType="-99"/>
        </Node>
      </Node>
    </BinaryTree>
    <BinaryTree type="DecisionTree" boostWeight="1.0000000000000000e+00" itree="720">
      <Node pos="s" depth="0" NCoef="0" IVar="4" Cut="2.9067828369140625e+02" cType="1" res="-1.5015495009720325e-02" rms="4.4547903537750244e-01" purity="4.8502418398857117e-01" nType="0">
        <Node pos="l" depth="1" NCoef="0" IVar="0" Cut="8.4044055938720703e+00" cType="1" res="-6.7044924944639206e-03" rms="4.4869926571846008e-01" purity="4.9811559915542603e-01" nType="0">
          <Node pos="l" depth="2" NCoef="0" IVar="-1" Cut="0.0000000000000000e+00" cType="1" res="2.2931814601179212e-04" rms="4.4728052616119385e-01" purity="4.6933841705322266e-01" nType="-99"/>
          <Node pos="r" depth="2" NCoef="0" IVar="-1" Cut="0.0000000000000000e+00" cType="1" res="-2.6137307286262512e-03" rms="4.4611790776252747e-01" purity="6.4473891258239746e-01" nType="-99"/>
        </Node>
        <Node pos="r" depth="1" NCoef="0" IVar="-1" Cut="0.0000000000000000e+00" cType="1" res="-2.4878850672394037e-03" rms="4.0166369080543518e-01" purity="3.5192334651947021e-01" nType="-99"/>
      </Node>
    </BinaryTree>
    <BinaryTree type="DecisionTree" boostWeight="1.0000000000000000e+00" itree="721">
      <Node pos="s" depth="0" NCoef="0" IVar="5" Cut="1.6201172769069672e-01" cType="1" res="-1.8397634848952293e-02" rms="4.5300301909446716e-01" purity="4.9517264962196350e-01" nType="0">
        <Node pos="l" depth="1" NCoef="0" IVar="-1" Cut="0.0000000000000000e+00" cType="1" res="3.2070861198008060e-03" rms="4.3169614672660828e-01" purity="5.4460221529006958e-01" nType="-99"/>
        <Node pos="r" depth="1" NCoef="0" IVar="3" Cut="1.7327320575714111e+00" cType="1" res="-3.5119354724884033e-02" rms="4.5220640301704407e-01" purity="4.8970353603363037e-01" nType="0">
          <Node pos="l" depth="2" NCoef="0" IVar="-1" Cut="0.0000000000000000e+00" cType="1" res="1.7674616537988186e-03" rms="4.4338130950927734e-01" purity="6.3090068101882935e-01" nType="-99"/>
          <Node pos="r" depth="2" NCoef="0" IVar="-1" Cut="0.0000000000000000e+00" cType="1" res="-9.8338781390339136e-04" rms="4.5185330510139465e-01" purity="4.8130112886428833e-01" nType="-99"/>
        </Node>
      </Node>
    </BinaryTree>
    <BinaryTree type="DecisionTree" boostWeight="1.0000000000000000e+00" itree="722">
      <Node pos="s" depth="0" NCoef="0" IVar="3" Cut="1.8022040128707886e+00" cType="1" res="-7.1655851788818836e-03" rms="4.4611749053001404e-01" purity="4.8588177561759949e-01" nType="0">
        <Node pos="l" depth="1" NCoef="0" IVar="-1" Cut="0.0000000000000000e+00" cType="1" res="-2.5553875602781773e-03" rms="4.3664097785949707e-01" purity="4.3798667192459106e-01" nType="-99"/>
        <Node pos="r" depth="1" NCoef="0" IVar="3" Cut="2.1757915019989014e+00" cType="1" res="1.9405982457101345e-03" rms="4.4568809866905212e-01" purity="4.8986819386482239e-01" nType="0">
          <Node pos="l" depth="2" NCoef="0" IVar="-1" Cut="0.0000000000000000e+00" cType="1" res="7.8245572512969375e-04" rms="4.5097392797470093e-01" purity="6.1500012874603271e-01" nType="-99"/>
          <Node pos="r" depth="2" NCoef="0" IVar="-1" Cut="0.0000000000000000e+00" cType="1" res="-6.4178492175415158e-04" rms="4.3868824839591980e-01" purity="3.7273031473159790e-01" nType="-99"/>
        </Node>
      </Node>
    </BinaryTree>
    <BinaryTree type="DecisionTree" boostWeight="1.0000000000000000e+00" itree="723">
      <Node pos="s" depth="0" NCoef="0" IVar="0" Cut="4.9635910987854004e+00" cType="1" res="1.0373189114034176e-02" rms="4.4404348731040955e-01" purity="5.0897830724716187e-01" nType="0">
        <Node pos="l" depth="1" NCoef="0" IVar="-1" Cut="0.0000000000000000e+00" cType="1" res="-2.0595064852386713e-03" rms="3.7128162384033203e-01" purity="1.7033940553665161e-01" nType="-99"/>
        <Node pos="r" depth="1" NCoef="0" IVar="5" Cut="5.6160455942153931e-01" cType="1" res="1.8216300755739212e-02" rms="4.4813543558120728e-01" purity="5.3477770090103149e-01" nType="0">
          <Node pos="l" depth="2" NCoef="0" IVar="-1" Cut="0.0000000000000000e+00" cType="1" res="6.2281615100800991e-05" rms="4.5354524254798889e-01" purity="4.9509808421134949e-01" nType="-99"/>
          <Node pos="r" depth="2" NCoef="0" IVar="-1" Cut="0.0000000000000000e+00" cType="1" res="1.7288251547142863e-03" rms="4.2419129610061646e-01" purity="6.7374366521835327e-01" nType="-99"/>
        </Node>
      </Node>
    </BinaryTree>
    <BinaryTree type="DecisionTree" boostWeight="1.0000000000000000e+00" itree="724">
      <Node pos="s" depth="0" NCoef="0" IVar="0" Cut="8.8683099746704102e+00" cType="1" res="-7.3716975748538971e-03" rms="4.5155376195907593e-01" purity="4.9812623858451843e-01" nType="0">
        <Node pos="l" depth="1" NCoef="0" IVar="0" Cut="5.9720487594604492e+00" cType="1" res="1.9080443307757378e-03" rms="4.5103907585144043e-01" purity="4.8627558350563049e-01" nType="0">
          <Node pos="l" depth="2" NCoef="0" IVar="-1" Cut="0.0000000000000000e+00" cType="1" res="-1.4435478951781988e-03" rms="4.0894246101379395e-01" purity="2.5173798203468323e-01" nType="-99"/>
          <Node pos="r" depth="2" NCoef="0" IVar="-1" Cut="0.0000000000000000e+00" cType="1" res="6.6878221696242690e-04" rms="4.6501460671424866e-01" purity="5.8521020412445068e-01" nType="-99"/>
        </Node>
        <Node pos="r" depth="1" NCoef="0" IVar="-1" Cut="0.0000000000000000e+00" cType="1" res="-2.9704829212278128e-03" rms="4.4524496793746948e-01" purity="6.2369132041931152e-01" nType="-99"/>
      </Node>
    </BinaryTree>
    <BinaryTree type="DecisionTree" boostWeight="1.0000000000000000e+00" itree="725">
      <Node pos="s" depth="0" NCoef="0" IVar="5" Cut="1.4689117670059204e-01" cType="1" res="4.2730062268674374e-03" rms="4.4903066754341125e-01" purity="5.0492423772811890e-01" nType="0">
        <Node pos="l" depth="1" NCoef="0" IVar="-1" Cut="0.0000000000000000e+00" cType="1" res="-2.2169493604451418e-03" rms="4.0886029601097107e-01" purity="2.7012917399406433e-01" nType="-99"/>
        <Node pos="r" depth="1" NCoef="0" IVar="5" Cut="7.1950966119766235e-01" cType="1" res="1.3989211991429329e-02" rms="4.5171570777893066e-01" purity="5.2846157550811768e-01" nType="0">
          <Node pos="l" depth="2" NCoef="0" IVar="-1" Cut="0.0000000000000000e+00" cType="1" res="1.1923540296265855e-04" rms="4.5548832416534424e-01" purity="5.1140719652175903e-01" nType="-99"/>
          <Node pos="r" depth="2" NCoef="0" IVar="-1" Cut="0.0000000000000000e+00" cType="1" res="4.0434682741761208e-03" rms="3.5401242971420288e-01" purity="8.0750727653503418e-01" nType="-99"/>
        </Node>
      </Node>
    </BinaryTree>
    <BinaryTree type="DecisionTree" boostWeight="1.0000000000000000e+00" itree="726">
      <Node pos="s" depth="0" NCoef="0" IVar="5" Cut="6.3175541162490845e-01" cType="1" res="-1.4541954733431339e-02" rms="4.4845259189605713e-01" purity="4.8696717619895935e-01" nType="0">
        <Node pos="l" depth="1" NCoef="0" IVar="1" Cut="1.0038343811035156e+02" cType="1" res="-2.4823820218443871e-02" rms="4.5421621203422546e-01" purity="4.6283152699470520e-01" nType="0">
          <Node pos="l" depth="2" NCoef="0" IVar="-1" Cut="0.0000000000000000e+00" cType="1" res="-9.7564089810475707e-04" rms="4.4530355930328369e-01" purity="4.1291025280952454e-01" nType="-99"/>
          <Node pos="r" depth="2" NCoef="0" IVar="-1" Cut="0.0000000000000000e+00" cType="1" res="4.3865430052392185e-04" rms="4.7193202376365662e-01" purity="5.8136981725692749e-01" nType="-99"/>
        </Node>
        <Node pos="r" depth="1" NCoef="0" IVar="6" Cut="3.3183120727539062e+02" cType="1" res="5.1687732338905334e-02" rms="4.0315023064613342e-01" purity="6.4243495464324951e-01" nType="0">
          <Node pos="l" depth="2" NCoef="0" IVar="-1" Cut="0.0000000000000000e+00" cType="1" res="-3.9644780918024480e-04" rms="4.3561607599258423e-01" purity="4.8829028010368347e-01" nType="-99"/>
          <Node pos="r" depth="2" NCoef="0" IVar="-1" Cut="0.0000000000000000e+00" cType="1" res="2.5472883135080338e-03" rms="3.6956468224525452e-01" purity="7.5501739978790283e-01" nType="-99"/>
        </Node>
      </Node>
    </BinaryTree>
    <BinaryTree type="DecisionTree" boostWeight="1.0000000000000000e+00" itree="727">
      <Node pos="s" depth="0" NCoef="0" IVar="1" Cut="1.1439128112792969e+02" cType="1" res="-5.5193803273141384e-03" rms="4.5388749241828918e-01" purity="4.8682761192321777e-01" nType="0">
        <Node pos="l" depth="1" NCoef="0" IVar="1" Cut="7.8663291931152344e+01" cType="1" res="-1.9242614507675171e-02" rms="4.6255049109458923e-01" purity="4.5795616507530212e-01" nType="0">
          <Node pos="l" depth="2" NCoef="0" IVar="-1" Cut="0.0000000000000000e+00" cType="1" res="1.9517350301612169e-04" rms="4.5663565397262573e-01" purity="4.5788922905921936e-01" nType="-99"/>
          <Node pos="r" depth="2" NCoef="0" IVar="-1" Cut="0.0000000000000000e+00" cType="1" res="-1.7266084905713797e-03" rms="4.6935194730758667e-01" purity="4.5809403061866760e-01" nType="-99"/>
        </Node>
        <Node pos="r" depth="1" NCoef="0" IVar="5" Cut="4.2744415998458862e-01" cType="1" res="5.1787342876195908e-02" rms="4.1084134578704834e-01" purity="6.0739171504974365e-01" nType="0">
          <Node pos="l" depth="2" NCoef="0" IVar="-1" Cut="0.0000000000000000e+00" cType="1" res="2.9957324732095003e-03" rms="3.8150405883789062e-01" purity="6.5372085571289062e-01" nType="-99"/>
          <Node pos="r" depth="2" NCoef="0" IVar="-1" Cut="0.0000000000000000e+00" cType="1" res="-9.0689008357003331e-04" rms="4.3030539155006409e-01" purity="5.4719132184982300e-01" nType="-99"/>
        </Node>
      </Node>
    </BinaryTree>
    <BinaryTree type="DecisionTree" boostWeight="1.0000000000000000e+00" itree="728">
      <Node pos="s" depth="0" NCoef="0" IVar="2" Cut="1.0311405658721924e+00" cType="1" res="1.2509219348430634e-02" rms="4.4487422704696655e-01" purity="5.1620173454284668e-01" nType="0">
        <Node pos="l" depth="1" NCoef="0" IVar="0" Cut="5.6467714309692383e+00" cType="1" res="3.7808526307344437e-02" rms="4.5151591300964355e-01" purity="6.5767204761505127e-01" nType="0">
          <Node pos="l" depth="2" NCoef="0" IVar="-1" Cut="0.0000000000000000e+00" cType="1" res="3.0536144040524960e-03" rms="4.8620712757110596e-01" purity="5.2687871456146240e-01" nType="-99"/>
          <Node pos="r" depth="2" NCoef="0" IVar="-1" Cut="0.0000000000000000e+00" cType="1" res="3.6610206007026136e-04" rms="4.4023224711418152e-01" purity="6.8596649169921875e-01" nType="-99"/>
        </Node>
        <Node pos="r" depth="1" NCoef="0" IVar="6" Cut="3.9389590454101562e+02" cType="1" res="-1.8123341724276543e-02" rms="4.3473109602928162e-01" purity="3.4490850567817688e-01" nType="0">
          <Node pos="l" depth="2" NCoef="0" IVar="-1" Cut="0.0000000000000000e+00" cType="1" res="-1.4588653575628996e-03" rms="4.0675082802772522e-01" purity="2.6457560062408447e-01" nType="-99"/>
          <Node pos="r" depth="2" NCoef="0" IVar="-1" Cut="0.0000000000000000e+00" cType="1" res="6.7529751686379313e-04" rms="4.5883965492248535e-01" purity="4.3264105916023254e-01" nType="-99"/>
        </Node>
      </Node>
    </BinaryTree>
    <BinaryTree type="DecisionTree" boostWeight="1.0000000000000000e+00" itree="729">
      <Node pos="s" depth="0" NCoef="0" IVar="6" Cut="4.5110192871093750e+02" cType="1" res="-5.9222122654318810e-03" rms="4.5600584149360657e-01" purity="5.0183284282684326e-01" nType="0">
        <Node pos="l" depth="1" NCoef="0" IVar="1" Cut="1.0820065307617188e+02" cType="1" res="1.1336872354149818e-02" rms="4.5319351553916931e-01" purity="4.8470902442932129e-01" nType="0">
          <Node pos="l" depth="2" NCoef="0" IVar="-1" Cut="0.0000000000000000e+00" cType="1" res="5.6619138922542334e-04" rms="4.4837003946304321e-01" purity="4.9650099873542786e-01" nType="-99"/>
          <Node pos="r" depth="2" NCoef="0" IVar="-1" Cut="0.0000000000000000e+00" cType="1" res="-1.6712745418772101e-03" rms="4.7476208209991455e-01" purity="4.0827530622482300e-01" nType="-99"/>
        </Node>
        <Node pos="r" depth="1" NCoef="0" IVar="5" Cut="4.8364070057868958e-01" cType="1" res="-4.1285660117864609e-02" rms="4.5969513058662415e-01" purity="5.3691905736923218e-01" nType="0">
          <Node pos="l" depth="2" NCoef="0" IVar="-1" Cut="0.0000000000000000e+00" cType="1" res="-2.8121159994043410e-04" rms="4.4530102610588074e-01" purity="5.3639245033264160e-01" nType="-99"/>
          <Node pos="r" depth="2" NCoef="0" IVar="-1" Cut="0.0000000000000000e+00" cType="1" res="-3.2756910659372807e-03" rms="4.8960670828819275e-01" purity="5.3847241401672363e-01" nType="-99"/>
        </Node>
      </Node>
    </BinaryTree>
    <BinaryTree type="DecisionTree" boostWeight="1.0000000000000000e+00" itree="730">
      <Node pos="s" depth="0" NCoef="0" IVar="3" Cut="1.6740539073944092e+00" cType="1" res="7.2800810448825359e-03" rms="4.4266104698181152e-01" purity="4.9447154998779297e-01" nType="0">
        <Node pos="l" depth="1" NCoef="0" IVar="-1" Cut="0.0000000000000000e+00" cType="1" res="-3.1665789429098368e-03" rms="4.1311198472976685e-01" purity="3.5779377818107605e-01" nType="-99"/>
        <Node pos="r" depth="1" NCoef="0" IVar="0" Cut="9.1674451828002930e+00" cType="1" res="1.5813367441296577e-02" rms="4.4275817275047302e-01" purity="5.0224769115447998e-01" nType="0">
          <Node pos="l" depth="2" NCoef="0" IVar="-1" Cut="0.0000000000000000e+00" cType="1" res="1.9901689665857702e-04" rms="4.4766110181808472e-01" purity="4.7733062505722046e-01" nType="-99"/>
          <Node pos="r" depth="2" NCoef="0" IVar="-1" Cut="0.0000000000000000e+00" cType="1" res="4.0343548171222210e-03" rms="3.4298774600028992e-01" purity="8.7500566244125366e-01" nType="-99"/>
        </Node>
      </Node>
    </BinaryTree>
    <BinaryTree type="DecisionTree" boostWeight="1.0000000000000000e+00" itree="731">
      <Node pos="s" depth="0" NCoef="0" IVar="5" Cut="2.1600072085857391e-01" cType="1" res="4.1537061333656311e-03" rms="4.5271494984626770e-01" purity="4.9984934926033020e-01" nType="0">
        <Node pos="l" depth="1" NCoef="0" IVar="6" Cut="3.9721759033203125e+02" cType="1" res="7.7360905706882477e-02" rms="4.2975172400474548e-01" purity="4.5683977007865906e-01" nType="0">
          <Node pos="l" depth="2" NCoef="0" IVar="-1" Cut="0.0000000000000000e+00" cType="1" res="-3.3513360540382564e-04" rms="3.9011791348457336e-01" purity="3.0945152044296265e-01" nType="-99"/>
          <Node pos="r" depth="2" NCoef="0" IVar="-1" Cut="0.0000000000000000e+00" cType="1" res="3.5358471795916557e-03" rms="4.4549897313117981e-01" purity="5.6985652446746826e-01" nType="-99"/>
        </Node>
        <Node pos="r" depth="1" NCoef="0" IVar="2" Cut="7.9951608180999756e-01" cType="1" res="-1.1454523541033268e-02" rms="4.5594415068626404e-01" purity="5.0901925563812256e-01" nType="0">
          <Node pos="l" depth="2" NCoef="0" IVar="-1" Cut="0.0000000000000000e+00" cType="1" res="-1.1710650287568569e-03" rms="4.6433037519454956e-01" purity="5.9122991561889648e-01" nType="-99"/>
          <Node pos="r" depth="2" NCoef="0" IVar="-1" Cut="0.0000000000000000e+00" cType="1" res="1.8551264656707644e-04" rms="4.5030757784843445e-01" purity="4.6654286980628967e-01" nType="-99"/>
        </Node>
      </Node>
    </BinaryTree>
    <BinaryTree type="DecisionTree" boostWeight="1.0000000000000000e+00" itree="732">
      <Node pos="s" depth="0" NCoef="0" IVar="3" Cut="1.9435596466064453e+00" cType="1" res="-3.5762682557106018e-02" rms="4.4840490818023682e-01" purity="4.6138933300971985e-01" nType="0">
        <Node pos="l" depth="1" NCoef="0" IVar="4" Cut="6.6166786193847656e+01" cType="1" res="3.7949863821268082e-02" rms="4.5979166030883789e-01" purity="6.0716187953948975e-01" nType="0">
          <Node pos="l" depth="2" NCoef="0" IVar="-1" Cut="0.0000000000000000e+00" cType="1" res="1.9108899869024754e-03" rms="4.4457575678825378e-01" purity="6.5756916999816895e-01" nType="-99"/>
          <Node pos="r" depth="2" NCoef="0" IVar="-1" Cut="0.0000000000000000e+00" cType="1" res="-2.8890703106299043e-05" rms="4.6751344203948975e-01" purity="5.6801950931549072e-01" nType="-99"/>
        </Node>
        <Node pos="r" depth="1" NCoef="0" IVar="3" Cut="2.7593781948089600e+00" cType="1" res="-5.5970717221498489e-02" rms="4.4309586286544800e-01" purity="4.2142632603645325e-01" nType="0">
          <Node pos="l" depth="2" NCoef="0" IVar="-1" Cut="0.0000000000000000e+00" cType="1" res="-1.1715365108102560e-03" rms="4.5289364457130432e-01" purity="4.4759032130241394e-01" nType="-99"/>
          <Node pos="r" depth="2" NCoef="0" IVar="-1" Cut="0.0000000000000000e+00" cType="1" res="-3.5541125107556581e-03" rms="2.7966311573982239e-01" purity="8.6675584316253662e-02" nType="-99"/>
        </Node>
      </Node>
    </BinaryTree>
    <BinaryTree type="DecisionTree" boostWeight="1.0000000000000000e+00" itree="733">
      <Node pos="s" depth="0" NCoef="0" IVar="5" Cut="4.8733016848564148e-01" cType="1" res="-2.8985191602259874e-03" rms="4.4928264617919922e-01" purity="5.0478297472000122e-01" nType="0">
        <Node pos="l" depth="1" NCoef="0" IVar="2" Cut="7.3216152191162109e-01" cType="1" res="-2.4627443403005600e-02" rms="4.4498577713966370e-01" purity="4.4458726048469543e-01" nType="0">
          <Node pos="l" depth="2" NCoef="0" IVar="-1" Cut="0.0000000000000000e+00" cType="1" res="-2.4863975122570992e-03" rms="4.6872651576995850e-01" purity="5.2420198917388916e-01" nType="-99"/>
          <Node pos="r" depth="2" NCoef="0" IVar="-1" Cut="0.0000000000000000e+00" cType="1" res="-5.2350293117342517e-05" rms="4.3573364615440369e-01" purity="4.2345732450485229e-01" nType="-99"/>
        </Node>
        <Node pos="r" depth="1" NCoef="0" IVar="0" Cut="8.2834367752075195e+00" cType="1" res="4.2366117238998413e-02" rms="4.5478242635726929e-01" purity="6.3017982244491577e-01" nType="0">
          <Node pos="l" depth="2" NCoef="0" IVar="-1" Cut="0.0000000000000000e+00" cType="1" res="1.5736020868644118e-03" rms="4.4668674468994141e-01" purity="6.2039977312088013e-01" nType="-99"/>
          <Node pos="r" depth="2" NCoef="0" IVar="-1" Cut="0.0000000000000000e+00" cType="1" res="-2.8344902675598860e-03" rms="4.6811082959175110e-01" purity="6.7616564035415649e-01" nType="-99"/>
        </Node>
      </Node>
    </BinaryTree>
    <BinaryTree type="DecisionTree" boostWeight="1.0000000000000000e+00" itree="734">
      <Node pos="s" depth="0" NCoef="0" IVar="1" Cut="3.7949256896972656e+01" cType="1" res="-2.4924747645854950e-02" rms="4.4823735952377319e-01" purity="4.6557644009590149e-01" nType="0">
        <Node pos="l" depth="1" NCoef="0" IVar="-1" Cut="0.0000000000000000e+00" cType="1" res="-2.3101908154785633e-03" rms="4.2740309238433838e-01" purity="2.8531455993652344e-01" nType="-99"/>
        <Node pos="r" depth="1" NCoef="0" IVar="5" Cut="6.3067436218261719e-01" cType="1" res="-1.6934830695390701e-02" rms="4.4956907629966736e-01" purity="4.8414465785026550e-01" nType="0">
          <Node pos="l" depth="2" NCoef="0" IVar="-1" Cut="0.0000000000000000e+00" cType="1" res="-1.8139030726160854e-04" rms="4.5180389285087585e-01" purity="4.8108232021331787e-01" nType="-99"/>
          <Node pos="r" depth="2" NCoef="0" IVar="-1" Cut="0.0000000000000000e+00" cType="1" res="-1.9488245015963912e-03" rms="4.2731672525405884e-01" purity="5.0608211755752563e-01" nType="-99"/>
        </Node>
      </Node>
    </BinaryTree>
    <BinaryTree type="DecisionTree" boostWeight="1.0000000000000000e+00" itree="735">
      <Node pos="s" depth="0" NCoef="0" IVar="5" Cut="2.2056177258491516e-01" cType="1" res="1.3959950301796198e-03" rms="4.5271709561347961e-01" purity="5.0144106149673462e-01" nType="0">
        <Node pos="l" depth="1" NCoef="0" IVar="4" Cut="7.4924987792968750e+01" cType="1" res="-5.5266443639993668e-02" rms="4.3640810251235962e-01" purity="3.4959021210670471e-01" nType="0">
          <Node pos="l" depth="2" NCoef="0" IVar="-1" Cut="0.0000000000000000e+00" cType="1" res="-3.0668741092085838e-03" rms="3.7753990292549133e-01" purity="2.5439214706420898e-01" nType="-99"/>
          <Node pos="r" depth="2" NCoef="0" IVar="-1" Cut="0.0000000000000000e+00" cType="1" res="5.7798443594947457e-04" rms="4.6926075220108032e-01" purity="4.3490681052207947e-01" nType="-99"/>
        </Node>
        <Node pos="r" depth="1" NCoef="0" IVar="0" Cut="8.3043737411499023e+00" cType="1" res="1.7495233565568924e-02" rms="4.5596203207969666e-01" purity="5.4458576440811157e-01" nType="0">
          <Node pos="l" depth="2" NCoef="0" IVar="-1" Cut="0.0000000000000000e+00" cType="1" res="8.0103822983801365e-04" rms="4.5511433482170105e-01" purity="5.1219415664672852e-01" nType="-99"/>
          <Node pos="r" depth="2" NCoef="0" IVar="-1" Cut="0.0000000000000000e+00" cType="1" res="-1.5702814562246203e-03" rms="4.5193862915039062e-01" purity="6.7637920379638672e-01" nType="-99"/>
        </Node>
      </Node>
    </BinaryTree>
    <BinaryTree type="DecisionTree" boostWeight="1.0000000000000000e+00" itree="736">
      <Node pos="s" depth="0" NCoef="0" IVar="6" Cut="3.0613131713867188e+02" cType="1" res="-2.8602562379091978e-03" rms="4.5624855160713196e-01" purity="4.9236452579498291e-01" nType="0">
        <Node pos="l" depth="1" NCoef="0" IVar="4" Cut="7.7780845642089844e+01" cType="1" res="6.5293692052364349e-02" rms="4.5917502045631409e-01" purity="4.2916470766067505e-01" nType="0">
          <Node pos="l" depth="2" NCoef="0" IVar="-1" Cut="0.0000000000000000e+00" cType="1" res="-4.8506152234040201e-04" rms="4.6591687202453613e-01" purity="3.7283024191856384e-01" nType="-99"/>
          <Node pos="r" depth="2" NCoef="0" IVar="-1" Cut="0.0000000000000000e+00" cType="1" res="3.8414413575083017e-03" rms="4.3968936800956726e-01" purity="4.7754138708114624e-01" nType="-99"/>
        </Node>
        <Node pos="r" depth="1" NCoef="0" IVar="2" Cut="6.4803910255432129e-01" cType="1" res="-1.7920900136232376e-02" rms="4.5422181487083435e-01" purity="5.0633037090301514e-01" nType="0">
          <Node pos="l" depth="2" NCoef="0" IVar="-1" Cut="0.0000000000000000e+00" cType="1" res="2.0512689370661974e-03" rms="4.1252160072326660e-01" purity="7.5876176357269287e-01" nType="-99"/>
          <Node pos="r" depth="2" NCoef="0" IVar="-1" Cut="0.0000000000000000e+00" cType="1" res="-9.2904578195884824e-04" rms="4.6034586429595947e-01" purity="4.4804891943931580e-01" nType="-99"/>
        </Node>
      </Node>
    </BinaryTree>
    <BinaryTree type="DecisionTree" boostWeight="1.0000000000000000e+00" itree="737">
      <Node pos="s" depth="0" NCoef="0" IVar="3" Cut="2.4189834594726562e+00" cType="1" res="-1.8551995977759361e-02" rms="4.4913098216056824e-01" purity="4.7622051835060120e-01" nType="0">
        <Node pos="l" depth="1" NCoef="0" IVar="4" Cut="2.7286483764648438e+02" cType="1" res="-1.4569589402526617e-03" rms="4.6016669273376465e-01" purity="5.4074060916900635e-01" nType="0">
          <Node pos="l" depth="2" NCoef="0" IVar="-1" Cut="0.0000000000000000e+00" cType="1" res="1.9289235933683813e-04" rms="4.5423147082328796e-01" purity="5.5211436748504639e-01" nType="-99"/>
          <Node pos="r" depth="2" NCoef="0" IVar="-1" Cut="0.0000000000000000e+00" cType="1" res="-2.0706003997474909e-03" rms="5.0304555892944336e-01" purity="4.3476781249046326e-01" nType="-99"/>
        </Node>
        <Node pos="r" depth="1" NCoef="0" IVar="6" Cut="3.4633056640625000e+02" cType="1" res="-8.8533081114292145e-02" rms="3.9312359690666199e-01" purity="2.1209771931171417e-01" nType="0">
          <Node pos="l" depth="2" NCoef="0" IVar="-1" Cut="0.0000000000000000e+00" cType="1" res="3.8975820643827319e-04" rms="4.2862841486930847e-01" purity="3.0119058489799500e-01" nType="-99"/>
          <Node pos="r" depth="2" NCoef="0" IVar="-1" Cut="0.0000000000000000e+00" cType="1" res="-3.4157496411353350e-03" rms="3.5972249507904053e-01" purity="1.6292831301689148e-01" nType="-99"/>
        </Node>
      </Node>
    </BinaryTree>
    <BinaryTree type="DecisionTree" boostWeight="1.0000000000000000e+00" itree="738">
      <Node pos="s" depth="0" NCoef="0" IVar="0" Cut="5.1580038070678711e+00" cType="1" res="-9.7147105261683464e-03" rms="4.4948345422744751e-01" purity="4.9256354570388794e-01" nType="0">
        <Node pos="l" depth="1" NCoef="0" IVar="-1" Cut="0.0000000000000000e+00" cType="1" res="-2.7765172999352217e-03" rms="3.3905455470085144e-01" purity="1.3133776187896729e-01" nType="-99"/>
        <Node pos="r" depth="1" NCoef="0" IVar="4" Cut="1.0124544525146484e+02" cType="1" res="1.3334798859432340e-03" rms="4.5839831233024597e-01" purity="5.3135961294174194e-01" nType="0">
          <Node pos="l" depth="2" NCoef="0" IVar="-1" Cut="0.0000000000000000e+00" cType="1" res="-7.1129965363070369e-04" rms="4.6228089928627014e-01" purity="5.1716053485870361e-01" nType="-99"/>
          <Node pos="r" depth="2" NCoef="0" IVar="-1" Cut="0.0000000000000000e+00" cType="1" res="8.4612495265901089e-04" rms="4.5171695947647095e-01" purity="5.4661017656326294e-01" nType="-99"/>
        </Node>
      </Node>
    </BinaryTree>
    <BinaryTree type="DecisionTree" boostWeight="1.0000000000000000e+00" itree="739">
      <Node pos="s" depth="0" NCoef="0" IVar="1" Cut="4.2377353668212891e+01" cType="1" res="1.3504934497177601e-02" rms="4.5511046051979065e-01" purity="5.1003634929656982e-01" nType="0">
        <Node pos="l" depth="1" NCoef="0" IVar="4" Cut="9.2780784606933594e+01" cType="1" res="-9.4719417393207550e-02" rms="4.0863341093063354e-01" purity="2.8636330366134644e-01" nType="0">
          <Node pos="l" depth="2" NCoef="0" IVar="-1" Cut="0.0000000000000000e+00" cType="1" res="-3.9387540891766548e-03" rms="3.7913274765014648e-01" purity="2.1631406247615814e-01" nType="-99"/>
          <Node pos="r" depth="2" NCoef="0" IVar="-1" Cut="0.0000000000000000e+00" cType="1" res="4.5055123337078840e-05" rms="4.2877221107482910e-01" purity="3.8531789183616638e-01" nType="-99"/>
        </Node>
        <Node pos="r" depth="1" NCoef="0" IVar="2" Cut="1.2149585485458374e+00" cType="1" res="3.1907718628644943e-02" rms="4.6002334356307983e-01" purity="5.4807031154632568e-01" nType="0">
          <Node pos="l" depth="2" NCoef="0" IVar="-1" Cut="0.0000000000000000e+00" cType="1" res="3.0895951204001904e-04" rms="4.6137955784797668e-01" purity="6.0862427949905396e-01" nType="-99"/>
          <Node pos="r" depth="2" NCoef="0" IVar="-1" Cut="0.0000000000000000e+00" cType="1" res="1.8852702341973782e-03" rms="4.5360979437828064e-01" purity="4.0203082561492920e-01" nType="-99"/>
        </Node>
      </Node>
    </BinaryTree>
    <BinaryTree type="DecisionTree" boostWeight="1.0000000000000000e+00" itree="740">
      <Node pos="s" depth="0" NCoef="0" IVar="5" Cut="1.5850535035133362e-01" cType="1" res="2.6322668418288231e-02" rms="4.4828006625175476e-01" purity="5.2392977476119995e-01" nType="0">
        <Node pos="l" depth="1" NCoef="0" IVar="2" Cut="1.1993937492370605e+00" cType="1" res="-9.1338112950325012e-02" rms="4.2488381266593933e-01" purity="2.7937829494476318e-01" nType="0">
          <Node pos="l" depth="2" NCoef="0" IVar="-1" Cut="0.0000000000000000e+00" cType="1" res="-5.1553342491388321e-03" rms="3.6947348713874817e-01" purity="2.5215917825698853e-01" nType="-99"/>
          <Node pos="r" depth="2" NCoef="0" IVar="-1" Cut="0.0000000000000000e+00" cType="1" res="9.7006885334849358e-04" rms="4.2515847086906433e-01" purity="3.0208599567413330e-01" nType="-99"/>
        </Node>
        <Node pos="r" depth="1" NCoef="0" IVar="3" Cut="2.4165263175964355e+00" cType="1" res="4.2477611452341080e-02" rms="4.4899678230285645e-01" purity="5.5750691890716553e-01" nType="0">
          <Node pos="l" depth="2" NCoef="0" IVar="-1" Cut="0.0000000000000000e+00" cType="1" res="1.5812715282663703e-03" rms="4.5267277956008911e-01" purity="6.3122659921646118e-01" nType="-99"/>
          <Node pos="r" depth="2" NCoef="0" IVar="-1" Cut="0.0000000000000000e+00" cType="1" res="-1.4687418006360531e-03" rms="4.1867306828498840e-01" purity="2.5574201345443726e-01" nType="-99"/>
        </Node>
      </Node>
    </BinaryTree>
    <BinaryTree type="DecisionTree" boostWeight="1.0000000000000000e+00" itree="741">
      <Node pos="s" depth="0" NCoef="0" IVar="3" Cut="2.0855619907379150e+00" cType="1" res="-1.2337906518951058e-03" rms="4.5437702536582947e-01" purity="5.0179922580718994e-01" nType="0">
        <Node pos="l" depth="1" NCoef="0" IVar="6" Cut="3.7476470947265625e+02" cType="1" res="3.8403682410717010e-02" rms="4.5904105901718140e-01" purity="6.3505691289901733e-01" nType="0">
          <Node pos="l" depth="2" NCoef="0" IVar="-1" Cut="0.0000000000000000e+00" cType="1" res="2.7213545981794596e-03" rms="4.5327004790306091e-01" purity="6.5594094991683960e-01" nType="-99"/>
          <Node pos="r" depth="2" NCoef="0" IVar="-1" Cut="0.0000000000000000e+00" cType="1" res="-3.5699139698408544e-04" rms="4.5502880215644836e-01" purity="6.2131375074386597e-01" nType="-99"/>
        </Node>
        <Node pos="r" depth="1" NCoef="0" IVar="0" Cut="5.5095038414001465e+00" cType="1" res="-2.7270637452602386e-02" rms="4.4938859343528748e-01" purity="4.1426563262939453e-01" nType="0">
          <Node pos="l" depth="2" NCoef="0" IVar="-1" Cut="0.0000000000000000e+00" cType="1" res="1.9939295016229153e-03" rms="4.4785261154174805e-01" purity="2.9107233881950378e-01" nType="-99"/>
          <Node pos="r" depth="2" NCoef="0" IVar="-1" Cut="0.0000000000000000e+00" cType="1" res="-1.0918296175077558e-03" rms="4.4703081250190735e-01" purity="4.3934723734855652e-01" nType="-99"/>
        </Node>
      </Node>
    </BinaryTree>
    <BinaryTree type="DecisionTree" boostWeight="1.0000000000000000e+00" itree="742">
      <Node pos="s" depth="0" NCoef="0" IVar="0" Cut="8.6376705169677734e+00" cType="1" res="-4.0964265353977680e-03" rms="4.4809544086456299e-01" purity="4.9331879615783691e-01" nType="0">
        <Node pos="l" depth="1" NCoef="0" IVar="0" Cut="5.8312897682189941e+00" cType="1" res="-1.9757030531764030e-02" rms="4.5587307214736938e-01" purity="4.4984415173530579e-01" nType="0">
          <Node pos="l" depth="2" NCoef="0" IVar="-1" Cut="0.0000000000000000e+00" cType="1" res="7.9663482028990984e-04" rms="4.2350426316261292e-01" purity="3.4253737330436707e-01" nType="-99"/>
          <Node pos="r" depth="2" NCoef="0" IVar="-1" Cut="0.0000000000000000e+00" cType="1" res="-9.1607961803674698e-04" rms="4.6637061238288879e-01" purity="4.9223312735557556e-01" nType="-99"/>
        </Node>
        <Node pos="r" depth="1" NCoef="0" IVar="1" Cut="6.7750518798828125e+01" cType="1" res="1.1370446532964706e-01" rms="3.6356797814369202e-01" purity="8.2034009695053101e-01" nType="0">
          <Node pos="l" depth="2" NCoef="0" IVar="-1" Cut="0.0000000000000000e+00" cType="1" res="5.0147920846939087e-03" rms="2.9423603415489197e-01" purity="8.5450357198715210e-01" nType="-99"/>
          <Node pos="r" depth="2" NCoef="0" IVar="-1" Cut="0.0000000000000000e+00" cType="1" res="1.7728346865624189e-03" rms="3.9914101362228394e-01" purity="7.9455882310867310e-01" nType="-99"/>
        </Node>
      </Node>
    </BinaryTree>
    <BinaryTree type="DecisionTree" boostWeight="1.0000000000000000e+00" itree="743">
      <Node pos="s" depth="0" NCoef="0" IVar="4" Cut="1.8366827392578125e+02" cType="1" res="8.8866176083683968e-03" rms="4.4796657562255859e-01" purity="5.1905465126037598e-01" nType="0">
        <Node pos="l" depth="1" NCoef="0" IVar="4" Cut="9.0665481567382812e+01" cType="1" res="2.2229164838790894e-02" rms="4.5184192061424255e-01" purity="5.4127085208892822e-01" nType="0">
          <Node pos="l" depth="2" NCoef="0" IVar="-1" Cut="0.0000000000000000e+00" cType="1" res="-8.6913190898485482e-05" rms="4.5765781402587891e-01" purity="5.0379014015197754e-01" nType="-99"/>
          <Node pos="r" depth="2" NCoef="0" IVar="-1" Cut="0.0000000000000000e+00" cType="1" res="1.5901096630841494e-03" rms="4.3845751881599426e-01" purity="6.0417038202285767e-01" nType="-99"/>
        </Node>
        <Node pos="r" depth="1" NCoef="0" IVar="1" Cut="9.9394683837890625e+01" cType="1" res="-3.6189392209053040e-02" rms="4.3157863616943359e-01" purity="4.4400018453598022e-01" nType="0">
          <Node pos="l" depth="2" NCoef="0" IVar="-1" Cut="0.0000000000000000e+00" cType="1" res="-2.0021132659167051e-03" rms="4.1247063875198364e-01" purity="3.4741702675819397e-01" nType="-99"/>
          <Node pos="r" depth="2" NCoef="0" IVar="-1" Cut="0.0000000000000000e+00" cType="1" res="9.8307721782475710e-04" rms="4.5085757970809937e-01" purity="6.0241043567657471e-01" nType="-99"/>
        </Node>
      </Node>
    </BinaryTree>
    <BinaryTree type="DecisionTree" boostWeight="1.0000000000000000e+00" itree="744">
      <Node pos="s" depth="0" NCoef="0" IVar="0" Cut="7.7461576461791992e+00" cType="1" res="-2.2889127954840660e-02" rms="4.4542291760444641e-01" purity="4.8185816407203674e-01" nType="0">
        <Node pos="l" depth="1" NCoef="0" IVar="0" Cut="6.0466952323913574e+00" cType="1" res="-3.9559941738843918e-02" rms="4.4826847314834595e-01" purity="3.8987922668457031e-01" nType="0">
          <Node pos="l" depth="2" NCoef="0" IVar="-1" Cut="0.0000000000000000e+00" cType="1" res="-2.1775382265332155e-05" rms="4.4473776221275330e-01" purity="3.2115477323532104e-01" nType="-99"/>
          <Node pos="r" depth="2" NCoef="0" IVar="-1" Cut="0.0000000000000000e+00" cType="1" res="-1.4230704400688410e-03" rms="4.4876700639724731e-01" purity="4.3534538149833679e-01" nType="-99"/>
        </Node>
        <Node pos="r" depth="1" NCoef="0" IVar="0" Cut="9.2052106857299805e+00" cType="1" res="2.1435031667351723e-02" rms="4.3466830253601074e-01" purity="7.2641074657440186e-01" nType="0">
          <Node pos="l" depth="2" NCoef="0" IVar="-1" Cut="0.0000000000000000e+00" cType="1" res="1.7978339456021786e-03" rms="4.1136157512664795e-01" purity="7.5557833909988403e-01" nType="-99"/>
          <Node pos="r" depth="2" NCoef="0" IVar="-1" Cut="0.0000000000000000e+00" cType="1" res="-3.0268465634435415e-03" rms="4.7087216377258301e-01" purity="6.4681309461593628e-01" nType="-99"/>
        </Node>
      </Node>
    </BinaryTree>
    <BinaryTree type="DecisionTree" boostWeight="1.0000000000000000e+00" itree="745">
      <Node pos="s" depth="0" NCoef="0" IVar="3" Cut="2.7003428936004639e+00" cType="1" res="-1.6290621832013130e-02" rms="4.5050621032714844e-01" purity="4.9032747745513916e-01" nType="0">
        <Node pos="l" depth="1" NCoef="0" IVar="2" Cut="1.4264976978302002e+00" cType="1" res="-6.9958134554326534e-03" rms="4.6083778142929077e-01" purity="5.2035015821456909e-01" nType="0">
          <Node pos="l" depth="2" NCoef="0" IVar="-1" Cut="0.0000000000000000e+00" cType="1" res="-4.8937834799289703e-04" rms="4.6088349819183350e-01" purity="5.3327959775924683e-01" nType="-99"/>
          <Node pos="r" depth="2" NCoef="0" IVar="-1" Cut="0.0000000000000000e+00" cType="1" res="2.3876370396465063e-03" rms="4.4630816578865051e-01" purity="4.2457497119903564e-01" nType="-99"/>
        </Node>
        <Node pos="r" depth="1" NCoef="0" IVar="-1" Cut="0.0000000000000000e+00" cType="1" res="-4.4596944935619831e-03" rms="2.1820260584354401e-01" purity="5.6499201804399490e-02" nType="-99"/>
      </Node>
    </BinaryTree>
    <BinaryTree type="DecisionTree" boostWeight="1.0000000000000000e+00" itree="746">
      <Node pos="s" depth="0" NCoef="0" IVar="1" Cut="4.6525211334228516e+01" cType="1" res="-3.3975522965192795e-02" rms="4.4802001118659973e-01" purity="4.7439017891883850e-01" nType="0">
        <Node pos="l" depth="1" NCoef="0" IVar="4" Cut="8.0382202148437500e+01" cType="1" res="-1.0559716075658798e-01" rms="4.0961110591888428e-01" purity="3.1917127966880798e-01" nType="0">
          <Node pos="l" depth="2" NCoef="0" IVar="-1" Cut="0.0000000000000000e+00" cType="1" res="-3.5639186389744282e-03" rms="3.8005563616752625e-01" purity="2.4763695895671844e-01" nType="-99"/>
          <Node pos="r" depth="2" NCoef="0" IVar="-1" Cut="0.0000000000000000e+00" cType="1" res="-7.7686627628281713e-04" rms="4.3075093626976013e-01" purity="4.0249553322792053e-01" nType="-99"/>
        </Node>
        <Node pos="r" depth="1" NCoef="0" IVar="5" Cut="1.7145845293998718e-01" cType="1" res="-1.9136385992169380e-02" rms="4.5416277647018433e-01" purity="5.0654965639114380e-01" nType="0">
          <Node pos="l" depth="2" NCoef="0" IVar="-1" Cut="0.0000000000000000e+00" cType="1" res="1.5738679794594646e-03" rms="4.3658456206321716e-01" purity="4.8330929875373840e-01" nType="-99"/>
          <Node pos="r" depth="2" NCoef="0" IVar="-1" Cut="0.0000000000000000e+00" cType="1" res="-6.8617513170465827e-04" rms="4.5526662468910217e-01" purity="5.0946974754333496e-01" nType="-99"/>
        </Node>
      </Node>
    </BinaryTree>
    <BinaryTree type="DecisionTree" boostWeight="1.0000000000000000e+00" itree="747">
      <Node pos="s" depth="0" NCoef="0" IVar="4" Cut="1.1581515502929688e+02" cType="1" res="-8.8340165093541145e-03" rms="4.5170432329177856e-01" purity="4.9464803934097290e-01" nType="0">
        <Node pos="l" depth="1" NCoef="0" IVar="5" Cut="2.2253444790840149e-01" cType="1" res="2.0564889535307884e-02" rms="4.5890611410140991e-01" purity="5.3623980283737183e-01" nType="0">
          <Node pos="l" depth="2" NCoef="0" IVar="-1" Cut="0.0000000000000000e+00" cType="1" res="-2.0467585418373346e-03" rms="4.1544896364212036e-01" purity="3.0120748281478882e-01" nType="-99"/>
          <Node pos="r" depth="2" NCoef="0" IVar="-1" Cut="0.0000000000000000e+00" cType="1" res="1.1422695824876428e-03" rms="4.6450313925743103e-01" purity="5.9390687942504883e-01" nType="-99"/>
        </Node>
        <Node pos="r" depth="1" NCoef="0" IVar="0" Cut="5.8994016647338867e+00" cType="1" res="-4.9070358276367188e-02" rms="4.3847388029098511e-01" purity="4.3772417306900024e-01" nType="0">
          <Node pos="l" depth="2" NCoef="0" IVar="-1" Cut="0.0000000000000000e+00" cType="1" res="-3.1923775095492601e-03" rms="3.5258299112319946e-01" purity="1.5999560058116913e-01" nType="-99"/>
          <Node pos="r" depth="2" NCoef="0" IVar="-1" Cut="0.0000000000000000e+00" cType="1" res="-4.2332668090239167e-04" rms="4.6081840991973877e-01" purity="5.3513979911804199e-01" nType="-99"/>
        </Node>
      </Node>
    </BinaryTree>
    <BinaryTree type="DecisionTree" boostWeight="1.0000000000000000e+00" itree="748">
      <Node pos="s" depth="0" NCoef="0" IVar="6" Cut="7.1966143798828125e+02" cType="1" res="3.3219659235328436e-03" rms="4.5239716768264771e-01" purity="5.0033152103424072e-01" nType="0">
        <Node pos="l" depth="1" NCoef="0" IVar="6" Cut="3.8583673095703125e+02" cType="1" res="-5.0374669954180717e-03" rms="4.5751899480819702e-01" purity="4.8474061489105225e-01" nType="0">
          <Node pos="l" depth="2" NCoef="0" IVar="-1" Cut="0.0000000000000000e+00" cType="1" res="8.8872871128842235e-04" rms="4.3982303142547607e-01" purity="4.7989094257354736e-01" nType="-99"/>
          <Node pos="r" depth="2" NCoef="0" IVar="-1" Cut="0.0000000000000000e+00" cType="1" res="-1.1153273517265916e-03" rms="4.7072824835777283e-01" purity="4.8959514498710632e-01" nType="-99"/>
        </Node>
        <Node pos="r" depth="1" NCoef="0" IVar="-1" Cut="0.0000000000000000e+00" cType="1" res="3.3964347094297409e-03" rms="3.5081392526626587e-01" purity="7.2249275445938110e-01" nType="-99"/>
      </Node>
    </BinaryTree>
    <BinaryTree type="DecisionTree" boostWeight="1.0000000000000000e+00" itree="749">
      <Node pos="s" depth="0" NCoef="0" IVar="5" Cut="4.9816483259201050e-01" cType="1" res="-1.5594499185681343e-02" rms="4.5474332571029663e-01" purity="4.8236909508705139e-01" nType="0">
        <Node pos="l" depth="1" NCoef="0" IVar="6" Cut="5.0434985351562500e+02" cType="1" res="1.0793639346957207e-02" rms="4.6064537763595581e-01" purity="4.8228108882904053e-01" nType="0">
          <Node pos="l" depth="2" NCoef="0" IVar="-1" Cut="0.0000000000000000e+00" cType="1" res="8.7050924776121974e-04" rms="4.5526838302612305e-01" purity="4.8097404837608337e-01" nType="-99"/>
          <Node pos="r" depth="2" NCoef="0" IVar="-1" Cut="0.0000000000000000e+00" cType="1" res="-1.2715145712718368e-03" rms="4.6725919842720032e-01" purity="4.8546141386032104e-01" nType="-99"/>
        </Node>
        <Node pos="r" depth="1" NCoef="0" IVar="0" Cut="7.8279509544372559e+00" cType="1" res="-7.3069803416728973e-02" rms="4.3612381815910339e-01" purity="4.8256066441535950e-01" nType="0">
          <Node pos="l" depth="2" NCoef="0" IVar="-1" Cut="0.0000000000000000e+00" cType="1" res="-2.4569998495280743e-03" rms="4.4847798347473145e-01" purity="3.7705636024475098e-01" nType="-99"/>
          <Node pos="r" depth="2" NCoef="0" IVar="-1" Cut="0.0000000000000000e+00" cType="1" res="1.6115736216306686e-03" rms="3.6831513047218323e-01" purity="7.9708123207092285e-01" nType="-99"/>
        </Node>
      </Node>
    </BinaryTree>
    <BinaryTree type="DecisionTree" boostWeight="1.0000000000000000e+00" itree="750">
      <Node pos="s" depth="0" NCoef="0" IVar="1" Cut="7.6910362243652344e+01" cType="1" res="-3.0609888955950737e-02" rms="4.4805580377578735e-01" purity="4.6665138006210327e-01" nType="0">
        <Node pos="l" depth="1" NCoef="0" IVar="5" Cut="2.6924318075180054e-01" cType="1" res="-6.7427560687065125e-02" rms="4.5359912514686584e-01" purity="4.0630161762237549e-01" nType="0">
          <Node pos="l" depth="2" NCoef="0" IVar="-1" Cut="0.0000000000000000e+00" cType="1" res="1.1233513941988349e-03" rms="4.4597619771957397e-01" purity="4.3375581502914429e-01" nType="-99"/>
          <Node pos="r" depth="2" NCoef="0" IVar="-1" Cut="0.0000000000000000e+00" cType="1" res="-2.3304689675569534e-03" rms="4.4941440224647522e-01" purity="3.9641016721725464e-01" nType="-99"/>
        </Node>
        <Node pos="r" depth="1" NCoef="0" IVar="0" Cut="8.2087783813476562e+00" cType="1" res="8.9764846488833427e-03" rms="4.3858340382575989e-01" purity="5.3153955936431885e-01" nType="0">
          <Node pos="l" depth="2" NCoef="0" IVar="-1" Cut="0.0000000000000000e+00" cType="1" res="-2.9723832267336547e-04" rms="4.5860904455184937e-01" purity="4.6039700508117676e-01" nType="-99"/>
          <Node pos="r" depth="2" NCoef="0" IVar="-1" Cut="0.0000000000000000e+00" cType="1" res="3.4866125788539648e-03" rms="3.0986061692237854e-01" purity="8.6232948303222656e-01" nType="-99"/>
        </Node>
      </Node>
    </BinaryTree>
    <BinaryTree type="DecisionTree" boostWeight="1.0000000000000000e+00" itree="751">
      <Node pos="s" depth="0" NCoef="0" IVar="5" Cut="2.4221579730510712e-01" cType="1" res="-3.8855493068695068e-02" rms="4.4655442237854004e-01" purity="4.6613270044326782e-01" nType="0">
        <Node pos="l" depth="1" NCoef="0" IVar="0" Cut="5.9323840141296387e+00" cType="1" res="-8.9361593127250671e-02" rms="4.3034332990646362e-01" purity="3.2799226045608521e-01" nType="0">
          <Node pos="l" depth="2" NCoef="0" IVar="-1" Cut="0.0000000000000000e+00" cType="1" res="-1.9078317563980818e-04" rms="4.0897333621978760e-01" purity="2.4883590638637543e-01" nType="-99"/>
          <Node pos="r" depth="2" NCoef="0" IVar="-1" Cut="0.0000000000000000e+00" cType="1" res="-2.8586050029844046e-03" rms="4.3457314372062683e-01" purity="3.6324954032897949e-01" nType="-99"/>
        </Node>
        <Node pos="r" depth="1" NCoef="0" IVar="0" Cut="7.4948401451110840e+00" cType="1" res="-2.3296274244785309e-02" rms="4.5029127597808838e-01" purity="5.0868910551071167e-01" nType="0">
          <Node pos="l" depth="2" NCoef="0" IVar="-1" Cut="0.0000000000000000e+00" cType="1" res="-1.1742580682039261e-03" rms="4.6181875467300415e-01" purity="3.8984650373458862e-01" nType="-99"/>
          <Node pos="r" depth="2" NCoef="0" IVar="-1" Cut="0.0000000000000000e+00" cType="1" res="9.8501984030008316e-04" rms="4.2107504606246948e-01" purity="7.3417955636978149e-01" nType="-99"/>
        </Node>
      </Node>
    </BinaryTree>
    <BinaryTree type="DecisionTree" boostWeight="1.0000000000000000e+00" itree="752">
      <Node pos="s" depth="0" NCoef="0" IVar="0" Cut="5.4981837272644043e+00" cType="1" res="-7.3197748861275613e-05" rms="4.3947589397430420e-01" purity="5.0260615348815918e-01" nType="0">
        <Node pos="l" depth="1" NCoef="0" IVar="1" Cut="7.0521415710449219e+01" cType="1" res="-8.2010418176651001e-02" rms="3.8064256310462952e-01" purity="1.8084235489368439e-01" nType="0">
          <Node pos="l" depth="2" NCoef="0" IVar="-1" Cut="0.0000000000000000e+00" cType="1" res="-5.1632476970553398e-04" rms="3.9334192872047424e-01" purity="2.0386177301406860e-01" nType="-99"/>
          <Node pos="r" depth="2" NCoef="0" IVar="-1" Cut="0.0000000000000000e+00" cType="1" res="-3.6279535852372646e-03" rms="3.5090118646621704e-01" purity="1.5348702669143677e-01" nType="-99"/>
        </Node>
        <Node pos="r" depth="1" NCoef="0" IVar="1" Cut="1.2091563415527344e+02" cType="1" res="1.5644511207938194e-02" rms="4.4817388057708740e-01" purity="5.6432884931564331e-01" nType="0">
          <Node pos="l" depth="2" NCoef="0" IVar="-1" Cut="0.0000000000000000e+00" cType="1" res="-1.4946502233215142e-05" rms="4.5376622676849365e-01" purity="5.3668278455734253e-01" nType="-99"/>
          <Node pos="r" depth="2" NCoef="0" IVar="-1" Cut="0.0000000000000000e+00" cType="1" res="2.7274035383015871e-03" rms="4.0370082855224609e-01" purity="7.1854674816131592e-01" nType="-99"/>
        </Node>
      </Node>
    </BinaryTree>
    <BinaryTree type="DecisionTree" boostWeight="1.0000000000000000e+00" itree="753">
      <Node pos="s" depth="0" NCoef="0" IVar="3" Cut="2.0346553325653076e+00" cType="1" res="1.4429376460611820e-02" rms="4.5090883970260620e-01" purity="5.1905775070190430e-01" nType="0">
        <Node pos="l" depth="1" NCoef="0" IVar="0" Cut="7.8288741111755371e+00" cType="1" res="6.3983909785747528e-02" rms="4.5486390590667725e-01" purity="6.3756471872329712e-01" nType="0">
          <Node pos="l" depth="2" NCoef="0" IVar="-1" Cut="0.0000000000000000e+00" cType="1" res="2.1458547562360764e-03" rms="4.5132967829704285e-01" purity="6.1229193210601807e-01" nType="-99"/>
          <Node pos="r" depth="2" NCoef="0" IVar="-1" Cut="0.0000000000000000e+00" cType="1" res="-8.2141155144199729e-04" rms="4.5047441124916077e-01" purity="7.0303767919540405e-01" nType="-99"/>
        </Node>
        <Node pos="r" depth="1" NCoef="0" IVar="1" Cut="1.3829519653320312e+02" cType="1" res="-1.1170559562742710e-02" rms="4.4670364260673523e-01" purity="4.5783689618110657e-01" nType="0">
          <Node pos="l" depth="2" NCoef="0" IVar="-1" Cut="0.0000000000000000e+00" cType="1" res="-2.1436471797642298e-05" rms="4.4578781723976135e-01" purity="4.6831464767456055e-01" nType="-99"/>
          <Node pos="r" depth="2" NCoef="0" IVar="-1" Cut="0.0000000000000000e+00" cType="1" res="-2.2718356922268867e-03" rms="4.4555103778839111e-01" purity="3.7422630190849304e-01" nType="-99"/>
        </Node>
      </Node>
    </BinaryTree>
    <BinaryTree type="DecisionTree" boostWeight="1.0000000000000000e+00" itree="754">
      <Node pos="s" depth="0" NCoef="0" IVar="5" Cut="4.8727664351463318e-01" cType="1" res="-8.7823887588456273e-04" rms="4.5419135689735413e-01" purity="4.9773377180099487e-01" nType="0">
        <Node pos="l" depth="1" NCoef="0" IVar="2" Cut="9.9989885091781616e-01" cType="1" res="2.1202141419053078e-02" rms="4.4392907619476318e-01" purity="4.8309534788131714e-01" nType="0">
          <Node pos="l" depth="2" NCoef="0" IVar="-1" Cut="0.0000000000000000e+00" cType="1" res="1.2872352963313460e-03" rms="4.5629149675369263e-01" purity="6.5118628740310669e-01" nType="-99"/>
          <Node pos="r" depth="2" NCoef="0" IVar="-1" Cut="0.0000000000000000e+00" cType="1" res="-1.6967061674222350e-04" rms="4.3151375651359558e-01" purity="3.4568873047828674e-01" nType="-99"/>
        </Node>
        <Node pos="r" depth="1" NCoef="0" IVar="1" Cut="1.0228368377685547e+02" cType="1" res="-4.8727016896009445e-02" rms="4.7214052081108093e-01" purity="5.2945548295974731e-01" nType="0">
          <Node pos="l" depth="2" NCoef="0" IVar="-1" Cut="0.0000000000000000e+00" cType="1" res="-3.0293129384517670e-04" rms="4.6805852651596069e-01" purity="5.5337053537368774e-01" nType="-99"/>
          <Node pos="r" depth="2" NCoef="0" IVar="-1" Cut="0.0000000000000000e+00" cType="1" res="-3.7610568106174469e-03" rms="4.6664160490036011e-01" purity="4.4913336634635925e-01" nType="-99"/>
        </Node>
      </Node>
    </BinaryTree>
    <BinaryTree type="DecisionTree" boostWeight="1.0000000000000000e+00" itree="755">
      <Node pos="s" depth="0" NCoef="0" IVar="2" Cut="1.3104591369628906e+00" cType="1" res="-1.4638506807386875e-02" rms="4.4104143977165222e-01" purity="4.8713144659996033e-01" nType="0">
        <Node pos="l" depth="1" NCoef="0" IVar="6" Cut="5.8397027587890625e+02" cType="1" res="3.8305795751512051e-03" rms="4.4985300302505493e-01" purity="5.6387692689895630e-01" nType="0">
          <Node pos="l" depth="2" NCoef="0" IVar="-1" Cut="0.0000000000000000e+00" cType="1" res="4.5921720447950065e-04" rms="4.4778642058372498e-01" purity="5.5933886766433716e-01" nType="-99"/>
          <Node pos="r" depth="2" NCoef="0" IVar="-1" Cut="0.0000000000000000e+00" cType="1" res="-1.6806861385703087e-03" rms="4.5169696211814880e-01" purity="5.8444315195083618e-01" nType="-99"/>
        </Node>
        <Node pos="r" depth="1" NCoef="0" IVar="3" Cut="2.3108894824981689e+00" cType="1" res="-7.7475108206272125e-02" rms="4.0336123108863831e-01" purity="2.2602330148220062e-01" nType="0">
          <Node pos="l" depth="2" NCoef="0" IVar="-1" Cut="0.0000000000000000e+00" cType="1" res="2.3852784943301231e-04" rms="4.6048492193222046e-01" purity="3.7285816669464111e-01" nType="-99"/>
          <Node pos="r" depth="2" NCoef="0" IVar="-1" Cut="0.0000000000000000e+00" cType="1" res="-2.7624524664133787e-03" rms="3.7573808431625366e-01" purity="1.7328354716300964e-01" nType="-99"/>
        </Node>
      </Node>
    </BinaryTree>
    <BinaryTree type="DecisionTree" boostWeight="1.0000000000000000e+00" itree="756">
      <Node pos="s" depth="0" NCoef="0" IVar="6" Cut="3.7171566772460938e+02" cType="1" res="1.3143509626388550e-02" rms="4.5256730914115906e-01" purity="5.1498222351074219e-01" nType="0">
        <Node pos="l" depth="1" NCoef="0" IVar="6" Cut="3.4535894775390625e+02" cType="1" res="4.8581965267658234e-02" rms="4.3879917263984680e-01" purity="4.9567279219627380e-01" nType="0">
          <Node pos="l" depth="2" NCoef="0" IVar="-1" Cut="0.0000000000000000e+00" cType="1" res="4.7652353532612324e-04" rms="4.4281703233718872e-01" purity="4.4900935888290405e-01" nType="-99"/>
          <Node pos="r" depth="2" NCoef="0" IVar="-1" Cut="0.0000000000000000e+00" cType="1" res="4.2063356377184391e-03" rms="4.0248191356658936e-01" purity="6.8376183509826660e-01" nType="-99"/>
        </Node>
        <Node pos="r" depth="1" NCoef="0" IVar="4" Cut="1.4057107543945312e+02" cType="1" res="-1.0626024566590786e-02" rms="4.6004486083984375e-01" purity="5.2793359756469727e-01" nType="0">
          <Node pos="l" depth="2" NCoef="0" IVar="-1" Cut="0.0000000000000000e+00" cType="1" res="6.8813114194199443e-04" rms="4.5298537611961365e-01" purity="5.8610266447067261e-01" nType="-99"/>
          <Node pos="r" depth="2" NCoef="0" IVar="-1" Cut="0.0000000000000000e+00" cType="1" res="-1.9002787303179502e-03" rms="4.6396455168724060e-01" purity="4.2497247457504272e-01" nType="-99"/>
        </Node>
      </Node>
    </BinaryTree>
    <BinaryTree type="DecisionTree" boostWeight="1.0000000000000000e+00" itree="757">
      <Node pos="s" depth="0" NCoef="0" IVar="1" Cut="8.3997871398925781e+01" cType="1" res="-4.4464757665991783e-03" rms="4.4895064830780029e-01" purity="4.8991665244102478e-01" nType="0">
        <Node pos="l" depth="1" NCoef="0" IVar="3" Cut="2.2924299240112305e+00" cType="1" res="-3.4183006733655930e-02" rms="4.5293667912483215e-01" purity="4.2603123188018799e-01" nType="0">
          <Node pos="l" depth="2" NCoef="0" IVar="-1" Cut="0.0000000000000000e+00" cType="1" res="-1.4136777026578784e-03" rms="4.5835310220718384e-01" purity="4.5413288474082947e-01" nType="-99"/>
          <Node pos="r" depth="2" NCoef="0" IVar="-1" Cut="0.0000000000000000e+00" cType="1" res="1.3970941072329879e-03" rms="4.2514732480049133e-01" purity="3.4548714756965637e-01" nType="-99"/>
        </Node>
        <Node pos="r" depth="1" NCoef="0" IVar="2" Cut="1.0416417121887207e+00" cType="1" res="3.9057534188032150e-02" rms="4.3944406509399414e-01" purity="5.8337992429733276e-01" nType="0">
          <Node pos="l" depth="2" NCoef="0" IVar="-1" Cut="0.0000000000000000e+00" cType="1" res="1.9677523523569107e-03" rms="4.0345230698585510e-01" purity="7.4598765373229980e-01" nType="-99"/>
          <Node pos="r" depth="2" NCoef="0" IVar="-1" Cut="0.0000000000000000e+00" cType="1" res="-2.0221008526277728e-05" rms="4.7019249200820923e-01" purity="4.1655495762825012e-01" nType="-99"/>
        </Node>
      </Node>
    </BinaryTree>
    <BinaryTree type="DecisionTree" boostWeight="1.0000000000000000e+00" itree="758">
      <Node pos="s" depth="0" NCoef="0" IVar="3" Cut="1.7737300395965576e+00" cType="1" res="-1.1933130212128162e-02" rms="4.4821071624755859e-01" purity="4.8223689198493958e-01" nType="0">
        <Node pos="l" depth="1" NCoef="0" IVar="-1" Cut="0.0000000000000000e+00" cType="1" res="-2.2715330123901367e-03" rms="4.4116988778114319e-01" purity="4.3747821450233459e-01" nType="-99"/>
        <Node pos="r" depth="1" NCoef="0" IVar="0" Cut="8.2175493240356445e+00" cType="1" res="-3.1745408196002245e-03" rms="4.4785243272781372e-01" purity="4.8639407753944397e-01" nType="0">
          <Node pos="l" depth="2" NCoef="0" IVar="-1" Cut="0.0000000000000000e+00" cType="1" res="3.4925923682749271e-04" rms="4.4654077291488647e-01" purity="4.6138608455657959e-01" nType="-99"/>
          <Node pos="r" depth="2" NCoef="0" IVar="-1" Cut="0.0000000000000000e+00" cType="1" res="-2.5799917057156563e-03" rms="4.4304588437080383e-01" purity="6.1067223548889160e-01" nType="-99"/>
        </Node>
      </Node>
    </BinaryTree>
    <BinaryTree type="DecisionTree" boostWeight="1.0000000000000000e+00" itree="759">
      <Node pos="s" depth="0" NCoef="0" IVar="2" Cut="6.6925495862960815e-01" cType="1" res="-2.8061371296644211e-02" rms="4.5095542073249817e-01" purity="4.7350049018859863e-01" nType="0">
        <Node pos="l" depth="1" NCoef="0" IVar="0" Cut="6.5115928649902344e+00" cType="1" res="-9.4161778688430786e-02" rms="4.8468884825706482e-01" purity="5.5929362773895264e-01" nType="0">
          <Node pos="l" depth="2" NCoef="0" IVar="-1" Cut="0.0000000000000000e+00" cType="1" res="2.2934946173336357e-04" rms="4.6514493227005005e-01" purity="5.1605993509292603e-01" nType="-99"/>
          <Node pos="r" depth="2" NCoef="0" IVar="-1" Cut="0.0000000000000000e+00" cType="1" res="-4.2825788259506226e-03" rms="4.8523312807083130e-01" purity="5.8355075120925903e-01" nType="-99"/>
        </Node>
        <Node pos="r" depth="1" NCoef="0" IVar="3" Cut="2.6607744693756104e+00" cType="1" res="-1.1662216857075691e-02" rms="4.4065561890602112e-01" purity="4.5221564173698425e-01" nType="0">
          <Node pos="l" depth="2" NCoef="0" IVar="-1" Cut="0.0000000000000000e+00" cType="1" res="-3.2270498195430264e-05" rms="4.5191437005996704e-01" purity="4.8513460159301758e-01" nType="-99"/>
          <Node pos="r" depth="2" NCoef="0" IVar="-1" Cut="0.0000000000000000e+00" cType="1" res="-3.4968764521181583e-03" rms="2.6565316319465637e-01" purity="9.2151589691638947e-02" nType="-99"/>
        </Node>
      </Node>
    </BinaryTree>
    <BinaryTree type="DecisionTree" boostWeight="1.0000000000000000e+00" itree="760">
      <Node pos="s" depth="0" NCoef="0" IVar="5" Cut="2.9057434201240540e-01" cType="1" res="-1.2756622396409512e-02" rms="4.4745898246765137e-01" purity="4.8071002960205078e-01" nType="0">
        <Node pos="l" depth="1" NCoef="0" IVar="4" Cut="1.1818427276611328e+02" cType="1" res="-7.1970649063587189e-02" rms="4.2137750983238220e-01" purity="3.3324283361434937e-01" nType="0">
          <Node pos="l" depth="2" NCoef="0" IVar="-1" Cut="0.0000000000000000e+00" cType="1" res="-3.0713637825101614e-03" rms="4.1578173637390137e-01" purity="2.7046319842338562e-01" nType="-99"/>
          <Node pos="r" depth="2" NCoef="0" IVar="-1" Cut="0.0000000000000000e+00" cType="1" res="1.3398665032582358e-05" rms="4.1599759459495544e-01" purity="4.0501070022583008e-01" nType="-99"/>
        </Node>
        <Node pos="r" depth="1" NCoef="0" IVar="5" Cut="6.5395575761795044e-01" cType="1" res="1.2037992477416992e-02" rms="4.5565906167030334e-01" purity="5.4245877265930176e-01" nType="0">
          <Node pos="l" depth="2" NCoef="0" IVar="-1" Cut="0.0000000000000000e+00" cType="1" res="7.9065153840929270e-04" rms="4.5291811227798462e-01" purity="5.5669379234313965e-01" nType="-99"/>
          <Node pos="r" depth="2" NCoef="0" IVar="-1" Cut="0.0000000000000000e+00" cType="1" res="-1.9324329914525151e-03" rms="4.5458835363388062e-01" purity="4.7665277123451233e-01" nType="-99"/>
        </Node>
      </Node>
    </BinaryTree>
    <BinaryTree type="DecisionTree" boostWeight="1.0000000000000000e+00" itree="761">
      <Node pos="s" depth="0" NCoef="0" IVar="1" Cut="5.3804622650146484e+01" cType="1" res="2.0271772518754005e-02" rms="4.5366257429122925e-01" purity="5.3282260894775391e-01" nType="0">
        <Node pos="l" depth="1" NCoef="0" IVar="4" Cut="5.2548946380615234e+01" cType="1" res="-2.8638012707233429e-02" rms="4.3847951292991638e-01" purity="4.3210333585739136e-01" nType="0">
          <Node pos="l" depth="2" NCoef="0" IVar="-1" Cut="0.0000000000000000e+00" cType="1" res="-2.6796057354658842e-03" rms="4.2693948745727539e-01" purity="3.1382894515991211e-01" nType="-99"/>
          <Node pos="r" depth="2" NCoef="0" IVar="-1" Cut="0.0000000000000000e+00" cType="1" res="7.2797946631908417e-04" rms="4.3563672900199890e-01" purity="5.1046842336654663e-01" nType="-99"/>
        </Node>
        <Node pos="r" depth="1" NCoef="0" IVar="2" Cut="7.1875387430191040e-01" cType="1" res="3.6760877817869186e-02" rms="4.5749095082283020e-01" purity="5.6677842140197754e-01" nType="0">
          <Node pos="l" depth="2" NCoef="0" IVar="-1" Cut="0.0000000000000000e+00" cType="1" res="-2.6357869501225650e-04" rms="4.5390221476554871e-01" purity="6.6799271106719971e-01" nType="-99"/>
          <Node pos="r" depth="2" NCoef="0" IVar="-1" Cut="0.0000000000000000e+00" cType="1" res="1.1494228383526206e-03" rms="4.5760697126388550e-01" purity="5.3778725862503052e-01" nType="-99"/>
        </Node>
      </Node>
    </BinaryTree>
    <BinaryTree type="DecisionTree" boostWeight="1.0000000000000000e+00" itree="762">
      <Node pos="s" depth="0" NCoef="0" IVar="6" Cut="4.5110192871093750e+02" cType="1" res="3.4626975655555725e-02" rms="4.4784530997276306e-01" purity="5.3503286838531494e-01" nType="0">
        <Node pos="l" depth="1" NCoef="0" IVar="1" Cut="1.1054551696777344e+02" cType="1" res="6.9035679101943970e-02" rms="4.4781935214996338e-01" purity="5.4320180416107178e-01" nType="0">
          <Node pos="l" depth="2" NCoef="0" IVar="-1" Cut="0.0000000000000000e+00" cType="1" res="2.2216488141566515e-03" rms="4.4306492805480957e-01" purity="5.6192475557327271e-01" nType="-99"/>
          <Node pos="r" depth="2" NCoef="0" IVar="-1" Cut="0.0000000000000000e+00" cType="1" res="-1.6239582328125834e-03" rms="4.4951969385147095e-01" purity="4.3710479140281677e-01" nType="-99"/>
        </Node>
        <Node pos="r" depth="1" NCoef="0" IVar="1" Cut="9.2042861938476562e+01" cType="1" res="-2.6211088523268700e-02" rms="4.4137498736381531e-01" purity="5.2058935165405273e-01" nType="0">
          <Node pos="l" depth="2" NCoef="0" IVar="-1" Cut="0.0000000000000000e+00" cType="1" res="-1.7465461278334260e-03" rms="4.4201737642288208e-01" purity="3.9257356524467468e-01" nType="-99"/>
          <Node pos="r" depth="2" NCoef="0" IVar="-1" Cut="0.0000000000000000e+00" cType="1" res="5.2091071847826242e-04" rms="4.3550002574920654e-01" purity="6.3369297981262207e-01" nType="-99"/>
        </Node>
      </Node>
    </BinaryTree>
    <BinaryTree type="DecisionTree" boostWeight="1.0000000000000000e+00" itree="763">
      <Node pos="s" depth="0" NCoef="0" IVar="2" Cut="1.6612339019775391e+00" cType="1" res="1.2667894363403320e-02" rms="4.4532147049903870e-01" purity="5.0992053747177124e-01" nType="0">
        <Node pos="l" depth="1" NCoef="0" IVar="1" Cut="7.5457008361816406e+01" cType="1" res="2.0614443346858025e-02" rms="4.5101332664489746e-01" purity="5.3600251674652100e-01" nType="0">
          <Node pos="l" depth="2" NCoef="0" IVar="-1" Cut="0.0000000000000000e+00" cType="1" res="-7.9280107456725091e-05" rms="4.4875624775886536e-01" purity="4.7483375668525696e-01" nType="-99"/>
          <Node pos="r" depth="2" NCoef="0" IVar="-1" Cut="0.0000000000000000e+00" cType="1" res="1.1319634504616261e-03" rms="4.5199716091156006e-01" purity="6.0574162006378174e-01" nType="-99"/>
        </Node>
        <Node pos="r" depth="1" NCoef="0" IVar="-1" Cut="0.0000000000000000e+00" cType="1" res="-2.4243847001343966e-03" rms="3.4542593359947205e-01" purity="1.6635656356811523e-01" nType="-99"/>
      </Node>
    </BinaryTree>
    <BinaryTree type="DecisionTree" boostWeight="1.0000000000000000e+00" itree="764">
      <Node pos="s" depth="0" NCoef="0" IVar="1" Cut="4.2041366577148438e+01" cType="1" res="1.8782429397106171e-02" rms="4.4186633825302124e-01" purity="5.0534743070602417e-01" nType="0">
        <Node pos="l" depth="1" NCoef="0" IVar="2" Cut="1.0032508373260498e+00" cType="1" res="1.3037605583667755e-01" rms="4.4671121239662170e-01" purity="5.1385509967803955e-01" nType="0">
          <Node pos="l" depth="2" NCoef="0" IVar="-1" Cut="0.0000000000000000e+00" cType="1" res="5.5966153740882874e-03" rms="4.5270246267318726e-01" purity="7.3052883148193359e-01" nType="-99"/>
          <Node pos="r" depth="2" NCoef="0" IVar="-1" Cut="0.0000000000000000e+00" cType="1" res="-6.0915215726708993e-05" rms="4.0117990970611572e-01" purity="2.5104942917823792e-01" nType="-99"/>
        </Node>
        <Node pos="r" depth="1" NCoef="0" IVar="1" Cut="6.4102416992187500e+01" cType="1" res="2.5308302138000727e-03" rms="4.3879520893096924e-01" purity="5.0410848855972290e-01" nType="0">
          <Node pos="l" depth="2" NCoef="0" IVar="-1" Cut="0.0000000000000000e+00" cType="1" res="-1.1317920871078968e-03" rms="4.4560426473617554e-01" purity="4.1093447804450989e-01" nType="-99"/>
          <Node pos="r" depth="2" NCoef="0" IVar="-1" Cut="0.0000000000000000e+00" cType="1" res="5.1462027477100492e-04" rms="4.3470242619514465e-01" purity="5.3843593597412109e-01" nType="-99"/>
        </Node>
      </Node>
    </BinaryTree>
    <BinaryTree type="DecisionTree" boostWeight="1.0000000000000000e+00" itree="765">
      <Node pos="s" depth="0" NCoef="0" IVar="2" Cut="6.8846070766448975e-01" cType="1" res="-3.1163666862994432e-03" rms="4.3278849124908447e-01" purity="5.0119543075561523e-01" nType="0">
        <Node pos="l" depth="1" NCoef="0" IVar="5" Cut="4.8274737596511841e-01" cType="1" res="8.2558259367942810e-02" rms="4.1110137104988098e-01" purity="7.2245895862579346e-01" nType="0">
          <Node pos="l" depth="2" NCoef="0" IVar="-1" Cut="0.0000000000000000e+00" cType="1" res="3.2217653933912516e-03" rms="4.0733492374420166e-01" purity="7.6075601577758789e-01" nType="-99"/>
          <Node pos="r" depth="2" NCoef="0" IVar="-1" Cut="0.0000000000000000e+00" cType="1" res="5.3671025671064854e-04" rms="4.0704980492591858e-01" purity="6.7904180288314819e-01" nType="-99"/>
        </Node>
        <Node pos="r" depth="1" NCoef="0" IVar="0" Cut="7.3310060501098633e+00" cType="1" res="-2.8176678344607353e-02" rms="4.3575698137283325e-01" purity="4.3647462129592896e-01" nType="0">
          <Node pos="l" depth="2" NCoef="0" IVar="-1" Cut="0.0000000000000000e+00" cType="1" res="-1.1748409597203135e-03" rms="4.2811301350593567e-01" purity="3.1316551566123962e-01" nType="-99"/>
          <Node pos="r" depth="2" NCoef="0" IVar="-1" Cut="0.0000000000000000e+00" cType="1" res="2.7082985616289079e-04" rms="4.4537985324859619e-01" purity="6.4080154895782471e-01" nType="-99"/>
        </Node>
      </Node>
    </BinaryTree>
    <BinaryTree type="DecisionTree" boostWeight="1.0000000000000000e+00" itree="766">
      <Node pos="s" depth="0" NCoef="0" IVar="5" Cut="6.8583601713180542e-01" cType="1" res="-2.9760254619759507e-05" rms="4.4860923290252686e-01" purity="5.0846576690673828e-01" nType="0">
        <Node pos="l" depth="1" NCoef="0" IVar="5" Cut="6.3208663463592529e-01" cType="1" res="7.8293615952134132e-03" rms="4.4517669081687927e-01" purity="5.1079356670379639e-01" nType="0">
          <Node pos="l" depth="2" NCoef="0" IVar="-1" Cut="0.0000000000000000e+00" cType="1" res="-9.0152709162794054e-05" rms="4.4573432207107544e-01" purity="4.9409419298171997e-01" nType="-99"/>
          <Node pos="r" depth="2" NCoef="0" IVar="-1" Cut="0.0000000000000000e+00" cType="1" res="5.1961573772132397e-03" rms="3.8432618975639343e-01" purity="7.9651123285293579e-01" nType="-99"/>
        </Node>
        <Node pos="r" depth="1" NCoef="0" IVar="-1" Cut="0.0000000000000000e+00" cType="1" res="-2.4064518511295319e-03" rms="4.7970062494277954e-01" purity="4.7783586382865906e-01" nType="-99"/>
      </Node>
    </BinaryTree>
    <BinaryTree type="DecisionTree" boostWeight="1.0000000000000000e+00" itree="767">
      <Node pos="s" depth="0" NCoef="0" IVar="1" Cut="1.5312438964843750e+02" cType="1" res="2.1656692028045654e-02" rms="4.4996199011802673e-01" purity="5.1810026168823242e-01" nType="0">
        <Node pos="l" depth="1" NCoef="0" IVar="4" Cut="9.0779022216796875e+01" cType="1" res="3.3844769001007080e-02" rms="4.4549322128295898e-01" purity="5.3115814924240112e-01" nType="0">
          <Node pos="l" depth="2" NCoef="0" IVar="-1" Cut="0.0000000000000000e+00" cType="1" res="-1.8207274843007326e-04" rms="4.5525291562080383e-01" purity="4.9813193082809448e-01" nType="-99"/>
          <Node pos="r" depth="2" NCoef="0" IVar="-1" Cut="0.0000000000000000e+00" cType="1" res="1.6621566610410810e-03" rms="4.3375337123870850e-01" purity="5.5948084592819214e-01" nType="-99"/>
        </Node>
        <Node pos="r" depth="1" NCoef="0" IVar="-1" Cut="0.0000000000000000e+00" cType="1" res="-3.9875824004411697e-03" rms="4.7629126906394958e-01" purity="3.2256880402565002e-01" nType="-99"/>
      </Node>
    </BinaryTree>
    <BinaryTree type="DecisionTree" boostWeight="1.0000000000000000e+00" itree="768">
      <Node pos="s" depth="0" NCoef="0" IVar="3" Cut="1.8935865163803101e+00" cType="1" res="1.2025218456983566e-02" rms="4.5470079779624939e-01" purity="5.0962841510772705e-01" nType="0">
        <Node pos="l" depth="1" NCoef="0" IVar="4" Cut="9.3931152343750000e+01" cType="1" res="7.4419252574443817e-02" rms="4.5236414670944214e-01" purity="6.3726115226745605e-01" nType="0">
          <Node pos="l" depth="2" NCoef="0" IVar="-1" Cut="0.0000000000000000e+00" cType="1" res="3.5925186239182949e-03" rms="4.3093764781951904e-01" purity="6.9514024257659912e-01" nType="-99"/>
          <Node pos="r" depth="2" NCoef="0" IVar="-1" Cut="0.0000000000000000e+00" cType="1" res="-5.7892675977200270e-04" rms="4.5671817660331726e-01" purity="5.6860876083374023e-01" nType="-99"/>
        </Node>
        <Node pos="r" depth="1" NCoef="0" IVar="0" Cut="8.0712451934814453e+00" cType="1" res="1.5108168590813875e-03" rms="4.5425036549568176e-01" purity="4.8812022805213928e-01" nType="0">
          <Node pos="l" depth="2" NCoef="0" IVar="-1" Cut="0.0000000000000000e+00" cType="1" res="-2.0625602337531745e-04" rms="4.5971512794494629e-01" purity="4.2438876628875732e-01" nType="-99"/>
          <Node pos="r" depth="2" NCoef="0" IVar="-1" Cut="0.0000000000000000e+00" cType="1" res="1.1897769290953875e-03" rms="4.2987480759620667e-01" purity="7.3652309179306030e-01" nType="-99"/>
        </Node>
      </Node>
    </BinaryTree>
    <BinaryTree type="DecisionTree" boostWeight="1.0000000000000000e+00" itree="769">
      <Node pos="s" depth="0" NCoef="0" IVar="0" Cut="8.8452768325805664e+00" cType="1" res="-3.3477902412414551e-02" rms="4.4861620664596558e-01" purity="4.7981968522071838e-01" nType="0">
        <Node pos="l" depth="1" NCoef="0" IVar="5" Cut="2.2729185223579407e-01" cType="1" res="-4.4933609664440155e-02" rms="4.5299786329269409e-01" purity="4.4328194856643677e-01" nType="0">
          <Node pos="l" depth="2" NCoef="0" IVar="-1" Cut="0.0000000000000000e+00" cType="1" res="-2.4200198240578175e-03" rms="4.0921697020530701e-01" purity="2.8931519389152527e-01" nType="-99"/>
          <Node pos="r" depth="2" NCoef="0" IVar="-1" Cut="0.0000000000000000e+00" cType="1" res="-6.3637184211984277e-04" rms="4.6449950337409973e-01" purity="4.9120727181434631e-01" nType="-99"/>
        </Node>
        <Node pos="r" depth="1" NCoef="0" IVar="-1" Cut="0.0000000000000000e+00" cType="1" res="2.0625740289688110e-03" rms="3.9212450385093689e-01" purity="8.0938893556594849e-01" nType="-99"/>
      </Node>
    </BinaryTree>
    <BinaryTree type="DecisionTree" boostWeight="1.0000000000000000e+00" itree="770">
      <Node pos="s" depth="0" NCoef="0" IVar="2" Cut="1.7256231307983398e+00" cType="1" res="-1.9037959864363074e-03" rms="4.5277726650238037e-01" purity="4.9914860725402832e-01" nType="0">
        <Node pos="l" depth="1" NCoef="0" IVar="6" Cut="3.5919766235351562e+02" cType="1" res="-9.0826516970992088e-03" rms="4.5580488443374634e-01" purity="5.0933748483657837e-01" nType="0">
          <Node pos="l" depth="2" NCoef="0" IVar="-1" Cut="0.0000000000000000e+00" cType="1" res="5.8311759494245052e-04" rms="4.3852540850639343e-01" purity="4.7202530503273010e-01" nType="-99"/>
          <Node pos="r" depth="2" NCoef="0" IVar="-1" Cut="0.0000000000000000e+00" cType="1" res="-6.4972467953339219e-04" rms="4.6397173404693604e-01" purity="5.2990430593490601e-01" nType="-99"/>
        </Node>
        <Node pos="r" depth="1" NCoef="0" IVar="-1" Cut="0.0000000000000000e+00" cType="1" res="3.0942030716687441e-03" rms="3.8992327451705933e-01" purity="3.4787434339523315e-01" nType="-99"/>
      </Node>
    </BinaryTree>
    <BinaryTree type="DecisionTree" boostWeight="1.0000000000000000e+00" itree="771">
      <Node pos="s" depth="0" NCoef="0" IVar="5" Cut="3.4541121125221252e-01" cType="1" res="-2.2096950560808182e-03" rms="4.4678622484207153e-01" purity="4.9699985980987549e-01" nType="0">
        <Node pos="l" depth="1" NCoef="0" IVar="1" Cut="5.8070110321044922e+01" cType="1" res="3.8565665483474731e-02" rms="4.3487089872360229e-01" purity="4.6691963076591492e-01" nType="0">
          <Node pos="l" depth="2" NCoef="0" IVar="-1" Cut="0.0000000000000000e+00" cType="1" res="-1.2168821413069963e-03" rms="4.1215941309928894e-01" purity="3.1437674164772034e-01" nType="-99"/>
          <Node pos="r" depth="2" NCoef="0" IVar="-1" Cut="0.0000000000000000e+00" cType="1" res="1.9178796792402864e-03" rms="4.3882808089256287e-01" purity="5.3376132249832153e-01" nType="-99"/>
        </Node>
        <Node pos="r" depth="1" NCoef="0" IVar="4" Cut="2.5173637390136719e+02" cType="1" res="-2.7800088748335838e-02" rms="4.5223075151443481e-01" purity="5.1587808132171631e-01" nType="0">
          <Node pos="l" depth="2" NCoef="0" IVar="-1" Cut="0.0000000000000000e+00" cType="1" res="-1.4973603538237512e-04" rms="4.5233014225959778e-01" purity="5.4405903816223145e-01" nType="-99"/>
          <Node pos="r" depth="2" NCoef="0" IVar="-1" Cut="0.0000000000000000e+00" cType="1" res="-5.0758039578795433e-03" rms="4.0681269764900208e-01" purity="2.7171885967254639e-01" nType="-99"/>
        </Node>
      </Node>
    </BinaryTree>
    <BinaryTree type="DecisionTree" boostWeight="1.0000000000000000e+00" itree="772">
      <Node pos="s" depth="0" NCoef="0" IVar="1" Cut="8.7342025756835938e+01" cType="1" res="-2.3005581460893154e-03" rms="4.4128242135047913e-01" purity="4.9710255861282349e-01" nType="0">
        <Node pos="l" depth="1" NCoef="0" IVar="5" Cut="5.3312700986862183e-01" cType="1" res="-3.8712453097105026e-02" rms="4.4762232899665833e-01" purity="4.1997304558753967e-01" nType="0">
          <Node pos="l" depth="2" NCoef="0" IVar="-1" Cut="0.0000000000000000e+00" cType="1" res="-1.5282386448234320e-03" rms="4.4002684950828552e-01" purity="3.5205924510955811e-01" nType="-99"/>
          <Node pos="r" depth="2" NCoef="0" IVar="-1" Cut="0.0000000000000000e+00" cType="1" res="8.2488026237115264e-04" rms="4.5939576625823975e-01" purity="6.0385215282440186e-01" nType="-99"/>
        </Node>
        <Node pos="r" depth="1" NCoef="0" IVar="3" Cut="2.2770986557006836e+00" cType="1" res="5.5986274033784866e-02" rms="4.2448708415031433e-01" purity="6.2056863307952881e-01" nType="0">
          <Node pos="l" depth="2" NCoef="0" IVar="-1" Cut="0.0000000000000000e+00" cType="1" res="2.7213729918003082e-03" rms="3.8613235950469971e-01" purity="7.9479789733886719e-01" nType="-99"/>
          <Node pos="r" depth="2" NCoef="0" IVar="-1" Cut="0.0000000000000000e+00" cType="1" res="7.7732540376018733e-05" rms="4.6004980802536011e-01" purity="4.1553980112075806e-01" nType="-99"/>
        </Node>
      </Node>
    </BinaryTree>
    <BinaryTree type="DecisionTree" boostWeight="1.0000000000000000e+00" itree="773">
      <Node pos="s" depth="0" NCoef="0" IVar="6" Cut="5.6106115722656250e+02" cType="1" res="1.8384888768196106e-02" rms="4.5755967497825623e-01" purity="5.1985257863998413e-01" nType="0">
        <Node pos="l" depth="1" NCoef="0" IVar="0" Cut="5.4081549644470215e+00" cType="1" res="3.0260488390922546e-02" rms="4.5324432849884033e-01" purity="5.1195806264877319e-01" nType="0">
          <Node pos="l" depth="2" NCoef="0" IVar="-1" Cut="0.0000000000000000e+00" cType="1" res="-9.9789979867637157e-04" rms="4.0564873814582825e-01" purity="2.0174737274646759e-01" nType="-99"/>
          <Node pos="r" depth="2" NCoef="0" IVar="-1" Cut="0.0000000000000000e+00" cType="1" res="1.0210665641352534e-03" rms="4.6047890186309814e-01" purity="5.7034701108932495e-01" nType="-99"/>
        </Node>
        <Node pos="r" depth="1" NCoef="0" IVar="1" Cut="1.0935978698730469e+02" cType="1" res="-4.1936278343200684e-02" rms="4.7431024909019470e-01" purity="5.5995219945907593e-01" nType="0">
          <Node pos="l" depth="2" NCoef="0" IVar="-1" Cut="0.0000000000000000e+00" cType="1" res="-2.9020311776548624e-03" rms="4.9747237563133240e-01" purity="4.4317641854286194e-01" nType="-99"/>
          <Node pos="r" depth="2" NCoef="0" IVar="-1" Cut="0.0000000000000000e+00" cType="1" res="1.9378126598894596e-03" rms="4.1629460453987122e-01" purity="7.0977598428726196e-01" nType="-99"/>
        </Node>
      </Node>
    </BinaryTree>
    <BinaryTree type="DecisionTree" boostWeight="1.0000000000000000e+00" itree="774">
      <Node pos="s" depth="0" NCoef="0" IVar="5" Cut="5.4697543382644653e-01" cType="1" res="2.8876436408609152e-03" rms="4.5115759968757629e-01" purity="4.9969062209129333e-01" nType="0">
        <Node pos="l" depth="1" NCoef="0" IVar="2" Cut="7.8668987751007080e-01" cType="1" res="-1.8483338877558708e-02" rms="4.5738026499748230e-01" purity="4.5376870036125183e-01" nType="0">
          <Node pos="l" depth="2" NCoef="0" IVar="-1" Cut="0.0000000000000000e+00" cType="1" res="-2.0323621574789286e-03" rms="4.5524418354034424e-01" purity="5.2441108226776123e-01" nType="-99"/>
          <Node pos="r" depth="2" NCoef="0" IVar="-1" Cut="0.0000000000000000e+00" cType="1" res="2.7273895102553070e-04" rms="4.5487958192825317e-01" purity="4.2450344562530518e-01" nType="-99"/>
        </Node>
        <Node pos="r" depth="1" NCoef="0" IVar="3" Cut="2.0172944068908691e+00" cType="1" res="7.5986899435520172e-02" rms="4.2106968164443970e-01" purity="6.5676617622375488e-01" nType="0">
          <Node pos="l" depth="2" NCoef="0" IVar="-1" Cut="0.0000000000000000e+00" cType="1" res="-3.7427744246087968e-04" rms="4.2042338848114014e-01" purity="6.0731047391891479e-01" nType="-99"/>
          <Node pos="r" depth="2" NCoef="0" IVar="-1" Cut="0.0000000000000000e+00" cType="1" res="3.2428945414721966e-03" rms="4.1082268953323364e-01" purity="6.8866032361984253e-01" nType="-99"/>
        </Node>
      </Node>
    </BinaryTree>
    <BinaryTree type="DecisionTree" boostWeight="1.0000000000000000e+00" itree="775">
      <Node pos="s" depth="0" NCoef="0" IVar="6" Cut="4.6227658081054688e+02" cType="1" res="-1.8436139449477196e-02" rms="4.5418584346771240e-01" purity="4.8411089181900024e-01" nType="0">
        <Node pos="l" depth="1" NCoef="0" IVar="2" Cut="1.6078627109527588e+00" cType="1" res="2.3829408455640078e-03" rms="4.4926390051841736e-01" purity="4.7988066077232361e-01" nType="0">
          <Node pos="l" depth="2" NCoef="0" IVar="-1" Cut="0.0000000000000000e+00" cType="1" res="2.4040063726715744e-04" rms="4.5596483349800110e-01" purity="5.0831788778305054e-01" nType="-99"/>
          <Node pos="r" depth="2" NCoef="0" IVar="-1" Cut="0.0000000000000000e+00" cType="1" res="-2.7784826233983040e-03" rms="3.4502762556076050e-01" purity="1.4126974344253540e-01" nType="-99"/>
        </Node>
        <Node pos="r" depth="1" NCoef="0" IVar="5" Cut="2.0030078291893005e-01" cType="1" res="-6.1738517135381699e-02" rms="4.6125602722167969e-01" purity="4.9290952086448669e-01" nType="0">
          <Node pos="l" depth="2" NCoef="0" IVar="-1" Cut="0.0000000000000000e+00" cType="1" res="1.3508492847904563e-03" rms="4.6176660060882568e-01" purity="4.8180848360061646e-01" nType="-99"/>
          <Node pos="r" depth="2" NCoef="0" IVar="-1" Cut="0.0000000000000000e+00" cType="1" res="-2.1003836300224066e-03" rms="4.5619615912437439e-01" purity="4.9574732780456543e-01" nType="-99"/>
        </Node>
      </Node>
    </BinaryTree>
    <BinaryTree type="DecisionTree" boostWeight="1.0000000000000000e+00" itree="776">
      <Node pos="s" depth="0" NCoef="0" IVar="6" Cut="5.1033828735351562e+02" cType="1" res="-3.0609255190938711e-03" rms="4.4253137707710266e-01" purity="4.9539217352867126e-01" nType="0">
        <Node pos="l" depth="1" NCoef="0" IVar="1" Cut="3.9557674407958984e+01" cType="1" res="1.7038615420460701e-02" rms="4.3719366192817688e-01" purity="4.9316874146461487e-01" nType="0">
          <Node pos="l" depth="2" NCoef="0" IVar="-1" Cut="0.0000000000000000e+00" cType="1" res="-2.4064180906862020e-03" rms="4.1150715947151184e-01" purity="2.8013792634010315e-01" nType="-99"/>
          <Node pos="r" depth="2" NCoef="0" IVar="-1" Cut="0.0000000000000000e+00" cType="1" res="9.1328081907704473e-04" rms="4.3795883655548096e-01" purity="5.2918386459350586e-01" nType="-99"/>
        </Node>
        <Node pos="r" depth="1" NCoef="0" IVar="3" Cut="1.9389412403106689e+00" cType="1" res="-6.0124609619379044e-02" rms="4.5250660181045532e-01" purity="5.0170457363128662e-01" nType="0">
          <Node pos="l" depth="2" NCoef="0" IVar="-1" Cut="0.0000000000000000e+00" cType="1" res="1.0991733288392425e-03" rms="4.2883545160293579e-01" purity="6.7408823966979980e-01" nType="-99"/>
          <Node pos="r" depth="2" NCoef="0" IVar="-1" Cut="0.0000000000000000e+00" cType="1" res="-2.0327009260654449e-03" rms="4.5454546809196472e-01" purity="4.5268517732620239e-01" nType="-99"/>
        </Node>
      </Node>
    </BinaryTree>
    <BinaryTree type="DecisionTree" boostWeight="1.0000000000000000e+00" itree="777">
      <Node pos="s" depth="0" NCoef="0" IVar="3" Cut="1.6932848691940308e+00" cType="1" res="7.5665437616407871e-03" rms="4.4716602563858032e-01" purity="5.0207084417343140e-01" nType="0">
        <Node pos="l" depth="1" NCoef="0" IVar="-1" Cut="0.0000000000000000e+00" cType="1" res="-2.1329873707145452e-03" rms="4.7747218608856201e-01" purity="4.4699540734291077e-01" nType="-99"/>
        <Node pos="r" depth="1" NCoef="0" IVar="3" Cut="2.3073148727416992e+00" cType="1" res="1.4431799761950970e-02" rms="4.4429090619087219e-01" purity="5.0554871559143066e-01" nType="0">
          <Node pos="l" depth="2" NCoef="0" IVar="-1" Cut="0.0000000000000000e+00" cType="1" res="8.6634757462888956e-04" rms="4.5215657353401184e-01" purity="6.1044508218765259e-01" nType="-99"/>
          <Node pos="r" depth="2" NCoef="0" IVar="-1" Cut="0.0000000000000000e+00" cType="1" res="-8.0166867701336741e-04" rms="4.2439174652099609e-01" purity="2.9646918177604675e-01" nType="-99"/>
        </Node>
      </Node>
    </BinaryTree>
    <BinaryTree type="DecisionTree" boostWeight="1.0000000000000000e+00" itree="778">
      <Node pos="s" depth="0" NCoef="0" IVar="0" Cut="8.4468421936035156e+00" cType="1" res="-1.6316246241331100e-02" rms="4.4974458217620850e-01" purity="4.8212900757789612e-01" nType="0">
        <Node pos="l" depth="1" NCoef="0" IVar="0" Cut="8.0868034362792969e+00" cType="1" res="-2.9896937310695648e-02" rms="4.5725259184837341e-01" purity="4.2505764961242676e-01" nType="0">
          <Node pos="l" depth="2" NCoef="0" IVar="-1" Cut="0.0000000000000000e+00" cType="1" res="-4.2689219117164612e-04" rms="4.5527642965316772e-01" purity="4.2234736680984497e-01" nType="-99"/>
          <Node pos="r" depth="2" NCoef="0" IVar="-1" Cut="0.0000000000000000e+00" cType="1" res="-4.3866592459380627e-03" rms="4.5853126049041748e-01" purity="4.6252068877220154e-01" nType="-99"/>
        </Node>
        <Node pos="r" depth="1" NCoef="0" IVar="4" Cut="9.3776161193847656e+01" cType="1" res="5.6354284286499023e-02" rms="3.9945363998413086e-01" purity="7.8751909732818604e-01" nType="0">
          <Node pos="l" depth="2" NCoef="0" IVar="-1" Cut="0.0000000000000000e+00" cType="1" res="4.0314667858183384e-03" rms="3.3438366651535034e-01" purity="8.6501181125640869e-01" nType="-99"/>
          <Node pos="r" depth="2" NCoef="0" IVar="-1" Cut="0.0000000000000000e+00" cType="1" res="3.5974981074105017e-06" rms="4.2870354652404785e-01" purity="7.3544216156005859e-01" nType="-99"/>
        </Node>
      </Node>
    </BinaryTree>
    <BinaryTree type="DecisionTree" boostWeight="1.0000000000000000e+00" itree="779">
      <Node pos="s" depth="0" NCoef="0" IVar="5" Cut="2.9084202647209167e-01" cType="1" res="1.0847919620573521e-02" rms="4.4265300035476685e-01" purity="5.1799184083938599e-01" nType="0">
        <Node pos="l" depth="1" NCoef="0" IVar="2" Cut="1.4554620981216431e+00" cType="1" res="6.2354084104299545e-02" rms="4.2909076809883118e-01" purity="4.8079311847686768e-01" nType="0">
          <Node pos="l" depth="2" NCoef="0" IVar="-1" Cut="0.0000000000000000e+00" cType="1" res="2.3184344172477722e-03" rms="4.4998133182525635e-01" purity="5.8577185869216919e-01" nType="-99"/>
          <Node pos="r" depth="2" NCoef="0" IVar="-1" Cut="0.0000000000000000e+00" cType="1" res="-1.1872642207890749e-03" rms="3.4374001622200012e-01" purity="1.8519255518913269e-01" nType="-99"/>
        </Node>
        <Node pos="r" depth="1" NCoef="0" IVar="1" Cut="1.3487680053710938e+02" cType="1" res="-1.3010656461119652e-02" rms="4.4678866863250732e-01" purity="5.3522294759750366e-01" nType="0">
          <Node pos="l" depth="2" NCoef="0" IVar="-1" Cut="0.0000000000000000e+00" cType="1" res="-1.8978756997967139e-05" rms="4.4222602248191833e-01" purity="5.4603874683380127e-01" nType="-99"/>
          <Node pos="r" depth="2" NCoef="0" IVar="-1" Cut="0.0000000000000000e+00" cType="1" res="-3.2879863865673542e-03" rms="4.7296282649040222e-01" purity="4.2860645055770874e-01" nType="-99"/>
        </Node>
      </Node>
    </BinaryTree>
    <BinaryTree type="DecisionTree" boostWeight="1.0000000000000000e+00" itree="780">
      <Node pos="s" depth="0" NCoef="0" IVar="5" Cut="6.9765222072601318e-01" cType="1" res="1.7143502831459045e-02" rms="4.4464638829231262e-01" purity="5.2231895923614502e-01" nType="0">
        <Node pos="l" depth="1" NCoef="0" IVar="6" Cut="3.0916149902343750e+02" cType="1" res="8.4500806406140327e-03" rms="4.4637426733970642e-01" purity="5.0596606731414795e-01" nType="0">
          <Node pos="l" depth="2" NCoef="0" IVar="-1" Cut="0.0000000000000000e+00" cType="1" res="-1.0373771656304598e-03" rms="4.2706367373466492e-01" purity="3.5098782181739807e-01" nType="-99"/>
          <Node pos="r" depth="2" NCoef="0" IVar="-1" Cut="0.0000000000000000e+00" cType="1" res="4.9634731840342283e-04" rms="4.4994369149208069e-01" purity="5.4278910160064697e-01" nType="-99"/>
        </Node>
        <Node pos="r" depth="1" NCoef="0" IVar="-1" Cut="0.0000000000000000e+00" cType="1" res="3.0115456320345402e-03" rms="4.0690246224403381e-01" purity="7.2739672660827637e-01" nType="-99"/>
      </Node>
    </BinaryTree>
    <BinaryTree type="DecisionTree" boostWeight="1.0000000000000000e+00" itree="781">
      <Node pos="s" depth="0" NCoef="0" IVar="5" Cut="2.2093559801578522e-01" cType="1" res="1.0265136137604713e-02" rms="4.4346860051155090e-01" purity="5.1126033067703247e-01" nType="0">
        <Node pos="l" depth="1" NCoef="0" IVar="3" Cut="2.1938807964324951e+00" cType="1" res="-5.5582169443368912e-02" rms="4.2361018061637878e-01" purity="3.4482493996620178e-01" nType="0">
          <Node pos="l" depth="2" NCoef="0" IVar="-1" Cut="0.0000000000000000e+00" cType="1" res="1.4108176401350647e-04" rms="4.4680342078208923e-01" purity="5.3618067502975464e-01" nType="-99"/>
          <Node pos="r" depth="2" NCoef="0" IVar="-1" Cut="0.0000000000000000e+00" cType="1" res="-2.3558107204735279e-03" rms="4.0225180983543396e-01" purity="2.1767510473728180e-01" nType="-99"/>
        </Node>
        <Node pos="r" depth="1" NCoef="0" IVar="4" Cut="1.3330950927734375e+02" cType="1" res="2.7052205055952072e-02" rms="4.4684109091758728e-01" purity="5.5369126796722412e-01" nType="0">
          <Node pos="l" depth="2" NCoef="0" IVar="-1" Cut="0.0000000000000000e+00" cType="1" res="1.2025097385048866e-03" rms="4.4952610135078430e-01" purity="5.8398038148880005e-01" nType="-99"/>
          <Node pos="r" depth="2" NCoef="0" IVar="-1" Cut="0.0000000000000000e+00" cType="1" res="-2.9831755091436207e-04" rms="4.3954595923423767e-01" purity="5.0427776575088501e-01" nType="-99"/>
        </Node>
      </Node>
    </BinaryTree>
    <BinaryTree type="DecisionTree" boostWeight="1.0000000000000000e+00" itree="782">
      <Node pos="s" depth="0" NCoef="0" IVar="4" Cut="1.0889046478271484e+02" cType="1" res="1.7083743587136269e-02" rms="4.4328990578651428e-01" purity="5.2104210853576660e-01" nType="0">
        <Node pos="l" depth="1" NCoef="0" IVar="1" Cut="3.8985557556152344e+01" cType="1" res="-1.4236384071409702e-02" rms="4.4191348552703857e-01" purity="5.0396776199340820e-01" nType="0">
          <Node pos="l" depth="2" NCoef="0" IVar="-1" Cut="0.0000000000000000e+00" cType="1" res="-3.0630214605480433e-03" rms="3.8028654456138611e-01" purity="2.2648541629314423e-01" nType="-99"/>
          <Node pos="r" depth="2" NCoef="0" IVar="-1" Cut="0.0000000000000000e+00" cType="1" res="9.7741227364167571e-05" rms="4.4741937518119812e-01" purity="5.4513448476791382e-01" nType="-99"/>
        </Node>
        <Node pos="r" depth="1" NCoef="0" IVar="1" Cut="4.5465602874755859e+01" cType="1" res="5.3941816091537476e-02" rms="4.4207108020782471e-01" purity="5.4113554954528809e-01" nType="0">
          <Node pos="l" depth="2" NCoef="0" IVar="-1" Cut="0.0000000000000000e+00" cType="1" res="5.6716990657150745e-03" rms="4.2934590578079224e-01" purity="6.3980555534362793e-01" nType="-99"/>
          <Node pos="r" depth="2" NCoef="0" IVar="-1" Cut="0.0000000000000000e+00" cType="1" res="5.4331670980900526e-04" rms="4.3685066699981689e-01" purity="5.2375632524490356e-01" nType="-99"/>
        </Node>
      </Node>
    </BinaryTree>
    <BinaryTree type="DecisionTree" boostWeight="1.0000000000000000e+00" itree="783">
      <Node pos="s" depth="0" NCoef="0" IVar="0" Cut="5.2093901634216309e+00" cType="1" res="1.7069590976461768e-03" rms="4.4272637367248535e-01" purity="4.9067047238349915e-01" nType="0">
        <Node pos="l" depth="1" NCoef="0" IVar="0" Cut="4.9381346702575684e+00" cType="1" res="-7.3124065995216370e-02" rms="3.7639540433883667e-01" purity="1.8034516274929047e-01" nType="0">
          <Node pos="l" depth="2" NCoef="0" IVar="-1" Cut="0.0000000000000000e+00" cType="1" res="-3.8744492921978235e-03" rms="2.6402240991592407e-01" purity="6.9849379360675812e-02" nType="-99"/>
          <Node pos="r" depth="2" NCoef="0" IVar="-1" Cut="0.0000000000000000e+00" cType="1" res="5.5958022130653262e-04" rms="4.6384975314140320e-01" purity="3.1950268149375916e-01" nType="-99"/>
        </Node>
        <Node pos="r" depth="1" NCoef="0" IVar="6" Cut="4.1559066772460938e+02" cType="1" res="1.3244059868156910e-02" rms="4.5098453760147095e-01" purity="5.3851497173309326e-01" nType="0">
          <Node pos="l" depth="2" NCoef="0" IVar="-1" Cut="0.0000000000000000e+00" cType="1" res="1.3129507424309850e-03" rms="4.3176558613777161e-01" purity="5.4327070713043213e-01" nType="-99"/>
          <Node pos="r" depth="2" NCoef="0" IVar="-1" Cut="0.0000000000000000e+00" cType="1" res="-9.3587796436622739e-04" rms="4.6847283840179443e-01" purity="5.3263717889785767e-01" nType="-99"/>
        </Node>
      </Node>
    </BinaryTree>
    <BinaryTree type="DecisionTree" boostWeight="1.0000000000000000e+00" itree="784">
      <Node pos="s" depth="0" NCoef="0" IVar="0" Cut="8.8057155609130859e+00" cType="1" res="-1.0652359575033188e-02" rms="4.4662088155746460e-01" purity="4.8240017890930176e-01" nType="0">
        <Node pos="l" depth="1" NCoef="0" IVar="2" Cut="6.3213270902633667e-01" cType="1" res="-2.0493622869253159e-02" rms="4.5090478658676147e-01" purity="4.4568362832069397e-01" nType="0">
          <Node pos="l" depth="2" NCoef="0" IVar="-1" Cut="0.0000000000000000e+00" cType="1" res="1.0827545775100589e-03" rms="4.4310379028320312e-01" purity="6.8705433607101440e-01" nType="-99"/>
          <Node pos="r" depth="2" NCoef="0" IVar="-1" Cut="0.0000000000000000e+00" cType="1" res="-7.0289592258632183e-04" rms="4.5123592019081116e-01" purity="4.0827813744544983e-01" nType="-99"/>
        </Node>
        <Node pos="r" depth="1" NCoef="0" IVar="-1" Cut="0.0000000000000000e+00" cType="1" res="2.4743645917624235e-03" rms="3.9238134026527405e-01" purity="8.2687860727310181e-01" nType="-99"/>
      </Node>
    </BinaryTree>
    <BinaryTree type="DecisionTree" boostWeight="1.0000000000000000e+00" itree="785">
      <Node pos="s" depth="0" NCoef="0" IVar="1" Cut="1.5107565307617188e+02" cType="1" res="-6.9983280263841152e-03" rms="4.4503742456436157e-01" purity="5.0455236434936523e-01" nType="0">
        <Node pos="l" depth="1" NCoef="0" IVar="1" Cut="4.8508541107177734e+01" cType="1" res="1.8569305539131165e-03" rms="4.4476613402366638e-01" purity="5.1351696252822876e-01" nType="0">
          <Node pos="l" depth="2" NCoef="0" IVar="-1" Cut="0.0000000000000000e+00" cType="1" res="-1.1997335823252797e-03" rms="4.4733506441116333e-01" purity="3.7418106198310852e-01" nType="-99"/>
          <Node pos="r" depth="2" NCoef="0" IVar="-1" Cut="0.0000000000000000e+00" cType="1" res="4.2559116263873875e-04" rms="4.4269812107086182e-01" purity="5.5403453111648560e-01" nType="-99"/>
        </Node>
        <Node pos="r" depth="1" NCoef="0" IVar="-1" Cut="0.0000000000000000e+00" cType="1" res="-3.6252220161259174e-03" rms="4.2333105206489563e-01" purity="3.5593762993812561e-01" nType="-99"/>
      </Node>
    </BinaryTree>
    <BinaryTree type="DecisionTree" boostWeight="1.0000000000000000e+00" itree="786">
      <Node pos="s" depth="0" NCoef="0" IVar="3" Cut="1.7431980371475220e+00" cType="1" res="8.3269299939274788e-03" rms="4.5681649446487427e-01" purity="5.1228106021881104e-01" nType="0">
        <Node pos="l" depth="1" NCoef="0" IVar="-1" Cut="0.0000000000000000e+00" cType="1" res="-2.7536987327039242e-03" rms="4.3710753321647644e-01" purity="3.9969068765640259e-01" nType="-99"/>
        <Node pos="r" depth="1" NCoef="0" IVar="1" Cut="6.2877269744873047e+01" cType="1" res="1.8045727163553238e-02" rms="4.5666515827178955e-01" purity="5.2038615942001343e-01" nType="0">
          <Node pos="l" depth="2" NCoef="0" IVar="-1" Cut="0.0000000000000000e+00" cType="1" res="1.7640719888731837e-03" rms="4.7051927447319031e-01" purity="5.2624636888504028e-01" nType="-99"/>
          <Node pos="r" depth="2" NCoef="0" IVar="-1" Cut="0.0000000000000000e+00" cType="1" res="-2.4943434982560575e-04" rms="4.4672492146492004e-01" purity="5.1737713813781738e-01" nType="-99"/>
        </Node>
      </Node>
    </BinaryTree>
    <BinaryTree type="DecisionTree" boostWeight="1.0000000000000000e+00" itree="787">
      <Node pos="s" depth="0" NCoef="0" IVar="5" Cut="4.1363757848739624e-01" cType="1" res="9.5196301117539406e-03" rms="4.5143234729766846e-01" purity="5.1306205987930298e-01" nType="0">
        <Node pos="l" depth="1" NCoef="0" IVar="1" Cut="6.7236518859863281e+01" cType="1" res="-3.4446887671947479e-02" rms="4.3929710984230042e-01" purity="4.1342863440513611e-01" nType="0">
          <Node pos="l" depth="2" NCoef="0" IVar="-1" Cut="0.0000000000000000e+00" cType="1" res="-2.6697148568928242e-03" rms="4.1526705026626587e-01" purity="2.8414979577064514e-01" nType="-99"/>
          <Node pos="r" depth="2" NCoef="0" IVar="-1" Cut="0.0000000000000000e+00" cType="1" res="5.8746465947479010e-04" rms="4.4771626591682434e-01" purity="5.0980108976364136e-01" nType="-99"/>
        </Node>
        <Node pos="r" depth="1" NCoef="0" IVar="0" Cut="8.1202898025512695e+00" cType="1" res="6.1338178813457489e-02" rms="4.5996451377868652e-01" purity="6.3048905134201050e-01" nType="0">
          <Node pos="l" depth="2" NCoef="0" IVar="-1" Cut="0.0000000000000000e+00" cType="1" res="2.1717329509556293e-03" rms="4.6207612752914429e-01" purity="6.1707562208175659e-01" nType="-99"/>
          <Node pos="r" depth="2" NCoef="0" IVar="-1" Cut="0.0000000000000000e+00" cType="1" res="-1.7352080903947353e-03" rms="4.3029719591140747e-01" purity="6.7817366123199463e-01" nType="-99"/>
        </Node>
      </Node>
    </BinaryTree>
    <BinaryTree type="DecisionTree" boostWeight="1.0000000000000000e+00" itree="788">
      <Node pos="s" depth="0" NCoef="0" IVar="5" Cut="6.0377800464630127e-01" cType="1" res="1.8246699124574661e-02" rms="4.4649192690849304e-01" purity="5.1872974634170532e-01" nType="0">
        <Node pos="l" depth="1" NCoef="0" IVar="4" Cut="3.3845330810546875e+02" cType="1" res="2.8320323675870895e-02" rms="4.4323962926864624e-01" purity="5.1137334108352661e-01" nType="0">
          <Node pos="l" depth="2" NCoef="0" IVar="-1" Cut="0.0000000000000000e+00" cType="1" res="8.9850678341463208e-04" rms="4.4541093707084656e-01" purity="5.2872616052627563e-01" nType="-99"/>
          <Node pos="r" depth="2" NCoef="0" IVar="-1" Cut="0.0000000000000000e+00" cType="1" res="-1.8136206781491637e-03" rms="4.0808385610580444e-01" purity="3.3757567405700684e-01" nType="-99"/>
        </Node>
        <Node pos="r" depth="1" NCoef="0" IVar="3" Cut="2.0051915645599365e+00" cType="1" res="-3.0670721083879471e-02" rms="4.5882573723793030e-01" purity="5.5445230007171631e-01" nType="0">
          <Node pos="l" depth="2" NCoef="0" IVar="-1" Cut="0.0000000000000000e+00" cType="1" res="1.3496441533789039e-03" rms="4.1840577125549316e-01" purity="6.6037613153457642e-01" nType="-99"/>
          <Node pos="r" depth="2" NCoef="0" IVar="-1" Cut="0.0000000000000000e+00" cType="1" res="-1.9129674183204770e-03" rms="4.7356888651847839e-01" purity="4.9074140191078186e-01" nType="-99"/>
        </Node>
      </Node>
    </BinaryTree>
    <BinaryTree type="DecisionTree" boostWeight="1.0000000000000000e+00" itree="789">
      <Node pos="s" depth="0" NCoef="0" IVar="6" Cut="6.2986578369140625e+02" cType="1" res="-3.5509448498487473e-03" rms="4.5391821861267090e-01" purity="4.9064880609512329e-01" nType="0">
        <Node pos="l" depth="1" NCoef="0" IVar="5" Cut="3.6399176716804504e-01" cType="1" res="-1.6225285828113556e-02" rms="4.5848935842514038e-01" purity="4.6428218483924866e-01" nType="0">
          <Node pos="l" depth="2" NCoef="0" IVar="-1" Cut="0.0000000000000000e+00" cType="1" res="5.3708819905295968e-04" rms="4.5641446113586426e-01" purity="4.2643129825592041e-01" nType="-99"/>
          <Node pos="r" depth="2" NCoef="0" IVar="-1" Cut="0.0000000000000000e+00" cType="1" res="-1.0339304571971297e-03" rms="4.5791211724281311e-01" purity="4.9252146482467651e-01" nType="-99"/>
        </Node>
        <Node pos="r" depth="1" NCoef="0" IVar="2" Cut="8.6449593305587769e-01" cType="1" res="9.3925476074218750e-02" rms="4.0401485562324524e-01" purity="6.9343078136444092e-01" nType="0">
          <Node pos="l" depth="2" NCoef="0" IVar="-1" Cut="0.0000000000000000e+00" cType="1" res="4.7802007757127285e-03" rms="3.6429449915885925e-01" purity="8.8038855791091919e-01" nType="-99"/>
          <Node pos="r" depth="2" NCoef="0" IVar="-1" Cut="0.0000000000000000e+00" cType="1" res="4.7235187957994640e-04" rms="4.2519652843475342e-01" purity="5.1864451169967651e-01" nType="-99"/>
        </Node>
      </Node>
    </BinaryTree>
    <BinaryTree type="DecisionTree" boostWeight="1.0000000000000000e+00" itree="790">
      <Node pos="s" depth="0" NCoef="0" IVar="4" Cut="1.0972872161865234e+02" cType="1" res="-1.6886455938220024e-02" rms="4.5200648903846741e-01" purity="4.9002781510353088e-01" nType="0">
        <Node pos="l" depth="1" NCoef="0" IVar="4" Cut="5.6694904327392578e+01" cType="1" res="-4.1584193706512451e-02" rms="4.5462423563003540e-01" purity="4.7264680266380310e-01" nType="0">
          <Node pos="l" depth="2" NCoef="0" IVar="-1" Cut="0.0000000000000000e+00" cType="1" res="-1.7622786108404398e-03" rms="4.4773417711257935e-01" purity="4.3380635976791382e-01" nType="-99"/>
          <Node pos="r" depth="2" NCoef="0" IVar="-1" Cut="0.0000000000000000e+00" cType="1" res="3.4970833803527057e-04" rms="4.6036177873611450e-01" purity="5.3731626272201538e-01" nType="-99"/>
        </Node>
        <Node pos="r" depth="1" NCoef="0" IVar="5" Cut="5.2998125553131104e-01" cType="1" res="1.0334021411836147e-02" rms="4.4752752780914307e-01" purity="5.0918430089950562e-01" nType="0">
          <Node pos="l" depth="2" NCoef="0" IVar="-1" Cut="0.0000000000000000e+00" cType="1" res="-2.6991576305590570e-04" rms="4.4282311201095581e-01" purity="4.5763197541236877e-01" nType="-99"/>
          <Node pos="r" depth="2" NCoef="0" IVar="-1" Cut="0.0000000000000000e+00" cType="1" res="1.9593886099755764e-03" rms="4.5523300766944885e-01" purity="6.7485207319259644e-01" nType="-99"/>
        </Node>
      </Node>
    </BinaryTree>
    <BinaryTree type="DecisionTree" boostWeight="1.0000000000000000e+00" itree="791">
      <Node pos="s" depth="0" NCoef="0" IVar="5" Cut="6.7708146572113037e-01" cType="1" res="-1.4544757083058357e-02" rms="4.5011469721794128e-01" purity="4.8724436759948730e-01" nType="0">
        <Node pos="l" depth="1" NCoef="0" IVar="4" Cut="1.1725942993164062e+02" cType="1" res="-3.8742756005376577e-03" rms="4.4644129276275635e-01" purity="4.8816350102424622e-01" nType="0">
          <Node pos="l" depth="2" NCoef="0" IVar="-1" Cut="0.0000000000000000e+00" cType="1" res="-8.8435498764738441e-04" rms="4.4989076256752014e-01" purity="4.5843714475631714e-01" nType="-99"/>
          <Node pos="r" depth="2" NCoef="0" IVar="-1" Cut="0.0000000000000000e+00" cType="1" res="1.0101853404194117e-03" rms="4.3744349479675293e-01" purity="5.2823305130004883e-01" nType="-99"/>
        </Node>
        <Node pos="r" depth="1" NCoef="0" IVar="-1" Cut="0.0000000000000000e+00" cType="1" res="-3.0806558206677437e-03" rms="4.7305646538734436e-01" purity="4.7715988755226135e-01" nType="-99"/>
      </Node>
    </BinaryTree>
    <BinaryTree type="DecisionTree" boostWeight="1.0000000000000000e+00" itree="792">
      <Node pos="s" depth="0" NCoef="0" IVar="0" Cut="8.3263502120971680e+00" cType="1" res="1.3393241912126541e-02" rms="4.5261400938034058e-01" purity="5.2490043640136719e-01" nType="0">
        <Node pos="l" depth="1" NCoef="0" IVar="2" Cut="8.9550685882568359e-01" cType="1" res="-4.0747309103608131e-03" rms="4.6697950363159180e-01" purity="4.6630403399467468e-01" nType="0">
          <Node pos="l" depth="2" NCoef="0" IVar="-1" Cut="0.0000000000000000e+00" cType="1" res="-1.1014352785423398e-03" rms="4.6993935108184814e-01" purity="5.3910320997238159e-01" nType="-99"/>
          <Node pos="r" depth="2" NCoef="0" IVar="-1" Cut="0.0000000000000000e+00" cType="1" res="6.6209718352183700e-04" rms="4.6209543943405151e-01" purity="4.1463339328765869e-01" nType="-99"/>
        </Node>
        <Node pos="r" depth="1" NCoef="0" IVar="4" Cut="9.2296524047851562e+01" cType="1" res="9.4696499407291412e-02" rms="3.6788901686668396e-01" purity="7.9763269424438477e-01" nType="0">
          <Node pos="l" depth="2" NCoef="0" IVar="-1" Cut="0.0000000000000000e+00" cType="1" res="4.1732140816748142e-03" rms="3.1931164860725403e-01" purity="8.4933775663375854e-01" nType="-99"/>
          <Node pos="r" depth="2" NCoef="0" IVar="-1" Cut="0.0000000000000000e+00" cType="1" res="1.6208565793931484e-03" rms="3.9457690715789795e-01" purity="7.6066654920578003e-01" nType="-99"/>
        </Node>
      </Node>
    </BinaryTree>
    <BinaryTree type="DecisionTree" boostWeight="1.0000000000000000e+00" itree="793">
      <Node pos="s" depth="0" NCoef="0" IVar="5" Cut="2.2147284448146820e-01" cType="1" res="-3.1884808558970690e-03" rms="4.4391977787017822e-01" purity="4.9091699719429016e-01" nType="0">
        <Node pos="l" depth="1" NCoef="0" IVar="0" Cut="7.1481738090515137e+00" cType="1" res="-7.9537682235240936e-02" rms="3.9753139019012451e-01" purity="2.9993209242820740e-01" nType="0">
          <Node pos="l" depth="2" NCoef="0" IVar="-1" Cut="0.0000000000000000e+00" cType="1" res="-3.9113806560635567e-03" rms="3.4948784112930298e-01" purity="1.4646795392036438e-01" nType="-99"/>
          <Node pos="r" depth="2" NCoef="0" IVar="-1" Cut="0.0000000000000000e+00" cType="1" res="1.5878461999818683e-03" rms="4.3456622958183289e-01" purity="5.7797378301620483e-01" nType="-99"/>
        </Node>
        <Node pos="r" depth="1" NCoef="0" IVar="3" Cut="2.2806472778320312e+00" cType="1" res="1.3863442465662956e-02" rms="4.5187377929687500e-01" purity="5.3357177972793579e-01" nType="0">
          <Node pos="l" depth="2" NCoef="0" IVar="-1" Cut="0.0000000000000000e+00" cType="1" res="-6.3774990849196911e-05" rms="4.5125672221183777e-01" purity="5.7313013076782227e-01" nType="-99"/>
          <Node pos="r" depth="2" NCoef="0" IVar="-1" Cut="0.0000000000000000e+00" cType="1" res="1.2948776129633188e-03" rms="4.5077398419380188e-01" purity="4.3585270643234253e-01" nType="-99"/>
        </Node>
      </Node>
    </BinaryTree>
    <BinaryTree type="DecisionTree" boostWeight="1.0000000000000000e+00" itree="794">
      <Node pos="s" depth="0" NCoef="0" IVar="2" Cut="4.8632398247718811e-01" cType="1" res="6.1079435981810093e-03" rms="4.4404131174087524e-01" purity="4.9964427947998047e-01" nType="0">
        <Node pos="l" depth="1" NCoef="0" IVar="-1" Cut="0.0000000000000000e+00" cType="1" res="3.2988979946821928e-03" rms="3.3536460995674133e-01" purity="8.1166326999664307e-01" nType="-99"/>
        <Node pos="r" depth="1" NCoef="0" IVar="6" Cut="6.2851489257812500e+02" cType="1" res="-2.6698990259319544e-03" rms="4.4958707690238953e-01" purity="4.7716501355171204e-01" nType="0">
          <Node pos="l" depth="2" NCoef="0" IVar="-1" Cut="0.0000000000000000e+00" cType="1" res="2.0148557086940855e-04" rms="4.4730105996131897e-01" purity="4.7785779833793640e-01" nType="-99"/>
          <Node pos="r" depth="2" NCoef="0" IVar="-1" Cut="0.0000000000000000e+00" cType="1" res="-2.3338063620030880e-03" rms="4.5757073163986206e-01" purity="4.7129166126251221e-01" nType="-99"/>
        </Node>
      </Node>
    </BinaryTree>
    <BinaryTree type="DecisionTree" boostWeight="1.0000000000000000e+00" itree="795">
      <Node pos="s" depth="0" NCoef="0" IVar="2" Cut="9.3676483631134033e-01" cType="1" res="-8.9042298495769501e-03" rms="4.3148988485336304e-01" purity="4.9120289087295532e-01" nType="0">
        <Node pos="l" depth="1" NCoef="0" IVar="6" Cut="3.1651165771484375e+02" cType="1" res="3.6271475255489349e-02" rms="4.2425441741943359e-01" purity="6.6137200593948364e-01" nType="0">
          <Node pos="l" depth="2" NCoef="0" IVar="-1" Cut="0.0000000000000000e+00" cType="1" res="-1.3151922030374408e-03" rms="4.2661982774734497e-01" purity="4.4220268726348877e-01" nType="-99"/>
          <Node pos="r" depth="2" NCoef="0" IVar="-1" Cut="0.0000000000000000e+00" cType="1" res="1.4691513497382402e-03" rms="4.2048895359039307e-01" purity="7.1236854791641235e-01" nType="-99"/>
        </Node>
        <Node pos="r" depth="1" NCoef="0" IVar="1" Cut="1.0048607635498047e+02" cType="1" res="-4.4945705682039261e-02" rms="4.3381577730178833e-01" purity="3.5544088482856750e-01" nType="0">
          <Node pos="l" depth="2" NCoef="0" IVar="-1" Cut="0.0000000000000000e+00" cType="1" res="-1.4630830846726894e-03" rms="4.3486464023590088e-01" purity="3.2526069879531860e-01" nType="-99"/>
          <Node pos="r" depth="2" NCoef="0" IVar="-1" Cut="0.0000000000000000e+00" cType="1" res="2.8681040930678137e-05" rms="4.2771220207214355e-01" purity="4.3044996261596680e-01" nType="-99"/>
        </Node>
      </Node>
    </BinaryTree>
    <BinaryTree type="DecisionTree" boostWeight="1.0000000000000000e+00" itree="796">
      <Node pos="s" depth="0" NCoef="0" IVar="3" Cut="2.7468957901000977e+00" cType="1" res="-1.7692011315375566e-03" rms="4.3743357062339783e-01" purity="4.9192082881927490e-01" nType="0">
        <Node pos="l" depth="1" NCoef="0" IVar="0" Cut="6.2181825637817383e+00" cType="1" res="8.2366848364472389e-03" rms="4.4639059901237488e-01" purity="5.1967376470565796e-01" nType="0">
          <Node pos="l" depth="2" NCoef="0" IVar="-1" Cut="0.0000000000000000e+00" cType="1" res="-1.0570496087893844e-03" rms="4.2329341173171997e-01" purity="2.8966787457466125e-01" nType="-99"/>
          <Node pos="r" depth="2" NCoef="0" IVar="-1" Cut="0.0000000000000000e+00" cType="1" res="9.5131824491545558e-04" rms="4.5604735612869263e-01" purity="6.5069830417633057e-01" nType="-99"/>
        </Node>
        <Node pos="r" depth="1" NCoef="0" IVar="-1" Cut="0.0000000000000000e+00" cType="1" res="-5.1414947956800461e-03" rms="1.7277388274669647e-01" purity="2.9182452708482742e-02" nType="-99"/>
      </Node>
    </BinaryTree>
    <BinaryTree type="DecisionTree" boostWeight="1.0000000000000000e+00" itree="797">
      <Node pos="s" depth="0" NCoef="0" IVar="4" Cut="3.0333609008789062e+02" cType="1" res="1.3862668536603451e-02" rms="4.4688200950622559e-01" purity="5.0617748498916626e-01" nType="0">
        <Node pos="l" depth="1" NCoef="0" IVar="3" Cut="2.6028656959533691e+00" cType="1" res="2.3795641958713531e-02" rms="4.4902494549751282e-01" purity="5.2454525232315063e-01" nType="0">
          <Node pos="l" depth="2" NCoef="0" IVar="-1" Cut="0.0000000000000000e+00" cType="1" res="7.2114035720005631e-04" rms="4.5631411671638489e-01" purity="5.5516570806503296e-01" nType="-99"/>
          <Node pos="r" depth="2" NCoef="0" IVar="-1" Cut="0.0000000000000000e+00" cType="1" res="-1.3683228753507137e-03" rms="3.5185074806213379e-01" purity="1.9125333428382874e-01" nType="-99"/>
        </Node>
        <Node pos="r" depth="1" NCoef="0" IVar="-1" Cut="0.0000000000000000e+00" cType="1" res="-2.5844627525657415e-03" rms="4.0124580264091492e-01" purity="2.8461384773254395e-01" nType="-99"/>
      </Node>
    </BinaryTree>
    <BinaryTree type="DecisionTree" boostWeight="1.0000000000000000e+00" itree="798">
      <Node pos="s" depth="0" NCoef="0" IVar="6" Cut="2.9700302124023438e+02" cType="1" res="3.4055581782013178e-03" rms="4.4209495186805725e-01" purity="4.9662825465202332e-01" nType="0">
        <Node pos="l" depth="1" NCoef="0" IVar="0" Cut="6.6043782234191895e+00" cType="1" res="-7.0030964910984039e-02" rms="3.9976158738136292e-01" purity="2.9690018296241760e-01" nType="0">
          <Node pos="l" depth="2" NCoef="0" IVar="-1" Cut="0.0000000000000000e+00" cType="1" res="-3.2708593644201756e-03" rms="3.2839217782020569e-01" purity="1.2398128956556320e-01" nType="-99"/>
          <Node pos="r" depth="2" NCoef="0" IVar="-1" Cut="0.0000000000000000e+00" cType="1" res="-8.5259664047043771e-05" rms="4.5624443888664246e-01" purity="4.8583978414535522e-01" nType="-99"/>
        </Node>
        <Node pos="r" depth="1" NCoef="0" IVar="6" Cut="5.1951269531250000e+02" cType="1" res="2.1811563521623611e-02" rms="4.5021092891693115e-01" purity="5.4668778181076050e-01" nType="0">
          <Node pos="l" depth="2" NCoef="0" IVar="-1" Cut="0.0000000000000000e+00" cType="1" res="1.0253434302285314e-03" rms="4.4896483421325684e-01" purity="5.5470567941665649e-01" nType="-99"/>
          <Node pos="r" depth="2" NCoef="0" IVar="-1" Cut="0.0000000000000000e+00" cType="1" res="-8.1826606765389442e-04" rms="4.4869056344032288e-01" purity="5.2554637193679810e-01" nType="-99"/>
        </Node>
      </Node>
    </BinaryTree>
    <BinaryTree type="DecisionTree" boostWeight="1.0000000000000000e+00" itree="799">
      <Node pos="s" depth="0" NCoef="0" IVar="4" Cut="2.0108911132812500e+02" cType="1" res="1.9839617889374495e-03" rms="4.4886317849159241e-01" purity="4.9972623586654663e-01" nType="0">
        <Node pos="l" depth="1" NCoef="0" IVar="5" Cut="1.5780602395534515e-01" cType="1" res="-2.0388066768646240e-02" rms="4.5194122195243835e-01" purity="4.8938813805580139e-01" nType="0">
          <Node pos="l" depth="2" NCoef="0" IVar="-1" Cut="0.0000000000000000e+00" cType="1" res="-2.9326807707548141e-03" rms="4.0776431560516357e-01" purity="2.4516373872756958e-01" nType="-99"/>
          <Node pos="r" depth="2" NCoef="0" IVar="-1" Cut="0.0000000000000000e+00" cType="1" res="-1.6279092233162373e-04" rms="4.5560774207115173e-01" purity="5.2090770006179810e-01" nType="-99"/>
        </Node>
        <Node pos="r" depth="1" NCoef="0" IVar="0" Cut="6.8341140747070312e+00" cType="1" res="1.0063599795103073e-01" rms="4.2108467221260071e-01" purity="5.4531294107437134e-01" nType="0">
          <Node pos="l" depth="2" NCoef="0" IVar="-1" Cut="0.0000000000000000e+00" cType="1" res="5.7476398069411516e-04" rms="4.3331271409988403e-01" purity="3.5351687669754028e-01" nType="-99"/>
          <Node pos="r" depth="2" NCoef="0" IVar="-1" Cut="0.0000000000000000e+00" cType="1" res="4.6279719099402428e-03" rms="3.8953727483749390e-01" purity="7.5765937566757202e-01" nType="-99"/>
        </Node>
      </Node>
    </BinaryTree>
    <BinaryTree type="DecisionTree" boostWeight="1.0000000000000000e+00" itree="800">
      <Node pos="s" depth="0" NCoef="0" IVar="0" Cut="9.2369747161865234e+00" cType="1" res="-6.7544830963015556e-03" rms="4.5700755715370178e-01" purity="4.9597457051277161e-01" nType="0">
        <Node pos="l" depth="1" NCoef="0" IVar="5" Cut="2.9219278693199158e-01" cType="1" res="2.2123621311038733e-03" rms="4.5337018370628357e-01" purity="4.8926830291748047e-01" nType="0">
          <Node pos="l" depth="2" NCoef="0" IVar="-1" Cut="0.0000000000000000e+00" cType="1" res="-8.4899389185011387e-04" rms="4.4422051310539246e-01" purity="3.6480084061622620e-01" nType="-99"/>
          <Node pos="r" depth="2" NCoef="0" IVar="-1" Cut="0.0000000000000000e+00" cType="1" res="4.5524400775320828e-04" rms="4.5675602555274963e-01" purity="5.5085855722427368e-01" nType="-99"/>
        </Node>
        <Node pos="r" depth="1" NCoef="0" IVar="-1" Cut="0.0000000000000000e+00" cType="1" res="-4.4742408208549023e-03" rms="4.8998099565505981e-01" purity="6.0445451736450195e-01" nType="-99"/>
      </Node>
    </BinaryTree>
    <BinaryTree type="DecisionTree" boostWeight="1.0000000000000000e+00" itree="801">
      <Node pos="s" depth="0" NCoef="0" IVar="0" Cut="5.0191130638122559e+00" cType="1" res="3.3491924405097961e-02" rms="4.5104411244392395e-01" purity="5.3372168540954590e-01" nType="0">
        <Node pos="l" depth="1" NCoef="0" IVar="-1" Cut="0.0000000000000000e+00" cType="1" res="-1.1573537485674024e-03" rms="3.4837925434112549e-01" purity="1.6621592640876770e-01" nType="-99"/>
        <Node pos="r" depth="1" NCoef="0" IVar="2" Cut="1.1450958251953125e+00" cType="1" res="3.9960488677024841e-02" rms="4.5801082253456116e-01" purity="5.6450444459915161e-01" nType="0">
          <Node pos="l" depth="2" NCoef="0" IVar="-1" Cut="0.0000000000000000e+00" cType="1" res="4.7652429202571511e-04" rms="4.5070341229438782e-01" purity="6.3448905944824219e-01" nType="-99"/>
          <Node pos="r" depth="2" NCoef="0" IVar="-1" Cut="0.0000000000000000e+00" cType="1" res="1.8819350516423583e-03" rms="4.6988144516944885e-01" purity="4.2405343055725098e-01" nType="-99"/>
        </Node>
      </Node>
    </BinaryTree>
    <BinaryTree type="DecisionTree" boostWeight="1.0000000000000000e+00" itree="802">
      <Node pos="s" depth="0" NCoef="0" IVar="0" Cut="5.8513789176940918e+00" cType="1" res="2.6815589517354965e-03" rms="4.3890398740768433e-01" purity="4.9702796339988708e-01" nType="0">
        <Node pos="l" depth="1" NCoef="0" IVar="5" Cut="4.1321936249732971e-01" cType="1" res="-5.4174810647964478e-02" rms="4.0678277611732483e-01" purity="2.4878904223442078e-01" nType="0">
          <Node pos="l" depth="2" NCoef="0" IVar="-1" Cut="0.0000000000000000e+00" cType="1" res="-2.9312571859918535e-04" rms="4.0803703665733337e-01" purity="2.6856476068496704e-01" nType="-99"/>
          <Node pos="r" depth="2" NCoef="0" IVar="-1" Cut="0.0000000000000000e+00" cType="1" res="-2.3743247147649527e-03" rms="3.9721587300300598e-01" purity="2.2020485997200012e-01" nType="-99"/>
        </Node>
        <Node pos="r" depth="1" NCoef="0" IVar="2" Cut="5.3356033563613892e-01" cType="1" res="2.1844113245606422e-02" rms="4.4758835434913635e-01" purity="5.8069300651550293e-01" nType="0">
          <Node pos="l" depth="2" NCoef="0" IVar="-1" Cut="0.0000000000000000e+00" cType="1" res="2.8699690010398626e-03" rms="3.9124569296836853e-01" purity="8.1924772262573242e-01" nType="-99"/>
          <Node pos="r" depth="2" NCoef="0" IVar="-1" Cut="0.0000000000000000e+00" cType="1" res="2.5790062500163913e-04" rms="4.5325031876564026e-01" purity="5.4974752664566040e-01" nType="-99"/>
        </Node>
      </Node>
    </BinaryTree>
    <BinaryTree type="DecisionTree" boostWeight="1.0000000000000000e+00" itree="803">
      <Node pos="s" depth="0" NCoef="0" IVar="5" Cut="4.8905330896377563e-01" cType="1" res="2.8119059279561043e-02" rms="4.3503549695014954e-01" purity="5.1732778549194336e-01" nType="0">
        <Node pos="l" depth="1" NCoef="0" IVar="2" Cut="1.0391339063644409e+00" cType="1" res="3.0000978149473667e-03" rms="4.3467405438423157e-01" purity="4.5883053541183472e-01" nType="0">
          <Node pos="l" depth="2" NCoef="0" IVar="-1" Cut="0.0000000000000000e+00" cType="1" res="8.4722798783332109e-04" rms="4.4702756404876709e-01" purity="6.3498967885971069e-01" nType="-99"/>
          <Node pos="r" depth="2" NCoef="0" IVar="-1" Cut="0.0000000000000000e+00" cType="1" res="-6.7791558103635907e-04" rms="4.2046025395393372e-01" purity="2.9460042715072632e-01" nType="-99"/>
        </Node>
        <Node pos="r" depth="1" NCoef="0" IVar="1" Cut="9.0058723449707031e+01" cType="1" res="8.2193799316883087e-02" rms="4.3087151646614075e-01" purity="6.4325755834579468e-01" nType="0">
          <Node pos="l" depth="2" NCoef="0" IVar="-1" Cut="0.0000000000000000e+00" cType="1" res="2.6831680443137884e-03" rms="4.3703180551528931e-01" purity="6.5102088451385498e-01" nType="-99"/>
          <Node pos="r" depth="2" NCoef="0" IVar="-1" Cut="0.0000000000000000e+00" cType="1" res="2.4184625362977386e-04" rms="4.0781149268150330e-01" purity="6.2622362375259399e-01" nType="-99"/>
        </Node>
      </Node>
    </BinaryTree>
    <BinaryTree type="DecisionTree" boostWeight="1.0000000000000000e+00" itree="804">
      <Node pos="s" depth="0" NCoef="0" IVar="1" Cut="1.0388689422607422e+02" cType="1" res="-1.6510507091879845e-02" rms="4.5868840813636780e-01" purity="4.9292725324630737e-01" nType="0">
        <Node pos="l" depth="1" NCoef="0" IVar="6" Cut="5.2097174072265625e+02" cType="1" res="-4.0995124727487564e-02" rms="4.6381819248199463e-01" purity="4.4558611512184143e-01" nType="0">
          <Node pos="l" depth="2" NCoef="0" IVar="-1" Cut="0.0000000000000000e+00" cType="1" res="-4.3172776349820197e-04" rms="4.6084642410278320e-01" purity="4.5451715588569641e-01" nType="-99"/>
          <Node pos="r" depth="2" NCoef="0" IVar="-1" Cut="0.0000000000000000e+00" cType="1" res="-3.3676971215754747e-03" rms="4.6218559145927429e-01" purity="3.9964973926544189e-01" nType="-99"/>
        </Node>
        <Node pos="r" depth="1" NCoef="0" IVar="6" Cut="5.7754974365234375e+02" cType="1" res="5.4744619876146317e-02" rms="4.3566194176673889e-01" purity="6.3069957494735718e-01" nType="0">
          <Node pos="l" depth="2" NCoef="0" IVar="-1" Cut="0.0000000000000000e+00" cType="1" res="3.3547519706189632e-04" rms="4.6524444222450256e-01" purity="5.5942952632904053e-01" nType="-99"/>
          <Node pos="r" depth="2" NCoef="0" IVar="-1" Cut="0.0000000000000000e+00" cType="1" res="3.1878724694252014e-03" rms="3.7041714787483215e-01" purity="7.5066423416137695e-01" nType="-99"/>
        </Node>
      </Node>
    </BinaryTree>
    <BinaryTree type="DecisionTree" boostWeight="1.0000000000000000e+00" itree="805">
      <Node pos="s" depth="0" NCoef="0" IVar="3" Cut="2.1374816894531250e+00" cType="1" res="7.7300863340497017e-03" rms="4.4654437899589539e-01" purity="5.1413965225219727e-01" nType="0">
        <Node pos="l" depth="1" NCoef="0" IVar="1" Cut="7.1321723937988281e+01" cType="1" res="4.3050799518823624e-02" rms="4.6102976799011230e-01" purity="6.3351517915725708e-01" nType="0">
          <Node pos="l" depth="2" NCoef="0" IVar="-1" Cut="0.0000000000000000e+00" cType="1" res="2.1115313284099102e-03" rms="4.6293479204177856e-01" purity="6.2902480363845825e-01" nType="-99"/>
          <Node pos="r" depth="2" NCoef="0" IVar="-1" Cut="0.0000000000000000e+00" cType="1" res="-5.6030659470707178e-04" rms="4.5007023215293884e-01" purity="6.3930481672286987e-01" nType="-99"/>
        </Node>
        <Node pos="r" depth="1" NCoef="0" IVar="3" Cut="2.6898033618927002e+00" cType="1" res="-2.4217171594500542e-02" rms="4.3053680658340454e-01" purity="4.0616562962532043e-01" nType="0">
          <Node pos="l" depth="2" NCoef="0" IVar="-1" Cut="0.0000000000000000e+00" cType="1" res="-1.6587272693868726e-04" rms="4.4768482446670532e-01" purity="4.5228794217109680e-01" nType="-99"/>
          <Node pos="r" depth="2" NCoef="0" IVar="-1" Cut="0.0000000000000000e+00" cType="1" res="-4.1469559073448181e-03" rms="2.5187805294990540e-01" purity="8.2601100206375122e-02" nType="-99"/>
        </Node>
      </Node>
    </BinaryTree>
    <BinaryTree type="DecisionTree" boostWeight="1.0000000000000000e+00" itree="806">
      <Node pos="s" depth="0" NCoef="0" IVar="2" Cut="1.1028985977172852e+00" cType="1" res="1.0107029229402542e-02" rms="4.4923767447471619e-01" purity="5.0384479761123657e-01" nType="0">
        <Node pos="l" depth="1" NCoef="0" IVar="4" Cut="1.1017685699462891e+02" cType="1" res="-2.3440485820174217e-02" rms="4.6177190542221069e-01" purity="5.8266967535018921e-01" nType="0">
          <Node pos="l" depth="2" NCoef="0" IVar="-1" Cut="0.0000000000000000e+00" cType="1" res="4.9377791583538055e-04" rms="4.5567274093627930e-01" purity="6.2542927265167236e-01" nType="-99"/>
          <Node pos="r" depth="2" NCoef="0" IVar="-1" Cut="0.0000000000000000e+00" cType="1" res="-2.1259866189211607e-03" rms="4.6270933747291565e-01" purity="5.1945060491561890e-01" nType="-99"/>
        </Node>
        <Node pos="r" depth="1" NCoef="0" IVar="2" Cut="1.5466982126235962e+00" cType="1" res="5.8125823736190796e-02" rms="4.2609065771102905e-01" purity="3.9101740717887878e-01" nType="0">
          <Node pos="l" depth="2" NCoef="0" IVar="-1" Cut="0.0000000000000000e+00" cType="1" res="2.4785781279206276e-03" rms="4.4800090789794922e-01" purity="4.7354552149772644e-01" nType="-99"/>
          <Node pos="r" depth="2" NCoef="0" IVar="-1" Cut="0.0000000000000000e+00" cType="1" res="-1.7184884054586291e-03" rms="3.3595153689384460e-01" purity="1.7997492849826813e-01" nType="-99"/>
        </Node>
      </Node>
    </BinaryTree>
    <BinaryTree type="DecisionTree" boostWeight="1.0000000000000000e+00" itree="807">
      <Node pos="s" depth="0" NCoef="0" IVar="5" Cut="1.6607068479061127e-01" cType="1" res="2.0854562520980835e-02" rms="4.4701096415519714e-01" purity="5.1445144414901733e-01" nType="0">
        <Node pos="l" depth="1" NCoef="0" IVar="1" Cut="8.5146041870117188e+01" cType="1" res="-7.1014203131198883e-02" rms="4.1509637236595154e-01" purity="3.1189027428627014e-01" nType="0">
          <Node pos="l" depth="2" NCoef="0" IVar="-1" Cut="0.0000000000000000e+00" cType="1" res="-3.0884710140526295e-03" rms="3.8898187875747681e-01" purity="2.4520182609558105e-01" nType="-99"/>
          <Node pos="r" depth="2" NCoef="0" IVar="-1" Cut="0.0000000000000000e+00" cType="1" res="3.9777698111720383e-04" rms="4.3533101677894592e-01" purity="4.0766659379005432e-01" nType="-99"/>
        </Node>
        <Node pos="r" depth="1" NCoef="0" IVar="2" Cut="1.1884633302688599e+00" cType="1" res="3.5572845488786697e-02" rms="4.5017552375793457e-01" purity="5.4690378904342651e-01" nType="0">
          <Node pos="l" depth="2" NCoef="0" IVar="-1" Cut="0.0000000000000000e+00" cType="1" res="2.1639726764988154e-04" rms="4.4506072998046875e-01" purity="5.8330410718917847e-01" nType="-99"/>
          <Node pos="r" depth="2" NCoef="0" IVar="-1" Cut="0.0000000000000000e+00" cType="1" res="2.5685864966362715e-03" rms="4.5635631680488586e-01" purity="4.4869926571846008e-01" nType="-99"/>
        </Node>
      </Node>
    </BinaryTree>
    <BinaryTree type="DecisionTree" boostWeight="1.0000000000000000e+00" itree="808">
      <Node pos="s" depth="0" NCoef="0" IVar="3" Cut="1.9303858280181885e+00" cType="1" res="1.7909778282046318e-02" rms="4.5315173268318176e-01" purity="5.1190406084060669e-01" nType="0">
        <Node pos="l" depth="1" NCoef="0" IVar="1" Cut="8.1018959045410156e+01" cType="1" res="-5.9901781380176544e-02" rms="4.8195144534111023e-01" purity="5.2654588222503662e-01" nType="0">
          <Node pos="l" depth="2" NCoef="0" IVar="-1" Cut="0.0000000000000000e+00" cType="1" res="-4.0967311360873282e-04" rms="4.6615692973136902e-01" purity="5.2004092931747437e-01" nType="-99"/>
          <Node pos="r" depth="2" NCoef="0" IVar="-1" Cut="0.0000000000000000e+00" cType="1" res="-4.0002521127462387e-03" rms="5.0341653823852539e-01" purity="5.4136681556701660e-01" nType="-99"/>
        </Node>
        <Node pos="r" depth="1" NCoef="0" IVar="6" Cut="3.2012240600585938e+02" cType="1" res="3.4628581255674362e-02" rms="4.4494906067848206e-01" purity="5.0875800848007202e-01" nType="0">
          <Node pos="l" depth="2" NCoef="0" IVar="-1" Cut="0.0000000000000000e+00" cType="1" res="-5.3130835294723511e-04" rms="4.2366209626197815e-01" purity="3.5924610495567322e-01" nType="-99"/>
          <Node pos="r" depth="2" NCoef="0" IVar="-1" Cut="0.0000000000000000e+00" cType="1" res="1.2462264858186245e-03" rms="4.5029929280281067e-01" purity="5.5877679586410522e-01" nType="-99"/>
        </Node>
      </Node>
    </BinaryTree>
    <BinaryTree type="DecisionTree" boostWeight="1.0000000000000000e+00" itree="809">
      <Node pos="s" depth="0" NCoef="0" IVar="1" Cut="8.6879493713378906e+01" cType="1" res="1.0233879089355469e-02" rms="4.5225152373313904e-01" purity="5.0893545150756836e-01" nType="0">
        <Node pos="l" depth="1" NCoef="0" IVar="5" Cut="2.2068175673484802e-01" cType="1" res="-1.1204275302588940e-02" rms="4.5771399140357971e-01" purity="4.5698514580726624e-01" nType="0">
          <Node pos="l" depth="2" NCoef="0" IVar="-1" Cut="0.0000000000000000e+00" cType="1" res="-1.7710945103317499e-03" rms="4.6421375870704651e-01" purity="2.9480412602424622e-01" nType="-99"/>
          <Node pos="r" depth="2" NCoef="0" IVar="-1" Cut="0.0000000000000000e+00" cType="1" res="1.0153884795727208e-04" rms="4.5476534962654114e-01" purity="4.9617630243301392e-01" nType="-99"/>
        </Node>
        <Node pos="r" depth="1" NCoef="0" IVar="4" Cut="1.4356311035156250e+02" cType="1" res="4.7480028122663498e-02" rms="4.4012475013732910e-01" purity="5.9919267892837524e-01" nType="0">
          <Node pos="l" depth="2" NCoef="0" IVar="-1" Cut="0.0000000000000000e+00" cType="1" res="5.5471499217674136e-04" rms="4.3210071325302124e-01" purity="5.9464114904403687e-01" nType="-99"/>
          <Node pos="r" depth="2" NCoef="0" IVar="-1" Cut="0.0000000000000000e+00" cType="1" res="2.1316742058843374e-03" rms="4.4976121187210083e-01" purity="6.0644876956939697e-01" nType="-99"/>
        </Node>
      </Node>
    </BinaryTree>
    <BinaryTree type="DecisionTree" boostWeight="1.0000000000000000e+00" itree="810">
      <Node pos="s" depth="0" NCoef="0" IVar="3" Cut="2.6813471317291260e+00" cType="1" res="2.6414252817630768e-02" rms="4.5004400610923767e-01" purity="5.3128880262374878e-01" nType="0">
        <Node pos="l" depth="1" NCoef="0" IVar="1" Cut="3.6504749298095703e+01" cType="1" res="3.7299331277608871e-02" rms="4.5898345112800598e-01" purity="5.6316429376602173e-01" nType="0">
          <Node pos="l" depth="2" NCoef="0" IVar="-1" Cut="0.0000000000000000e+00" cType="1" res="4.5146541669964790e-03" rms="4.7922939062118530e-01" purity="5.3727793693542480e-01" nType="-99"/>
          <Node pos="r" depth="2" NCoef="0" IVar="-1" Cut="0.0000000000000000e+00" cType="1" res="6.2867987435311079e-04" rms="4.5569509267807007e-01" purity="5.6509363651275635e-01" nType="-99"/>
        </Node>
        <Node pos="r" depth="1" NCoef="0" IVar="-1" Cut="0.0000000000000000e+00" cType="1" res="-3.7251259200274944e-03" rms="2.4575473368167877e-01" purity="7.5424447655677795e-02" nType="-99"/>
      </Node>
    </BinaryTree>
    <BinaryTree type="DecisionTree" boostWeight="1.0000000000000000e+00" itree="811">
      <Node pos="s" depth="0" NCoef="0" IVar="2" Cut="1.0487427711486816e+00" cType="1" res="-2.1757321432232857e-02" rms="4.3665331602096558e-01" purity="4.7758644819259644e-01" nType="0">
        <Node pos="l" depth="1" NCoef="0" IVar="1" Cut="5.9719276428222656e+01" cType="1" res="5.2025206387042999e-03" rms="4.5005658268928528e-01" purity="6.0764926671981812e-01" nType="0">
          <Node pos="l" depth="2" NCoef="0" IVar="-1" Cut="0.0000000000000000e+00" cType="1" res="-1.1040396057069302e-03" rms="4.5542410016059875e-01" purity="4.8322841525077820e-01" nType="-99"/>
          <Node pos="r" depth="2" NCoef="0" IVar="-1" Cut="0.0000000000000000e+00" cType="1" res="8.5582683095708489e-04" rms="4.4423449039459229e-01" purity="6.7508524656295776e-01" nType="-99"/>
        </Node>
        <Node pos="r" depth="1" NCoef="0" IVar="5" Cut="3.3751240372657776e-01" cType="1" res="-5.7008523494005203e-02" rms="4.1585233807563782e-01" purity="3.0752354860305786e-01" nType="0">
          <Node pos="l" depth="2" NCoef="0" IVar="-1" Cut="0.0000000000000000e+00" cType="1" res="-2.3184968158602715e-03" rms="3.8578066229820251e-01" purity="2.2354380786418915e-01" nType="-99"/>
          <Node pos="r" depth="2" NCoef="0" IVar="-1" Cut="0.0000000000000000e+00" cType="1" res="-2.7381375548429787e-04" rms="4.4481587409973145e-01" purity="4.0714514255523682e-01" nType="-99"/>
        </Node>
      </Node>
    </BinaryTree>
    <BinaryTree type="DecisionTree" boostWeight="1.0000000000000000e+00" itree="812">
      <Node pos="s" depth="0" NCoef="0" IVar="1" Cut="1.3725076293945312e+02" cType="1" res="1.8132857978343964e-02" rms="4.4714722037315369e-01" purity="5.1356512308120728e-01" nType="0">
        <Node pos="l" depth="1" NCoef="0" IVar="0" Cut="9.1153154373168945e+00" cType="1" res="2.9479196295142174e-02" rms="4.4289878010749817e-01" purity="5.2464532852172852e-01" nType="0">
          <Node pos="l" depth="2" NCoef="0" IVar="-1" Cut="0.0000000000000000e+00" cType="1" res="5.2902643801644444e-04" rms="4.4975763559341431e-01" purity="5.0098395347595215e-01" nType="-99"/>
          <Node pos="r" depth="2" NCoef="0" IVar="-1" Cut="0.0000000000000000e+00" cType="1" res="4.8766811378300190e-03" rms="2.8067657351493835e-01" purity="9.1828656196594238e-01" nType="-99"/>
        </Node>
        <Node pos="r" depth="1" NCoef="0" IVar="-1" Cut="0.0000000000000000e+00" cType="1" res="-2.1776389330625534e-03" rms="4.7215884923934937e-01" purity="4.0909987688064575e-01" nType="-99"/>
      </Node>
    </BinaryTree>
    <BinaryTree type="DecisionTree" boostWeight="1.0000000000000000e+00" itree="813">
      <Node pos="s" depth="0" NCoef="0" IVar="2" Cut="1.2243707180023193e+00" cType="1" res="-7.9935258254408836e-03" rms="4.5628875494003296e-01" purity="4.8303547501564026e-01" nType="0">
        <Node pos="l" depth="1" NCoef="0" IVar="2" Cut="1.1422252655029297e+00" cType="1" res="-2.9891729354858398e-02" rms="4.6339765191078186e-01" purity="5.4400491714477539e-01" nType="0">
          <Node pos="l" depth="2" NCoef="0" IVar="-1" Cut="0.0000000000000000e+00" cType="1" res="-3.5221406142227352e-04" rms="4.6497836709022522e-01" purity="5.7062876224517822e-01" nType="-99"/>
          <Node pos="r" depth="2" NCoef="0" IVar="-1" Cut="0.0000000000000000e+00" cType="1" res="-3.9289509877562523e-03" rms="4.0718048810958862e-01" purity="2.3248223960399628e-01" nType="-99"/>
        </Node>
        <Node pos="r" depth="1" NCoef="0" IVar="1" Cut="4.7982025146484375e+01" cType="1" res="4.0416140109300613e-02" rms="4.3628272414207458e-01" purity="3.4825220704078674e-01" nType="0">
          <Node pos="l" depth="2" NCoef="0" IVar="-1" Cut="0.0000000000000000e+00" cType="1" res="-2.8298341203480959e-03" rms="3.0829644203186035e-01" purity="1.2954485416412354e-01" nType="-99"/>
          <Node pos="r" depth="2" NCoef="0" IVar="-1" Cut="0.0000000000000000e+00" cType="1" res="1.8506413325667381e-03" rms="4.5523807406425476e-01" purity="4.0139055252075195e-01" nType="-99"/>
        </Node>
      </Node>
    </BinaryTree>
    <BinaryTree type="DecisionTree" boostWeight="1.0000000000000000e+00" itree="814">
      <Node pos="s" depth="0" NCoef="0" IVar="3" Cut="2.7294616699218750e+00" cType="1" res="-2.9978889506310225e-03" rms="4.5456984639167786e-01" purity="4.9493128061294556e-01" nType="0">
        <Node pos="l" depth="1" NCoef="0" IVar="4" Cut="6.7840820312500000e+01" cType="1" res="6.1706076376140118e-03" rms="4.6313336491584778e-01" purity="5.2389091253280640e-01" nType="0">
          <Node pos="l" depth="2" NCoef="0" IVar="-1" Cut="0.0000000000000000e+00" cType="1" res="1.5260920627042651e-03" rms="4.5158338546752930e-01" purity="5.8044677972793579e-01" nType="-99"/>
          <Node pos="r" depth="2" NCoef="0" IVar="-1" Cut="0.0000000000000000e+00" cType="1" res="-7.4862403562292457e-04" rms="4.6639055013656616e-01" purity="4.8691987991333008e-01" nType="-99"/>
        </Node>
        <Node pos="r" depth="1" NCoef="0" IVar="-1" Cut="0.0000000000000000e+00" cType="1" res="-3.5181152634322643e-03" rms="2.8092047572135925e-01" purity="8.9378215372562408e-02" nType="-99"/>
      </Node>
    </BinaryTree>
    <BinaryTree type="DecisionTree" boostWeight="1.0000000000000000e+00" itree="815">
      <Node pos="s" depth="0" NCoef="0" IVar="2" Cut="6.8848192691802979e-01" cType="1" res="-3.7330777850002050e-03" rms="4.5058214664459229e-01" purity="4.9669817090034485e-01" nType="0">
        <Node pos="l" depth="1" NCoef="0" IVar="5" Cut="4.8690670728683472e-01" cType="1" res="-6.2235094606876373e-02" rms="4.5942482352256775e-01" purity="5.8798998594284058e-01" nType="0">
          <Node pos="l" depth="2" NCoef="0" IVar="-1" Cut="0.0000000000000000e+00" cType="1" res="-5.7310872944071889e-04" rms="4.4349402189254761e-01" purity="6.1095535755157471e-01" nType="-99"/>
          <Node pos="r" depth="2" NCoef="0" IVar="-1" Cut="0.0000000000000000e+00" cType="1" res="-3.0618275050073862e-03" rms="4.7587388753890991e-01" purity="5.5536049604415894e-01" nType="-99"/>
        </Node>
        <Node pos="r" depth="1" NCoef="0" IVar="1" Cut="1.3839390563964844e+02" cType="1" res="1.1178463697433472e-02" rms="4.4707775115966797e-01" purity="4.7342887520790100e-01" nType="0">
          <Node pos="l" depth="2" NCoef="0" IVar="-1" Cut="0.0000000000000000e+00" cType="1" res="4.6592432772740722e-04" rms="4.4534736871719360e-01" purity="4.8276758193969727e-01" nType="-99"/>
          <Node pos="r" depth="2" NCoef="0" IVar="-1" Cut="0.0000000000000000e+00" cType="1" res="-1.9168624421581626e-03" rms="4.5557469129562378e-01" purity="3.6846029758453369e-01" nType="-99"/>
        </Node>
      </Node>
    </BinaryTree>
    <BinaryTree type="DecisionTree" boostWeight="1.0000000000000000e+00" itree="816">
      <Node pos="s" depth="0" NCoef="0" IVar="0" Cut="9.0329036712646484e+00" cType="1" res="1.0120449587702751e-03" rms="4.5229828357696533e-01" purity="5.0246047973632812e-01" nType="0">
        <Node pos="l" depth="1" NCoef="0" IVar="5" Cut="2.2373183071613312e-01" cType="1" res="1.0797517374157906e-02" rms="4.4942265748977661e-01" purity="4.8645326495170593e-01" nType="0">
          <Node pos="l" depth="2" NCoef="0" IVar="-1" Cut="0.0000000000000000e+00" cType="1" res="-9.9616602528840303e-04" rms="4.2882165312767029e-01" purity="3.1965175271034241e-01" nType="-99"/>
          <Node pos="r" depth="2" NCoef="0" IVar="-1" Cut="0.0000000000000000e+00" cType="1" res="5.5729341693222523e-04" rms="4.5376127958297729e-01" purity="5.3065991401672363e-01" nType="-99"/>
        </Node>
        <Node pos="r" depth="1" NCoef="0" IVar="-1" Cut="0.0000000000000000e+00" cType="1" res="-2.8615666087716818e-03" rms="4.6881145238876343e-01" purity="6.5764909982681274e-01" nType="-99"/>
      </Node>
    </BinaryTree>
    <BinaryTree type="DecisionTree" boostWeight="1.0000000000000000e+00" itree="817">
      <Node pos="s" depth="0" NCoef="0" IVar="2" Cut="5.1904958486557007e-01" cType="1" res="-1.8070676596835256e-03" rms="4.5062264800071716e-01" purity="4.9574583768844604e-01" nType="0">
        <Node pos="l" depth="1" NCoef="0" IVar="-1" Cut="0.0000000000000000e+00" cType="1" res="-2.4449790362268686e-03" rms="4.4236975908279419e-01" purity="5.3799527883529663e-01" nType="-99"/>
        <Node pos="r" depth="1" NCoef="0" IVar="6" Cut="4.2338043212890625e+02" cType="1" res="7.5025083497166634e-03" rms="4.5019182562828064e-01" purity="4.9194732308387756e-01" nType="0">
          <Node pos="l" depth="2" NCoef="0" IVar="-1" Cut="0.0000000000000000e+00" cType="1" res="-3.3905112650245428e-04" rms="4.5125815272331238e-01" purity="4.3200731277465820e-01" nType="-99"/>
          <Node pos="r" depth="2" NCoef="0" IVar="-1" Cut="0.0000000000000000e+00" cType="1" res="9.7731384448707104e-04" rms="4.4657793641090393e-01" purity="5.7980269193649292e-01" nType="-99"/>
        </Node>
      </Node>
    </BinaryTree>
    <BinaryTree type="DecisionTree" boostWeight="1.0000000000000000e+00" itree="818">
      <Node pos="s" depth="0" NCoef="0" IVar="5" Cut="5.0724744796752930e-01" cType="1" res="2.0955115556716919e-02" rms="4.5507812500000000e-01" purity="5.2222329378128052e-01" nType="0">
        <Node pos="l" depth="1" NCoef="0" IVar="1" Cut="8.7148925781250000e+01" cType="1" res="-7.2829495184123516e-03" rms="4.5130646228790283e-01" purity="4.6312442421913147e-01" nType="0">
          <Node pos="l" depth="2" NCoef="0" IVar="-1" Cut="0.0000000000000000e+00" cType="1" res="-1.1284186039119959e-03" rms="4.4110995531082153e-01" purity="3.8040667772293091e-01" nType="-99"/>
          <Node pos="r" depth="2" NCoef="0" IVar="-1" Cut="0.0000000000000000e+00" cType="1" res="1.1060812976211309e-03" rms="4.5867002010345459e-01" purity="5.6920003890991211e-01" nType="-99"/>
        </Node>
        <Node pos="r" depth="1" NCoef="0" IVar="2" Cut="1.1588599681854248e+00" cType="1" res="8.1785075366497040e-02" rms="4.5721152424812317e-01" purity="6.4953297376632690e-01" nType="0">
          <Node pos="l" depth="2" NCoef="0" IVar="-1" Cut="0.0000000000000000e+00" cType="1" res="1.3050269335508347e-03" rms="4.4170477986335754e-01" purity="6.5833199024200439e-01" nType="-99"/>
          <Node pos="r" depth="2" NCoef="0" IVar="-1" Cut="0.0000000000000000e+00" cType="1" res="4.0817083790898323e-03" rms="4.9744918942451477e-01" purity="6.1806291341781616e-01" nType="-99"/>
        </Node>
      </Node>
    </BinaryTree>
    <BinaryTree type="DecisionTree" boostWeight="1.0000000000000000e+00" itree="819">
      <Node pos="s" depth="0" NCoef="0" IVar="1" Cut="8.6850708007812500e+01" cType="1" res="-2.1922346204519272e-02" rms="4.4381937384605408e-01" purity="4.7964811325073242e-01" nType="0">
        <Node pos="l" depth="1" NCoef="0" IVar="6" Cut="2.6831961059570312e+02" cType="1" res="-4.8441935330629349e-02" rms="4.4264486432075500e-01" purity="4.2451643943786621e-01" nType="0">
          <Node pos="l" depth="2" NCoef="0" IVar="-1" Cut="0.0000000000000000e+00" cType="1" res="-3.5660446155816317e-03" rms="3.7770313024520874e-01" purity="2.1887366473674774e-01" nType="-99"/>
          <Node pos="r" depth="2" NCoef="0" IVar="-1" Cut="0.0000000000000000e+00" cType="1" res="-8.0493319546803832e-04" rms="4.4835191965103149e-01" purity="4.4973486661911011e-01" nType="-99"/>
        </Node>
        <Node pos="r" depth="1" NCoef="0" IVar="1" Cut="1.3828302001953125e+02" cType="1" res="2.0516049116849899e-02" rms="4.4239723682403564e-01" purity="5.6787347793579102e-01" nType="0">
          <Node pos="l" depth="2" NCoef="0" IVar="-1" Cut="0.0000000000000000e+00" cType="1" res="1.3761009322479367e-03" rms="4.4189044833183289e-01" purity="6.2597328424453735e-01" nType="-99"/>
          <Node pos="r" depth="2" NCoef="0" IVar="-1" Cut="0.0000000000000000e+00" cType="1" res="-2.8088386170566082e-03" rms="4.1917365789413452e-01" purity="3.3965530991554260e-01" nType="-99"/>
        </Node>
      </Node>
    </BinaryTree>
    <BinaryTree type="DecisionTree" boostWeight="1.0000000000000000e+00" itree="820">
      <Node pos="s" depth="0" NCoef="0" IVar="6" Cut="4.6643621826171875e+02" cType="1" res="1.8987902440130711e-03" rms="4.4779044389724731e-01" purity="5.0686258077621460e-01" nType="0">
        <Node pos="l" depth="1" NCoef="0" IVar="2" Cut="1.3328288793563843e+00" cType="1" res="2.5174781680107117e-02" rms="4.4130432605743408e-01" purity="5.0288134813308716e-01" nType="0">
          <Node pos="l" depth="2" NCoef="0" IVar="-1" Cut="0.0000000000000000e+00" cType="1" res="1.1537934187799692e-03" rms="4.5526665449142456e-01" purity="5.9029817581176758e-01" nType="-99"/>
          <Node pos="r" depth="2" NCoef="0" IVar="-1" Cut="0.0000000000000000e+00" cType="1" res="-1.5809575561434031e-03" rms="3.7868952751159668e-01" purity="2.0723676681518555e-01" nType="-99"/>
        </Node>
        <Node pos="r" depth="1" NCoef="0" IVar="1" Cut="1.0273471069335938e+02" cType="1" res="-5.0046548247337341e-02" rms="4.5768839120864868e-01" purity="5.1574754714965820e-01" nType="0">
          <Node pos="l" depth="2" NCoef="0" IVar="-1" Cut="0.0000000000000000e+00" cType="1" res="-2.7817240916192532e-03" rms="4.6413442492485046e-01" purity="4.0998768806457520e-01" nType="-99"/>
          <Node pos="r" depth="2" NCoef="0" IVar="-1" Cut="0.0000000000000000e+00" cType="1" res="5.2240083459764719e-04" rms="4.3996909260749817e-01" purity="6.1634117364883423e-01" nType="-99"/>
        </Node>
      </Node>
    </BinaryTree>
    <BinaryTree type="DecisionTree" boostWeight="1.0000000000000000e+00" itree="821">
      <Node pos="s" depth="0" NCoef="0" IVar="1" Cut="1.3526014709472656e+02" cType="1" res="-1.3123605400323868e-02" rms="4.4843330979347229e-01" purity="4.8941242694854736e-01" nType="0">
        <Node pos="l" depth="1" NCoef="0" IVar="1" Cut="1.1750452423095703e+02" cType="1" res="3.1624538823962212e-03" rms="4.4824278354644775e-01" purity="5.0245422124862671e-01" nType="0">
          <Node pos="l" depth="2" NCoef="0" IVar="-1" Cut="0.0000000000000000e+00" cType="1" res="-1.7839342763181776e-04" rms="4.5328298211097717e-01" purity="4.8017829656600952e-01" nType="-99"/>
          <Node pos="r" depth="2" NCoef="0" IVar="-1" Cut="0.0000000000000000e+00" cType="1" res="2.3597080726176500e-03" rms="3.9369153976440430e-01" purity="6.8479567766189575e-01" nType="-99"/>
        </Node>
        <Node pos="r" depth="1" NCoef="0" IVar="5" Cut="3.9061403274536133e-01" cType="1" res="-1.4689612388610840e-01" rms="4.2710891366004944e-01" purity="3.8228788971900940e-01" nType="0">
          <Node pos="l" depth="2" NCoef="0" IVar="-1" Cut="0.0000000000000000e+00" cType="1" res="-2.1629200782626867e-03" rms="4.2345637083053589e-01" purity="3.9195623993873596e-01" nType="-99"/>
          <Node pos="r" depth="2" NCoef="0" IVar="-1" Cut="0.0000000000000000e+00" cType="1" res="-4.6160030178725719e-03" rms="4.2444783449172974e-01" purity="3.7089627981185913e-01" nType="-99"/>
        </Node>
      </Node>
    </BinaryTree>
    <BinaryTree type="DecisionTree" boostWeight="1.0000000000000000e+00" itree="822">
      <Node pos="s" depth="0" NCoef="0" IVar="0" Cut="7.6839075088500977e+00" cType="1" res="1.3276540674269199e-02" rms="4.5498386025428772e-01" purity="5.1182961463928223e-01" nType="0">
        <Node pos="l" depth="1" NCoef="0" IVar="0" Cut="5.4076952934265137e+00" cType="1" res="3.6195438355207443e-02" rms="4.5331799983978271e-01" purity="4.5694503188133240e-01" nType="0">
          <Node pos="l" depth="2" NCoef="0" IVar="-1" Cut="0.0000000000000000e+00" cType="1" res="-1.0629981989040971e-03" rms="4.0078008174896240e-01" purity="2.0821487903594971e-01" nType="-99"/>
          <Node pos="r" depth="2" NCoef="0" IVar="-1" Cut="0.0000000000000000e+00" cType="1" res="1.2859971029683948e-03" rms="4.6373575925827026e-01" purity="5.2123379707336426e-01" nType="-99"/>
        </Node>
        <Node pos="r" depth="1" NCoef="0" IVar="1" Cut="1.2024787902832031e+02" cType="1" res="-3.9837274700403214e-02" rms="4.5439904928207397e-01" purity="6.3902294635772705e-01" nType="0">
          <Node pos="l" depth="2" NCoef="0" IVar="-1" Cut="0.0000000000000000e+00" cType="1" res="-1.7476036446169019e-03" rms="4.6577966213226318e-01" purity="6.0473716259002686e-01" nType="-99"/>
          <Node pos="r" depth="2" NCoef="0" IVar="-1" Cut="0.0000000000000000e+00" cType="1" res="2.1266934927552938e-03" rms="3.8436657190322876e-01" purity="7.7908211946487427e-01" nType="-99"/>
        </Node>
      </Node>
    </BinaryTree>
    <BinaryTree type="DecisionTree" boostWeight="1.0000000000000000e+00" itree="823">
      <Node pos="s" depth="0" NCoef="0" IVar="5" Cut="6.2953221797943115e-01" cType="1" res="-1.4524661935865879e-02" rms="4.4976946711540222e-01" purity="4.8618653416633606e-01" nType="0">
        <Node pos="l" depth="1" NCoef="0" IVar="3" Cut="1.9022620916366577e+00" cType="1" res="-3.0199050903320312e-02" rms="4.4589182734489441e-01" purity="4.5622664690017700e-01" nType="0">
          <Node pos="l" depth="2" NCoef="0" IVar="-1" Cut="0.0000000000000000e+00" cType="1" res="-2.5629696901887655e-03" rms="4.2898908257484436e-01" purity="4.0464445948600769e-01" nType="-99"/>
          <Node pos="r" depth="2" NCoef="0" IVar="-1" Cut="0.0000000000000000e+00" cType="1" res="-3.2480352092534304e-04" rms="4.4691553711891174e-01" purity="4.6575924754142761e-01" nType="-99"/>
        </Node>
        <Node pos="r" depth="1" NCoef="0" IVar="5" Cut="7.3421972990036011e-01" cType="1" res="7.6733134686946869e-02" rms="4.6125322580337524e-01" purity="6.6061574220657349e-01" nType="0">
          <Node pos="l" depth="2" NCoef="0" IVar="-1" Cut="0.0000000000000000e+00" cType="1" res="2.2306773462332785e-04" rms="4.7221869230270386e-01" purity="5.9340822696685791e-01" nType="-99"/>
          <Node pos="r" depth="2" NCoef="0" IVar="-1" Cut="0.0000000000000000e+00" cType="1" res="4.5723412185907364e-03" rms="4.1483965516090393e-01" purity="7.8021007776260376e-01" nType="-99"/>
        </Node>
      </Node>
    </BinaryTree>
    <BinaryTree type="DecisionTree" boostWeight="1.0000000000000000e+00" itree="824">
      <Node pos="s" depth="0" NCoef="0" IVar="1" Cut="1.3289440917968750e+02" cType="1" res="-1.5255941078066826e-02" rms="4.4470736384391785e-01" purity="4.9537685513496399e-01" nType="0">
        <Node pos="l" depth="1" NCoef="0" IVar="0" Cut="6.1308712959289551e+00" cType="1" res="-4.5755710452795029e-03" rms="4.3885713815689087e-01" purity="5.0396090745925903e-01" nType="0">
          <Node pos="l" depth="2" NCoef="0" IVar="-1" Cut="0.0000000000000000e+00" cType="1" res="-1.4243044424802065e-03" rms="4.1242453455924988e-01" purity="2.5450700521469116e-01" nType="-99"/>
          <Node pos="r" depth="2" NCoef="0" IVar="-1" Cut="0.0000000000000000e+00" cType="1" res="4.9993279390037060e-04" rms="4.4761300086975098e-01" purity="6.1343008279800415e-01" nType="-99"/>
        </Node>
        <Node pos="r" depth="1" NCoef="0" IVar="2" Cut="1.0817136764526367e+00" cType="1" res="-1.0114242881536484e-01" rms="4.8066398501396179e-01" purity="4.2634811997413635e-01" nType="0">
          <Node pos="l" depth="2" NCoef="0" IVar="-1" Cut="0.0000000000000000e+00" cType="1" res="-4.0977718308568001e-03" rms="5.0917059183120728e-01" purity="5.3094393014907837e-01" nType="-99"/>
          <Node pos="r" depth="2" NCoef="0" IVar="-1" Cut="0.0000000000000000e+00" cType="1" res="-9.9971005693078041e-04" rms="4.4323146343231201e-01" purity="3.2411697506904602e-01" nType="-99"/>
        </Node>
      </Node>
    </BinaryTree>
    <BinaryTree type="DecisionTree" boostWeight="1.0000000000000000e+00" itree="825">
      <Node pos="s" depth="0" NCoef="0" IVar="0" Cut="7.0404472351074219e+00" cType="1" res="-2.1882122382521629e-02" rms="4.3546593189239502e-01" purity="4.8525017499923706e-01" nType="0">
        <Node pos="l" depth="1" NCoef="0" IVar="2" Cut="8.0682420730590820e-01" cType="1" res="-4.6284157782793045e-02" rms="4.4192466139793396e-01" purity="3.5335591435432434e-01" nType="0">
          <Node pos="l" depth="2" NCoef="0" IVar="-1" Cut="0.0000000000000000e+00" cType="1" res="-6.2252031057141721e-05" rms="4.6496012806892395e-01" purity="5.3439843654632568e-01" nType="-99"/>
          <Node pos="r" depth="2" NCoef="0" IVar="-1" Cut="0.0000000000000000e+00" cType="1" res="-1.5418049879372120e-03" rms="4.2883899807929993e-01" purity="2.6618492603302002e-01" nType="-99"/>
        </Node>
        <Node pos="r" depth="1" NCoef="0" IVar="1" Cut="1.0581745147705078e+02" cType="1" res="1.2681786902248859e-02" rms="4.2375203967094421e-01" purity="6.7206978797912598e-01" nType="0">
          <Node pos="l" depth="2" NCoef="0" IVar="-1" Cut="0.0000000000000000e+00" cType="1" res="-6.0499046230688691e-04" rms="4.5032626390457153e-01" purity="6.0489380359649658e-01" nType="-99"/>
          <Node pos="r" depth="2" NCoef="0" IVar="-1" Cut="0.0000000000000000e+00" cType="1" res="2.7257967740297318e-03" rms="3.4574708342552185e-01" purity="8.1797164678573608e-01" nType="-99"/>
        </Node>
      </Node>
    </BinaryTree>
    <BinaryTree type="DecisionTree" boostWeight="1.0000000000000000e+00" itree="826">
      <Node pos="s" depth="0" NCoef="0" IVar="3" Cut="2.5540187358856201e+00" cType="1" res="-1.1744802817702293e-02" rms="4.4773316383361816e-01" purity="5.0441694259643555e-01" nType="0">
        <Node pos="l" depth="1" NCoef="0" IVar="2" Cut="1.0677946805953979e+00" cType="1" res="-2.4909486994147301e-02" rms="4.4819900393486023e-01" purity="5.2356356382369995e-01" nType="0">
          <Node pos="l" depth="2" NCoef="0" IVar="-1" Cut="0.0000000000000000e+00" cType="1" res="1.2171270645922050e-04" rms="4.5795559883117676e-01" purity="6.1287468671798706e-01" nType="-99"/>
          <Node pos="r" depth="2" NCoef="0" IVar="-1" Cut="0.0000000000000000e+00" cType="1" res="-1.9675411749631166e-03" rms="4.2065912485122681e-01" purity="3.3959889411926270e-01" nType="-99"/>
        </Node>
        <Node pos="r" depth="1" NCoef="0" IVar="3" Cut="2.7121264934539795e+00" cType="1" res="1.0319149494171143e-01" rms="4.2672926187515259e-01" purity="3.3725506067276001e-01" nType="0">
          <Node pos="l" depth="2" NCoef="0" IVar="-1" Cut="0.0000000000000000e+00" cType="1" res="6.4526777714490891e-03" rms="4.4649824500083923e-01" purity="4.8007720708847046e-01" nType="-99"/>
          <Node pos="r" depth="2" NCoef="0" IVar="-1" Cut="0.0000000000000000e+00" cType="1" res="-5.8149133110418916e-04" rms="3.6783677339553833e-01" purity="1.9423389434814453e-01" nType="-99"/>
        </Node>
      </Node>
    </BinaryTree>
    <BinaryTree type="DecisionTree" boostWeight="1.0000000000000000e+00" itree="827">
      <Node pos="s" depth="0" NCoef="0" IVar="3" Cut="1.7841318845748901e+00" cType="1" res="-2.6988212019205093e-02" rms="4.4781205058097839e-01" purity="4.7905176877975464e-01" nType="0">
        <Node pos="l" depth="1" NCoef="0" IVar="-1" Cut="0.0000000000000000e+00" cType="1" res="2.0325726363807917e-03" rms="4.5334246754646301e-01" purity="6.2532252073287964e-01" nType="-99"/>
        <Node pos="r" depth="1" NCoef="0" IVar="0" Cut="4.9838886260986328e+00" cType="1" res="-3.6192536354064941e-02" rms="4.4607156515121460e-01" purity="4.6757966279983521e-01" nType="0">
          <Node pos="l" depth="2" NCoef="0" IVar="-1" Cut="0.0000000000000000e+00" cType="1" res="-3.2542133703827858e-03" rms="3.1179809570312500e-01" purity="9.7666271030902863e-02" nType="-99"/>
          <Node pos="r" depth="2" NCoef="0" IVar="-1" Cut="0.0000000000000000e+00" cType="1" res="-6.7061302252113819e-04" rms="4.5456057786941528e-01" purity="4.9810352921485901e-01" nType="-99"/>
        </Node>
      </Node>
    </BinaryTree>
    <BinaryTree type="DecisionTree" boostWeight="1.0000000000000000e+00" itree="828">
      <Node pos="s" depth="0" NCoef="0" IVar="5" Cut="5.7480257749557495e-01" cType="1" res="4.6462705358862877e-03" rms="4.4714608788490295e-01" purity="5.0660574436187744e-01" nType="0">
        <Node pos="l" depth="1" NCoef="0" IVar="2" Cut="1.1154426336288452e+00" cType="1" res="2.2453818470239639e-02" rms="4.4339016079902649e-01" purity="5.0229644775390625e-01" nType="0">
          <Node pos="l" depth="2" NCoef="0" IVar="-1" Cut="0.0000000000000000e+00" cType="1" res="1.1904155835509300e-03" rms="4.5175898075103760e-01" purity="6.3629221916198730e-01" nType="-99"/>
          <Node pos="r" depth="2" NCoef="0" IVar="-1" Cut="0.0000000000000000e+00" cType="1" res="-4.7572198673151433e-04" rms="4.2761701345443726e-01" purity="3.0981412529945374e-01" nType="-99"/>
        </Node>
        <Node pos="r" depth="1" NCoef="0" IVar="4" Cut="4.7799339294433594e+01" cType="1" res="-6.5968468785285950e-02" rms="4.5492783188819885e-01" purity="5.2369385957717896e-01" nType="0">
          <Node pos="l" depth="2" NCoef="0" IVar="-1" Cut="0.0000000000000000e+00" cType="1" res="4.0092572453431785e-04" rms="4.1857248544692993e-01" purity="6.4502221345901489e-01" nType="-99"/>
          <Node pos="r" depth="2" NCoef="0" IVar="-1" Cut="0.0000000000000000e+00" cType="1" res="-2.3738746531307697e-03" rms="4.6629643440246582e-01" purity="4.6521347761154175e-01" nType="-99"/>
        </Node>
      </Node>
    </BinaryTree>
    <BinaryTree type="DecisionTree" boostWeight="1.0000000000000000e+00" itree="829">
      <Node pos="s" depth="0" NCoef="0" IVar="5" Cut="5.4683548212051392e-01" cType="1" res="8.5391728207468987e-03" rms="4.4254431128501892e-01" purity="4.9859023094177246e-01" nType="0">
        <Node pos="l" depth="1" NCoef="0" IVar="0" Cut="5.4295740127563477e+00" cType="1" res="2.5927862152457237e-02" rms="4.3619686365127563e-01" purity="4.9328127503395081e-01" nType="0">
          <Node pos="l" depth="2" NCoef="0" IVar="-1" Cut="0.0000000000000000e+00" cType="1" res="-1.2466048356145620e-03" rms="3.8899579644203186e-01" purity="2.0944334566593170e-01" nType="-99"/>
          <Node pos="r" depth="2" NCoef="0" IVar="-1" Cut="0.0000000000000000e+00" cType="1" res="9.5255754422396421e-04" rms="4.4299608469009399e-01" purity="5.4603642225265503e-01" nType="-99"/>
        </Node>
        <Node pos="r" depth="1" NCoef="0" IVar="5" Cut="5.9941834211349487e-01" cType="1" res="-4.6531777828931808e-02" rms="4.5773372054100037e-01" purity="5.1540380716323853e-01" nType="0">
          <Node pos="l" depth="2" NCoef="0" IVar="-1" Cut="0.0000000000000000e+00" cType="1" res="-3.2520315144211054e-03" rms="4.3900606036186218e-01" purity="4.0596872568130493e-01" nType="-99"/>
          <Node pos="r" depth="2" NCoef="0" IVar="-1" Cut="0.0000000000000000e+00" cType="1" res="-2.8753551305271685e-04" rms="4.5977517962455750e-01" purity="5.5551731586456299e-01" nType="-99"/>
        </Node>
      </Node>
    </BinaryTree>
    <BinaryTree type="DecisionTree" boostWeight="1.0000000000000000e+00" itree="830">
      <Node pos="s" depth="0" NCoef="0" IVar="0" Cut="8.9578504562377930e+00" cType="1" res="1.8847200553864241e-03" rms="4.4180637598037720e-01" purity="5.0444549322128296e-01" nType="0">
        <Node pos="l" depth="1" NCoef="0" IVar="0" Cut="6.1416749954223633e+00" cType="1" res="1.3513824902474880e-02" rms="4.3797606229782104e-01" purity="4.8981326818466187e-01" nType="0">
          <Node pos="l" depth="2" NCoef="0" IVar="-1" Cut="0.0000000000000000e+00" cType="1" res="-1.0243236320093274e-03" rms="4.1696563363075256e-01" purity="2.7470135688781738e-01" nType="-99"/>
          <Node pos="r" depth="2" NCoef="0" IVar="-1" Cut="0.0000000000000000e+00" cType="1" res="1.1142606381326914e-03" rms="4.4602334499359131e-01" purity="6.1062008142471313e-01" nType="-99"/>
        </Node>
        <Node pos="r" depth="1" NCoef="0" IVar="-1" Cut="0.0000000000000000e+00" cType="1" res="-2.9429688584059477e-03" rms="4.6195718646049500e-01" purity="6.3713914155960083e-01" nType="-99"/>
      </Node>
    </BinaryTree>
    <BinaryTree type="DecisionTree" boostWeight="1.0000000000000000e+00" itree="831">
      <Node pos="s" depth="0" NCoef="0" IVar="2" Cut="6.9176435470581055e-01" cType="1" res="6.1706616543233395e-04" rms="4.5667481422424316e-01" purity="5.0268894433975220e-01" nType="0">
        <Node pos="l" depth="1" NCoef="0" IVar="1" Cut="6.1745288848876953e+01" cType="1" res="-7.0901133120059967e-02" rms="4.7079378366470337e-01" purity="5.6595891714096069e-01" nType="0">
          <Node pos="l" depth="2" NCoef="0" IVar="-1" Cut="0.0000000000000000e+00" cType="1" res="6.4950567320920527e-05" rms="4.5072838664054871e-01" purity="5.5014187097549438e-01" nType="-99"/>
          <Node pos="r" depth="2" NCoef="0" IVar="-1" Cut="0.0000000000000000e+00" cType="1" res="-3.3661983907222748e-03" rms="4.7818163037300110e-01" purity="5.7887303829193115e-01" nType="-99"/>
        </Node>
        <Node pos="r" depth="1" NCoef="0" IVar="3" Cut="1.9723155498504639e+00" cType="1" res="1.9194191321730614e-02" rms="4.5108392834663391e-01" purity="4.8625433444976807e-01" nType="0">
          <Node pos="l" depth="2" NCoef="0" IVar="-1" Cut="0.0000000000000000e+00" cType="1" res="1.8461439758539200e-03" rms="4.6104857325553894e-01" purity="6.1079800128936768e-01" nType="-99"/>
          <Node pos="r" depth="2" NCoef="0" IVar="-1" Cut="0.0000000000000000e+00" cType="1" res="1.4187674969434738e-04" rms="4.4784700870513916e-01" purity="4.6038702130317688e-01" nType="-99"/>
        </Node>
      </Node>
    </BinaryTree>
    <BinaryTree type="DecisionTree" boostWeight="1.0000000000000000e+00" itree="832">
      <Node pos="s" depth="0" NCoef="0" IVar="1" Cut="1.5021455383300781e+02" cType="1" res="-8.3966674283146858e-03" rms="4.4969880580902100e-01" purity="4.8235371708869934e-01" nType="0">
        <Node pos="l" depth="1" NCoef="0" IVar="0" Cut="6.8802371025085449e+00" cType="1" res="3.2589701004326344e-03" rms="4.4977617263793945e-01" purity="4.9556186795234680e-01" nType="0">
          <Node pos="l" depth="2" NCoef="0" IVar="-1" Cut="0.0000000000000000e+00" cType="1" res="9.6486730035394430e-04" rms="4.5152080059051514e-01" purity="4.1351753473281860e-01" nType="-99"/>
          <Node pos="r" depth="2" NCoef="0" IVar="-1" Cut="0.0000000000000000e+00" cType="1" res="-1.0807262733578682e-03" rms="4.4322052597999573e-01" purity="5.9234017133712769e-01" nType="-99"/>
        </Node>
        <Node pos="r" depth="1" NCoef="0" IVar="-1" Cut="0.0000000000000000e+00" cType="1" res="-4.8170257359743118e-03" rms="4.0334784984588623e-01" purity="2.6678737998008728e-01" nType="-99"/>
      </Node>
    </BinaryTree>
    <BinaryTree type="DecisionTree" boostWeight="1.0000000000000000e+00" itree="833">
      <Node pos="s" depth="0" NCoef="0" IVar="5" Cut="6.9660878181457520e-01" cType="1" res="5.4139601998031139e-03" rms="4.5168155431747437e-01" purity="5.1050019264221191e-01" nType="0">
        <Node pos="l" depth="1" NCoef="0" IVar="4" Cut="3.2231591796875000e+02" cType="1" res="1.4394207857549191e-02" rms="4.4954776763916016e-01" purity="5.1114290952682495e-01" nType="0">
          <Node pos="l" depth="2" NCoef="0" IVar="-1" Cut="0.0000000000000000e+00" cType="1" res="4.9151194980368018e-04" rms="4.5139399170875549e-01" purity="5.2235108613967896e-01" nType="-99"/>
          <Node pos="r" depth="2" NCoef="0" IVar="-1" Cut="0.0000000000000000e+00" cType="1" res="-1.4496671501547098e-03" rms="4.2015391588211060e-01" purity="3.8130861520767212e-01" nType="-99"/>
        </Node>
        <Node pos="r" depth="1" NCoef="0" IVar="-1" Cut="0.0000000000000000e+00" cType="1" res="-2.2949855774641037e-03" rms="4.6310129761695862e-01" purity="5.0253480672836304e-01" nType="-99"/>
      </Node>
    </BinaryTree>
    <BinaryTree type="DecisionTree" boostWeight="1.0000000000000000e+00" itree="834">
      <Node pos="s" depth="0" NCoef="0" IVar="3" Cut="2.1938807964324951e+00" cType="1" res="-3.1043354421854019e-02" rms="4.4490537047386169e-01" purity="4.6401476860046387e-01" nType="0">
        <Node pos="l" depth="1" NCoef="0" IVar="5" Cut="4.2387449741363525e-01" cType="1" res="-3.0341134406626225e-03" rms="4.5424959063529968e-01" purity="5.5931639671325684e-01" nType="0">
          <Node pos="l" depth="2" NCoef="0" IVar="-1" Cut="0.0000000000000000e+00" cType="1" res="9.5733138732612133e-04" rms="4.4606488943099976e-01" purity="5.9211587905883789e-01" nType="-99"/>
          <Node pos="r" depth="2" NCoef="0" IVar="-1" Cut="0.0000000000000000e+00" cType="1" res="-1.1337427422404289e-03" rms="4.5789185166358948e-01" purity="5.2541518211364746e-01" nType="-99"/>
        </Node>
        <Node pos="r" depth="1" NCoef="0" IVar="2" Cut="1.2014586925506592e+00" cType="1" res="-6.6019013524055481e-02" rms="4.3040242791175842e-01" purity="3.4500983357429504e-01" nType="0">
          <Node pos="l" depth="2" NCoef="0" IVar="-1" Cut="0.0000000000000000e+00" cType="1" res="-2.5155248586088419e-03" rms="4.5114430785179138e-01" purity="4.1410782933235168e-01" nType="-99"/>
          <Node pos="r" depth="2" NCoef="0" IVar="-1" Cut="0.0000000000000000e+00" cType="1" res="-4.5286299427971244e-04" rms="4.0217015147209167e-01" purity="2.7383226156234741e-01" nType="-99"/>
        </Node>
      </Node>
    </BinaryTree>
    <BinaryTree type="DecisionTree" boostWeight="1.0000000000000000e+00" itree="835">
      <Node pos="s" depth="0" NCoef="0" IVar="0" Cut="5.0268063545227051e+00" cType="1" res="-2.5472596287727356e-02" rms="4.4603133201599121e-01" purity="4.7473165392875671e-01" nType="0">
        <Node pos="l" depth="1" NCoef="0" IVar="-1" Cut="0.0000000000000000e+00" cType="1" res="-2.9957436490803957e-03" rms="3.4247112274169922e-01" purity="1.1789751052856445e-01" nType="-99"/>
        <Node pos="r" depth="1" NCoef="0" IVar="1" Cut="9.9253700256347656e+01" cType="1" res="-1.8188469111919403e-02" rms="4.5208927989006042e-01" purity="5.0179600715637207e-01" nType="0">
          <Node pos="l" depth="2" NCoef="0" IVar="-1" Cut="0.0000000000000000e+00" cType="1" res="-8.1836857134476304e-04" rms="4.5295315980911255e-01" purity="4.5782658457756042e-01" nType="-99"/>
          <Node pos="r" depth="2" NCoef="0" IVar="-1" Cut="0.0000000000000000e+00" cType="1" res="4.6488322550430894e-04" rms="4.4797325134277344e-01" purity="5.9539890289306641e-01" nType="-99"/>
        </Node>
      </Node>
    </BinaryTree>
    <BinaryTree type="DecisionTree" boostWeight="1.0000000000000000e+00" itree="836">
      <Node pos="s" depth="0" NCoef="0" IVar="1" Cut="9.6170707702636719e+01" cType="1" res="1.3124869205057621e-02" rms="4.4872632622718811e-01" purity="4.9939557909965515e-01" nType="0">
        <Node pos="l" depth="1" NCoef="0" IVar="5" Cut="3.5727930068969727e-01" cType="1" res="-5.9499260969460011e-03" rms="4.5132508873939514e-01" purity="4.5179119706153870e-01" nType="0">
          <Node pos="l" depth="2" NCoef="0" IVar="-1" Cut="0.0000000000000000e+00" cType="1" res="-1.3102795928716660e-03" rms="4.3228703737258911e-01" purity="3.3539310097694397e-01" nType="-99"/>
          <Node pos="r" depth="2" NCoef="0" IVar="-1" Cut="0.0000000000000000e+00" cType="1" res="6.7838898394256830e-04" rms="4.6154004335403442e-01" purity="5.3736621141433716e-01" nType="-99"/>
        </Node>
        <Node pos="r" depth="1" NCoef="0" IVar="5" Cut="3.4351265430450439e-01" cType="1" res="5.7406701147556305e-02" rms="4.3945401906967163e-01" purity="6.0990840196609497e-01" nType="0">
          <Node pos="l" depth="2" NCoef="0" IVar="-1" Cut="0.0000000000000000e+00" cType="1" res="2.6623054873198271e-03" rms="4.3984514474868774e-01" purity="5.5955076217651367e-01" nType="-99"/>
          <Node pos="r" depth="2" NCoef="0" IVar="-1" Cut="0.0000000000000000e+00" cType="1" res="3.5915253101848066e-04" rms="4.3456274271011353e-01" purity="6.5465062856674194e-01" nType="-99"/>
        </Node>
      </Node>
    </BinaryTree>
    <BinaryTree type="DecisionTree" boostWeight="1.0000000000000000e+00" itree="837">
      <Node pos="s" depth="0" NCoef="0" IVar="1" Cut="1.0656024169921875e+02" cType="1" res="1.6320465365424752e-03" rms="4.4602453708648682e-01" purity="4.9923300743103027e-01" nType="0">
        <Node pos="l" depth="1" NCoef="0" IVar="0" Cut="7.2752237319946289e+00" cType="1" res="-2.3054579272866249e-02" rms="4.4781824946403503e-01" purity="4.5781457424163818e-01" nType="0">
          <Node pos="l" depth="2" NCoef="0" IVar="-1" Cut="0.0000000000000000e+00" cType="1" res="-1.2094863923266530e-03" rms="4.4373908638954163e-01" purity="3.3327391743659973e-01" nType="-99"/>
          <Node pos="r" depth="2" NCoef="0" IVar="-1" Cut="0.0000000000000000e+00" cType="1" res="7.7076163142919540e-04" rms="4.4958987832069397e-01" purity="6.7065310478210449e-01" nType="-99"/>
        </Node>
        <Node pos="r" depth="1" NCoef="0" IVar="0" Cut="5.9158778190612793e+00" cType="1" res="7.0809148252010345e-02" rms="4.3353426456451416e-01" purity="6.1529612541198730e-01" nType="0">
          <Node pos="l" depth="2" NCoef="0" IVar="-1" Cut="0.0000000000000000e+00" cType="1" res="4.7966022975742817e-03" rms="4.3984660506248474e-01" purity="5.8777588605880737e-01" nType="-99"/>
          <Node pos="r" depth="2" NCoef="0" IVar="-1" Cut="0.0000000000000000e+00" cType="1" res="6.8165874108672142e-04" rms="4.2215916514396667e-01" purity="6.2361234426498413e-01" nType="-99"/>
        </Node>
      </Node>
    </BinaryTree>
    <BinaryTree type="DecisionTree" boostWeight="1.0000000000000000e+00" itree="838">
      <Node pos="s" depth="0" NCoef="0" IVar="6" Cut="5.3513818359375000e+02" cType="1" res="2.1206790581345558e-02" rms="4.6056386828422546e-01" purity="5.2413004636764526e-01" nType="0">
        <Node pos="l" depth="1" NCoef="0" IVar="4" Cut="9.7704353332519531e+01" cType="1" res="8.0027832882478833e-04" rms="4.6672922372817993e-01" purity="4.8532319068908691e-01" nType="0">
          <Node pos="l" depth="2" NCoef="0" IVar="-1" Cut="0.0000000000000000e+00" cType="1" res="-7.7612686436623335e-04" rms="4.6744841337203979e-01" purity="4.5510107278823853e-01" nType="-99"/>
          <Node pos="r" depth="2" NCoef="0" IVar="-1" Cut="0.0000000000000000e+00" cType="1" res="8.8821194367483258e-04" rms="4.6323072910308838e-01" purity="5.1741236448287964e-01" nType="-99"/>
        </Node>
        <Node pos="r" depth="1" NCoef="0" IVar="2" Cut="1.1478807926177979e+00" cType="1" res="9.8019406199455261e-02" rms="4.2793878912925720e-01" purity="6.7020386457443237e-01" nType="0">
          <Node pos="l" depth="2" NCoef="0" IVar="-1" Cut="0.0000000000000000e+00" cType="1" res="1.3876837911084294e-03" rms="4.1071888804435730e-01" purity="6.9350463151931763e-01" nType="-99"/>
          <Node pos="r" depth="2" NCoef="0" IVar="-1" Cut="0.0000000000000000e+00" cType="1" res="4.4953208416700363e-03" rms="4.5059907436370850e-01" purity="6.1824250221252441e-01" nType="-99"/>
        </Node>
      </Node>
    </BinaryTree>
    <BinaryTree type="DecisionTree" boostWeight="1.0000000000000000e+00" itree="839">
      <Node pos="s" depth="0" NCoef="0" IVar="5" Cut="4.8435798287391663e-01" cType="1" res="-2.7326431591063738e-03" rms="4.5174205303192139e-01" purity="4.8526710271835327e-01" nType="0">
        <Node pos="l" depth="1" NCoef="0" IVar="0" Cut="7.7968750000000000e+00" cType="1" res="1.9232688471674919e-02" rms="4.4695687294006348e-01" purity="4.7119316458702087e-01" nType="0">
          <Node pos="l" depth="2" NCoef="0" IVar="-1" Cut="0.0000000000000000e+00" cType="1" res="9.8917575087398291e-04" rms="4.3821001052856445e-01" purity="4.2485836148262024e-01" nType="-99"/>
          <Node pos="r" depth="2" NCoef="0" IVar="-1" Cut="0.0000000000000000e+00" cType="1" res="-1.1251587420701981e-03" rms="4.6591505408287048e-01" purity="6.0656559467315674e-01" nType="-99"/>
        </Node>
        <Node pos="r" depth="1" NCoef="0" IVar="5" Cut="5.7608711719512939e-01" cType="1" res="-4.9946300685405731e-02" rms="4.5831024646759033e-01" purity="5.1551854610443115e-01" nType="0">
          <Node pos="l" depth="2" NCoef="0" IVar="-1" Cut="0.0000000000000000e+00" cType="1" res="-2.6498781517148018e-03" rms="4.7814553976058960e-01" purity="4.2886003851890564e-01" nType="-99"/>
          <Node pos="r" depth="2" NCoef="0" IVar="-1" Cut="0.0000000000000000e+00" cType="1" res="-2.7824201970361173e-04" rms="4.4189670681953430e-01" purity="5.6655550003051758e-01" nType="-99"/>
        </Node>
      </Node>
    </BinaryTree>
    <BinaryTree type="DecisionTree" boostWeight="1.0000000000000000e+00" itree="840">
      <Node pos="s" depth="0" NCoef="0" IVar="0" Cut="4.9072580337524414e+00" cType="1" res="1.6802826896309853e-02" rms="4.4038715958595276e-01" purity="5.1358920335769653e-01" nType="0">
        <Node pos="l" depth="1" NCoef="0" IVar="-1" Cut="0.0000000000000000e+00" cType="1" res="-2.5741774588823318e-03" rms="3.4658908843994141e-01" purity="1.4404055476188660e-01" nType="-99"/>
        <Node pos="r" depth="1" NCoef="0" IVar="3" Cut="1.9119963645935059e+00" cType="1" res="2.4860311299562454e-02" rms="4.4446113705635071e-01" purity="5.3707534074783325e-01" nType="0">
          <Node pos="l" depth="2" NCoef="0" IVar="-1" Cut="0.0000000000000000e+00" cType="1" res="2.1086933556944132e-03" rms="4.3573004007339478e-01" purity="6.7604005336761475e-01" nType="-99"/>
          <Node pos="r" depth="2" NCoef="0" IVar="-1" Cut="0.0000000000000000e+00" cType="1" res="2.5740315322764218e-04" rms="4.4511193037033081e-01" purity="5.0640606880187988e-01" nType="-99"/>
        </Node>
      </Node>
    </BinaryTree>
    <BinaryTree type="DecisionTree" boostWeight="1.0000000000000000e+00" itree="841">
      <Node pos="s" depth="0" NCoef="0" IVar="4" Cut="1.4099771118164062e+02" cType="1" res="-1.0216245427727699e-02" rms="4.5001658797264099e-01" purity="4.8886728286743164e-01" nType="0">
        <Node pos="l" depth="1" NCoef="0" IVar="6" Cut="6.7661425781250000e+02" cType="1" res="1.2461837381124496e-02" rms="4.4755455851554871e-01" purity="5.0979447364807129e-01" nType="0">
          <Node pos="l" depth="2" NCoef="0" IVar="-1" Cut="0.0000000000000000e+00" cType="1" res="6.6519976826384664e-04" rms="4.4001564383506775e-01" purity="5.1332706212997437e-01" nType="-99"/>
          <Node pos="r" depth="2" NCoef="0" IVar="-1" Cut="0.0000000000000000e+00" cType="1" res="-4.9179405905306339e-03" rms="4.9134027957916260e-01" purity="4.6562132239341736e-01" nType="-99"/>
        </Node>
        <Node pos="r" depth="1" NCoef="0" IVar="1" Cut="1.0178341674804688e+02" cType="1" res="-5.8490965515375137e-02" rms="4.5143532752990723e-01" purity="4.4431951642036438e-01" nType="0">
          <Node pos="l" depth="2" NCoef="0" IVar="-1" Cut="0.0000000000000000e+00" cType="1" res="-3.2088216394186020e-03" rms="4.4128015637397766e-01" purity="3.4791132807731628e-01" nType="-99"/>
          <Node pos="r" depth="2" NCoef="0" IVar="-1" Cut="0.0000000000000000e+00" cType="1" res="1.7583684530109167e-03" rms="4.3931007385253906e-01" purity="6.1618691682815552e-01" nType="-99"/>
        </Node>
      </Node>
    </BinaryTree>
    <BinaryTree type="DecisionTree" boostWeight="1.0000000000000000e+00" itree="842">
      <Node pos="s" depth="0" NCoef="0" IVar="3" Cut="1.7621320486068726e+00" cType="1" res="-7.3067820630967617e-04" rms="4.4546577334403992e-01" purity="5.0750839710235596e-01" nType="0">
        <Node pos="l" depth="1" NCoef="0" IVar="-1" Cut="0.0000000000000000e+00" cType="1" res="1.8594320863485336e-03" rms="4.7487229108810425e-01" purity="6.3012677431106567e-01" nType="-99"/>
        <Node pos="r" depth="1" NCoef="0" IVar="1" Cut="7.3054916381835938e+01" cType="1" res="-6.7311800085008144e-03" rms="4.4257730245590210e-01" purity="4.9819850921630859e-01" nType="0">
          <Node pos="l" depth="2" NCoef="0" IVar="-1" Cut="0.0000000000000000e+00" cType="1" res="-8.1919872900471091e-04" rms="4.3970802426338196e-01" purity="4.1544321179389954e-01" nType="-99"/>
          <Node pos="r" depth="2" NCoef="0" IVar="-1" Cut="0.0000000000000000e+00" cType="1" res="4.9474363913759589e-04" rms="4.4352924823760986e-01" purity="5.7487410306930542e-01" nType="-99"/>
        </Node>
      </Node>
    </BinaryTree>
    <BinaryTree type="DecisionTree" boostWeight="1.0000000000000000e+00" itree="843">
      <Node pos="s" depth="0" NCoef="0" IVar="2" Cut="1.2203158140182495e+00" cType="1" res="-1.6270751133561134e-02" rms="4.5377126336097717e-01" purity="4.8303133249282837e-01" nType="0">
        <Node pos="l" depth="1" NCoef="0" IVar="3" Cut="2.3613240718841553e+00" cType="1" res="-3.3212974667549133e-02" rms="4.6580636501312256e-01" purity="5.4329216480255127e-01" nType="0">
          <Node pos="l" depth="2" NCoef="0" IVar="-1" Cut="0.0000000000000000e+00" cType="1" res="-9.7232544794678688e-04" rms="4.6647801995277405e-01" purity="5.4130500555038452e-01" nType="-99"/>
          <Node pos="r" depth="2" NCoef="0" IVar="-1" Cut="0.0000000000000000e+00" cType="1" res="1.8185559893026948e-03" rms="4.4273611903190613e-01" purity="5.6792259216308594e-01" nType="-99"/>
        </Node>
        <Node pos="r" depth="1" NCoef="0" IVar="5" Cut="1.9692514836788177e-01" cType="1" res="2.7708342298865318e-02" rms="4.1773259639739990e-01" purity="3.2660454511642456e-01" nType="0">
          <Node pos="l" depth="2" NCoef="0" IVar="-1" Cut="0.0000000000000000e+00" cType="1" res="-1.5895465621724725e-03" rms="3.5806044936180115e-01" purity="1.6990821063518524e-01" nType="-99"/>
          <Node pos="r" depth="2" NCoef="0" IVar="-1" Cut="0.0000000000000000e+00" cType="1" res="1.6053980216383934e-03" rms="4.3425920605659485e-01" purity="3.8895678520202637e-01" nType="-99"/>
        </Node>
      </Node>
    </BinaryTree>
    <BinaryTree type="DecisionTree" boostWeight="1.0000000000000000e+00" itree="844">
      <Node pos="s" depth="0" NCoef="0" IVar="5" Cut="5.5766683816909790e-01" cType="1" res="-1.1402275413274765e-03" rms="4.5718735456466675e-01" purity="5.0231570005416870e-01" nType="0">
        <Node pos="l" depth="1" NCoef="0" IVar="0" Cut="5.7148532867431641e+00" cType="1" res="1.5706868842244148e-02" rms="4.5235297083854675e-01" purity="4.9737891554832458e-01" nType="0">
          <Node pos="l" depth="2" NCoef="0" IVar="-1" Cut="0.0000000000000000e+00" cType="1" res="1.9543203525245190e-03" rms="4.3699115514755249e-01" purity="3.5121530294418335e-01" nType="-99"/>
          <Node pos="r" depth="2" NCoef="0" IVar="-1" Cut="0.0000000000000000e+00" cType="1" res="-1.6704159861546941e-05" rms="4.5496970415115356e-01" purity="5.3644382953643799e-01" nType="-99"/>
        </Node>
        <Node pos="r" depth="1" NCoef="0" IVar="2" Cut="8.7355935573577881e-01" cType="1" res="-5.7169079780578613e-02" rms="4.6857294440269470e-01" purity="5.1873409748077393e-01" nType="0">
          <Node pos="l" depth="2" NCoef="0" IVar="-1" Cut="0.0000000000000000e+00" cType="1" res="-3.0168378725647926e-03" rms="4.7066766023635864e-01" purity="5.1227176189422607e-01" nType="-99"/>
          <Node pos="r" depth="2" NCoef="0" IVar="-1" Cut="0.0000000000000000e+00" cType="1" res="3.8831515121273696e-04" rms="4.5431700348854065e-01" purity="5.2522039413452148e-01" nType="-99"/>
        </Node>
      </Node>
    </BinaryTree>
    <BinaryTree type="DecisionTree" boostWeight="1.0000000000000000e+00" itree="845">
      <Node pos="s" depth="0" NCoef="0" IVar="6" Cut="6.4106896972656250e+02" cType="1" res="-2.4437127634882927e-02" rms="4.4815617799758911e-01" purity="4.7501128911972046e-01" nType="0">
        <Node pos="l" depth="1" NCoef="0" IVar="1" Cut="1.1564521026611328e+02" cType="1" res="-3.7801411002874374e-02" rms="4.4738355278968811e-01" purity="4.4567626714706421e-01" nType="0">
          <Node pos="l" depth="2" NCoef="0" IVar="-1" Cut="0.0000000000000000e+00" cType="1" res="-1.1445643613114953e-03" rms="4.4877436757087708e-01" purity="4.2383858561515808e-01" nType="-99"/>
          <Node pos="r" depth="2" NCoef="0" IVar="-1" Cut="0.0000000000000000e+00" cType="1" res="8.4493315080180764e-04" rms="4.3158930540084839e-01" purity="5.8566045761108398e-01" nType="-99"/>
        </Node>
        <Node pos="r" depth="1" NCoef="0" IVar="-1" Cut="0.0000000000000000e+00" cType="1" res="2.5801120791584253e-03" rms="4.3656131625175476e-01" purity="7.4344694614410400e-01" nType="-99"/>
      </Node>
    </BinaryTree>
    <BinaryTree type="DecisionTree" boostWeight="1.0000000000000000e+00" itree="846">
      <Node pos="s" depth="0" NCoef="0" IVar="0" Cut="7.5419082641601562e+00" cType="1" res="-1.2466839514672756e-02" rms="4.5362797379493713e-01" purity="4.7419863939285278e-01" nType="0">
        <Node pos="l" depth="1" NCoef="0" IVar="5" Cut="4.8970487713813782e-01" cType="1" res="1.3568294234573841e-02" rms="4.4879406690597534e-01" purity="4.1679927706718445e-01" nType="0">
          <Node pos="l" depth="2" NCoef="0" IVar="-1" Cut="0.0000000000000000e+00" cType="1" res="-2.4133750412147492e-04" rms="4.3241855502128601e-01" purity="3.6219576001167297e-01" nType="-99"/>
          <Node pos="r" depth="2" NCoef="0" IVar="-1" Cut="0.0000000000000000e+00" cType="1" res="1.5985968057066202e-03" rms="4.8148363828659058e-01" purity="5.5005663633346558e-01" nType="-99"/>
        </Node>
        <Node pos="r" depth="1" NCoef="0" IVar="6" Cut="4.1516497802734375e+02" cType="1" res="-6.8385004997253418e-02" rms="4.5887339115142822e-01" purity="5.9748083353042603e-01" nType="0">
          <Node pos="l" depth="2" NCoef="0" IVar="-1" Cut="0.0000000000000000e+00" cType="1" res="-3.9366899727610871e-05" rms="4.4163402915000916e-01" purity="6.3681644201278687e-01" nType="-99"/>
          <Node pos="r" depth="2" NCoef="0" IVar="-1" Cut="0.0000000000000000e+00" cType="1" res="-3.6294539459049702e-03" rms="4.6609044075012207e-01" purity="5.5637562274932861e-01" nType="-99"/>
        </Node>
      </Node>
    </BinaryTree>
    <BinaryTree type="DecisionTree" boostWeight="1.0000000000000000e+00" itree="847">
      <Node pos="s" depth="0" NCoef="0" IVar="6" Cut="3.2349966430664062e+02" cType="1" res="-1.0346708819270134e-02" rms="4.5613569021224976e-01" purity="5.0693726539611816e-01" nType="0">
        <Node pos="l" depth="1" NCoef="0" IVar="1" Cut="7.8290374755859375e+01" cType="1" res="4.2896445840597153e-02" rms="4.4868782162666321e-01" purity="4.5136898756027222e-01" nType="0">
          <Node pos="l" depth="2" NCoef="0" IVar="-1" Cut="0.0000000000000000e+00" cType="1" res="3.0779867665842175e-04" rms="4.5596519112586975e-01" purity="4.1211459040641785e-01" nType="-99"/>
          <Node pos="r" depth="2" NCoef="0" IVar="-1" Cut="0.0000000000000000e+00" cType="1" res="3.1741391867399216e-03" rms="4.1463345289230347e-01" purity="5.6683802604675293e-01" nType="-99"/>
        </Node>
        <Node pos="r" depth="1" NCoef="0" IVar="1" Cut="1.1253050994873047e+02" cType="1" res="-2.9126266017556190e-02" rms="4.5725721120834351e-01" purity="5.2653694152832031e-01" nType="0">
          <Node pos="l" depth="2" NCoef="0" IVar="-1" Cut="0.0000000000000000e+00" cType="1" res="-1.0824201162904501e-03" rms="4.6740052103996277e-01" purity="4.9557441473007202e-01" nType="-99"/>
          <Node pos="r" depth="2" NCoef="0" IVar="-1" Cut="0.0000000000000000e+00" cType="1" res="5.5835460079833865e-04" rms="4.2266258597373962e-01" purity="6.1510717868804932e-01" nType="-99"/>
        </Node>
      </Node>
    </BinaryTree>
    <BinaryTree type="DecisionTree" boostWeight="1.0000000000000000e+00" itree="848">
      <Node pos="s" depth="0" NCoef="0" IVar="5" Cut="1.6528999805450439e-01" cType="1" res="8.6938599124550819e-03" rms="4.5062541961669922e-01" purity="5.1951479911804199e-01" nType="0">
        <Node pos="l" depth="1" NCoef="0" IVar="5" Cut="1.2269604951143265e-01" cType="1" res="8.3956055343151093e-02" rms="4.4138902425765991e-01" purity="4.5252946019172668e-01" nType="0">
          <Node pos="l" depth="2" NCoef="0" IVar="-1" Cut="0.0000000000000000e+00" cType="1" res="8.1950071034952998e-04" rms="4.5545265078544617e-01" purity="3.8820254802703857e-01" nType="-99"/>
          <Node pos="r" depth="2" NCoef="0" IVar="-1" Cut="0.0000000000000000e+00" cType="1" res="3.2586511224508286e-03" rms="4.2076700925827026e-01" purity="5.1645010709762573e-01" nType="-99"/>
        </Node>
        <Node pos="r" depth="1" NCoef="0" IVar="5" Cut="6.2893098592758179e-01" cType="1" res="-1.1958163231611252e-03" rms="4.5089218020439148e-01" purity="5.2831685543060303e-01" nType="0">
          <Node pos="l" depth="2" NCoef="0" IVar="-1" Cut="0.0000000000000000e+00" cType="1" res="-4.2619204032234848e-04" rms="4.5470690727233887e-01" purity="4.9862793087959290e-01" nType="-99"/>
          <Node pos="r" depth="2" NCoef="0" IVar="-1" Cut="0.0000000000000000e+00" cType="1" res="1.6352102393284440e-03" rms="4.2725637555122375e-01" purity="6.5232348442077637e-01" nType="-99"/>
        </Node>
      </Node>
    </BinaryTree>
    <BinaryTree type="DecisionTree" boostWeight="1.0000000000000000e+00" itree="849">
      <Node pos="s" depth="0" NCoef="0" IVar="3" Cut="2.1782298088073730e+00" cType="1" res="5.5114645510911942e-03" rms="4.4213300943374634e-01" purity="5.0848734378814697e-01" nType="0">
        <Node pos="l" depth="1" NCoef="0" IVar="2" Cut="6.5596163272857666e-01" cType="1" res="5.2935410290956497e-02" rms="4.4794017076492310e-01" purity="6.4391666650772095e-01" nType="0">
          <Node pos="l" depth="2" NCoef="0" IVar="-1" Cut="0.0000000000000000e+00" cType="1" res="-2.3240756127052009e-04" rms="4.5784491300582886e-01" purity="6.4702105522155762e-01" nType="-99"/>
          <Node pos="r" depth="2" NCoef="0" IVar="-1" Cut="0.0000000000000000e+00" cType="1" res="2.0187336485832930e-03" rms="4.3914380669593811e-01" purity="6.4229500293731689e-01" nType="-99"/>
        </Node>
        <Node pos="r" depth="1" NCoef="0" IVar="3" Cut="2.6017172336578369e+00" cType="1" res="-4.7212138772010803e-02" rms="4.2948225140571594e-01" purity="3.5792377591133118e-01" nType="0">
          <Node pos="l" depth="2" NCoef="0" IVar="-1" Cut="0.0000000000000000e+00" cType="1" res="-1.5396594535559416e-03" rms="4.3548101186752319e-01" purity="3.9004349708557129e-01" nType="-99"/>
          <Node pos="r" depth="2" NCoef="0" IVar="-1" Cut="0.0000000000000000e+00" cType="1" res="5.1729206461459398e-04" rms="4.0217310190200806e-01" purity="2.5183230638504028e-01" nType="-99"/>
        </Node>
      </Node>
    </BinaryTree>
    <BinaryTree type="DecisionTree" boostWeight="1.0000000000000000e+00" itree="850">
      <Node pos="s" depth="0" NCoef="0" IVar="5" Cut="6.9168174266815186e-01" cType="1" res="4.4021382927894592e-03" rms="4.3932148814201355e-01" purity="5.1368731260299683e-01" nType="0">
        <Node pos="l" depth="1" NCoef="0" IVar="6" Cut="5.4699749755859375e+02" cType="1" res="-2.3404480889439583e-03" rms="4.4171297550201416e-01" purity="4.9899733066558838e-01" nType="0">
          <Node pos="l" depth="2" NCoef="0" IVar="-1" Cut="0.0000000000000000e+00" cType="1" res="-3.5803741775453091e-04" rms="4.4153583049774170e-01" purity="4.7026565670967102e-01" nType="-99"/>
          <Node pos="r" depth="2" NCoef="0" IVar="-1" Cut="0.0000000000000000e+00" cType="1" res="1.3870962429791689e-03" rms="4.3787404894828796e-01" purity="6.2642174959182739e-01" nType="-99"/>
        </Node>
        <Node pos="r" depth="1" NCoef="0" IVar="-1" Cut="0.0000000000000000e+00" cType="1" res="2.3698904551565647e-03" rms="3.9544484019279480e-01" purity="7.0887857675552368e-01" nType="-99"/>
      </Node>
    </BinaryTree>
    <BinaryTree type="DecisionTree" boostWeight="1.0000000000000000e+00" itree="851">
      <Node pos="s" depth="0" NCoef="0" IVar="1" Cut="4.5538986206054688e+01" cType="1" res="2.2289277985692024e-02" rms="4.4681674242019653e-01" purity="5.2435094118118286e-01" nType="0">
        <Node pos="l" depth="1" NCoef="0" IVar="3" Cut="2.0036685466766357e+00" cType="1" res="-4.2003855109214783e-02" rms="4.4755780696868896e-01" purity="3.6856278777122498e-01" nType="0">
          <Node pos="l" depth="2" NCoef="0" IVar="-1" Cut="0.0000000000000000e+00" cType="1" res="-2.4770814925432205e-03" rms="4.4780781865119934e-01" purity="3.6357781291007996e-01" nType="-99"/>
          <Node pos="r" depth="2" NCoef="0" IVar="-1" Cut="0.0000000000000000e+00" cType="1" res="3.4771751961670816e-04" rms="4.3899744749069214e-01" purity="3.7227657437324524e-01" nType="-99"/>
        </Node>
        <Node pos="r" depth="1" NCoef="0" IVar="5" Cut="1.6056455671787262e-01" cType="1" res="3.5774234682321548e-02" rms="4.4548550248146057e-01" purity="5.5702620744705200e-01" nType="0">
          <Node pos="l" depth="2" NCoef="0" IVar="-1" Cut="0.0000000000000000e+00" cType="1" res="2.8491013217717409e-03" rms="4.5350107550621033e-01" purity="5.0906252861022949e-01" nType="-99"/>
          <Node pos="r" depth="2" NCoef="0" IVar="-1" Cut="0.0000000000000000e+00" cType="1" res="6.3022412359714508e-04" rms="4.4367483258247375e-01" purity="5.6246089935302734e-01" nType="-99"/>
        </Node>
      </Node>
    </BinaryTree>
    <BinaryTree type="DecisionTree" boostWeight="1.0000000000000000e+00" itree="852">
      <Node pos="s" depth="0" NCoef="0" IVar="1" Cut="8.3198890686035156e+01" cType="1" res="2.1128857508301735e-02" rms="4.5318177342414856e-01" purity="5.2641296386718750e-01" nType="0">
        <Node pos="l" depth="1" NCoef="0" IVar="6" Cut="3.2629565429687500e+02" cType="1" res="4.8945296555757523e-02" rms="4.4727212190628052e-01" purity="5.1922857761383057e-01" nType="0">
          <Node pos="l" depth="2" NCoef="0" IVar="-1" Cut="0.0000000000000000e+00" cType="1" res="-1.4619498688261956e-04" rms="4.4154527783393860e-01" purity="4.0114197134971619e-01" nType="-99"/>
          <Node pos="r" depth="2" NCoef="0" IVar="-1" Cut="0.0000000000000000e+00" cType="1" res="1.9050926202908158e-03" rms="4.4744041562080383e-01" purity="5.8895659446716309e-01" nType="-99"/>
        </Node>
        <Node pos="r" depth="1" NCoef="0" IVar="5" Cut="4.3465360999107361e-01" cType="1" res="-1.7246473580598831e-02" rms="4.5844832062721252e-01" purity="5.3632450103759766e-01" nType="0">
          <Node pos="l" depth="2" NCoef="0" IVar="-1" Cut="0.0000000000000000e+00" cType="1" res="1.1211278615519404e-03" rms="4.4324654340744019e-01" purity="5.6864750385284424e-01" nType="-99"/>
          <Node pos="r" depth="2" NCoef="0" IVar="-1" Cut="0.0000000000000000e+00" cType="1" res="-3.0056168325245380e-03" rms="4.6369400620460510e-01" purity="4.7823363542556763e-01" nType="-99"/>
        </Node>
      </Node>
    </BinaryTree>
    <BinaryTree type="DecisionTree" boostWeight="1.0000000000000000e+00" itree="853">
      <Node pos="s" depth="0" NCoef="0" IVar="0" Cut="5.8367362022399902e+00" cType="1" res="1.7033832147717476e-02" rms="4.4483691453933716e-01" purity="5.3172284364700317e-01" nType="0">
        <Node pos="l" depth="1" NCoef="0" IVar="4" Cut="1.3834591674804688e+02" cType="1" res="-3.9311174303293228e-02" rms="4.1564571857452393e-01" purity="2.6212066411972046e-01" nType="0">
          <Node pos="l" depth="2" NCoef="0" IVar="-1" Cut="0.0000000000000000e+00" cType="1" res="-1.7006658890750259e-04" rms="4.3276128172874451e-01" purity="2.9487919807434082e-01" nType="-99"/>
          <Node pos="r" depth="2" NCoef="0" IVar="-1" Cut="0.0000000000000000e+00" cType="1" res="-2.8434444684535265e-03" rms="3.5110747814178467e-01" purity="1.7364165186882019e-01" nType="-99"/>
        </Node>
        <Node pos="r" depth="1" NCoef="0" IVar="2" Cut="6.6622465848922729e-01" cType="1" res="3.4879684448242188e-02" rms="4.5222949981689453e-01" purity="6.1711245775222778e-01" nType="0">
          <Node pos="l" depth="2" NCoef="0" IVar="-1" Cut="0.0000000000000000e+00" cType="1" res="-9.8964257631450891e-04" rms="4.6770402789115906e-01" purity="6.7310881614685059e-01" nType="-99"/>
          <Node pos="r" depth="2" NCoef="0" IVar="-1" Cut="0.0000000000000000e+00" cType="1" res="1.2721272651106119e-03" rms="4.4635176658630371e-01" purity="6.0300230979919434e-01" nType="-99"/>
        </Node>
      </Node>
    </BinaryTree>
    <BinaryTree type="DecisionTree" boostWeight="1.0000000000000000e+00" itree="854">
      <Node pos="s" depth="0" NCoef="0" IVar="3" Cut="2.0109913349151611e+00" cType="1" res="5.1212594844400883e-03" rms="4.5197185873985291e-01" purity="4.9902683496475220e-01" nType="0">
        <Node pos="l" depth="1" NCoef="0" IVar="5" Cut="5.3397697210311890e-01" cType="1" res="6.4100116491317749e-02" rms="4.3370273709297180e-01" purity="6.5621566772460938e-01" nType="0">
          <Node pos="l" depth="2" NCoef="0" IVar="-1" Cut="0.0000000000000000e+00" cType="1" res="2.4331898894160986e-03" rms="4.3588358163833618e-01" purity="6.8714660406112671e-01" nType="-99"/>
          <Node pos="r" depth="2" NCoef="0" IVar="-1" Cut="0.0000000000000000e+00" cType="1" res="-6.8869307870045304e-04" rms="4.1398671269416809e-01" purity="5.8672696352005005e-01" nType="-99"/>
        </Node>
        <Node pos="r" depth="1" NCoef="0" IVar="0" Cut="6.8056659698486328e+00" cType="1" res="-1.7742352560162544e-02" rms="4.5681488513946533e-01" purity="4.3809139728546143e-01" nType="0">
          <Node pos="l" depth="2" NCoef="0" IVar="-1" Cut="0.0000000000000000e+00" cType="1" res="3.9887335151433945e-04" rms="4.5015728473663330e-01" purity="3.4070414304733276e-01" nType="-99"/>
          <Node pos="r" depth="2" NCoef="0" IVar="-1" Cut="0.0000000000000000e+00" cType="1" res="-1.2571500847116113e-03" rms="4.6082296967506409e-01" purity="5.3691154718399048e-01" nType="-99"/>
        </Node>
      </Node>
    </BinaryTree>
    <BinaryTree type="DecisionTree" boostWeight="1.0000000000000000e+00" itree="855">
      <Node pos="s" depth="0" NCoef="0" IVar="6" Cut="6.5735894775390625e+02" cType="1" res="-8.3226999267935753e-03" rms="4.3963485956192017e-01" purity="4.9513179063796997e-01" nType="0">
        <Node pos="l" depth="1" NCoef="0" IVar="6" Cut="3.3456976318359375e+02" cType="1" res="-2.1858347579836845e-02" rms="4.4191390275955200e-01" purity="4.6772983670234680e-01" nType="0">
          <Node pos="l" depth="2" NCoef="0" IVar="-1" Cut="0.0000000000000000e+00" cType="1" res="6.7348865559324622e-04" rms="4.3397691845893860e-01" purity="4.5010027289390564e-01" nType="-99"/>
          <Node pos="r" depth="2" NCoef="0" IVar="-1" Cut="0.0000000000000000e+00" cType="1" res="-1.0851568076759577e-03" rms="4.4365876913070679e-01" purity="4.7634553909301758e-01" nType="-99"/>
        </Node>
        <Node pos="r" depth="1" NCoef="0" IVar="-1" Cut="0.0000000000000000e+00" cType="1" res="3.1348527409136295e-03" rms="3.9481693506240845e-01" purity="7.5562661886215210e-01" nType="-99"/>
      </Node>
    </BinaryTree>
    <BinaryTree type="DecisionTree" boostWeight="1.0000000000000000e+00" itree="856">
      <Node pos="s" depth="0" NCoef="0" IVar="5" Cut="4.9836432933807373e-01" cType="1" res="5.2551720291376114e-03" rms="4.3642261624336243e-01" purity="5.0377601385116577e-01" nType="0">
        <Node pos="l" depth="1" NCoef="0" IVar="6" Cut="3.8494540405273438e+02" cType="1" res="3.0280686914920807e-02" rms="4.2877683043479919e-01" purity="4.9293673038482666e-01" nType="0">
          <Node pos="l" depth="2" NCoef="0" IVar="-1" Cut="0.0000000000000000e+00" cType="1" res="-4.6097330050542951e-04" rms="4.2285534739494324e-01" purity="3.7382730841636658e-01" nType="-99"/>
          <Node pos="r" depth="2" NCoef="0" IVar="-1" Cut="0.0000000000000000e+00" cType="1" res="1.6951096476987004e-03" rms="4.2943519353866577e-01" purity="5.8989131450653076e-01" nType="-99"/>
        </Node>
        <Node pos="r" depth="1" NCoef="0" IVar="0" Cut="8.1702833175659180e+00" cType="1" res="-5.2485544234514236e-02" rms="4.4827297329902649e-01" purity="5.2878522872924805e-01" nType="0">
          <Node pos="l" depth="2" NCoef="0" IVar="-1" Cut="0.0000000000000000e+00" cType="1" res="-1.7853799508884549e-03" rms="4.6464678645133972e-01" purity="4.4538763165473938e-01" nType="-99"/>
          <Node pos="r" depth="2" NCoef="0" IVar="-1" Cut="0.0000000000000000e+00" cType="1" res="1.9404387567192316e-03" rms="3.6045578122138977e-01" purity="8.3609497547149658e-01" nType="-99"/>
        </Node>
      </Node>
    </BinaryTree>
    <BinaryTree type="DecisionTree" boostWeight="1.0000000000000000e+00" itree="857">
      <Node pos="s" depth="0" NCoef="0" IVar="2" Cut="1.1535915136337280e+00" cType="1" res="-5.3724058670923114e-04" rms="4.3746021389961243e-01" purity="4.9372279644012451e-01" nType="0">
        <Node pos="l" depth="1" NCoef="0" IVar="5" Cut="6.8136656284332275e-01" cType="1" res="1.8958566710352898e-02" rms="4.5263901352882385e-01" purity="6.0643810033798218e-01" nType="0">
          <Node pos="l" depth="2" NCoef="0" IVar="-1" Cut="0.0000000000000000e+00" cType="1" res="7.6411233749240637e-04" rms="4.4859722256660461e-01" purity="6.1826962232589722e-01" nType="-99"/>
          <Node pos="r" depth="2" NCoef="0" IVar="-1" Cut="0.0000000000000000e+00" cType="1" res="-2.0129480399191380e-03" rms="4.6948978304862976e-01" purity="5.1616120338439941e-01" nType="-99"/>
        </Node>
        <Node pos="r" depth="1" NCoef="0" IVar="6" Cut="5.5194567871093750e+02" cType="1" res="-3.6624286323785782e-02" rms="4.0540993213653564e-01" purity="2.8508505225181580e-01" nType="0">
          <Node pos="l" depth="2" NCoef="0" IVar="-1" Cut="0.0000000000000000e+00" cType="1" res="-1.5800319379195571e-03" rms="3.8985377550125122e-01" purity="2.4331384897232056e-01" nType="-99"/>
          <Node pos="r" depth="2" NCoef="0" IVar="-1" Cut="0.0000000000000000e+00" cType="1" res="2.3557005915790796e-03" rms="4.5406103134155273e-01" purity="5.0314742326736450e-01" nType="-99"/>
        </Node>
      </Node>
    </BinaryTree>
    <BinaryTree type="DecisionTree" boostWeight="1.0000000000000000e+00" itree="858">
      <Node pos="s" depth="0" NCoef="0" IVar="5" Cut="3.6045658588409424e-01" cType="1" res="1.4417037367820740e-02" rms="4.5063653588294983e-01" purity="5.0449174642562866e-01" nType="0">
        <Node pos="l" depth="1" NCoef="0" IVar="6" Cut="5.8050128173828125e+02" cType="1" res="-2.5109307840466499e-02" rms="4.3141400814056396e-01" purity="3.9833196997642517e-01" nType="0">
          <Node pos="l" depth="2" NCoef="0" IVar="-1" Cut="0.0000000000000000e+00" cType="1" res="-2.7330321609042585e-04" rms="4.2281877994537354e-01" purity="3.7825039029121399e-01" nType="-99"/>
          <Node pos="r" depth="2" NCoef="0" IVar="-1" Cut="0.0000000000000000e+00" cType="1" res="-1.8786975415423512e-03" rms="4.5938327908515930e-01" purity="4.7636413574218750e-01" nType="-99"/>
        </Node>
        <Node pos="r" depth="1" NCoef="0" IVar="0" Cut="7.0452542304992676e+00" cType="1" res="4.4180113822221756e-02" rms="4.6236154437065125e-01" purity="5.8442932367324829e-01" nType="0">
          <Node pos="l" depth="2" NCoef="0" IVar="-1" Cut="0.0000000000000000e+00" cType="1" res="2.2604663390666246e-03" rms="4.6628412604331970e-01" purity="5.2382445335388184e-01" nType="-99"/>
          <Node pos="r" depth="2" NCoef="0" IVar="-1" Cut="0.0000000000000000e+00" cType="1" res="-7.4425101047381759e-04" rms="4.4693693518638611e-01" purity="6.6074591875076294e-01" nType="-99"/>
        </Node>
      </Node>
    </BinaryTree>
    <BinaryTree type="DecisionTree" boostWeight="1.0000000000000000e+00" itree="859">
      <Node pos="s" depth="0" NCoef="0" IVar="0" Cut="8.6137399673461914e+00" cType="1" res="-7.9457862302660942e-03" rms="4.4677770137786865e-01" purity="5.0769591331481934e-01" nType="0">
        <Node pos="l" depth="1" NCoef="0" IVar="5" Cut="3.6855980753898621e-01" cType="1" res="-2.4615373462438583e-02" rms="4.5943817496299744e-01" purity="4.5567777752876282e-01" nType="0">
          <Node pos="l" depth="2" NCoef="0" IVar="-1" Cut="0.0000000000000000e+00" cType="1" res="1.4553017535945401e-05" rms="4.5115470886230469e-01" purity="4.2502835392951965e-01" nType="-99"/>
          <Node pos="r" depth="2" NCoef="0" IVar="-1" Cut="0.0000000000000000e+00" cType="1" res="-1.0078508639708161e-03" rms="4.6533995866775513e-01" purity="4.8197862505912781e-01" nType="-99"/>
        </Node>
        <Node pos="r" depth="1" NCoef="0" IVar="5" Cut="4.4836485385894775e-01" cType="1" res="9.8424814641475677e-02" rms="3.3661729097366333e-01" purity="8.3963018655776978e-01" nType="0">
          <Node pos="l" depth="2" NCoef="0" IVar="-1" Cut="0.0000000000000000e+00" cType="1" res="4.4187936000525951e-03" rms="2.9636687040328979e-01" purity="8.6243414878845215e-01" nType="-99"/>
          <Node pos="r" depth="2" NCoef="0" IVar="-1" Cut="0.0000000000000000e+00" cType="1" res="5.1208166405558586e-04" rms="3.7756377458572388e-01" purity="8.0339306592941284e-01" nType="-99"/>
        </Node>
      </Node>
    </BinaryTree>
    <BinaryTree type="DecisionTree" boostWeight="1.0000000000000000e+00" itree="860">
      <Node pos="s" depth="0" NCoef="0" IVar="0" Cut="5.7210602760314941e+00" cType="1" res="3.1633253674954176e-03" rms="4.4434574246406555e-01" purity="5.0289976596832275e-01" nType="0">
        <Node pos="l" depth="1" NCoef="0" IVar="1" Cut="6.3505821228027344e+01" cType="1" res="-5.3009536117315292e-02" rms="3.9451649785041809e-01" purity="2.2649669647216797e-01" nType="0">
          <Node pos="l" depth="2" NCoef="0" IVar="-1" Cut="0.0000000000000000e+00" cType="1" res="4.1755807615118101e-05" rms="4.0092810988426208e-01" purity="2.3955261707305908e-01" nType="-99"/>
          <Node pos="r" depth="2" NCoef="0" IVar="-1" Cut="0.0000000000000000e+00" cType="1" res="-2.1692379377782345e-03" rms="3.8479897379875183e-01" purity="2.1687734127044678e-01" nType="-99"/>
        </Node>
        <Node pos="r" depth="1" NCoef="0" IVar="5" Cut="1.5522630512714386e-01" cType="1" res="1.8534678965806961e-02" rms="4.5583075284957886e-01" purity="5.7853573560714722e-01" nType="0">
          <Node pos="l" depth="2" NCoef="0" IVar="-1" Cut="0.0000000000000000e+00" cType="1" res="3.1396651174873114e-03" rms="4.6460449695587158e-01" purity="5.6736618280410767e-01" nType="-99"/>
          <Node pos="r" depth="2" NCoef="0" IVar="-1" Cut="0.0000000000000000e+00" cType="1" res="1.5008448099251837e-04" rms="4.5319965481758118e-01" purity="5.7979905605316162e-01" nType="-99"/>
        </Node>
      </Node>
    </BinaryTree>
    <BinaryTree type="DecisionTree" boostWeight="1.0000000000000000e+00" itree="861">
      <Node pos="s" depth="0" NCoef="0" IVar="5" Cut="6.9534277915954590e-01" cType="1" res="1.1133248917758465e-02" rms="4.4829180836677551e-01" purity="5.1300859451293945e-01" nType="0">
        <Node pos="l" depth="1" NCoef="0" IVar="0" Cut="6.3017559051513672e+00" cType="1" res="2.1150708198547363e-02" rms="4.4889160990715027e-01" purity="5.1740503311157227e-01" nType="0">
          <Node pos="l" depth="2" NCoef="0" IVar="-1" Cut="0.0000000000000000e+00" cType="1" res="1.6068096738308668e-03" rms="4.6199914813041687e-01" purity="4.0359210968017578e-01" nType="-99"/>
          <Node pos="r" depth="2" NCoef="0" IVar="-1" Cut="0.0000000000000000e+00" cType="1" res="-8.2637474406510592e-05" rms="4.3997532129287720e-01" purity="5.7604712247848511e-01" nType="-99"/>
        </Node>
        <Node pos="r" depth="1" NCoef="0" IVar="-1" Cut="0.0000000000000000e+00" cType="1" res="-2.0582436118274927e-03" rms="4.2750588059425354e-01" purity="4.6615120768547058e-01" nType="-99"/>
      </Node>
    </BinaryTree>
    <BinaryTree type="DecisionTree" boostWeight="1.0000000000000000e+00" itree="862">
      <Node pos="s" depth="0" NCoef="0" IVar="0" Cut="7.0779337882995605e+00" cType="1" res="-8.7495371699333191e-03" rms="4.4518429040908813e-01" purity="4.8844444751739502e-01" nType="0">
        <Node pos="l" depth="1" NCoef="0" IVar="2" Cut="1.4109752178192139e+00" cType="1" res="-3.8677342236042023e-02" rms="4.4593977928161621e-01" purity="3.5047015547752380e-01" nType="0">
          <Node pos="l" depth="2" NCoef="0" IVar="-1" Cut="0.0000000000000000e+00" cType="1" res="-1.1930859182029963e-03" rms="4.4618618488311768e-01" purity="3.6841297149658203e-01" nType="-99"/>
          <Node pos="r" depth="2" NCoef="0" IVar="-1" Cut="0.0000000000000000e+00" cType="1" res="1.2518630828708410e-03" rms="4.3523544073104858e-01" purity="2.6403254270553589e-01" nType="-99"/>
        </Node>
        <Node pos="r" depth="1" NCoef="0" IVar="3" Cut="1.8733549118041992e+00" cType="1" res="3.1201642006635666e-02" rms="4.4101998209953308e-01" purity="6.7262887954711914e-01" nType="0">
          <Node pos="l" depth="2" NCoef="0" IVar="-1" Cut="0.0000000000000000e+00" cType="1" res="-2.0960026886314154e-03" rms="4.7218623757362366e-01" purity="6.3265937566757202e-01" nType="-99"/>
          <Node pos="r" depth="2" NCoef="0" IVar="-1" Cut="0.0000000000000000e+00" cType="1" res="1.1886544525623322e-03" rms="4.3370139598846436e-01" purity="6.7858701944351196e-01" nType="-99"/>
        </Node>
      </Node>
    </BinaryTree>
    <BinaryTree type="DecisionTree" boostWeight="1.0000000000000000e+00" itree="863">
      <Node pos="s" depth="0" NCoef="0" IVar="5" Cut="5.0242614746093750e-01" cType="1" res="1.1401124298572540e-02" rms="4.4706583023071289e-01" purity="5.1347941160202026e-01" nType="0">
        <Node pos="l" depth="1" NCoef="0" IVar="6" Cut="6.8372821044921875e+02" cType="1" res="-3.0316960066556931e-02" rms="4.4766992330551147e-01" purity="4.3992137908935547e-01" nType="0">
          <Node pos="l" depth="2" NCoef="0" IVar="-1" Cut="0.0000000000000000e+00" cType="1" res="-3.7340575363487005e-04" rms="4.4591614603996277e-01" purity="4.4030132889747620e-01" nType="-99"/>
          <Node pos="r" depth="2" NCoef="0" IVar="-1" Cut="0.0000000000000000e+00" cType="1" res="-4.2320354841649532e-03" rms="4.4209393858909607e-01" purity="4.3644675612449646e-01" nType="-99"/>
        </Node>
        <Node pos="r" depth="1" NCoef="0" IVar="4" Cut="1.1179985809326172e+02" cType="1" res="1.0446859896183014e-01" rms="4.3141379952430725e-01" purity="6.7757755517959595e-01" nType="0">
          <Node pos="l" depth="2" NCoef="0" IVar="-1" Cut="0.0000000000000000e+00" cType="1" res="3.3624926581978798e-03" rms="4.3807157874107361e-01" purity="7.2142207622528076e-01" nType="-99"/>
          <Node pos="r" depth="2" NCoef="0" IVar="-1" Cut="0.0000000000000000e+00" cType="1" res="1.0161020327359438e-03" rms="4.1369450092315674e-01" purity="6.1549437046051025e-01" nType="-99"/>
        </Node>
      </Node>
    </BinaryTree>
    <BinaryTree type="DecisionTree" boostWeight="1.0000000000000000e+00" itree="864">
      <Node pos="s" depth="0" NCoef="0" IVar="4" Cut="1.1122856903076172e+02" cType="1" res="-4.3110605329275131e-03" rms="4.4939175248146057e-01" purity="4.9677464365959167e-01" nType="0">
        <Node pos="l" depth="1" NCoef="0" IVar="4" Cut="4.1610046386718750e+01" cType="1" res="2.2109841927886009e-02" rms="4.4337177276611328e-01" purity="5.3272664546966553e-01" nType="0">
          <Node pos="l" depth="2" NCoef="0" IVar="-1" Cut="0.0000000000000000e+00" cType="1" res="1.6059570480138063e-03" rms="4.2010509967803955e-01" purity="5.7587468624114990e-01" nType="-99"/>
          <Node pos="r" depth="2" NCoef="0" IVar="-1" Cut="0.0000000000000000e+00" cType="1" res="-3.5092662437818944e-04" rms="4.5826792716979980e-01" purity="4.9729123711585999e-01" nType="-99"/>
        </Node>
        <Node pos="r" depth="1" NCoef="0" IVar="5" Cut="4.2504617571830750e-01" cType="1" res="-3.8534022867679596e-02" rms="4.5479556918144226e-01" purity="4.5020610094070435e-01" nType="0">
          <Node pos="l" depth="2" NCoef="0" IVar="-1" Cut="0.0000000000000000e+00" cType="1" res="-3.3668050309643149e-04" rms="4.3960055708885193e-01" purity="4.3462008237838745e-01" nType="-99"/>
          <Node pos="r" depth="2" NCoef="0" IVar="-1" Cut="0.0000000000000000e+00" cType="1" res="-1.6458071768283844e-03" rms="4.7257778048515320e-01" purity="4.7130793333053589e-01" nType="-99"/>
        </Node>
      </Node>
    </BinaryTree>
    <BinaryTree type="DecisionTree" boostWeight="1.0000000000000000e+00" itree="865">
      <Node pos="s" depth="0" NCoef="0" IVar="5" Cut="6.6718417406082153e-01" cType="1" res="-1.0692686773836613e-02" rms="4.5391765236854553e-01" purity="4.9300161004066467e-01" nType="0">
        <Node pos="l" depth="1" NCoef="0" IVar="3" Cut="1.8281868696212769e+00" cType="1" res="9.4636110588908195e-04" rms="4.4906479120254517e-01" purity="4.9414360523223877e-01" nType="0">
          <Node pos="l" depth="2" NCoef="0" IVar="-1" Cut="0.0000000000000000e+00" cType="1" res="2.2965075913816690e-03" rms="4.4385272264480591e-01" purity="6.5938055515289307e-01" nType="-99"/>
          <Node pos="r" depth="2" NCoef="0" IVar="-1" Cut="0.0000000000000000e+00" cType="1" res="-2.5394200929440558e-04" rms="4.4811010360717773e-01" purity="4.7591531276702881e-01" nType="-99"/>
        </Node>
        <Node pos="r" depth="1" NCoef="0" IVar="5" Cut="7.2681486606597900e-01" cType="1" res="-9.7310476005077362e-02" rms="4.7973075509071350e-01" purity="4.8450323939323425e-01" nType="0">
          <Node pos="l" depth="2" NCoef="0" IVar="-1" Cut="0.0000000000000000e+00" cType="1" res="-4.1632899083197117e-03" rms="4.4359856843948364e-01" purity="3.7186223268508911e-01" nType="-99"/>
          <Node pos="r" depth="2" NCoef="0" IVar="-1" Cut="0.0000000000000000e+00" cType="1" res="1.4672795259684790e-05" rms="4.9440997838973999e-01" purity="5.9742403030395508e-01" nType="-99"/>
        </Node>
      </Node>
    </BinaryTree>
    <BinaryTree type="DecisionTree" boostWeight="1.0000000000000000e+00" itree="866">
      <Node pos="s" depth="0" NCoef="0" IVar="2" Cut="6.8878781795501709e-01" cType="1" res="-1.8889658153057098e-02" rms="4.5069038867950439e-01" purity="4.7428092360496521e-01" nType="0">
        <Node pos="l" depth="1" NCoef="0" IVar="5" Cut="5.7625114917755127e-01" cType="1" res="-8.1922791898250580e-02" rms="4.5862793922424316e-01" purity="5.8301746845245361e-01" nType="0">
          <Node pos="l" depth="2" NCoef="0" IVar="-1" Cut="0.0000000000000000e+00" cType="1" res="-1.3236382510513067e-03" rms="4.3970525264739990e-01" purity="5.9559339284896851e-01" nType="-99"/>
          <Node pos="r" depth="2" NCoef="0" IVar="-1" Cut="0.0000000000000000e+00" cType="1" res="-3.9753913879394531e-03" rms="5.0077813863754272e-01" purity="5.4746580123901367e-01" nType="-99"/>
        </Node>
        <Node pos="r" depth="1" NCoef="0" IVar="3" Cut="1.9073601961135864e+00" cType="1" res="-2.8613335452973843e-03" rms="4.4723510742187500e-01" purity="4.4663098454475403e-01" nType="0">
          <Node pos="l" depth="2" NCoef="0" IVar="-1" Cut="0.0000000000000000e+00" cType="1" res="-2.1607689559459686e-03" rms="4.7158807516098022e-01" purity="4.2810881137847900e-01" nType="-99"/>
          <Node pos="r" depth="2" NCoef="0" IVar="-1" Cut="0.0000000000000000e+00" cType="1" res="1.8344059935770929e-04" rms="4.4313934445381165e-01" purity="4.4874155521392822e-01" nType="-99"/>
        </Node>
      </Node>
    </BinaryTree>
    <BinaryTree type="DecisionTree" boostWeight="1.0000000000000000e+00" itree="867">
      <Node pos="s" depth="0" NCoef="0" IVar="4" Cut="2.7399993896484375e+02" cType="1" res="-1.2928823009133339e-02" rms="4.5812812447547913e-01" purity="4.8850986361503601e-01" nType="0">
        <Node pos="l" depth="1" NCoef="0" IVar="2" Cut="8.7098032236099243e-01" cType="1" res="2.9072843026369810e-03" rms="4.6003362536430359e-01" purity="5.1229864358901978e-01" nType="0">
          <Node pos="l" depth="2" NCoef="0" IVar="-1" Cut="0.0000000000000000e+00" cType="1" res="-8.7391136912629008e-04" rms="4.6217820048332214e-01" purity="5.7767474651336670e-01" nType="-99"/>
          <Node pos="r" depth="2" NCoef="0" IVar="-1" Cut="0.0000000000000000e+00" cType="1" res="7.4831017991527915e-04" rms="4.5629602670669556e-01" purity="4.6635031700134277e-01" nType="-99"/>
        </Node>
        <Node pos="r" depth="1" NCoef="0" IVar="5" Cut="3.3300915360450745e-01" cType="1" res="-1.2805910408496857e-01" rms="4.2671278119087219e-01" purity="3.1556314229965210e-01" nType="0">
          <Node pos="l" depth="2" NCoef="0" IVar="-1" Cut="0.0000000000000000e+00" cType="1" res="-1.7921203980222344e-03" rms="4.5127370953559875e-01" purity="3.1329897046089172e-01" nType="-99"/>
          <Node pos="r" depth="2" NCoef="0" IVar="-1" Cut="0.0000000000000000e+00" cType="1" res="-3.9670802652835846e-03" rms="4.0003383159637451e-01" purity="3.1748986244201660e-01" nType="-99"/>
        </Node>
      </Node>
    </BinaryTree>
    <BinaryTree type="DecisionTree" boostWeight="1.0000000000000000e+00" itree="868">
      <Node pos="s" depth="0" NCoef="0" IVar="2" Cut="4.6356767416000366e-01" cType="1" res="-1.9894192519132048e-04" rms="4.5732638239860535e-01" purity="5.0932407379150391e-01" nType="0">
        <Node pos="l" depth="1" NCoef="0" IVar="-1" Cut="0.0000000000000000e+00" cType="1" res="-3.8923348765820265e-03" rms="4.7144156694412231e-01" purity="5.1813274621963501e-01" nType="-99"/>
        <Node pos="r" depth="1" NCoef="0" IVar="2" Cut="7.2277718782424927e-01" cType="1" res="8.7474500760436058e-03" rms="4.5486298203468323e-01" purity="5.0883334875106812e-01" nType="0">
          <Node pos="l" depth="2" NCoef="0" IVar="-1" Cut="0.0000000000000000e+00" cType="1" res="1.5721934614703059e-03" rms="4.3912965059280396e-01" purity="7.0688778162002563e-01" nType="-99"/>
          <Node pos="r" depth="2" NCoef="0" IVar="-1" Cut="0.0000000000000000e+00" cType="1" res="-1.6081336070783436e-04" rms="4.5793923735618591e-01" purity="4.5346939563751221e-01" nType="-99"/>
        </Node>
      </Node>
    </BinaryTree>
    <BinaryTree type="DecisionTree" boostWeight="1.0000000000000000e+00" itree="869">
      <Node pos="s" depth="0" NCoef="0" IVar="6" Cut="5.8582501220703125e+02" cType="1" res="1.3248753733932972e-02" rms="4.5450156927108765e-01" purity="5.1087731122970581e-01" nType="0">
        <Node pos="l" depth="1" NCoef="0" IVar="1" Cut="7.2150382995605469e+01" cType="1" res="2.8604803606867790e-02" rms="4.5082390308380127e-01" purity="5.1207721233367920e-01" nType="0">
          <Node pos="l" depth="2" NCoef="0" IVar="-1" Cut="0.0000000000000000e+00" cType="1" res="1.2604572111740708e-03" rms="4.5837086439132690e-01" purity="4.9718359112739563e-01" nType="-99"/>
          <Node pos="r" depth="2" NCoef="0" IVar="-1" Cut="0.0000000000000000e+00" cType="1" res="-1.9052002244279720e-05" rms="4.3973028659820557e-01" purity="5.3008955717086792e-01" nType="-99"/>
        </Node>
        <Node pos="r" depth="1" NCoef="0" IVar="1" Cut="1.0006587982177734e+02" cType="1" res="-6.9076918065547943e-02" rms="4.6516636013984680e-01" purity="5.0444442033767700e-01" nType="0">
          <Node pos="l" depth="2" NCoef="0" IVar="-1" Cut="0.0000000000000000e+00" cType="1" res="-3.5762379411607981e-03" rms="4.8188850283622742e-01" purity="3.6779612302780151e-01" nType="-99"/>
          <Node pos="r" depth="2" NCoef="0" IVar="-1" Cut="0.0000000000000000e+00" cType="1" res="-3.6456546513363719e-04" rms="4.4517305493354797e-01" purity="5.9769999980926514e-01" nType="-99"/>
        </Node>
      </Node>
    </BinaryTree>
    <BinaryTree type="DecisionTree" boostWeight="1.0000000000000000e+00" itree="870">
      <Node pos="s" depth="0" NCoef="0" IVar="5" Cut="2.3305206000804901e-01" cType="1" res="4.3425862677395344e-03" rms="4.4775938987731934e-01" purity="5.2095568180084229e-01" nType="0">
        <Node pos="l" depth="1" NCoef="0" IVar="2" Cut="1.1488645076751709e+00" cType="1" res="-7.6560810208320618e-02" rms="4.5166704058647156e-01" purity="3.2762351632118225e-01" nType="0">
          <Node pos="l" depth="2" NCoef="0" IVar="-1" Cut="0.0000000000000000e+00" cType="1" res="-3.7610111758112907e-03" rms="4.5444110035896301e-01" purity="3.7690365314483643e-01" nType="-99"/>
          <Node pos="r" depth="2" NCoef="0" IVar="-1" Cut="0.0000000000000000e+00" cType="1" res="-7.0963797043077648e-05" rms="4.3534773588180542e-01" purity="2.9023900628089905e-01" nType="-99"/>
        </Node>
        <Node pos="r" depth="1" NCoef="0" IVar="4" Cut="1.0691551971435547e+02" cType="1" res="2.8697244822978973e-02" rms="4.4369688630104065e-01" purity="5.7915526628494263e-01" nType="0">
          <Node pos="l" depth="2" NCoef="0" IVar="-1" Cut="0.0000000000000000e+00" cType="1" res="-7.5957788794767112e-05" rms="4.4403824210166931e-01" purity="5.5399256944656372e-01" nType="-99"/>
          <Node pos="r" depth="2" NCoef="0" IVar="-1" Cut="0.0000000000000000e+00" cType="1" res="1.6501705395057797e-03" rms="4.4009876251220703e-01" purity="6.1025291681289673e-01" nType="-99"/>
        </Node>
      </Node>
    </BinaryTree>
    <BinaryTree type="DecisionTree" boostWeight="1.0000000000000000e+00" itree="871">
      <Node pos="s" depth="0" NCoef="0" IVar="2" Cut="6.0356467962265015e-01" cType="1" res="1.1369889602065086e-02" rms="4.4896113872528076e-01" purity="5.1062166690826416e-01" nType="0">
        <Node pos="l" depth="1" NCoef="0" IVar="6" Cut="5.0649371337890625e+02" cType="1" res="-6.0962412506341934e-02" rms="4.7040599584579468e-01" purity="6.0809510946273804e-01" nType="0">
          <Node pos="l" depth="2" NCoef="0" IVar="-1" Cut="0.0000000000000000e+00" cType="1" res="-2.8003486804664135e-03" rms="4.8856255412101746e-01" purity="5.1916408538818359e-01" nType="-99"/>
          <Node pos="r" depth="2" NCoef="0" IVar="-1" Cut="0.0000000000000000e+00" cType="1" res="8.5268617840483785e-04" rms="4.2444938421249390e-01" purity="7.4465578794479370e-01" nType="-99"/>
        </Node>
        <Node pos="r" depth="1" NCoef="0" IVar="1" Cut="1.3421968078613281e+02" cType="1" res="2.3692371323704720e-02" rms="4.4403174519538879e-01" purity="4.9401617050170898e-01" nType="0">
          <Node pos="l" depth="2" NCoef="0" IVar="-1" Cut="0.0000000000000000e+00" cType="1" res="8.3453278057277203e-04" rms="4.3907526135444641e-01" purity="5.0071412324905396e-01" nType="-99"/>
          <Node pos="r" depth="2" NCoef="0" IVar="-1" Cut="0.0000000000000000e+00" cType="1" res="-1.9127482082694769e-03" rms="4.7387665510177612e-01" purity="4.3240019679069519e-01" nType="-99"/>
        </Node>
      </Node>
    </BinaryTree>
    <BinaryTree type="DecisionTree" boostWeight="1.0000000000000000e+00" itree="872">
      <Node pos="s" depth="0" NCoef="0" IVar="5" Cut="1.6028520464897156e-01" cType="1" res="1.7619129270315170e-02" rms="4.5759069919586182e-01" purity="5.2265566587448120e-01" nType="0">
        <Node pos="l" depth="1" NCoef="0" IVar="5" Cut="1.2018778920173645e-01" cType="1" res="1.0492058843374252e-01" rms="4.3189460039138794e-01" purity="4.7340270876884460e-01" nType="0">
          <Node pos="l" depth="2" NCoef="0" IVar="-1" Cut="0.0000000000000000e+00" cType="1" res="4.0560201741755009e-03" rms="4.3623596429824829e-01" purity="4.9819812178611755e-01" nType="-99"/>
          <Node pos="r" depth="2" NCoef="0" IVar="-1" Cut="0.0000000000000000e+00" cType="1" res="1.3687432510778308e-03" rms="4.2166858911514282e-01" purity="4.5037016272544861e-01" nType="-99"/>
        </Node>
        <Node pos="r" depth="1" NCoef="0" IVar="0" Cut="7.1804981231689453e+00" cType="1" res="6.5913666039705276e-03" rms="4.5955637097358704e-01" purity="5.2887719869613647e-01" nType="0">
          <Node pos="l" depth="2" NCoef="0" IVar="-1" Cut="0.0000000000000000e+00" cType="1" res="7.5930292950943112e-04" rms="4.6486604213714600e-01" purity="4.4397813081741333e-01" nType="-99"/>
          <Node pos="r" depth="2" NCoef="0" IVar="-1" Cut="0.0000000000000000e+00" cType="1" res="-7.6893414370715618e-04" rms="4.4996300339698792e-01" purity="6.4055311679840088e-01" nType="-99"/>
        </Node>
      </Node>
    </BinaryTree>
    <BinaryTree type="DecisionTree" boostWeight="1.0000000000000000e+00" itree="873">
      <Node pos="s" depth="0" NCoef="0" IVar="4" Cut="2.0762367248535156e+02" cType="1" res="3.0040973797440529e-03" rms="4.6082192659378052e-01" purity="5.0300079584121704e-01" nType="0">
        <Node pos="l" depth="1" NCoef="0" IVar="4" Cut="1.7723147583007812e+02" cType="1" res="-1.3359357602894306e-02" rms="4.5820125937461853e-01" purity="4.9122238159179688e-01" nType="0">
          <Node pos="l" depth="2" NCoef="0" IVar="-1" Cut="0.0000000000000000e+00" cType="1" res="-2.2135469407658093e-05" rms="4.5721420645713806e-01" purity="5.0364089012145996e-01" nType="-99"/>
          <Node pos="r" depth="2" NCoef="0" IVar="-1" Cut="0.0000000000000000e+00" cType="1" res="-4.1241087019443512e-03" rms="4.3774002790451050e-01" purity="3.2239273190498352e-01" nType="-99"/>
        </Node>
        <Node pos="r" depth="1" NCoef="0" IVar="5" Cut="3.4537622332572937e-01" cType="1" res="8.7401710450649261e-02" rms="4.6505373716354370e-01" purity="5.6375050544738770e-01" nType="0">
          <Node pos="l" depth="2" NCoef="0" IVar="-1" Cut="0.0000000000000000e+00" cType="1" res="4.1550723835825920e-03" rms="4.6117478609085083e-01" purity="5.8103924989700317e-01" nType="-99"/>
          <Node pos="r" depth="2" NCoef="0" IVar="-1" Cut="0.0000000000000000e+00" cType="1" res="-1.3192446203902364e-04" rms="4.5214450359344482e-01" purity="5.4360437393188477e-01" nType="-99"/>
        </Node>
      </Node>
    </BinaryTree>
    <BinaryTree type="DecisionTree" boostWeight="1.0000000000000000e+00" itree="874">
      <Node pos="s" depth="0" NCoef="0" IVar="4" Cut="9.1111869812011719e+01" cType="1" res="2.0727818831801414e-02" rms="4.4192388653755188e-01" purity="5.2173775434494019e-01" nType="0">
        <Node pos="l" depth="1" NCoef="0" IVar="4" Cut="2.7580169677734375e+01" cType="1" res="-1.3981166295707226e-02" rms="4.5000529289245605e-01" purity="4.8532095551490784e-01" nType="0">
          <Node pos="l" depth="2" NCoef="0" IVar="-1" Cut="0.0000000000000000e+00" cType="1" res="2.3826605174690485e-03" rms="4.1630032658576965e-01" purity="5.4404670000076294e-01" nType="-99"/>
          <Node pos="r" depth="2" NCoef="0" IVar="-1" Cut="0.0000000000000000e+00" cType="1" res="-1.1150180362164974e-03" rms="4.5383384823799133e-01" purity="4.6826955676078796e-01" nType="-99"/>
        </Node>
        <Node pos="r" depth="1" NCoef="0" IVar="0" Cut="5.1843953132629395e+00" cType="1" res="5.2430450916290283e-02" rms="4.3198102712631226e-01" purity="5.5500030517578125e-01" nType="0">
          <Node pos="l" depth="2" NCoef="0" IVar="-1" Cut="0.0000000000000000e+00" cType="1" res="-2.5134058669209480e-03" rms="3.3728027343750000e-01" purity="1.3192501664161682e-01" nType="-99"/>
          <Node pos="r" depth="2" NCoef="0" IVar="-1" Cut="0.0000000000000000e+00" cType="1" res="1.7481377581134439e-03" rms="4.3926098942756653e-01" purity="6.1003488302230835e-01" nType="-99"/>
        </Node>
      </Node>
    </BinaryTree>
    <BinaryTree type="DecisionTree" boostWeight="1.0000000000000000e+00" itree="875">
      <Node pos="s" depth="0" NCoef="0" IVar="1" Cut="4.2969951629638672e+01" cType="1" res="7.6354127377271652e-03" rms="4.4164639711380005e-01" purity="5.1221370697021484e-01" nType="0">
        <Node pos="l" depth="1" NCoef="0" IVar="2" Cut="9.0261465311050415e-01" cType="1" res="-8.6513541638851166e-02" rms="4.0522626042366028e-01" purity="2.9641008377075195e-01" nType="0">
          <Node pos="l" depth="2" NCoef="0" IVar="-1" Cut="0.0000000000000000e+00" cType="1" res="-2.9958647792227566e-04" rms="4.7524514794349670e-01" purity="4.7233617305755615e-01" nType="-99"/>
          <Node pos="r" depth="2" NCoef="0" IVar="-1" Cut="0.0000000000000000e+00" cType="1" res="-3.9553660899400711e-03" rms="3.2119604945182800e-01" purity="1.4596486091613770e-01" nType="-99"/>
        </Node>
        <Node pos="r" depth="1" NCoef="0" IVar="1" Cut="6.4849899291992188e+01" cType="1" res="2.2857926785945892e-02" rms="4.4539144635200500e-01" purity="5.4710602760314941e-01" nType="0">
          <Node pos="l" depth="2" NCoef="0" IVar="-1" Cut="0.0000000000000000e+00" cType="1" res="1.6425228677690029e-03" rms="4.3786236643791199e-01" purity="5.4481631517410278e-01" nType="-99"/>
          <Node pos="r" depth="2" NCoef="0" IVar="-1" Cut="0.0000000000000000e+00" cType="1" res="9.1360430815257132e-05" rms="4.4686236977577209e-01" purity="5.4800218343734741e-01" nType="-99"/>
        </Node>
      </Node>
    </BinaryTree>
    <BinaryTree type="DecisionTree" boostWeight="1.0000000000000000e+00" itree="876">
      <Node pos="s" depth="0" NCoef="0" IVar="1" Cut="1.5826802062988281e+02" cType="1" res="2.0928515121340752e-02" rms="4.5286536216735840e-01" purity="5.1177752017974854e-01" nType="0">
        <Node pos="l" depth="1" NCoef="0" IVar="6" Cut="5.3297625732421875e+02" cType="1" res="2.6101242750883102e-02" rms="4.5406049489974976e-01" purity="5.1646560430526733e-01" nType="0">
          <Node pos="l" depth="2" NCoef="0" IVar="-1" Cut="0.0000000000000000e+00" cType="1" res="3.6129666841588914e-04" rms="4.5555621385574341e-01" purity="4.8989513516426086e-01" nType="-99"/>
          <Node pos="r" depth="2" NCoef="0" IVar="-1" Cut="0.0000000000000000e+00" cType="1" res="1.8296351190656424e-03" rms="4.4372528791427612e-01" purity="6.3924580812454224e-01" nType="-99"/>
        </Node>
        <Node pos="r" depth="1" NCoef="0" IVar="-1" Cut="0.0000000000000000e+00" cType="1" res="-1.7751094419509172e-03" rms="4.1939178109169006e-01" purity="4.2618259787559509e-01" nType="-99"/>
      </Node>
    </BinaryTree>
    <BinaryTree type="DecisionTree" boostWeight="1.0000000000000000e+00" itree="877">
      <Node pos="s" depth="0" NCoef="0" IVar="5" Cut="2.8491210937500000e-01" cType="1" res="1.7008309951052070e-03" rms="4.5290905237197876e-01" purity="5.0482445955276489e-01" nType="0">
        <Node pos="l" depth="1" NCoef="0" IVar="6" Cut="4.2584469604492188e+02" cType="1" res="-5.8343641459941864e-02" rms="4.3028232455253601e-01" purity="3.6745864152908325e-01" nType="0">
          <Node pos="l" depth="2" NCoef="0" IVar="-1" Cut="0.0000000000000000e+00" cType="1" res="-2.9249694198369980e-03" rms="3.8772431015968323e-01" purity="2.4596762657165527e-01" nType="-99"/>
          <Node pos="r" depth="2" NCoef="0" IVar="-1" Cut="0.0000000000000000e+00" cType="1" res="-6.9925561547279358e-05" rms="4.5910993218421936e-01" purity="4.7931295633316040e-01" nType="-99"/>
        </Node>
        <Node pos="r" depth="1" NCoef="0" IVar="6" Cut="5.6402496337890625e+02" cType="1" res="3.1433012336492538e-02" rms="4.6081739664077759e-01" purity="5.7284384965896606e-01" nType="0">
          <Node pos="l" depth="2" NCoef="0" IVar="-1" Cut="0.0000000000000000e+00" cType="1" res="1.1178362183272839e-03" rms="4.5711851119995117e-01" purity="5.8112603425979614e-01" nType="-99"/>
          <Node pos="r" depth="2" NCoef="0" IVar="-1" Cut="0.0000000000000000e+00" cType="1" res="-1.8310692394152284e-03" rms="4.7090187668800354e-01" purity="5.1702195405960083e-01" nType="-99"/>
        </Node>
      </Node>
    </BinaryTree>
    <BinaryTree type="DecisionTree" boostWeight="1.0000000000000000e+00" itree="878">
      <Node pos="s" depth="0" NCoef="0" IVar="3" Cut="2.5236139297485352e+00" cType="1" res="2.4475941434502602e-02" rms="4.2890995740890503e-01" purity="5.3836941719055176e-01" nType="0">
        <Node pos="l" depth="1" NCoef="0" IVar="0" Cut="6.1456079483032227e+00" cType="1" res="4.0196098387241364e-02" rms="4.3321347236633301e-01" purity="5.9510099887847900e-01" nType="0">
          <Node pos="l" depth="2" NCoef="0" IVar="-1" Cut="0.0000000000000000e+00" cType="1" res="-2.6630316278897226e-04" rms="4.3870699405670166e-01" purity="3.4999519586563110e-01" nType="-99"/>
          <Node pos="r" depth="2" NCoef="0" IVar="-1" Cut="0.0000000000000000e+00" cType="1" res="1.5079815639182925e-03" rms="4.2911452054977417e-01" purity="6.9503402709960938e-01" nType="-99"/>
        </Node>
        <Node pos="r" depth="1" NCoef="0" IVar="2" Cut="1.4372808933258057e+00" cType="1" res="-7.1228742599487305e-02" rms="3.8821706175804138e-01" purity="1.9298641383647919e-01" nType="0">
          <Node pos="l" depth="2" NCoef="0" IVar="-1" Cut="0.0000000000000000e+00" cType="1" res="-3.4300854895263910e-03" rms="3.8987970352172852e-01" purity="1.8274152278900146e-01" nType="-99"/>
          <Node pos="r" depth="2" NCoef="0" IVar="-1" Cut="0.0000000000000000e+00" cType="1" res="-5.7544489391148090e-04" rms="3.7863186001777649e-01" purity="2.0013886690139771e-01" nType="-99"/>
        </Node>
      </Node>
    </BinaryTree>
    <BinaryTree type="DecisionTree" boostWeight="1.0000000000000000e+00" itree="879">
      <Node pos="s" depth="0" NCoef="0" IVar="5" Cut="3.1352362036705017e-01" cType="1" res="-2.8600553050637245e-02" rms="4.5333078503608704e-01" purity="4.6989697217941284e-01" nType="0">
        <Node pos="l" depth="1" NCoef="0" IVar="3" Cut="1.8827672004699707e+00" cType="1" res="2.3860859218984842e-03" rms="4.5035147666931152e-01" purity="4.3041437864303589e-01" nType="0">
          <Node pos="l" depth="2" NCoef="0" IVar="-1" Cut="0.0000000000000000e+00" cType="1" res="-2.6886682026088238e-03" rms="4.6709758043289185e-01" purity="3.6108508706092834e-01" nType="-99"/>
          <Node pos="r" depth="2" NCoef="0" IVar="-1" Cut="0.0000000000000000e+00" cType="1" res="5.3866469534114003e-04" rms="4.4435834884643555e-01" purity="4.4121295213699341e-01" nType="-99"/>
        </Node>
        <Node pos="r" depth="1" NCoef="0" IVar="2" Cut="5.8916085958480835e-01" cType="1" res="-4.7151785343885422e-02" rms="4.5409432053565979e-01" purity="4.9353462457656860e-01" nType="0">
          <Node pos="l" depth="2" NCoef="0" IVar="-1" Cut="0.0000000000000000e+00" cType="1" res="1.8080229638144374e-03" rms="4.1959369182586670e-01" purity="7.5990635156631470e-01" nType="-99"/>
          <Node pos="r" depth="2" NCoef="0" IVar="-1" Cut="0.0000000000000000e+00" cType="1" res="-1.6109331045299768e-03" rms="4.5721754431724548e-01" purity="4.3855705857276917e-01" nType="-99"/>
        </Node>
      </Node>
    </BinaryTree>
    <BinaryTree type="DecisionTree" boostWeight="1.0000000000000000e+00" itree="880">
      <Node pos="s" depth="0" NCoef="0" IVar="2" Cut="5.5508220195770264e-01" cType="1" res="-1.8480842933058739e-02" rms="4.4487744569778442e-01" purity="4.9409064650535583e-01" nType="0">
        <Node pos="l" depth="1" NCoef="0" IVar="6" Cut="4.5546493530273438e+02" cType="1" res="7.0277847349643707e-02" rms="4.0895313024520874e-01" purity="7.4863511323928833e-01" nType="0">
          <Node pos="l" depth="2" NCoef="0" IVar="-1" Cut="0.0000000000000000e+00" cType="1" res="3.9277435280382633e-03" rms="3.4102931618690491e-01" purity="8.2250630855560303e-01" nType="-99"/>
          <Node pos="r" depth="2" NCoef="0" IVar="-1" Cut="0.0000000000000000e+00" cType="1" res="-5.6816678261384368e-04" rms="4.5000106096267700e-01" purity="6.7358428239822388e-01" nType="-99"/>
        </Node>
        <Node pos="r" depth="1" NCoef="0" IVar="5" Cut="2.8992751240730286e-01" cType="1" res="-3.0506789684295654e-02" rms="4.4817388057708740e-01" purity="4.5960235595703125e-01" nType="0">
          <Node pos="l" depth="2" NCoef="0" IVar="-1" Cut="0.0000000000000000e+00" cType="1" res="6.4725341508165002e-04" rms="4.4367560744285583e-01" purity="4.3437904119491577e-01" nType="-99"/>
          <Node pos="r" depth="2" NCoef="0" IVar="-1" Cut="0.0000000000000000e+00" cType="1" res="-1.3391965767368674e-03" rms="4.4768106937408447e-01" purity="4.7220003604888916e-01" nType="-99"/>
        </Node>
      </Node>
    </BinaryTree>
    <BinaryTree type="DecisionTree" boostWeight="1.0000000000000000e+00" itree="881">
      <Node pos="s" depth="0" NCoef="0" IVar="1" Cut="1.0587117004394531e+02" cType="1" res="3.4896067809313536e-03" rms="4.4342505931854248e-01" purity="5.1251190900802612e-01" nType="0">
        <Node pos="l" depth="1" NCoef="0" IVar="6" Cut="2.9944235229492188e+02" cType="1" res="-1.5750711783766747e-02" rms="4.4430890679359436e-01" purity="4.6890777349472046e-01" nType="0">
          <Node pos="l" depth="2" NCoef="0" IVar="-1" Cut="0.0000000000000000e+00" cType="1" res="1.6960110515356064e-03" rms="4.3516153097152710e-01" purity="4.3873241543769836e-01" nType="-99"/>
          <Node pos="r" depth="2" NCoef="0" IVar="-1" Cut="0.0000000000000000e+00" cType="1" res="-8.5416750516742468e-04" rms="4.4398728013038635e-01" purity="4.7672414779663086e-01" nType="-99"/>
        </Node>
        <Node pos="r" depth="1" NCoef="0" IVar="0" Cut="7.0828838348388672e+00" cType="1" res="5.0918601453304291e-02" rms="4.3764090538024902e-01" purity="6.1999976634979248e-01" nType="0">
          <Node pos="l" depth="2" NCoef="0" IVar="-1" Cut="0.0000000000000000e+00" cType="1" res="3.2533761113882065e-03" rms="4.4736909866333008e-01" purity="5.6984937191009521e-01" nType="-99"/>
          <Node pos="r" depth="2" NCoef="0" IVar="-1" Cut="0.0000000000000000e+00" cType="1" res="-1.1376113398000598e-03" rms="4.0769341588020325e-01" purity="6.7167288064956665e-01" nType="-99"/>
        </Node>
      </Node>
    </BinaryTree>
    <BinaryTree type="DecisionTree" boostWeight="1.0000000000000000e+00" itree="882">
      <Node pos="s" depth="0" NCoef="0" IVar="1" Cut="1.4812097167968750e+02" cType="1" res="-2.6679743081331253e-02" rms="4.5074960589408875e-01" purity="4.8846143484115601e-01" nType="0">
        <Node pos="l" depth="1" NCoef="0" IVar="1" Cut="1.0844355773925781e+02" cType="1" res="-1.8219614401459694e-02" rms="4.4941142201423645e-01" purity="4.9767103791236877e-01" nType="0">
          <Node pos="l" depth="2" NCoef="0" IVar="-1" Cut="0.0000000000000000e+00" cType="1" res="-7.3038128903135657e-04" rms="4.5365512371063232e-01" purity="4.6705853939056396e-01" nType="-99"/>
          <Node pos="r" depth="2" NCoef="0" IVar="-1" Cut="0.0000000000000000e+00" cType="1" res="1.1382098309695721e-03" rms="4.2349857091903687e-01" purity="6.3939458131790161e-01" nType="-99"/>
        </Node>
        <Node pos="r" depth="1" NCoef="0" IVar="-1" Cut="0.0000000000000000e+00" cType="1" res="-3.5485078115016222e-03" rms="4.5299464464187622e-01" purity="3.6163040995597839e-01" nType="-99"/>
      </Node>
    </BinaryTree>
    <BinaryTree type="DecisionTree" boostWeight="1.0000000000000000e+00" itree="883">
      <Node pos="s" depth="0" NCoef="0" IVar="2" Cut="7.4552714824676514e-01" cType="1" res="-1.8776001408696175e-02" rms="4.2884740233421326e-01" purity="4.8434862494468689e-01" nType="0">
        <Node pos="l" depth="1" NCoef="0" IVar="5" Cut="6.1401027441024780e-01" cType="1" res="4.1772525757551193e-02" rms="4.1330206394195557e-01" purity="6.9532638788223267e-01" nType="0">
          <Node pos="l" depth="2" NCoef="0" IVar="-1" Cut="0.0000000000000000e+00" cType="1" res="2.4163746275007725e-04" rms="4.1924279928207397e-01" purity="6.5529805421829224e-01" nType="-99"/>
          <Node pos="r" depth="2" NCoef="0" IVar="-1" Cut="0.0000000000000000e+00" cType="1" res="4.0970467962324619e-03" rms="3.7089121341705322e-01" purity="8.3585494756698608e-01" nType="-99"/>
        </Node>
        <Node pos="r" depth="1" NCoef="0" IVar="5" Cut="6.1538600921630859e-01" cType="1" res="-4.4263221323490143e-02" rms="4.3269848823547363e-01" purity="3.9553990960121155e-01" nType="0">
          <Node pos="l" depth="2" NCoef="0" IVar="-1" Cut="0.0000000000000000e+00" cType="1" res="-7.0434209192171693e-04" rms="4.2561119794845581e-01" purity="3.9158853888511658e-01" nType="-99"/>
          <Node pos="r" depth="2" NCoef="0" IVar="-1" Cut="0.0000000000000000e+00" cType="1" res="-2.8058642055839300e-03" rms="4.6376886963844299e-01" purity="4.1893488168716431e-01" nType="-99"/>
        </Node>
      </Node>
    </BinaryTree>
    <BinaryTree type="DecisionTree" boostWeight="1.0000000000000000e+00" itree="884">
      <Node pos="s" depth="0" NCoef="0" IVar="5" Cut="2.3048689961433411e-01" cType="1" res="-1.0266409954056144e-03" rms="4.4323518872261047e-01" purity="5.0200712680816650e-01" nType="0">
        <Node pos="l" depth="1" NCoef="0" IVar="0" Cut="7.8146367073059082e+00" cType="1" res="-7.8027129173278809e-02" rms="4.1197714209556580e-01" purity="3.2549461722373962e-01" nType="0">
          <Node pos="l" depth="2" NCoef="0" IVar="-1" Cut="0.0000000000000000e+00" cType="1" res="-3.1411626841872931e-03" rms="3.9477303624153137e-01" purity="2.2456580400466919e-01" nType="-99"/>
          <Node pos="r" depth="2" NCoef="0" IVar="-1" Cut="0.0000000000000000e+00" cType="1" res="2.2583571262657642e-03" rms="4.1905188560485840e-01" purity="6.4218622446060181e-01" nType="-99"/>
        </Node>
        <Node pos="r" depth="1" NCoef="0" IVar="2" Cut="1.5081737041473389e+00" cType="1" res="1.9796688109636307e-02" rms="4.4905418157577515e-01" purity="5.4974162578582764e-01" nType="0">
          <Node pos="l" depth="2" NCoef="0" IVar="-1" Cut="0.0000000000000000e+00" cType="1" res="6.8869430106133223e-04" rms="4.5739644765853882e-01" purity="5.8236652612686157e-01" nType="-99"/>
          <Node pos="r" depth="2" NCoef="0" IVar="-1" Cut="0.0000000000000000e+00" cType="1" res="-2.4349489249289036e-03" rms="3.1834024190902710e-01" purity="1.7465896904468536e-01" nType="-99"/>
        </Node>
      </Node>
    </BinaryTree>
    <BinaryTree type="DecisionTree" boostWeight="1.0000000000000000e+00" itree="885">
      <Node pos="s" depth="0" NCoef="0" IVar="0" Cut="6.6455526351928711e+00" cType="1" res="1.3560807332396507e-02" rms="4.5516210794448853e-01" purity="5.3051984310150146e-01" nType="0">
        <Node pos="l" depth="1" NCoef="0" IVar="6" Cut="6.1519317626953125e+02" cType="1" res="5.9617973864078522e-02" rms="4.5785698294639587e-01" purity="4.4020479917526245e-01" nType="0">
          <Node pos="l" depth="2" NCoef="0" IVar="-1" Cut="0.0000000000000000e+00" cType="1" res="9.2659896472468972e-04" rms="4.6258506178855896e-01" purity="4.0636709332466125e-01" nType="-99"/>
          <Node pos="r" depth="2" NCoef="0" IVar="-1" Cut="0.0000000000000000e+00" cType="1" res="4.6213790774345398e-03" rms="3.9358928799629211e-01" purity="6.9257974624633789e-01" nType="-99"/>
        </Node>
        <Node pos="r" depth="1" NCoef="0" IVar="1" Cut="1.1255635070800781e+02" cType="1" res="-2.2489516064524651e-02" rms="4.4976291060447693e-01" purity="6.0121220350265503e-01" nType="0">
          <Node pos="l" depth="2" NCoef="0" IVar="-1" Cut="0.0000000000000000e+00" cType="1" res="-9.0851302957162261e-04" rms="4.5732143521308899e-01" purity="5.7873547077178955e-01" nType="-99"/>
          <Node pos="r" depth="2" NCoef="0" IVar="-1" Cut="0.0000000000000000e+00" cType="1" res="1.0510564316064119e-03" rms="4.1066455841064453e-01" purity="6.9584321975708008e-01" nType="-99"/>
        </Node>
      </Node>
    </BinaryTree>
    <BinaryTree type="DecisionTree" boostWeight="1.0000000000000000e+00" itree="886">
      <Node pos="s" depth="0" NCoef="0" IVar="4" Cut="3.4129931640625000e+02" cType="1" res="2.9946865979582071e-03" rms="4.4206243753433228e-01" purity="4.9288144707679749e-01" nType="0">
        <Node pos="l" depth="1" NCoef="0" IVar="4" Cut="3.5643482208251953e+01" cType="1" res="8.8106021285057068e-03" rms="4.4413974881172180e-01" purity="5.0146591663360596e-01" nType="0">
          <Node pos="l" depth="2" NCoef="0" IVar="-1" Cut="0.0000000000000000e+00" cType="1" res="-8.5404521087184548e-04" rms="4.2731863260269165e-01" purity="4.2321881651878357e-01" nType="-99"/>
          <Node pos="r" depth="2" NCoef="0" IVar="-1" Cut="0.0000000000000000e+00" cType="1" res="5.7510408805683255e-04" rms="4.4854277372360229e-01" purity="5.2747529745101929e-01" nType="-99"/>
        </Node>
        <Node pos="r" depth="1" NCoef="0" IVar="-1" Cut="0.0000000000000000e+00" cType="1" res="-2.4652895517647266e-03" rms="3.8832053542137146e-01" purity="3.3857744932174683e-01" nType="-99"/>
      </Node>
    </BinaryTree>
    <BinaryTree type="DecisionTree" boostWeight="1.0000000000000000e+00" itree="887">
      <Node pos="s" depth="0" NCoef="0" IVar="5" Cut="1.5741415321826935e-01" cType="1" res="-2.7356183156371117e-02" rms="4.5220521092414856e-01" purity="4.7616896033287048e-01" nType="0">
        <Node pos="l" depth="1" NCoef="0" IVar="1" Cut="8.0180397033691406e+01" cType="1" res="6.4580656588077545e-02" rms="4.3232503533363342e-01" purity="4.2360311746597290e-01" nType="0">
          <Node pos="l" depth="2" NCoef="0" IVar="-1" Cut="0.0000000000000000e+00" cType="1" res="9.4991945661604404e-04" rms="4.6508327126502991e-01" purity="3.5847902297973633e-01" nType="-99"/>
          <Node pos="r" depth="2" NCoef="0" IVar="-1" Cut="0.0000000000000000e+00" cType="1" res="2.3003094829618931e-03" rms="3.9721563458442688e-01" purity="4.8501411080360413e-01" nType="-99"/>
        </Node>
        <Node pos="r" depth="1" NCoef="0" IVar="3" Cut="2.5055248737335205e+00" cType="1" res="-3.8707915693521500e-02" rms="4.5330816507339478e-01" purity="4.8265936970710754e-01" nType="0">
          <Node pos="l" depth="2" NCoef="0" IVar="-1" Cut="0.0000000000000000e+00" cType="1" res="-6.8438099697232246e-04" rms="4.6474596858024597e-01" purity="5.2778959274291992e-01" nType="-99"/>
          <Node pos="r" depth="2" NCoef="0" IVar="-1" Cut="0.0000000000000000e+00" cType="1" res="-2.6378480251878500e-03" rms="3.5376331210136414e-01" purity="1.5748503804206848e-01" nType="-99"/>
        </Node>
      </Node>
    </BinaryTree>
    <BinaryTree type="DecisionTree" boostWeight="1.0000000000000000e+00" itree="888">
      <Node pos="s" depth="0" NCoef="0" IVar="5" Cut="7.0714896917343140e-01" cType="1" res="-9.8366662859916687e-03" rms="4.5215466618537903e-01" purity="4.8260328173637390e-01" nType="0">
        <Node pos="l" depth="1" NCoef="0" IVar="0" Cut="8.3946027755737305e+00" cType="1" res="-1.9056949764490128e-02" rms="4.5129933953285217e-01" purity="4.6700757741928101e-01" nType="0">
          <Node pos="l" depth="2" NCoef="0" IVar="-1" Cut="0.0000000000000000e+00" cType="1" res="-1.8658192129805684e-04" rms="4.5025980472564697e-01" purity="4.3704423308372498e-01" nType="-99"/>
          <Node pos="r" depth="2" NCoef="0" IVar="-1" Cut="0.0000000000000000e+00" cType="1" res="-2.2681923583149910e-03" rms="4.5228737592697144e-01" purity="6.3635134696960449e-01" nType="-99"/>
        </Node>
        <Node pos="r" depth="1" NCoef="0" IVar="-1" Cut="0.0000000000000000e+00" cType="1" res="3.3825789578258991e-03" rms="4.3857800960540771e-01" purity="7.4210184812545776e-01" nType="-99"/>
      </Node>
    </BinaryTree>
    <BinaryTree type="DecisionTree" boostWeight="1.0000000000000000e+00" itree="889">
      <Node pos="s" depth="0" NCoef="0" IVar="5" Cut="5.4048120975494385e-01" cType="1" res="1.5711952000856400e-02" rms="4.4970560073852539e-01" purity="5.0663387775421143e-01" nType="0">
        <Node pos="l" depth="1" NCoef="0" IVar="0" Cut="6.1681866645812988e+00" cType="1" res="-8.5286116227507591e-03" rms="4.4404780864715576e-01" purity="4.5728665590286255e-01" nType="0">
          <Node pos="l" depth="2" NCoef="0" IVar="-1" Cut="0.0000000000000000e+00" cType="1" res="-1.3735259417444468e-03" rms="4.2063304781913757e-01" purity="2.4434842169284821e-01" nType="-99"/>
          <Node pos="r" depth="2" NCoef="0" IVar="-1" Cut="0.0000000000000000e+00" cType="1" res="3.9800006197765470e-04" rms="4.5341980457305908e-01" purity="5.6566709280014038e-01" nType="-99"/>
        </Node>
        <Node pos="r" depth="1" NCoef="0" IVar="0" Cut="7.9240860939025879e+00" cType="1" res="8.4829956293106079e-02" rms="4.5847651362419128e-01" purity="6.4733910560607910e-01" nType="0">
          <Node pos="l" depth="2" NCoef="0" IVar="-1" Cut="0.0000000000000000e+00" cType="1" res="2.4266520049422979e-03" rms="4.6983632445335388e-01" purity="6.1776125431060791e-01" nType="-99"/>
          <Node pos="r" depth="2" NCoef="0" IVar="-1" Cut="0.0000000000000000e+00" cType="1" res="2.9549410101026297e-04" rms="4.0988835692405701e-01" purity="7.4552559852600098e-01" nType="-99"/>
        </Node>
      </Node>
    </BinaryTree>
    <BinaryTree type="DecisionTree" boostWeight="1.0000000000000000e+00" itree="890">
      <Node pos="s" depth="0" NCoef="0" IVar="6" Cut="4.2914627075195312e+02" cType="1" res="9.4768479466438293e-03" rms="4.4882929325103760e-01" purity="5.1886588335037231e-01" nType="0">
        <Node pos="l" depth="1" NCoef="0" IVar="1" Cut="8.9980209350585938e+01" cType="1" res="3.4534912556409836e-02" rms="4.5185706019401550e-01" purity="5.0920385122299194e-01" nType="0">
          <Node pos="l" depth="2" NCoef="0" IVar="-1" Cut="0.0000000000000000e+00" cType="1" res="3.4823853638954461e-04" rms="4.5516407489776611e-01" purity="4.8700183629989624e-01" nType="-99"/>
          <Node pos="r" depth="2" NCoef="0" IVar="-1" Cut="0.0000000000000000e+00" cType="1" res="2.4499616120010614e-03" rms="4.3427646160125732e-01" purity="5.8351284265518188e-01" nType="-99"/>
        </Node>
        <Node pos="r" depth="1" NCoef="0" IVar="2" Cut="6.1561989784240723e-01" cType="1" res="-2.7845054864883423e-02" rms="4.4165357947349548e-01" purity="5.3325670957565308e-01" nType="0">
          <Node pos="l" depth="2" NCoef="0" IVar="-1" Cut="0.0000000000000000e+00" cType="1" res="2.0181334111839533e-03" rms="4.0751773118972778e-01" purity="7.8090429306030273e-01" nType="-99"/>
          <Node pos="r" depth="2" NCoef="0" IVar="-1" Cut="0.0000000000000000e+00" cType="1" res="-1.1362467193976045e-03" rms="4.4570454955101013e-01" purity="4.8223906755447388e-01" nType="-99"/>
        </Node>
      </Node>
    </BinaryTree>
    <BinaryTree type="DecisionTree" boostWeight="1.0000000000000000e+00" itree="891">
      <Node pos="s" depth="0" NCoef="0" IVar="2" Cut="6.5972858667373657e-01" cType="1" res="-4.5812709140591323e-04" rms="4.4452980160713196e-01" purity="4.8621627688407898e-01" nType="0">
        <Node pos="l" depth="1" NCoef="0" IVar="0" Cut="6.4479174613952637e+00" cType="1" res="-6.5317898988723755e-02" rms="4.7301971912384033e-01" purity="5.9303826093673706e-01" nType="0">
          <Node pos="l" depth="2" NCoef="0" IVar="-1" Cut="0.0000000000000000e+00" cType="1" res="8.0949062248691916e-04" rms="4.5820716023445129e-01" purity="5.4434597492218018e-01" nType="-99"/>
          <Node pos="r" depth="2" NCoef="0" IVar="-1" Cut="0.0000000000000000e+00" cType="1" res="-3.2380926422774792e-03" rms="4.7140154242515564e-01" purity="6.1846548318862915e-01" nType="-99"/>
        </Node>
        <Node pos="r" depth="1" NCoef="0" IVar="0" Cut="6.5521788597106934e+00" cType="1" res="1.1442463845014572e-02" rms="4.3806034326553345e-01" purity="4.6661642193794250e-01" nType="0">
          <Node pos="l" depth="2" NCoef="0" IVar="-1" Cut="0.0000000000000000e+00" cType="1" res="-4.6444538747891784e-04" rms="4.2944034934043884e-01" purity="2.8422194719314575e-01" nType="-99"/>
          <Node pos="r" depth="2" NCoef="0" IVar="-1" Cut="0.0000000000000000e+00" cType="1" res="8.4153859643265605e-04" rms="4.4331228733062744e-01" purity="6.1185413599014282e-01" nType="-99"/>
        </Node>
      </Node>
    </BinaryTree>
    <BinaryTree type="DecisionTree" boostWeight="1.0000000000000000e+00" itree="892">
      <Node pos="s" depth="0" NCoef="0" IVar="2" Cut="8.0900210142135620e-01" cType="1" res="-6.0787592083215714e-03" rms="4.5219120383262634e-01" purity="4.8794788122177124e-01" nType="0">
        <Node pos="l" depth="1" NCoef="0" IVar="5" Cut="3.1006997823715210e-01" cType="1" res="-4.5581497251987457e-02" rms="4.6695807576179504e-01" purity="5.9830468893051147e-01" nType="0">
          <Node pos="l" depth="2" NCoef="0" IVar="-1" Cut="0.0000000000000000e+00" cType="1" res="7.7523046638816595e-04" rms="4.5881494879722595e-01" purity="6.2356066703796387e-01" nType="-99"/>
          <Node pos="r" depth="2" NCoef="0" IVar="-1" Cut="0.0000000000000000e+00" cType="1" res="-1.7477211076766253e-03" rms="4.6664577722549438e-01" purity="5.8947026729583740e-01" nType="-99"/>
        </Node>
        <Node pos="r" depth="1" NCoef="0" IVar="5" Cut="3.9503663778305054e-01" cType="1" res="1.0910745710134506e-02" rms="4.4461172819137573e-01" purity="4.4048517942428589e-01" nType="0">
          <Node pos="l" depth="2" NCoef="0" IVar="-1" Cut="0.0000000000000000e+00" cType="1" res="-6.6252518445253372e-04" rms="4.2667847871780396e-01" purity="3.4833413362503052e-01" nType="-99"/>
          <Node pos="r" depth="2" NCoef="0" IVar="-1" Cut="0.0000000000000000e+00" cType="1" res="1.3778869761154056e-03" rms="4.6212449669837952e-01" purity="5.6003749370574951e-01" nType="-99"/>
        </Node>
      </Node>
    </BinaryTree>
    <BinaryTree type="DecisionTree" boostWeight="1.0000000000000000e+00" itree="893">
      <Node pos="s" depth="0" NCoef="0" IVar="4" Cut="3.3225476074218750e+02" cType="1" res="3.2840728759765625e-02" rms="4.3792316317558289e-01" purity="5.3314465284347534e-01" nType="0">
        <Node pos="l" depth="1" NCoef="0" IVar="0" Cut="6.1496357917785645e+00" cType="1" res="4.4733345508575439e-02" rms="4.3980008363723755e-01" purity="5.5711221694946289e-01" nType="0">
          <Node pos="l" depth="2" NCoef="0" IVar="-1" Cut="0.0000000000000000e+00" cType="1" res="-3.3768770663300529e-05" rms="4.4355031847953796e-01" purity="3.2658988237380981e-01" nType="-99"/>
          <Node pos="r" depth="2" NCoef="0" IVar="-1" Cut="0.0000000000000000e+00" cType="1" res="1.6030544647946954e-03" rms="4.3656602501869202e-01" purity="6.5929394960403442e-01" nType="-99"/>
        </Node>
        <Node pos="r" depth="1" NCoef="0" IVar="-1" Cut="0.0000000000000000e+00" cType="1" res="-2.6768096722662449e-03" rms="3.9052158594131470e-01" purity="2.5755062699317932e-01" nType="-99"/>
      </Node>
    </BinaryTree>
    <BinaryTree type="DecisionTree" boostWeight="1.0000000000000000e+00" itree="894">
      <Node pos="s" depth="0" NCoef="0" IVar="3" Cut="2.2009742259979248e+00" cType="1" res="4.0763956494629383e-03" rms="4.4019934535026550e-01" purity="5.0901919603347778e-01" nType="0">
        <Node pos="l" depth="1" NCoef="0" IVar="0" Cut="5.2069673538208008e+00" cType="1" res="2.5743076577782631e-02" rms="4.4402790069580078e-01" purity="6.1225032806396484e-01" nType="0">
          <Node pos="l" depth="2" NCoef="0" IVar="-1" Cut="0.0000000000000000e+00" cType="1" res="-1.9625071436166763e-03" rms="4.2085137963294983e-01" purity="2.2359758615493774e-01" nType="-99"/>
          <Node pos="r" depth="2" NCoef="0" IVar="-1" Cut="0.0000000000000000e+00" cType="1" res="9.1807963326573372e-04" rms="4.4459700584411621e-01" purity="6.5492242574691772e-01" nType="-99"/>
        </Node>
        <Node pos="r" depth="1" NCoef="0" IVar="3" Cut="2.3755497932434082e+00" cType="1" res="-2.7105381712317467e-02" rms="4.3273031711578369e-01" purity="3.6045318841934204e-01" nType="0">
          <Node pos="l" depth="2" NCoef="0" IVar="-1" Cut="0.0000000000000000e+00" cType="1" res="-1.5241575893014669e-03" rms="4.3552288413047791e-01" purity="4.3803083896636963e-01" nType="-99"/>
          <Node pos="r" depth="2" NCoef="0" IVar="-1" Cut="0.0000000000000000e+00" cType="1" res="1.0415160795673728e-04" rms="4.2796868085861206e-01" purity="2.9847589135169983e-01" nType="-99"/>
        </Node>
      </Node>
    </BinaryTree>
    <BinaryTree type="DecisionTree" boostWeight="1.0000000000000000e+00" itree="895">
      <Node pos="s" depth="0" NCoef="0" IVar="6" Cut="4.6219812011718750e+02" cType="1" res="-4.6445839107036591e-03" rms="4.4758057594299316e-01" purity="5.0143784284591675e-01" nType="0">
        <Node pos="l" depth="1" NCoef="0" IVar="1" Cut="7.7389198303222656e+01" cType="1" res="2.3554699495434761e-02" rms="4.5063883066177368e-01" purity="5.0285625457763672e-01" nType="0">
          <Node pos="l" depth="2" NCoef="0" IVar="-1" Cut="0.0000000000000000e+00" cType="1" res="-2.2531958529725671e-04" rms="4.5557716488838196e-01" purity="4.4700017571449280e-01" nType="-99"/>
          <Node pos="r" depth="2" NCoef="0" IVar="-1" Cut="0.0000000000000000e+00" cType="1" res="1.9587932620197535e-03" rms="4.3635249137878418e-01" purity="5.9748095273971558e-01" nType="-99"/>
        </Node>
        <Node pos="r" depth="1" NCoef="0" IVar="2" Cut="6.4503812789916992e-01" cType="1" res="-6.1829127371311188e-02" rms="4.3574672937393188e-01" purity="4.9856147170066833e-01" nType="0">
          <Node pos="l" depth="2" NCoef="0" IVar="-1" Cut="0.0000000000000000e+00" cType="1" res="1.8560725729912519e-03" rms="3.6682975292205811e-01" purity="7.6781046390533447e-01" nType="-99"/>
          <Node pos="r" depth="2" NCoef="0" IVar="-1" Cut="0.0000000000000000e+00" cType="1" res="-2.2080536000430584e-03" rms="4.4601944088935852e-01" purity="4.2552375793457031e-01" nType="-99"/>
        </Node>
      </Node>
    </BinaryTree>
    <BinaryTree type="DecisionTree" boostWeight="1.0000000000000000e+00" itree="896">
      <Node pos="s" depth="0" NCoef="0" IVar="5" Cut="6.8763160705566406e-01" cType="1" res="-4.7034090384840965e-03" rms="4.5629972219467163e-01" purity="5.0489622354507446e-01" nType="0">
        <Node pos="l" depth="1" NCoef="0" IVar="6" Cut="4.3360253906250000e+02" cType="1" res="2.6492862962186337e-03" rms="4.5339706540107727e-01" purity="5.0621050596237183e-01" nType="0">
          <Node pos="l" depth="2" NCoef="0" IVar="-1" Cut="0.0000000000000000e+00" cType="1" res="7.2591140633448958e-04" rms="4.5046970248222351e-01" purity="4.9921739101409912e-01" nType="-99"/>
          <Node pos="r" depth="2" NCoef="0" IVar="-1" Cut="0.0000000000000000e+00" cType="1" res="-8.0179917858913541e-04" rms="4.5455920696258545e-01" purity="5.1535052061080933e-01" nType="-99"/>
        </Node>
        <Node pos="r" depth="1" NCoef="0" IVar="-1" Cut="0.0000000000000000e+00" cType="1" res="-2.3852188605815172e-03" rms="4.8310816287994385e-01" purity="4.8701336979866028e-01" nType="-99"/>
      </Node>
    </BinaryTree>
    <BinaryTree type="DecisionTree" boostWeight="1.0000000000000000e+00" itree="897">
      <Node pos="s" depth="0" NCoef="0" IVar="5" Cut="3.0016383528709412e-01" cType="1" res="-2.4473028257489204e-02" rms="4.5190444588661194e-01" purity="4.7785645723342896e-01" nType="0">
        <Node pos="l" depth="1" NCoef="0" IVar="5" Cut="2.1617878973484039e-01" cType="1" res="2.0088572055101395e-02" rms="4.3316283822059631e-01" purity="4.4202131032943726e-01" nType="0">
          <Node pos="l" depth="2" NCoef="0" IVar="-1" Cut="0.0000000000000000e+00" cType="1" res="-6.6283333580940962e-04" rms="4.4049906730651855e-01" purity="3.7181955575942993e-01" nType="-99"/>
          <Node pos="r" depth="2" NCoef="0" IVar="-1" Cut="0.0000000000000000e+00" cType="1" res="2.5123714003711939e-03" rms="4.0866154432296753e-01" purity="5.5695921182632446e-01" nType="-99"/>
        </Node>
        <Node pos="r" depth="1" NCoef="0" IVar="6" Cut="4.2641711425781250e+02" cType="1" res="-4.6790100634098053e-02" rms="4.5938262343406677e-01" purity="4.9580320715904236e-01" nType="0">
          <Node pos="l" depth="2" NCoef="0" IVar="-1" Cut="0.0000000000000000e+00" cType="1" res="-1.4594730455428362e-03" rms="4.7096952795982361e-01" purity="4.4029575586318970e-01" nType="-99"/>
          <Node pos="r" depth="2" NCoef="0" IVar="-1" Cut="0.0000000000000000e+00" cType="1" res="-3.2325903885066509e-04" rms="4.3712139129638672e-01" purity="5.8956897258758545e-01" nType="-99"/>
        </Node>
      </Node>
    </BinaryTree>
    <BinaryTree type="DecisionTree" boostWeight="1.0000000000000000e+00" itree="898">
      <Node pos="s" depth="0" NCoef="0" IVar="1" Cut="1.5506533813476562e+02" cType="1" res="2.8049617540091276e-03" rms="4.4454717636108398e-01" purity="5.0579935312271118e-01" nType="0">
        <Node pos="l" depth="1" NCoef="0" IVar="3" Cut="1.9478969573974609e+00" cType="1" res="1.1083491146564484e-02" rms="4.4410729408264160e-01" purity="5.1707059144973755e-01" nType="0">
          <Node pos="l" depth="2" NCoef="0" IVar="-1" Cut="0.0000000000000000e+00" cType="1" res="1.7909668385982513e-03" rms="4.4829612970352173e-01" purity="6.5615624189376831e-01" nType="-99"/>
          <Node pos="r" depth="2" NCoef="0" IVar="-1" Cut="0.0000000000000000e+00" cType="1" res="-1.4602170267608017e-04" rms="4.4136145710945129e-01" purity="4.8148390650749207e-01" nType="-99"/>
        </Node>
        <Node pos="r" depth="1" NCoef="0" IVar="-1" Cut="0.0000000000000000e+00" cType="1" res="-3.6384521517902613e-03" rms="4.2398431897163391e-01" purity="2.9541778564453125e-01" nType="-99"/>
      </Node>
    </BinaryTree>
    <BinaryTree type="DecisionTree" boostWeight="1.0000000000000000e+00" itree="899">
      <Node pos="s" depth="0" NCoef="0" IVar="4" Cut="8.8268348693847656e+01" cType="1" res="3.2129713799804449e-03" rms="4.5130303502082825e-01" purity="5.0145119428634644e-01" nType="0">
        <Node pos="l" depth="1" NCoef="0" IVar="2" Cut="6.1619961261749268e-01" cType="1" res="-3.2878693193197250e-02" rms="4.4251960515975952e-01" purity="4.8053431510925293e-01" nType="0">
          <Node pos="l" depth="2" NCoef="0" IVar="-1" Cut="0.0000000000000000e+00" cType="1" res="2.1428328473120928e-03" rms="3.9879271388053894e-01" purity="7.7115964889526367e-01" nType="-99"/>
          <Node pos="r" depth="2" NCoef="0" IVar="-1" Cut="0.0000000000000000e+00" cType="1" res="-1.2150409165769815e-03" rms="4.4650101661682129e-01" purity="4.3232139945030212e-01" nType="-99"/>
        </Node>
        <Node pos="r" depth="1" NCoef="0" IVar="2" Cut="1.2735344171524048e+00" cType="1" res="3.6096815019845963e-02" rms="4.5668292045593262e-01" purity="5.2050894498825073e-01" nType="0">
          <Node pos="l" depth="2" NCoef="0" IVar="-1" Cut="0.0000000000000000e+00" cType="1" res="3.4907541703432798e-04" rms="4.5518672466278076e-01" purity="5.7871955633163452e-01" nType="-99"/>
          <Node pos="r" depth="2" NCoef="0" IVar="-1" Cut="0.0000000000000000e+00" cType="1" res="2.3551390040665865e-03" rms="4.5620208978652954e-01" purity="3.7240540981292725e-01" nType="-99"/>
        </Node>
      </Node>
    </BinaryTree>
    <BinaryTree type="DecisionTree" boostWeight="1.0000000000000000e+00" itree="900">
      <Node pos="s" depth="0" NCoef="0" IVar="2" Cut="8.7076306343078613e-01" cType="1" res="-1.2572919018566608e-02" rms="4.5286774635314941e-01" purity="4.9190878868103027e-01" nType="0">
        <Node pos="l" depth="1" NCoef="0" IVar="2" Cut="5.4094034433364868e-01" cType="1" res="-5.7560183107852936e-02" rms="4.6454516053199768e-01" purity="5.7907527685165405e-01" nType="0">
          <Node pos="l" depth="2" NCoef="0" IVar="-1" Cut="0.0000000000000000e+00" cType="1" res="1.3933468144387007e-03" rms="3.9820739626884460e-01" purity="7.6053148508071899e-01" nType="-99"/>
          <Node pos="r" depth="2" NCoef="0" IVar="-1" Cut="0.0000000000000000e+00" cType="1" res="-2.0169499330222607e-03" rms="4.7779169678688049e-01" purity="5.2565771341323853e-01" nType="-99"/>
        </Node>
        <Node pos="r" depth="1" NCoef="0" IVar="1" Cut="1.3573855590820312e+02" cType="1" res="1.5059025958180428e-02" rms="4.4328597187995911e-01" purity="4.3836963176727295e-01" nType="0">
          <Node pos="l" depth="2" NCoef="0" IVar="-1" Cut="0.0000000000000000e+00" cType="1" res="7.0677057374268770e-04" rms="4.4335818290710449e-01" purity="4.4856929779052734e-01" nType="-99"/>
          <Node pos="r" depth="2" NCoef="0" IVar="-1" Cut="0.0000000000000000e+00" cType="1" res="-1.9820106681436300e-03" rms="4.2870005965232849e-01" purity="3.6408486962318420e-01" nType="-99"/>
        </Node>
      </Node>
    </BinaryTree>
    <BinaryTree type="DecisionTree" boostWeight="1.0000000000000000e+00" itree="901">
      <Node pos="s" depth="0" NCoef="0" IVar="5" Cut="6.3160377740859985e-01" cType="1" res="-2.0629752427339554e-02" rms="4.4425180554389954e-01" purity="4.8253807425498962e-01" nType="0">
        <Node pos="l" depth="1" NCoef="0" IVar="6" Cut="3.6141973876953125e+02" cType="1" res="-3.5860422998666763e-02" rms="4.4395008683204651e-01" purity="4.5060974359512329e-01" nType="0">
          <Node pos="l" depth="2" NCoef="0" IVar="-1" Cut="0.0000000000000000e+00" cType="1" res="-1.9809305667877197e-03" rms="4.2234748601913452e-01" purity="3.2028001546859741e-01" nType="-99"/>
          <Node pos="r" depth="2" NCoef="0" IVar="-1" Cut="0.0000000000000000e+00" cType="1" res="-1.6597744252067059e-04" rms="4.5382142066955566e-01" purity="5.2787202596664429e-01" nType="-99"/>
        </Node>
        <Node pos="r" depth="1" NCoef="0" IVar="6" Cut="3.7952322387695312e+02" cType="1" res="7.0805460214614868e-02" rms="4.3498894572257996e-01" purity="6.7421543598175049e-01" nType="0">
          <Node pos="l" depth="2" NCoef="0" IVar="-1" Cut="0.0000000000000000e+00" cType="1" res="3.4098848700523376e-03" rms="4.1990268230438232e-01" purity="7.2844010591506958e-01" nType="-99"/>
          <Node pos="r" depth="2" NCoef="0" IVar="-1" Cut="0.0000000000000000e+00" cType="1" res="-1.5282460954040289e-03" rms="4.2791923880577087e-01" purity="5.8172136545181274e-01" nType="-99"/>
        </Node>
      </Node>
    </BinaryTree>
    <BinaryTree type="DecisionTree" boostWeight="1.0000000000000000e+00" itree="902">
      <Node pos="s" depth="0" NCoef="0" IVar="5" Cut="3.5327565670013428e-01" cType="1" res="-9.8805560264736414e-04" rms="4.5396655797958374e-01" purity="4.9071010947227478e-01" nType="0">
        <Node pos="l" depth="1" NCoef="0" IVar="3" Cut="2.5785737037658691e+00" cType="1" res="3.6478146910667419e-02" rms="4.4465565681457520e-01" purity="4.6949255466461182e-01" nType="0">
          <Node pos="l" depth="2" NCoef="0" IVar="-1" Cut="0.0000000000000000e+00" cType="1" res="1.3538564089685678e-03" rms="4.6023064851760864e-01" purity="5.3955537080764771e-01" nType="-99"/>
          <Node pos="r" depth="2" NCoef="0" IVar="-1" Cut="0.0000000000000000e+00" cType="1" res="-1.6093839658424258e-03" rms="3.5668227076530457e-01" purity="1.6944684088230133e-01" nType="-99"/>
        </Node>
        <Node pos="r" depth="1" NCoef="0" IVar="4" Cut="2.0457826232910156e+02" cType="1" res="-3.2090708613395691e-02" rms="4.5923721790313721e-01" purity="5.0832396745681763e-01" nType="0">
          <Node pos="l" depth="2" NCoef="0" IVar="-1" Cut="0.0000000000000000e+00" cType="1" res="-2.6408833218738437e-04" rms="4.6136480569839478e-01" purity="5.3778731822967529e-01" nType="-99"/>
          <Node pos="r" depth="2" NCoef="0" IVar="-1" Cut="0.0000000000000000e+00" cType="1" res="-3.5610022023320198e-03" rms="4.2361521720886230e-01" purity="3.2409560680389404e-01" nType="-99"/>
        </Node>
      </Node>
    </BinaryTree>
    <BinaryTree type="DecisionTree" boostWeight="1.0000000000000000e+00" itree="903">
      <Node pos="s" depth="0" NCoef="0" IVar="4" Cut="1.3594529724121094e+02" cType="1" res="-1.0537150315940380e-02" rms="4.4835203886032104e-01" purity="4.9157601594924927e-01" nType="0">
        <Node pos="l" depth="1" NCoef="0" IVar="6" Cut="3.4136517333984375e+02" cType="1" res="-3.4091126173734665e-02" rms="4.5234617590904236e-01" purity="4.7422799468040466e-01" nType="0">
          <Node pos="l" depth="2" NCoef="0" IVar="-1" Cut="0.0000000000000000e+00" cType="1" res="6.3802557997405529e-04" rms="4.3594706058502197e-01" purity="4.6879351139068604e-01" nType="-99"/>
          <Node pos="r" depth="2" NCoef="0" IVar="-1" Cut="0.0000000000000000e+00" cType="1" res="-1.5269222203642130e-03" rms="4.5758461952209473e-01" purity="4.7712069749832153e-01" nType="-99"/>
        </Node>
        <Node pos="r" depth="1" NCoef="0" IVar="6" Cut="3.7889431762695312e+02" cType="1" res="3.3100306987762451e-02" rms="4.3751859664916992e-01" purity="5.2371597290039062e-01" nType="0">
          <Node pos="l" depth="2" NCoef="0" IVar="-1" Cut="0.0000000000000000e+00" cType="1" res="-1.1380173964425921e-03" rms="4.2401394248008728e-01" purity="3.6970427632331848e-01" nType="-99"/>
          <Node pos="r" depth="2" NCoef="0" IVar="-1" Cut="0.0000000000000000e+00" cType="1" res="1.7962523270398378e-03" rms="4.3871617317199707e-01" purity="6.0397791862487793e-01" nType="-99"/>
        </Node>
      </Node>
    </BinaryTree>
    <BinaryTree type="DecisionTree" boostWeight="1.0000000000000000e+00" itree="904">
      <Node pos="s" depth="0" NCoef="0" IVar="5" Cut="4.2211073637008667e-01" cType="1" res="1.0974551551043987e-02" rms="4.4903734326362610e-01" purity="5.0752335786819458e-01" nType="0">
        <Node pos="l" depth="1" NCoef="0" IVar="2" Cut="5.9274244308471680e-01" cType="1" res="3.1417269259691238e-02" rms="4.4779679179191589e-01" purity="4.8425790667533875e-01" nType="0">
          <Node pos="l" depth="2" NCoef="0" IVar="-1" Cut="0.0000000000000000e+00" cType="1" res="3.8427645340561867e-03" rms="3.8199397921562195e-01" purity="8.2713150978088379e-01" nType="-99"/>
          <Node pos="r" depth="2" NCoef="0" IVar="-1" Cut="0.0000000000000000e+00" cType="1" res="4.1115304338745773e-04" rms="4.5279836654663086e-01" purity="4.4375437498092651e-01" nType="-99"/>
        </Node>
        <Node pos="r" depth="1" NCoef="0" IVar="0" Cut="6.9455738067626953e+00" cType="1" res="-1.4260318130254745e-02" rms="4.4928303360939026e-01" purity="5.3624272346496582e-01" nType="0">
          <Node pos="l" depth="2" NCoef="0" IVar="-1" Cut="0.0000000000000000e+00" cType="1" res="-1.0005573276430368e-03" rms="4.6539118885993958e-01" purity="3.8466566801071167e-01" nType="-99"/>
          <Node pos="r" depth="2" NCoef="0" IVar="-1" Cut="0.0000000000000000e+00" cType="1" res="6.9021247327327728e-04" rms="4.2575389146804810e-01" purity="7.1792310476303101e-01" nType="-99"/>
        </Node>
      </Node>
    </BinaryTree>
    <BinaryTree type="DecisionTree" boostWeight="1.0000000000000000e+00" itree="905">
      <Node pos="s" depth="0" NCoef="0" IVar="5" Cut="5.3619879484176636e-01" cType="1" res="3.4345430321991444e-03" rms="4.4842669367790222e-01" purity="5.0399607419967651e-01" nType="0">
        <Node pos="l" depth="1" NCoef="0" IVar="0" Cut="6.1469693183898926e+00" cType="1" res="-2.1051235496997833e-02" rms="4.5337343215942383e-01" purity="4.5116555690765381e-01" nType="0">
          <Node pos="l" depth="2" NCoef="0" IVar="-1" Cut="0.0000000000000000e+00" cType="1" res="5.8346037985756993e-04" rms="4.2939990758895874e-01" purity="3.2811757922172546e-01" nType="-99"/>
          <Node pos="r" depth="2" NCoef="0" IVar="-1" Cut="0.0000000000000000e+00" cType="1" res="-1.1113544460386038e-03" rms="4.6419215202331543e-01" purity="5.1925057172775269e-01" nType="-99"/>
        </Node>
        <Node pos="r" depth="1" NCoef="0" IVar="4" Cut="1.4856343078613281e+02" cType="1" res="7.6178580522537231e-02" rms="4.2515954375267029e-01" purity="6.6094857454299927e-01" nType="0">
          <Node pos="l" depth="2" NCoef="0" IVar="-1" Cut="0.0000000000000000e+00" cType="1" res="3.0105281621217728e-03" rms="4.0395501255989075e-01" purity="7.1604174375534058e-01" nType="-99"/>
          <Node pos="r" depth="2" NCoef="0" IVar="-1" Cut="0.0000000000000000e+00" cType="1" res="-1.5849828487262130e-03" rms="4.4949328899383545e-01" purity="5.0827121734619141e-01" nType="-99"/>
        </Node>
      </Node>
    </BinaryTree>
    <BinaryTree type="DecisionTree" boostWeight="1.0000000000000000e+00" itree="906">
      <Node pos="s" depth="0" NCoef="0" IVar="1" Cut="6.6096847534179688e+01" cType="1" res="-1.4160732738673687e-02" rms="4.5166790485382080e-01" purity="4.8883572220802307e-01" nType="0">
        <Node pos="l" depth="1" NCoef="0" IVar="3" Cut="2.1240057945251465e+00" cType="1" res="4.7393955290317535e-02" rms="4.3799522519111633e-01" purity="5.0325173139572144e-01" nType="0">
          <Node pos="l" depth="2" NCoef="0" IVar="-1" Cut="0.0000000000000000e+00" cType="1" res="2.2086950484663248e-03" rms="4.4752389192581177e-01" purity="6.1960953474044800e-01" nType="-99"/>
          <Node pos="r" depth="2" NCoef="0" IVar="-1" Cut="0.0000000000000000e+00" cType="1" res="-5.2907940698787570e-04" rms="4.1464942693710327e-01" purity="3.3931452035903931e-01" nType="-99"/>
        </Node>
        <Node pos="r" depth="1" NCoef="0" IVar="6" Cut="4.8265191650390625e+02" cType="1" res="-6.0624860227108002e-02" rms="4.5625308156013489e-01" purity="4.7795385122299194e-01" nType="0">
          <Node pos="l" depth="2" NCoef="0" IVar="-1" Cut="0.0000000000000000e+00" cType="1" res="-2.3892624303698540e-03" rms="4.6030932664871216e-01" purity="4.2927226424217224e-01" nType="-99"/>
          <Node pos="r" depth="2" NCoef="0" IVar="-1" Cut="0.0000000000000000e+00" cType="1" res="-1.5503130271099508e-04" rms="4.4506260752677917e-01" purity="5.4299992322921753e-01" nType="-99"/>
        </Node>
      </Node>
    </BinaryTree>
    <BinaryTree type="DecisionTree" boostWeight="1.0000000000000000e+00" itree="907">
      <Node pos="s" depth="0" NCoef="0" IVar="1" Cut="1.4641168212890625e+02" cType="1" res="4.7363247722387314e-03" rms="4.5752117037773132e-01" purity="5.0323945283889771e-01" nType="0">
        <Node pos="l" depth="1" NCoef="0" IVar="3" Cut="2.2372758388519287e+00" cType="1" res="1.5539045445621014e-02" rms="4.5916014909744263e-01" purity="5.1668334007263184e-01" nType="0">
          <Node pos="l" depth="2" NCoef="0" IVar="-1" Cut="0.0000000000000000e+00" cType="1" res="-5.7151634246110916e-04" rms="4.6340441703796387e-01" purity="5.5260813236236572e-01" nType="-99"/>
          <Node pos="r" depth="2" NCoef="0" IVar="-1" Cut="0.0000000000000000e+00" cType="1" res="2.0269530359655619e-03" rms="4.4434851408004761e-01" purity="4.5759508013725281e-01" nType="-99"/>
        </Node>
        <Node pos="r" depth="1" NCoef="0" IVar="-1" Cut="0.0000000000000000e+00" cType="1" res="-3.0269790440797806e-03" rms="4.1322526335716248e-01" purity="3.3490279316902161e-01" nType="-99"/>
      </Node>
    </BinaryTree>
    <BinaryTree type="DecisionTree" boostWeight="1.0000000000000000e+00" itree="908">
      <Node pos="s" depth="0" NCoef="0" IVar="6" Cut="3.6938439941406250e+02" cType="1" res="-1.4932555146515369e-02" rms="4.5833268761634827e-01" purity="4.8676761984825134e-01" nType="0">
        <Node pos="l" depth="1" NCoef="0" IVar="5" Cut="4.9162635207176208e-01" cType="1" res="2.6265421882271767e-02" rms="4.4072240591049194e-01" purity="4.7301700711250305e-01" nType="0">
          <Node pos="l" depth="2" NCoef="0" IVar="-1" Cut="0.0000000000000000e+00" cType="1" res="-7.5179210398346186e-04" rms="4.3768113851547241e-01" purity="3.7069386243820190e-01" nType="-99"/>
          <Node pos="r" depth="2" NCoef="0" IVar="-1" Cut="0.0000000000000000e+00" cType="1" res="2.2636032663285732e-03" rms="4.3345013260841370e-01" purity="6.0342323780059814e-01" nType="-99"/>
        </Node>
        <Node pos="r" depth="1" NCoef="0" IVar="5" Cut="5.9051483869552612e-01" cType="1" res="-4.3358359485864639e-02" rms="4.6798926591873169e-01" purity="4.9625518918037415e-01" nType="0">
          <Node pos="l" depth="2" NCoef="0" IVar="-1" Cut="0.0000000000000000e+00" cType="1" res="-5.4968229960650206e-04" rms="4.6284896135330200e-01" purity="4.9264234304428101e-01" nType="-99"/>
          <Node pos="r" depth="2" NCoef="0" IVar="-1" Cut="0.0000000000000000e+00" cType="1" res="-3.3198655582964420e-03" rms="4.8025321960449219e-01" purity="5.1319348812103271e-01" nType="-99"/>
        </Node>
      </Node>
    </BinaryTree>
    <BinaryTree type="DecisionTree" boostWeight="1.0000000000000000e+00" itree="909">
      <Node pos="s" depth="0" NCoef="0" IVar="5" Cut="5.4643946886062622e-01" cType="1" res="-1.6601201146841049e-02" rms="4.4758588075637817e-01" purity="4.9520897865295410e-01" nType="0">
        <Node pos="l" depth="1" NCoef="0" IVar="2" Cut="8.4154403209686279e-01" cType="1" res="5.2061714231967926e-03" rms="4.4188803434371948e-01" purity="4.9307689070701599e-01" nType="0">
          <Node pos="l" depth="2" NCoef="0" IVar="-1" Cut="0.0000000000000000e+00" cType="1" res="-1.2434297241270542e-03" rms="4.4263824820518494e-01" purity="5.7867693901062012e-01" nType="-99"/>
          <Node pos="r" depth="2" NCoef="0" IVar="-1" Cut="0.0000000000000000e+00" cType="1" res="8.1237807171419263e-04" rms="4.3863692879676819e-01" purity="4.5108529925346375e-01" nType="-99"/>
        </Node>
        <Node pos="r" depth="1" NCoef="0" IVar="2" Cut="8.1287080049514771e-01" cType="1" res="-7.9611293971538544e-02" rms="4.5785632729530334e-01" purity="5.0136941671371460e-01" nType="0">
          <Node pos="l" depth="2" NCoef="0" IVar="-1" Cut="0.0000000000000000e+00" cType="1" res="-9.1100919235032052e-05" rms="4.5965239405632019e-01" purity="6.5236091613769531e-01" nType="-99"/>
          <Node pos="r" depth="2" NCoef="0" IVar="-1" Cut="0.0000000000000000e+00" cType="1" res="-2.9307347722351551e-03" rms="4.4826674461364746e-01" purity="3.8905763626098633e-01" nType="-99"/>
        </Node>
      </Node>
    </BinaryTree>
    <BinaryTree type="DecisionTree" boostWeight="1.0000000000000000e+00" itree="910">
      <Node pos="s" depth="0" NCoef="0" IVar="3" Cut="1.8702219724655151e+00" cType="1" res="3.1463669147342443e-03" rms="4.3722745776176453e-01" purity="5.1289433240890503e-01" nType="0">
        <Node pos="l" depth="1" NCoef="0" IVar="2" Cut="7.4661254882812500e-01" cType="1" res="-7.9154513776302338e-02" rms="4.6409159898757935e-01" purity="4.8142644762992859e-01" nType="0">
          <Node pos="l" depth="2" NCoef="0" IVar="-1" Cut="0.0000000000000000e+00" cType="1" res="-5.5794540094211698e-04" rms="4.4976693391799927e-01" purity="5.9425842761993408e-01" nType="-99"/>
          <Node pos="r" depth="2" NCoef="0" IVar="-1" Cut="0.0000000000000000e+00" cType="1" res="-3.1500614713877439e-03" rms="4.7282031178474426e-01" purity="3.2837024331092834e-01" nType="-99"/>
        </Node>
        <Node pos="r" depth="1" NCoef="0" IVar="3" Cut="2.3369724750518799e+00" cType="1" res="1.6606902703642845e-02" rms="4.3118295073509216e-01" purity="5.1804095506668091e-01" nType="0">
          <Node pos="l" depth="2" NCoef="0" IVar="-1" Cut="0.0000000000000000e+00" cType="1" res="1.0585894342511892e-03" rms="4.3513172864913940e-01" purity="6.1616808176040649e-01" nType="-99"/>
          <Node pos="r" depth="2" NCoef="0" IVar="-1" Cut="0.0000000000000000e+00" cType="1" res="-1.2646885588765144e-03" rms="4.1399031877517700e-01" purity="2.8494346141815186e-01" nType="-99"/>
        </Node>
      </Node>
    </BinaryTree>
    <BinaryTree type="DecisionTree" boostWeight="1.0000000000000000e+00" itree="911">
      <Node pos="s" depth="0" NCoef="0" IVar="1" Cut="7.0345008850097656e+01" cType="1" res="-8.1921415403485298e-03" rms="4.4462132453918457e-01" purity="4.9968251585960388e-01" nType="0">
        <Node pos="l" depth="1" NCoef="0" IVar="0" Cut="5.3826866149902344e+00" cType="1" res="1.7547385767102242e-02" rms="4.4356095790863037e-01" purity="4.8928323388099670e-01" nType="0">
          <Node pos="l" depth="2" NCoef="0" IVar="-1" Cut="0.0000000000000000e+00" cType="1" res="-2.4415694642812014e-03" rms="3.3277761936187744e-01" purity="1.3905879855155945e-01" nType="-99"/>
          <Node pos="r" depth="2" NCoef="0" IVar="-1" Cut="0.0000000000000000e+00" cType="1" res="9.0588344028219581e-04" rms="4.5824998617172241e-01" purity="5.5538362264633179e-01" nType="-99"/>
        </Node>
        <Node pos="r" depth="1" NCoef="0" IVar="6" Cut="4.6864349365234375e+02" cType="1" res="-2.9010331258177757e-02" rms="4.4438788294792175e-01" purity="5.0809347629547119e-01" nType="0">
          <Node pos="l" depth="2" NCoef="0" IVar="-1" Cut="0.0000000000000000e+00" cType="1" res="5.1994560635648668e-05" rms="4.3285635113716125e-01" purity="5.0659656524658203e-01" nType="-99"/>
          <Node pos="r" depth="2" NCoef="0" IVar="-1" Cut="0.0000000000000000e+00" cType="1" res="-1.4981889398768544e-03" rms="4.5418325066566467e-01" purity="5.0972223281860352e-01" nType="-99"/>
        </Node>
      </Node>
    </BinaryTree>
    <BinaryTree type="DecisionTree" boostWeight="1.0000000000000000e+00" itree="912">
      <Node pos="s" depth="0" NCoef="0" IVar="0" Cut="7.6775851249694824e+00" cType="1" res="2.7950562536716461e-02" rms="4.4696378707885742e-01" purity="5.2353996038436890e-01" nType="0">
        <Node pos="l" depth="1" NCoef="0" IVar="0" Cut="6.8023180961608887e+00" cType="1" res="8.9684948325157166e-03" rms="4.6102806925773621e-01" purity="4.4038116931915283e-01" nType="0">
          <Node pos="l" depth="2" NCoef="0" IVar="-1" Cut="0.0000000000000000e+00" cType="1" res="9.1829115990549326e-04" rms="4.5607355237007141e-01" purity="4.1208675503730774e-01" nType="-99"/>
          <Node pos="r" depth="2" NCoef="0" IVar="-1" Cut="0.0000000000000000e+00" cType="1" res="-1.3531089061871171e-03" rms="4.6411681175231934e-01" purity="5.0204819440841675e-01" nType="-99"/>
        </Node>
        <Node pos="r" depth="1" NCoef="0" IVar="2" Cut="1.0936261415481567e+00" cType="1" res="8.1219613552093506e-02" rms="4.0011367201805115e-01" purity="7.5690716505050659e-01" nType="0">
          <Node pos="l" depth="2" NCoef="0" IVar="-1" Cut="0.0000000000000000e+00" cType="1" res="1.4638891443610191e-03" rms="3.8635939359664917e-01" purity="8.0358958244323730e-01" nType="-99"/>
          <Node pos="r" depth="2" NCoef="0" IVar="-1" Cut="0.0000000000000000e+00" cType="1" res="3.4518805332481861e-03" rms="4.1930434107780457e-01" purity="6.6158020496368408e-01" nType="-99"/>
        </Node>
      </Node>
    </BinaryTree>
    <BinaryTree type="DecisionTree" boostWeight="1.0000000000000000e+00" itree="913">
      <Node pos="s" depth="0" NCoef="0" IVar="0" Cut="6.4383001327514648e+00" cType="1" res="-3.6253776401281357e-02" rms="4.5196920633316040e-01" purity="4.6325790882110596e-01" nType="0">
        <Node pos="l" depth="1" NCoef="0" IVar="0" Cut="5.9700865745544434e+00" cType="1" res="1.9246536539867520e-03" rms="4.4347104430198669e-01" purity="3.4969937801361084e-01" nType="0">
          <Node pos="l" depth="2" NCoef="0" IVar="-1" Cut="0.0000000000000000e+00" cType="1" res="-5.8374740183353424e-04" rms="4.2902725934982300e-01" purity="2.9219520092010498e-01" nType="-99"/>
          <Node pos="r" depth="2" NCoef="0" IVar="-1" Cut="0.0000000000000000e+00" cType="1" res="1.4941056724637747e-03" rms="4.7033399343490601e-01" purity="4.9116292595863342e-01" nType="-99"/>
        </Node>
        <Node pos="r" depth="1" NCoef="0" IVar="0" Cut="7.5547027587890625e+00" cType="1" res="-6.2921755015850067e-02" rms="4.5591908693313599e-01" purity="5.4257959127426147e-01" nType="0">
          <Node pos="l" depth="2" NCoef="0" IVar="-1" Cut="0.0000000000000000e+00" cType="1" res="-2.5455402210354805e-03" rms="4.5733478665351868e-01" purity="4.1424906253814697e-01" nType="-99"/>
          <Node pos="r" depth="2" NCoef="0" IVar="-1" Cut="0.0000000000000000e+00" cType="1" res="-3.3188893576152623e-04" rms="4.4882950186729431e-01" purity="6.6475218534469604e-01" nType="-99"/>
        </Node>
      </Node>
    </BinaryTree>
    <BinaryTree type="DecisionTree" boostWeight="1.0000000000000000e+00" itree="914">
      <Node pos="s" depth="0" NCoef="0" IVar="1" Cut="1.4869468688964844e+02" cType="1" res="-1.6403669491410255e-02" rms="4.4025897979736328e-01" purity="4.9014395475387573e-01" nType="0">
        <Node pos="l" depth="1" NCoef="0" IVar="6" Cut="4.0938830566406250e+02" cType="1" res="-8.0783059820532799e-03" rms="4.3971711397171021e-01" purity="4.9811357259750366e-01" nType="0">
          <Node pos="l" depth="2" NCoef="0" IVar="-1" Cut="0.0000000000000000e+00" cType="1" res="-7.9261319478973746e-04" rms="4.3922623991966248e-01" purity="4.2433434724807739e-01" nType="-99"/>
          <Node pos="r" depth="2" NCoef="0" IVar="-1" Cut="0.0000000000000000e+00" cType="1" res="7.4323191074654460e-04" rms="4.3766340613365173e-01" purity="6.0646921396255493e-01" nType="-99"/>
        </Node>
        <Node pos="r" depth="1" NCoef="0" IVar="-1" Cut="0.0000000000000000e+00" cType="1" res="-3.5901668015867472e-03" rms="4.2828881740570068e-01" purity="3.6633610725402832e-01" nType="-99"/>
      </Node>
    </BinaryTree>
    <BinaryTree type="DecisionTree" boostWeight="1.0000000000000000e+00" itree="915">
      <Node pos="s" depth="0" NCoef="0" IVar="4" Cut="1.1263731384277344e+02" cType="1" res="2.3699771612882614e-02" rms="4.5437785983085632e-01" purity="5.2151829004287720e-01" nType="0">
        <Node pos="l" depth="1" NCoef="0" IVar="5" Cut="4.8812717199325562e-01" cType="1" res="5.0613891333341599e-02" rms="4.5358166098594666e-01" purity="5.5162775516510010e-01" nType="0">
          <Node pos="l" depth="2" NCoef="0" IVar="-1" Cut="0.0000000000000000e+00" cType="1" res="4.4504087418317795e-04" rms="4.6485650539398193e-01" purity="4.8067587614059448e-01" nType="-99"/>
          <Node pos="r" depth="2" NCoef="0" IVar="-1" Cut="0.0000000000000000e+00" cType="1" res="2.3431864101439714e-03" rms="4.3013501167297363e-01" purity="6.6486245393753052e-01" nType="-99"/>
        </Node>
        <Node pos="r" depth="1" NCoef="0" IVar="3" Cut="2.2606856822967529e+00" cType="1" res="-9.4109475612640381e-03" rms="4.5316788554191589e-01" purity="4.8447665572166443e-01" nType="0">
          <Node pos="l" depth="2" NCoef="0" IVar="-1" Cut="0.0000000000000000e+00" cType="1" res="8.7289040675386786e-04" rms="4.5574921369552612e-01" purity="6.1294978857040405e-01" nType="-99"/>
          <Node pos="r" depth="2" NCoef="0" IVar="-1" Cut="0.0000000000000000e+00" cType="1" res="-1.7702686600387096e-03" rms="4.4159191846847534e-01" purity="3.0681023001670837e-01" nType="-99"/>
        </Node>
      </Node>
    </BinaryTree>
    <BinaryTree type="DecisionTree" boostWeight="1.0000000000000000e+00" itree="916">
      <Node pos="s" depth="0" NCoef="0" IVar="5" Cut="2.2944383323192596e-01" cType="1" res="-7.2790510021150112e-03" rms="4.5673301815986633e-01" purity="5.0244343280792236e-01" nType="0">
        <Node pos="l" depth="1" NCoef="0" IVar="1" Cut="5.7320266723632812e+01" cType="1" res="-8.2369357347488403e-02" rms="4.2876103520393372e-01" purity="3.3433276414871216e-01" nType="0">
          <Node pos="l" depth="2" NCoef="0" IVar="-1" Cut="0.0000000000000000e+00" cType="1" res="9.0650119818747044e-04" rms="4.4577321410179138e-01" purity="3.9664655923843384e-01" nType="-99"/>
          <Node pos="r" depth="2" NCoef="0" IVar="-1" Cut="0.0000000000000000e+00" cType="1" res="-3.0118036083877087e-03" rms="4.1105231642723083e-01" purity="3.0805903673171997e-01" nType="-99"/>
        </Node>
        <Node pos="r" depth="1" NCoef="0" IVar="5" Cut="4.8544543981552124e-01" cType="1" res="1.1714781634509563e-02" rms="4.6160945296287537e-01" purity="5.4496645927429199e-01" nType="0">
          <Node pos="l" depth="2" NCoef="0" IVar="-1" Cut="0.0000000000000000e+00" cType="1" res="1.2349643511697650e-03" rms="4.5027464628219604e-01" purity="5.5713343620300293e-01" nType="-99"/>
          <Node pos="r" depth="2" NCoef="0" IVar="-1" Cut="0.0000000000000000e+00" cType="1" res="-1.1535887606441975e-03" rms="4.7127795219421387e-01" purity="5.2703672647476196e-01" nType="-99"/>
        </Node>
      </Node>
    </BinaryTree>
    <BinaryTree type="DecisionTree" boostWeight="1.0000000000000000e+00" itree="917">
      <Node pos="s" depth="0" NCoef="0" IVar="3" Cut="2.1965322494506836e+00" cType="1" res="-3.4253217745572329e-03" rms="4.3948519229888916e-01" purity="4.9641612172126770e-01" nType="0">
        <Node pos="l" depth="1" NCoef="0" IVar="3" Cut="1.8589551448822021e+00" cType="1" res="3.5997297614812851e-02" rms="4.5023679733276367e-01" purity="6.2565571069717407e-01" nType="0">
          <Node pos="l" depth="2" NCoef="0" IVar="-1" Cut="0.0000000000000000e+00" cType="1" res="-1.5665011014789343e-03" rms="4.7211882472038269e-01" purity="4.8306149244308472e-01" nType="-99"/>
          <Node pos="r" depth="2" NCoef="0" IVar="-1" Cut="0.0000000000000000e+00" cType="1" res="1.6238025855273008e-03" rms="4.3884366750717163e-01" purity="6.6661936044692993e-01" nType="-99"/>
        </Node>
        <Node pos="r" depth="1" NCoef="0" IVar="1" Cut="4.8635398864746094e+01" cType="1" res="-5.1111560314893723e-02" rms="4.2121520638465881e-01" purity="3.4008583426475525e-01" nType="0">
          <Node pos="l" depth="2" NCoef="0" IVar="-1" Cut="0.0000000000000000e+00" cType="1" res="-3.8385230582207441e-03" rms="3.0956691503524780e-01" purity="1.3506311178207397e-01" nType="-99"/>
          <Node pos="r" depth="2" NCoef="0" IVar="-1" Cut="0.0000000000000000e+00" cType="1" res="-8.4537803195416927e-04" rms="4.3361973762512207e-01" purity="3.7116658687591553e-01" nType="-99"/>
        </Node>
      </Node>
    </BinaryTree>
    <BinaryTree type="DecisionTree" boostWeight="1.0000000000000000e+00" itree="918">
      <Node pos="s" depth="0" NCoef="0" IVar="0" Cut="8.5910139083862305e+00" cType="1" res="-7.6512689702212811e-04" rms="4.4230639934539795e-01" purity="4.9875828623771667e-01" nType="0">
        <Node pos="l" depth="1" NCoef="0" IVar="6" Cut="5.6032672119140625e+02" cType="1" res="-1.9103964790701866e-02" rms="4.5459508895874023e-01" purity="4.4730696082115173e-01" nType="0">
          <Node pos="l" depth="2" NCoef="0" IVar="-1" Cut="0.0000000000000000e+00" cType="1" res="-7.3632923886179924e-04" rms="4.5570462942123413e-01" purity="4.1811558604240417e-01" nType="-99"/>
          <Node pos="r" depth="2" NCoef="0" IVar="-1" Cut="0.0000000000000000e+00" cType="1" res="1.1646081693470478e-03" rms="4.4256660342216492e-01" purity="5.9964460134506226e-01" nType="-99"/>
        </Node>
        <Node pos="r" depth="1" NCoef="0" IVar="4" Cut="8.8713211059570312e+01" cType="1" res="1.3879838585853577e-01" rms="2.9953154921531677e-01" purity="8.9031654596328735e-01" nType="0">
          <Node pos="l" depth="2" NCoef="0" IVar="-1" Cut="0.0000000000000000e+00" cType="1" res="2.7262100484222174e-03" rms="3.5608869791030884e-01" purity="8.4051805734634399e-01" nType="-99"/>
          <Node pos="r" depth="2" NCoef="0" IVar="-1" Cut="0.0000000000000000e+00" cType="1" res="5.6541231460869312e-03" rms="2.3397032916545868e-01" purity="9.3118494749069214e-01" nType="-99"/>
        </Node>
      </Node>
    </BinaryTree>
    <BinaryTree type="DecisionTree" boostWeight="1.0000000000000000e+00" itree="919">
      <Node pos="s" depth="0" NCoef="0" IVar="0" Cut="7.6425943374633789e+00" cType="1" res="-6.2060011550784111e-03" rms="4.3735477328300476e-01" purity="4.8883354663848877e-01" nType="0">
        <Node pos="l" depth="1" NCoef="0" IVar="1" Cut="1.2299234008789062e+02" cType="1" res="-3.2655596733093262e-02" rms="4.4785445928573608e-01" purity="3.8638857007026672e-01" nType="0">
          <Node pos="l" depth="2" NCoef="0" IVar="-1" Cut="0.0000000000000000e+00" cType="1" res="-3.7726564914919436e-04" rms="4.5103210210800171e-01" purity="3.9799976348876953e-01" nType="-99"/>
          <Node pos="r" depth="2" NCoef="0" IVar="-1" Cut="0.0000000000000000e+00" cType="1" res="-2.3911988828331232e-03" rms="4.2467415332794189e-01" purity="3.3148267865180969e-01" nType="-99"/>
        </Node>
        <Node pos="r" depth="1" NCoef="0" IVar="5" Cut="2.1035297214984894e-01" cType="1" res="5.5155869573354721e-02" rms="4.0537419915199280e-01" purity="7.2650128602981567e-01" nType="0">
          <Node pos="l" depth="2" NCoef="0" IVar="-1" Cut="0.0000000000000000e+00" cType="1" res="-1.2686342233791947e-03" rms="4.7345975041389465e-01" purity="4.9453422427177429e-01" nType="-99"/>
          <Node pos="r" depth="2" NCoef="0" IVar="-1" Cut="0.0000000000000000e+00" cType="1" res="2.1244212985038757e-03" rms="3.8540059328079224e-01" purity="7.7622091770172119e-01" nType="-99"/>
        </Node>
      </Node>
    </BinaryTree>
    <BinaryTree type="DecisionTree" boostWeight="1.0000000000000000e+00" itree="920">
      <Node pos="s" depth="0" NCoef="0" IVar="6" Cut="4.5253170776367188e+02" cType="1" res="-3.6403713747859001e-03" rms="4.4957342743873596e-01" purity="5.1009082794189453e-01" nType="0">
        <Node pos="l" depth="1" NCoef="0" IVar="6" Cut="2.6445254516601562e+02" cType="1" res="3.6645647138357162e-02" rms="4.4135883450508118e-01" purity="5.1687449216842651e-01" nType="0">
          <Node pos="l" depth="2" NCoef="0" IVar="-1" Cut="0.0000000000000000e+00" cType="1" res="-2.5300825946033001e-03" rms="3.9691326022148132e-01" purity="2.5375950336456299e-01" nType="-99"/>
          <Node pos="r" depth="2" NCoef="0" IVar="-1" Cut="0.0000000000000000e+00" cType="1" res="1.2497842544689775e-03" rms="4.4327205419540405e-01" purity="5.4727065563201904e-01" nType="-99"/>
        </Node>
        <Node pos="r" depth="1" NCoef="0" IVar="1" Cut="8.7920097351074219e+01" cType="1" res="-7.6243273913860321e-02" rms="4.5509308576583862e-01" purity="4.9786528944969177e-01" nType="0">
          <Node pos="l" depth="2" NCoef="0" IVar="-1" Cut="0.0000000000000000e+00" cType="1" res="-3.4622345119714737e-03" rms="4.3466037511825562e-01" purity="3.6140459775924683e-01" nType="-99"/>
          <Node pos="r" depth="2" NCoef="0" IVar="-1" Cut="0.0000000000000000e+00" cType="1" res="-6.7143345950171351e-04" rms="4.6048927307128906e-01" purity="5.8357751369476318e-01" nType="-99"/>
        </Node>
      </Node>
    </BinaryTree>
    <BinaryTree type="DecisionTree" boostWeight="1.0000000000000000e+00" itree="921">
      <Node pos="s" depth="0" NCoef="0" IVar="4" Cut="1.0923632049560547e+02" cType="1" res="1.4491138979792595e-02" rms="4.5473673939704895e-01" purity="5.2376878261566162e-01" nType="0">
        <Node pos="l" depth="1" NCoef="0" IVar="4" Cut="8.6120513916015625e+01" cType="1" res="-1.6330031678080559e-02" rms="4.5204916596412659e-01" purity="4.9547228217124939e-01" nType="0">
          <Node pos="l" depth="2" NCoef="0" IVar="-1" Cut="0.0000000000000000e+00" cType="1" res="3.0749660800211132e-04" rms="4.5313605666160583e-01" purity="5.2801889181137085e-01" nType="-99"/>
          <Node pos="r" depth="2" NCoef="0" IVar="-1" Cut="0.0000000000000000e+00" cType="1" res="-3.4040631726384163e-03" rms="4.2349496483802795e-01" purity="3.5106408596038818e-01" nType="-99"/>
        </Node>
        <Node pos="r" depth="1" NCoef="0" IVar="6" Cut="6.5255950927734375e+02" cType="1" res="5.2082370966672897e-02" rms="4.5517703890800476e-01" purity="5.5828094482421875e-01" nType="0">
          <Node pos="l" depth="2" NCoef="0" IVar="-1" Cut="0.0000000000000000e+00" cType="1" res="8.5248076356947422e-04" rms="4.6086609363555908e-01" purity="5.3088128566741943e-01" nType="-99"/>
          <Node pos="r" depth="2" NCoef="0" IVar="-1" Cut="0.0000000000000000e+00" cType="1" res="3.6813700571656227e-03" rms="4.0686979889869690e-01" purity="7.1687459945678711e-01" nType="-99"/>
        </Node>
      </Node>
    </BinaryTree>
    <BinaryTree type="DecisionTree" boostWeight="1.0000000000000000e+00" itree="922">
      <Node pos="s" depth="0" NCoef="0" IVar="4" Cut="8.8885574340820312e+01" cType="1" res="-1.9499585032463074e-02" rms="4.5482456684112549e-01" purity="4.8424640297889709e-01" nType="0">
        <Node pos="l" depth="1" NCoef="0" IVar="4" Cut="6.6359252929687500e+01" cType="1" res="-4.3851368129253387e-02" rms="4.5827257633209229e-01" purity="4.7194749116897583e-01" nType="0">
          <Node pos="l" depth="2" NCoef="0" IVar="-1" Cut="0.0000000000000000e+00" cType="1" res="-3.4887672518379986e-04" rms="4.5740365982055664e-01" purity="5.0530439615249634e-01" nType="-99"/>
          <Node pos="r" depth="2" NCoef="0" IVar="-1" Cut="0.0000000000000000e+00" cType="1" res="-3.7253035698086023e-03" rms="4.3913438916206360e-01" purity="3.1989017128944397e-01" nType="-99"/>
        </Node>
        <Node pos="r" depth="1" NCoef="0" IVar="4" Cut="2.2373597717285156e+02" cType="1" res="2.7129824738949537e-03" rms="4.5051005482673645e-01" purity="4.9546486139297485e-01" nType="0">
          <Node pos="l" depth="2" NCoef="0" IVar="-1" Cut="0.0000000000000000e+00" cType="1" res="6.6400819923728704e-04" rms="4.5639151334762573e-01" purity="5.3427410125732422e-01" nType="-99"/>
          <Node pos="r" depth="2" NCoef="0" IVar="-1" Cut="0.0000000000000000e+00" cType="1" res="-1.5451101353392005e-03" rms="4.2790308594703674e-01" purity="3.9345127344131470e-01" nType="-99"/>
        </Node>
      </Node>
    </BinaryTree>
    <BinaryTree type="DecisionTree" boostWeight="1.0000000000000000e+00" itree="923">
      <Node pos="s" depth="0" NCoef="0" IVar="1" Cut="1.3262191772460938e+02" cType="1" res="5.5685564875602722e-03" rms="4.4610384106636047e-01" purity="5.0074964761734009e-01" nType="0">
        <Node pos="l" depth="1" NCoef="0" IVar="0" Cut="8.5092802047729492e+00" cType="1" res="1.4631507918238640e-02" rms="4.4350466132164001e-01" purity="5.0695848464965820e-01" nType="0">
          <Node pos="l" depth="2" NCoef="0" IVar="-1" Cut="0.0000000000000000e+00" cType="1" res="-6.4736616423033411e-07" rms="4.5807436108589172e-01" purity="4.5602792501449585e-01" nType="-99"/>
          <Node pos="r" depth="2" NCoef="0" IVar="-1" Cut="0.0000000000000000e+00" cType="1" res="3.8394457660615444e-03" rms="2.9803794622421265e-01" purity="8.7552934885025024e-01" nType="-99"/>
        </Node>
        <Node pos="r" depth="1" NCoef="0" IVar="-1" Cut="0.0000000000000000e+00" cType="1" res="-2.1656870376318693e-03" rms="4.6171212196350098e-01" purity="4.3777692317962646e-01" nType="-99"/>
      </Node>
    </BinaryTree>
    <BinaryTree type="DecisionTree" boostWeight="1.0000000000000000e+00" itree="924">
      <Node pos="s" depth="0" NCoef="0" IVar="6" Cut="4.7054010009765625e+02" cType="1" res="6.4411163330078125e-03" rms="4.4821065664291382e-01" purity="5.0766056776046753e-01" nType="0">
        <Node pos="l" depth="1" NCoef="0" IVar="2" Cut="9.6686506271362305e-01" cType="1" res="2.2976884618401527e-02" rms="4.4530522823333740e-01" purity="5.0353097915649414e-01" nType="0">
          <Node pos="l" depth="2" NCoef="0" IVar="-1" Cut="0.0000000000000000e+00" cType="1" res="-3.6080964491702616e-04" rms="4.3994781374931335e-01" purity="5.6266993284225464e-01" nType="-99"/>
          <Node pos="r" depth="2" NCoef="0" IVar="-1" Cut="0.0000000000000000e+00" cType="1" res="1.4610000653192401e-03" rms="4.4724473357200623e-01" purity="4.4787690043449402e-01" nType="-99"/>
        </Node>
        <Node pos="r" depth="1" NCoef="0" IVar="0" Cut="5.8824400901794434e+00" cType="1" res="-3.0843747779726982e-02" rms="4.5248159766197205e-01" purity="5.1697200536727905e-01" nType="0">
          <Node pos="l" depth="2" NCoef="0" IVar="-1" Cut="0.0000000000000000e+00" cType="1" res="1.2829788029193878e-03" rms="4.5468944311141968e-01" purity="4.2832407355308533e-01" nType="-99"/>
          <Node pos="r" depth="2" NCoef="0" IVar="-1" Cut="0.0000000000000000e+00" cType="1" res="-1.3071340508759022e-03" rms="4.4889667630195618e-01" purity="5.4094225168228149e-01" nType="-99"/>
        </Node>
      </Node>
    </BinaryTree>
    <BinaryTree type="DecisionTree" boostWeight="1.0000000000000000e+00" itree="925">
      <Node pos="s" depth="0" NCoef="0" IVar="1" Cut="7.0163230895996094e+01" cType="1" res="1.8565719947218895e-02" rms="4.4754937291145325e-01" purity="5.1400613784790039e-01" nType="0">
        <Node pos="l" depth="1" NCoef="0" IVar="1" Cut="3.5496963500976562e+01" cType="1" res="-1.3610499911010265e-02" rms="4.4557347893714905e-01" purity="4.3376898765563965e-01" nType="0">
          <Node pos="l" depth="2" NCoef="0" IVar="-1" Cut="0.0000000000000000e+00" cType="1" res="-2.8340476565063000e-03" rms="3.8100001215934753e-01" purity="2.3328870534896851e-01" nType="-99"/>
          <Node pos="r" depth="2" NCoef="0" IVar="-1" Cut="0.0000000000000000e+00" cType="1" res="5.4306470701703802e-05" rms="4.5226025581359863e-01" purity="4.6371361613273621e-01" nType="-99"/>
        </Node>
        <Node pos="r" depth="1" NCoef="0" IVar="6" Cut="5.8300927734375000e+02" cType="1" res="4.6134881675243378e-02" rms="4.4739845395088196e-01" purity="5.8275473117828369e-01" nType="0">
          <Node pos="l" depth="2" NCoef="0" IVar="-1" Cut="0.0000000000000000e+00" cType="1" res="6.0072471387684345e-04" rms="4.5746907591819763e-01" purity="5.4072046279907227e-01" nType="-99"/>
          <Node pos="r" depth="2" NCoef="0" IVar="-1" Cut="0.0000000000000000e+00" cType="1" res="3.2309270463883877e-03" rms="3.9707019925117493e-01" purity="7.4194788932800293e-01" nType="-99"/>
        </Node>
      </Node>
    </BinaryTree>
    <BinaryTree type="DecisionTree" boostWeight="1.0000000000000000e+00" itree="926">
      <Node pos="s" depth="0" NCoef="0" IVar="5" Cut="4.0796217322349548e-01" cType="1" res="6.6325318766757846e-04" rms="4.5162165164947510e-01" purity="4.9272486567497253e-01" nType="0">
        <Node pos="l" depth="1" NCoef="0" IVar="2" Cut="1.6575489044189453e+00" cType="1" res="2.7030013501644135e-02" rms="4.3698969483375549e-01" purity="4.7258919477462769e-01" nType="0">
          <Node pos="l" depth="2" NCoef="0" IVar="-1" Cut="0.0000000000000000e+00" cType="1" res="1.0409028036519885e-03" rms="4.5341885089874268e-01" purity="5.3814941644668579e-01" nType="-99"/>
          <Node pos="r" depth="2" NCoef="0" IVar="-1" Cut="0.0000000000000000e+00" cType="1" res="-1.6851797699928284e-03" rms="3.3282265067100525e-01" purity="1.5080963075160980e-01" nType="-99"/>
        </Node>
        <Node pos="r" depth="1" NCoef="0" IVar="5" Cut="5.4256284236907959e-01" cType="1" res="-3.2783638685941696e-02" rms="4.6739172935485840e-01" purity="5.1826757192611694e-01" nType="0">
          <Node pos="l" depth="2" NCoef="0" IVar="-1" Cut="0.0000000000000000e+00" cType="1" res="-2.2348710335791111e-03" rms="4.6744716167449951e-01" purity="4.2433553934097290e-01" nType="-99"/>
          <Node pos="r" depth="2" NCoef="0" IVar="-1" Cut="0.0000000000000000e+00" cType="1" res="4.3787469621747732e-04" rms="4.6073311567306519e-01" purity="5.8932995796203613e-01" nType="-99"/>
        </Node>
      </Node>
    </BinaryTree>
    <BinaryTree type="DecisionTree" boostWeight="1.0000000000000000e+00" itree="927">
      <Node pos="s" depth="0" NCoef="0" IVar="2" Cut="7.8627133369445801e-01" cType="1" res="-2.6597457472234964e-03" rms="4.4712445139884949e-01" purity="5.1589351892471313e-01" nType="0">
        <Node pos="l" depth="1" NCoef="0" IVar="0" Cut="6.3847966194152832e+00" cType="1" res="5.3092576563358307e-02" rms="4.4341510534286499e-01" purity="6.9546931982040405e-01" nType="0">
          <Node pos="l" depth="2" NCoef="0" IVar="-1" Cut="0.0000000000000000e+00" cType="1" res="3.0107516795396805e-03" rms="4.6260905265808105e-01" purity="6.1135309934616089e-01" nType="-99"/>
          <Node pos="r" depth="2" NCoef="0" IVar="-1" Cut="0.0000000000000000e+00" cType="1" res="3.0014710500836372e-04" rms="4.2807972431182861e-01" purity="7.3202627897262573e-01" nType="-99"/>
        </Node>
        <Node pos="r" depth="1" NCoef="0" IVar="3" Cut="1.9978622198104858e+00" cType="1" res="-2.7430303394794464e-02" rms="4.4653481245040894e-01" purity="4.3610861897468567e-01" nType="0">
          <Node pos="l" depth="2" NCoef="0" IVar="-1" Cut="0.0000000000000000e+00" cType="1" res="-1.9184816628694534e-03" rms="4.6934622526168823e-01" purity="4.3291810154914856e-01" nType="-99"/>
          <Node pos="r" depth="2" NCoef="0" IVar="-1" Cut="0.0000000000000000e+00" cType="1" res="-3.0070520006120205e-04" rms="4.3963363766670227e-01" purity="4.3686974048614502e-01" nType="-99"/>
        </Node>
      </Node>
    </BinaryTree>
    <BinaryTree type="DecisionTree" boostWeight="1.0000000000000000e+00" itree="928">
      <Node pos="s" depth="0" NCoef="0" IVar="5" Cut="3.5330334305763245e-01" cType="1" res="-2.3341637570410967e-03" rms="4.4189053773880005e-01" purity="4.9662286043167114e-01" nType="0">
        <Node pos="l" depth="1" NCoef="0" IVar="3" Cut="2.2383475303649902e+00" cType="1" res="-5.6624021381139755e-02" rms="4.2319381237030029e-01" purity="3.7001526355743408e-01" nType="0">
          <Node pos="l" depth="2" NCoef="0" IVar="-1" Cut="0.0000000000000000e+00" cType="1" res="1.5623101717210375e-05" rms="4.6446311473846436e-01" purity="5.4813277721405029e-01" nType="-99"/>
          <Node pos="r" depth="2" NCoef="0" IVar="-1" Cut="0.0000000000000000e+00" cType="1" res="-2.9670221265405416e-03" rms="3.6705562472343445e-01" purity="1.8744309246540070e-01" nType="-99"/>
        </Node>
        <Node pos="r" depth="1" NCoef="0" IVar="1" Cut="9.2386077880859375e+01" cType="1" res="4.0742263197898865e-02" rms="4.5156010985374451e-01" purity="5.9707993268966675e-01" nType="0">
          <Node pos="l" depth="2" NCoef="0" IVar="-1" Cut="0.0000000000000000e+00" cType="1" res="6.4884996390901506e-05" rms="4.6099141240119934e-01" purity="5.3592967987060547e-01" nType="-99"/>
          <Node pos="r" depth="2" NCoef="0" IVar="-1" Cut="0.0000000000000000e+00" cType="1" res="2.9612667858600616e-03" rms="4.2177832126617432e-01" purity="7.2008085250854492e-01" nType="-99"/>
        </Node>
      </Node>
    </BinaryTree>
    <BinaryTree type="DecisionTree" boostWeight="1.0000000000000000e+00" itree="929">
      <Node pos="s" depth="0" NCoef="0" IVar="2" Cut="5.2767491340637207e-01" cType="1" res="7.1209057932719588e-04" rms="4.4215691089630127e-01" purity="5.0552982091903687e-01" nType="0">
        <Node pos="l" depth="1" NCoef="0" IVar="-1" Cut="0.0000000000000000e+00" cType="1" res="2.7975705452263355e-03" rms="3.6521917581558228e-01" purity="7.8035604953765869e-01" nType="-99"/>
        <Node pos="r" depth="1" NCoef="0" IVar="2" Cut="9.7713547945022583e-01" cType="1" res="-8.3434386178851128e-03" rms="4.4686901569366455e-01" purity="4.8233434557914734e-01" nType="0">
          <Node pos="l" depth="2" NCoef="0" IVar="-1" Cut="0.0000000000000000e+00" cType="1" res="4.9211812438443303e-04" rms="4.4915685057640076e-01" purity="6.2660855054855347e-01" nType="-99"/>
          <Node pos="r" depth="2" NCoef="0" IVar="-1" Cut="0.0000000000000000e+00" cType="1" res="-7.6499208807945251e-04" rms="4.4353553652763367e-01" purity="3.6349150538444519e-01" nType="-99"/>
        </Node>
      </Node>
    </BinaryTree>
    <BinaryTree type="DecisionTree" boostWeight="1.0000000000000000e+00" itree="930">
      <Node pos="s" depth="0" NCoef="0" IVar="3" Cut="2.7174766063690186e+00" cType="1" res="-7.3633189313113689e-03" rms="4.4848415255546570e-01" purity="4.9582692980766296e-01" nType="0">
        <Node pos="l" depth="1" NCoef="0" IVar="2" Cut="1.1690406799316406e+00" cType="1" res="1.9201212562620640e-03" rms="4.5874604582786560e-01" purity="5.2578473091125488e-01" nType="0">
          <Node pos="l" depth="2" NCoef="0" IVar="-1" Cut="0.0000000000000000e+00" cType="1" res="-5.9235200751572847e-04" rms="4.6128261089324951e-01" purity="5.6967324018478394e-01" nType="-99"/>
          <Node pos="r" depth="2" NCoef="0" IVar="-1" Cut="0.0000000000000000e+00" cType="1" res="1.6416765283793211e-03" rms="4.4580310583114624e-01" purity="4.1990390419960022e-01" nType="-99"/>
        </Node>
        <Node pos="r" depth="1" NCoef="0" IVar="-1" Cut="0.0000000000000000e+00" cType="1" res="-4.6023451723158360e-03" rms="1.9647079706192017e-01" purity="4.0954627096652985e-02" nType="-99"/>
      </Node>
    </BinaryTree>
    <BinaryTree type="DecisionTree" boostWeight="1.0000000000000000e+00" itree="931">
      <Node pos="s" depth="0" NCoef="0" IVar="3" Cut="1.6492639780044556e+00" cType="1" res="7.6565675044548698e-06" rms="4.3770295381546021e-01" purity="4.9343150854110718e-01" nType="0">
        <Node pos="l" depth="1" NCoef="0" IVar="-1" Cut="0.0000000000000000e+00" cType="1" res="-2.7936196420341730e-03" rms="4.5661333203315735e-01" purity="3.5473355650901794e-01" nType="-99"/>
        <Node pos="r" depth="1" NCoef="0" IVar="5" Cut="6.8276530504226685e-01" cType="1" res="8.4912236779928207e-03" rms="4.3509218096733093e-01" purity="5.0235998630523682e-01" nType="0">
          <Node pos="l" depth="2" NCoef="0" IVar="-1" Cut="0.0000000000000000e+00" cType="1" res="4.0401276783086360e-04" rms="4.2907193303108215e-01" purity="5.0113403797149658e-01" nType="-99"/>
          <Node pos="r" depth="2" NCoef="0" IVar="-1" Cut="0.0000000000000000e+00" cType="1" res="-2.4680574424564838e-03" rms="4.9333029985427856e-01" purity="5.1804453134536743e-01" nType="-99"/>
        </Node>
      </Node>
    </BinaryTree>
    <BinaryTree type="DecisionTree" boostWeight="1.0000000000000000e+00" itree="932">
      <Node pos="s" depth="0" NCoef="0" IVar="6" Cut="4.6419198608398438e+02" cType="1" res="1.1478722095489502e-02" rms="4.4293221831321716e-01" purity="4.9859294295310974e-01" nType="0">
        <Node pos="l" depth="1" NCoef="0" IVar="4" Cut="5.5244556427001953e+01" cType="1" res="-1.8435209989547729e-02" rms="4.4328349828720093e-01" purity="4.3347117304801941e-01" nType="0">
          <Node pos="l" depth="2" NCoef="0" IVar="-1" Cut="0.0000000000000000e+00" cType="1" res="6.3327915268018842e-04" rms="4.5409503579139709e-01" purity="4.9181863665580750e-01" nType="-99"/>
          <Node pos="r" depth="2" NCoef="0" IVar="-1" Cut="0.0000000000000000e+00" cType="1" res="-1.1362443910911679e-03" rms="4.3354514241218567e-01" purity="3.9526388049125671e-01" nType="-99"/>
        </Node>
        <Node pos="r" depth="1" NCoef="0" IVar="5" Cut="2.6455038785934448e-01" cType="1" res="6.6885143518447876e-02" rms="4.3690395355224609e-01" purity="6.1921113729476929e-01" nType="0">
          <Node pos="l" depth="2" NCoef="0" IVar="-1" Cut="0.0000000000000000e+00" cType="1" res="3.5502933897078037e-03" rms="4.1729924082756042e-01" purity="6.2274289131164551e-01" nType="-99"/>
          <Node pos="r" depth="2" NCoef="0" IVar="-1" Cut="0.0000000000000000e+00" cType="1" res="1.6217652591876686e-04" rms="4.4172349572181702e-01" purity="6.1654037237167358e-01" nType="-99"/>
        </Node>
      </Node>
    </BinaryTree>
    <BinaryTree type="DecisionTree" boostWeight="1.0000000000000000e+00" itree="933">
      <Node pos="s" depth="0" NCoef="0" IVar="4" Cut="2.3012725830078125e+02" cType="1" res="-2.1702492609620094e-02" rms="4.4120791554450989e-01" purity="4.7555807232856750e-01" nType="0">
        <Node pos="l" depth="1" NCoef="0" IVar="0" Cut="7.0780630111694336e+00" cType="1" res="-6.2370873056352139e-03" rms="4.4349285960197449e-01" purity="5.0197631120681763e-01" nType="0">
          <Node pos="l" depth="2" NCoef="0" IVar="-1" Cut="0.0000000000000000e+00" cType="1" res="-8.3736598026007414e-04" rms="4.5183816552162170e-01" purity="3.6174145340919495e-01" nType="-99"/>
          <Node pos="r" depth="2" NCoef="0" IVar="-1" Cut="0.0000000000000000e+00" cType="1" res="9.5729943132027984e-04" rms="4.2784819006919861e-01" purity="6.9558608531951904e-01" nType="-99"/>
        </Node>
        <Node pos="r" depth="1" NCoef="0" IVar="0" Cut="6.9286742210388184e+00" cType="1" res="-1.1700629442930222e-01" rms="4.1430717706680298e-01" purity="3.1275895237922668e-01" nType="0">
          <Node pos="l" depth="2" NCoef="0" IVar="-1" Cut="0.0000000000000000e+00" cType="1" res="-2.1021640859544277e-03" rms="3.7551099061965942e-01" purity="2.3286990821361542e-01" nType="-99"/>
          <Node pos="r" depth="2" NCoef="0" IVar="-1" Cut="0.0000000000000000e+00" cType="1" res="-3.6977173294872046e-03" rms="4.5405879616737366e-01" purity="4.1097971796989441e-01" nType="-99"/>
        </Node>
      </Node>
    </BinaryTree>
    <BinaryTree type="DecisionTree" boostWeight="1.0000000000000000e+00" itree="934">
      <Node pos="s" depth="0" NCoef="0" IVar="1" Cut="4.3356811523437500e+01" cType="1" res="-1.5251820906996727e-02" rms="4.5245668292045593e-01" purity="4.7774901986122131e-01" nType="0">
        <Node pos="l" depth="1" NCoef="0" IVar="2" Cut="9.1329032182693481e-01" cType="1" res="-1.2959074974060059e-01" rms="4.2495363950729370e-01" purity="2.9605221748352051e-01" nType="0">
          <Node pos="l" depth="2" NCoef="0" IVar="-1" Cut="0.0000000000000000e+00" cType="1" res="-3.9665317162871361e-03" rms="4.1873750090599060e-01" purity="3.1661188602447510e-01" nType="-99"/>
          <Node pos="r" depth="2" NCoef="0" IVar="-1" Cut="0.0000000000000000e+00" cType="1" res="-1.0667784372344613e-03" rms="4.1714590787887573e-01" purity="2.6965159177780151e-01" nType="-99"/>
        </Node>
        <Node pos="r" depth="1" NCoef="0" IVar="0" Cut="8.3007450103759766e+00" cType="1" res="7.9030757769942284e-03" rms="4.5433500409126282e-01" purity="5.1454460620880127e-01" nType="0">
          <Node pos="l" depth="2" NCoef="0" IVar="-1" Cut="0.0000000000000000e+00" cType="1" res="5.5272597819566727e-04" rms="4.5343172550201416e-01" purity="4.9017360806465149e-01" nType="-99"/>
          <Node pos="r" depth="2" NCoef="0" IVar="-1" Cut="0.0000000000000000e+00" cType="1" res="-2.3495217319577932e-03" rms="4.4864526391029358e-01" purity="6.4809346199035645e-01" nType="-99"/>
        </Node>
      </Node>
    </BinaryTree>
    <BinaryTree type="DecisionTree" boostWeight="1.0000000000000000e+00" itree="935">
      <Node pos="s" depth="0" NCoef="0" IVar="3" Cut="2.0734326839447021e+00" cType="1" res="-7.0250811986625195e-03" rms="4.4697770476341248e-01" purity="4.9208468198776245e-01" nType="0">
        <Node pos="l" depth="1" NCoef="0" IVar="0" Cut="6.3012037277221680e+00" cType="1" res="-5.1351092755794525e-02" rms="4.5438900589942932e-01" purity="5.3504478931427002e-01" nType="0">
          <Node pos="l" depth="2" NCoef="0" IVar="-1" Cut="0.0000000000000000e+00" cType="1" res="-2.0361158531159163e-03" rms="4.5900034904479980e-01" purity="3.0061554908752441e-01" nType="-99"/>
          <Node pos="r" depth="2" NCoef="0" IVar="-1" Cut="0.0000000000000000e+00" cType="1" res="-6.4577569719403982e-04" rms="4.4982144236564636e-01" purity="6.6083496809005737e-01" nType="-99"/>
        </Node>
        <Node pos="r" depth="1" NCoef="0" IVar="3" Cut="2.1747624874114990e+00" cType="1" res="2.1206693723797798e-02" rms="4.3987029790878296e-01" purity="4.6472287178039551e-01" nType="0">
          <Node pos="l" depth="2" NCoef="0" IVar="-1" Cut="0.0000000000000000e+00" cType="1" res="2.1069268696010113e-03" rms="4.5227071642875671e-01" purity="6.4635938405990601e-01" nType="-99"/>
          <Node pos="r" depth="2" NCoef="0" IVar="-1" Cut="0.0000000000000000e+00" cType="1" res="4.2299379856558517e-06" rms="4.3378528952598572e-01" purity="4.0792676806449890e-01" nType="-99"/>
        </Node>
      </Node>
    </BinaryTree>
    <BinaryTree type="DecisionTree" boostWeight="1.0000000000000000e+00" itree="936">
      <Node pos="s" depth="0" NCoef="0" IVar="2" Cut="1.4904832839965820e+00" cType="1" res="1.3535186648368835e-02" rms="4.4859707355499268e-01" purity="5.2099847793579102e-01" nType="0">
        <Node pos="l" depth="1" NCoef="0" IVar="5" Cut="5.5871981382369995e-01" cType="1" res="2.4250796064734459e-02" rms="4.5786437392234802e-01" purity="5.6374895572662354e-01" nType="0">
          <Node pos="l" depth="2" NCoef="0" IVar="-1" Cut="0.0000000000000000e+00" cType="1" res="1.0638638632372022e-03" rms="4.5498815178871155e-01" purity="5.6884336471557617e-01" nType="-99"/>
          <Node pos="r" depth="2" NCoef="0" IVar="-1" Cut="0.0000000000000000e+00" cType="1" res="-9.4238412566483021e-04" rms="4.6037781238555908e-01" purity="5.4849457740783691e-01" nType="-99"/>
        </Node>
        <Node pos="r" depth="1" NCoef="0" IVar="4" Cut="1.1131048583984375e+02" cType="1" res="-7.2225160896778107e-02" rms="3.5458996891975403e-01" purity="1.7885346710681915e-01" nType="0">
          <Node pos="l" depth="2" NCoef="0" IVar="-1" Cut="0.0000000000000000e+00" cType="1" res="-2.7607379015535116e-03" rms="3.4277883172035217e-01" purity="1.6766482591629028e-01" nType="-99"/>
          <Node pos="r" depth="2" NCoef="0" IVar="-1" Cut="0.0000000000000000e+00" cType="1" res="-1.0673064971342683e-03" rms="3.6072921752929688e-01" purity="1.8855969607830048e-01" nType="-99"/>
        </Node>
      </Node>
    </BinaryTree>
    <BinaryTree type="DecisionTree" boostWeight="1.0000000000000000e+00" itree="937">
      <Node pos="s" depth="0" NCoef="0" IVar="4" Cut="1.1658093261718750e+02" cType="1" res="3.6494820960797369e-04" rms="4.5401015877723694e-01" purity="5.0197261571884155e-01" nType="0">
        <Node pos="l" depth="1" NCoef="0" IVar="6" Cut="4.9474664306640625e+02" cType="1" res="-2.7896489948034286e-02" rms="4.5462581515312195e-01" purity="4.8583361506462097e-01" nType="0">
          <Node pos="l" depth="2" NCoef="0" IVar="-1" Cut="0.0000000000000000e+00" cType="1" res="-1.6384800255764276e-04" rms="4.4863346219062805e-01" purity="4.8032861948013306e-01" nType="-99"/>
          <Node pos="r" depth="2" NCoef="0" IVar="-1" Cut="0.0000000000000000e+00" cType="1" res="-2.3482118267565966e-03" rms="4.6705567836761475e-01" purity="5.0328081846237183e-01" nType="-99"/>
        </Node>
        <Node pos="r" depth="1" NCoef="0" IVar="1" Cut="4.9437370300292969e+01" cType="1" res="3.4658744931221008e-02" rms="4.5088928937911987e-01" purity="5.2155643701553345e-01" nType="0">
          <Node pos="l" depth="2" NCoef="0" IVar="-1" Cut="0.0000000000000000e+00" cType="1" res="4.3578404001891613e-03" rms="4.1647636890411377e-01" purity="6.0351079702377319e-01" nType="-99"/>
          <Node pos="r" depth="2" NCoef="0" IVar="-1" Cut="0.0000000000000000e+00" cType="1" res="2.1814709180034697e-04" rms="4.5328781008720398e-01" purity="5.0491678714752197e-01" nType="-99"/>
        </Node>
      </Node>
    </BinaryTree>
    <BinaryTree type="DecisionTree" boostWeight="1.0000000000000000e+00" itree="938">
      <Node pos="s" depth="0" NCoef="0" IVar="5" Cut="4.2560210824012756e-01" cType="1" res="-2.8309994377195835e-03" rms="4.4223150610923767e-01" purity="4.9540153145790100e-01" nType="0">
        <Node pos="l" depth="1" NCoef="0" IVar="5" Cut="3.3328413963317871e-01" cType="1" res="-2.2291837260127068e-02" rms="4.3868884444236755e-01" purity="4.3285310268402100e-01" nType="0">
          <Node pos="l" depth="2" NCoef="0" IVar="-1" Cut="0.0000000000000000e+00" cType="1" res="1.2702845560852438e-04" rms="4.3531188368797302e-01" purity="4.3130856752395630e-01" nType="-99"/>
          <Node pos="r" depth="2" NCoef="0" IVar="-1" Cut="0.0000000000000000e+00" cType="1" res="-2.0221222657710314e-03" rms="4.3974301218986511e-01" purity="4.3648806214332581e-01" nType="-99"/>
        </Node>
        <Node pos="r" depth="1" NCoef="0" IVar="5" Cut="7.0976233482360840e-01" cType="1" res="2.4873785674571991e-02" rms="4.4576320052146912e-01" purity="5.8444648981094360e-01" nType="0">
          <Node pos="l" depth="2" NCoef="0" IVar="-1" Cut="0.0000000000000000e+00" cType="1" res="8.8304292876273394e-04" rms="4.4615653157234192e-01" purity="5.9275335073471069e-01" nType="-99"/>
          <Node pos="r" depth="2" NCoef="0" IVar="-1" Cut="0.0000000000000000e+00" cType="1" res="-9.6885516541078687e-04" rms="4.3782407045364380e-01" purity="5.4102164506912231e-01" nType="-99"/>
        </Node>
      </Node>
    </BinaryTree>
    <BinaryTree type="DecisionTree" boostWeight="1.0000000000000000e+00" itree="939">
      <Node pos="s" depth="0" NCoef="0" IVar="0" Cut="6.0759854316711426e+00" cType="1" res="-1.1017265729606152e-02" rms="4.5750501751899719e-01" purity="4.8820787668228149e-01" nType="0">
        <Node pos="l" depth="1" NCoef="0" IVar="0" Cut="5.0003952980041504e+00" cType="1" res="3.4155409783124924e-02" rms="4.4926619529724121e-01" purity="3.4605029225349426e-01" nType="0">
          <Node pos="l" depth="2" NCoef="0" IVar="-1" Cut="0.0000000000000000e+00" cType="1" res="-1.5579303726553917e-03" rms="3.5241940617561340e-01" purity="1.4886391162872314e-01" nType="-99"/>
          <Node pos="r" depth="2" NCoef="0" IVar="-1" Cut="0.0000000000000000e+00" cType="1" res="1.6799408476799726e-03" rms="4.7886502742767334e-01" purity="4.2936772108078003e-01" nType="-99"/>
        </Node>
        <Node pos="r" depth="1" NCoef="0" IVar="5" Cut="2.9480239748954773e-01" cType="1" res="-2.9179431498050690e-02" rms="4.5952609181404114e-01" purity="5.4536384344100952e-01" nType="0">
          <Node pos="l" depth="2" NCoef="0" IVar="-1" Cut="0.0000000000000000e+00" cType="1" res="-1.7058990197256207e-03" rms="4.5485177636146545e-01" purity="4.1759473085403442e-01" nType="-99"/>
          <Node pos="r" depth="2" NCoef="0" IVar="-1" Cut="0.0000000000000000e+00" cType="1" res="-1.9488424004521221e-04" rms="4.6012392640113831e-01" purity="6.0407626628875732e-01" nType="-99"/>
        </Node>
      </Node>
    </BinaryTree>
    <BinaryTree type="DecisionTree" boostWeight="1.0000000000000000e+00" itree="940">
      <Node pos="s" depth="0" NCoef="0" IVar="3" Cut="2.3503105640411377e+00" cType="1" res="1.3960497453808784e-03" rms="4.5315417647361755e-01" purity="5.1276385784149170e-01" nType="0">
        <Node pos="l" depth="1" NCoef="0" IVar="2" Cut="1.0354447364807129e+00" cType="1" res="-1.3514526188373566e-02" rms="4.5831257104873657e-01" purity="5.6035459041595459e-01" nType="0">
          <Node pos="l" depth="2" NCoef="0" IVar="-1" Cut="0.0000000000000000e+00" cType="1" res="1.3465086522046477e-04" rms="4.5740708708763123e-01" purity="6.2643676996231079e-01" nType="-99"/>
          <Node pos="r" depth="2" NCoef="0" IVar="-1" Cut="0.0000000000000000e+00" cType="1" res="-1.3333236565813422e-03" rms="4.5707443356513977e-01" purity="3.9611658453941345e-01" nType="-99"/>
        </Node>
        <Node pos="r" depth="1" NCoef="0" IVar="3" Cut="2.7278809547424316e+00" cType="1" res="4.8846494406461716e-02" rms="4.3292871117591858e-01" purity="3.6131408810615540e-01" nType="0">
          <Node pos="l" depth="2" NCoef="0" IVar="-1" Cut="0.0000000000000000e+00" cType="1" res="2.3712145630270243e-03" rms="4.6258482336997986e-01" purity="4.4711759686470032e-01" nType="-99"/>
          <Node pos="r" depth="2" NCoef="0" IVar="-1" Cut="0.0000000000000000e+00" cType="1" res="-2.7421296108514071e-03" rms="2.9203811287879944e-01" purity="1.0816657543182373e-01" nType="-99"/>
        </Node>
      </Node>
    </BinaryTree>
    <BinaryTree type="DecisionTree" boostWeight="1.0000000000000000e+00" itree="941">
      <Node pos="s" depth="0" NCoef="0" IVar="0" Cut="6.0694751739501953e+00" cType="1" res="3.3425409346818924e-02" rms="4.3919336795806885e-01" purity="5.4311096668243408e-01" nType="0">
        <Node pos="l" depth="1" NCoef="0" IVar="6" Cut="4.0276641845703125e+02" cType="1" res="-5.7841404341161251e-03" rms="4.3758788704872131e-01" purity="3.1737408041954041e-01" nType="0">
          <Node pos="l" depth="2" NCoef="0" IVar="-1" Cut="0.0000000000000000e+00" cType="1" res="-1.4135212404653430e-03" rms="4.0325331687927246e-01" purity="2.1311879158020020e-01" nType="-99"/>
          <Node pos="r" depth="2" NCoef="0" IVar="-1" Cut="0.0000000000000000e+00" cType="1" res="1.3589879963546991e-03" rms="4.6942052245140076e-01" purity="4.5035415887832642e-01" nType="-99"/>
        </Node>
        <Node pos="r" depth="1" NCoef="0" IVar="6" Cut="5.4336315917968750e+02" cType="1" res="5.1647320389747620e-02" rms="4.3874651193618774e-01" purity="6.4801800251007080e-01" nType="0">
          <Node pos="l" depth="2" NCoef="0" IVar="-1" Cut="0.0000000000000000e+00" cType="1" res="1.7514573410153389e-03" rms="4.4023397564888000e-01" purity="6.4786535501480103e-01" nType="-99"/>
          <Node pos="r" depth="2" NCoef="0" IVar="-1" Cut="0.0000000000000000e+00" cType="1" res="-4.5029135071672499e-04" rms="4.2653265595436096e-01" purity="6.4854097366333008e-01" nType="-99"/>
        </Node>
      </Node>
    </BinaryTree>
    <BinaryTree type="DecisionTree" boostWeight="1.0000000000000000e+00" itree="942">
      <Node pos="s" depth="0" NCoef="0" IVar="2" Cut="5.5722469091415405e-01" cType="1" res="-1.8269844353199005e-02" rms="4.4627919793128967e-01" purity="4.8320931196212769e-01" nType="0">
        <Node pos="l" depth="1" NCoef="0" IVar="3" Cut="1.9389261007308960e+00" cType="1" res="5.3850766271352768e-02" rms="4.4886380434036255e-01" purity="7.1641284227371216e-01" nType="0">
          <Node pos="l" depth="2" NCoef="0" IVar="-1" Cut="0.0000000000000000e+00" cType="1" res="-5.2131774282315746e-05" rms="4.9740463495254517e-01" purity="6.5613561868667603e-01" nType="-99"/>
          <Node pos="r" depth="2" NCoef="0" IVar="-1" Cut="0.0000000000000000e+00" cType="1" res="2.6785687077790499e-03" rms="3.8710367679595947e-01" purity="7.7609390020370483e-01" nType="-99"/>
        </Node>
        <Node pos="r" depth="1" NCoef="0" IVar="0" Cut="8.4295864105224609e+00" cType="1" res="-2.6733802631497383e-02" rms="4.4520953297615051e-01" purity="4.5584094524383545e-01" nType="0">
          <Node pos="l" depth="2" NCoef="0" IVar="-1" Cut="0.0000000000000000e+00" cType="1" res="-8.8040716946125031e-04" rms="4.5276403427124023e-01" purity="4.0353870391845703e-01" nType="-99"/>
          <Node pos="r" depth="2" NCoef="0" IVar="-1" Cut="0.0000000000000000e+00" cType="1" res="1.1947834864258766e-03" rms="3.9270019531250000e-01" purity="7.5136852264404297e-01" nType="-99"/>
        </Node>
      </Node>
    </BinaryTree>
  </Weights>
</MethodSetup>
